{"[UNK]":0,"[CLS]":1,"[SEP]":2,"[PAD]":3,"[MASK]":4,"!":5,"\"":6,"#":7,"$":8,"%":9,"&":10,"'":11,"(":12,")":13,"*":14,"+":15,",":16,"-":17,".":18,"/":19,"0":20,"1":21,"2":22,"3":23,"4":24,"5":25,"6":26,"7":27,"8":28,"9":29,":":30,";":31,"<":32,"=":33,">":34,"?":35,"@":36,"A":37,"B":38,"C":39,"D":40,"E":41,"F":42,"G":43,"H":44,"I":45,"J":46,"K":47,"L":48,"M":49,"N":50,"O":51,"P":52,"Q":53,"R":54,"S":55,"T":56,"U":57,"V":58,"W":59,"X":60,"Y":61,"Z":62,"[":63,"\\":64,"]":65,"^":66,"_":67,"`":68,"a":69,"b":70,"c":71,"d":72,"e":73,"f":74,"g":75,"h":76,"i":77,"j":78,"k":79,"l":80,"m":81,"n":82,"o":83,"p":84,"q":85,"r":86,"s":87,"t":88,"u":89,"v":90,"w":91,"x":92,"y":93,"z":94,"{":95,"|":96,"}":97,"~":98,"¡":99,"¢":100,"£":101,"¤":102,"¥":103,"¦":104,"§":105,"¨":106,"©":107,"ª":108,"«":109,"¬":110,"®":111,"¯":112,"°":113,"±":114,"²":115,"³":116,"´":117,"µ":118,"¶":119,"·":120,"¸":121,"¹":122,"º":123,"»":124,"¼":125,"½":126,"¾":127,"¿":128,"Â":129,"Ã":130,"Ä":131,"Å":132,"Æ":133,"Ç":134,"È":135,"É":136,"Ê":137,"Ë":138,"Ì":139,"Í":140,"Î":141,"Ï":142,"Ð":143,"Ñ":144,"Ò":145,"Ó":146,"Ô":147,"Õ":148,"Ö":149,"×":150,"Ø":151,"Ù":152,"Ú":153,"Û":154,"Ü":155,"Þ":156,"ß":157,"à":158,"á":159,"â":160,"ã":161,"ä":162,"å":163,"æ":164,"ç":165,"è":166,"é":167,"ê":168,"ë":169,"ì":170,"í":171,"î":172,"ï":173,"ð":174,"Ā":175,"ā":176,"Ă":177,"ĉ":178,"Ċ":179,"ċ":180,"Č":181,"č":182,"ě":183,"Ġ":184,"ġ":185,"Ģ":186,"ģ":187,"Ĥ":188,"ĥ":189,"Ħ":190,"ħ":191,"Ĩ":192,"ĩ":193,"Ī":194,"ī":195,"Ĭ":196,"ĭ":197,"Į":198,"į":199,"İ":200,"ı":201,"Ĳ":202,"ĳ":203,"Ĵ":204,"ĵ":205,"Ķ":206,"ķ":207,"ĸ":208,"Ĺ":209,"ĺ":210,"Ļ":211,"ļ":212,"Ľ":213,"ľ":214,"Ŀ":215,"ŀ":216,"Ł":217,"ł":218,"Ń":219,"Ġthe":220,"ĠĠĠĠĠ":221,"Ġa":222,"in":223,"er":224,"tion":225,"Ġt":226,"re":227,"Ġof":228,"en":229,"Ġs":230,"Ġand":231,"at":232,"on":233,"or":234,"Ġc":235,"Ġw":236,"is":237,"es":238,"ed":239,"al":240,"it":241,"an":242,"Ġp":243,"Ġf":244,"Ġb":245,"ou":246,"ing":247,"Ġin":248,"âĶĢâĶĢâĶĢâĶĢâĶĢâĶĢâĶĢâĶĢâĶĢâĶĢâĶĢâĶĢâĶĢâĶĢâĶĢâĶ":249,"ar":250,"Ġm":251,"Ġd":252,"ic":253,"le":254,"Ġto":255,"Ġh":256,"as":257,"ro":258,"ent":259,"Ġth":260,"--------":261,"et":262,"Ġre":263,"el":264,"Ġn":265,"om":266,"Ġwith":267,"st":268,"ec":269,"il":270,"ac":271,"ĠTh":272,"Ġl":273,"Ġe":274,"ĠĠĠ":275,"ot":276,"ight":277,"id":278,"im":279,"Ġis":280,"Ġg":281,"Ġ(":282,"ol":283,"ve":284,"am":285,"ĠI":286,"ation":287,"Ġyou":288,"âĢ":289,"us":290,"ly":291,"Ġfor":292,"ow":293,"ĠS":294,"ĠĠĠĠĠĠĠĠĠĠĠĠĠĠĠ":295,"Ġthat":296,"Ġon":297,"ver":298,"ur":299,"ĠA":300,"ĠC":301,"un":302,"ad":303,"ut":304,"Ġst":305,"Ġbe":306,"ul":307,"Ġ1":308,"Ġwh":309,"ay":310,"ig":311,"if":312,"ce":313,"==========":314,"ter":315,"Ġcon":316,"os":317,"Ġfrom":318,"ch":319,"em":320,"Ġas":321,"Ġan":322,"ir":323,"od":324,"op":325,"Ġhave":326,"Ġ$":327,"Ġpro":328,"th":329,"ĊĠĠĠĠĠĠĠ":330,"ab":331,"um":332,"ate":333,"ould":334,"ag":335,"Ġit":336,"ĠM":337,"Ġv":338,"ri":339,"Ġal":340,"Ġ\"":341,"Ġ2":342,"ĠP":343,"res":344,"pp":345,"qu":346,"Ġcomp":347,"ct":348,"ain":349,"est":350,"ere":351,"Ġex":352,"Ġr":353,"Ġwas":354,"ist":355,"Ġor":356,"ers":357,"ĠB":358,"ion":359,"ant":360,"oc":361,"Ġ\\":362,"ect":363,"00":364,"Ġare":365,"se":366,"Ġ=":367,"Ġ-":368,"iv":369,"Ġsu":370,"ity":371,"Ġat":372,"ĠF":373,"ess":374,"ound":375,"ĠH":376,"ment":377,"ore":378,"out":379,"Ġby":380,"ĠD":381,"ill":382,"our":383,"Ġde":384,"and":385,"ĠW":386,"ĠThe":387,"ĠT":388,"Ġwhich":389,"Ġsh":390,"end":391,"Ġnot":392,"her":393,"ive":394,"ĠR":395,"ke":396,"The":397,"**":398,"ap":399,"ĠL":400,"ough":401,"ĠN":402,"Ġch":403,"Ġthis":404,"ew":405,"ĊĠĠĠ":406,"ort":407,"art":408,"âĢĻ":409,"Ġwe":410,"ud":411,"Ġus":412,"ial":413,"{\\":414,"ell":415,"ure":416,"Ġbetween":417,"ies":418,"ĠG":419,"ĠE":420,"ĊĠĠĠĠĠĠĠĠĠĠĠ":421,"Ġun":422,"ated":423,"Ġse":424,"Ġhe":425,"Ġup":426,"ype":427,"pl":428,"Ġo":429,"form":430,"ine":431,"Ġyear":432,"all":433,"Ġ0":434,"Ġtr":435,"Ġknow":436,"Ġle":437,"'s":438,"og":439,"ext":440,"Ġbecause":441,"Ġ*":442,"ge":443,"ical":444,"Ġdiffer":445,"nt":446,"ff":447,").":448,"Ġcan":449,"ĠO":450,"act":451,"Ġ3":452,"ust":453,"der":454,"ue":455,"ame":456,"Ġimp":457,"ome":458,"Ġalso":459,"ib":460,"iz":461,"ĊĠ":462,"Ġres":463,"ction":464,"ase":465,"able":466,"lass":467,"are":468,"age":469,"Ġpatients":470,"Ġother":471,"ack":472,"Ġsp":473,"ard":474,"Ġj":475,"ult":476,"Ġabout":477,"ast":478,"ublic":479,");":480,"ĠâĢľ":481,"Ġtime":482,"ook":483,"ÂłÂłÂłÂłÂłÂłÂłÂłÂłÂłÂłÂłÂłÂłÂłÂłÂłÂłÂłÂłÂłÂłÂłÂł":484,"Ġ{":485,"ence":486,"Ġcont":487,"_{":488,"ost":489,"ĠIn":490,"ath":491,"ans":492,"ĠU":493,"Ġinclud":494,"Ġad":495,"ip":496,"Ġwere":497,"Ġpl":498,"łÂłÂłÂłÂłÂłÂłÂłÂłÂłÂłÂłÂłÂłÂłÂłÂłÂłÂłÂłÂłÂłÂłÂłÂ":499,"ĠJ":500,"ep":501,"av":502,"=\"":503,".\"":504,"01":505,"ak":506,"Ġwork":507,"ign":508,"Ġall":509,"Ġfollow":510,"Ġ[":511,"per":512,"Ġint":513,"Ġpeople":514,"Ġ+":515,"Ġacc":516,"ĢâĶĢâĶĢâĶĢâĶĢâĶĢâĶĢâĶĢâĶ":517,"Ġcomm":518,"ition":519,"ens":520,"Ġhas":521,"Ġdo":522,"ach":523,"ire":524,"ide":525,"ft":526,"ind":527,"ary":528,"Ġne":529,"ous":530,"ice":531,"Ġ4":532,"Ġme":533,"one":534,"Ġtwo":535,"Ġsaid":536,"Ġapp":537,"Ġsystem":538,"Ġgroup":539,"Ġbut":540,"Ġdis":541,"ress":542,"ations":543,"du":544,"Ġreturn":545,"pt":546,"ru":547,"Ġwill":548,"int":549,"Ġlike":550,"ong":551,"Ġar":552,"ph":553,"),":554,"--":555,"Ġgo":556,"ile":557,"ĠĠ":558,"Ġ&":559,"ber":560,"Ċĉĉ":561,"ose":562,"Ġ5":563,"Ġfirst":564,"Ġ<":565,"ance":566,"Ġif":567,"Ġen":568,"Ġafter":569,"Ġper":570,"ia":571,"ef":572,"ely":573,"Ġout":574,"Ġpre":575,"ally":576,"ace":577,"ra":578,"ang":579,"ord":580,"ory":581,"Ġone":582,"Ġcl":583,"ĊĠĠĠĠĠĠĠĠĠĠĠĠĠĠĠ":584,"...":585,"ĊĠĠĠĠĠ":586,"Ġqu":587,"Ġhis":588,"Ġev":589,"Ġthey":590,"own":591,"Ġop":592,"âĢĿ":593,"ail":594,"ry":595,"ĠSt":596,"Ġso":597,"}\\":598,"Ġsignificant":599,"Ġdata":600,"bject":601,"ors":602,"//":603,"Ġpart":604,"Ġmore":605,"Âł":606,"Ġtheir":607,"ĠK":608,"Ġinter":609,"Ġthere":610,"Ġ$\\":611,"ys":612,"ake":613,"Ġfunction":614,"Ġag":615,"ond":616,"ents":617,"Ġdevelop":618,"Ġhigh":619,"ite":620,"very":621,"ield":622,"bs":623,"Ġmethod":624,"ĠĠĠĠ":625,"}$":626,"Ġyour":627,"ount":628,"ates":629,"Ġbeen":630,"erm":631,"Ġhad":632,"right":633,"ree":634,"frac":635,"Ġgener":636,"Ġ}":637,"ric":638,"Ġany":639,"Ġno":640,"cl":641,"ont":642,"Ġman":643,"Ġconsider":644,"Ġthrough":645,"Ġk":646,"Ġrec":647,"Ġwho":648,"Ġ\\[[@":649,"erv":650,"Ġass":651,"ll":652,"Ġ'":653,"ish":654,"te":655,"ĠV":656,"Ġwould":657,"Ġincre":658,"Ġwhen":659,"Ġ6":660,"Ġeffect":661,"In":662,"enc":663,"Ġproblem":664,"gr":665,"reat":666,"old":667,"Ġindividual":668,"Ġrep":669,"\\]":670,"^{":671,"Ġthan":672,"Ġexp":673,"Ġover":674,"Ġmy":675,"Ġdef":676,"ild":677,"Ġsc":678,"------------------------":679,"</":680,"row":681,"ub":682,"rib":683,"oth":684,"Ġ19":685,"Ġits":686,"owever":687,"}}":688,"'t":689,"math":690,"ink":691,"10":692,"lect":693,"Ġpossib":694,"ex":695,"vers":696,"Ġvari":697,"Ġpoint":698,"ie":699,"Ġ_":700,"ays":701,"get":702,"Ġsomething":703,"tions":704,"ons":705,"hat":706,"Ġnew":707,"ass":708,"ample":709,"Ġoff":710,"Ġam":711,"tr":712,"Ġsome":713,"]{}":714,"ater":715,"ode":716,"ied":717,"ings":718,"Ġnumber":719,"ĠCh":720,"ĠY":721,"lo":722,"com":723,"19":724,"ttp":725,"Ġbefore":726,"Ġunder":727,"Ġpr":728,"ick":729,"Ġact":730,"Ġcurrent":731,"Ġour":732,"Ġrel":733,"Ġvalue":734,"Ġget":735,"Ġemploy":736,"Ġdes":737,"Ġcourt":738,"Ġ7":739,"ov":740,"ref":741,"ative":742,"left":743,"ark":744,"Ġinto":745,"iss":746,"Ġstudy":747,"uc":748,"ĠIt":749,"Ġonly":750,"Ġdec":751,"ian":752,"Ġworld":753,"Ġmodel":754,"Ġmay":755,"ĠĠĠĠĠĠĠĠĠĠĠĠĠĠĠĠĠĠĠĠĠĠĠĠĠĠĠĠĠĠ":756,"Ġph":757,"ambda":758,"nd":759,"ĠâĢ":760,"vi":761,"](#":762,"Ġro":763,"Ġab":764,"aw":765,"ular":766,"ert":767,"ock":768,"Ġpresent":769,"ove":770,"Ġsec":771,"Ġinv":772,"eg":773,"12":774,"Ġmade":775,"Ġprocess":776,"Ġher":777,"Ġcharacter":778,"Ġreg":779,"Ġadd":780,"Ġ8":781,"Ġlevel":782,"Ġtrans":783,"Ġthem":784,"ma":785,"âĸĶâĸĶâĸĶâĸĶâĸĶâĸĶâĸĶâĸĶâĸĶâĸĶâĸĶâĸĶâĸĶ":786,"ĊĊ":787,"Ġsupport":788,"ĠAmeric":789,"Ġco":790,"Ġanalysis":791,"Ġmuch":792,"Ġwhat":793,"ear":794,"ĠThis":795,"Ġind":796,"anc":797,"ient":798,"Ġim":799,"Ġhelp":800,"Th":801,"ased":802,"Ġgr":803,"Ġsuch":804,"Ġform":805,"ne":806,"olog":807,"Ġ201":808,"ating":809,"Ġtechn":810,"itt":811,"Ġcol":812,"app":813,"ĠWe":814,"up":815,"Ġduring":816,"ix":817,"Ġthese":818,"Ġobtain":819,"Ġresp":820,"elf":821,"ility":822,"Ġ9":823,"Ġjust":824,"ym":825,"Ġ10":826,"Ġprov":827,"str":828,"sp":829,"ĠĠĠĠĠĠĠĠĠĠ":830,"Ġuse":831,"ox":832,"Ġwhere":833,"ific":834,"ss":835,"Ġdet":836,"ĠUniversity":837,"Ġthen":838,"ident":839,"ty":840,"Ġnetwork":841,"Ġneed":842,"Ġset":843,"Ġpol":844,"fer":845,"ution":846,"alpha":847,"Ġrequire":848,"ug":849,"Ġcells":850,"Ġclass":851,"Ġsmall":852,"Ġgovernment":853,"Ġcould":854,"ith":855,"ime":856,"Ġresult":857,"les":858,"Ġrem":859,"Ġagainst":860,"Ġcom":861,"ize":862,"Ġsimilar":863,"()":864,"Ġac":865,"[@":866,"Ġy":867,"11":868,"ĠUnited":869,"\",":870,"ions":871,"ange":872,"Ġsuggest":873,"he":874,"ise":875,"als":876,"ob":877,"Ġused":878,"Ġperson":879,"lement":880,"Ġcontrol":881,"ues":882,"20":883,"tern":884,"Ġsub":885,"Ġfe":886,"ual":887,"ning":888,"Ġbl":889,"Ġdirect":890,"Ċĉ":891,"Ġinformation":892,"Ġshow":893,"Ġsur":894,"->":895,"Ġfact":896,"Ġpotential":897,"ER":898,"Ġcor":899,"ax":900,"to":901,"ev":902,"Ġfl":903,"Ġdid":904,"Ġshould":905,"type":906,"red":907,"rop":908,"eta":909,"Ġfurther":910,"Ġatt":911,"\">":912,"Ġspec":913,"Ġend":914,"Ġresearch":915,"orm":916,"ull":917,"ced":918,"fig":919,"Ġdist":920,"Ġfamily":921,"000":922,"ower":923,"ĠHe":924,"ks":925,"ection":926,"its":927,"Ġstr":928,"io":929,"ren":930,"inal":931,"ON":932,"Ġestablish":933,"Ġcondition":934,"###":935,"Ġusing":936,"Ġmajor":937,"ities":938,"Ġavailable":939,"Ġ.":940,"ics":941,".,":942,"15":943,"ruct":944,"ause":945,"Ġsee":946,"ict":947,"Ġshe":948,"IN":949,"ement":950,"Ġschool":951,"rit":952,"Ġsince":953,"aintiff":954,"Category":955,"Ġmost":956,"Ġenergy":957,"Ġhealth":958,"Ġerr":959,"port":960,"ood":961,"Ġassociated":962,"){":963,"Ġlife":964,"Ġback":965,"Ġbusiness":966,")$":967,"13":968,"mathcal":969,"cription":970,"16":971,"Ġwell":972,"Ġem":973,"Ġparamet":974,"Ġtest":975,"Ġstat":976,"Ġclaim":977,"Ġ$$\\":978,"Ġi":979,"duct":980,"li":981,"Ġ:":982,"ures":983,"Ġanother":984,"Ġtreatment":985,"Ġhim":986,"Ġdifferent":987,"_{\\":988,"ational":989,"Ġright":990,"pos":991,"atch":992,"pr":993,"ven":994,"Ġgiven":995,"Ġocc":996,"ined":997,"Ġmonth":998,"Ġcase":999,"Ġeach":1000,"Ġenvironment":1001,"ograph":1002,"ute":1003,"arg":1004,"rom":1005,"alcul":1006,"Ġprogram":1007,"14":1008,"Ġcons":1009,"Ġalready":1010,"Ġdiscuss":1011,"âĢī":1012,"ected":1013,"ator":1014,"urn":1015,"label":1016,"Ġwant":1017,"ically":1018,"Ġmechanism":1019,"Ġhow":1020,"Ġinf":1021,"ized":1022,"(\\":1023,"Ġte":1024,"Ġdoes":1025,"imes":1026,"Ġent":1027,"Ġdifficult":1028,"Ġinst":1029,"Ġ[@":1030,"und":1031,"Ġsuccess":1032,"Ġconst":1033,"Ġmin":1034,"Ġapplic":1035,"over":1036,"Ġimportant":1037,"Ġmake":1038,"Ġauth":1039,"Ġespecially":1040,"Ġevidence":1041,"Ġpos":1042,"elta":1043,"Ġlimit":1044,"Ġsame":1045,"ee":1046,"ĠWh":1047,"Ġbr":1048,"ared":1049,"\"}":1050,"let":1051,"ret":1052,"val":1053,"par":1054,"]\\].":1055,"Ġwhether":1056,"Ġ200":1057,"yn":1058,"Ġevery":1059,"],":1060,"Ġeven":1061,"upp":1062,"Ġdi":1063,"ength":1064,"Ġyears":1065,"ES":1066,"put":1067,"ata":1068,"ases":1069,"Ġfind":1070,"18":1071,"Ġobserv":1072,"cript":1073,"Ġtri":1074,"cent":1075,"Ġcall":1076,"ants":1077,"Ġthose":1078,"air":1079,"Ġx":1080,"Ġlarge":1081,"Ġboth":1082,"con":1083,"Ġmed":1084,"sh":1085,"Ġpartic":1086,"ash":1087,"Ġ|":1088,"Ġway":1089,"Ġdescrib":1090,"Ġbetter":1091,"yl":1092,"St":1093,"âĪĴ":1094,"Ġnow":1095,"Ġsimp":1096,"Ġ12":1097,"Ġvery":1098,"Ġdon":1099,"yp":1100,"mathbb":1101,"Ġser":1102,"Ġ@":1103,"))":1104,"html":1105,"Ġrepresent":1106,"ense":1107,"ins":1108,"Ġel":1109,"ful":1110,"ason":1111,"Ġmeasure":1112,"ave":1113,"ages":1114,"ature":1115,"Ġlong":1116,"AT":1117,"===":1118,"ĠCom":1119,"pro":1120,"Ġke":1121,"Ġclear":1122,"Ġexper":1123,"eth":1124,"ward":1125,",\\":1126,"rm":1127,"cept":1128,"Ġfound":1129,"Ġbu":1130,"../../":1131,"led":1132,"oun":1133,"50":1134,"Ġloc":1135,"ole":1136,"Ġbel":1137,"}{":1138,"Ġbeing":1139,"Ġhere":1140,"Ġquestion":1141,"Ġlook":1142,"Ġplay":1143,"ression":1144,"ok":1145,"igned":1146,"ines":1147,"ale":1148,"ich":1149,"17":1150,"Ġview":1151,"Ġthink":1152,"Ġpublic":1153,"Ġcar":1154,"ting":1155,"Ġeconom":1156,"Ġmany":1157,"ĠQ":1158,"ments":1159,"Ġ/":1160,"oid":1161,"Ġval":1162,"aking":1163,"ĢâĶĢâĶĢâĶĢâĶ":1164,"ved":1165,"the":1166,"ified":1167,"ively":1168,"ospital":1169,"30":1170,"line":1171,"sqrt":1172,"of":1173,"cer":1174,"?\"":1175,"Ġcirc":1176,"Ġgu":1177,"It":1178,"Ġext":1179,"ices":1180,"Ġstud":1181,"Ġfil":1182,"32":1183,"Ġuntil":1184,"',":1185,"Ġmultiple":1186,"Ġequ":1187,"Ġhaving":1188,"201":1189,"Ġreport":1190,"Ġmembers":1191,"ĠÂ":1192,"ner":1193,"ank":1194,"Ġprivate":1195,"Ġ//":1196,"Ġins":1197,"ik":1198,"Ġlittle":1199,"Ġcorrespond":1200,"\":":1201,"Ġsol":1202,"Ġbehavi":1203,"ms":1204,"ible":1205,"begin":1206,"Ġorder":1207,"Ġhuman":1208,"view":1209,"ĊĊĠĠĠ":1210,"Ġprevious":1211,"ĠFor":1212,"ody":1213,"Ġgood":1214,"Ġwhile":1215,"Ġeither":1216,"ĠĠĠĠĠĠĠĠ":1217,".âĢĿ":1218,"Ġalways":1219,"Ġterm":1220,"day":1221,"ness":1222,"Ġdemonstr":1223,"Ġhigher":1224,"ocument":1225,"::":1226,"not":1227,"Ġorgan":1228,"Ġweek":1229,"25":1230,"ministr":1231,"ĠThese":1232,"ps":1233,"ng":1234,"set":1235,"Ġmaterial":1236,"Ġname":1237,"Ġgen":1238,"Ġstart":1239,"We":1240,"Ġnon":1241,"Ġdown":1242,"ually":1243,"ision":1244,"oy":1245,"ld":1246,"ts":1247,"ĠLet":1248,"Ġserv":1249,"Ġcount":1250,"://":1251,"ĠIf":1252,"Ġfr":1253,"Ġrelationship":1254,"Ġreceived":1255,"AR":1256,"Ġtotal":1257,"ĠâĢĵ":1258,"Ġread":1259,"EN":1260,"Ġsingle":1261,"Ġdep":1262,"ality":1263,"af":1264,"ĠAl":1265,"Ġstandard":1266,"ource":1267,"Ċĉĉĉ":1268,"Ġsecond":1269,"Ġproject":1270,"Ġthree":1271,"fficient":1272,"Ġhand":1273,"ĠCourt":1274,"Ġchildren":1275,"Ġown":1276,"Ġapproach":1277,"************************":1278,"Ġseveral":1279,"ĠJohn":1280,"24":1281,"med":1282,"Ġunderstand":1283,"Ġwithout":1284,"Ġinvestig":1285,"br":1286,"Ġmod":1287,"OR":1288,"^{\\":1289,"any":1290,"Ġline":1291,"NA":1292,"ump":1293,"(-":1294,"amp":1295,"Ġstate":1296,"ST":1297,"\\[":1298,"Ġsl":1299,"aining":1300,"__":1301,"Ġprovid":1302,"ization":1303,"$,":1304,"$.":1305,"ify":1306,"Ġperiod":1307,",\"":1308,"ember":1309,"ception":1310,"Ġant":1311,"ĠAnd":1312,"80":1313,"way":1314,"eck":1315,"ystem":1316,"clude":1317,"man":1318,"Ġ20":1319,"ah":1320,"Ġactiv":1321,"ology":1322,"amples":1323,"Ġcre":1324,"ray":1325,"Ġmet":1326,"ather":1327,"ious":1328,"ability":1329,"ences":1330,"ency":1331,"Ġtarget":1332,"ĠPro":1333,"ork":1334,"ton":1335,"Ġperform":1336,"(\"":1337,"CR":1338,"ives":1339,"ead":1340,"ulation":1341,"Ġpres":1342,"Ġgreat":1343,"ists":1344,"What":1345,"Ġtype":1346,"atic":1347,"ĠBut":1348,"Ġoper":1349,"Ġproper":1350,"Ġresponse":1351,"Ġcertain":1352,"Ex":1353,"Ġcourse":1354,"ĠTr":1355,"Ġsign":1356,"ĠAs":1357,"Ġrisk":1358,"dd":1359,"au":1360,"ependent":1361,"ique":1362,"------------":1363,"Ġlast":1364,"40":1365,"ger":1366,"name":1367,"Ġ**":1368,"ism":1369,"Ġlead":1370,"Ġissue":1371,"CT":1372,"Ġpur":1373,"IT":1374,"Ġmust":1375,"arch":1376,"Ġpat":1377,"Ġtemperature":1378,"eb":1379,"String":1380,"Ġsay":1381,"Ġoften":1382,"Wh":1383,"Ġcap":1384,"Ġcontinu":1385,"Ġlaw":1386,"âĢľ":1387,"Ġbec":1388,"ĠThere":1389,"Ġet":1390,"Ġderiv":1391,"ron":1392,"ars":1393,"Ġtake":1394,"itive":1395,"ains":1396,"action":1397,"mission":1398,"Ġmatter":1399,"Ġ15":1400,"Ġrun":1401,"for":1402,"ention":1403,"22":1404,"Let":1405,"sigma":1406,"Ġfin":1407,"ann":1408,"Ġconf":1409,"ination":1410,"==============================":1411,"ane":1412,"Ġmain":1413,"Ġbre":1414,"arm":1415,"Ġcaus":1416,"alk":1417,"ces":1418,"Ġwr":1419,"bl":1420,"ross":1421,"Ġstill":1422,"Ġwomen":1423,"ames":1424,"Ġaccording":1425,"Ġbenef":1426,"Ġdisease":1427,"Ġnecessary":1428,"ouse":1429,"36":1430,"Ġestim":1431,"Ġdefendant":1432,"Ġear":1433,"ccording":1434,"augh":1435,"ule":1436,"Ġlet":1437,"agn":1438,"Ġcr":1439,"ĊĠĠ":1440,"ech":1441,"ets":1442,"ier":1443,"Ġelect":1444,"Ġchanges":1445,"ade":1446,"Ġexpl":1447,"Ġcent":1448,"Ġresults":1449,"View":1450,"ĠNew":1451,"wh":1452,"lex":1453,"].":1454,"Ġevalu":1455,"Ġinc":1456,"AL":1457,"ots":1458,"Ġthough":1459,"ci":1460,"Ġnormal":1461,"Ġmicro":1462,"Ġanswer":1463,"Ġident":1464,"35":1465,"Ġz":1466,"selves":1467,"27":1468,"Ġpost":1469,"Ġtogether":1470,"Ġstructure":1471,"ĠYou":1472,"Ġdeterm":1473,"Ġapproxim":1474,"az":1475,"Ġprobably":1476,"def":1477,"();":1478,"âĢĵ":1479,"ĠAn":1480,"Ġpublish":1481,"AN":1482,"05":1483,"Ġref":1484,"Ġday":1485,"Ġfriend":1486,"lease":1487,"Ġ18":1488,"ĠSh":1489,"200":1490,"ained":1491,"boldsymbol":1492,"atrix":1493,"Ġthird":1494,"ener":1495,"Ġfollowing":1496,"ool":1497,"ily":1498,"gamma":1499,"Ġaff":1500,"bf":1501,"ately":1502,"Ġsatisf":1503,"This":1504,"Ġallow":1505,"Ġjudgment":1506,"Ġed":1507,"duction":1508,"Ch":1509,"oup":1510,"ĠEurope":1511,"son":1512,"Ġlanguage":1513,"oot":1514,"hibit":1515,"45":1516,"Ġ16":1517,"Ġgoing":1518,"land":1519,"âĢĶ":1520,"text":1521,"sc":1522,"26":1523,"oint":1524,"Ġprotein":1525,"Ġreal":1526,"usepackage":1527,"Ġdrug":1528,"Ġprior":1529,"lection":1530,"Ġ,":1531,"var":1532,"be":1533,"Ġviol":1534,"Ġsurface":1535,"Ġwithin":1536,"Ġmark":1537,"Ġmoney":1538,")\\":1539,"www":1540,"partial":1541,"Ġcell":1542,"ural":1543,"epsilon":1544,"28":1545,"Ġprot":1546,"Ġsumm":1547,"ral":1548,"Ġdel":1549,"23":1550,"}(":1551,"ams":1552,"Ġmean":1553,"Ġinterest":1554,"Ġrecommend":1555,"ium":1556,"akes":1557,"Ġfrequ":1558,"ĠCalifornia":1559,"ID":1560,"Ġhappen":1561,"Ġcare":1562,",âĢĿ":1563,"less":1564,"Ġrequest":1565,"ouble":1566,"Ġbas":1567,"ote":1568,"oci":1569,"por":1570,"ters":1571,"},":1572,"Ġfocus":1573,"Ġadv":1574,"ĠX":1575,"Ġfield":1576,"we":1577,"Ġaddition":1578,"Ġinitial":1579,"ĊĠĠĠĠ":1580,"su":1581,"ãģ":1582,"Fig":1583,"Ġsocial":1584,"osed":1585,"Ġpass":1586,"ĠĠĠĠĠĠ":1587,"29":1588,"els":1589,"Ġversion":1590,"co":1591,"Ġrespect":1592,"Ġaround":1593,"Ġintegr":1594,"Ġexample":1595,"ĠAr":1596,"Ġ14":1597,"duced":1598,"ently":1599,"Ġfalse":1600,"vert":1601,"cont":1602,"ush":1603,"Ġothers":1604,"oss":1605,"ring":1606,"Ġpower":1607,"ĠHowever":1608,"Ġpar":1609,"37":1610,"rho":1611,"Ġarg":1612,"Ġtherap":1613,"SE":1614,"Ġcommun":1615,"Ġnumbers":1616,"Ã©":1617,"Ġarticle":1618,"Ġopen":1619,"Pro":1620,"Ġincluding":1621,"Ġlikely":1622,"ott":1623,"64":1624,"38":1625,"Ġrest":1626,"=\\":1627,"Ġlist":1628,"arent":1629,"by":1630,"pi":1631,"http":1632,"ĠEx":1633,"rel":1634,"Ġfuture":1635,"---":1636,"ĠZ":1637,"ury":1638,"reen":1639,"'m":1640,"Ġexperience":1641,"Ġtaken":1642,"ĠPh":1643,"reg":1644,"Ġu":1645,"99":1646,"read":1647,"}^{":1648,"Ġlo":1649,"equ":1650,"Ġtop":1651,"Ġlow":1652,"Ġ#":1653,"Ġmillion":1654,"Ġconcentr":1655,"Ġblood":1656,"Ġreally":1657,"Ġ\\[":1658,"ern":1659,"Ġ*/":1660,"min":1661,"Ġtry":1662,"Ġmight":1663,"lobal":1664,"Ġcontr":1665,"Ġanaly":1666,"IC":1667,"ĠNo":1668,"Ġless":1669,"Ġminutes":1670,"Ġhead":1671,"rict":1672,"Ġ</":1673,"('":1674,"34":1675,"60":1676,"sec":1677,")/":1678,"Ġhours":1679,"ĠInd":1680,"orth":1681,"Cont":1682,"Ġsupp":1683,"Ġsitu":1684,"Ġfew":1685,"mu":1686,"opy":1687,"ĠUn":1688,"Ġbased":1689,"Ġtoo":1690,"ey":1691,"Ġdevice":1692,"}_":1693,"angle":1694,"ĠApp":1695,"Ġself":1696,"RE":1697,"39":1698,"Ġbelieve":1699,"ĠJapan":1700,"roll":1701,"ector":1702,"21":1703,"eed":1704,"Ġsoftware":1705,"Ġrecord":1706,"ety":1707,"You":1708,"ension":1709,"ĠThey":1710,"ION":1711,"Ġindic":1712,"fore":1713,"^,":1714,"..":1715,"thing":1716,"Ġchange":1717,"Ġhalf":1718,"ĠAfter":1719,"Ġproduct":1720,"Ġimprove":1721,"Ġimmun":1722,"rem":1723,"igh":1724,"etic":1725,"Ġcustom":1726,"ĠOn":1727,"Ġpop":1728,"ised":1729,"widetilde":1730,"Ġfour":1731,"lu":1732,"org":1733,"infty":1734,"Ġhistory":1735,"Ġret":1736,"Ġaction":1737,"riv":1738,"Ġasked":1739,"Ġessential":1740,"Ġ11":1741,"vent":1742,"iver":1743,"$$":1744,"Ġ{#":1745,"ateg":1746,"Ġ30":1747,"Ġchallen":1748,"Ġvis":1749,"ĠSp":1750,"Ġsymptom":1751,"\\!\\!\\!\\!\\!\\!\\!":1752,"LE":1753,"Ġfile":1754,"ery":1755,"čĊč":1756,"leg":1757,"Ġleg":1758,"ĠIs":1759,"ĠWhat":1760,"lev":1761,"ĠDepartment":1762,"70":1763,"Ġcommon":1764,"Ġpath":1765,"Ġachie":1766,"ĠĠĠĠĠĠĠĠĠĠĠĠĠĠĠĠĠĠĠĠĠĠĠĠĠĠĠĠĠĠĠĠĠĠĠĠĠĠĠĠĠĠĠĠĠĠĠĠĠĠĠĠĠĠĠĠĠĠĠĠ":1767,"Ġplace":1768,"Ġfail":1769,"Ġnext":1770,"Omega":1771,"ault":1772,"Ġobject":1773,"ĠChrist":1774,"ydro":1775,"ĊĊĠ":1776,"box":1777,"Ġhome":1778,"Ġbest":1779,"self":1780,"Ġclinical":1781,"ĠAt":1782,"ĠSo":1783,"Ġvehic":1784,"Ġleft":1785,"Ġput":1786,"Ġbo":1787,"Ġconn":1788,"ited":1789,"Ġcorrect":1790,"omet":1791,"div":1792,"acy":1793,"Ġinvol":1794,"att":1795,"Ġpaper":1796,"Ġgrow":1797,"Ġprofession":1798,"}_{":1799,"add":1800,"ederal":1801,"Name":1802,"ĠCon":1803,"oll":1804,"ene":1805,"ired":1806,"75":1807,"omega":1808,"Ġparticular":1809,"Ġabove":1810,"aph":1811,"ems":1812,"'re":1813,"ĉĉ":1814,"Ġtrue":1815,"ĠCl":1816,"phi":1817,"AS":1818,"eal":1819,"mathfrak":1820,"urrent":1821,"90":1822,"Ġdisc":1823,"Ġeas":1824,"95":1825,"ĠĠĠĠĠĠĠ":1826,"To":1827,"Ġreason":1828,"Ġmotion":1829,"ification":1830,"Ġbi":1831,"Com":1832,"Ġattempt":1833,"Ġheld":1834,"ĠAll":1835,"Ġleast":1836,"Ġpossible":1837,"Ġnever":1838,"Ġofficial":1839,"iving":1840,"varepsilon":1841,"ĠUS":1842,"rightarrow":1843,"Ġpolicy":1844,"ope":1845,"Ġissues":1846,"sum":1847,"Ġconcern":1848,"Ġla":1849,"ror":1850,":**":1851,"ĠĠĠĠĠĠĠĠĠ":1852,"Ġwater":1853,"urs":1854,"ED":1855,"uck":1856,"Ġalmost":1857,"ĠPl":1858,"RO":1859,"Ġnothing":1860,"33":1861,"ending":1862,"ubuntu":1863,"Ġsk":1864,"Ġmov":1865,"tilde":1866,"IS":1867,"Ġbegin":1868,"raw":1869,"Ġidea":1870,"Tr":1871,"Ġrefer":1872,"Ġ!=":1873,"function":1874,"Ġdistribution":1875,"Ġposition":1876,"ĠFurthermore":1877,"Ġcampaign":1878,"itch":1879,"48":1880,"Ġsm":1881,"ological":1882,"aligned":1883,"Ġ==":1884,"cess":1885,"arn":1886,"ĠJanuary":1887,"Ġdue":1888,"cdot":1889,"Ġpay":1890,"Ġexpression":1891,"Ġlight":1892,"}$$":1893,"}^":1894,"Con":1895,"Ġappropriate":1896,"ET":1897,"ari":1898,"ĠâĢĶ":1899,"ina":1900,"aps":1901,"Ġrequires":1902,"Ġtrial":1903,"];":1904,"ĠSouth":1905,"Ġdisplay":1906,"ats":1907,"new":1908,"Ġdays":1909,"ĠTHE":1910,"Ġrecogn":1911,"Ġinj":1912,"eter":1913,"Ġstrength":1914,"Ġgive":1915,"If":1916,"Ġsize":1917,"ĠTo":1918,"Ġmilitary":1919,"Ġincreasing":1920,"Ġ%":1921,"Ġelement":1922,"AC":1923,"col":1924,"Ġcome":1925,"Ġmoment":1926,"Ġpredict":1927,"Ġden":1928,"ĠGr":1929,"Ġtyp":1930,"Ġcost":1931,"ior":1932,"Ġwords":1933,"uth":1934,"Ġ{\\":1935,"Ġ25":1936,"Ġaverage":1937,"Ġmon":1938,"Ġexperiment":1939,"ream":1940,"As":1941,"Ġlocal":1942,"Ġthings":1943,"Ġ17":1944,"ributed":1945,"Ġfree":1946,"yt":1947,"ister":1948,"atory":1949,"Ġbig":1950,"Ġmanufact":1951,"Ġnucle":1952,"clusion":1953,"-\\":1954,"Ġcases":1955,"Ġprom":1956,"ances":1957,"Ġ--":1958,"Ġoriginal":1959,"though":1960,"ules":1961,"ĊĠĠĠĠĠĠĠĠĠĠĠĠĠĠĠĠĠĠĠ":1962,"Ġeffort":1963,"Ġpe":1964,"ffer":1965,"Ġ)":1966,"Ġcode":1967,"data":1968,"ĊĠĠĠĠĠĠĠĠĠ":1969,"ĠState":1970,"mitted":1971,"44":1972,"Ġproperties":1973,"Ġphysical":1974,"Ġshown":1975,"gen":1976,"ication":1977,"Ġdr":1978,"ries":1979,"Ġmolec":1980,"nal":1981,"ĠFr":1982,"ĠStates":1983,"Ġelse":1984,"Ġcomplete":1985,"Ġtumor":1986,"Ġpolitical":1987,"Ġ13":1988,"Ġvol":1989,"Ġpressure":1990,"Type":1991,"chem":1992,"Id":1993,"width":1994,"ask":1995,"ables":1996,"Ġteam":1997,"Ġpsych":1998,"Value":1999,"erc":2000,"Ġprovide":2001,"Ã¿Ã¿Ã¿":2002,"Ġgot":2003,"ital":2004,"inc":2005,"Ġsusp":2006,"oper":2007,"ape":2008,"ĠRes":2009,"Ġgeneral":2010,"Ġoutside":2011,"Ġsuper":2012,"68":2013,"Ġreplac":2014,"ended":2015,"Ġalgorith":2016,"\"/>":2017,"Ġrandom":2018,"eq":2019,"98":2020,"Ġsubstantial":2021,"Ġagain":2022,"Ġcomb":2023,"Ġturn":2024,"duce":2025,"Ġgame":2026,"Ġknown":2027,"Ġsw":2028,"Ġspecific":2029,"Ġbuild":2030,"Ġcalled":2031,"Ġdirection":2032,"erg":2033,"CONCLUSION":2034,"Ġrate":2035,"ruction":2036,"Ġcounsel":2037,"ney":2038,"Ġkeep":2039,"emocr":2040,"For":2041,"ymmet":2042,"Ġfeel":2043,"):":2044,"67":2045,"uss":2046,"cle":2047,"Ġspace":2048,"Ġradi":2049,"Ġsequence":2050,"lambda":2051,"beta":2052,"But":2053,"back":2054,"hip":2055,"04":2056,"Ġcur":2057,"Ġdiv":2058,"oph":2059,"Ġbro":2060,"mon":2061,"Ġmaxim":2062,"iddle":2063,"ides":2064,"Ġobvious":2065,"pm":2066,"so":2067,"Ġaut":2068,"ison":2069,"\\_":2070,"Ġprimary":2071,"65":2072,"UL":2073,"ayer":2074,"Ġ24":2075,"ait":2076,"Ġimmediately":2077,"aces":2078,"Ġwon":2079,"97":2080,"Ġplan":2081,"Ġfeatures":2082,"Ġvalues":2083,"Ġjurisdiction":2084,"{{\\":2085,"Ġable":2086,"ided":2087,"bar":2088,"ibr":2089,"Ġmass":2090,"osis":2091,"Ġstudies":2092,"Ġknowledge":2093,"Ġ>":2094,"Ġmeans":2095,"Ġabs":2096,"ured":2097,"ators":2098,"ther":2099,"itude":2100,"Ġweeks":2101,"ĠOctober":2102,"essage":2103,"Ġquestions":2104,"ĠSuppose":2105,"file":2106,"></":2107,"Ġarea":2108,"fl":2109,"Ġneg":2110,"ĠLicense":2111,"Ġcontinue":2112,"0000":2113,"INTRODUCTION":2114,"this":2115,"other":2116,"_\\":2117,"})":2118,"Ġopportunity":2119,"Cl":2120,"ĠNovember":2121,"Ġfull":2122,"Ġmove":2123,"aff":2124,"ressed":2125,"ĠWashington":2126,"Ġappear":2127,"Ġreview":2128,"ĠThat":2129,"Ġcho":2130,"mod":2131,"ĠĠĠĠĠĠĠĠĠĠĠĠ":2132,"ĠSeptember":2133,"Ġcrit":2134,"Ġlater":2135,"Ġid":2136,"pon":2137,"Ġrevealed":2138,"fo":2139,"Ġnatural":2140,"ĠObama":2141,"AP":2142,"import":2143,"lected":2144,"td":2145,"Ġbeautiful":2146,"Ġwhy":2147,"ĠPresident":2148,"Ġfavor":2149,"He":2150,"Ġdri":2151,"Ġavoid":2152,"Ġtimes":2153,"AM":2154,"aring":2155,"Ġfamil":2156,"Ġsens":2157,"Ġbody":2158,"Ġhold":2159,"Ġreported":2160,"Ġliquid":2161,"ser":2162,"ici":2163,"And":2164,"Ġmem":2165,"ges":2166,"Ġvideo":2167,"ĠRe":2168,"ored":2169,"Ġage":2170,"Ġdom":2171,"Ġgroups":2172,"Ġapplied":2173,"Ġhard":2174,"Ġshort":2175,"](":2176,"ĊĊĠĠĠĠĠĠĠ":2177,"Ġagreement":2178,"Ġlower":2179,"$\\":2180,"ume":2181,"!\\!\\!\\!\\!\\!\\!\\":2182,"ands":2183,"uring":2184,"Ġside":2185,"irst":2186,"nonumber":2187,"ince":2188,"itle":2189,"ising":2190,"Ġexist":2191,"Ġaccess":2192,"31":2193,"âĸĶâĸĶâĸĶâĸĶâĸĶâĸĶ":2194,"ends":2195,"Ġerror":2196,"Suppose":2197,"69":2198,"Ġlot":2199,"Ġ100":2200,"imal":2201,"ounds":2202,"umn":2203,"Ġamount":2204,"Ġfar":2205,"ift":2206,"Ġtre":2207,"UT":2208,"ivity":2209,"Ġ=>":2210,"!\"":2211,"ĠWhen":2212,"yle":2213,"stit":2214,"Ġdatabase":2215,"itor":2216,"ĠFebruary":2217,"><":2218,"OD":2219,"enn":2220,"On":2221,"ler":2222,"indow":2223,"Ġbehind":2224,"Ġrequired":2225,"class":2226,"Ġamong":2227,"Ġtestimony":2228,"go":2229,"^{-":2230,"ĠCommittee":2231,"ĠCol":2232,"ĠShe":2233,"Ġsent":2234,"Ġtext":2235,"Ġwritten":2236,"Ġwar":2237,"Ġstrong":2238,"Ġdone":2239,"Ġlevels":2240,"AD":2241,"Ġpract":2242,"ĠWorld":2243,"pone":2244,"Ġcompared":2245,"Ġterms":2246,"Ġnear":2247,"47":2248,"Ġlab":2249,"Ġdidn":2250,"Ġfac":2251,"Res":2252,"'ve":2253,"Ġcomponent":2254,"Ġart":2255,"Is":2256,"ling":2257,"time":2258,"sequ":2259,"Ġlink":2260,"%)":2261,"table":2262,"AG":2263,"log":2264,"Ġsure":2265,"Ġalong":2266,"ĊĠĠĠĠĠĠ":2267,"88":2268,"Ġsubject":2269,"Ġkey":2270,"Ġ50":2271,"Ġpercent":2272,"Ġsecurity":2273,"ĠFlorida":2274,"Ġfinal":2275,"Ġliter":2276,"Ġpurpose":2277,"amm":2278,"ĠCounty":2279,"utions":2280,"ãĥ":2281,"Ġdevelopment":2282,"olution":2283,"Ġactivity":2284,"ites":2285,"ese":2286,"ĠAd":2287,"ores":2288,"Ġ${\\":2289,"------------------------------------------------":2290,"ãĤ":2291,"ĠCo":2292,"orn":2293,"Ġhowever":2294,"ival":2295,"big":2296,"Ġdesign":2297,"100":2298,"Ġmen":2299,"Ġincreased":2300,"ĠOr":2301,"Ġclean":2302,"Ġstep":2303,"use":2304,"Ġproposed":2305,"Ġpiec":2306,"emplate":2307,"An":2308,"85":2309,"96":2310,"Ġdynam":2311,"}{\\":2312,"Ġmanag":2313,"Ġâ":2314,"de":2315,"Ġargument":2316,"Ġsal":2317,"Ġchar":2318,"Ġfund":2319,"ered":2320,"Ġaccount":2321,"Ġcontent":2322,"eople":2323,"Al":2324,"Ġparticip":2325,"Ġsays":2326,"ducing":2327,"Ġcover":2328,"Ġevent":2329,"ories":2330,"Ġpack":2331,"ĠGeneral":2332,"Ġcheck":2333,"Ġrece":2334,"Ar":2335,"ids":2336,"Un":2337,"Ġrole":2338,"Ġeng":2339,"Ġgirl":2340,"Ġmaking":2341,"Ġcompl":2342,"Ġpoor":2343,"Ġkind":2344,"Ġair":2345,"Ġworking":2346,"Ġcy":2347,"Ġdensity":2348,"Ġcomponents":2349,"Ġincrease":2350,"load":2351,"Ġmonths":2352,"Ġsim":2353,"iff":2354,"Ġaway":2355,"Ġauthor":2356,"vention":2357,"ung":2358,"Ġcancer":2359,"order":2360,"test":2361,"Ġbecome":2362,"Ġcomput":2363,"bo":2364,"aster":2365,"ife":2366,"]\\]":2367,"return":2368,"Ġfactors":2369,"Ġfore":2370,"Ġdegree":2371,"Ġfood":2372,"'ll":2373,"ĠIN":2374,"ley":2375,"Ġquant":2376,"Ġinclude":2377,"Ġcannot":2378,"IM":2379,"ava":2380,"Ġprovided":2381,"08":2382,"Ġtold":2383,"Ġrange":2384,"Ġthing":2385,"List":2386,"ably":2387,"Ġuseful":2388,"Ġrespons":2389,"Ġexc":2390,"Ġfinancial":2391,"App":2392,"Ġpast":2393,"Ġmult":2394,"ects":2395,"Ġes":2396,"94":2397,"ĠRep":2398,"key":2399,"date":2400,"Ġneighb":2401,"ĠSch":2402,"Ġorigin":2403,"OT":2404,"Ġlarger":2405,"ivers":2406,"Ġpretty":2407,"Ġ`":2408,"Ġperfect":2409,"aint":2410,"ves":2411,"Ġeffects":2412,"UR":2413,"55":2414,"Sh":2415,"ources":2416,"ĠMed":2417,"}}\\":2418,"Ġenc":2419,"ĠJune":2420,"ief":2421,"Ġblock":2422,"Ġupon":2423,"Ġtell":2424,"IG":2425,"Ġold":2426,"Ġcircumstances":2427,"ipp":2428,"Ġobserved":2429,"Ġacknowled":2430,"Ġdetail":2431,"Ġenough":2432,"ml":2433,"Ġseen":2434,"Ġhyper":2435,"Ġproceed":2436,"ĠLe":2437,"irm":2438,"Ġconduct":2439,"Ġservice":2440,"inter":2441,"Ġsection":2442,"Ġcalcul":2443,"66":2444,"ought":2445,"ij":2446,"CH":2447,"Ġdefinition":2448,"Ġlog":2449,"Ġdoesn":2450,"ĠâĢĺ":2451,"inary":2452,"Ġregard":2453,"istic":2454,"Ġcompanies":2455,"OM":2456,"Ġproperty":2457,"Ġtradition":2458,"string":2459,"Ġann":2460,"bu":2461,"ĠAss":2462,"ament":2463,"Ġconditions":2464,"Ġpositive":2465,"ĠCanad":2466,"Ġfixed":2467,"Ġcomplex":2468,"known":2469,"ĠSc":2470,"ĠÎ":2471,"02":2472,"Ġtechniques":2473,"07":2474,"olic":2475,"Ġopt":2476,"Ġinterpret":2477,"Ġhttp":2478,"Ġmiss":2479,"There":2480,"II":2481,"Ġmor":2482,"\")":2483,"Ġregion":2484,"ering":2485,"Ġdecre":2486,"Ġuser":2487,"ING":2488,"ground":2489,"atter":2490,"figuration":2491,"off":2492,"iles":2493,".)":2494,"leq":2495,"Ġsepar":2496,"Ġwoman":2497,"Ġtax":2498,"________________":2499,"]).":2500,"Ġbase":2501,"comp":2502,")*":2503,"Ġcoupl":2504,"Ġap":2505,"Ġ([@":2506,"Ġcountry":2507,"Ġlove":2508,"xi":2509,"Ġmus":2510,"ĠHealth":2511,"ĠĠĠĠĠĠĠĠĠĠĠ":2512,"Ġtalk":2513,"ĠAND":2514,"ĠSee":2515,"ective":2516,"09":2517,"77":2518,"At":2519,"ĊĠĠĠĠĠĠĠĠĠĠĠĠĠĠĠĠĠĠĠĠĠĠĠĠĠĠĠĠĠĠ":2520,"Ġtissue":2521,"Ġpick":2522,"Ġdeath":2523,"Ġperformed":2524,"Ġstop":2525,"Ġillustr":2526,"âĢ¦":2527,"Ġbook":2528,"Ġratio":2529,"Ġep":2530,"den":2531,"ensive":2532,"ware":2533,"Ġcut":2534,"lim":2535,"ĠApril":2536,"âĶĢâĶĢâĶĢâĶĢâĶĢâĶĢâĶĢâĶĢâĶĢâĶĢâĶĢâĶĢâĶĢâĶĢâĶĢâĶĢâĶĢâĶĢâĶĢâĶĢâĶĢâĶĢâĶĢâĶĢâĶĢâĶĢâĶĢâĶĢâĶĢâĶĢâĶĢâĶĢâĶĢâĶĢâĶĢâĶĢâĶĢâĶĢâĶĢâĶĢâĶĢâĶĢâĶĢâĶĢâĶĢâĶĢâĶĢâĶĢâĶĢâĶĢâĶĢâĶĢâĶĢâĶĢâĶĢâĶĢâĶĢâĶĢâĶĢâĶĢâĶĢâĶĢâĶ":2537,"raft":2538,"Ġflu":2539,"Col":2540,"AB":2541,"apt":2542,"Ġspecial":2543,"Ġcreate":2544,"Ġrather":2545,"No":2546,"ai":2547,"Ġprob":2548,"Ġcult":2549,"see":2550,"Ġdoing":2551,"mp":2552,"Ġdefined":2553,"Ġvir":2554,"span":2555,"Ġpoints":2556,"Ġdescribed":2557,"Ġindustry":2558,"Ġcompletely":2559,"Ġseason":2560,"Ġfootball":2561,"nbsp":2562,"Ġearly":2563,"OP":2564,"ĠJuly":2565,"Ġopinion":2566,"Ġphot":2567,"osc":2568,"umer":2569,"Ġjo":2570,"verse":2571,"Ġearlier":2572,"ished":2573,"roid":2574,"ĠMar":2575,"Ġdecl":2576,"Ġeducation":2577,"Ġcandid":2578,"Ġenjoy":2579,"ĠWednesday":2580,"+\\":2581,"plic":2582,"exp":2583,"Ġpatient":2584,"ried":2585,"03":2586,"ĠSupreme":2587,"Ġsaf":2588,"Ġcompany":2589,"ched":2590,"Ġnecessarily":2591,"57":2592,"dis":2593,"ĠMay":2594,"emb":2595,"ĠEnglish":2596,"Ġreasons":2597,"mm":2598,"irect":2599,"Ġassess":2600,"Ġshowed":2601,"Ġdem":2602,"ĠSec":2603,"head":2604,"cluded":2605,"So":2606,"ram":2607,"ĠGoogle":2608,"Ġimage":2609,"imensional":2610,"Ġnull":2611,"ession":2612,"ender":2613,"Ġacross":2614,"Ġaccept":2615,"Ġrelevant":2616,"ining":2617,"Ġmix":2618,"Ġq":2619,"Gamma":2620,"IL":2621,"Ġbit":2622,"Ġ([":2623,"Ġ&&":2624,"ĠSu":2625,"ĠPr":2626,"bit":2627,"material":2628,"Ġweight":2629,"Ġreach":2630,"OS":2631,"year":2632,"Ġobtained":2633,"cal":2634,"Error":2635,"Ġmeet":2636,"ĠCircuit":2637,"Ġ$(":2638,"Ġcontrib":2639,"ino":2640,"ĠAmerican":2641,"resh":2642,"Ġactually":2643,"Ġfive":2644,"84":2645,"Ġadjust":2646,"omes":2647,"ibility":2648,"Ġexecut":2649,"ones":2650,"Ġbar":2651,"ĠCent":2652,"Ġwhole":2653,"cy":2654,"etition":2655,"osure":2656,"Ġgl":2657,"Ġbelow":2658,"Ġlearning":2659,"Ġvoid":2660,"OL":2661,"Ġconsidered":2662,"ĠFig":2663,"ogen":2664,"Ġchanged":2665,"^\\":2666,"Ġmakes":2667,"Ġvarious":2668,"ero":2669,"Ġstring":2670,"Ġbreak":2671,"PE":2672,"Ġproteins":2673,"Ġwriting":2674,"Ġsource":2675,"Ġshows":2676,"Ġrelated":2677,"ache":2678,"Ġonce":2679,"ĠĊ":2680,"Ġstates":2681,"003":2682,"Ġinternational":2683,"ĠBr":2684,"Ġsynthes":2685,"Ġspe":2686,"onal":2687,"Ġra":2688,"Ġthought":2689,"upplementary":2690,"Ġanalyses":2691,"Ġbegan":2692,"Ġrespectively":2693,"Ġincluded":2694,"Ġadded":2695,"ĠAm":2696,"~~~":2697,"la":2698,"Ġbuilt":2699,"nu":2700,"circ":2701,"Ġver":2702,"Ġdevices":2703,"42":2704,"Ġchild":2705,"queuebot":2706,"na":2707,"US":2708,"ocal":2709,"Ġdam":2710,")}":2711,"Ġsurgery":2712,"Ġcard":2713,"Ġsolution":2714,"ĠAugust":2715,"Ġoccur":2716,"\"}).":2717,"ĠJesus":2718,"icrosoft":2719,"Ġwidth":2720,"Ġexam":2721,")(":2722,"ĠDistrict":2723,"Ġprincip":2724,"Ġdeal":2725,"ĠCar":2726,"Ġarrest":2727,"Ġmarket":2728,"Ġsignificantly":2729,"Ġapplication":2730,"ĠPat":2731,"value":2732,"bt":2733,"Ġprocedure":2734,"49":2735,"ĠOF":2736,"Ġfully":2737,"Ġfactor":2738,"Ġeyes":2739,"ĠBl":2740,"Ġprogress":2741,"CC":2742,"Ġsex":2743,"Ġbeyond":2744,"ENT":2745,"86":2746,"sl":2747,"Ġcounter":2748,"ean":2749,"001":2750,"Ġsubs":2751,"ĠOne":2752,"Ġmaint":2753,"illed":2754,"no":2755,"ĠÂ§":2756,"Ġanti":2757,"87":2758,"Ġstruct":2759,"ĠDecember":2760,"ĠAdd":2761,"Ġsignal":2762,"gg":2763,"RESULTS":2764,"Ġsystems":2765,"theta":2766,"Ġseries":2767,"/*":2768,"odes":2769,"ĠMETHODS":2770,"Ġtook":2771,"ĠWith":2772,"'d":2773,"Ġtowards":2774,"Ġsite":2775,"Ġmar":2776,"Ġwebsite":2777,"Ġutil":2778,"Ġ...":2779,"Figure":2780,"net":2781,"tract":2782,"Ġyet":2783,"Ġconsist":2784,"Ph":2785,"Ġever":2786,"Ġplaintiff":2787,"Ġcame":2788,"ternal":2789,"ĠMr":2790,"Ġland":2791,"Ġrelatively":2792,"Ġroom":2793,"Ġexactly":2794,"Ġcommunity":2795,"Ġspect":2796,"Ġred":2797,"tau":2798,"ĠCouncil":2799,"lation":2800,"Ġloss":2801,"code":2802,"Ġbirth":2803,"ulated":2804,"Ġcause":2805,"Ġdecision":2806,"ips":2807,"Ġcouple":2808,"Ġadministration":2809,"\");":2810,"mathbf":2811,"Ġhref":2812,"Ġhouse":2813,"ymbol":2814,"Ġexperiments":2815,"oh":2816,"46":2817,"')":2818,"dom":2819,"Ġtem":2820,"reed":2821,"ĠMoreover":2822,"ider":2823,"Ġdiagn":2824,"Ġaddress":2825,"Ġsearch":2826,"ving":2827,"times":2828,"Ġhusband":2829,"ops":2830,"Ġinfluence":2831,"ĠBecause":2832,"ĠFacebook":2833,"olve":2834,"TR":2835,"delta":2836,"EL":2837,"Ġupper":2838,"operatorname":2839,"Ġ21":2840,"ĠThen":2841,"ck":2842,"Ġfelt":2843,"Ġnight":2844,"Data":2845,"body":2846,"Ġmagn":2847,"83":2848,"ĠAct":2849,"mit":2850,"umb":2851,"Ġparents":2852,"rangle":2853,"trans":2854,"used":2855,"Gr":2856,"Ġsix":2857,"Ġbound":2858,"ĠDefendant":2859,"Ġcircuit":2860,"Ġphosph":2861,"Ġcontract":2862,"Ġanything":2863,"Ġvictim":2864,"Ġbinding":2865,"size":2866,"ises":2867,"Ġ27":2868,"93":2869,"Ġmethods":2870,"iction":2871,"Ġmind":2872,"Ġyoung":2873,"aging":2874,"ĠGovernment":2875,"Ġ(*":2876,"Ġreleased":2877,"Ġattack":2878,"cc":2879,"Ġalleged":2880,"Ġvar":2881,"igr":2882,"Ġensure":2883,"SS":2884,"Ġservices":2885,"rim":2886,"Ġadditional":2887,"Ġtherefore":2888,"ĠIsrael":2889,"Ġwrote":2890,"ĠGod":2891,"izing":2892,"aj":2893,"Ġtable":2894,"rol":2895,"lying":2896,"Ġimplement":2897,"Ġtown":2898,"Ġbill":2899,"ged":2900,"After":2901,"Ġcelebr":2902,"Ġob":2903,"Ġtravel":2904,"Ġdifference":2905,"aged":2906,"Ġtoday":2907,"opt":2908,"ervice":2909,"}$,":2910,"Ġresistance":2911,"Ġentire":2912,"ĠThus":2913,"anch":2914,"Ġotherwise":2915,"Ġpers":2916,"ĠÂ±":2917,"Ġtrying":2918,"Ġthus":2919,"ĠBe":2920,"Sp":2921,"Ġclose":2922,"Ġportion":2923,"ĠAfric":2924,"Ã³n":2925,"Ġquickly":2926,"Ġneeded":2927,"Ġhypothes":2928,"06":2929,"Ġmachine":2930,"Ġlength":2931,"actions":2932,"89":2933,"Ġcomparison":2934,"Ġalgebra":2935,"^*":2936,"mer":2937,"param":2938,"uff":2939,"Ġsimple":2940,"rew":2941,"Ġcross":2942,"atus":2943,"ĠResearch":2944,"witter":2945,"Ġvia":2946,"ĠĠĠĠĠĠĠĠĠĠĠĠĠĠ":2947,"![":2948,"Ġintro":2949,"DE":2950,"Ġmot":2951,"UN":2952,"Ġir":2953,"define":2954,"Ġmatch":2955,"older":2956,"Ġgene":2957,"ĠInc":2958,"Ġpaid":2959,"Ġremoved":2960,"position":2961,"Ġpattern":2962,"Ġ(-":2963,"Ġcontact":2964,"do":2965,"pre":2966,"ales":2967,"Ġneeds":2968,"ients":2969,"}$.":2970,"alse":2971,"ĊĊĊ":2972,"ĠCity":2973,"itting":2974,"ĠInternational":2975,"Ġbottom":2976,"ike":2977,"Index":2978,"Ġfun":2979,"ilities":2980,"Ġsometimes":2981,"ĠĠĠĠĠĠĠĠĠĠĠĠĠ":2982,"Ġ(\\[":2983,"but":2984,"|\\":2985,"Key":2986,"Ġ^":2987,"Ġquality":2988,"asc":2989,"Im":2990,"Ġinvolved":2991,"Ġcapacity":2992,"Ġmut":2993,"Ġdig":2994,"41":2995,"face":2996,"Ġseem":2997,"Ġiniti":2998,"ference":2999,"atur":3000,"Ġstudents":3001,"Ġang":3002,"ĠAustral":3003,"Ġparty":3004,"ĠMc":3005,"Ġcharacteristics":3006,"------":3007,"92":3008,"],[@":3009,"Set":3010,"ĠBoard":3011,"ĠCont":3012,"Ġmodels":3013,"iber":3014,"])":3015,"ĠĠĠĠĠĠĠĠĠĠĠĠĠĠĠĠĠĠĠĠĠĠĠĠĠĠĠĠĠĠĠĠĠĠĠĠĠĠĠĠĠĠĠĠĠ":3016,"vironment":3017,"43":3018,"Ġjob":3019,"56":3020,"mathrm":3021,"struct":3022,"Ġwitness":3023,"ĠMy":3024,"field":3025,"Ġpopulation":3026,"based":3027,"Ġpain":3028,"vec":3029,"Ġperformance":3030,"Ġwent":3031,"Ġface":3032,"Ġ26":3033,"my":3034,"Ġfigure":3035,"omorph":3036,"unch":3037,"ption":3038,"Ġgetting":3039,"Ġrecent":3040,"Ġque":3041,"Ġhapp":3042,"Ġexpected":3043,"Ġflow":3044,"ti":3045,"ĠSe":3046,"Ġgrowth":3047,"Ġ\\\\":3048,"Ġ40":3049,"Ġchannel":3050,"IR":3051,"ĠEn":3052,"IV":3053,"idence":3054,"Ġindependent":3055,"Ġinflamm":3056,"Ġlooking":3057,"Ð¾Ð":3058,"ived":3059,"rc":3060,"Ġpolice":3061,"Ġcorrel":3062,"Ġfunctions":3063,"ĠInterest":3064,"Ġalcohol":3065,"Ġwin":3066,"ĠMin":3067,"Ġproblems":3068,"Ġrights":3069,"\\])":3070,"91":3071,"imilar":3072,"Ġflo":3073,"\\\\":3074,"Ġcomes":3075,"ential":3076,"dev":3077,"Ġmedia":3078,"erve":3079,"Ġprof":3080,"Ġcredit":3081,"*,":3082,"Ġpan":3083,"Override":3084,"Ġexpect":3085,"Ġexperienced":3086,"EM":3087,"ĠNULL":3088,"Ġdestroy":3089,"bib":3090,"ethod":3091,"vel":3092,"Ġur":3093,"ĠMichael":3094,"Ġplaced":3095,"Ġcryst":3096,"Ġcity":3097,"Ġ28":3098,"miss":3099,"ĠNot":3100,"Ġbrief":3101,"ĠDevelopment":3102,"ĠBy":3103,"Ġmyself":3104,"mediate":3105,"Ġseems":3106,"That":3107,"Ġdaily":3108,"Ġtouch":3109,"Ġtool":3110,"When":3111,"path":3112,"ĠCD":3113,"Ġproduction":3114,"Ġinput":3115,"Ġcivil":3116,"Ġ22":3117,"CL":3118,"icon":3119,"Refer":3120,"ĠmiR":3121,"acter":3122,"come":3123,"anks":3124,"ple":3125,"Ġstory":3126,"list":3127,"ience":3128,"Ġprovides":3129,"ously":3130,"Ġ$$":3131,"Delta":3132,"Ġmeasures":3133,"ony":3134,"Ġheart":3135,"Ġnamed":3136,"Ġalternative":3137,"state":3138,"Ġcal":3139,"Ġhost":3140,"Ġchem":3141,"Ġemployees":3142,"How":3143,"Ġconflict":3144,"Ġinstead":3145,"Simplify":3146,"anding":3147,"Table":3148,"Ġofficer":3149,"Ġprec":3150,"Ġtaking":3151,"Ġsimply":3152,"anced":3153,"oma":3154,"psi":3155,"Object":3156,"Â±":3157,"err":3158,"With":3159,"Get":3160,"ject":3161,"ĊĠĠĠĠĠĠĠĠĠĠĠĠĠĠĠĠĠĠĠĠĠĠĠ":3162,"Ġstrategy":3163,"ĠTrump":3164,"Ġsurvival":3165,"king":3166,"Ġlearn":3167,"Ġexercise":3168,"Ġblack":3169,"Ġsleep":3170,"des":3171,"Ġtheory":3172,"Manager":3173,"ds":3174,"iting":3175,"ĠRo":3176,"ging":3177,"**]{},":3178,"Ġminimum":3179,"ĠDo":3180,"Ġimpact":3181,"PS":3182,"include":3183,"uments":3184,"induced":3185,"EC":3186,"FL":3187,"Ġimport":3188,"normal":3189,"Ġevents":3190,"Ġcoordin":3191,"Ġspecifically":3192,"\";":3193,"Ġsomeone":3194,"Ġhundred":3195,"Ġrapid":3196,"\\*":3197,"Ġtw":3198,"Ġstarted":3199,"All":3200,"astroenterology":3201,"Ġmentioned":3202,"Ġplatform":3203,"Ġpage":3204,"By":3205,"po":3206,"wo":3207,"rown":3208,"fr":3209,"Ġcolor":3210,"Ġfall":3211,"point":3212,"ĠNational":3213,"hydr":3214,"cm":3215,"Ġstraight":3216,"Ġwor":3217,"ental":3218,"light":3219,"with":3220,"Ġphenomen":3221,"lin":3222,"74":3223,"Ġvalid":3224,"Ġ23":3225,"Ġload":3226,"Ġprepared":3227,"ĠCor":3228,"Ġsamples":3229,"ronic":3230,"init":3231,"Ġconfirmed":3232,"Ġdespite":3233,"https":3234,"down":3235,"Ġwatch":3236,"arr":3237,"Ġcoll":3238,"uk":3239,"oles":3240,"Ġjud":3241,"umber":3242,"ements":3243,"Ġbasis":3244,"Ġproducts":3245,"Add":3246,"En":3247,"76":3248,"Ġconv":3249,"Ġclos":3250,"Ġlines":3251,"Ġ},":3252,"PC":3253,"Ġimpro":3254,"astic":3255,"where":3256,"Ġframework":3257,"Ġpresented":3258,"Ġcriminal":3259,"link":3260,"));":3261,"Ġfollows":3262,"Ġdepend":3263,"Ġparameters":3264,"58":3265,"usion":3266,"ethyl":3267,"char":3268,"ĠPaul":3269,"unt":3270,"Re":3271,"Ġsample":3272,"ĠÐ":3273,"Ġbad":3274,"rip":3275,"Ġdetermined":3276,"MS":3277,"Ġdetermine":3278,"Ġstorage":3279,"Ġlack":3280,"ĠMan":3281,"Ġstatic":3282,"Ġcommercial":3283,"ĠDr":3284,"Ġhom":3285,"like":3286,"My":3287,"Ġshall":3288,"fort":3289,"work":3290,"ocol":3291,"top":3292,"Ġmedical":3293,"Ġindex":3294,"Ġeffective":3295,"atal":3296,"Ġanalyzed":3297,"Ġproliferation":3298,"Ġmap":3299,"Ġlive":3300,"ĠÃ":3301,"Ġnews":3302,"Ġemb":3303,"Ġdate":3304,"Ġformer":3305,"59":3306,"Ġpersonal":3307,"Ġpresence":3308,"Ġsociety":3309,"Ġidentified":3310,"Ġforce":3311,"Ġide":3312,"Ġassociation":3313,"Ġprinciples":3314,"Ġgenes":3315,"ĠâĪĴ":3316,"Ġsqu":3317,"SD":3318,"Ġfemale":3319,"//////////////////////////":3320,"reate":3321,"CD":3322,"63":3323,"outh":3324,"Ġprint":3325,"Ġphys":3326,"ython":3327,"Sc":3328,"PI":3329,"Ġitself":3330,"Ġdegrees":3331,"Ġattorney":3332,"}=":3333,"Ġsmooth":3334,"ying":3335,"Ġvelocity":3336,"ĠNorth":3337,"ĠCalculate":3338,"Ġfilm":3339,"Model":3340,"eff":3341,"62":3342,"ĠDavid":3343,"ana":3344,"Ġox":3345,"ĠAg":3346,"Ġappellant":3347,"Ġest":3348,"Ġdocument":3349,"Ġcitizens":3350,"Ġsil":3351,"Ġphase":3352,"Ġadvantage":3353,"ros":3354,"$-":3355,"Ġefficiency":3356,"error":3357,"Ġcontext":3358,"ĠYork":3359,"54":3360,"Ġfront":3361,"ĠWilli":3362,"Ġlonger":3363,"Ġdim":3364,"Ġofficers":3365,"Ġcopy":3366,"group":3367,"word":3368,"Ġrender":3369,"ula":3370,"Ġconstant":3371,"}^{\\":3372,"Ġtypes":3373,"ĠComp":3374,"TH":3375,"Ġtransfer":3376,"ĠPennsylvania":3377,"ills":3378,"Ġperhaps":3379,"Ġworks":3380,"sim":3381,"Ġscript":3382,"Ġstatement":3383,"Ġparallel":3384,"Dis":3385,"Ġground":3386,")=":3387,"72":3388,"Ġstatus":3389,"53":3390,"ĠInt":3391,"++":3392,"Ġsevere":3393,"Ġeverything":3394,"ening":3395,"Ġsense":3396,"Ġdraw":3397,"Ġanimals":3398,"Ġinvest":3399,"Ġelements":3400,"ĠBrazil":3401,"79":3402,"Ġfruit":3403,"roph":3404,"ulations":3405,"78":3406,"osition":3407,"Ġwrong":3408,"Param":3409,"Ġbiggest":3410,"Ġsyndrome":3411,"Ġprevent":3412,"px":3413,"fully":3414,"Ġmis":3415,"Ġhist":3416,"ults":3417,"ĠAb":3418,"ĠCongress":3419,"ploy":3420,"hibition":3421,"ĠString":3422,"Ġremain":3423,"Ġrunning":3424,"Ed":3425,"Ġcharg":3426,"Ġpurposes":3427,"Ġscreen":3428,"Ġoutput":3429,"Ã¡":3430,"File":3431,"Ġconstit":3432,"Ġrad":3433,"ux":3434,"ÃŃ":3435,"Ġassert":3436,"Ps":3437,"Ġunit":3438,"Ġcreated":3439,"Ġdanger":3440,"Pl":3441,"mbox":3442,"Ġacid":3443,"Ġbur":3444,"Ġbring":3445,"Ġhuge":3446,"Ġtherapeutic":3447,"Ġ2012":3448,"itation":3449,"ĠII":3450,"Ġarray":3451,"Ġsem":3452,"ards":3453,"Ġmember":3454,"varphi":3455,"PA":3456,"me":3457,"Ġnode":3458,"utes":3459,"82":3460,"Int":3461,"aving":3462,"mail":3463,"Ġlikelihood":3464,"Ġrespond":3465,"Ġcamera":3466,"msg":3467,"Ġtraining":3468,"Ġquite":3469,"Ġinstall":3470,"urch":3471,"mun":3472,"Ġinsurance":3473,"Ġwalk":3474,"=======":3475,"oud":3476,"Ġdeep":3477,"ague":3478,"Ġvs":3479,"ĠPar":3480,"acc":3481,"Ġoil":3482,"Ġmobile":3483,"ĠGeorge":3484,"ĠWARRANT":3485,"Ġeasy":3486,"Ġconventional":3487,"Ġareas":3488,"Ġnational":3489,"Ġinside":3490,"Ġlayer":3491,"Ġdistrict":3492,"Ġple":3493,"Ġexchange":3494,"Ġslightly":3495,"ĠPart":3496,"Ġrates":3497,"imate":3498,"Ġselect":3499,"52":3500,"ever":3501,"ections":3502,"######":3503,"NS":3504,"erson":3505,"efore":3506,"ades":3507,"ĠTherefore":3508,"ĠIm":3509,"Ġimpl":3510,"Ġcreat":3511,"aves":3512,"ission":3513,"\"><":3514,"ĠGu":3515,"aven":3516,"Not":3517,"ĊĠĠĠĠĠĠĠĠĠĠĠĠĠ":3518,"Ġgas":3519,"Ġrelease":3520,"place":3521,"Text":3522,"Ġsomew":3523,"Calculate":3524,"73":3525,"Ġequivalent":3526,"Ġvector":3527,"ĊĠĠĠĠĠĠĠĠ":3528,"ĠInstitute":3529,"Ġclaims":3530,"user":3531,"iet":3532,"lege":3533,"ĠGerm":3534,"Ġwanted":3535,"gn":3536,"]{":3537,"ocytes":3538,"Ġcontroll":3539,"ĠOur":3540,"isions":3541,"ians":3542,"atives":3543,"ĠChicago":3544,"Ġdirectly":3545,"aut":3546,"artment":3547,"Ġnearest":3548,"($":3549,"eat":3550,"Ġtransform":3551,"ĠHow":3552,"51":3553,"ĠPhys":3554,"CA":3555,"Ġago":3556,"*]{}":3557,"Ġrepresents":3558,"Ġ2013":3559,"from":3560,"71":3561,"Ġlimited":3562,"ĠFin":3563,"Ġcontain":3564,"ha":3565,"Ġmer":3566,"Ġneighborhood":3567,"Ġisn":3568,"public":3569,"Ġ/>":3570,"Ġfaith":3571,"ĠChinese":3572,"Ġstay":3573,"Ġability":3574,"subset":3575,"play":3576,"Ġarbitr":3577,"ners":3578,"const":3579,"prime":3580,"Ġsqrt":3581,"Ġ--------":3582,"ĠWestern":3583,"sk":3584,"Ġreduced":3585,"Ġlymph":3586,"Ġ[**":3587,"Ġdeveloped":3588,"ĠBritish":3589,"langle":3590,"Ċĉĉĉĉĉ":3591,"Ġ?":3592,"clus":3593,"Ġcook":3594,"elling":3595,"RNA":3596,"specific":3597,"81":3598,"ags":3599,"iveness":3600,"Ġpicture":3601,"ze":3602,"Ġlatest":3603,"ications":3604,"Ġnegative":3605,"write":3606,"void":3607,"array":3608,"EX":3609,"omy":3610,"ĠRuss":3611,"Ġcriteria":3612,"perty":3613,"Ġdistinct":3614,"Ġpreviously":3615,"Ġaccur":3616,"Ġgreater":3617,"ĠFoundation":3618,"Ġlicense":3619,"Ġrule":3620,"Or":3621,"Ġarchitect":3622,"OC":3623,"Ġforward":3624,"Ġsurround":3625,"oo":3626,"Ġoption":3627,"que":3628,"Ġincludes":3629,"Ġsett":3630,"max":3631,"Bu":3632,"rows":3633,"Ġinteger":3634,"Ġcup":3635,"orem":3636,"Ġincorpor":3637,"Ġ;":3638,"ocation":3639,"Request":3640,"Ċĉĉĉĉ":3641,"Ġneuro":3642,"Ġshare":3643,"Ġexpress":3644,"ĠLondon":3645,"bi":3646,"ï¼":3647,"Ġenzym":3648,"Ġproportion":3649,"Ġmurder":3650,"Ġmechan":3651,"Ġbehavior":3652,"ster":3653,"Ġport":3654,"IF":3655,"pen":3656,"version":3657,"Ġfire":3658,"Ġgraph":3659,"Ġdoubt":3660,"Ġprop":3661,"Ġhot":3662,"term":3663,"cluding":3664,"rial":3665,"ken":3666,"}(\\":3667,"Ġvoice":3668,"ML":3669,"Ġsequ":3670,"Ġlargest":3671,"Ġannounced":3672,"Ġarrang":3673,"reet":3674,"Ġabsolutely":3675,"čĊĠĠĠ":3676,"Ġwhite":3677,"Ġrepeated":3678,"ĠFriday":3679,"Ġaccom":3680,"Ġsn":3681,"Ġinstance":3682,"Ġcolumn":3683,"Ġvoltage":3684,"Ġstatist":3685,"ept":3686,"ĠAttorney":3687,"GF":3688,"ii":3689,"ĠHere":3690,"part":3691,"unction":3692,"Ġdefault":3693,"Ġmemory":3694,"wide":3695,"Ġmice":3696,"Ġpair":3697,"Ġgames":3698,"abor":3699,"ĠRec":3700,"itted":3701,"requ":3702,"oring":3703,"Ġball":3704,"Ġer":3705,"Ġ29":3706,"ribute":3707,")$.":3708,"otion":3709,"Ġcompet":3710,"Ġ);":3711,"ĠJust":3712,"plit":3713,"lock":3714,"ĠSystem":3715,"cur":3716,"Ġwhatever":3717,"61":3718,"sub":3719,"ĠDis":3720,"Ġfindings":3721,"\\<":3722,"Â°":3723,"Ġgenerally":3724,"IP":3725,"js":3726,"Ġcateg":3727,"Ġeye":3728,"ĠPer":3729,"ville":3730,"Sec":3731,"Ġetc":3732,"Ġ60":3733,"Ġlost":3734,"ĠCir":3735,"Ġresid":3736,"Ġfollowed":3737,"Ġgrant":3738,"print":3739,"Ġtitle":3740,"Ġcarbon":3741,"Ġappeal":3742,"Ġusually":3743,"Ġtreated":3744,"Ġaim":3745,"omic":3746,"Ġreceptor":3747,"ĠHis":3748,"Ġword":3749,"Ġpresident":3750,"Ġcompleted":3751,"Ġreference":3752,"Ġmatrix":3753,"ĠId":3754,"Ġcorresponding":3755,"sm":3756,"Ġefficacy":3757,"ĠST":3758,"Ġoutcomes":3759,"nabla":3760,"ened":3761,"Ġsugar":3762,"Ġillegal":3763,"Ġglobal":3764,"Ġ32":3765,"ĠSince":3766,"Ġlinear":3767,"Ġparticularly":3768,"Ġrev":3769,"Ġempty":3770,"...\"":3771,"Ġdelivery":3772,"Ġ[*":3773,"ĠTexas":3774,"Ġplayers":3775,"ĠAfghanistan":3776,"Ġstrugg":3777,"ĠDe":3778,"github":3779,"Ġguilty":3780,"ĠBar":3781,"Ġcoming":3782,"Ġge":3783,"Ġdifferences":3784,"ĠSm":3785,"alt":3786,"ped":3787,"Ġplasma":3788,"Ġinvention":3789,"oke":3790,"Ġfight":3791,"lib":3792,"ĠMonday":3793,"ĠChina":3794,"ĠPol":3795,"Ġspectrum":3796,"Ġnote":3797,"Ġbuilding":3798,"\".":3799,"ĠWhile":3800,"Ġhospital":3801,"Ġdiseases":3802,"ĠMarch":3803,"Ġderivative":3804,"ano":3805,"otic":3806,"oscopic":3807,"Ġactive":3808,"ĠDes":3809,"active":3810,"bert":3811,"Ġprimarily":3812,"Ġautomatically":3813,"Ġguidelines":3814,"Ġonline":3815,"urb":3816,"Ġequipment":3817,"kappa":3818,"Ġexplicit":3819,"eless":3820,"Ġregular":3821,"Ġ2014":3822,"Ġgrad":3823,"['":3824,"alysis":3825,"istry":3826,"Ġmessage":3827,"((":3828,"Ġinhibit":3829,"().":3830,"Ġcommittee":3831,"eline":3832,"ĠReg":3833,"MA":3834,"Ġwait":3835,"Ġrout":3836,"df":3837,"Ġfailed":3838,"ially":3839,"oes":3840,"stein":3841,"Ġwhose":3842,"Ġoffice":3843,"ĠFirst":3844,"Ġconstruct":3845,"Ġappeared":3846,"lor":3847,"Ġsaw":3848,"Ġwrite":3849,"Ġsensitivity":3850,"Ġ-->":3851,"Ġtherapy":3852,"ĠTechn":3853,"Ġlate":3854,"ours":3855,"Ġstyle":3856,"Ġopportunities":3857,"Controller":3858,"Ġleave":3859,"iable":3860,"Ġsyn":3861,"Def":3862,"Ġcosts":3863,"bre":3864,"Ġstimul":3865,"Ġalthough":3866,"ĠPakistan":3867,"Ġpurch":3868,"ued":3869,"Ġheat":3870,"summary":3871,"Ġmortality":3872,"fil":3873,"Ġpractice":3874,"Ġsituation":3875,"Ġcharge":3876,"Ġsaying":3877,"Ġscheme":3878,"orizontal":3879,"ĠWITH":3880,"Ġoffer":3881,"Ġcountries":3882,"quad":3883,"onic":3884,"Ġquarter":3885,"Ġtakes":3886,"Ġheavy":3887,"OW":3888,"Ġrelative":3889,"Ġsubstrate":3890,"Ġlegal":3891,"ancy":3892,"mark":3893,"ĠOR":3894,"Ġfat":3895,"ĠDNA":3896,"sw":3897,"Class":3898,"eng":3899,"Ġmixture":3900,"ĠHouse":3901,"Ġwall":3902,"çļĦ":3903,"âĢĲ":3904,"Ġrecently":3905,"idge":3906,"Ġdriving":3907,"Ġuniform":3908,"}_{\\":3909,"Ġprefer":3910,"ĠIran":3911,"BC":3912,"db":3913,"ĠCons":3914,"Ġuncertain":3915,"Ġasp":3916,"Ġrot":3917,"Path":3918,"Ġsufficient":3919,"ankruptcy":3920,"==":3921,"âĢ¢":3922,"Ġhousing":3923,"ĠEd":3924,"source":3925,"Ġvot":3926,"Ġteach":3927,"vey":3928,"Ġintr":3929,"arrow":3930,"Ġmargin":3931,"itable":3932,"esis":3933,"ĠDef":3934,"pped":3935,"cap":3936,"Ġgives":3937,"chi":3938,"Ġjournal":3939,"Ġ2016":3940,"Ġste":3941,"Ġcenter":3942,"Ð°Ð":3943,"Ġsubsequent":3944,"Ġintelligence":3945,"unc":3946,"utrition":3947,"Ġnature":3948,"Ġserious":3949,"ĠQu":3950,"Qu":3951,"lete":3952,"asing":3953,"ĠVirginia":3954,"Ad":3955,"Ġguarant":3956,"igen":3957,"Ġdefendants":3958,"Ġstage":3959,"ĠAmerica":3960,"anging":3961,"Ġspecies":3962,"';":3963,"Ġprime":3964,"Ġidentify":3965,"Ġorg":3966,"Ġenh":3967,"Ġ31":3968,"ĠIS":3969,"Ġtried":3970,"\\].":3971,"ĠSome":3972,"Ġappro":3973,"Ġbalance":3974,"American":3975,"Ġanyone":3976,"gl":3977,"Ġappreci":3978,"Ġhydro":3979,"Ġimages":3980,"Ġeveryone":3981,"Ġlibrary":3982,"ĠTuesday":3983,"protobuf":3984,"Ġfeed":3985,"ĠUsing":3986,"illing":3987,"Se":3988,"Ġdouble":3989,"Ġtrack":3990,"pat":3991,"Ġ2015":3992,"ĠOff":3993,"Ġjury":3994,"Ġliving":3995,"adem":3996,"Ġult":3997,"^[@":3998,"cell":3999,"Ġunique":4000,"aries":4001,"BS":4002,"One":4003,"ĠWar":4004,"Ġles":4005,"omb":4006,"Ġantibodies":4007,"Ġhope":4008,"rec":4009,"prop":4010,"Ġindividuals":4011,"encies":4012,"Ġord":4013,"Ġ/*":4014,"Ġbroad":4015,")-":4016,"ils":4017,"Ġselected":4018,"\\;\\;\\;\\;":4019,"Ġwarrant":4020,"map":4021,"Ġscale":4022,"Ġextremely":4023,"Ġvers":4024,"Ġchoice":4025,"Ġfederal":4026,"ayout":4027,"izes":4028,"Ġspirit":4029,"ball":4030,"Ġways":4031,"Ġmeasured":4032,"gy":4033,"Ġprocedures":4034,"Ġissued":4035,"mand":4036,"Ġ///":4037,"Ġchosen":4038,"Ġdiss":4039,"Ġassum":4040,"Ġdesigned":4041,"Ġduty":4042,"PL":4043,"\\'":4044,"Ġoperation":4045,"čĊĠ":4046,"Ġthousands":4047,"Ġallowed":4048,"pack":4049,"Test":4050,"]^":4051,"uel":4052,"otherapy":4053,"iring":4054,"asis":4055,"Ġhighly":4056,"ĠAlthough":4057,"room":4058,"Ġthemselves":4059,"}}$":4060,"Ġparties":4061,"uthor":4062,"Ġisolated":4063,"ĠJudge":4064,"Ġspeed":4065,"Ġdetails":4066,"Ġfit":4067,"Time":4068,"hand":4069,"Ġmembrane":4070,"Ġfreedom":4071,"Ġpublished":4072,"ĠSen":4073,"Ġbecame":4074,"info":4075,"Ġassist":4076,"Ġdoct":4077,"cast":4078,"Lambda":4079,"Ġfailure":4080,"ĠSer":4081,"ae":4082,"bm":4083,"ĠNow":4084,"Ġfib":4085,"inity":4086,"length":4087,"Ġ2010":4088,"iation":4089,"apter":4090,"Ġmetabol":4091,"Ðµ":4092,"Ġbox":4093,"stance":4094,"ĠThursday":4095,"ĠMichigan":4096,"cd":4097,"ett":4098,"Ġpolicies":4099,"Of":4100,"Ġcomment":4101,"item":4102,"Ġcomposite":4103,"crib":4104,"enses":4105,".\\":4106,"Ġdiabetes":4107,"index":4108,"Ġduration":4109,"node":4110,")$,":4111,"Ġ:=":4112,"Ġ2011":4113,"Ġintensity":4114,"ä¸":4115,"inated":4116,"Ġprice":4117,"Ġhospitals":4118,"Ġvisit":4119,"She":4120,"Ġbleeding":4121,"ĠMERCHANTABILITY":4122,"Ġstress":4123,"Ġexpressed":4124,"Ġgoal":4125,"ĠScience":4126,"ĠFrench":4127,"CE":4128,"ilit":4129,"Ġexpansion":4130,"count":4131,"Ġround":4132,"Ġcentral":4133,"Ġtechnology":4134,"Ġsort":4135,"abled":4136,"Ġnotice":4137,"Ġinfrastructure":4138,"Ġhar":4139,"');":4140,"Ġcurrently":4141,"ĠAc":4142,"Ġequal":4143,"Ġleading":4144,"ĠSunday":4145,"Ġrecovery":4146,"burg":4147,"^+":4148,"EST":4149,"amespace":4150,"Ġ35":4151,"Ġecho":4152,"Ġelection":4153,"ography":4154,"ĠAM":4155,"base":4156,"ĠCal":4157,"Ġtransition":4158,"Ġfast":4159,"Ġequation":4160,"ube":4161,"ĠInternet":4162,"Ġcrucial":4163,"Des":4164,"Ġpred":4165,"Ġled":4166,"Ġoptions":4167,"ui":4168,"Ġanalog":4169,"ico":4170,"Ġwindow":4171,"owing":4172,"igation":4173,"Ġeasily":4174,"());":4175,"Ġcaused":4176,"ird":4177,"Ġbudget":4178,"Ġemerg":4179,"ecting":4180,"ĠSw":4181,"that":4182,"Ġoverall":4183,"ica":4184,"Ġsoon":4185,"Ġcommand":4186,"ĠStud":4187,"Ġ\\<":4188,"Ġinjury":4189,"Ġpolynomial":4190,"FF":4191,"iness":4192,"Ġgave":4193,"Ġpush":4194,"Ġscore":4195,"Ġmeaning":4196,"Ġmanagement":4197,"Ġbackground":4198,"ĠEl":4199,"Ġhimself":4200,"Ġentitled":4201,"Ġproof":4202,"Ġve":4203,"ulate":4204,"Ġfiled":4205,"ĠRepublic":4206,"Ġten":4207,"Ġconnection":4208,"Ġpull":4209,"Ġfair":4210,"oul":4211,"Exception":4212,"Ġlimits":4213,"Ġaw":4214,"Ġweak":4215,"ĠNone":4216,"ĠTe":4217,"ĠDetermine":4218,"Ġgalax":4219,"Ġgovern":4220,"itis":4221,"och":4222,"Ġthreat":4223,"ĠMatthew":4224,"iated":4225,"ama":4226,"ris":4227,"CP":4228,"Ġbrain":4229,"Ġextra":4230,"Ġallows":4231,"Ġparameter":4232,"Ġbelieved":4233,"Ġhit":4234,"Ġlocation":4235,"Ġche":4236,"Ġswitch":4237,"ĠFurther":4238,"align":4239,"TP":4240,"icated":4241,"Ġalone":4242,"iding":4243,"ĠAmazon":4244,"Ġacqu":4245,"Ġapply":4246,"Ġdenominator":4247,"Ġstated":4248,"Ġclearly":4249,"Ġfriends":4250,"Ġcritical":4251,"fn":4252,"ether":4253,"ails":4254,"Ġdistance":4255,"oding":4256,"Ġbuy":4257,"Ġprices":4258,"ĠCopyright":4259,"};":4260,"Ġ00":4261,"duc":4262,"document":4263,"Ġthreshold":4264,"ecutive":4265,"ÑĤ":4266,"Ġvariable":4267,"Ġ($":4268,"Ġreduce":4269,"Exp":4270,"âĢĬ":4271,"Ġheight":4272,"},\\":4273,"%,":4274,"lem":4275,"čĊĠĠĠĠĠ":4276,"Ġ2017":4277,"Ġfeature":4278,"ĠTrans":4279,"Ġelectro":4280,"ersion":4281,"Ġcardiovascular":4282,"Ġwonder":4283,"New":4284,"ĠAssociation":4285,"Ab":4286,"Ġreligious":4287,"SC":4288,"static":4289,"ĠVal":4290,"BA":4291,"Ġask":4292,"rier":4293,"Ġleaders":4294,"osing":4295,"opl":4296,"ulf":4297,"Ġestablished":4298,"force":4299,"(),":4300,"ares":4301,"Ġtemperatures":4302,"SP":4303,"Now":4304,"icial":4305,"Ġones":4306,"Ġvirtual":4307,")).":4308,"using":4309,"encing":4310,"Ġbaby":4311,"athemat":4312,"Ġboard":4313,"here":4314,"ãĢ":4315,"Ġneither":4316,"icles":4317,"inf":4318,"Ġ2008":4319,"Ġbenefits":4320,"Ġreduction":4321,"Ġdeb":4322,"Ġparticipants":4323,"Ġmulti":4324,"Ġfields":4325,"ĠHamilton":4326,"oe":4327,"stream":4328,"Ġexcept":4329,"._":4330,"They":4331,"umption":4332,"Ġstri":4333,"Ġrecip":4334,"ĠEngland":4335,"Ġusers":4336,"Ġregarding":4337,"asion":4338,"čĊ":4339,"Ġengine":4340,"Ġphilosoph":4341,"cin":4342,"Ġactual":4343,"Ġknew":4344,"Ġparts":4345,"Ġposs":4346,"Ġingredients":4347,"Ġhighest":4348,"hold":4349,"sf":4350,"Ġexcellent":4351,"ĠIslam":4352,"Ġdiscl":4353,"oad":4354,"ester":4355,"ĠRev":4356,"Ġdatas":4357,"Ġtrigger":4358,"ĠLa":4359,"Ġfiles":4360,"Ġsuffer":4361,"Ġremains":4362,"Ġlocated":4363,"Ġcontaining":4364,"Ġfundamental":4365,"overline":4366,"Ġfrequency":4367,"cons":4368,"Ġpen":4369,"True":4370,"Ġcontains":4371,"Ġsupported":4372,"Ġserver":4373,"âĢĥ":4374,"Ġinstrument":4375,"Ġgenerated":4376,"inate":4377,"Ġattention":4378,"ios":4379,"ĠWindows":4380,"ĠSaturday":4381,"Ġunderstanding":4382,"Ġappears":4383,"Ġreceive":4384,"ptions":4385,"Ġoppos":4386,"Ġslow":4387,"TER":4388,"Ġax":4389,"Ġactivities":4390,"Ġsolid":4391,"Ġwidely":4392,"Ġdog":4393,"Ġtumors":4394,")**":4395,"Ġfinding":4396,"vis":4397,"unk":4398,"Ġfine":4399,"]--[@":4400,"']":4401,"Ġweb":4402,"geq":4403,"Ġdisp":4404,"From":4405,"ĠIL":4406,"ĠSyri":4407,"ATE":4408,"Ġpress":4409,"Ġremember":4410,"Ġ2009":4411,"ensuremath":4412,"Ġworth":4413,"Ġeconomic":4414,"Ġsites":4415,"Ġaud":4416,"Ġhop":4417,"ĠWest":4418,"target":4419,"Ġdu":4420,"Ġnumer":4421,"Ġunivers":4422,"Label":4423,"jpg":4424,"Ġinform":4425,"ĠAD":4426,"ĠCenter":4427,"Ġdeclared":4428,"inger":4429,"rep":4430,"ĠSchool":4431,"Ġtrust":4432,"hal":4433,"Ġnor":4434,"ĠAN":4435,"Rec":4436,"Ġcontrast":4437,"Ġspeak":4438,"Ġmid":4439,"tx":4440,"Ġdiscovered":4441,"Ġscenario":4442,"Ġvariables":4443,"Ġwasn":4444,"}.":4445,"Ġqual":4446,"Ġcapt":4447,"ĠAccording":4448,"Ġstar":4449,"Ġdistinguish":4450,"*-":4451,"ĠEm":4452,"Ġmaintenance":4453,"Ġreaction":4454,"Ġsum":4455,"Ġconcentration":4456,"ado":4457,"Ġmarijuana":4458,"Ġgoes":4459,"Ġschol":4460,"Ġson":4461,"Ġsenior":4462,"Ġfabric":4463,"Ġlegisl":4464,"Ġtim":4465,"Fr":4466,"call":4467,"Ġill":4468,"Ġplease":4469,"Ġenter":4470,"Ġculture":4471,"Ġauthors":4472,"pan":4473,"ĠIndia":4474,"Ġoxygen":4475,"Ġconstraints":4476,"image":4477,"Ġtraffic":4478,"Ġrules":4479,"ĠData":4480,"ĠMark":4481,"Ġinstructions":4482,"Ġsweet":4483,"Ġpo":4484,"¿Ã¿Ã¿Ã":4485,"Ġstore":4486,"Ġhon":4487,"Ġprevalence":4488,"Ġconc":4489,"PR":4490,"Ġuses":4491,"Ġbecoming":4492,"Ġapparatus":4493,"oddsidemargin":4494,"Ġapplications":4495,"Ġreports":4496,"Handler":4497,"Ġcop":4498,"Ġtheoretical":4499,"............":4500,"Ġdaughter":4501,"CS":4502,"Ġhearing":4503,"Ġsurpr":4504,"ql":4505,"Ġ]":4506,"Ġinsp":4507,"rich":4508,"Ġmother":4509,"Ġoperator":4510,"Ġinterview":4511,"Ġinteresting":4512,"Ġbecomes":4513,"related":4514,"oon":4515,"unn":4516,"Ġsetting":4517,"Ġdocuments":4518,"Form":4519,"ĠOf":4520,"ĠUSA":4521,"otal":4522,"Ġhands":4523,"edd":4524,"ham":4525,"Ġrestaur":4526,"ĠMassachusetts":4527,"BD":4528,"Ġdead":4529,"Ġshowing":4530,"Ġconstruction":4531,"Ġsampling":4532,"Ġinn":4533,"Ġstrategies":4534,"[]":4535,"Ġitems":4536,"Ġpolymer":4537,"ellow":4538,"Ġhybrid":4539,"ĠAngeles":4540,"ĠHar":4541,"color":4542,"Ġsmaller":4543,"Ġsurgical":4544,"icip":4545,"Ġeight":4546,"Ġresulting":4547,"oses":4548,"ĠDemocr":4549,"Ġyield":4550,"ensions":4551,"Ġmajority":4552,"Ġneurons":4553,"Ġclust":4554,"Ġimmigr":4555,"Ġcorrection":4556,"Item":4557,"erved":4558,"pa":4559,"Ġpolit":4560,"Ġstaff":4561,"Ġcognitive":4562,"object":4563,"Ġmanuscript":4564,"Ġ||":4565,"Ġdomain":4566,"enced":4567,"Ġregions":4568,"Ġcoefficients":4569,"iter":4570,"Ġ<<":4571,"*.":4572,"Ġproduce":4573,"Ġtissues":4574,"Ġsymmetry":4575,"Ġinjuries":4576,"formation":4577,"ĠĠĠĠĠĠĠĠĠĠĠĠĠĠĠĠĠĠĠĠĠĠĠĠĠĠĠĠĠĠĠĠĠĠĠĠĠĠĠĠĠĠĠĠĠĠĠĠĠĠĠĠĠĠĠĠĠĠĠĠĠĠĠĠĠĠĠĠĠĠĠĠĠĠĠĠĠĠĠĠĠĠĠĠĠĠĠĠĠĠĠĠĠĠĠĠĠĠĠĠĠĠĠĠĠĠĠĠĠĠĠĠĠĠĠĠĠĠĠĠ":4578,"ĠNe":4579,"Disclosure":4580,"Ġstock":4581,"Ġvolume":4582,"side":4583,"resent":4584,"Ġdefinitely":4585,"rying":4586,"ĠPhiladelphia":4587,"Ġtransport":4588,"Ct":4589,"Ġconsequ":4590,"Ġreasonable":4591,"fortunately":4592,"Ġproduced":4593,"Ġ45":4594,"Ġinstit":4595,"rypt":4596,"Ġmedium":4597,"Ġadjacent":4598,"Ġindicated":4599,"Ġturned":4600,"Ġextr":4601,"Ġskin":4602,"Ġsafety":4603,"reated":4604,"script":4605,"Ġdefense":4606,"Ġlooks":4607,"Ġstarting":4608,"Ġdivided":4609,"ĠMedicine":4610,"ĠPublic":4611,"attle":4612,"AIMS":4613,"Ġreading":4614,"State":4615,"Ġdecided":4616,"Ġatmosphere":4617,"Ass":4618,"Ġcontinues":4619,"Ġsound":4620,"atric":4621,"Ġforms":4622,"\\,":4623,"Ġpetition":4624,"Ġgets":4625,"ani":4626,"Ġsup":4627,"Ġ80":4628,"Ġlabor":4629,"Ġvitro":4630,"Ġbrought":4631,"ĠTH":4632,"bb":4633,"ĠFrom":4634,"orts":4635,"ponent":4636,"ls":4637,"Ġexists":4638,"ĠBu":4639,"Ġbed":4640,"Ġworked":4641,"='":4642,"ĊĠĠĠĠĠĠĠĠĠĠĠĠĠĠĠĠĠĠĠĠĠĠĠĠĠĠĠ":4643,"zz":4644,"Î²":4645,"Ġdark":4646,"ĠCO":4647,"Ġdefine":4648,"){#":4649,"Ġdiscretion":4650,"*(":4651,"Ġcomprehensive":4652,"Ġfix":4653,"EG":4654,"ĠInstead":4655,"Ġstand":4656,"Ġfraud":4657,"}-":4658,"Ġmaterials":4659,"enz":4660,"ĠHuman":4661,"':":4662,"ĠTable":4663,"alth":4664,"Ġinteraction":4665,"Ġroad":4666,"ceed":4667,"\\|":4668,"free":4669,"Ġmaximum":4670,"pper":4671,"Ġpromot":4672,"TYPE":4673,"anguage":4674,"Ġstd":4675,"Ġroot":4676,"Ġmg":4677,"/(":4678,"Ġcomputer":4679,"google":4680,"Ġextract":4681,"under":4682,"Ġfacts":4683,"Ġunderstood":4684,"ĠArizona":4685,"Ġ95":4686,"book":4687,"Ġzero":4688,"Ġseparate":4689,"Ġmanifest":4690,"Ġitem":4691,"ĠChar":4692,"elle":4693,"Ġnoted":4694,"_.":4695,"Ġ->":4696,"Ġnorm":4697,"Ġconcerning":4698,"Ġlov":4699,"Ġneut":4700,"now":4701,"ights":4702,"Ġdrive":4703,"fe":4704,"Ġplayed":4705,"Ġliability":4706,"py":4707,"Ġdoor":4708,"Ġ90":4709,"Ġtaste":4710,"Ġattached":4711,"Ġabsolute":4712,"Ġinternal":4713,"Ġthroughout":4714,"%%%%%%%%%%%%%%%%%%%%%%%%%%":4715,"tt":4716,"len":4717,"Ġgun":4718,"Ġbasic":4719,"olecules":4720,"Ġ!":4721,"check":4722,"Ġprocesses":4723,"MR":4724,"ĠMod":4725,"Ġeth":4726,"Ġachieve":4727,"AA":4728,"Ġsources":4729,"ĠIraq":4730,"Ġdiscipl":4731,"Ġtreat":4732,"ĠSection":4733,"ns":4734,"inant":4735,"Ġhealthy":4736,"Ġagree":4737,"Ġformation":4738,"Node":4739,"Ġmagnetic":4740,"Ġtotally":4741,"Ġchannels":4742,"Ġcool":4743,"Ġcollect":4744,"Ġprosecut":4745,"omas":4746,"ĠIllinois":4747,"Info":4748,"ifier":4749,"004":4750,"Ġdrop":4751,"Ġtests":4752,"Ġmode":4753,"Ġplayer":4754,"Ġheard":4755,"Ġimpossible":4756,"ishing":4757,"Ġtruly":4758,"Ġdest":4759,"Ġwrit":4760,"Ġdeliver":4761,"Ġfunctional":4762,"Ġsymptoms":4763,"Ġmessages":4764,"Event":4765,"lic":4766,"agr":4767,"ampionship":4768,"Ġconnected":4769,"duces":4770,"Ġactions":4771,"Ġconducted":4772,"Ġmarriage":4773,"Ġformed":4774,"imb":4775,"aling":4776,"Ġtoxic":4777,"Ġreceptors":4778,"Ġpreparation":4779,"zeta":4780,"Ġ});":4781,"Ġassembly":4782,"Ġremove":4783,"Ġcollection":4784,"Us":4785,"Ġfresh":4786,"Ġkn":4787,"eph":4788,"Ġreflect":4789,"approx":4790,"upport":4791,"Ġready":4792,"Ġcombination":4793,"SA":4794,"Ġaward":4795,"Vert":4796,"Ġdiagnosis":4797,"Ġcrazy":4798,"============================================================":4799,"Ġmilk":4800,"Ġlives":4801,"Ġconcept":4802,"Ġclosed":4803,"Ġ33":4804,"lob":4805,"det":4806,"--------------------------------":4807,"ĠCH":4808,"private":4809,"wedge":4810,"Ġwide":4811,"Ġsets":4812,"Ġsold":4813,"Ġmount":4814,"friend":4815,"Ġ48":4816,"which":4817,"uses":4818,"lt":4819,"Ġincreases":4820,"Ġaware":4821,"Ġ/**":4822,"Ġscientific":4823,"SU":4824,"Ġ\"\"":4825,"Ġphone":4826,"rad":4827,"title":4828,".[":4829,"enu":4830,"Ġri":4831,"ĠMore":4832,"Ġpictures":4833,"Le":4834,"Ġpoly":4835,"Ġplaying":4836,"Ġgastrointestinal":4837,")^":4838,"PD":4839,"umin":4840,"Ġseven":4841,"Context":4842,"Ġlif":4843,"Ġrace":4844,"Ġ37":4845,"Ġresources":4846,"olved":4847,"Ġsudden":4848,"Ġcrisis":4849,"grad":4850,"SM":4851,"start":4852,"ĠID":4853,"Ġconfig":4854,"Ġsimultaneously":4855,"FA":4856,"Ġcalculated":4857,"isation":4858,"oto":4859,"ĠGe":4860,"ways":4861,"Ġdescription":4862,"Ġsemiconductor":4863,"Ġbow":4864,"Ġdiameter":4865,"Ġdemonstrated":4866,"Ġsteps":4867,"irt":4868,"Ġquantum":4869,"conn":4870,"aine":4871,"HT":4872,"gener":4873,"Ġspin":4874,"berg":4875,"Ġprogression":4876,"Ġhum":4877,"Ġlooked":4878,"Ġlargely":4879,"rick":4880,"jo":4881,"ebug":4882,"Ġmoved":4883,"float":4884,"Ġequilibrium":4885,"ustom":4886,"Ġchoose":4887,"armaceutical":4888,"}}_":4889,"ponse":4890,"parent":4891,"Ġparent":4892,"iced":4893,"Ġmeeting":4894,"Ġlaser":4895,"wise":4896,"Another":4897,"Î±":4898,"Ġtoward":4899,"Ġign":4900,"Ġhappened":4901,"Ġpackage":4902,"Ġmonitoring":4903,"Ġpor":4904,"Ġprove":4905,"Ġproviding":4906,"Ġcapital":4907,"Ġperipheral":4908,"Ġmorning":4909,".'":4910,"Ġsegment":4911,"||":4912,"Ġfather":4913,"ĠRed":4914,"Ġplant":4915,"Filter":4916,"PO":4917,"ract":4918,"ĠLaw":4919,"Ġmoving":4920,"Ġfamiliar":4921,"Ġexposure":4922,"ĠClinton":4923,"jection":4924,"Ġconsistent":4925,"Ġthermal":4926,"Ġthinking":4927,"Ġdelay":4928,"Here":4929,"input":4930,"Ġshape":4931,"Ġ(\\":4932,"Ġmanifold":4933,")/(-":4934,"Ġgauge":4935,"xy":4936,"Ġsignificance":4937,"stitution":4938,"Out":4939,"Ġ\\,":4940,"Ġbul":4941,"gs":4942,"style":4943,"Ġpow":4944,"Ġpriv":4945,"Ġcontinuous":4946,"iam":4947,"Ġgiving":4948,"Ġvivo":4949,"Ġâī¥":4950,"Ġdamage":4951,"tered":4952,"Ġhttps":4953,"ĠEq":4954,"Ġcoach":4955,"Ġtablespoons":4956,"Ġtask":4957,"Ġcardiac":4958,"abs":4959,"oz":4960,"ĠList":4961,"Ġremoval":4962,"({":4963,"urity":4964,"Ġpeak":4965,"orrect":4966,"False":4967,"Big":4968,"empt":4969,"ĠGet":4970,"Ġgonna":4971,"ĠMinnesota":4972,"ada":4973,"Ġscheduled":4974,"ĠCR":4975,"ĠFl":4976,"Ġdetected":4977,"rence":4978,"ĠKorea":4979,"Ġfamilies":4980,"otype":4981,"ĊĊĠĠĠĠĠĠĠĠĠĠĠ":4982,"Ġpul":4983,"^{(":4984,"Ġharm":4985,"à¤":4986,"aly":4987,"Log":4988,"hy":4989,"vest":4990,"Ġobs":4991,"\\],":4992,"Ġindicate":4993,"Ġnearly":4994,"acellular":4995,"Ġtelevision":4996,"apping":4997,"ĠIndian":4998,"Ġamazing":4999,"Ġuns":5000,"Ġmusic":5001,"Ġtelephone":5002,"Ġembodiment":5003,"Ġmiddle":5004,"Ġdollars":5005,"asm":5006,"ĊĊĉ":5007,"avascript":5008,"Ġsecret":5009,"Ġblog":5010,"Sigma":5011,"ĠTest":5012,"Ġ2018":5013,"host":5014,"Ġcholesterol":5015,"002":5016,"Ġruling":5017,"Ġprem":5018,"true":5019,"čĊĠĠĠĠĠĠĠ":5020,"ocket":5021,"Ġhyp":5022,"Ġantibody":5023,"ĠAL":5024,"ĊĠĠĠĠĠĠĠĠĠĠĠĠĠĠĠĠĠĠĠĠĠĠĠĠĠĠĠĠĠĠĠĠĠĠĠĠĠĠĠĠĠĠĠĠĠ":5025,"Ġmetal":5026,"Ġtasks":5027,"/(-":5028,"Ġconspiracy":5029,"pol":5030,"ford":5031,"enty":5032,"Ġdistributed":5033,"Ġconversation":5034,"ĠKing":5035,"acing":5036,"}=\\":5037,"Ġworkers":5038,"EP":5039,"range":5040,"ĠHigh":5041,"ectors":5042,"Ġvehicle":5043,"Ġmac":5044,"Ġhear":5045,"}}(":5046,"ĠSocial":5047,"ainer":5048,"ĠHer":5049,"cles":5050,"ĊĊĠĠĠĠĠ":5051,"Ġnil":5052,",\\*^,":5053,"case":5054,"Ġexisting":5055,"Ġpopular":5056,"Ġcoefficient":5057,"IA":5058,"Ġlip":5059,"Ġrob":5060,"Ġcomments":5061,"esh":5062,"Ġbenefit":5063,"ĠFigure":5064,"RDPCSTX":5065,"ĠPost":5066,"Ġsuggested":5067,"Ġdiscussed":5068,"run":5069,"going":5070,"eah":5071,"Ġband":5072,"AV":5073,"IB":5074,"())":5075,"ka":5076,"Ġchance":5077,"\"></":5078,"ration":5079,"Ġadopted":5080,"Ġpot":5081,"Ġfoot":5082,"=============":5083,"Ġroll":5084,"ĠServices":5085,"ename":5086,"Ġcert":5087,"icians":5088,"Ġ((":5089,"ĠSan":5090,"Ġmedicine":5091,"Ġcorpor":5092,"Ġmag":5093,"Ġfinally":5094,"ĠSOFTWARE":5095,"]:":5096,"Ġmm":5097,"ĠHol":5098,"Ġimag":5099,"ĠAlso":5100,"Ġouter":5101,"ĠDivision":5102,"Ġapparently":5103,"ĠAppellant":5104,"Ġ34":5105,"Ġhor":5106,"atively":5107,"ĠIR":5108,"Ġwithdraw":5109,"Ġsafe":5110,"Ġafraid":5111,"Ġadministered":5112,"##":5113,"Ġbundle":5114,"amin":5115,"iqu":5116,"Ġlabel":5117,"\\/":5118,"ĠMus":5119,"Ġregul":5120,"ĠPark":5121,"Color":5122,"UM":5123,"cos":5124,"rest":5125,"ĠMe":5126,"Ġ70":5127,"Ġforeign":5128,"met":5129,"Ġinfection":5130,"Ġletter":5131,"Ġactivation":5132,"Ġexperiences":5133,"Ġcolon":5134,"Ġtesting":5135,"pert":5136,"Ġbank":5137,"Ġdiff":5138,"ldots":5139,"VER":5140,"Ġnation":5141,"Ġgreen":5142,"ming":5143,"Ġincome":5144,"Ġdev":5145,"Ġperspective":5146,"Ġunits":5147,"ĠCommission":5148,"Ġbreast":5149,"php":5150,"Trans":5151,"long":5152,"Ġmanner":5153,"ĠUK":5154,"gu":5155,"Box":5156,"Ġemail":5157,"Ġsummary":5158,"urt":5159,"Ġsend":5160,"Ġwa":5161,"Ġdrugs":5162,"Oh":5163,"Ġorganizations":5164,"board":5165,"ager":5166,"space":5167,"ned":5168,"config":5169,"Ġstudied":5170,"Ġfinite":5171,"Ġ36":5172,"Element":5173,"Ġtree":5174,"ĠSoftware":5175,"Ġavailability":5176,"ping":5177,"Ġfashion":5178,"ĠAnother":5179,"ĠEarth":5180,"ĠWhite":5181,"Ġdiscovery":5182,"olf":5183,"message":5184,"ĠEven":5185,"java":5186,"Ġclick":5187,"Ġyourself":5188,"Ġresponsible":5189,"Ġprobability":5190,"uate":5191,"Ð¸":5192,"Ġshooting":5193,"ĠSecretary":5194,"Ġfear":5195,"ĠRNA":5196,"Ġunlikely":5197,"ba":5198,"Ġtrade":5199,"ĠJapanese":5200,"CM":5201,"Ġbodies":5202,"aterials":5203,"Ġhem":5204,"ĠĠĠĠĠĠĠĠĠĠĠĠĠĠĠĠ":5205,"airs":5206,"Ġapproximately":5207,"ĠSpec":5208,"ĠTO":5209,"Ġsexual":5210,"Ġendothelial":5211,"Ġobjects":5212,"fa":5213,"idden":5214,"Ġneglig":5215,"ĠFrancis":5216,"Ġshot":5217,"Inter":5218,"Ġdomestic":5219,"[\\":5220,"pass":5221,"icle":5222,"Ġpancreatic":5223,"Ġinvestigation":5224,"Ġmale":5225,"Array":5226,"ble":5227,"ĠAnt":5228,"Ġstation":5229,"Ġprograms":5230,"Ġdenied":5231,"Ġmovement":5232,"ĠLouis":5233,"Ġ2000":5234,"Ġlayers":5235,"rupt":5236,"ĠRel":5237,"ĠPM":5238,"Ġcaught":5239,"Ġpanel":5240,"OU":5241,"Ġaccordance":5242,"ĠSebastian":5243,"Ġrecords":5244,"Ġcompar":5245,"Ġvariety":5246,"pe":5247,"idget":5248,"Ġ=\\":5249,"Ġcontinued":5250,"Ġstructures":5251,"[^":5252,"Ġwife":5253,"Ġjuice":5254,"Ġtomorrow":5255,"âĢ²":5256,"ĠOther":5257,"User":5258,"aker":5259,"Ġ42":5260,"Ġpassed":5261,"Ġwave":5262,"ESS":5263,"ĠView":5264,"Ġcompr":5265,"ky":5266,"ĠSim":5267,"Ġbeginning":5268,"Size":5269,"Ġsave":5270,"Ġcontrovers":5271,"Ġcarried":5272,"ara":5273,"TS":5274,"aper":5275,")?":5276,"Ġunnecessary":5277,"*~":5278,"Ġbacter":5279,"Ġgastric":5280,"Ġassume":5281,"dep":5282,"Ġacceler":5283,"iers":5284,"ĠMon":5285,"ĠCancer":5286,"Ġliver":5287,"ĠCode":5288,"ifferent":5289,"Ġsing":5290,"orb":5291,"Ġexperimental":5292,"struction":5293,"Ġseed":5294,"ĠCarolina":5295,"Ġborder":5296,"Ġdischarge":5297,"Ġoptim":5298,"Ġthick":5299,"Ġprocessing":5300,"ĠJewish":5301,"Ġcatch":5302,"ili":5303,"Read":5304,"ĠCan":5305,"Ġut":5306,"Ġelectrical":5307,"ests":5308,"Ġnovel":5309,"Ġpseud":5310,"ĠRef":5311,"Ġtalking":5312,"Ġfigures":5313,"Ġemotional":5314,"aim":5315,"Ġstuff":5316,"Ġstatute":5317,"olid":5318,"ĠSur":5319,"Ġconver":5320,"Ġexception":5321,"Ġdetection":5322,"CO":5323,"Ġhappy":5324,"Ġarrived":5325,"Ġinflu":5326,"Up":5327,"Ġupdated":5328,"Ġinduced":5329,"ĠHospital":5330,"otimes":5331,"Ġvan":5332,"Ġsuccessful":5333,"Ġrefriger":5334,"ĠCON":5335,"Ġcorrelation":5336,"ĠStat":5337,"ading":5338,"Ġcompliance":5339,"ĠJournal":5340,"Ġremaining":5341,"AY":5342,"Ġpark":5343,"Ġkin":5344,"Ġcore":5345,"ĠDonald":5346,"TC":5347,"Ġprofessional":5348,"Ġsell":5349,"Ġagg":5350,"Ġsorry":5351,"inding":5352,"Ġtested":5353,"Ġkilled":5354,"ĠGen":5355,"etroleum":5356,"Ġcolleagues":5357,"ĠTR":5358,"ĠOhio":5359,"Call":5360,"Ġselection":5361,"Ġbond":5362,"Ġshift":5363,"Ġminor":5364,"Ġreached":5365,"ĠLemma":5366,"Val":5367,"\"},":5368,"sur":5369,"Ġcombined":5370,"udes":5371,"Ġtend":5372,"actor":5373,"Ġreturned":5374,"Ġupdate":5375,"Ġelectric":5376,"Ġdiagnostic":5377,"oney":5378,"ync":5379,":\\":5380,"Ġclasses":5381,"Ġjudge":5382,"Ġtruth":5383,"ĠNote":5384,"ship":5385,"Ġimproved":5386,"car":5387,"Ġframe":5388,"Ġrat":5389,"Ġwants":5390,"Ġserve":5391,"Ġsolutions":5392,"Ġonto":5393,"Ġthrow":5394,"Ġstroke":5395,"Ġfirm":5396,"Ġsuggests":5397,"block":5398,"Ġcareer":5399,"Ġepisode":5400,"Ġconstitutional":5401,"Ġmaybe":5402,"Ġvacuum":5403,"Yes":5404,"Ġcamp":5405,"Ġchallenge":5406,"Ġ2006":5407,"Ġoscill":5408,"Ġrelation":5409,"Ġreplacement":5410,"Ġwavelength":5411,"Ġhour":5412,"dot":5413,"Ġofficials":5414,"section":5415,"Ġcontrols":5416,"**^":5417,"Ġsentence":5418,"Ġunless":5419,"ATION":5420,"Ċĉĉĉĉĉĉĉĉĉĉĉ":5421,"Ġ${":5422,"Ġ---":5423,"ĠMartin":5424,"ench":5425,"Ġleads":5426,"Ġtypically":5427,"arc":5428,"ĠArt":5429,"Ġultimately":5430,"Ġampl":5431,"Ġwhereas":5432,"Pr":5433,"Ġagreed":5434,"after":5435,"Ġexplain":5436,"aud":5437,"Ġcommit":5438,"ifying":5439,"Ġ2007":5440,"ĠNevertheless":5441,"DR":5442,"Per":5443,"itz":5444,"Ġderived":5445,"Ġcompensation":5446,"Ġdied":5447,"atin":5448,"Ġraised":5449,"Ġepithelial":5450,"Ġoccurred":5451,"Ġpursuant":5452,"orescence":5453,"kg":5454,"ĠInter":5455,"Ġdecreased":5456,"Ġpicked":5457,"Ġdiversity":5458,"Ġship":5459,"Ġinequality":5460,"Ġdistributions":5461,"Ġded":5462,"option":5463,"&&":5464,"ocyte":5465,"Ġlegislation":5466,"anded":5467,"ius":5468,"Ġtal":5469,"Ġspread":5470,"Dec":5471,"ĠNOT":5472,"Ġdismiss":5473,"PP":5474,"Ġregister":5475,"lication":5476,"Ġaffected":5477,"Ġbillion":5478,"ĠSimilarly":5479,"Code":5480,"Ġrare":5481,"yr":5482,"Rep":5483,"agement":5484,"Ġnuclear":5485,"Method":5486,"Ġgrowing":5487,"Ġautom":5488,"level":5489,"Ġrow":5490,"ĠDec":5491,"Ġedge":5492,"ĠGroup":5493,"}}{":5494,"stract":5495,"Ġbuffer":5496,"Ġnames":5497,"Ġsugges":5498,"ĠAppeals":5499,"Ġdiscrimination":5500,"ĠAdditionally":5501,"Ġdie":5502,"api":5503,"Ġplans":5504,"Ġtools":5505,"build":5506,"Ġmo":5507,"Ġsustain":5508,"Count":5509,"hel":5510,"Ġgeneration":5511,"Ġkid":5512,"Ġchemical":5513,"ĠReturn":5514,"hibits":5515,"Ġwild":5516,"Ġspent":5517,"Ġadequate":5518,"Ġod":5519,"Ġclient":5520,"dec":5521,"iant":5522,"({\\":5523,"Ġwish":5524,"Ġrepresentation":5525,"ĠEast":5526,"ĠEuropean":5527,"Ġmolecular":5528,"Service":5529,"Ġdebt":5530,"Ġcohort":5531,"Ġcalls":5532,"Ġasympt":5533,"Ġfeet":5534,"inflammatory":5535,"EXPECTED":5536,"Do":5537,"Su":5538,"čĊĉ":5539,"open":5540,"Image":5541,"atabase":5542,"main":5543,"ĠMost":5544,"ĊĠĠĠĠĠĠĠĠĠĠĠĠĠĠĠĠĠ":5545,"Ġalgorithm":5546,"Ġsubjects":5547,"Ġestimated":5548,"500":5549,"Ġnone":5550,"Ġdisadvant":5551,"ĠTV":5552,"ographic":5553,"Ġloop":5554,"Field":5555,"yd":5556,"Any":5557,"ĠTennessee":5558,"Ġplaces":5559,"Ġ__":5560,"Ġmigration":5561,"nutrients":5562,"ĠPal":5563,"ptr":5564,"Why":5565,"ignment":5566,"Ġprotect":5567,"ometry":5568,"Fl":5569,"Ġherself":5570,"ĠRichard":5571,"Ġmoderate":5572,"KeyWord":5573,"Ġintroduced":5574,"ingly":5575,"Ġprim":5576,"Ġsoft":5577,"actory":5578,"Ġefforts":5579,"ÑĢ":5580,"Ġter":5581,"Ġhandle":5582,"Ġdiscussion":5583,"Ġplanned":5584,"Ġnet":5585,"Ġblue":5586,"ĠPARTICULAR":5587,"release":5588,"Ġnice":5589,"Ġprotocol":5590,"ressive":5591,"QL":5592,"Ġandroid":5593,"olean":5594,"TA":5595,"Ġvent":5596,"Ġ&\\":5597,"Department":5598,"Ġcytok":5599,"Ġdrink":5600,"Ġexplanation":5601,"ĠBro":5602,"Ġletters":5603,"Comp":5604,"Ġdiet":5605,"ires":5606,"Ġapoptosis":5607,"Ġmitochond":5608,"Ġlock":5609,"Ġvote":5610,"Ġprotection":5611,"inner":5612,"ĠYour":5613,"Act":5614,"types":5615,"ĠNS":5616,"Ġdescribe":5617,"Ġcouldn":5618,"Ġvisual":5619,"Because":5620,"ĠArmy":5621,"ĠER":5622,"ĠPlaintiff":5623,"ĠDon":5624,"Ġunderwent":5625,"Ġsurveillance":5626,"Ġ2005":5627,"Ġmodern":5628,"*)":5629,"Ġoutcome":5630,"Ġdropped":5631,"core":5632,"Ġserum":5633,"ĠDirector":5634,"ĠâĨĴ":5635,"NF":5636,"create":5637,"**(-":5638,"Ġarm":5639,"Ġcrowd":5640,"Ġâī¤":5641,";\\;\\;\\;\\":5642,"Ġ38":5643,"prefix":5644,"Ġmetabolic":5645,"See":5646,"Ġcoconut":5647,"!!":5648,"Ġcollected":5649,"Ġaffect":5650,"Ġevaluated":5651,"hes":5652,"Ġmental":5653,"Ġadapt":5654,"Ġplate":5655,"Ġemphas":5656,"BI":5657,"Ġplus":5658,"kay":5659,"Ġtechnique":5660,"]\\],":5661,"ĠBank":5662,"sequently":5663,"anged":5664,"gt":5665,"Ġ(**":5666,"Ġmovie":5667,"Ġanswers":5668,"Ġweapons":5669,"Ġstudent":5670,"Builder":5671,"Ġtrauma":5672,"Ġmissing":5673,"Ġsurv":5674,"ĠSuper":5675,"ston":5676,"Ġcertainly":5677,"Ġmillions":5678,"Ġ~":5679,"Ġwouldn":5680,"Ġ()":5681,"Ġlinks":5682,"pc":5683,"Ġacademic":5684,"icensed":5685,"Ġdisorders":5686,"ĠPC":5687,"well":5688,"Ġcommunication":5689,"$]{};":5690,"ĠSociety":5691,"Ġexplained":5692,"Ã³":5693,"resp":5694,"Ġ(!":5695,"Ġtempor":5696,"Mod":5697,"result":5698,"Ġprojects":5699,"Ġvolunte":5700,"GC":5701,"ĠEnd":5702,"ĠĊĠĠĠĠĠĠĠĠĠĠĠĠĠĠĠ":5703,"Ġefficient":5704,"Ġoperations":5705,"ĠOver":5706,"Ġencour":5707,"Ġcred":5708,"Ġeconomy":5709,"Ġabsence":5710,"Return":5711,"```":5712,"url":5713,"ĠAT":5714,"gram":5715,"ubl":5716,"Ġvertical":5717,"ĠNews":5718,"De":5719,"Ġinvolvement":5720,"Ġverdict":5721,"Ġtransl":5722,"abil":5723,"cussion":5724,"Ġmoments":5725,"Ġexternal":5726,"'.":5727,"Ġhair":5728,"Ġforces":5729,"Ġbus":5730,"While":5731,"Ġlaws":5732,"Ġreligion":5733,"local":5734,"bor":5735,"xml":5736,"Ġcm":5737,"**,":5738,"Ġkept":5739,"itional":5740,"Ġnetworks":5741,"even":5742,"Ġaccepted":5743,"Ġsupply":5744,"Ġvideos":5745,"Ġprepare":5746,"DA":5747,"Ġsurfaces":5748,"Ġdecrease":5749,"Ġpun":5750,"ĠCPU":5751,"Style":5752,"ĠCommun":5753,"CON":5754,"2015":5755,"Ġjobs":5756,"iled":5757,"Ser":5758,"Ġkids":5759,"ih":5760,"Be":5761,"false":5762,"Ġmist":5763,"Ġelectron":5764,"Ġscience":5765,"Ġchronic":5766,"rl":5767,"ialog":5768,"Ġresponses":5769,"Ġfarm":5770,"ows":5771,"Ġenforcement":5772,"Ġnegoti":5773,"Ġauthority":5774,"Reg":5775,"Ġflex":5776,"Ġmotor":5777,"amily":5778,"model":5779,"Ġdisapp":5780,"Ġcouncil":5781,"ien":5782,"lear":5783,"Ġadenocarcinoma":5784,"before":5785,"Ġcast":5786,"Ñģ":5787,"osh":5788,"Ġkitchen":5789,"Ġintended":5790,"ĠBoston":5791,"}+":5792,"olt":5793,"\\!\\!":5794,"iller":5795,"Ġbrowser":5796,"Ġstatutory":5797,"Ġoccup":5798,"ĠNet":5799,"Ġrequirements":5800,"content":5801,"Ġmucos":5802,".$$":5803,"/**":5804,"Ġsy":5805,"ĠClass":5806,"Ġadding":5807,"ypes":5808,"âĢĿ.":5809,"Ġserved":5810,"Ġagent":5811,"Ġideas":5812,"Ġhistor":5813,"Ġchain":5814,"earch":5815,"Ġentry":5816,"Ġtour":5817,"icted":5818,"Ġbelong":5819,"Ġguy":5820,"Ġtraditional":5821,".[@":5822,"Our":5823,"illa":5824,"Ġprejud":5825,"Ġextent":5826,"Ġjava":5827,"cr":5828,"Ġapplies":5829,"Ġglucose":5830,"Ġexpert":5831,"Ġcreating":5832,"Ġjoint":5833,"Ġholds":5834,"oted":5835,"ĠFOR":5836,"ramework":5837,"Ġmortgage":5838,"ĠEducation":5839,"uted":5840,"ĠAmendment":5841,"Ġflav":5842,",-":5843,"Ġinterests":5844,"Ġfemales":5845,"Ġchrom":5846,"Ġteams":5847,"Ġwhom":5848,"nam":5849,"Ġtrend":5850,"Ġfragment":5851,"orter":5852,"Ġguess":5853,"Ġinterval":5854,"Map":5855,"Ġalpha":5856,"First":5857,"iot":5858,"Ġanxiety":5859,"Ġpermanent":5860,"MC":5861,"ĠWell":5862,"Ġfeeling":5863,"Ġsauce":5864,"Ġequations":5865,"MP":5866,"rot":5867,"Ġcycle":5868,"ĠGiven":5869,"Ġspokes":5870,".](":5871,"^âĪĴ":5872,"pping":5873,"Ġdirector":5874,"ynamic":5875,"TO":5876,"post":5877,"Ġec":5878,"Ġevolution":5879,"ĠGermany":5880,"Ġcurve":5881,"Ġsouth":5882,"Ġinterface":5883,"context":5884,"Ġsharp":5885,"Equ":5886,"eters":5887,"$(":5888,"Ġseverity":5889,")/(":5890,"Ġelevated":5891,"Ġrepro":5892,"!--":5893,"Att":5894,"ĠAir":5895,"ĠEach":5896,"Ġgrand":5897,"amb":5898,"ĠAny":5899,"Ġassessment":5900,"Ġpolymorph":5901,"-(":5902,"DL":5903,"Ġinteractions":5904,"ĠSub":5905,"une":5906,"Ġentered":5907,"Ġdiagram":5908,"last":5909,"Ġrecon":5910,"ĠYoung":5911,"\\{":5912,"amer":5913,"Ġwind":5914,"dt":5915,"bound":5916,"Ġdose":5917,"ĠURL":5918,"Ġeat":5919,"Ġelim":5920,"Ġguys":5921,"System":5922,"}|":5923,"Ġmal":5924,"valid":5925,"Ġconcentrations":5926,"FLAGS":5927,"inite":5928,"more":5929,"rap":5930,"Ġcyt":5931,"OUT":5932,"cor":5933,"ilt":5934,"Ġcauses":5935,"ĠGreen":5936,"ini":5937,"Br":5938,"ologies":5939,"ĠCanada":5940,"ALL":5941,"Ġradio":5942,"Ġspatial":5943,"Ġaircraft":5944,"font":5945,"nav":5946,"iral":5947,"Ġmodule":5948,"Ġrequiring":5949,"Ġescape":5950,"Ġimplic":5951,"ĠAR":5952,"dir":5953,"ĠRem":5954,"istent":5955,"agon":5956,"ĠMor":5957,"ny":5958,"inder":5959,"Token":5960,"Ġvaluable":5961,"SI":5962,"Ġconfirm":5963,"ĠCommonwealth":5964,"lets":5965,"However":5966,"ĠCL":5967,"Ġproposal":5968,"Well":5969,"wards":5970,"Ã£o":5971,"Ġstretch":5972,"ĠâĶĤ":5973,"ĠDespite":5974,"ca":5975,"Ġrejected":5976,"Property":5977,"Ġfilter":5978,"Ġproperly":5979,"ĠSuch":5980,"Ġpatterns":5981,"BL":5982,"how":5983,"anges":5984,"Can":5985,"ĠTwo":5986,"Ġestimate":5987,"Ġrestric":5988,"care":5989,"icate":5990,"ĠĠĠĠĠĠĠĠĠĠĠĠĠĠĠĠĠ":5991,"ĠON":5992,"Ġmechanisms":5993,"Ġheterogene":5994,"Ġstream":5995,"Ġexec":5996,"aved":5997,"ABLE":5998,"else":5999,"Ġevaluate":6000,"Ġ};":6001,"Ġpiece":6002,"Ġbegins":6003,"child":6004,"while":6005,"ĠÎ¼":6006,"Empty":6007,"Ġvictory":6008,"eps":6009,"ĠBoth":6010,"iling":6011,"Ġ(\"":6012,"Ġ{{\\":6013,"doc":6014,"ailed":6015,"spec":6016,"Finally":6017,"Ġcharges":6018,"Ġund":6019,"etween":6020,"rough":6021,"Ġrestricted":6022,"Ġannounce":6023,"0001":6024,"ensor":6025,"Ġcrime":6026,"ME":6027,"just":6028,"iny":6029,"UE":6030,"Some":6031,"ĠCA":6032,"Ġstatements":6033,"Ġfrozen":6034,"ivariate":6035,"ello":6036,"Ġformula":6037,"rey":6038,"util":6039,"ĠOklahoma":6040,"Ġnorth":6041,"Ġindicates":6042,"Connection":6043,"SH":6044,"ĠGNU":6045,"Ġens":6046,"Ġ\"[":6047,"Ġcontained":6048,"Ġmel":6049,"Ġorganization":6050,"Ġinvalid":6051,"Ġalleg":6052,"Ġrecorded":6053,"Ġconscious":6054,"Ġconclusion":6055,"Ġunemployment":6056,"Ġinterested":6057,"Ġcontrolled":6058,"Date":6059,"Ġ++":6060,"Ġoffered":6061,"ĠCatholic":6062,"itions":6063,"Ġpossibility":6064,"Ġphen":6065,"default":6066,"Width":6067,"src":6068,"ĠSte":6069,"ato":6070,"Ġresolution":6071,"Ġexistence":6072,"Group":6073,"aciÃ³n":6074,"Ġrisks":6075,"=&":6076,"Ġnodes":6077,"Ġathlet":6078,"Ġschedule":6079,"Ġgold":6080,"Ġaren":6081,"Ġlib":6082,"Ġ44":6083,"Source":6084,"Ġgone":6085,"Ġquick":6086,"Ġfluid":6087,"ĠOrgan":6088,"Ġbasketball":6089,"ĠOlymp":6090,"Ġantimicrobial":6091,"Ġconserv":6092,".*":6093,"KE":6094,"Ġindustrial":6095,"uation":6096,"Ġgoals":6097,"Ġinvariant":6098,"ĠTokyo":6099,"android":6100,"ĠUnder":6101,"Ġreferred":6102,"Ġturning":6103,"Ġgain":6104,"Ġbehalf":6105,"current":6106,"Ġdriver":6107,"ĠJackson":6108,"di":6109,"Ġvacc":6110,"query":6111,"Ġcomfortable":6112,"izer":6113,"Ġchicken":6114,"})$":6115,"tag":6116,"Ġconvert":6117,"Ġintellectual":6118,"yg":6119,"Ġstars":6120,")*(":6121,"ĠEv":6122,"John":6123,"rete":6124,"stant":6125,"STR":6126,"Ġfloor":6127,"first":6128,"Ġholding":6129,"Provider":6130,"OX":6131,"Ġom":6132,"Ġsale":6133,"Ġ43":6134,"Ġsummer":6135,"Ġliterature":6136,"Ġagents":6137,"Ġcollege":6138,"widehat":6139,"******":6140,"rine":6141,"Ġolder":6142,"Ġoffers":6143,"Ġteaspoon":6144,"Ent":6145,"ĠMexico":6146,"ested":6147,"ĠHT":6148,"ĠEr":6149,"''":6150,"Ã¶":6151,"Ġprecisely":6152,"Ġanalysed":6153,"Ġcolorectal":6154,"DS":6155,"Ġgenerate":6156,"world":6157,"ĠTime":6158,"Ġ500":6159,"ĠSH":6160,"udd":6161,"Ġwire":6162,"Ġbranch":6163,"CN":6164,"can":6165,"wood":6166,"Ġimportance":6167,"ouch":6168,"Ġdeveloping":6169,"Ġconsum":6170,"Ġsin":6171,"Ġconfiguration":6172,"-------------":6173,"yphermox":6174,"Ġbreath":6175,"Ġidentity":6176,"was":6177,"Ġabuse":6178,"Ġextended":6179,"ĠExp":6180,"Ġexamples":6181,"weight":6182,"Ġsalt":6183,"Ġhappens":6184,"night":6185,"Ġ39":6186,"Ġprison":6187,"Ġbattery":6188,"ĠCEO":6189,"ĠFROM":6190,"Ġextreme":6191,"bin":6192,"Ġrise":6193,"Ġscal":6194,"Ġthank":6195,"omething":6196,"Ġstimulation":6197,"dimensional":6198,"ĠAP":6199,"Ġexamined":6200,"ĠBlack":6201,"bottom":6202,"Ġfamous":6203,"Ġoblig":6204,"Ġrecover":6205,"Ġformat":6206,"Ġerrors":6207,"ln":6208,"aced":6209,"img":6210,"ĠSolve":6211,"ĠPeople":6212,"Ġyesterday":6213,"Ġcharacters":6214,"Ġentreprene":6215,"dr":6216,"ĠPre":6217,"Ġcompounds":6218,"event":6219,"Ġbinary":6220,"ipped":6221,"dist":6222,"ĠMal":6223,"flow":6224,"ĠWH":6225,"Ġspeech":6226,"xx":6227,"Ġcharged":6228,"ĠBusiness":6229,"Ġparticles":6230,"Ġmax":6231,"\").":6232,"Ġschools":6233,"Ġpenalty":6234,"Ġcold":6235,"Ġprosp":6236,"Ġsales":6237,"ĊĊĠĠĠĠĠĠ":6238,"oms":6239,"âĸĶâĸĶâĸĶ":6240,"olar":6241,"Ġmorph":6242,"ĠDet":6243,"ancing":6244,"Ġcoverage":6245,"Ġsquare":6246,";\\":6247,"ĠAtlant":6248,"Ġprofile":6249,"Don":6250,"Ġreturns":6251,"reek":6252,"ĠBritain":6253,"ĠToronto":6254,"Ġinner":6255,"Ġcategory":6256,"Ġevaluation":6257,"Ġlanguages":6258,"ĠSet":6259,"ĠTheorem":6260,"ĠMedical":6261,"Ġsuscept":6262,"select":6263,"Ġmuscle":6264,"ĠKe":6265,"Ġpayment":6266,"Back":6267,"ĠDel":6268,"anda":6269,"Ġclin":6270,"Ġpartners":6271,"Ġhighlight":6272,"Ġspecified":6273,"tes":6274,"Ġdimension":6275,"ĠForm":6276,"Ġ05":6277,"Ġmeant":6278,"Ġclub":6279,"apped":6280,"num":6281,"PH":6282,"cel":6283,"Ġvascular":6284,"othing":6285,"Ġstable":6286,"Ġnaturally":6287,"icity":6288,"Ġsequences":6289,"LC":6290,"Ġinvestigated":6291,"abilities":6292,"ĠCambridge":6293,"LO":6294,"ĠEvery":6295,"Ġexact":6296,"**)":6297,"Ġnamely":6298,"evel":6299,"Ġdigit":6300,"ECT":6301,"Ġmetast":6302,"match":6303,"Par":6304,"Ġgoogle":6305,"------------------------------------------------------------------------------------------------":6306,"Ġmatrices":6307,"Ġchamber":6308,"Bar":6309,"ulating":6310,"Ġfifth":6311,"Ġshared":6312,"Ġmeasurement":6313,"Ġdemand":6314,"Ġmeasuring":6315,"(\\[":6316,"Ġtransplant":6317,"Ġcarcinoma":6318,"Ġdry":6319,"Ġ2004":6320,"Ġconcerns":6321,"GA":6322,"Ġsmoking":6323,"ĠService":6324,"Ġconclude":6325,"Ġmeasurements":6326,"ÂłÂłÂł":6327,"Ġreality":6328,"ĠGerman":6329,"Ġpercentage":6330,"Ġwestern":6331,"âĶľâĶĢâĶĢâĶĢâĶĢâĶĢâĶĢâĶĢâĶĢâĶĢâĶĢâĶĢâĶĢâĶĢâĶĢâĶĢâĶ¼âĶĢâĶĢâĶĢâĶĢâĶĢâĶĢâĶĢâĶĢâĶĢâĶĢâĶĢâĶĢâĶĢâĶĢâĶĢâĶĢâĶĢâĶĢâĶĢâĶĢâĶĢâĶĢâĶĢâĶĢâĶĢâĶĢâĶĢâĶĢâĶĢâĶĢâĶĢâĶĢâĶĢâĶĢâĶĢâĶĢâĶĢâĶĢâĶĢâĶĢâĶĢâĶĢâĶĢâĶĢâĶĢâĶĢâĶĢâĶĢâĶĢâĶĢâĶĢâĶĢâĶĢâĶĢâĶĢâĶĢâĶĢâĶĢâĶĢâĶĢâĶĢâĶĢâĶ¤":6332,"std":6333,"005":6334,"Ġsigned":6335,"Ġsuit":6336,"Ġrepresented":6337,"Ġoptical":6338,"kin":6339,"Ġahead":6340,"ODE":6341,"Ġpure":6342,"Ġachieved":6343,"Ġ46":6344,"Ġopening":6345,"Ġpositions":6346,"Ġcoffee":6347,"MT":6348,"UD":6349,"ĠWhy":6350,"ĠUnion":6351,"Ġrank":6352,"2010":6353,"2017":6354,"Ġpapers":6355,"Ġgarden":6356,"ummary":6357,"Integer":6358,"ears":6359,"ĠSecond":6360,"ads":6361,"Ġ55":6362,"**]{}":6363,"Ġ${{\\":6364,"css":6365,"ĠBer":6366,"Ġknows":6367,"Ġreceiving":6368,"Ġimplementation":6369,"gent":6370,"Ġcomposition":6371,"Ġmaintain":6372,"andard":6373,"2013":6374,"operative":6375,"Ġdigital":6376,"ĠFe":6377,"ĠFrance":6378,"Ġreve":6379,"ĠCa":6380,"Ġstrict":6381,"ĠMet":6382,"oprotein":6383,"ĠCollege":6384,"Phi":6385,"End":6386,"abb":6387,"ĠRead":6388,"Ġtaught":6389,"Ġoperating":6390,"Ġsucceed":6391,"Ġlaunched":6392,"Ġpharmac":6393,"Ġagency":6394,"Ġfourth":6395,"ias":6396,"Ġdraft":6397,"ĠRom":6398,"Ġallowing":6399,"Ġconvenient":6400,"Ġ75":6401,"inations":6402,"Ġplants":6403,"AF":6404,"--------------":6405,"Ġwelcome":6406,"Ġscenarios":6407,"Ġshop":6408,"Ġcustomers":6409,"ĠWilson":6410,"Ġowners":6411,"Ġcarry":6412,"ASS":6413,"%.":6414,"mic":6415,"ĠBre":6416,"ĠUN":6417,"Ġviolence":6418,"Ġdys":6419,"Ġquery":6420,"Ġowner":6421,"Ġinsulin":6422,"scopic":6423,"Ġsanctions":6424,"Message":6425,"Ġ41":6426,"Ġkernel":6427,"ĠCell":6428,"ĠFinally":6429,"Ġgoverning":6430,"Sub":6431,"lands":6432,"ĠĠĠĠĠĠĠĠĠĠĠĠĠĠĠĠĠĠ":6433,"Ġhelped":6434,"(&":6435,"ĠOut":6436,"ĠAmericans":6437,"center":6438,"Handle":6439,"Ġabandon":6440,"arian":6441,"Ġwidespread":6442,"Ġ64":6443,"Ġder":6444,"Ġextension":6445,"aneous":6446,"sd":6447,"Ġattract":6448,"According":6449,"Ġdesired":6450,"Ġleaves":6451,"strong":6452,"Ġrac":6453,"ĠMac":6454,"ĠDep":6455,"ository":6456,"Gu":6457,"ĠCI":6458,"Ġdecisions":6459,"refer":6460,"Ġvulnerable":6461,"Ġgranted":6462,"ĠĠĠĠĠĠĠĠĠĠĠĠĠĠĠĠĠĠĠ":6463,"rency":6464,"Ġsat":6465,"Ġestimates":6466,"ĠStreet":6467,"Ġconnect":6468,"iance":6469,"uint":6470,"Ġadministrative":6471,"Ġacts":6472,"ĠIII":6473,"ĠChurch":6474,"Ġsupplement":6475,"Ġinsert":6476,"Ġcalcium":6477,"Ġglass":6478,"âĢĶâĢĶ":6479,"Ġcovered":6480,"ĠLeague":6481,"Ġoverride":6482,"PT":6483,"Ġinvestigate":6484,"MOESM":6485,"1534735419827098":6486,"cs":6487,"Ġgly":6488,"Ġeasier":6489,"Ġrevenue":6490,"Ġpurchase":6491,"ĠEnergy":6492,"amssymb":6493,"Ġtestified":6494,"AND":6495,"Ġassessed":6496,"eful":6497,"CHECK":6498,"Ġunderlying":6499,"Ġcond":6500,"amine":6501,"Ġchurch":6502,"Ġruns":6503,"ĠJames":6504,"Ġattorneys":6505,"../":6506,"Ġsun":6507,"Ġsections":6508,"Ġoccurs":6509,"END":6510,"yan":6511,"Ġanimal":6512,"ĠBay":6513,"Â·":6514,"Ġ49":6515,"Ġaccuracy":6516,"Ġteacher":6517,"Ġregulation":6518,"âĪ":6519,"ĠUse":6520,"ifications":6521,"ĠChristian":6522,"ĠCivil":6523,"Ġsimpl":6524,"mar":6525,"Ġeduc":6526,"Ġhab":6527,"ĠOpen":6528,"Ġskills":6529,"Ġ47":6530,"Ġemployee":6531,"Ġcoronavirus":6532,"ĠCONDITIONS":6533,"Ġdesc":6534,"Ġstrongly":6535,"mathrsfs":6536,"ĠPort":6537,"Ġstick":6538,"osp":6539,"Ġvinegar":6540,"ĠGaussian":6541,"itative":6542,"Ġincident":6543,"Ġintervals":6544,"Ġsurvey":6545,"ĠSmith":6546,"*\\":6547,"ĠBitcoin":6548,"Ġpip":6549,"Ġpool":6550,"}}_{":6551,"func":6552,"Ġrich":6553,"Ġoverl":6554,"page":6555,"elled":6556,"Ġleader":6557,".</":6558,"ĠAS":6559,"Ġbutton":6560,"ĠToday":6561,"BP":6562,"ĠĊĠ":6563,"ĠMo":6564,"Ġ56":6565,"Ġpert":6566,"Ġnav":6567,"Ġresource":6568,"Ġpowerful":6569,"ymmetric":6570,"ĠLegisl":6571,"101":6572,"Over":6573,"ĠMany":6574,"Ġstories":6575,"Ġalter":6576,"ĠMajor":6577,"Ġwarm":6578,"âĢĿ,":6579,"Ġapproved":6580,"ĠDavis":6581,"REFERENCES":6582,"\\[[@":6583,"Ġinquiry":6584,"ĠBel":6585,"cp":6586,"ometric":6587,"ua":6588,"Ġinsufficient":6589,"Ġpossibly":6590,"---------------":6591,"Ġpathway":6592,"Ġhaven":6593,"ĠSal":6594,"Ġtransmission":6595,"Ġlimitations":6596,"Ġdeviation":6597,"Then":6598,"Ġapproaches":6599,"ude":6600,"akers":6601,"Ġraise":6602,":\"":6603,"Ġthread":6604,"ports":6605,"ĠDay":6606,"Rel":6607,"Ġdepends":6608,"isms":6609,"ĠDi":6610,"ICENSE":6611,"Bl":6612,"Ġmostly":6613,"Ac":6614,"uts":6615,"=\"../../":6616,"arily":6617,"forall":6618,"Ġdetermination":6619,"rs":6620,"Ġlifetime":6621,"Ġindependence":6622,"EF":6623,"^-":6624,"ĠWomen":6625,"Ġjourney":6626,"Solve":6627,"mt":6628,"Ġban":6629,"Ġbag":6630,"oster":6631,"Ġlattice":6632,"Gener":6633,"Ġremainder":6634,"ĠChristmas":6635,"letion":6636,"Ġsrc":6637,"orks":6638,"Ġlung":6639,"Ġkill":6640,"Ġdetailed":6641,"negative":6642,"Ġprotected":6643,"NULL":6644,"TT":6645,"Ġcash":6646,"dependent":6647,"Ġcompare":6648,"Ġintestinal":6649,"Ġpregnancy":6650,"pilasengine":6651,"BM":6652,"Ġ65":6653,"Ġauto":6654,"Ġbelieves":6655,"ĠGeorgia":6656,"Line":6657,"coming":6658,"Ġ_{":6659,"Ġmixed":6660,"rd":6661,"Ġdepth":6662,"Ġlisted":6663,"Ġlearned":6664,"author":6665,"win":6666,"ĠEngine":6667,"ĠAdministration":6668,"Ġappoint":6669,"za":6670,"Ġaccident":6671,"Ġrecru":6672,"/\\":6673,"Ġinvestment":6674,"ĠBur":6675,"ĠDuring":6676,"Ġunclear":6677,"Ġupdates":6678,"Ġrespiratory":6679,"ĠSingapore":6680,"etch":6681,"Ġremark":6682,"IO":6683,"template":6684,"Ġcommitted":6685,"Ġflat":6686,"Ġsecondary":6687,"ĠUbuntu":6688,"Ġvertex":6689,";&":6690,"stall":6691,"Ġthorough":6692,"bul":6693,"Ð°":6694,"Ġsymbol":6695,"Ġborn":6696,"otes":6697,"ĠCorporation":6698,"Ġcitizen":6699,"EE":6700,"Ġplays":6701,"Ġtrials":6702,"Ġcatal":6703,"standing":6704,"ĠAre":6705,"ITY":6706,"ï¼ļ":6707,"ĠEgypt":6708,"Ġmaster":6709,"Ġafford":6710,"ĠCompany":6711,"Since":6712,"ya":6713,"Ġhole":6714,"Ġrelief":6715,"Ġimprovement":6716,"iment":6717,"Cell":6718,"Ġ+=":6719,"Ġenvironmental":6720,"Ġplanning":6721,"These":6722,"Ġarguments":6723,"Ġcommunities":6724,"Ġcat":6725,"Ġapplicable":6726,"Ġopened":6727,"chema":6728,"Ġlatter":6729,"Ġvary":6730,"Ġbooks":6731,"Ġresulted":6732,"Ġgreatest":6733,"ugin":6734,"ART":6735,"DF":6736,"ki":6737,"ä»":6738,":#":6739,"Ġresist":6740,"Ġacute":6741,"Ġyes":6742,"Ġbelief":6743,"Ġafternoon":6744,"][":6745,"mut":6746,"Ġbio":6747,"ĠYes":6748,"Ġmachines":6749,"Ġabsorption":6750,"Ġisol":6751,"PV":6752,"Ġunknown":6753,"Ġ2019":6754,"Ġfocused":6755,"ĠCr":6756,"Ġfavour":6757,"Med":6758,"Ġmetric":6759,"Ġgenetic":6760,"Ġexhibit":6761,"ĠTwitter":6762,"Ġconsidering":6763,"oscopy":6764,"ortion":6765,"break":6766,"ifer":6767,"ĠCounsel":6768,"Ġthin":6769,"ĠPRO":6770,"\\]).":6771,"isher":6772,"elly":6773,"***":6774,"Ġassuming":6775,"Ġgar":6776,"2012":6777,"Query":6778,"Ġdoub":6779,"ker":6780,"ĠWisconsin":6781,"next":6782,"Ġtypical":6783,"Ġspot":6784,"Ġ52":6785,"height":6786,"CV":6787,"Ġadvanced":6788,"Ġfunds":6789,"Ġfuel":6790,"che":6791,"ĠHill":6792,"Ġdirected":6793,"Start":6794,"Ġviews":6795,"organ":6796,"Ġdepending":6797,"olicy":6798,"ita":6799,"Ġmouse":6800,"ĠBrown":6801,"ette":6802,"Ġpersonnel":6803,"leqslant":6804,"2000":6805,"RS":6806,"Ð½":6807,"prot":6808,"month":6809,"Ġsettings":6810,"Ġsignals":6811,"ĠDefendants":6812,"aus":6813,"Ġchanging":6814,"Ġsustained":6815,"More":6816,"iler":6817,"Ġcalling":6818,"Ġadult":6819,"Ġeventually":6820,"ĠRussian":6821,"Ġsuitable":6822,"Ġplaintiffs":6823,"ĠAgreement":6824,"Ġreact":6825,"....":6826,"Ġvessel":6827,"]),":6828,"Ġtight":6829,"anes":6830,"Ġintervention":6831,"Ġdual":6832,"Ġvirus":6833,"Input":6834,"Ġ72":6835,"annel":6836,"ĠSciences":6837,"ĠPacific":6838,"ophageal":6839,"Î¼":6840,"Ġterror":6841,"Ġexcess":6842,"bling":6843,"ura":6844,"Ġleaving":6845,"Ġsensor":6846,"ilateral":6847,"Ġadvantages":6848,"owed":6849,"ĠFree":6850,"Ġboy":6851,"Ġforced":6852,"Ġconclusions":6853,"?âĢĿ":6854,"UC":6855,"Ġsignaling":6856,"ĠRussia":6857,"onymous":6858,"Co":6859,"utor":6860,"ĠPress":6861,"Ġseemed":6862,"Ġadvert":6863,"Ġsmart":6864,"Ġthousand":6865,"dslc":6866,"Ġlawyer":6867,"ald":6868,"ece":6869,"ĠTaylor":6870,"status":6871,"Ġburden":6872,"Ġscores":6873,"Ġmanager":6874,"Ġstored":6875,"Ġcandidate":6876,"ĠJerusalem":6877,"ĠTom":6878,"Ġshock":6879,"Ġring":6880,"Ġfrequently":6881,"week":6882,"ĠUkr":6883,"Ġ120":6884,"ban":6885,"ipping":6886,"gathered":6887,"Ġwheel":6888,"Ġattributes":6889,"hood":6890,"Ġplot":6891,"Ġpreliminary":6892,"ĠBen":6893,"Ġnoise":6894,"Ġcompetition":6895,"Ġstatistical":6896,"CI":6897,"Window":6898,"Ġtwice":6899,"ĠAcademy":6900,"pmb":6901,"EW":6902,"ĠAng":6903,"${":6904,"Ġ*)":6905,"ropri":6906,"Ġfruits":6907,"Ġnecess":6908,"Ġchecks":6909,"NO":6910,"Ġcle":6911,"ĠGo":6912,"omal":6913,"Ġdetect":6914,"iverse":6915,"Ġruled":6916,"Ġretrosp":6917,"400":6918,"ĠProposition":6919,"Ġdivisor":6920,"aren":6921,"Ġmotiv":6922,"Ġempirical":6923,"}\\,":6924,"Ġinvolving":6925,"clusive":6926,"ĠJoseph":6927,"ĠOfficer":6928,"Ġbool":6929,"Ġrent":6930,"essor":6931,"dots":6932,"ĠRule":6933,"acle":6934,"Ġ51":6935,"Ġcontribution":6936,"rh":6937,"ĠBo":6938,"Ġparagraph":6939,"EV":6940,"Ġtrip":6941,"asp":6942,"Ġassoci":6943,"Ġscientists":6944,"ĠRodriguez":6945,"omer":6946,"Ġradiation":6947,"KPX":6948,"Ġremoving":6949,"Ġdatabases":6950,"Ġnan":6951,"Ġplane":6952,"Ġunf":6953,"Ġadults":6954,"istory":6955,"Ġexamination":6956,"urthermore":6957,"Ġsides":6958,"ĠMS":6959,"Ġweren":6960,"Ġimaging":6961,"Ġmolecules":6962,"Ġuint":6963,"dagger":6964,"Ġpilot":6965,"Ġrevers":6966,"ĠNor":6967,"Ġwilling":6968,"Ġlesions":6969,"Ġfill":6970,"Ġstandards":6971,"Ġcentury":6972,"Ġroughly":6973,"Header":6974,"ĠĠĠĠĠĠĠĠĠĠĠĠĠĠĠĠĠĠĠĠ":6975,"has":6976,"Ġ2002":6977,"Ġfinished":6978,"Ġseasons":6979,"associated":6980,"cf":6981,"rog":6982,"Ġspaces":6983,"2016":6984,"Ġindeed":6985,"Ġ54":6986,"Ġreverse":6987,"Ġseeing":6988,"Ġappeals":6989,"oded":6990,"ĠGood":6991,"Ġoperators":6992,"cdots":6993,"most":6994,"Ġhel":6995,"ĠAp":6996,"ĠPe":6997,"Ġaccum":6998,"Ġminim":6999,"007":7000,"Ġordered":7001,"ediatric":7002,"ĠGl":7003,"GL":7004,"json":7005,"ician":7006,"Ġnom":7007,"Ġtunnel":7008,"Ġpneumonia":7009,"Ġrelationships":7010,"Ġimmune":7011,"Ġconsult":7012,"Ġ2003":7013,"Ġsupposed":7014,"Ġlongitudinal":7015,"aa":7016,"cup":7017,"Ġjump":7018,"Ġthanks":7019,"}^\\":7020,"Ġsession":7021,")=\\":7022,"Ġextends":7023,"button":7024,"Just":7025,"media":7026,"Ġintent":7027,"Ġindicating":7028,"Ġdemonstrate":7029,"Ġlose":7030,"Ġtranscription":7031,"2009":7032,"del":7033,"groups":7034,"Result":7035,"Ġjoin":7036,"Ð¾":7037,"assert":7038,"Ġmission":7039,"ĠSenate":7040,"Ġnine":7041,"ERS":7042,"Ġconsent":7043,"sin":7044,"Ġtuberculosis":7045,"Ġwash":7046,"format":7047,"Ġrecall":7048,"Ġrelates":7049,"FR":7050,"aming":7051,"Ġstre":7052,"Ġconcerned":7053,"ogenesis":7054,"Ġformal":7055,"Ġmainly":7056,"Ġpieces":7057,"Ġfraction":7058,"Ġdepartment":7059,"Ġattacks":7060,"Ġarter":7061,"Ġincubated":7062,"Ġwood":7063,"ander":7064,"endif":7065,"ĠUp":7066,"Ġfinish":7067,"Ġplurality":7068,"ĊĊĠĠĠĠĠĠĠĠĠĠĠĠĠĠĠ":7069,"\\)":7070,"display":7071,"Ġboundary":7072,"Ġsacr":7073,"Ġvessels":7074,"oxy":7075,"Ġion":7076,"only":7077,"ala":7078,"Ġinstant":7079,"Ġwww":7080,"Ġbeauty":7081,"ĠLinux":7082,"Ġ_,_":7083,"Rem":7084,"Ġfunding":7085,"ĠFederation":7086,"Ġweapon":7087,"kins":7088,"split":7089,"Ġmand":7090,"ĠParty":7091,"ĠOffice":7092,"Am":7093,"yst":7094,"FI":7095,"ictions":7096,"reatment":7097,"Ġorientation":7098,"ĠPATIENTS":7099,"300":7100,"Ġprosecution":7101,"Ġpix":7102,"ĠOnly":7103,"AGE":7104,"Ġoxid":7105,"Ġscene":7106,"Ġopinions":7107,"Ġepisodes":7108,"Ġasking":7109,"Ġinterpretation":7110,"uls":7111,"ERROR":7112,"IST":7113,"Ġspend":7114,"_{{\\":7115,"graph":7116,"Ġscan":7117,"Ġfees":7118,"rior":7119,"ĠWork":7120,"Ġagricult":7121,"Ġposterior":7122,"fix":7123,"rite":7124,"}+\\":7125,"Ġfans":7126,"Ġlaugh":7127,"Ġargues":7128,"ritten":7129,"Me":7130,"card":7131,"Ġdil":7132,"ĠSN":7133,"----":7134,"Ġchallenges":7135,"Ġenhance":7136,"Ġversus":7137,"Ġton":7138,"ĠmRNA":7139,"category":7140,"Ġfavorite":7141,"Ġconference":7142,"Ġadvice":7143,"simeq":7144,"Ġphosphorylation":7145,"Ġpolar":7146,"2008":7147,"Ġcycl":7148,"Ġtrain":7149,"Ġangle":7150,"Ġforth":7151,"ĠAnn":7152,"Net":7153,"Pre":7154,"Ġsector":7155,"ctor":7156,"Ġ+/-":7157,"lang":7158,"Ġreplace":7159,"Ġassay":7160,"column":7161,"ĠFederal":7162,"Ġmedian":7163,"\":\"":7164,"Ġbias":7165,"ĠFollowing":7166,"Ġinterventions":7167,"Ġeligible":7168,"OK":7169,"ĠHall":7170,".**":7171,"law":7172,"ifies":7173,"Ġ2001":7174,"2014":7175,"gers":7176,"----------------":7177,"Ġ53":7178,"Ġpotentially":7179,"Ġclaimed":7180,"Ġinher":7181,"Ġspring":7182,"ĊĊĊĊ":7183,"Ġconfidence":7184,"floor":7185,"Ġsessions":7186,"Ġhouses":7187,"Ġrecurrence":7188,"Ġacquisition":7189,"ument":7190,"ĠMA":7191,"Ġdegradation":7192,"Ġhelps":7193,"Ġrecognized":7194,"Ġestate":7195,"you":7196,"ady":7197,"uting":7198,"obile":7199,"ĠFinancial":7200,"Ġemployed":7201,"Ġcapable":7202,"ĠPhil":7203,"Evaluate":7204,"Ġcompact":7205,"ĠRob":7206,"Ġadvance":7207,"Button":7208,"FC":7209,"hi":7210,"Ġmention":7211,"Ġvill":7212,"ijms":7213,"Ġhence":7214,"Ġlit":7215,"Ġscattering":7216,"ĠStr":7217,"Ġtit":7218,"icious":7219,"Ġha":7220,"00000000":7221,"vt":7222,"amed":7223,"Min":7224,"defined":7225,"ĠAustralia":7226,"supplementary":7227,"opath":7228,"Ġcourts":7229,"Client":7230,"ĠThompson":7231,"TD":7232,"Ġ101":7233,"ĠMont":7234,"ĠGreat":7235,"ertain":7236,"Ġlig":7237,"ĠClinical":7238,"Settings":7239,"Ġsynchron":7240,"Ġarch":7241,"exec":7242,">&":7243,"Ġcos":7244,"Ġfilms":7245,"Ġmarked":7246,"Ġimplies":7247,"Ġgap":7248,"Click":7249,"han":7250,"Ġpitch":7251,"2018":7252,"degree":7253,"Ġchocolate":7254,"ĠAddress":7255,"bon":7256,"ĠPlease":7257,"Ġusual":7258,"Ġrelax":7259,"Ġgrav":7260,"\",\"":7261,"Ġresponsibility":7262,"Ġdamages":7263,"ĠRoyal":7264,"Ġmaps":7265,"ĠPH":7266,")]":7267,"pdf":7268,"Ġscreening":7269,"Ġbiological":7270,"Ġabundance":7271,"Ġincredibly":7272,"ohistochem":7273,"ĠMississippi":7274,"hr":7275,"}}}":7276,"Ġegg":7277,"Ġsmallest":7278,"Ġaccurate":7279,"Ġconfront":7280,"Ġvac":7281,"Ġoffense":7282,"house":7283,"ta":7284,"ĠField":7285,"Contact":7286,"dx":7287,"Ġpal":7288,"asure":7289,"Ġsolely":7290,"Ġrats":7291,"uccess":7292,"Ġcontribute":7293,"proposed":7294,"Ġpossession":7295,"âģĦ":7296,"\"),":7297,"output":7298,"apache":7299,"ĠJan":7300,"Ġdecide":7301,"Ġdownload":7302,"uch":7303,"enter":7304,"Ġrect":7305,"ĠĠĠĠĠĠĠĠĠĠĠĠĠĠĠĠĠĠĠĠĠ":7306,"Ġshut":7307,"linear":7308,"Ġarticles":7309,"UG":7310,"ums":7311,"Ġmeat":7312,"ĠMary":7313,"Ġexposed":7314,"Ġwaiting":7315,"Target":7316,"SR":7317,"Ġce":7318,"Ġmethyl":7319,"Ġperceived":7320,"cing":7321,"{{":7322,"Ġmir":7323,"Ġlens":7324,"Ġlik":7325,"}}{\\":7326,"equal":7327,"Ġhippocamp":7328,"Ġrelations":7329,"Ġseek":7330,"Ġstanding":7331,"Ġpartial":7332,"Ġcritic":7333,"Version":7334,"ĠHence":7335,"emia":7336,"ĠDC":7337,"rate":7338,"DB":7339,"Ġ300":7340,"âĦ¢":7341,"Ġbirds":7342,"Spec":7343,"ĠSaudi":7344,"DC":7345,"ĊĠĠĠĠĠĠĠĠĠĠĠĠĠĠ":7346,"2011":7347,"Man":7348,"ashed":7349,"References":7350,"Go":7351,"åı":7352,"Ġ150":7353,"ĠType":7354,"Ġvariation":7355,"Ġprovision":7356,"Ġaccomplish":7357,"ez":7358,"mem":7359,"ĠIP":7360,"URL":7361,"ĠPsych":7362,"Ġmyocardial":7363,"rist":7364,"ĠTur":7365,"Last":7366,"hbox":7367,"aints":7368,"SL":7369,"itrogen":7370,"Ġheavily":7371,"âĶĢâĶ":7372,"ĠGive":7373,"Ġelectronic":7374,"iders":7375,"Ġremained":7376,"ĠFIG":7377,"Ġmunicipal":7378,"Ã¼":7379,"Ġsodium":7380,"Ġsplit":7381,"ĠCap":7382,"aded":7383,"Ġveget":7384,"osph":7385,"Ġspending":7386,"Which":7387,"Ġancient":7388,"Ġprognostic":7389,"$)":7390,"Ġannual":7391,"ĠBill":7392,"ĠWeb":7393,"\"}.":7394,"Check":7395,"men":7396,"Ġpartner":7397,"ĠCT":7398,"Ġgender":7399,"ĠGold":7400,"ĠOnce":7401,"Ġexponential":7402,"ĠJavaScript":7403,"Ġfold":7404,"Ġstability":7405,"**(":7406,"aked":7407,"ERT":7408,"ĠIndeed":7409,"Ġcomplaint":7410,"&\\":7411,"uro":7412,"ä½":7413,"rive":7414,"Ġ58":7415,"Ġtechnical":7416,"Content":7417,"ounter":7418,"snap":7419,"bal":7420,"non":7421,"Ġdynamics":7422,"Ġfre":7423,"Ġamendment":7424,"Ġhypertension":7425,"uous":7426,"ĠBi":7427,"acks":7428,"Ġfacilit":7429,"Ġaccompanied":7430,"stat":7431,"Ġcommission":7432,"Ġenthusi":7433,">>":7434,")^{":7435,"Ġthereby":7436,"Ġends":7437,"Ġcustomer":7438,"UI":7439,"Ġice":7440,"Ġaxis":7441,"Right":7442,"æľ":7443,"====================":7444,"BR":7445,"Create":7446,"EA":7447,"ĠBMI":7448,"Ġran":7449,"Ġopposite":7450,"Ġemployment":7451,"Ġlaunch":7452,"Ġconcluded":7453,"Ġiter":7454,"change":7455,"Ġconsideration":7456,"Ġconsensus":7457,"Ġfibroblasts":7458,"Ġstarts":7459,"Ġbaseline":7460,"Ġworse":7461,"Ġindividually":7462,"Action":7463,"ĊĠĠĠĠĠĠĠĠĠĠĠĠ":7464,"ORT":7465,"Ġdoctor":7466,"Ġcourses":7467,"Number":7468,"ĠEX":7469,"find":7470,"urer":7471,"Ġoral":7472,"Control":7473,"Ġepidem":7474,"high":7475,"icks":7476,"Ġaspects":7477,"Ġnumerous":7478,"request":7479,"Ġdramatically":7480,"aria":7481,"Ġrock":7482,"Ġsubstit":7483,"Ġclothes":7484,"ĠChildren":7485,"Ġsuggesting":7486,"Ġmodified":7487,"Ġdowntown":7488,"HS":7489,"Ġnarrow":7490,"Ġcommonly":7491,"txt":7492,"ees":7493,"mL":7494,"mg":7495,"Ġol":7496,"Ġdifferential":7497,"ĠVictor":7498,"stylesheet":7499,"Ref":7500,"Ġtheorem":7501,"Ġpersons":7502,"artifactId":7503,"fs":7504,"Ġclar":7505,"append":7506,"Ġrequirement":7507,"ĠMicro":7508,"Ġknee":7509,"Ġretirement":7510,"power":7511,"Ġseconds":7512,"Ġstopped":7513,"UP":7514,"Ġpossess":7515,"Ġseeking":7516,"real":7517,"ĠSpr":7518,"Part":7519,"road":7520,"Ġnotes":7521,"Ġphoto":7522,"Ġaltern":7523,"Ġtransf":7524,"INE":7525,"Ġearth":7526,"Ġexhaust":7527,"Ġgenuine":7528,"ĠZealand":7529,"ikipedia":7530,"ĠPR":7531,"andom":7532,"Ġrecommended":7533,"%),":7534,"GR":7535,"Ġsupporting":7536,"Ġoccasion":7537,"Ġpopulations":7538,"ibrary":7539,"COM":7540,"Ġsuccessfully":7541,"edy":7542,"ĠDen":7543,"translation":7544,"ĠAfrica":7545,"Ġnervous":7546,"ignificant":7547,"Ġabdominal":7548,"Ġfluctuations":7549,"dim":7550,"à®":7551,"overn":7552,"ĠRepublican":7553,"method":7554,"eld":7555,"ĠâĢ¦":7556,"Ġtroops":7557,"Ġprognosis":7558,"ĠJews":7559,"Ġhomogeneous":7560,"null":7561,"Ġchief":7562,"process":7563,"ĠANY":7564,"Your":7565,"ĠSl":7566,"INT":7567,"Ġincidence":7568,"ĠDaniel":7569,"ĠItalian":7570,"eness":7571,"Ġenable":7572,"Ġsigns":7573,"vas":7574,"equiv":7575,">(":7576,"PM":7577,"Ġfiber":7578,"Config":7579,"Ġdependent":7580,"Ġstupid":7581,"Ġdesirable":7582,"HR":7583,"Ġprev":7584,"Ġpractices":7585,"Ġemergency":7586,"120":7587,"Ġstrain":7588,"posed":7589,"Ġintegral":7590,"Ġideal":7591,"110":7592,"ek":7593,"ĠTheir":7594,"Ġdollar":7595,"ĠCaptain":7596,"Ġunusual":7597,"ÃĹ":7598,"ursor":7599,"Ġreplaced":7600,"args":7601,"ĠJersey":7602,"Ġoverwhel":7603,"ao":7604,"sg":7605,"Ġcort":7606,"Ġtoler":7607,"ĠSpanish":7608,"Ġoffset":7609,"Ġended":7610,"ĠMad":7611,"ĠJustice":7612,"Ġtumour":7613,"Ġconj":7614,"Ġbeat":7615,"Ġconsumption":7616,"frame":7617,"Ġenemy":7618,"Ġenergies":7619,"activ":7620,"]$":7621,"romagnetic":7622,"Ġmiles":7623,"2019":7624,"irty":7625,"Ġcellular":7626,"Ġhierarch":7627,"ACT":7628,"uster":7629,"conf":7630,"small":7631,"Ġinteract":7632,"Ġì":7633,"ĠEqu":7634,"weet":7635,"Ġanterior":7636,"SELECT":7637,"|{\\":7638,"Ind":7639,"Ġguide":7640,"Ġfish":7641,"Ġ57":7642,"Ġviolation":7643,"push":7644,"war":7645,"ĠFour":7646,"Ġpulmonary":7647,"SON":7648,"lar":7649,"obs":7650,"Ġsolve":7651,"LA":7652,"riers":7653,"ĠColumbia":7654,"Ġgirls":7655,"Off":7656,"ida":7657,"olecular":7658,"aped":7659,"apse":7660,"Ġinstitution":7661,"Ġcart":7662,"ĠSand":7663,"empl":7664,"scale":7665,"Ġentirely":7666,"Ġaforementioned":7667,"Ġca":7668,"star":7669,"Ġsupra":7670,"vo":7671,"ena":7672,"Ġappearance":7673,"Ġamounts":7674,"rons":7675,"Ġpoverty":7676,"ultiple":7677,"Ġspecimens":7678,"Ġelderly":7679,"Base":7680,"asy":7681,"ĠLike":7682,"..\\":7683,"Ġpromote":7684,"').":7685,"SO":7686,"Ġtag":7687,"Ġsit":7688,"ĠFile":7689,"Ġeffectively":7690,"ĠMethods":7691,"ĠAssembly":7692,"ĠĠĠĠĠĠĠĠĠĠĠĠĠĠĠĠĠĠĠĠĠĠ":7693,"urd":7694,"\\]),":7695,"Ġreporting":7696,"ĠMinister":7697,"Ġfont":7698,"ĠIll":7699,"ĠHD":7700,"Ġadmitted":7701,"tab":7702,"ste":7703,"ĠIV":7704,"ĠSant":7705,"grade":7706,"control":7707,"Ġteaching":7708,"0363546518815159":7709,"Ġscope":7710,"sofia":7711,"Ġliberal":7712,"Ġsteady":7713,"Are":7714,"Ġsym":7715,"Ġlos":7716,"roduction":7717,"Ġunion":7718,"čĊĉĉĉ":7719,"Ġbehaviour":7720,"Ġorganic":7721,"$_":7722,"++)":7723,"Two":7724,"lines":7725,"Ġpadding":7726,"Ġcerebral":7727,"uns":7728,"ĠTimes":7729,"Ġgrid":7730,"product":7731,"ĠCentral":7732,"GB":7733,"Ġbattle":7734,"Ġassumed":7735,"May":7736,"Ġunable":7737,"Ġinfo":7738,"fit":7739,"Ġregression":7740,"Ġstruck":7741,"rid":7742,"rian":7743,"ĠLie":7744,"ĠGal":7745,"mat":7746,"Ġalt":7747,"Ġjustice":7748,"Ext":7749,"ĠPlan":7750,"Ġkeeping":7751,"Ġassistance":7752,"emporary":7753,"Ġcooperation":7754,"Ġpump":7755,"Ġcompound":7756,"]\\":7757,"#:":7758,"Note":7759,"erry":7760,"ori":7761,"Ġdecades":7762,"Ġobservations":7763,"Ġcocaine":7764,"Ġresonance":7765,"Ġadolescents":7766,"Ġcentrifug":7767,"ĠAPI":7768,"Ġuna":7769,"orters":7770,"Ġstreet":7771,"ĠĠĠĠĠĠĠĠĠĠĠĠĠĠĠĠĠĠĠĠĠĠĠĠ":7772,"Ġpeace":7773,"Ġtables":7774,"ĠEastern":7775,"Ġphrase":7776,"Ġlawsuit":7777,"Ġparticle":7778,"md":7779,"Ġ59":7780,"called":7781,"Ġcharacterized":7782,"Ġsought":7783,"Ġcoupling":7784,"Please":7785,"ĠAlex":7786,"apes":7787,"ĠPURPOSE":7788,"Ġplastic":7789,"Ġfingers":7790,"ondition":7791,"Ġresearchers":7792,"Ġmassive":7793,"ytes":7794,"Ġidx":7795,"Ġpropag":7796,"ï½¡":7797,"Ġduties":7798,"cut":7799,"Ġreform":7800,"zer":7801,"Ġbone":7802,"Ġdisk":7803,"ĠRad":7804,"ogn":7805,"Ġgrade":7806,"ĠÎ²":7807,"bec":7808,"acement":7809,"Ġsuppl":7810,"ĠWARRANTIES":7811,"Ġdistinguished":7812,"Ġbright":7813,"ĠSam":7814,"Ġ{}":7815,"Ġassigned":7816,"Ġobjective":7817,"element":7818,"thers":7819,"ye":7820,"ĠIF":7821,"Ġdispl":7822,"Ġcontainer":7823,"Ġresidents":7824,"Ġacting":7825,"Ġprominent":7826,"agen":7827,"ĠJud":7828,"Ġ[[":7829,"Str":7830,"cribe":7831,"Ġpronoun":7832,"iate":7833,"ĠWill":7834,"Ġcontributions":7835,"Ġstructural":7836,"Ġmerely":7837,"Ġrig":7838,"ĠRE":7839,"Ġ99":7840,"Ġtrivial":7841,"ĠENDOSCOP":7842,"####################################":7843,"oration":7844,"property":7845,"Ġrefuge":7846,"*^":7847,"erves":7848,"Ġmanaged":7849,"Although":7850,"Ġadm":7851,"ollow":7852,"nanomaterials":7853,"Ġbal":7854,"ords":7855,"Ġinjection":7856,"rr":7857,"anger":7858,"Ġguard":7859,"ĠJohnson":7860,"ogenic":7861,"Ġorders":7862,"Ġwear":7863,"tool":7864,"Ġlinked":7865,"Ġcovari":7866,"ĠSpecifically":7867,"ooking":7868,"ĠJones":7869,"ULT":7870,"Ġinhibition":7871,"ĠObject":7872,"Select":7873,"si":7874,"Ġcluster":7875,"Ġbiopsy":7876,"isc":7877,"ytic":7878,"location":7879,"Ġminute":7880,"Ġprincipal":7881,"OV":7882,"Ġeditor":7883,"oral":7884,"imer":7885,"Ġ\\>":7886,"ĠArab":7887,"Ġbroken":7888,"Ġsandwich":7889,"Ġcannabis":7890,"Ġcomplications":7891,")}\\":7892,"egr":7893,"emp":7894,"Ġpredicted":7895,"Ġnewspaper":7896,"ĠSeveral":7897,"})\\":7898,"png":7899,"endant":7900,"Ġimm":7901,"ĠNav":7902,"Ġinformed":7903,"{(":7904,"ĠStar":7905,"lectric":7906,"Ġauthorities":7907,"Ġprinciple":7908,"DP":7909,"Cons":7910,"idential":7911,"Buffer":7912,"Ġidentification":7913,"ĠPetitioner":7914,"ĠPalestin":7915,"GE":7916,"Ġpp":7917,"iciency":7918,"missions":7919,"Ġproximity":7920,"Where":7921,"otted":7922,"Ġretriev":7923,".-":7924,"rief":7925,"Ġpin":7926,"Ġregistration":7927,"norm":7928,"ĠMath":7929,"package":7930,"Ġsensitive":7931,"Ġsegments":7932,"Ġdistinction":7933,"Ġlowest":7934,"Ġaid":7935,"root":7936,"Ġrein":7937,"Ġfan":7938,"imation":7939,"aching":7940,"Ġapart":7941,"fast":7942,"Ġsecure":7943,"urop":7944,"itors":7945,"Ġbug":7946,"Ġcorner":7947,"ĠĊĠĠĠ":7948,"Ġ1999":7949,"Ġfaster":7950,"ĠWal":7951,"FO":7952,"web":7953,"Ġconviction":7954,"thm":7955,"Ġconsole":7956,"sa":7957,"ourse":7958,"Ġarms":7959,"####":7960,"jwatson":7961,"ĠBaltimore":7962,"Post":7963,"straint":7964,"icular":7965,"ĊĠĠĠĠĠĠĠĠĠĠ":7966,"Ġsupports":7967,"contin":7968,"Ġcandidates":7969,"Ġinnov":7970,"mbfa":7971,"Supp":7972,"Ġfell":7973,"Ġreducing":7974,"Ġtrajectory":7975,"XX":7976,"astro":7977,"Stat":7978,"Ġknock":7979,"Ġdisagree":7980,"Ġinfer":7981,"Ġfloat":7982,"Ġhumans":7983,"Ġclassical":7984,"Ġuniversity":7985,"äº":7986,"ups":7987,"Status":7988,"ĠHenry":7989,"FIG":7990,"Ġirrelevant":7991,"ĠNa":7992,"Ġinvolves":7993,"human":7994,"iary":7995,"Ġfilled":7996,"rie":7997,"ï¼Į":7998,"ĠIT":7999,"bionic":8000,"Ġ\"\\":8001,"ĠLabor":8002,"]^.":8003,"MENT":8004,"ysis":8005,"Ġexpensive":8006,"Ġmathematical":8007,"Load":8008,"Ġwarn":8009,"ĠVol":8010,"layout":8011,"uto":8012,"Instance":8013,"Ġfacilities":8014,"ĠFITNESS":8015,"Ġtick":8016,"Ġmic":8017,"Ġven":8018,"ria":8019,"Ġchair":8020,"buffer":8021,"Ġclosely":8022,"rolled":8023,"cat":8024,"Ġnarrative":8025,"Ġmicroscopy":8026,"Ġawesome":8027,"ĠPan":8028,"Ġexceed":8029,"aken":8030,"150":8031,"filter":8032,"Ġmouth":8033,"Ġenhanced":8034,"æĺ¯":8035,"Ġstomach":8036,"GO":8037,"ubb":8038,"Ġdetermining":8039,"ponents":8040,"ĊĠĠĠĠĠĠĠĠĠĠĠĠĠĠĠĠĠĠĠĠĠĠĠĠĠĠĠĠĠĠĠ":8041,"aired":8042,"Ġrepl":8043,"ĠĠĠĠĠĠĠĠĠĠĠĠĠĠĠĠĠĠĠĠĠĠĠ":8044,"ĠLife":8045,"ãĢĤ":8046,"([":8047,"]);":8048,"Ġbottle":8049,"istribution":8050,"FS":8051,"Ġtrail":8052,"ĠUs":8053,"ORD":8054,"Ġblocks":8055,"Ġfolks":8056,"Ġcompatible":8057,"Â¶":8058,"Ġtub":8059,"ĠFund":8060,"ĠApple":8061,"Ġmarried":8062,"łÂ":8063,"ither":8064,"Ġbath":8065,"Ġeating":8066,"idd":8067,"Ġminimal":8068,"Component":8069,"Ġcorrectly":8070,"Ġhundreds":8071,"edding":8072,"ais":8073,"Ġreads":8074,"Ġzone":8075,"Ã¤":8076,"Ġsitting":8077,"ented":8078,"Ġassets":8079,"Ġguidance":8080,"Ġassault":8081,"common":8082,"Ġprovisions":8083,"Ġmatters":8084,"Ġdecreasing":8085,"Ġpregnant":8086,"Ġyouth":8087,"Ġforg":8088,"Ġinstalled":8089,"La":8090,"Ġ110":8091,"Ġcounts":8092,"Ġpeptide":8093,"Ġlibraries":8094,")))":8095,"Ġputting":8096,"Ġroute":8097,"Ut":8098,"unit":8099,"search":8100,"ĠColorado":8101,"Ġcities":8102,"ĠPittsburgh":8103,"cribed":8104,"/>":8105,"Ġstack":8106,"Ġintention":8107,"Ġhtml":8108,"Ġcancers":8109,"Ġobesity":8110,"Ġcomparisons":8111,"Ġrational":8112,"ĠBig":8113,"module":8114,"ĠRobert":8115,"ĠThomas":8116,"ĠFib":8117,"Ġextend":8118,"ĠÃĹ":8119,"ĠHouston":8120,"ressRouteCircu":8121,"Point":8122,"Ġmes":8123,"ĠLord":8124,"Ġargued":8125,"Thanks":8126,"ota":8127,"Ġpackages":8128,"Ġcas":8129,"Ġpages":8130,"ĠCN":8131,"addr":8132,"Ġbrother":8133,"phone":8134,")}{":8135,"earing":8136,"Ġdynamic":8137,"Find":8138,"Psi":8139,"=(":8140,"number":8141,"ĠSD":8142,"ĠSk":8143,"Ġpassing":8144,"arXiv":8145,"Identifier":8146,"mid":8147,"entry":8148,"ĠPut":8149,"Ġembarrass":8150,"MD":8151,"ĠÎ±":8152,"tic":8153,"iki":8154,"Ġinitially":8155,"Ġaccounts":8156,"Ġ],":8157,"Ġlifestyle":8158,"Ob":8159,"Ġjoined":8160,"Ġspl":8161,"ĠMag":8162,"Ġcoronary":8163,")\"":8164,"FP":8165,"sens":8166,"ola":8167,"ĠMem":8168,"ĠFind":8169,"Ġrequested":8170,"Ġaccompanying":8171,"*/":8172,"Ġcreation":8173,"Ġembedded":8174,"Ġmagazine":8175,"life":8176,"Ġhal":8177,"Ġpractical":8178,"phasis":8179,"Ġinternet":8180,"msgstr":8181,"Ġpredominant":8182,"Ġleague":8183,"raz":8184,"Sim":8185,"ĠFrank":8186,"msgid":8187,"Ġdeficit":8188,"Ġquestionnaire":8189,"LS":8190,"čĊĉĉ":8191,"Ġdisorder":8192,"expected":8193,"Ġdelivered":8194,"ERE":8195,"ĠScott":8196,"çĶ¨":8197,"Ġconfigurations":8198,"El":8199,"Ġmess":8200,"Ġreviewed":8201,"ĠHaw":8202,"endar":8203,"Resource":8204,"Ġschemes":8205,"ooks":8206,"ĠPCR":8207,"Ġcounty":8208,"ĠMcC":8209,"Ġalle":8210,"Ġaffidavit":8211,"Ġ------------------------":8212,"Ġgotten":8213,"{\"":8214,"Ġasc":8215,"Ġtranscript":8216,"brack":8217,"Ge":8218,"ruption":8219,"Ġpreced":8220,"Ġclients":8221,"ĠInsurance":8222,"hydro":8223,"Ġburn":8224,"Em":8225,"pers":8226,"Ġgather":8227,"Ġcollabor":8228,"GG":8229,"obj":8230,"ycl":8231,"enyl":8232,"Ġseat":8233,"čĊĠĠĠĠĠĠĠĠĠĠĠ":8234,"Ġfacility":8235,"ĠParis":8236,"Ġstrategic":8237,"inn":8238,"ĠHel":8239,"Ġrepair":8240,"Ġcrystal":8241,"Ġorthogonal":8242,"Sch":8243,"Ġ1990":8244,"Ġwatching":8245,"ĠIreland":8246,"ĠDaily":8247,"Ġdeploy":8248,"Ġdepart":8249,"Ġvisible":8250,"Ġoptimal":8251,"Ġscreens":8252,"ĠÂł":8253,"Ġbutter":8254,"Ġconsists":8255,"ko":8256,"ras":8257,"ĠHIV":8258,"ĠWhich":8259,"Ġserving":8260,"Ġinflammatory":8261,"setminus":8262,"ĠYouTube":8263,"bel":8264,"});":8265,"Ġforget":8266,"Ġcausing":8267,"Char":8268,"Ag":8269,"attr":8270,"Ġpig":8271,"ĠLog":8272,"Ġaspect":8273,"Fe":8274,"Ġvision":8275,"ĠEV":8276,"Ġassumptions":8277,"Despite":8278,"ĠBack":8279,"sup":8280,"xef":8281,"ACK":8282,"Ġobviously":8283,"Ġexecutive":8284,"Ġdangerous":8285,"Ġseal":8286,"Ġpret":8287,"neq":8288,"}/":8289,"Ġtail":8290,"00000":8291,"Ġapparent":8292,"Ġ85":8293,"ibration":8294,"}...\\":8295,"istics":8296,"///":8297,"Ġsolar":8298,"Ġleadership":8299,"Ġuncertainties":8300,"iological":8301,"ĠProject":8302,"Ġridicul":8303,"Ġpetitioner":8304,"Ġterritory":8305,"Ġlie":8306,"ĠNO":8307,"oked":8308,"Ġimplied":8309,"Ġpowder":8310,"Ġmanage":8311,"Ġsynthesis":8312,"ĠMuslim":8313,"Ġfranchise":8314,"Ġinadequate":8315,"Ġhomes":8316,"ĠFore":8317,"\"})":8318,"options":8319,"ĠMer":8320,"Ġposted":8321,"Ġargue":8322,"Ġproved":8323,"Ġtreatments":8324,"Ġturns":8325,"RI":8326,"fold":8327,"Ġearn":8328,"Ġimplemented":8329,"Ġborrow":8330,"Ġdeemed":8331,"LR":8332,"Ġrenal":8333,"ella":8334,"perties":8335,"nic":8336,"scope":8337,"License":8338,"ĠRiemann":8339,"Hz":8340,"PRO":8341,"cover":8342,"Ġ97":8343,"materials":8344,"Ġaffirmed":8345,"values":8346,"asic":8347,"ĠSun":8348,"Ġ61":8349,"Ġsituations":8350,"limits":8351,"Ġchopped":8352,"icide":8353,"ĠNon":8354,"Ġwaste":8355,"Ġlocations":8356,"server":8357,"^+^":8358,"]]":8359,"Ġil":8360,"update":8361,"Ġweekend":8362,"chain":8363,"Ġsubset":8364,"gence":8365,"Ġcumulative":8366,"ideo":8367,"Ġsubmitted":8368,"Ġbrand":8369,"Ġobservation":8370,"gebra":8371,"Ġcooking":8372,"\\\"":8373,"iability":8374,"ĠCamp":8375,"Ġneutral":8376,"Ġvertices":8377,"Ġnutri":8378,"ĊĊĠĠ":8379,"Default":8380,"Te":8381,"Ġlas":8382,"header":8383,"Ġconform":8384,"Ġclock":8385,"Ġ1998":8386,"Ġlived":8387,"Ġcorrelated":8388,"Sm":8389,"etr":8390,"Ġ68":8391,"Ġhonest":8392,"ĠConnecticut":8393,"dat":8394,"ĠpH":8395,"outs":8396,"Ġ66":8397,"Ġthoughts":8398,"Ġinflammation":8399,"Ġwealth":8400,"ĠMel":8401,"Ġpathways":8402,"Ġpolitics":8403,"Ġconsequences":8404,"Ġsophisticated":8405,"\\}":8406,"oting":8407,"client":8408,"Ġattend":8409,"Ġposit":8410,"Ġcategories":8411,"Ġobligation":8412,"Ġagenda":8413,"ĠPerhaps":8414,"ĠPo":8415,"ĠIts":8416,"igarettes":8417,"Ġdischarged":8418,"%).":8419,"Every":8420,"ĠTre":8421,"Ġaffirm":8422,"ĠSecurity":8423,"Ġ63":8424,"ĠChief":8425,"Ġbiom":8426,".@{":8427,"Ġpreparing":8428,"OH":8429,"Run":8430,"}},":8431,"Ġpointed":8432,"Stream":8433,"afe":8434,"Ġobj":8435,"Ġantibiotic":8436,"Ġspectroscopy":8437,"Ġpayments":8438,"Ġpairs":8439,"Before":8440,"Ġast":8441,"Ġwalking":8442,"Ġdepos":8443,"Ġcloser":8444,"Ġ----------------":8445,"Ã¨":8446,"ressing":8447,"Ġloved":8448,"Ġpri":8449,"Ġ96":8450,"Ġwrt":8451,"Det":8452,"Ġneck":8453,"ĠCup":8454,"ĠMil":8455,"arks":8456,"Ġsheet":8457,"ococcus":8458,"IND":8459,"Ġvirt":8460,"Ġdebate":8461,"ĠSil":8462,"thetic":8463,"Ġrail":8464,"Ġpublication":8465,"ĠCOPYRIGHT":8466,"Mr":8467,"Ġpod":8468,"Ġeigen":8469,"verage":8470,"ĠCare":8471,"Ġtra":8472,"Ġtransformation":8473,"Ġmorbidity":8474,"ĠSwitzerland":8475,"ĠLong":8476,"Ne":8477,"Panel":8478,"Today":8479,"Ġinstruments":8480,"Ġartificial":8481,"axis":8482,"Ġfeedback":8483,"Options":8484,"Page":8485,"Ð»":8486,"Ġstages":8487,"2006":8488,"Ġpunishment":8489,"Ġessentially":8490,":(":8491,"Ġpeculiar":8492,"[\"":8493,"Ġhelpful":8494,"ĠAtt":8495,"Ġ1997":8496,"ĠProf":8497,"\\.":8498,"Ġcrypt":8499,"ingle":8500,"ĠDI":8501,"ĠPA":8502,"006":8503,"Ġ2020":8504,"Ġbiosynthesis":8505,"ĠMur":8506,"Ġdream":8507,"Ġrecording":8508,"Ġtrees":8509,"bigg":8510,"FONT":8511,"Ġexclusively":8512,"Ġtobacco":8513,"ĠOntario":8514,"Ġhomosexual":8515,"Column":8516,"BO":8517,"åĪ":8518,"Ġlies":8519,"Ġinches":8520,"./":8521,"Ġ62":8522,"Ġregime":8523,"ĠWhere":8524,"ĠArray":8525,"gorithm":8526,"inating":8527,"eller":8528,"leted":8529,"ĠmÃ¡s":8530,"ĠSweden":8531,"{-":8532,"ached":8533,"<\\":8534,"inet":8535,"ĠIM":8536,"ceptions":8537,"English":8538,"ĠQue":8539,"Ġsomewhat":8540,"Layout":8541,"ĠÂµ":8542,"Ġantibiotics":8543,"Ġlegitimate":8544,"QU":8545,"HL":8546,"ellig":8547,"Ġmaintained":8548,"Ġnurses":8549,"Ġ\"âĻª":8550,"YS":8551,"apl":8552,"Ġdescribes":8553,"Ġspectra":8554,"Ġgift":8555,"osa":8556,"command":8557,")+":8558,"ertion":8559,"Ġtor":8560,"iration":8561,"Ġ67":8562,"Ġ76":8563,"ĠReview":8564,"Ġpowers":8565,"liament":8566,"Ġpatent":8567,"ĠImmun":8568,"amsfonts":8569,"Open":8570,"rin":8571,"ĠOS":8572,"Ġattempts":8573,"Ġsurrounding":8574,"anoate":8575,"Ġrecipe":8576,"pose":8577,"ATA":8578,"ĠJordan":8579,"Ġembryos":8580,"springframework":8581,"Ġ1996":8582,"Ġrecognition":8583,"Ġpulled":8584,"window":8585,"ora":8586,"Ġaccused":8587,"Ġidentical":8588,"Ġdrives":8589,")[":8590,"Ġgenome":8591,"Supplementary":8592,"Ġcru":8593,"ĠIC":8594,"Ġbeam":8595,"ĠMicrosoft":8596,"ĠFire":8597,"Ġindictment":8598,"ĠDetroit":8599,"Ġlots":8600,"ĠRiver":8601,"ulture":8602,"Ġhelping":8603,"Next":8604,"ĠCall":8605,"Ġbigger":8606,"Device":8607,"Ġholiday":8608,"Ġceremony":8609,"igarette":8610,"Ġarthritis":8611,"Hel":8612,"Ġadj":8613,"idents":8614,"isted":8615,"ĠDemocratic":8616,"ĠSometimes":8617,"Use":8618,"sch":8619,"buf":8620,"Rev":8621,"second":8622,"Ġapproval":8623,"Ġstem":8624,"Ġpicking":8625,"112":8626,"Ġtelling":8627,"Ġsemi":8628,"upgreek":8629,"amsbsy":8630,"wasysym":8631,"DI":8632,"ques":8633,"ĠEth":8634,"Ġje":8635,"Ġcharacteristic":8636,"atural":8637,"Ġpassword":8638,"Ġsuperior":8639,"Ġreputation":8640,"Ġsi":8641,"Ġrh":8642,"ĠAfrican":8643,"Mar":8644,"orage":8645,"Ġcontents":8646,"Ġdifferentiation":8647,"debug":8648,"Ġlay":8649,"Ġalloc":8650,"Ġdesire":8651,"sign":8652,"ĠFil":8653,"ĠKim":8654,"ĠProt":8655,"Ġuptake":8656,"uv":8657,"emon":8658,"Mode":8659,"Ġluck":8660,"ayers":8661,"ĠPeter":8662,"mann":8663,"Package":8664,"ĠYanke":8665,"Tex":8666,"ctx":8667,"ĠInformation":8668,"}}^{":8669,"Ġdirectory":8670,"ĉĉĉ":8671,"InCallScreen":8672,"direct":8673,"Ġgate":8674,"Ġsea":8675,"riter":8676,"ktop":8677,"Ġinduction":8678,"Ġbusinesses":8679,"Ġinfiltr":8680,"BB":8681,"Ġdemocr":8682,"ifts":8683,"ĠPatients":8684,"Ġstatistics":8685,"Ġtough":8686,"omatic":8687,"Ġterminal":8688,"Ġloan":8689,"ournals":8690,"Ġacids":8691,"Ġdisplayed":8692,"Ġconstructed":8693,"Ġulcer":8694,"Ġfragments":8695,"None":8696,"rt":8697,"stack":8698,"Ġ79":8699,"Ġrapidly":8700,"PCR":8701,"Ġmail":8702,"Ġchart":8703,"Ġmodify":8704,"ĠProv":8705,"Ġvictims":8706,"Ġagreements":8707,"Ġintrinsic":8708,"Ġinfluenza":8709,"Ġalgebras":8710,"Ġdepression":8711,"Yeah":8712,"Ġemployer":8713,"Ġsetup":8714,"Ġcolumns":8715,"ĠVietnam":8716,"2001":8717,"ĠWilliam":8718,"Ġscr":8719,"Ġfilename":8720,"Ġiron":8721,"ĠLittle":8722,"mi":8723,"ĠRh":8724,"oggle":8725,"WH":8726,"odd":8727,"III":8728,"Ġhypothesis":8729,"ĠPolice":8730,"Ġav":8731,"inance":8732,"Ġsounds":8733,"Ġhepat":8734,"Ġ400":8735,"Ġdimensions":8736,"ĠDemocrats":8737,"ĠIowa":8738,"Ġinvasive":8739,"treated":8740,"Ġtrouble":8741,"Ġexperts":8742,"Ġfurniture":8743,"BE":8744,"Ġsports":8745,"Ġing":8746,"ologic":8747,"Ġinstruction":8748,"Ġintegrated":8749,"Ġcopyright":8750,"About":8751,"square":8752,"Ġfiscal":8753,"ootstrap":8754,"dc":8755,"Ġmarkets":8756,"Ġbind":8757,"Ġbeta":8758,"ĠCount":8759,"Ġparticipate":8760,"PATH":8761,"SIZE":8762,"Acknowledg":8763,"Ġhydraulic":8764,"ĠElizabeth":8765,"Ġtemplate":8766,"Ġske":8767,"Ġraw":8768,"ucks":8769,"GS":8770,"Ġmob":8771,"ĊĠĠĠĠĠĠĠĠĠĠĠĠĠĠĠĠĠĠĠĠĠ":8772,"conduct":8773,"ĠArch":8774,"Results":8775,"Ġhol":8776,"ĠDev":8777,"Phys":8778,"Ġexpendit":8779,"ĠVietnamese":8780,"RT":8781,"Ġ),":8782,"eto":8783,"isting":8784,"Ġexamine":8785,"Ġpet":8786,"Ġmit":8787,"Ġ69":8788,"Ġimmediate":8789,"Ġadvoc":8790,"Oper":8791,"Ġtow":8792,"Ġnative":8793,"ĠSE":8794,"ĠPower":8795,"Ġ84":8796,"ĠKentucky":8797,"ĠConfeder":8798,"zing":8799,"ĠThose":8800,"Ġstir":8801,"oxid":8802,"ACE":8803,")*(-":8804,"Account":8805,"Other":8806,"Ġclassification":8807,"Ġendoscopic":8808,"flu":8809,"eting":8810,"Ġreactions":8811,"Ġgam":8812,"Ġassign":8813,"perimental":8814,"Ġpursue":8815,"Function":8816,"Ġpars":8817,"roc":8818,"Ġplain":8819,"PAR":8820,"ĠLink":8821,"Ġ88":8822,"Ġmoves":8823,"Ġtells":8824,"Ġdramatic":8825,"da":8826,"Ġ1000":8827,"ĠReal":8828,"subs":8829,"Ġtopic":8830,"Ġspeaking":8831,"October":8832,"ĠVenezuel":8833,"mond":8834,"arly":8835,"alloc":8836,"ĠÂ£":8837,"Ġinconsistent":8838,"\"]":8839,"Ġdeaths":8840,")}$":8841,"ĠMiami":8842,"ĠEntertainment":8843,"Ġcups":8844,"etric":8845,"ĠCS":8846,"Ġvit":8847,"Ġxml":8848,"Ġfighting":8849,"uing":8850,"xf":8851,"Ġreplic":8852,"ĠLos":8853,"claim":8854,"Ġexplore":8855,"ĠCorp":8856,"Ġbarely":8857,"band":8858,"iology":8859,"Ġtube":8860,"ona":8861,"Local":8862,"ampl":8863,"Ġexcluded":8864,"Ġengaged":8865,"Ġregional":8866,"Ġdiagonal":8867,"Ġlandscape":8868,"TE":8869,"ĠMs":8870,"ĠMean":8871,"Ġpoll":8872,"Ġdenote":8873,"Ġphotos":8874,"Vector":8875,"zen":8876,"Ġrows":8877,"Ġretail":8878,"Ġdiagnosed":8879,"ĠControl":8880,"Ġfibrosis":8881,"amps":8882,"Ġshoot":8883,"Ġassumption":8884,"Ġremote":8885,"Ġrespective":8886,"Ġsubstantially":8887,"Ġdivision":8888,"esthesia":8889,"Ġmosquit":8890,"Ġcomplicated":8891,"cancers":8892,"istor":8893,"erman":8894,"Ġcalculation":8895,"ido":8896,"Ġadverse":8897,"2007":8898,"Ġdogs":8899,"Ġstellar":8900,"ĠTaiwan":8901,"Ġimprisonment":8902,"Ġnormally":8903,"loc":8904,"Ġhate":8905,"Ġintroduce":8906,"Ġpreferred":8907,"Ġsavings":8908,"incipal":8909,"ĠScotland":8910,"Ġtaxes":8911,"ski":8912,"DD":8913,"VAL":8914,"Ġkick":8915,"positive":8916,"]{}\\":8917,"Ġcustody":8918,"Ġaccomplished":8919,"Ġbought":8920,"Ġincreasingly":8921,"Ġtens":8922,"ĠPet":8923,"Ġrepresentative":8924,"Directory":8925,"Ġrealize":8926,"Arg":8927,"Ġsocioeconomic":8928,"Ġpy":8929,"160":8930,"Format":8931,"People":8932,"Ġweather":8933,".âĢĻ":8934,"Ġapplying":8935,"task":8936,"Ġfle":8937,"Ġworst":8938,"home":8939,"ormal":8940,"ĠAsia":8941,"varpi":8942,"foo":8943,"Michael":8944,"ĠMissouri":8945,"Ġbureaucr":8946,"foot":8947,"Ġbars":8948,"ĠDE":8949,"Ġmales":8950,"Ġ[]":8951,"Ġcultural":8952,"Ġrotation":8953,"ĠKorean":8954,"Vis":8955,"Ġlen":8956,"ĠMartinez":8957,"vs":8958,"erver":8959,"Ġpaint":8960,"Ġnm":8961,"teen":8962,"Ġoffering":8963,"Ġrealized":8964,"čĊčĊ":8965,"Ġarrested":8966,"Rearrange":8967,"court":8968,"iner":8969,"Ġsick":8970,"ĠAcc":8971,"Ġroles":8972,"ĠTrust":8973,"%;":8974,"Ġprobe":8975,"Ġ['":8976,"Ġregardless":8977,"Ġtremendous":8978,"ĠMax":8979,"ĠFre":8980,"ĠName":8981,"ĠNov":8982,"Ġentity":8983,"ĠClub":8984,"internal":8985,"Ġplea":8986,"Ġsubstances":8987,"Ġdeclaration":8988,"Ġmacrophages":8989,"Ġcylindrical":8990,"180":8991,"Ġurl":8992,"linewidth":8993,"Block":8994,"files":8995,"ĠLo":8996,"Ġcontrary":8997,"]-[@":8998,"Ġprivilege":8999,"ĠDate":9000,"ĠTw":9001,"Ġking":9002,"ĠVer":9003,"Ġoriginally":9004,"points":9005,"Ġsuffered":9006,"Ġfellow":9007,"ĠHome":9008,"Ġfelony":9009,"Definition":9010,"ĠIDE":9011,"ĠOb":9012,"Ġinvasion":9013,"Ġcoal":9014,"ĠReport":9015,"Ġawait":9016,"HE":9017,"ĊĊĉĉ":9018,"Ġtip":9019,"ICE":9020,"Ġcurves":9021,"ĠAmong":9022,"ĠAvenue":9023,"Ġcircuits":9024,"Ġmine":9025,"____":9026,"Ġtargets":9027,"Ġseparated":9028,"ĠSupp":9029,"settings":9030,"Ġrecruitment":9031,"\\^":9032,"Ġtherm":9033,"Ġposts":9034,"Ġhappening":9035,"Ġdrawn":9036,"Current":9037,"Â»":9038,":**<":9039,"ĠSoviet":9040,"develop":9041,"Ġcirrhosis":9042,"aters":9043,"\\|_{":9044,"sql":9045,"isk":9046,"Ġ78":9047,"chemical":9048,"Ġfairly":9049,"Ġgrateful":9050,"--+--+--+--+--+--+--+--+--+":9051,"Ġgrounds":9052,"Ġforming":9053,"rome":9054,"Ġwarning":9055,"Pol":9056,"Ġbet":9057,"Ġspr":9058,"gun":9059,"adata":9060,"ĠWood":9061,"ĠTim":9062,"ĠLee":9063,"Ġproceedings":9064,"Output":9065,"pop":9066,"ran":9067,"Ñĥ":9068,"Ġnutrition":9069,"ĠThanks":9070,"rule":9071,"Ġ74":9072,"Ġhousehold":9073,"Ġquadr":9074,"Ġfrustr":9075,"Ġtournament":9076,"Ġromantic":9077,"CF":9078,"ĠCard":9079,"Ġster":9080,"Ġregulations":9081,"Ġgrown":9082,"Ġmomentum":9083,"Ġ-\\":9084,"click":9085,"Ke":9086,"Ġconversion":9087,"Ġirreducible":9088,"oder":9089,"Ġ71":9090,"region":9091,"Ġconnections":9092,"Response":9093,"Ġmutations":9094,"ĠSarah":9095,",'":9096,"Many":9097,"ni":9098,"uh":9099,"Ġprompt":9100,"Ġdrivers":9101,"ĠCruz":9102,"Ġemissions":9103,"Ġinappropriate":9104,"Dr":9105,"Ġemission":9106,"ema":9107,"show":9108,"blog":9109,"ãģ®":9110,"$$\\":9111,"NOT":9112,"low":9113,"Ġreliable":9114,"anned":9115,"ĠInstagram":9116,"acket":9117,"Ġkinds":9118,"Ġstatistically":9119,"Ms":9120,"Ġč":9121,"105":9122,"Ġnoticed":9123,"Ġ[$\\":9124,"romise":9125,"Ġloyal":9126,"ĠTarget":9127,"Ġceramic":9128,"service":9129,"Ġshell":9130,"born":9131,"Ġknowing":9132,"ĠIns":9133,"Ġregistered":9134,"Ġ77":9135,"Link":9136,"Ġaside":9137,"Ġordinary":9138,"Ġprediction":9139,"ĠAff":9140,"adow":9141,"Ġneur":9142,"Ġlisten":9143,"Ġmenu":9144,"Null":9145,"xe":9146,"isters":9147,"Ġinfections":9148,"Ġprojected":9149,"ĠSpirit":9150,"Listener":9151,"embers":9152,"ubs":9153,"Ġsport":9154,"=\"#":9155,"Process":9156,"IVE":9157,"Ġtransferred":9158,"ĠAuthority":9159,"0269216315602590":9160,"Pat":9161,"ĠGener":9162,"Ġsoil":9163,"CTION":9164,"Ġworry":9165,"mode":9166,"Ġextensive":9167,"Ġfaculty":9168,"ela":9169,"fact":9170,"greg":9171,"have":9172,"Ġsizes":9173,"Ġ$(\\":9174,"Ġmanip":9175,"Ġcertificate":9176,"Ġportfolio":9177,"Ġmeth":9178,"**:":9179,"ĠLab":9180,"ĠCheck":9181,"iger":9182,"Ġsuffering":9183,"Ġstyles":9184,"'$":9185,"(*":9186,"NC":9187,"store":9188,"ĠGO":9189,"oids":9190,"2002":9191,"ĠHarris":9192,"Ġimpairment":9193,"Ġincredible":9194,"ĠRoberts":9195,"inals":9196,"ĠThree":9197,"Ġperm":9198,"Ġexcited":9199,"ĠModel":9200,"GT":9201,"uke":9202,"Ġpatch":9203,"Ġsubstance":9204,"Ġcontroller":9205,"Ġacquired":9206,"Max":9207,"ĠArm":9208,"regulated":9209,"Ġhotel":9210,"Ġfeels":9211,"Ġlawyers":9212,"cmaloney":9213,"Ġboolean":9214,"Ġspoke":9215,"achment":9216,"ANT":9217,"Ġfemin":9218,"controller":9219,"ga":9220,"Ġalk":9221,"Debug":9222,"water":9223,"Ġ89":9224,"ĠWilliams":9225,"World":9226,"Ġappellate":9227,"ĠDouglas":9228,"ĊČ":9229,"Ġpermission":9230,"rapper":9231,"ĠAccordingly":9232,"mo":9233,"asi":9234,"Ġcorporate":9235,"ĠKansas":9236,"Ġcriterion":9237,"nov":9238,"unct":9239,"YP":9240,"Ġ------------------------------------------------":9241,"Ġlob":9242,"ĠĠĠĠĠĠĠĠĠĠĠĠĠĠĠĠĠĠĠĠĠĠĠĠĠ":9243,"Ġcompute":9244,"ĠGame":9245,"Ġinstruct":9246,"Ġwebsites":9247,"Ġarrays":9248,"ĠMa":9249,")_":9250,"vector":9251,"including":9252,"enes":9253,"Ġcrack":9254,"Ġhepatic":9255,"oli":9256,"Ġagencies":9257,"Ġamb":9258,"Ġaddressed":9259,"Ġfee":9260,"ĠIsland":9261,"Ġmechanical":9262,"IZ":9263,"][@":9264,"Ġdimensional":9265,"Ġhall":9266,"140":9267,"criptions":9268,"Even":9269,"_>":9270,"Ġcalculate":9271,"Ġlogic":9272,"Ġlaboratory":9273,"Ġaver":9274,"Ġswe":9275,"river":9276,"Ġopposition":9277,"Ġfault":9278,"Ġincomp":9279,"ulti":9280,"ĠJo":9281,"Ġcoupled":9282,"Ġcards":9283,"Ġyounger":9284,"Ġmalignant":9285,"Ġpredetermined":9286,"Ġstrains":9287,"ĠWho":9288,"Command":9289,"cpp":9290,"system":9291,"Ġkilling":9292,"Ġexpand":9293,"Ġcarrying":9294,"Ġexplo":9295,"Ġrefused":9296,"ÃŃa":9297,"Ġdedicated":9298,"Given":9299,"Ġ111":9300,"Ġsuff":9301,"Ġsubsequently":9302,"Child":9303,"Ġcomputed":9304,"Ġluminosity":9305,"TL":9306,"step":9307,"rug":9308,"Ġadvis":9309,"TEST":9310,"Ġvast":9311,"}-\\":9312,"Ġhidden":9313,"Ġrepresenting":9314,"Ġpromise":9315,"Ġcalculations":9316,"Frame":9317,"Ġdecomposition":9318,"ĠAlabama":9319,"Ġchromosome":9320,"Ġtrafficking":9321,"Ġcentre":9322,"Ġrecognize":9323,"Ġmigr":9324,"ĠPD":9325,"Also":9326,"Ġdealing":9327,"omorphism":9328,"Float":9329,"Ġos":9330,"Ġsatisfied":9331,".;":9332,"ader":9333,"ĠWall":9334,"aka":9335,"Ġdried":9336,"ND":9337,"draw":9338,"Ġintermediate":9339,"acer":9340,"Ġsteel":9341,"join":9342,"Ġbacteria":9343,"ÎºB":9344,"ĠMexican":9345,"'_":9346,"kes":9347,"Ġ73":9348,"125":9349,"Ġcrash":9350,"Ġrequests":9351,"ĠâĪ":9352,"Ġcutting":9353,"Ġslowly":9354,"ĠMat":9355,"Ġfinds":9356,"Ġinjured":9357,"Ġcoordinates":9358,"æķ°":9359,"600":9360,"ĠSum":9361,"ucle":9362,"ĠCanadian":9363,"Ġimagine":9364,"Ġrehabilitation":9365,"Ġconce":9366,"Ġversions":9367,"Ġfirms":9368,"available":9369,"âĢĺ":9370,"Ġamplitude":9371,"Cal":9372,"ĠIg":9373,"Ġchest":9374,"}^{-":9375,"Ġillness":9376,"Ġconsequence":9377,"reasonable":9378,"Ġcircles":9379,"Ġthromb":9380,"Ġbreaking":9381,"Ġbasically":9382,"Ġattempted":9383,"Length":9384,"Sort":9385,"Ġrenew":9386,"Ġ(âĢľ":9387,"Ġongoing":9388,"Ġinvent":9389,"Ġcavity":9390,"Ġcanonical":9391,"Ġincubation":9392,"mean":9393,"Ġtort":9394,"Ġstrip":9395,"ĠLeg":9396,"Ġfails":9397,"Ġdependence":9398,"Ġvoters":9399,"Ġholes":9400,"ĠOper":9401,"ĠYet":9402,"Ġflag":9403,"ĠHREF":9404,"etics":9405,"ĠAv":9406,"ĠText":9407,"Ġchapter":9408,"Ġherein":9409,"Ġaimed":9410,"Ġaggreg":9411,"ockMQTTClientObject":9412,"ARY":9413,"Ġemotions":9414,"ĠRespond":9415,"ĠJonathan":9416,"pin":9417,"Â®":9418,"etal":9419,"usr":9420,"Ġamino":9421,"Ġradical":9422,"sv":9423,"Ġfo":9424,"Ġhurt":9425,"ĠDisease":9426,"ĠVEGF":9427,"Ġenterprise":9428,"Ġbench":9429,"ĠSP":9430,"ĠDO":9431,"ĠTop":9432,"Ġsleeve":9433,"Ġpancreatitis":9434,"HA":9435,"Ġgro":9436,"Thank":9437,"Ġment":9438,"ima":9439,"ancer":9440,"ĠMedia":9441,"VID":9442,"ĠSU":9443,"Ġstands":9444,"Ġstores":9445,"Ġcomplement":9446,"ĠLight":9447,"ipe":9448,"ilder":9449,"ĠSM":9450,"============":9451,"ĠBush":9452,"Ġpermit":9453,"Ġclimate":9454,"}}^":9455,"Ġaudience":9456,"stop":9457,"Ġalert":9458,"rup":9459,"ĠVan":9460,"Ġgran":9461,"Ġbacterial":9462,"Ġenrichment":9463,"Ġ:)":9464,"Ġnecrosis":9465,"Ġtrajectories":9466,"mathsf":9467,"Ġdriven":9468,"har":9469,"utch":9470,"ĠProgram":9471,"Ġflux":9472,"Ġfinger":9473,"ĠSol":9474,"^{-\\":9475,"Ġ1995":9476,"Ġpresentation":9477,"Ġterrible":9478,"Ġventricular":9479,"ĠCOM":9480,"Ġusage":9481,"aches":9482,"107":9483,"Ġ1980":9484,"Ġabnormal":9485,"Ġdifficulty":9486,"Ġpaying":9487,"âĶĤ":9488,"ĠDiego":9489,"ãģĹãģ":9490,"Ġ250":9491,"Ġ>=":9492,"Ġmoral":9493,"Ġinstitutions":9494,"ellee":9495,"zero":9496,"Ġmill":9497,"Ġdict":9498,"Ġevident":9499,"ĠItaly":9500,"Ġdecline":9501,"Ġconsumer":9502,"Ġabsorb":9503,"potential":9504,"Ġtransaction":9505,"ellants":9506,"Ġoven":9507,"Ġcontributed":9508,"ĠVis":9509,"Ġ82":9510,"Ġ98":9511,"Ġcomparable":9512,"Ġconvenience":9513,"ali":9514,"Ġpel":9515,"ĠCM":9516,"Ġfoods":9517,">\\":9518,"Ġlim":9519,"Ġsharing":9520,"ãĥ¼":9521,"ynamics":9522,"ĠCOURT":9523,"Tag":9524,"asia":9525,"Ġenabled":9526,"prod":9527,"Ġapproximation":9528,"ĠShow":9529,"Ġenzyme":9530,"parallel":9531,".$":9532,"GET":9533,"ĠDeb":9534,"ĠUC":9535,"Ġevening":9536,"offset":9537,"ĠRoad":9538,"access":9539,"Ġoperate":9540,"Who":9541,"umor":9542,"Ġfantastic":9543,"Ġconvinced":9544,"Url":9545,"Ã§":9546,"}^{(":9547,"device":9548,"idel":9549,"Ġvectors":9550,"Ġchoices":9551,"esides":9552,"Ġproducing":9553,"ĠHand":9554,"textrm":9555,"ĠMaybe":9556,"Ġelections":9557,"Ġprivacy":9558,"Ġheadquarters":9559,"iod":9560,"Ġbrown":9561,"response":9562,"Ġourselves":9563,"Ġclassified":9564,"Ġsettlement":9565,"Ġdrove":9566,"Ġhormone":9567,"Ġtrained":9568,"awa":9569,"Ġintegration":9570,"wait":9571,"report":9572,"Ġtranslation":9573,"Ġconversations":9574,"CIT":9575,"Work":9576,"ĠKar":9577,"ĠAnalysis":9578,"ĠLast":9579,"Ġdecade":9580,"\\*\\*":9581,"Update":9582,"ĠJul":9583,"prov":9584,"Ġmodes":9585,"2003":9586,"Ġwalked":9587,"Ġdistricts":9588,"Ġveter":9589,"ORE":9590,"Down":9591,"Factory":9592,"Ġprecise":9593,"ĠOregon":9594,"Ġartifacts":9595,".]":9596,"Cor":9597,"atform":9598,"ĠOld":9599,"Ġmarkers":9600,"Ġ\\;":9601,"Ġquiet":9602,"Ġanywhere":9603,"ĠYOU":9604,"Ġroutine":9605,"Ġdensities":9606,"Ġdeterior":9607,"Protocol":9608,"support":9609,"then":9610,"ĠGrand":9611,"Ġsimulation":9612,"Ġsingular":9613,"otypes":9614,"eman":9615,"Ġimposed":9616,"Ġanyway":9617,"Ġnewly":9618,"Theta":9619,"ĠNokia":9620,"ĠKevin":9621,"Ġindustries":9622,"LL":9623,"Range":9624,"å®":9625,"ĠEU":9626,"Ġrepeat":9627,"Ġtheme":9628,"Ġfacing":9629,"Ġwinning":9630,"front":9631,"emic":9632,"ĠJeff":9633,"Ġdish":9634,"Ġcath":9635,"Ġduck":9636,"Init":9637,"Ġcrew":9638,"'),":9639,"ĠBlo":9640,"ĠFort":9641,"Web":9642,"Ġcreates":9643,"Ġshaft":9644,"yes":9645,"enant":9646,"berry":9647,"128":9648,"ĠRepublicans":9649,"Ġwonderful":9650,"Ingredients":9651,"TM":9652,"Ġcircum":9653,"*]{},":9654,"Ġrevenues":9655,"ĠFootball":9656,"ĠLewis":9657,"ĠEmpire":9658,"Ġoccasions":9659,"Â§":9660,"Ġcontends":9661,"raise":9662,"ĠVersion":9663,"Like":9664,"ĠPO":9665,"Ġplanet":9666,"Ġregulatory":9667,"Health":9668,"outheast":9669,"ĠQuestionnaire":9670,"DNA":9671,"tra":9672,"ĠOK":9673,"1999":9674,"Ġgoods":9675,"Ev":9676,"Ġsoul":9677,"Ġdelete":9678,"Ġanomaly":9679,"Ġtank":9680,"imum":9681,"about":9682,"Ġtruck":9683,"Ġsatisfy":9684,"ĠConstitution":9685,"ji":9686,"Ġthr":9687,"ĠFox":9688,"ĠFood":9689,"ĠÂ«":9690,"ĠProtein":9691,"etry":9692,"istant":9693,"Ġ91":9694,"Ġpara":9695,"Ġinvolve":9696,"Car":9697,"ĠPath":9698,"ĠAnthony":9699,"Ġstraightforward":9700,"ĠHollywood":9701,"Case":9702,"Ġgel":9703,"umps":9704,"ophag":9705,"fg":9706,"nc":9707,"amination":9708,"Ġ116":9709,"ĠBern":9710,"Ġpurchased":9711,"Ġextracted":9712,"Bundle":9713,"âĤ¬":9714,"ĠFuture":9715,"å¤":9716,"AMP":9717,"Ġencoding":9718,"Ġdocumentation":9719,"Ġdisclosed":9720,"copy":9721,"vol":9722,"Ġess":9723,"Ġmissed":9724,"eds":9725,"Ġresc":9726,"Ġaged":9727,"Ġradius":9728,"Put":9729,"itations":9730,"Ġowned":9731,"Ġcommunications":9732,"Ġintroduction":9733,"Ġindependently":9734,"Ġobserve":9735,"ĠBureau":9736,"mathscr":9737,"Ġsatellite":9738,"Ġacoustic":9739,"UST":9740,"iro":9741,"enal":9742,"Ġmask":9743,"Ġlegs":9744,"Ġhell":9745,"Ġlat":9746,"Ġedges":9747,"Ġnursing":9748,".^[@":9749,"Ġ\\{":9750,"ĠHR":9751,"Ġcarrier":9752,"2004":9753,"ĠKey":9754,"Ġdiscover":9755,"Ġabundant":9756,"Ġentertainment":9757,"Ġencountered":9758,"Ġsubmucosal":9759,"Ġng":9760,"Ġrain":9761,"erving":9762,"Ġbowl":9763,"idad":9764,"ĠBase":9765,"ĠInvest":9766,"ĠKn":9767,"Ġheader":9768,"Ġperfectly":9769,"Ġinhibitor":9770,"wa":9771,"she":9772,"Ġchose":9773,"Ġnurse":9774,"Top":9775,"ted":9776,"Ġsong":9777,"close":9778,"cludes":9779,"Ġ1992":9780,"Ġstrike":9781,"Ġsummar":9782,"Ġstronger":9783,"Ġancest":9784,"ynchron":9785,"Ġinnocent":9786,"Ġdoc":9787,"======":9788,"Ġcorresponds":9789,"Ġ===":9790,"Ġyields":9791,"Ġwelfare":9792,"January":9793,"lie":9794,"}:":9795,"ĠUt":9796,"Ġ1994":9797,"Ġ94":9798,"era":9799,"ĠBased":9800,"example":9801,"Ġcars":9802,"Ġmarginal":9803,"Most":9804,"umes":9805,"Ġfrequent":9806,"Ġmanufacturing":9807,"ĠArkansas":9808,"gress":9809,"project":9810,"Ġtemporary":9811,"Ġshouldn":9812,"Ġcarefully":9813,"Ġrounded":9814,"Ġtab":9815,"Ġhazard":9816,"ĠNetherlands":9817,"ĠAppendix":9818,"some":9819,"zo":9820,"Ġmeta":9821,"illion":9822,"Mark":9823,"Sl":9824,"ione":9825,"shot":9826,"meta":9827,"Ġcomplexity":9828,"Ġimproving":9829,"infinity":9830,"Ġbulk":9831,"Ġtroubles":9832,"ĠVancouver":9833,"BV":9834,"iag":9835,"ĠPT":9836,"anted":9837,"}_\\":9838,"Ġmagnitude":9839,"Ġanalytical":9840,"va":9841,"Ġselling":9842,"Ġ115":9843,"Ġtele":9844,"2005":9845,"Under":9846,"oplus":9847,"anol":9848,"Ġexerc":9849,"ictionary":9850,"Ġdataset":9851,"Ġfriction":9852,"Ġaggrav":9853,"ĠLIABILITY":9854,"rat":9855,"ĠIr":9856,"iana":9857,"Ġperforming":9858,"Ġprofiles":9859,"Ġopposed":9860,"ja":9861,"expression":9862,"ĠÃ©":9863,"ĠĠĠĠĠĠĠĠĠĠĠĠĠĠĠĠĠĠĠĠĠĠĠĠĠĠ":9864,"NAME":9865,"Ġseparation":9866,"ĠSpecial":9867,"make":9868,"ira":9869,"ĠGM":9870,"should":9871,"Ġmaternal":9872,"ĠHAVE":9873,"iform":9874,"Ġcomparing":9875,"','":9876,"ĠOrder":9877,"Ġseriously":9878,"Widget":9879,"aterial":9880,"Ġbringing":9881,"Ġexplicitly":9882,"Memory":9883,"Ġrelevance":9884,"Ġfeasible":9885,"Ġdiagrams":9886,"={":9887,"Ġmild":9888,"\"}),":9889,"Ġparticipation":9890,"Ġquantity":9891,"Ġdoctors":9892,"Ġsurprising":9893,"Left":9894,"bro":9895,"retion":9896,"otox":9897,"Ġ83":9898,"Ġaccommod":9899,"Ġsufficiently":9900,"atisf":9901,"Ġyeast":9902,"Red":9903,"Script":9904,"ĠUV":9905,"Ġ87":9906,"Ġtransparency":9907,"bell":9908,"ĠMike":9909,"Ġequally":9910,"Ġmetall":9911,"ĠBuild":9912,"Î³":9913,"Ġokay":9914,"Ġinstances":9915,"agan":9916,"Ġalb":9917,"008":9918,"ĠFed":9919,"Ġperp":9920,"Ġreader":9921,"Ġdomains":9922,"Ġcapture":9923,"ĠHilbert":9924,"(_":9925,"020":9926,"vin":9927,"actic":9928,"Ġwherein":9929,"holder":9930,"ĠMD":9931,"Configuration":9932,"EXT":9933,"ĠBGCOLOR":9934,"dl":9935,"Ġcomfort":9936,"brace":9937,"Ġperiods":9938,"Ġwriter":9939,"ĠDigital":9940,"}\"":9941,"ĠRam":9942,"ĠOh":9943,"ixed":9944,"Ġdisturb":9945,"Ġconsecutive":9946,";</":9947,"fi":9948,"ĠSC":9949,"Ġwhenever":9950,"ĠCohen":9951,"ĠMedicare":9952,"VERSION":9953,"Vertex":9954,")),":9955,"Ġmapping":9956,"thread":9957,"ĠBow":9958,"ĠTor":9959,"ilation":9960,"Ġactivated":9961,"ĠPrime":9962,"Ġmutation":9963,"Does":9964,"Hey":9965,"ĠCase":9966,"Ġprote":9967,"Once":9968,"ĠDoes":9969,"ropolitan":9970,"Dep":9971,"person":9972,"uit":9973,"Ġelected":9974,"Ġrely":9975,"ĠSO":9976,"Ġ112":9977,"ĠLib":9978,"ĠCrohn":9979,"Ġ**(":9980,"Ġreferences":9981,"Did":9982,"Location":9983,"Ġarmy":9984,"Ġsignature":9985,"Ġcrimes":9986,"Ġcontradict":9987,"kt":9988,"two":9989,"Ġresolve":9990,"Ġvehicles":9991,"AME":9992,"especially":9993,"His":9994,"Ġbin":9995,"Ġbear":9996,"Ġstolen":9997,"Ġenemies":9998,"ĠStephen":9999,"DOCTYPE":10000,"ĠSource":10001,"ĠNFL":10002,"\"}](":10003,"Ġtargeted":10004,"Ġsuspect":10005,"Collection":10006,"Ġcited":10007,"imated":10008,"Ġgall":10009,"ĠĠĠĠĠĠĠĠĠĠĠĠĠĠĠĠĠĠĠĠĠĠĠĠĠĠĠ":10010,"Ġ\"(":10011,"Conn":10012,"000000":10013,"Ġsurprise":10014,"Ġaluminum":10015,"ĠDVD":10016,"February":10017,"Good":10018,"echn":10019,"Ġchecked":10020,"plus":10021,"ĠInit":10022,"Ġauthent":10023,"inson":10024,"ĠMoscow":10025,"mes":10026,"Ġthrows":10027,"ĠStudies":10028,"auth":10029,"Ġinclusion":10030,"ropy":10031,"Donald":10032,"itr":10033,"ĠMich":10034,"ĠEff":10035,"Ġprovider":10036,"Nav":10037,"ador":10038,"izations":10039,"Ġcircle":10040,"Ġboost":10041,"omorphic":10042,"Ġneutrino":10043,"gi":10044,"Ġbuying":10045,"Ġpassage":10046,"Container":10047,"Ġdirections":10048,"Ġlipid":10049,"Ġsister":10050,"ipher":10051,"Ġmasses":10052,"Ġforest":10053,"ĠTechnology":10054,"Further":10055,"havior":10056,"jango":10057,"INCLUD":10058,"Ġsyntax":10059,"adi":10060,"ĠED":10061,"such":10062,"Ġdominant":10063,"hol":10064,"Ġwound":10065,"Ġproven":10066,"description":10067,"Ġwisdom":10068,"Ġanticipated":10069,"west":10070,"ĠMake":10071,"Ġok":10072,"irection":10073,"Ġ600":10074,"Ġdrain":10075,"Ġubiqu":10076,"Ġreservoir":10077,">,":10078,"Bo":10079,"Ġbatch":10080,"ĠLand":10081,"Ġvariations":10082,"!âĢĿ":10083,"pace":10084,"åĲ":10085,"ibly":10086,"Ġverify":10087,"Ġtwenty":10088,"Japan":10089,"Ġbuttons":10090,"Appellant":10091,"NR":10092,"Sw":10093,"ĠAF":10094,"Ġviral":10095,"Ġparadigm":10096,"Ġwine":10097,"Ġnum":10098,"Ġresection":10099,"Ġmixing":10100,"ĠNetwork":10101,"ĠFourier":10102,"Ġshrink":10103,"ĠScientific":10104,"Ġsulf":10105,"Ġfig":10106,"Ġinduce":10107,"âĢħ":10108,"Total":10109,"Ġexit":10110,"ĠNumber":10111,"Ġjson":10112,"Ġimprovements":10113,"help":10114,"Ġpartnership":10115,"Ġarrival":10116,"Ġvoluntary":10117,"ĠRights":10118,"Ġplenty":10119,"Ġdiscrim":10120,"Ġsad":10121,"External":10122,"when":10123,"remove":10124,"Only":10125,"Ġconsumers":10126,"Ġtangent":10127,"Ġproximal":10128,"ĠLi":10129,"Attribute":10130,"ĠLincoln":10131,"Tab":10132,"ĠAC":10133,"=======================":10134,"ĠEst":10135,"Ġ{{":10136,"Ġ86":10137,"Build":10138,"Ġcameras":10139,"Ġgrabbed":10140,"363774430":10141,"ĠManagement":10142,"Ġclusters":10143,"URE":10144,"nm":10145,"ila":10146,"Ġ130":10147,"ĠHam":10148,"vious":10149,"Ġcream":10150,"Ġsignatures":10151,"DEBUG":10152,"Ġmachinery":10153,"aid":10154,"Ġcab":10155,"Ġclassic":10156,"lier":10157,"Ġfatty":10158,"ĠJac":10159,"Ġtechnologies":10160,"Ġbridge":10161,"ĠForce":10162,"Ġapartment":10163,"&=&":10164,"Ġtrib":10165,"oman":10166,"Ġ$-":10167,"Ġreserved":10168,"mediated":10169,"Ñĭ":10170,"Ġinit":10171,"Ġ$[":10172,"Ġ$|":10173,"ĠEvent":10174,"))/(":10175,"ĠNelson":10176,"olds":10177,"Ġarbitrary":10178,"Ġrobust":10179,"Ġresponded":10180,"Ġcommitment":10181,"ifndef":10182,"Ġrobbery":10183,"Ġhun":10184,"Ġ92":10185,"Ġcareful":10186,"Ġawareness":10187,"Ġreduces":10188,"ĠPS":10189,"ĠRight":10190,"Ġsoci":10191,"Ġ93":10192,"Ã©s":10193,"ĠÃł":10194,"Ġrestaurant":10195,"Ġcongressional":10196,"Ġbomb":10197,"Ġlift":10198,"orship":10199,"Ġheads":10200,"Ġmonitor":10201,"Ġextraction":10202,"Ġmonitored":10203,"double":10204,"Ġ1993":10205,"Ġindirect":10206,"Ġhealthcare":10207,"Ġchallenging":10208,"Ġloaded":10209,"Ġphysics":10210,"ocutusOfBorg":10211,"Ġpour":10212,"Ġdisability":10213,"Ġattribute":10214,"Ġbarrier":10215,"Ġfibrin":10216,"Section":10217,"Ġtrace":10218,"rave":10219,"Ġthereof":10220,"Ġgreatly":10221,"Ġsurprised":10222,"ologically":10223,"Ġmothers":10224,"ASE":10225,"Ġstaining":10226,"Ġchlor":10227,"Ġremind":10228,"Ġbuildings":10229,"Ġcopies":10230,"Ġnanoparticles":10231,"FD":10232,"ectomy":10233,"Ġhasn":10234,"render":10235,"ĠConn":10236,"Ġscalar":10237,"Ġsuspicion":10238,",$$":10239,"oved":10240,"Ġcaps":10241,"icing":10242,"ĠSign":10243,"ĠRock":10244,"ĠEll":10245,"awn":10246,"Ġengage":10247,"Ġenabling":10248,"typename":10249,"Ġsubtle":10250,"---|---":10251,"conscious":10252,"Ġcurriculum":10253,"Draw":10254,"Mon":10255,"Ġalive":10256,"Ġ\"#":10257,"ĠStart":10258,"loop":10259,"Ġminister":10260,"1000":10261,"Ġplug":10262,"Ġhash":10263,"Second":10264,"Ġelectrode":10265,"ĠDallas":10266,"CRIPT":10267,"Ġpeaceful":10268,"<?":10269,"High":10270,"Pa":10271,"ĠSi":10272,"ĠMiddle":10273,"ivid":10274,"Ġintake":10275,"127":10276,"ĠHurricane":10277,"lam":10278,"Ġreward":10279,"uri":10280,"thal":10281,"ĠDan":10282,"aks":10283,"territory":10284,"Ġexperiencing":10285,"Ġmanufacturers":10286,"Ġmembranes":10287,"HC":10288,"Tool":10289,"tmp":10290,"xb":10291,"Ġheter":10292,"Ġlosing":10293,"avel":10294,"Ġ81":10295,"Ġblind":10296,"INTER":10297,"Ġcuts":10298,"LY":10299,"Ġwal":10300,"ĠCu":10301,"ĠBefore":10302,"Ġ&=&":10303,"eger":10304,"Ġhandling":10305,"anna":10306,"Ġargs":10307,"establ":10308,"Ġisopropyl":10309,"qquad":10310,"Ġtom":10311,"Ġnerve":10312,"osomes":10313,"Ġcolors":10314,"Core":10315,"xff":10316,"Ġstabil":10317,"Ġboys":10318,"Ġteachers":10319,"WS":10320,"them":10321,"Ġyellow":10322,"130":10323,"Ġpresents":10324,"Ġfunc":10325,"ĠAgain":10326,"Ġunprecedented":10327,"ĠVALUES":10328,"eral":10329,"env":10330,"Ġsaved":10331,"ĠEnt":10332,"Ġbrings":10333,"Ġcovering":10334,"Ġmetabolism":10335,"ÂĢÂ":10336,"Ġproducer":10337,"800":10338,"ando":10339,"Ġpursu":10340,"Ġhydrogen":10341,"Ġthickness":10342,"Ġreveal":10343,"){\\":10344,"family":10345,"Ġdecay":10346,"ĠEconomic":10347,"Ġspontaneous":10348,"Ġsubstrates":10349,"Ġequivalence":10350,":=":10351,"Ġeast":10352,"ĠSix":10353,"formed":10354,"Ġreviews":10355,"ĠEmploy":10356,"Server":10357,"Custom":10358,"OG":10359,"cb":10360,"Ġwinter":10361,"ĠColl":10362,"there":10363,"Ġvalve":10364,"Ġhistorical":10365,"Ġtackle":10366,"emperature":10367,"Ġstood":10368,"oped":10369,"Ġcomplet":10370,"Ġ})":10371,"jrwren":10372,"getElementById":10373,"Ġlb":10374,"Ġ180":10375,"ĠBook":10376,"ĠJim":10377,"015":10378,"ĠCommand":10379,"ĠAsian":10380,"Ġdivide":10381,"Ġhardware":10382,"Ġirregular":10383,"NAMESPACE":10384,"fire":10385,"ĠBY":10386,"ĠLine":10387,"Ġrefers":10388,"LD":10389,"Ġbanks":10390,"Ġdump":10391,"âĢ¯":10392,"Ġonset":10393,"Ġmeal":10394,"exists":10395,"Ġfiling":10396,"GROUP":10397,"ĠOxford":10398,"Ġfort":10399,"ĠCurrent":10400,"Ġpartially":10401,"Ġscored":10402,"IME":10403,"IGN":10404,"OB":10405,"uan":10406,"Ġtheories":10407,"Ġnic":10408,"Ġlic":10409,"Ġisland":10410,"011":10411,")$$":10412,"Ġmarketing":10413,"overset":10414,"Ġproposals":10415,"Ġpsychiatric":10416,"Ġatmospheric":10417,"ille":10418,"omp":10419,"Ġ((-":10420,"ĠMiller":10421,"Ġ\\\"":10422,"Ġserial":10423,"Ġfewer":10424,"ĠSquare":10425,"Non":10426,"Ġbankruptcy":10427,"ĠmM":10428,"Ġdinner":10429,"Ġundert":10430,"Ġsuppress":10431,"FT":10432,"een":10433,"ĠMass":10434,"viously":10435,"ĠAdv":10436,"Ġsomewhere":10437,"ĠELISA":10438,"Ġbytes":10439,"}\\\\":10440,"]{},":10441,"Ġexecuted":10442,"Ġwatched":10443,"Ġomitted":10444,"bool":10445,"vision":10446,"ĠAust":10447,"AST":10448,"NP":10449,"iments":10450,"ĠRun":10451,"Ġwearing":10452,"Ġflight":10453,"Change":10454,"Ġodd":10455,"Ġsed":10456,"ĠCustom":10457,"Ġ\\*":10458,"ĠFM":10459,"Ġdeposition":10460,"ĠTown":10461,"Ġanymore":10462,"Ġprofit":10463,"ĠHTML":10464,"ĠNY":10465,"avi":10466,"216":10467,"master":10468,"imp":10469,").$$":10470,"014":10471,"ĠCommunity":10472,"Ġexecution":10473,"ĠSafety":10474,"ĠAntonio":10475,"Ġgravitational":10476,"PK":10477,"ĠPage":10478,"Ġmatching":10479,"Ġnumerical":10480,"ĠFunction":10481,"ĠGlobal":10482,"ĊĉĠĠĠ":10483,"Ġwhilst":10484,"ĠPremier":10485,"Ġcollateral":10486,"Ġatheroscler":10487,"ogether":10488,"Ġpriority":10489,"Ġnewspapers":10490,"erk":10491,"Ġreceiver":10492,"Ġconservative":10493,")|":10494,"gment":10495,"Menu":10496,"aze":10497,"published":10498,"Ġtutorial":10499,"ĠBanach":10500,"Ġspoken":10501,"Op":10502,"uction":10503,"Ġfed":10504,"employ":10505,"Ġexpanded":10506,".(":10507,"SV":10508,"Ġbits":10509,"imen":10510,"udio":10511,"Application":10512,"Ġbounded":10513,"Ġoutdoor":10514,"Ġsoluble":10515,"ĠProcedure":10516,"Ġrefusal":10517,"Long":10518,"ĠSyria":10519,"Ġseeds":10520,"inic":10521,"orial":10522,"ĠPa":10523,"ĠPers":10524,"Ġconvex":10525,"Ġdecedent":10526,"Search":10527,"elect":10528,"req":10529,"ĠMot":10530,"Ġserves":10531,"Ġseparately":10532,"rees":10533,"ĠSL":10534,"quis":10535,"ocus":10536,"Ġvariance":10537,"container":10538,"otropic":10539,"Ġischemia":10540,"ĠIoT":10541,"ĠManchester":10542,"istical":10543,"ETH":10544,"UID":10545,"yy":10546,"cean":10547,"ĠNext":10548,"ĠUser":10549,"Ġpassion":10550,"Ġpeer":10551,"Ġcomputation":10552,"Pointer":10553,"ĠSydney":10554,"Ġdivorce":10555,"Ġpermitted":10556,"Ġdecreases":10557,"ĠmiRNA":10558,"Ġwindows":10559,"Ġriver":10560,"250":10561,"virtual":10562,"ĠGovernor":10563,"Ġenormous":10564,"Ġoutlined":10565,"mate":10566,"Ã¿":10567,"Ġdust":10568,"ĠMount":10569,"ĠRet":10570,"Ġ<-":10571,"Ġyards":10572,"Ġlocally":10573,"Ġbread":10574,"ĠAustralian":10575,"orted":10576,"Ġneural":10577,"Ġphotograph":10578,"ĠBlue":10579,"Graph":10580,"Ġwitnesses":10581,"mercial":10582,"Ġjavax":10583,"Ġadequately":10584,"Ġentrance":10585,"Will":10586,"edge":10587,"ĠCur":10588,"),\\":10589,"ONE":10590,"Ġdiver":10591,"Ġpresidential":10592,"ĠTeam":10593,"tw":10594,"Ġcod":10595,"Ġresolved":10596,"016":10597,"Ġwrapped":10598,".\\[[@":10599,"/_":10600,"OUR":10601,"total":10602,"åħ":10603,"Ġfulf":10604,"asty":10605,"Ġadmission":10606,"Ġflash":10607,"Ġwalls":10608,"Ġepithelium":10609,"enth":10610,"Ġproud":10611,"Ġuniversal":10612,"Ġdialogue":10613,"University":10614,"Ġsan":10615,"outer":10616,"utable":10617,"igin":10618,"ĠBest":10619,"Ġ<!--":10620,"ervation":10621,"OCK":10622,"Mart":10623,"look":10624,"enders":10625,"angular":10626,"Ġflour":10627,"David":10628,"ĠGonz":10629,"Ġpresumably":10630,"Ġcurvature":10631,"Ġhydrophobic":10632,"ĠLett":10633,"ĠPlay":10634,"Ġrestrictions":10635,"ycle":10636,"Ġintra":10637,"ĠChem":10638,"Ġ105":10639,"Ġsuppose":10640,"upload":10641,"ĠFifth":10642,"apolis":10643,"mapsto":10644,"Row":10645,"reams":10646,"Ġfake":10647,"Height":10648,"Ġmatches":10649,"'}":10650,"Ġrib":10651,"Ġinhibitors":10652,"Ġkinase":10653,"phantom":10654,"rystal":10655,"TV":10656,"ĠDist":10657,"ĠGa":10658,"export":10659,"Ġmovies":10660,"Ġportions":10661,"During":10662,"Ġicon":10663,"Ġgay":10664,"1998":10665,"Ġcapac":10666,"Ġoccurrence":10667,"empty":10668,"Ġmeasurable":10669,"ĠBangladesh":10670,"tim":10671,"Ġ04":10672,"Ġ102":10673,"Ġsubgroup":10674,"params":10675,"Ġcontinuing":10676,"Ġinvestors":10677,"Ġguarantee":10678,"Ġpushed":10679,"Ġcheap":10680,"Ġprospective":10681,"ĠBE":10682,"iva":10683,"**.":10684,"ĠEC":10685,"Ġcenters":10686,"Ġsimulations":10687,"Ġadherence":10688,"PG":10689,"Ġml":10690,"Ġweigh":10691,"Ġjet":10692,"ĠSpain":10693,"Ġadjusted":10694,"çĽ£çĿ£":10695,"dig":10696,"will":10697,"Ġcache":10698,"ĠPL":10699,"ieve":10700,"123":10701,"Queue":10702,"oute":10703,"ĠElect":10704,"Thread":10705,"Ġphenomenon":10706,"ĠImage":10707,"Ġgalaxies":10708,"xsd":10709,"ĠJr":10710,"\\_[":10711,"jackson":10712,"ilinear":10713,"Ġprohibited":10714,"ĠDeputy":10715,"ĠPhoenix":10716,"~~~~~~~~~~~~~~~~~~~~~":10717,"stone":10718,"Ġcomposed":10719,"ĠObs":10720,"regulation":10721,"sy":10722,"Ġfired":10723,"angers":10724,"Ġcomo":10725,"ĠSpace":10726,"Ġtalked":10727,"åľ¨":10728,"ĠBASIS":10729,"Ġdiabetic":10730,"tn":10731,"Ġforum":10732,"ĠPay":10733,"ĠBob":10734,"ional":10735,"Ġads":10736,"Ġblank":10737,"they":10738,"!\\!\\":10739,"lat":10740,"Ġuncertainty":10741,"Warning":10742,"Ġconstrued":10743,"ÑĤÑĮ":10744,"Ġhorizon":10745,"Pi":10746,"ses":10747,"Ġsen":10748,"Ġgrew":10749,"Ġ114":10750,"Ġshares":10751,"Ġinfinite":10752,"ascular":10753,"Ġmistake":10754,"fd":10755,"uz":10756,"usp":10757,"ocial":10758,"Ġkeys":10759,"Ġconcomitant":10760,"ĠNintendo":10761,"DM":10762,"oning":10763,"Ġattr":10764,"ĠRos":10765,"ĠLake":10766,"Ġcoast":10767,"Ġgeometry":10768,"DIR":10769,"feed":10770,"æĪ":10771,"Ġinterf":10772,"dy":10773,"ĠĠĠĠĠĠĠĠĠĠĠĠĠĠĠĠĠĠĠĠĠĠĠĠĠĠĠĠĠ":10774,"Ġcompletion":10775,"ĠLocal":10776,"Ġunw":10777,"129":10778,"ĠÂĹ":10779,"Ġdiffraction":10780,"mol":10781,"Ġdiverse":10782,"Project":10783,"Ġmetastasis":10784,"Ġeducational":10785,"Following":10786,"ffffff":10787,"Ġundoubtedly":10788,"changed":10789,"ĠTal":10790,"Ġprevention":10791,"Ġscrew":10792,"108":10793,"Ġthinks":10794,"Ġmacro":10795,"Prop":10796,"hab":10797,"what":10798,"ĠJoe":10799,"Ġ..":10800,"margin":10801,"Ġrecombinant":10802,"nowledge":10803,"pres":10804,"Ġupload":10805,"Ġcontracts":10806,"----------------------------------------":10807,"hspace":10808,"Ġdb":10809,"ĠHig":10810,"note":10811,"Ġdeclare":10812,"Ġallegations":10813,"Ġ&=":10814,"Ġexpectations":10815,"}.$$":10816,"Ġtalks":10817,"Each":10818,"ĠBas":10819,"Ġtiming":10820,"Using":10821,"iac":10822,"Ġfer":10823,"ĠHy":10824,"111":10825,"Ġvalidity":10826,"uct":10827,"Ġfa":10828,"ĠSQL":10829,"Ġ1991":10830,"Ġmodul":10831,"Ġelsewhere":10832,"Ġflexible":10833,"cul":10834,"molecules":10835,"keep":10836,"Ġmarker":10837,"Ġadvent":10838,"Ġcourage":10839,"Ġcervical":10840,"Ġreleases":10841,"Ġadhesion":10842,"emptyset":10843,"found":10844,"matrix":10845,"ensity":10846,"Ġdefines":10847,"}})":10848,"Ġpacket":10849,"Ġspectral":10850,"Several":10851,"Ġunstable":10852,"Ġ^{":10853,"Ġsomehow":10854,"Ġdeliber":10855,"Ġfailing":10856,"Ġspecificity":10857,"ĠCharles":10858,"Ġsymmetric":10859,"102":10860,"versely":10861,"Ġspiritual":10862,"Equal":10863,"Ġnucleotide":10864,"Ġfluorescent":10865,"Ġjuvenile":10866,"priv":10867,"Ġ($\\":10868,"Ġcoli":10869,"Ġcheese":10870,"Ġcrop":10871,"Ġwest":10872,"Ġorb":10873,"ĠRest":10874,"Ġincorporated":10875,"010":10876,"Ġorganized":10877,"ARD":10878,"Ġrecommendations":10879,"ĠResults":10880,"_+":10881,"Ġ}\\":10882,"Ġfly":10883,"Ġrevolution":10884,"Ġmultipl":10885,"western":10886,"ĠHotel":10887,"Ġqueries":10888,"Ġtwelve":10889,"fall":10890,"ho":10891,"connect":10892,"Cache":10893,"ĠRT":10894,"ĠEp":10895,"Ġfaced":10896,"Ġanchor":10897,"dependency":10898,"ÏĢ":10899,"oured":10900,"ĠIBD":10901,"plot":10902,"Ġquantitative":10903,"offs":10904,"Ġmaintaining":10905,"Ġcollective":10906,"Ġdiffusion":10907,"ĠOl":10908,"Ġarchitecture":10909,"Ġforgotten":10910,"uals":10911,"AE":10912,"full":10913,"ĠWater":10914,"Ġclimb":10915,"Ġdeputy":10916,"ograms":10917,"layer":10918,"etary":10919,"emble":10920,"jects":10921,"mons":10922,"Ġjur":10923,"aws":10924,"Ġacet":10925,"Ġmodification":10926,"Ġfeelings":10927,"Ġperturb":10928,"Ġbrilliant":10929,"Ġuncomfortable":10930,"è¿":10931,"Ġoc":10932,"ĠCast":10933,"uclear":10934,"Ġproviders":10935,"Ġdenial":10936,"Ġpromoter":10937,"Ġrestriction":10938,"~,":10939,"Ġnearby":10940,"Ġdispute":10941,"BU":10942,"Free":10943,"final":10944,"ĠCross":10945,"arding":10946,"iously":10947,"Ġphysicians":10948,"ĠRoman":10949,"uzz":10950,"Ġ119":10951,"ĠFamily":10952,"izz":10953,"Ġinfected":10954,"Ġderivatives":10955,"Ġ\"\"\"":10956,"original":10957,"Ġinfectious":10958,"years":10959,"ãĢģ":10960,"}]":10961,"Ġsight":10962,"ĠHE":10963,"acking":10964,"}}(\\":10965,"ĊĠĠĠĠĠĠĠĠĠĠĠĠĠĠĠĠĠĠĠĠĠĠĠĠĠĠĠĠĠĠĠĠĠĠĠ":10966,"Reference":10967,"padding":10968,"Ġaqueous":10969,"Ġineffective":10970,"ãģĦãģ":10971,"ĠPUBLIC":10972,"+--+--+--+--+--+--+--+--+--":10973,"namespace":10974,"Ġtoken":10975,"Ġcontrolling":10976,"impl":10977,"Ġinfinity":10978,"Ġloading":10979,"Ġhonor":10980,"government":10981,"angasek":10982,"Ġpartition":10983,"Ġexpenses":10984,"Ġoperated":10985,"Ġtopological":10986,"ĠUnivers":10987,"ĠRoosevelt":10988,"Option":10989,"Ġcodes":10990,"ĠAction":10991,"istence":10992,"ervices":10993,"conv":10994,"profile":10995,"Ġconvicted":10996,"ĠDescription":10997,"Ġfeeding":10998,"Ġprocedural":10999,"ĠWalker":11000,"Ġencompass":11001,"dehyde":11002,"fill":11003,"hom":11004,"åŃ":11005,"ĠĠĠĠĠĠĠĠĠĠĠĠĠĠĠĠĠĠĠĠĠĠĠĠĠĠĠĠĠĠĠĠĠ":11006,"Ġ&&&&":11007,"Port":11008,"æĸ":11009,"Ġsa":11010,"Ġ113":11011,"Ġmedi":11012,"Ġlosses":11013,"Ġscholars":11014,"Meanwhile":11015,"WIDTH":11016,"sys":11017,"onom":11018,"Ġshoulder":11019,"insert":11020,"ILL":11021,"oop":11022,"Ãº":11023,"Ġmamm":11024,"Ġgeneric":11025,"Ġpersonally":11026,"legate":11027,"ĠRepresent":11028,"ĠKingdom":11029,"MM":11030,"SQL":11031,"acity":11032,"Ġchip":11033,"ĠGar":11034,"Ġgenerating":11035,"ĠWITHOUT":11036,"Ġmonoclonal":11037,"hep":11038,"enger":11039,"images":11040,"ailing":11041,"Ġcoinc":11042,"oxide":11043,"Ġglut":11044,"Sorry":11045,"Ġelucid":11046,"pad":11047,"eties":11048,"ĠDam":11049,"Ġadds":11050,"ergic":11051,"Ġurban":11052,"Expand":11053,"Ġpulse":11054,"Ġconverted":11055,"Ñı":11056,"ĠSW":11057,"Ġreaders":11058,"Ġgentle":11059,"_[":11060,"orph":11061,"Ġdat":11062,"oline":11063,"Ġaden":11064,"ĠCentre":11065,"Description":11066,"Valid":11067,"Ġencourage":11068,"sip":11069,"Ã¢":11070,"Ġcleaning":11071,"Ġignore":11072,"ĠError":11073,"Password":11074,"Ġbenign":11075,"~\\":11076,"Ġped":11077,"Ġgod":11078,"ĠPolicy":11079,"Ġworker":11080,"Ġrepresentations":11081,"Order":11082,"ĠEnterprise":11083,"<!--":11084,"ĠWil":11085,"ĠJava":11086,"leton":11087,"Ġcurrency":11088,"iii":11089,"Ġcomprises":11090,"Ġutility":11091,"Ġproducers":11092,"allenge":11093,"Ġdiamond":11094,"Ġbiopsies":11095,"biomolecules":11096,"ĠMilwaukee":11097,"Ġstrings":11098,"ĠTer":11099,"Ġuniverse":11100,"Ġpredictive":11101,"Ġadvertising":11102,"Ġaboard":11103,"Ġhopefully":11104,"nes":11105,"Ġbeer":11106,"sex":11107,"}}}\\":11108,"116":11109,"ĠAndroid":11110,"through":11111,"ĠChapter":11112,"Store":11113,"Ġreasonably":11114,"Ġconsisting":11115,"ĠMrs":11116,"Ġirradiation":11117,"ISCUSSION":11118,"RA":11119,"Types":11120,"-----":11121,"ĠFramework":11122,"Ġautoimmune":11123,"Ðº":11124,"}}}$":11125,"ĠFrancisco":11126,"ĠCriminal":11127,"ĠiPhone":11128,"Ġextraordinary":11129,"Copy":11130,"Ġatoms":11131,"Ġgovernments":11132,"Ġentering":11133,"ĠAssoci":11134,"his":11135,"uler":11136,"ĠPop":11137,"ĠCho":11138,"Ġjunior":11139,"Ġfeaturing":11140,"Ġhypoxia":11141,"PN":11142,"lan":11143,"Ġalign":11144,"ĠDom":11145,"Ġintern":11146,"ocks":11147,"white":11148,"Ġanalyze":11149,"]\"":11150,"ĠRyan":11151,"Ġconsiderable":11152,"Ġprotest":11153,"Ġbusy":11154,"Ġownership":11155,"Ġswimming":11156,"Ġboot":11157,"ington":11158,"Ġtrick":11159,"ĠJack":11160,"November":11161,"Ġultrasound":11162,"ĠStandard":11163,"Ġbeneficial":11164,"Ġsky":11165,"Address":11166,"late":11167,"van":11168,"Ġvo":11169,"Ġtrav":11170,"Ġ1970":11171,"erty":11172,"ologist":11173,"Ġeverywhere":11174,"Ġcomputing":11175,"Ġchemotherapy":11176,"Ġclosing":11177,"Ġbowel":11178,"{}^*\\":11179,"approved":11180,"ĠChakotay":11181,"Ġsand":11182,"Ġmarks":11183,"Ġqualified":11184,"Rad":11185,"Ã±":11186,"Ġethyl":11187,"esc":11188,"Ġrural":11189,"Ġfoundation":11190,"piece":11191,"Ġprolonged":11192,"ĠGordon":11193,"Ġride":11194,"Ġovercome":11195,"cience":11196,"ĊĠĠĠĠĊĠĠĠ":11197,"Ġbroadcast":11198,"AK":11199,"ĠPK":11200,"ĠSudan":11201,"ĠRAssian":11202,"Ġsurveys":11203,"Ġextensively":11204,"ito":11205,"entity":11206,"ĠCook":11207,"Ġcompens":11208,"Ġrush":11209,"Ġ1988":11210,"Ġsubmit":11211,"ĠComput":11212,"enna":11213,"Ġcontacts":11214,"ADVERTISEMENT":11215,"450":11216,"GD":11217,"nl":11218,"è¯":11219,"idal":11220,"Ġtract":11221,"Ġesc":11222,"driven":11223,"ĠNCAA":11224,"Ġsubmarine":11225,"ĠWittgenstein":11226,"hard":11227,"Ġsending":11228,"ati":11229,"Ġwaves":11230,"Ġboat":11231,"ĠValley":11232,"Ġcaptured":11233,"pred":11234,"ĠSher":11235,"ĠMC":11236,"ĠTotal":11237,"ĠStan":11238,"Ġassignment":11239,"Ġ104":11240,"Ġdiscussions":11241,"ĠApplication":11242,"Ġconstitute":11243,"Ġsovere":11244,"International":11245,"Ġcoordination":11246,"geqslant":11247,"Mo":11248,"super":11249,"Ġbroke":11250,"Expression":11251,"ĠMid":11252,"Ġrice":11253,"Ġteen":11254,"Ġreflection":11255,"Ġjudicial":11256,"Ġregularly":11257,"Ġunsigned":11258,"Ġdisappoint":11259,"Ġthroat":11260,"Ġmethamphetamine":11261,"Ġmas":11262,"imm":11263,"Ġstorm":11264,"Ġevil":11265,"VE":11266,"Ġ).":11267,"Ġcable":11268,"Ġlists":11269,"ĠDown":11270,"}}^{\\":11271,"Ġprocessed":11272,"parse":11273,"Ġlateral":11274,"Ġresidues":11275,"Ġtomatoes":11276,"Ġhemorrhage":11277,"dict":11278,"Ġtips":11279,"Ġgut":11280,"ĠWin":11281,"Ġimplications":11282,"Num":11283,"Ġfuck":11284,"imately":11285,"Ġvice":11286,"Ġentries":11287,"Ġexplains":11288,"Ġexcit":11289,"ELL":11290,"Ġdrinking":11291,"ĠSteve":11292,"Ġcenturies":11293,"Ġecosystem":11294,"Ġasthma":11295,"making":11296,"Ġhur":11297,"ĠFar":11298,"ĠChris":11299,"Product":11300,"ĠExt":11301,"Ġlarvae":11302,"ĠLagrangian":11303,"game":11304,"pret":11305,"Ġreaching":11306,"Ġtongue":11307,"Ġscandal":11308,";\">":11309,"leep":11310,"eling":11311,"ĠConference":11312,"Ġprecision":11313,"Ġawarded":11314,"+^":11315,"hash":11316,"ĠRoger":11317,"Ġdefeated":11318,"Attributes":11319,"ĠCharlotte":11320,"site":11321,"Ġtiny":11322,"Ġbon":11323,"ĠLtd":11324,"Ġtargeting":11325,"Ġpreserve":11326,"Ġdoctrine":11327,"dem":11328,"gmail":11329,"ucl":11330,"009":11331,"endor":11332,"Thus":11333,"Ġviewed":11334,"Ġsequencing":11335,"Private":11336,"Ġborders":11337,"'],":11338,"hex":11339,"Ġconsistently":11340,"Ġhabit":11341,"otyp":11342,"cher":11343,"Ġexclusive":11344,"Ġarmed":11345,"Ġpasses":11346,"Ġkeeps":11347,"Ġsuddenly":11348,"âī¥":11349,"ĠHunter":11350,"Ġenlarg":11351,"Ġtablespoon":11352,"ĠUI":11353,"103":11354,"104":11355,"icker":11356,"Ġpepper":11357,"Ġrising":11358,"Ġassays":11359,"Ġcultures":11360,"ĠOTHER":11361,"fect":11362,"acet":11363,"Ġvariants":11364,"background":11365,"ĠContin":11366,"reference":11367,"MB":11368,"Ġfaces":11369,"Ġfolder":11370,"Ġlemon":11371,"Ġhero":11372,"eek":11373,"ĠWhether":11374,"Ġphysician":11375,"Ġunlawful":11376,"Ġattitudes":11377,"Sign":11378,"Ġaer":11379,"oug":11380,"ĠHal":11381,"apply":11382,"Ġ117":11383,"ĠTra":11384,"Ġcompeting":11385,"oriented":11386,"Ġbargaining":11387,"Ġintegers":11388,"Ġintelligent":11389,"ĠKennedy":11390,"Ġsimplicity":11391,"pay":11392,"Ġtensor":11393,"arp":11394,"Ġabortion":11395,"ĠUnit":11396,"backs":11397,"Ġexpressions":11398,"Ġartery":11399,"ĠNBA":11400,"Ġtrading":11401,"ĠSouthern":11402,"Ġmolecule":11403,"ĠMilitary":11404,"Ġroyal":11405,"Ġdendritic":11406,"WR":11407,"olver":11408,"Ġships":11409,"commun":11410,"redit":11411,"Ġsatisfies":11412,"underline":11413,"Ġcord":11414,"urities":11415,"ruit":11416,"STAT":11417,"handle":11418,"ĠApache":11419,"VC":11420,"{$":11421,"idx":11422,"ĠMap":11423,"riz":11424,"Ġsimilarly":11425,"Ġviolent":11426,"Ġdemands":11427,"Ġallegedly":11428,"ĠÐ¿":11429,"Ġdismissed":11430,"Ġaccumulation":11431,"ĠPuerto":11432,"Ġelev":11433,"keys":11434,"ĠGi":11435,"aste":11436,"Ġreturning":11437,"who":11438,"Ġmovements":11439,"Ġmutant":11440,"ï¿½":11441,"Ġseverely":11442,"Ġplasmid":11443,"Ġnevertheless":11444,"ĠNietzsche":11445,"cam":11446,"Ġà¤":11447,"ĠSupport":11448,"ĠAut":11449,"Ġinterior":11450,"Ġalgorithms":11451,"Ġcompetitive":11452,"ĠValue":11453,"\"\"":11454,"Ġnotion":11455,"106":11456,"Ġmedication":11457,"textbf":11458,"Ġnucleus":11459,"Ġvotes":11460,"Ġkidney":11461,"ĠIMPLIED":11462,"IX":11463,"à¥":11464,"Ġfilling":11465,"Ġdip":11466,"Ġclause":11467,"FOR":11468,"IAL":11469,"try":11470,"ws":11471,"Ġlin":11472,"Ġproduces":11473,"argo":11474,"Ġliterally":11475,"Ġappropriately":11476,"ĠHarvard":11477,"âľĵâľĵâľĵâľĵâľĵ":11478,"Ġdates":11479,"ĠLow":11480,"Ġ1989":11481,"ĠAndrew":11482,"API":11483,"Ġcrystall":11484,"Ġhypothetical":11485,"Okay":11486,"Ġsatur":11487,"Ġmonthly":11488,"Ġcombine":11489,"ĠMinistry":11490,"Ġgradient":11491,"Parser":11492,"Ġpeptides":11493,"Ġoriented":11494,"ĠOMX":11495,"Ġphylogen":11496,"npm":11497,"Ġmere":11498,"ĠTake":11499,"Ġarc":11500,"ĠTrue":11501,"Ġhoping":11502,"Ġlayout":11503,"Ġgang":11504,"cho":11505,"Ġcomplexes":11506,"Ġpoliticians":11507,"Ġsoldiers":11508,"Ġvillage":11509,"July":11510,"frequency":11511,"kernel":11512,"ĠVegas":11513,"Ġreceipt":11514,"patch":11515,"Ġheating":11516,"()->":11517,"Ġmultip":11518,"Level":11519,"drop":11520,"Ġfasc":11521,"Ġfusion":11522,"Ġdress":11523,"adium":11524,"Ġspons":11525,"Ġsystematic":11526,"ĠAnderson":11527,"fields":11528,"Ġgalaxy":11529,"Ġhockey":11530,"??":11531,"ifting":11532,"Ġrough":11533,"Ġorth":11534,"Ġunconstitutional":11535,"Ġarise":11536,"ocker":11537,"))/":11538,"IGHT":11539,"plete":11540,"rooms":11541,"Entry":11542,"Ġcytoplasm":11543,"ĠPhilippines":11544,"Doc":11545,"Ġhorizontal":11546,"ĊĠĠĠĠĠĠĠĠĠĠĠĠĠĠĠĠĠĠĠĠĠĠĠĠĠĠĠĠĠĠĠĠĠĠĠĠĠĠĠĠĠĠĠĠĠĠĠĠĠĠĠĠĠĠĠĠĠĠĠĠĠĠĠĠĠĠĠĠĠĠĠĠĠĠĠ":11547,"Ġeverybody":11548,"watch":11549,"Ġwet":11550,"ĠGard":11551,"oves":11552,"Ġcylinder":11553,"Ġpertinent":11554,"ĠCreate":11555,"Ġenables":11556,"Ġvalidation":11557,"Ġerred":11558,"Ġwireless":11559,"iol":11560,"ĠĠĠĠĠĠĠĠĠĠĠĠĠĠĠĠĠĠĠĠĠĠĠĠĠĠĠĠ":11561,"ĠVari":11562,"Ġstruggle":11563,"Ġlaptop":11564,"olymer":11565,"Ġpassengers":11566,"Dialog":11567,"Json":11568,"Vari":11569,"Ġcoding":11570,"forms":11571,"Ġcolour":11572,"ymers":11573,"Ġpaths":11574,"Ġlegislative":11575,"Ġflavor":11576,"Ġtyrosine":11577,"Ð¼":11578,"itar":11579,"lean":11580,"Ġ<=":11581,"Ġsnow":11582,"Ġresidual":11583,"Ġvaccine":11584,"Ġdysfunction":11585,"DEFAULT":11586,"kn":11587,"rell":11588,"ĠPE":11589,"Ġrelating":11590,"Ġviolated":11591,"Ġaddresses":11592,"Ġultimate":11593,"Ġdelayed":11594,"Ġratios":11595,"Ġeggs":11596,"NT":11597,"press":11598,"berries":11599,"Ġacceptable":11600,"ĠAbout":11601,"Ġera":11602,"President":11603,"Ġchampion":11604,"TRIBUT":11605,"Ġinstrumental":11606,"201803868":11607,"'\\":11608,"ĠMain":11609,"Ġtopics":11610,"Ġsensors":11611,"Ġinterpreted":11612,"Ġconstantly":11613,"handler":11614,"\"))":11615,"LT":11616,"OO":11617,"pool":11618,"Ġterr":11619,"Ġ135":11620,"Ġspan":11621,"Exec":11622,"==========================================================================================":11623,"Ġstreets":11624,"ĠMuseum":11625,"Perhaps":11626,"tar":11627,"Ġë":11628,"Ġinverse":11629,"Ġ(@":11630,"Ġ1984":11631,"Ġoffensive":11632,"}({\\":11633,"Ġcategor":11634,"Ġidentifying":11635,"ĠFaculty":11636,"DH":11637,"igate":11638,"Ġeffectiveness":11639,"Ġcorporation":11640,"ĠVladimir":11641,"Ġwake":11642,"ĠThank":11643,"Ġaltered":11644,"ĠPres":11645,"Ġjoy":11646,"Ġcloud":11647,"Ġworldwide":11648,"Ġaffects":11649,"Ġintegrity":11650,"Ġparas":11651,"Ġfalling":11652,"iliary":11653,"Dir":11654,"Ġeff":11655,"Ġstuck":11656,"ĠPoint":11657,"formance":11658,"ĠYear":11659,"ĠPatent":11660,"Ġneurological":11661,"ĠLIMITED":11662,"Ġunfortunate":11663,"Match":11664,"Ro":11665,"reh":11666,"Ġreb":11667,"Ġstudying":11668,"Ġequality":11669,"being":11670,"Ċĉĉĉĉĉĉ":11671,"Ġbounds":11672,"ulin":11673,"Ġinterference":11674,"Ġsomebody":11675,"ova":11676,"Google":11677,"Sur":11678,"\\>":11679,"channel":11680,"uming":11681,"ĠBC":11682,"ructure":11683,"Ġframes":11684,"Ġracial":11685,"Ġrhetoric":11686,"bibr":11687,"ĠAh":11688,"Ġ140":11689,"ĠKelly":11690,"Ġdecent":11691,"ÂĹ":11692,"atically":11693,"Ġbic":11694,"pton":11695,"ĠIslamic":11696,"tree":11697,"ĠDar":11698,"Ġ108":11699,"Ġslight":11700,"Ġclosest":11701,"Ġcampus":11702,"Ġtrends":11703,"Ġtouched":11704,"ĠTrilby":11705,"iprofloxacin":11706,"Ġlease":11707,"Ġbless":11708,"Ġfluorescence":11709,"Ġtape":11710,"Ġturb":11711,"ĠDirect":11712,"ĠLead":11713,"Ġpixel":11714,"lipse":11715,"Ġmoisture":11716,"gan":11717,"hot":11718,"Ġpas":11719,"address":11720,"Ġsmile":11721,"Ġdrag":11722,"Enc":11723,"Ġarrangement":11724,"bold":11725,"ĠPur":11726,"=\"../":11727,"spect":11728,"pmatrix":11729,"Ġaccessible":11730,"ĠĠĠĠĠĠĠĠĠĠĠĠĠĠĠĠĠĠĠĠĠĠĠĠĠĠĠĠĠĠĠĠĠĠĠĠĠĠĠĠĠĠĠĠĠĠĠĠĠĠĠĠĠĠĠĠĠĠĠĠĠĠĠĠĠĠĠĠĠĠĠĠĠĠĠĠĠĠĠĠĠĠĠĠĠĠĠĠĠĠĠĠĠĠĠĠĠĠĠĠĠĠĠĠĠĠĠĠĠĠĠĠĠĠĠĠĠĠĠĠĠĠĠĠĠĠĠĠĠĠĠĠĠĠĠĠĠĠĠĠĠĠĠĠĠĠĠĠĠĠĠĠĠĠĠĠĠĠĠĠĠĠĠĠĠĠĠĠĠĠĠĠĠĠĠĠĠĠĠĠĠĠĠĠĠĠĠĠĠĠĠĠĠĠĠĠĠĠĠĠĠĠĠĠĠĠĠĠĠĠĠĠĠĠĠĠĠĠĠĠĠĠĠĠĠĠĠĠĠĠĠĠĠĠĠĠĠĠĠĠ":11731,"journal":11732,"Ġfatigue":11733,"ACKGROUND":11734,"uis":11735,"ĠMah":11736,"Ġimmunity":11737,"Ġabsent":11738,"missible":11739,"Ġimproper":11740,"Ġmounted":11741,"Ġcomprising":11742,"Ġparking":11743,"Ġstrictly":11744,"Ġvegetables":11745,"Come":11746,"Del":11747,"vm":11748,"Ġglo":11749,"Ġinfl":11750,"SET":11751,"Instead":11752,"Ġsciences":11753,"Ġlawmakers":11754,"Ġresponsibilities":11755,"ĠIntelligence":11756,"Ġassemblies":11757,"wall":11758,"ĠCP":11759,"Ġrape":11760,"ĠHon":11761,"Ġ106":11762,"Ġmodules":11763,"Ġlabels":11764,"------------------------------------------------------------------------":11765,"Mesh":11766,"ĠElement":11767,"ĠIndex":11768,"Ġconcrete":11769,"ĠBruce":11770,"ĠLGBT":11771,"Ġinfrared":11772,"ea":11773,"ĠCost":11774,"Ġ-------":11775,"ĠDM":11776,"ĠTurn":11777,"Ġsurge":11778,"Ġextrem":11779,"256":11780,"Ġsuspected":11781,"Ġauthorized":11782,"ĠSeries":11783,"Ġengineering":11784,"Ġeosinoph":11785,"fin":11786,"git":11787,"environment":11788,"analysis":11789,"Ġnotation":11790,"Ġleaf":11791,"derived":11792,"ishes":11793,"117":11794,"Ġprofessor":11795,"Ġdisregard":11796,"Ġmicrobial":11797,"aser":11798,"agger":11799,"ĠBa":11800,"Ġprogramming":11801,"Ġprotective":11802,"Ġmeetings":11803,"ĠCarl":11804,"Ġdebug":11805,"Mc":11806,"javascript":11807,"ĠSa":11808,"ĠDid":11809,"ĠNF":11810,"Ġdiscrete":11811,"Ġangi":11812,"Ġenzymes":11813,"Ġdestruction":11814,"Ġischemic":11815,"ĠNASA":11816,"ĠBuffalo":11817,"Ġelectrophoresis":11818,"1008476":11819,"Ġvarying":11820,"Look":11821,"Ġbands":11822,"acon":11823,"Ġranging":11824,"Ġenjoyed":11825,"Ġinevitable":11826,"ĠBuddh":11827,"Ġ[âĢ¦]":11828,"Ġenriched":11829,"ertificate":11830,"Ġcondemn":11831,"Cs":11832,"CODE":11833,"Http":11834,"RP":11835,"anth":11836,"Ġfung":11837,"Ġvital":11838,"ĠFL":11839,"Ġperf":11840,"uality":11841,"Ġ125":11842,"Ġindication":11843,"Ġautomatic":11844,"Ġodds":11845,"bp":11846,"rect":11847,"Ġchr":11848,"black":11849,"bullet":11850,"Prefix":11851,"UPDATE":11852,"OF":11853,"Ġmesh":11854,"ĠAge":11855,"ĠRequ":11856,"ĠProb":11857,"Ġnations":11858,"ĠThough":11859,"Ġjail":11860,"comment":11861,"Ġdestroyed":11862,"ĠÐ²":11863,"Params":11864,"Ġreversed":11865,"Ġfacilitate":11866,"ĠReference":11867,"NET":11868,"language":11869,"orse":11870,"ĠGre":11871,"Ġfrequencies":11872,"Ġcoordinate":11873,"Ġoxide":11874,"Reader":11875,"xt":11876,"ĠĊĠĠĠĠĠĠĠ":11877,"oned":11878,"Ġlunch":11879,"osomal":11880,"Ġproceeding":11881,"Ġappreciate":11882,"Ġflesh":11883,"Ġglobally":11884,"adjusted":11885,"Ġspherical":11886,"Ġechocardi":11887,",$":11888,"Ste":11889,"email":11890,"ĠChampionship":11891,"Ġdifficulties":11892,"Ġlimitation":11893,"Ġmaximal":11894,"Ġdrawing":11895,"Ġgorgeous":11896,"aryngeal":11897,"ĠOrthodox":11898,"cond":11899,"irus":11900,"ĠConsequently":11901,"Engine":11902,"Ġluxury":11903,"Title":11904,"gp":11905,"iy":11906,"install":11907,"iano":11908,"Ġinvestigations":11909,"Ġdamaged":11910,"BT":11911,"Main":11912,"[$":11913,"\\}$":11914,"inct":11915,"sts":11916,"irth":11917,"ĠMiss":11918,"ĠPass":11919,"Ġending":11920,"Ġreflected":11921,"Ġfunny":11922,"Ġangular":11923,"represent":11924,"ĠChairman":11925,"Ġformulas":11926,"ĠANOVA":11927,"Ġsacrifice":11928,"dp":11929,"uated":11930,"adder":11931,"ĠMir":11932,"Ġrub":11933,"ogens":11934,"Ġteeth":11935,"Ġearned":11936,"energy":11937,"Ġsupers":11938,"ĠPlaintiffs":11939,"April":11940,"Ġdosage":11941,"Ġadministrator":11942,"Ġerroneous":11943,"119":11944,"HD":11945,"SER":11946,"gov":11947,"Ġbunch":11948,"Ġda":11949,"Ġ$\\{":11950,"amente":11951,".).":11952,"PRE":11953,"dest":11954,"each":11955,"Ġ(%)":11956,"ĠExper":11957,"ĠDoctor":11958,"THE":11959,"ĠfibM":11960,"Ġappointed":11961,"ï»¿":11962,"Ġrose":11963,"ennis":11964,"cmd":11965,"diff":11966,"ĠLar":11967,"Ġspecify":11968,"Ġnormalized":11969,"Ġchecking":11970,"docs":11971,"ĠHepat":11972,"Ġassembled":11973,"smallcaps":11974,"Ġteaspoons":11975,"ĠAbbVie":11976,".),":11977,"cache":11978,"iest":11979,"pgen":11980,"Ġbid":11981,"Ġsees":11982,"Ġages":11983,"]{}]{}":11984,"criptor":11985,"Ġretain":11986,"Ġsubjected":11987,"SK":11988,"Ġip":11989,"Ġ118":11990,"ĠFA":11991,"illary":11992,"Ġdecor":11993,"Ġcovers":11994,"Ġestimation":11995,"Ġpromising":11996,"Ġobjection":11997,"Ġsampled":11998,"Ġprosper":11999,"ĠJenkins":12000,"Ġharassment":12001,"Auth":12002,"Has":12003,"dated":12004,"ĠCF":12005,"oving":12006,"Ġcycles":12007,"Impl":12008,"ĠHampshire":12009,"lers":12010,"}%":12011,"ĶâĢ":12012,"Ġdegener":12013,"ĠNode":12014,"trl":12015,"token":12016,"Ġshopping":12017,"Ġhesit":12018,"*(-":12019,"lower":12020,"|^":12021,"iser":12022,"Ġstone":12023,"ĠWild":12024,"Ġscales":12025,"Ġ103":12026,"Ġ109":12027,"Ġattitude":12028,"Ġbreach":12029,"ViewController":12030,"Ġdesigns":12031,">.":12032,"^)":12033,"roy":12034,"ĠFC":12035,"Ġprofessionals":12036,"ĠAgency":12037,"************************************************************************":12038,"Ġcryptocur":12039,"Ġquestionnaires":12040,"ĠMelbourne":12041,"Ġdiaphragm":12042,"istance":12043,"ĠDem":12044,"Ġpsychological":12045,"ogenous":12046,"Ġaudio":12047,"Miss":12048,"uration":12049,"ologists":12050,"Ġphenotype":12051,"Ġcake":12052,"Ġ{@":12053,"Ġovernight":12054,"Ġrepeatedly":12055,"Ġtolerance":12056,"Ġna":12057,"Ġ132":12058,"ĠOct":12059,"1997":12060,"genic":12061,"delete":12062,"Ġcreative":12063,"Ġugly":12064,"Ġcommerce":12065,"Ġdozens":12066,"Ġprevalent":12067,"Ġretrieve":12068,"ĠMedicaid":12069,"ulator":12070,"fileID":12071,"Ġlesion":12072,"Ġeliminate":12073,"Ġconjug":12074,"ĠSon":12075,"Ġdefensive":12076,"United":12077,"Ġvoted":12078,"trivial":12079,"Ġsiblings":12080,"ãĤŃãĥ£ãĥ©ãĤ¯ãĤ¿ãĥ¼ãĥĩãĤ¶ãĤ¤ãĥ³":12081,"methyl":12082,"Ġalignment":12083,"ĠGR":12084,"Ġscoring":12085,"Ġ1985":12086,"Ġpreventing":12087,"Ġvoting":12088,"ĠSn":12089,"gex":12090,"Ġexplos":12091,"ĠMitchell":12092,"Ġseventh":12093,"Ġoverseas":12094,"Ġreflux":12095,"!)":12096,"TG":12097,"Ġconvey":12098,"ĠLove":12099,"cli":12100,"ĠWeek":12101,"ugg":12102,"ĠStudy":12103,"ĠManhattan":12104,"USE":12105,"ht":12106,"Ġbull":12107,"Ġmom":12108,"usc":12109,"Ġru":12110,"ante":12111,"encia":12112,"ĠÂ°":12113,"aptic":12114,"Iterator":12115,"Ġellip":12116,"Ġpylori":12117,"Ġcompassion":12118,"ensitivity":12119,"ãģ£ãģ":12120,"!\\":12121,"JS":12122,"Ġtone":12123,"elt":12124,"ĠRa":12125,"Ġharvest":12126,"\"));":12127,"Ġfalls":12128,"tikz":12129,"Ġvapor":12130,"ĠAlternatively":12131,"ĠBeijing":12132,"atopoietic":12133,"ĠMediterranean":12134,"Ġtun":12135,"olly":12136,"ĠCC":12137,"antly":12138,"Ġscaling":12139,"Ġdenotes":12140,"Ġrooms":12141,"inch":12142,"Ġtender":12143,"Ġinjected":12144,"Ġforever":12145,"Ġexhibited":12146,"ĠSingh":12147,"NE":12148,"session":12149,"onomic":12150,"ami":12151,"Ġdeals":12152,"ĠLuc":12153,"Ġphases":12154,"Ġqueue":12155,"Ġphysically":12156,"Ġaims":12157,"ĠNorwegian":12158,"Make":12159,"border":12160,"zi":12161,"Ġlys":12162,"144":12163,"notation":12164,"Ġrandomly":12165,"CHAR":12166,"ĠSurgery":12167,"Ġtact":12168,"Ġboss":12169,"Ġshorter":12170,"Ġgenerator":12171,"component":12172,"Ġlaid":12173,"Ġutilized":12174,"Have":12175,"Ġcraft":12176,"Ġpython":12177,"Ġgiant":12178,"ĠFair":12179,"ĠDR":12180,"Ġimper":12181,"away":12182,"Ġstrange":12183,"Grid":12184,"primary":12185,"Ġstakeholders":12186,"VM":12187,"~)":12188,"Ġli":12189,"documentclass":12190,"Ġlean":12191,"Ġadmit":12192,"Ġ''":12193,"118":12194,"Ġrabbit":12195,"Ġdebris":12196,"Ġmystery":12197,"ĠOrleans":12198,"Position":12199,"supp":12200,"}}$,":12201,"imon":12202,"ĠFBI":12203,"Ġputs":12204,"Ġpropose":12205,"Ġinevitably":12206,"Support":12207,"opes":12208,"ĠMun":12209,"aping":12210,"Ġroots":12211,"echo":12212,"Module":12213,"Ġbatteries":12214,"210":12215,"pb":12216,"uid":12217,"yard":12218,"Â½":12219,"acker":12220,"Ġfriendly":12221,"Ġsentencing":12222,"ãĤ¢ãĥĭãĥ¡":12223,"VP":12224,"olving":12225,"Ġfavorable":12226,"Editor":12227,"Ġtalent":12228,"Ġligand":12229,"Ġfraudulent":12230,"ĠKaepernick":12231,"Aut":12232,"iffer":12233,"126":12234,"Ġincorrect":12235,"ĠExample":12236,"Ġskill":12237,"Ġinserted":12238,"Dig":12239,"las":12240,"0018":12241,"Ġcontin":12242,"Ġ[$":12243,"Ġdisabled":12244,"Ġfocusing":12245,"Background":12246,"Ġreimburs":12247,"ĠFestival":12248,"Write":12249,"inates":12250,"arma":12251,"Ġjs":12252,"115":12253,"050":12254,"WD":12255,"deg":12256,"send":12257,"sample":12258,"olk":12259,"ĠBal":12260,"ĠRA":12261,"ĠJSON":12262,"figure":12263,"ĠIntroduction":12264,"Ġlabeled":12265,"Activity":12266,"Ġtonight":12267,"plugins":12268,"Ġhorrible":12269,"Ant":12270,"oups":12271,"Ġhide":12272,"ĠRather":12273,"aki":12274,"Ġkg":12275,"Ġtea":12276,"Hello":12277,"eh":12278,"ĠSA":12279,"ĠCOL":12280,"Ġmodeling":12281,"(){":12282,"Ġsubsid":12283,"Ġkilomet":12284,"Ġinfarction":12285,"Ġdisappeared":12286,"ĠTurkish":12287,"Ġquasipart":12288,"ĠâĻª\"":12289,"Ġobstacles":12290,"Ġmat":12291,"ĠProp":12292,"closure":12293,"Ġgrass":12294,"Ġattributed":12295,"Ġoccurring":12296,"patient":12297,"=\"../../../../":12298,"Created":12299,"\\;":12300,"Ġconstr":12301,"ĠHard":12302,"ĠRub":12303,"Three":12304,"Ġsilver":12305,"Western":12306,"Ġbeneath":12307,"2040620719882822":12308,"ĊĊĠĠĠĠĠĠĠĠĠĠĠĠĠĠĠĠĠĠĠĠĠĠĠĠĠĠĠĠĠĠ":12309,"Ġsystemic":12310,"Ġobtaining":12311,"okes":12312,"255":12313,"cipl":12314,"Ġaffecting":12315,"aska":12316,"Show":12317,"Ġinspired":12318,"Ġtemporal":12319,"ĠBrooklyn":12320,"-*":12321,"Ãª":12322,"atile":12323,"Ġfits":12324,"Ġclamp":12325,"Ġyeah":12326,"Ġtexture":12327,"Ġobstruction":12328,"orandum":12329,"Ġnodded":12330,"pragma":12331,"137":12332,"Ġdescribing":12333,"Ġlights":12334,"apsed":12335,"čĊĠĠĠĠĠĠĠĠĠĠĠĠĠĠĠ":12336,"Ġstations":12337,"Ġprojection":12338,"Ġprocessor":12339,"Ġdeeply":12340,"Ġholidays":12341,"ascii":12342,"ĠSwedish":12343,"ĠZimbabwe":12344,"Ġperspectives":12345,"custom":12346,"uber":12347,"Ġpa":12348,"Ġ01":12349,"ĠProcess":12350,"Ġaccurately":12351,"Ġrarely":12352,"ĠMatt":12353,"1996":12354,"Ġabstract":12355,"Ġindices":12356,"shift":12357,"blue":12358,"}^*":12359,"Ġdefinitions":12360,"Edit":12361,"Ġthyroid":12362,"Names":12363,"Ġ('":12364,"ĠTa":12365,"Ġfactory":12366,"Ġexecute":12367,"gin":12368,"pur":12369,"ĠRound":12370,"Ġattended":12371,"oking":12372,"Ġantigen":12373,"ĠUnfortunately":12374,"Ġtransitions":12375,"ĠProgramm":12376,"uce":12377,"abstract":12378,"Ġ\\+":12379,"Ġdisput":12380,"Stack":12381,"Ġdonor":12382,"Ġparse":12383,"Ġhardly":12384,"Tree":12385,"bind":12386,"idity":12387,"anti":12388,"ĠKen":12389,"Ġ::":12390,"attribute":12391,"Ġsmoke":12392,"Ġpotatoes":12393,"á»":12394,"orable":12395,"Ġgained":12396,"ĠSym":12397,"Ġbyte":12398,"Ġleuk":12399,"Ġappend":12400,"Ġvariant":12401,"Ġinsight":12402,"Ġsalary":12403,"UNT":12404,"GP":12405,"UV":12406,"bn":12407,"days":12408,"orous":12409,"Ġhy":12410,"Ġpanels":12411,"rophy":12412,"ĠMurphy":12413,"replace":12414,"ĠThird":12415,"Ġmanual":12416,"ĠIsraeli":12417,"700":12418,"hour":12419,"Ġtall":12420,"Ġele":12421,"ĠSat":12422,"ĠServer":12423,"Ġrecovered":12424,"Ġshelter":12425,"Ġpenalties":12426,"ario":12427,"ĠRich":12428,"riving":12429,"Ġmanufacturer":12430,"Ġ![":12431,"ummy":12432,"Ġshots":12433,"ĠGL":12434,"because":12435,"ĠClearly":12436,"Ġlemma":12437,"ĠLorentz":12438,"Ġunacceptable":12439,"1744806918781259":12440,"~*":12441,"ĠAB":12442,"ĠDB":12443,"izable":12444,"Ġroof":12445,"rench":12446,"Expr":12447,"Ġexpectation":12448,"ĠTHIS":12449,"Ġignored":12450,"etter":12451,"illy":12452,"Ġ+\\":12453,"Ġdevelopers":12454,"grid":12455,"Ġreadily":12456,"ĠBrad":12457,"Ġsoccer":12458,"Ġdessert":12459,"ĠAIDS":12460,"ĠRowBox":12461,"Ġintimid":12462,",{\\":12463,"may":12464,"Ġbenz":12465,"Ġactor":12466,"Ġantagon":12467,"Ġmuscles":12468,"Ġprosecutor":12469,"Entity":12470,">();":12471,"Author":12472,"omial":12473,"ĠLim":12474,"Ġtracking":12475,"held":12476,"IFLA":12477,"ĠNATO":12478,"Ġincent":12479,"Ġhang":12480,"also":12481,"ĠÂ»":12482,"Ġcorrelations":12483,"Ġarranged":12484,"[[":12485,"ĠAsh":12486,"Ġrid":12487,"ocon":12488,"109":12489,"Ġamended":12490,"Ġblow":12491,"Ġsnap":12492,"Ġdeviations":12493,"ĠarXiv":12494,"Ġundesirable":12495,".*]{}":12496,"menu":12497,"Ġ,\\":12498,"amd":12499,"ĠTri":12500,"Ġelectrons":12501,"Express":12502,"rank":12503,"widget":12504,"ĠHay":12505,"eway":12506,"Ġtransportation":12507,"Ġlapar":12508,"Ġstimulated":12509,"Ġovarian":12510,"oglobin":12511,"Insert":12512,"NM":12513,"zy":12514,"Ġreject":12515,"Ġplates":12516,"Ġfibers":12517,"Access":12518,"Jo":12519,"mult":12520,"Ġtel":12521,"ĠTax":12522,"Ġunlike":12523,"ĠProduct":12524,"Ġartist":12525,"ĠPolit":12526,"Ġaugment":12527,"ĠTbsp":12528,"Ġpreparations":12529,"Ġquarters":12530,"binding":12531,"round":12532,"}'":12533,"čĊĠĠĠĠ":12534,"Ġble":12535,"Ġcancel":12536,"Ġanswered":12537,"Ġvisits":12538,"Ġfitness":12539,"WE":12540,"Ïģ":12541,"ĠME":12542,"Ġ\\#":12543,"ogram":12544,"Ġadopt":12545,"Ġslices":12546,"haus":12547,"Ġattractive":12548,"Ġvelocities":12549,"TrcFlag":12550,"Ġschizophren":12551,"âĢĭâĢĭâĢĭâĢĭâĢĭâĢĭâĢĭâĢĭâĢĭâĢĭâĢĭâĢĭ":12552,"045":12553,"Ġpm":12554,"ĠML":12555,"ĠHa":12556,"ensing":12557,"raham":12558,"Ġ128":12559,"Ġcombat":12560,"Ġsearching":12561,"Ġpeaks":12562,"bolic":12563,"Ġmock":12564,"ĠAz":12565,"ĠBell":12566,"_{-":12567,"appy":12568,"Ġcombinations":12569,"Ġchildhood":12570,"ĠDesign":12571,"Ġstromal":12572,"rencies":12573,"Ġcombustion":12574,"Ġanniversary":12575,"Ġdescriptions":12576,"Font":12577,"{$\\":12578,"Ġ134":12579,"ĠHistory":12580,"ĠLev":12581,"Ġdoors":12582,"CRE":12583,"Ġinstallation":12584,"Ġhopes":12585,"bottleneck":12586,"čĊĉĉĉĉ":12587,"Ġdehydr":12588,"ĊĠĠĠĠĠĠĠĠĠĠĠĠĠĠĠĠĠĠĠĠĠĠĠĠĠ":12589,"Ġsole":12590,"Ġphones":12591,"Ġmini":12592,"ĠGrant":12593,"ĠNorthern":12594,"Ġknife":12595,"Ġadapted":12596,"Ġprojections":12597,"Ġchaos":12598,"Ġchunks":12599,"Ġnod":12600,"acher":12601,"Ġnobody":12602,"ĊĊĊĊĊ":12603,"Ġdenying":12604,"Hi":12605,"worth":12606,"Ġnit":12607,"amil":12608,"Ġquot":12609,"Ġexciting":12610,"Ġillustrated":12611,"ĠGuard":12612,"Ġinequalities":12613,"Ġhorses":12614,"Ġamygd":12615,"Ġincurred":12616,")}*+":12617,"Ġredistribute":12618,"ĠAlzheimer":12619,"ĠGlasgow":12620,"fake":12621,"Ġsaving":12622,"omed":12623,"ĠFlo":12624,"Ġhadn":12625,"olding":12626,"ĠĠĠĠĠĠĠĠĠĠĠĠĠĠĠĠĠĠĠĠĠĠĠĠĠĠĠĠĠĠĠĠĠĠ":12627,"Ġtransparent":12628,"Ġconstants":12629,"Ġpublicly":12630,"Ġdeclined":12631,"cycl":12632,"ĠEnvironment":12633,"ä¸Ģ":12634,"Ġdestination":12635,"DER":12636,"Ġum":12637,"Ġwing":12638,"ĠMeg":12639,"Ġsizeof":12640,"Ġchoosing":12641,"Welcome":12642,"@\"":12643,"Ġsink":12644,"arse":12645,"iley":12646,"Ġ1983":12647,"Ġnonlinear":12648,"240":12649,"Users":12650,"Ġreflects":12651,"Ġinline":12652,"ĠThrough":12653,"Ġproph":12654,"ĠTNF":12655,"Ġtrig":12656,"Ġdipl":12657,"ĠReact":12658,"Ġcomputers":12659,"Ġblocked":12660,"Ġprogressive":12661,"licenses":12662,"Equals":12663,"Ġisolation":12664,"Ġprotesters":12665,"Ġsimultaneous":12666,"ĠPrimary":12667,"Ca":12668,"zed":12669,"ìĿ":12670,"Ġ$.":12671,"resource":12672,"ialize":12673,"Ġregulated":12674,"shell":12675,"Ã©e":12676,"Ġrendered":12677,"MAX":12678,"Values":12679,"Ġdescending":12680,"Ang":12681,"NG":12682,"ĠMen":12683,"ĠRelations":12684,"Ġsidew":12685,"lysis":12686,"ĠCraig":12687,"ĠCleveland":12688,"ĠNetflix":12689,"ĠCongressional":12690,"Advertisement":12691,"ĠMontgomery":12692,"ĠSacramento":12693,"FE":12694,"save":12695,"Ġ\"/":12696,"Ġshapes":12697,"ĠNA":12698,"Ġpermissions":12699,"ORY":12700,"Ġvisited":12701,"Ġsuspension":12702,"Ġsupplied":12703,"Ġrip":12704,"Ġbab":12705,"ĠPI":12706,"ĠGreek":12707,"Ġjunction":12708,"Ġvaried":12709,"ounce":12710,"Ġprinting":12711,"BEGIN":12712,"Ġpockets":12713,"Ġfermion":12714,"ĠUntil":12715,"ĠReuters":12716,"GM":12717,"uer":12718,"rent":12719,"isp":12720,"Ġhits":12721,"stage":12722,"Ġ07":12723,"angel":12724,"}}}(":12725,"Ġ107":12726,"ometer":12727,"Ġaggressive":12728,"Ġdietary":12729,"Ġsurvive":12730,"Ġblo":12731,"ĠSK":12732,"ĠBio":12733,"ĠGC":12734,"Ġkm":12735,"Ġkit":12736,"Ġdifferently":12737,"Ġprogramme":12738,"ĠWithout":12739,"ĠQuant":12740,"Ġswitching":12741,"circle":12742,"ĠHousing":12743,"Ġantioxidant":12744,"Ġroutinely":12745,"Ġbilirubin":12746,"ĠHausdorff":12747,"Î¸":12748,"ĠHave":12749,"ĊĉĠ":12750,"Ġbaseball":12751,"ĠSystems":12752,"Ġimmigration":12753,"Ġsupplies":12754,"/.":12755,"Task":12756,"arious":12757,"Ġdoses":12758,"Ġbonds":12759,"respond":12760,"Ġbeside":12761,"Ġcontaminated":12762,"Ġemerge":12763,"ĠPoisson":12764,"Ġdehydrogenase":12765,"SF":12766,"Ġhat":12767,"ĠDue":12768,"andy":12769,"ĠKat":12770,"114":12771,"ikes":12772,"Ġelectrodes":12773,"Ġmagic":12774,"Ġbird":12775,"rose":12776,"ĠMess":12777,"izers":12778,"phen":12779,"ĊĠĠĠĠĠĠĠĠĠĠĠĠĠĠĠĠĠĠĠĠ":12780,"âĪŀ":12781,"Ġdisplays":12782,"Ġfestival":12783,"aque":12784,"Ġoste":12785,"screen":12786,"ĠIndust":12787,"Ġcomplaints":12788,"ĠAdditional":12789,"ĠImages":12790,"Ġconcepts":12791,"VvCYP":12792,"cadherin":12793,"?)":12794,"ILE":12795,"Ġsatisfaction":12796,"Ġreasoning":12797,"ĠDefense":12798,"Ġinfluenced":12799,"ĠLearning":12800,"éĢ":12801,"Ġ136":12802,"Ġperception":12803,"1995":12804,"short":12805,"ĠPlace":12806,"Parameter":12807,"eno":12808,"Ġwedding":12809,"isen":12810,"ĠPrior":12811,"âĢĻ.":12812,"Stud":12813,"Ġconfident":12814,"Ġparticipated":12815,"Ġraising":12816,"Ġtoxicity":12817,"Sometimes":12818,"Ġdropping":12819,"ĠFreedom":12820,"Rule":12821,"Ġattempting":12822,"Ġquantities":12823,"Ġwondering":12824,"green":12825,"Ġundefined":12826,"ĠHead":12827,"Ġblocking":12828,"Ġpneum":12829,"Ġfertil":12830,"Ġbubble":12831,"Ġtokens":12832,"ĠHitler":12833,"Ġamplitudes":12834,"Ġvoluntarily":12835,"coll":12836,"wx":12837,"Ġlying":12838,"irk":12839,"Ġrs":12840,"antic":12841,"013":12842,"aware":12843,"medi":12844,"Ġpromoting":12845,"Ġmellitus":12846,"oxobutanoate":12847,"$).":12848,"Bytes":12849,"km":12850,"Ġsew":12851,"Ġbatt":12852,"ĠÂ¶":12853,"Ġrandomized":12854,"Ġweights":12855,"Ġinputs":12856,"Ġcotton":12857,"encephal":12858,"Ġcolleges":12859,"NdrFcShort":12860,")_{":12861,"DK":12862,"vy":12863,"ĠmL":12864,"Ġmath":12865,"Ġease":12866,"Ġanal":12867,"ĠGames":12868,"activity":12869,"Ġbrush":12870,"ĠProperty":12871,"season":12872,"ĠDocument":12873,"Ġshipping":12874,"Ġtransmitted":12875,"Ġtransactions":12876,"135":12877,"minimal":12878,"Ġcultured":12879,"Ġeryth":12880,"Ġolfactory":12881,"itoneal":12882,"Ġhungry":12883,"clinical":12884,"Ġexponent":12885,"Ġendeav":12886,"bc":12887,"four":12888,"Ġions":12889,"Ġinduces":12890,"oping":12891,"Ġ\\|":12892,"========":12893,"Ġbeliefs":12894,"}}$.":12895,"emale":12896,"ĠWat":12897,"012":12898,"Ġ1987":12899,"parison":12900,"Ġuniquely":12901,"rig":12902,"Ġregarded":12903,"Ġsilicon":12904,"Ġbizarre":12905,"ĠTherapy":12906,"Ġphosphorylated":12907,"utils":12908,"ĠMaster":12909,"ĠResource":12910,"Ġdeeper":12911,"Ġtreating":12912,"à¯į":12913,"Ġmelanoma":12914,"'+":12915,"Ġbaking":12916,"ifiers":12917,"ĠDiv":12918,"ĠOUT":12919,"Ġresidence":12920,"131":12921,"Ġdenoted":12922,"TABLE":12923,"Ġcub":12924,"Ġfif":12925,"iden":12926,"agent":12927,"ĠFeb":12928,"Ġmembership":12929,"Ġangry":12930,"queue":12931,"Ġwrites":12932,"Ġmountain":12933,"ĠSanta":12934,"mysql":12935,"arcoma":12936,"Ġtoilet":12937,"ĠWagner":12938,"Ġmerchandise":12939,"Ġhelicopter":12940,"Ġpill":12941,"area":12942,"Ġenact":12943,"Ġundergo":12944,"Ġprinted":12945,"Document":12946,"xc":12947,"Ġhint":12948,"Ġpreference":12949,"ĊĠĠĠĠĠĠĠĠĠĠĠĠĠĠĠĠ":12950,"Ġparticipating":12951,"Ġpersu":12952,"Ġharder":12953,"Ġduplic":12954,"Ġminority":12955,"Ġresistant":12956,"Î¹Î":12957,"ĠLiberal":12958,"Ġgrocery":12959,"}[":12960,"enum":12961,"Ġ\\-":12962,"Ġhealing":12963,"athy":12964,"Ġinvited":12965,"Ġrecipes":12966,"HTML":12967,"Ġassociations":12968,"Ġcinnamon":12969,"tk":12970,"Ġstent":12971,"aya":12972,"Ġcontest":12973,"Ġinterfer":12974,"Ġ1986":12975,"ĠComb":12976,"ĠBelfast":12977,"Ġpocket":12978,"ĠSir":12979,"Ġunexpected":12980,"Ġintense":12981,"133":12982,"Ġlimiting":12983,"Ġdimin":12984,"rical":12985,"Ġtur":12986,"ĠSF":12987,"aga":12988,"ĠFisher":12989,"Ġtransit":12990,"113":12991,"riting":12992,"Ġeveryday":12993,"Ġfract":12994,"ãĥ³":12995,"Ġadjustment":12996,"pntd":12997,"ĠðŁ":12998,"Ġcarbohydr":12999,"Ġsupernat":13000,"ĠParticipants":13001,"Ġundisputed":13002,"Ġcry":13003,"phosph":13004,"Ġclosure":13005,"ĠChild":13006,"prob":13007,"Ġfounded":13008,"Ġpredictions":13009,"ĠExpression":13010,"enable":13011,"Ġdur":13012,"ĠJun":13013,"Ġdefect":13014,"Ġselective":13015,"connected":13016,"Ġprospect":13017,"sensors":13018,"[\\*](#":13019,"ĠVillage":13020,"unnumbered":13021,"Her":13022,"lay":13023,"rb":13024,"Ġgest":13025,"opol":13026,"Ġ\",":13027,"Ġpray":13028,"etheless":13029,"ilibrium":13030,"ĠJeremy":13031,"ĠQUESTION":13032,"uity":13033,"aco":13034,"ĠPriv":13035,"Ġsecured":13036,"Example":13037,"Ġsouthern":13038,"Ġliked":13039,"youtube":13040,"ĠâĤ¬":13041,"Ġcredentials":13042,"Gen":13043,"Ġloud":13044,"ĠSort":13045,"ĠFat":13046,"Ġreveals":13047,"ĠNavy":13048,"Ġtension":13049,"standard":13050,"admin":13051,"Ġvariability":13052,"domain":13053,"Ġmatched":13054,"Ġreconstruction":13055,"unsigned":13056,"Ġconjecture":13057,"Ġalumni":13058,"Ġentanglement":13059,"ĠINTRODUCTION":13060,"Ð¿Ð¿Ð¿Ð¿Ð¿Ð¿Ð¿Ð¿Ð¿Ð¿Ð¿Ð¿Ð¿Ð¿Ð¿Ð¿Ð¿Ð¿Ð¿Ð¿":13061,"hang":13062,"ols":13063,"ĠAward":13064,"ĠMP":13065,"ĠPython":13066,"Ġune":13067,"Ġdefend":13068,"ĠĠĠĠĠĠĠĠĠĠĠĠĠĠĠĠĠĠĠĠĠĠĠĠĠĠĠĠĠĠĠĠ":13069,"Ġcoat":13070,"Ġequipped":13071,"joint":13072,"nn":13073,"ĠPack":13074,"ĠGOP":13075,"ĠOw":13076,"icket":13077,"124":13078,"Ġrifle":13079,"ĠTODO":13080,"ĠStewart":13081,"/-":13082,"Ver":13083,"je":13084,"utors":13085,"Ġbearing":13086,"Ġanger":13087,"ĠLA":13088,"Ġexport":13089,"Ġguest":13090,"ĠUnless":13091,"reme":13092,"Ġtemp":13093,"Ġinterviews":13094,"ĠTivahr":13095,"PER":13096,"don":13097,"ĠFall":13098,"Ġ1981":13099,"apper":13100,"Ġenvironments":13101,"ĠSpe":13102,"Ġsuspended":13103,"Ġmagnet":13104,"Ġdesperate":13105,"Ġheritage":13106,"Ġextinction":13107,"AddRtAttr":13108,"âĸĶâĸĶâĸĶâĸĶâĸĶâĸĶâĸĶâĸĶâĸĶâĸĶâĸĶâĸĶâĸĶâĸĶâĸĶâĸĶâĸĶâĸĶâĸĶâĸĶâĸĶâĸĶâĸĶâĸĶ":13109,"aire":13110,"Ãł":13111,"oco":13112,"ĠES":13113,"ĠPrice":13114,"Ġultr":13115,"Ġphilosophy":13116,"execute":13117,"Maybe":13118,"-$":13119,":</":13120,"=>":13121,"Gastroenterology":13122,"Ġtied":13123,"Ġ02":13124,"Ġdefining":13125,"Ġregulate":13126,"Ġestablishing":13127,"Common":13128,"Ġpromotion":13129,"Unit":13130,"ĠAccess":13131,"Ġmirror":13132,"00978":13133,"Ġpermeability":13134,"Ġtaxpayer":13135,"ĠSeyfert":13136,"Rect":13137,"dm":13138,"dash":13139,"ĠPot":13140,"overrightarrow":13141,"Ġbehaviors":13142,"Ġdiscount":13143,"Ġengagement":13144,"auto":13145,"ĠSTAT":13146,"vn":13147,"Ġpending":13148,"aron":13149,"Ġthirty":13150,"Ġnamespace":13151,"Ġplacement":13152,"Ġasset":13153,"Ġblame":13154,"Ġprobable":13155,"ĠInterestingly":13156,"pulse":13157,"Ġexterior":13158,"Ġrocks":13159,"ĠChristopher":13160,"Ġlongevity":13161,"ASHINGTON":13162,"320":13163,"gly":13164,"onomy":13165,"Ġdent":13166,"irl":13167,"words":13168,"Ġpointer":13169,"Ġimplicit":13170,"Ġolig":13171,"=-":13172,"Layer":13173,"ele":13174,"Ġren":13175,"stand":13176,"ĠImp":13177,"ĠInternal":13178,"ĠAppl":13179,"Ġplacebo":13180,"clear":13181,"btn":13182,"Ġtimely":13183,"Ġproportions":13184,"ĠPharmaceuticals":13185,"Ġgarbage":13186,"ç±»åŀĭ":13187,"kind":13188,"mal":13189,"inv":13190,"eled":13191,"ados":13192,"Ġconcur":13193,"agment":13194,"ĠNE":13195,"asted":13196,"Ġintens":13197,"obacter":13198,"Ġendoscopy":13199,"Ġbike":13200,"Ġcookies":13201,"Ġproportional":13202,"Ġpremium":13203,"LV":13204,"NN":13205,"Ġtired":13206,"aton":13207,"Ġgraft":13208,"Ġimpaired":13209,"Ġarising":13210,"Ġentities":13211,"rett":13212,"Step":13213,"entially":13214,"Ġphysiological":13215,"Ġprolifer":13216,"ĠszÃ³tag":13217,"Ġvulnerability":13218,"Ġsubscriber":13219,"ButterKnifeProcessor":13220,"member":13221,"Ġtill":13222,"Ġwages":13223,"urg":13224,"agic":13225,"Ġspray":13226,"Ġ{\"":13227,"ATED":13228,"Ġextending":13229,"Christ":13230,"Ġ>>":13231,"Ġpushing":13232,"aro":13233,"ĠOs":13234,"Ġjustify":13235,"ools":13236,"Ġbills":13237,"Ġguns":13238,"Ġpotent":13239,"Ġfantasy":13240,"Ġseizure":13241,"Session":13242,"Take":13243,"Ġ------------------------------------------------------------------------------------------------":13244,"Ġtweet":13245,"Ġhex":13246,"Ġtrim":13247,"0164222":13248,"Ġdiarrhea":13249,"Symbiodinium":13250,"BF":13251,"Bank":13252,"jud":13253,"works":13254,"è¡":13255,"Ġpounds":13256,"Ġsphere":13257,"017":13258,"Ġdeveloper":13259,"Ġguests":13260,"party":13261,"Ġconvincing":13262,"Eff":13263,"Head":13264,"Ġdating":13265,"rob":13266,"ĠTitle":13267,"arts":13268,"Ġseats":13269,"achine":13270,"Ġcarriers":13271,"echan":13272,"Ġexpressing":13273,"Ġthreatened":13274,"PF":13275,"[**":13276,"atar":13277,"Ġdies":13278,"ĠStill":13279,"Ġ}}":13280,"Ġtransient":13281,"():":13282,"Ġchallenged":13283,"ĠGraph":13284,"Ġparticipant":13285,"ĠBeach":13286,"clusions":13287,"September":13288,"olerance":13289,"Internet":13290,"Ġgenuinely":13291,"global":13292,"åĬ":13293,"ĠSem":13294,"Ġresident":13295,"Ġbreaks":13296,"Ġclinic":13297,"Ġlikes":13298,"({{\\":13299,"MAP":13300,"move":13301,"ĠTM":13302,"ancies":13303,"Ġacceptance":13304,"Ġmethylation":13305,"Facebook":13306,"ĠSamsung":13307,"Ġexchanges":13308,"Ġantigens":13309,"Met":13310,"atum":13311,"three":13312,"ĠHas":13313,"Ġshoes":13314,"ĠRay":13315,"ĠOp":13316,"asts":13317,"Ġsupporters":13318,"Methods":13319,"Ġsurvived":13320,"Ġemploys":13321,"Both":13322,"shall":13323,"},$$":13324,"byte":13325,"Ġaffordable":13326,"Mutex":13327,"puppet":13328,"ëĭ¤":13329,"Ġsurvivors":13330,"Ġchromatography":13331,"225":13332,"|_{":13333,"ogs":13334,"Ġresidential":13335,"Ġagon":13336,"Ġconserved":13337,"Ġsolved":13338,"Ġbarriers":13339,"Ġmeaningful":13340,"NOW":13341,"had":13342,"rated":13343,"ptic":13344,"Ġconnecting":13345,"airo":13346,"Ċĉĉĉĉĉĉĉ":13347,"Sequence":13348,"ĠMathematics":13349,"Ġcoherent":13350,"Ġalphabet":13351,"ĠGitHub":13352,"ĠCaribbean":13353,"tor":13354,"Ġorbit":13355,"sey":13356,"Ġdecimal":13357,"Convert":13358,"Ġworried":13359,"ĠHamiltonian":13360,"Ġelectricity":13361,"Ġbelongs":13362,")</":13363,"Lim":13364,"mb":13365,"Î´":13366,"anal":13367,"udo":13368,"Ġlect":13369,"Ġimpressive":13370,"Ġdemonstrates":13371,"Ġconsistency":13372,"eatures":13373,"Ġconvergence":13374,"Ġpricing":13375,"ĠGospel":13376,"StaticResource":13377,"ĠCommerce":13378,"XML":13379,"`,":13380,"bus":13381,"tp":13382,"Ġmsg":13383,"Ġleak":13384,"Ġseeks":13385,"Ġretro":13386,"Ġwelcomed":13387,"ĠLebanon":13388,"HO":13389,"NL":13390,"çĶ":13391,"Ġmood":13392,"ensus":13393,"ĠĠĠĠĠĠĠĠĠĠĠĠĠĠĠĠĠĠĠĠĠĠĠĠĠĠĠĠĠĠĠĠĠĠĠ":13394,"Ġtries":13395,"Ġshortly":13396,"Import":13397,"igenous":13398,"Ġenvelope":13399,"ernandez":13400,"Ġmixtures":13401,"Ġcounterparts":13402,"ĠMitkanos":13403,"Ġcontention":13404,"1991":13405,"Ġattenu":13406,"amsmath":13407,"Ġrestrict":13408,"desc":13409,"Ġconstitu":13410,"Ġinhibited":13411,"mM":13412,"mask":13413,"sen":13414,"oro":13415,"seq":13416,"Ġarrive":13417,"oxic":13418,"Ġreferring":13419,"Ġneighbors":13420,"Ġintracellular":13421,"Ġappreciated":13422,"Ġassistant":13423,"Ġprotocols":13424,"Ġinstitutional":13425,"Utils":13426,"Ġmargins":13427,"ĠThailand":13428,"Ġpolyps":13429,"Ġintravenous":13430,"Ġpotassium":13431,"MAT":13432,"Ġgross":13433,"Ġreporter":13434,"Ġacted":13435,"}{-":13436,"Ġsentenced":13437,"++;":13438,"ĠRadio":13439,"Based":13440,"random":13441,"Ġwage":13442,"Ġpit":13443,"Ġmilit":13444,"Ġexpense":13445,"))?":13446,"Ġprescribed":13447,"Ġstimulus":13448,"01758":13449,"ĠPractice":13450,"ãĤ·ãĥªãĥ¼ãĤºæ§ĭæĪĲ":13451,"Pos":13452,"Ġpap":13453,"Ġdense":13454,"Ġbeach":13455,"Ġorange":13456,"ĠInf":13457,"ugs":13458,"Ġblot":13459,"Ġdistances":13460,"transform":13461,"Member":13462,"TF":13463,"ĠMethod":13464,"ĠFarm":13465,"ĠHim":13466,"ĠGreg":13467,"018":13468,"phenyl":13469,"Ġaging":13470,"Ġ_<":13471,"Ġreliability":13472,"Ġmediated":13473,"Ġparam":13474,"Ġrestore":13475,"Ġemerging":13476,"BASE":13477,"Ġwashed":13478,"Analysis":13479,"Court":13480,"rceil":13481,"Ġexacerb":13482,"Ġcorpus":13483,"ijerph":13484,"ĠCam":13485,"Ġsteal":13486,"oser":13487,"Ġ$('":13488,"qual":13489,"Ġfunded":13490,"ĊĠĠĠĠĠĠĠĠĠĠĠĠĠĠĠĠĠĠĠĠĠĠĠĠĠĠĠĠĠĠĠĠĠĠĠĠĠĠĠ":13491,"Ġdocumented":13492,"ĠÑģ":13493,"Ġfitting":13494,"ĠLibrary":13495,"ĊĠĠĠĠĠĠĠĠĠĠĠĠĠĠĠĠĠĠĠĠĠĠĠĠĠĠĠĠĠĠĠĠĠĠĠĠĠĠĠĠĠĠĠĠĠĠĠĠĠĠĠĠĠĠĠĠĠĠĠĠ":13496,"ĠĠĠĠĠĠĠĠĠĠĠĠĠĠĠĠĠĠĠĠĠĠĠĠĠĠĠĠĠĠĠĠĠĠĠĠĠ":13497,"Ġedit":13498,"Ġpleas":13499,"Ġfarmers":13500,"Ġdairy":13501,"protein":13502,"Wednesday":13503,"Ġmunicipality":13504,"ĠAmsterdam":13505,"Ġhook":13506,"etc":13507,"Ġestablishment":13508,"ynth":13509,")\\,":13510,"Ġdeny":13511,"ymmetry":13512,"Ġexisted":13513,"ĠOverall":13514,"General":13515,"Ġexcessive":13516,"Ð´":13517,"Ġtags":13518,"ĠSoc":13519,"ĠMg":13520,"ĠFull":13521,"ĠWay":13522,"ĠEs":13523,"1993":13524,"Ġcharacterization":13525,"0002":13526,"Ġcallback":13527,"Ġloans":13528,"ĠScale":13529,"Ġprofits":13530,"ĠCLASS":13531,"Ġounces":13532,"ĠSusan":13533,"Ġplausible":13534,"Body":13535,"ĠâĢĻ":13536,"Ġbuck":13537,"Ġthrown":13538,"ĠCAN":13539,"Ġquote":13540,"health":13541,"Ġemphasis":13542,"Ġinitiated":13543,"Ġconstitution":13544,"Found":13545,"cence":13546,"good":13547,"Ġtends":13548,"ĠHop":13549,"Ġ1960":13550,"ãģ«":13551,"Ġdiscloses":13552,"rupted":13553,"Ġdebtor":13554,"Ġcytokines":13555,"threshold":13556,"ĠFALSE":13557,"SY":13558,"Sk":13559,"fc":13560,"ĠTerm":13561,"ĠGall":13562,"Ġreset":13563,"Ġ[],":13564,"iah":13565,"Ġdefects":13566,"Ġbelie":13567,"Ġlistening":13568,"--------------------------------------------------------":13569,"Ġdisclosure":13570,"315":13571,"Na":13572,"mates":13573,"Ġcere":13574,"omics":13575,"ĠSS":13576,"ĠLy":13577,"setlength":13578,"}$$\\":13579,"Ġacknowledge":13580,"Ġcooked":13581,"Ġvisitors":13582,"LINK":13583,"Ġtariff":13584,"Ġstunning":13585,"Ġintentions":13586,"brousch":13587,"Ġsupervised":13588,"ScoreDistribution":13589,"mus":13590,"np":13591,"inth":13592,"itter":13593,"Ġanybody":13594,"Ġweekly":13595,"Ġ160":13596,"Ġcopper":13597,"determ":13598,"ĠTurkey":13599,"Ġ145":13600,"Ġconfer":13601,"Ġsuicide":13602,"Ġenrolled":13603,"ĠAdam":13604,"Ġcorporations":13605,"Upload":13606,"ĠSERVICES":13607,"itarian":13608,"Ġmad":13609,"Ġ\"<":13610,"ĠTan":13611,"1990":13612,"}{{\\":13613,"Ġequity":13614,"Ġreceives":13615,"ĠDu":13616,"Ġgenerations":13617,"Ġcoating":13618,"shop":13619,"Ġtopology":13620,"Ġcomputational":13621,"Ġbirths":13622,"Ġbriefly":13623,"ĠArticle":13624,"Ġmotions":13625,"ĠHillary":13626,"Ġorchest":13627,"Ġtrademark":13628,"ĠMalaysia":13629,"220":13630,"900":13631,"Bs":13632,"Îµ":13633,"ÎĶ":13634,"Ġtech":13635,"oupl":13636,"igma":13637,"Ġpresenting":13638,"Ġdetermines":13639,"Cap":13640,"_,":13641,"čĊĠĠĠĠĠĠĠĠĠ":13642,"Ġsir":13643,"Ġ(âĪĴ":13644,"atever":13645,"oga":13646,"ERR":13647,"Ġcapabilities":13648,"360":13649,"Ġsettled":13650,"Ġstriking":13651,"Ġvolunteers":13652,"Ġflexibility":13653,"Ġscanning":13654,"Ġtertiary":13655,"Ġmurine":13656,"ĠDakota":13657,"Ġpermanently":13658,"Ptr":13659,"Root":13660,"Ġproposition":13661,"Ġplugin":13662,"Ġapps":13663,"âĢĿ)":13664,"}}}}":13665,"Ġbron":13666,"vertical":13667,"Ġmanaging":13668,"cost":13669,"lbrack":13670,"ä¹":13671,"Ġrating":13672,"Ġ123":13673,"ĊĊĠĠĠĠ":13674,"Ġdesignated":13675,"Ġnegligence":13676,"Interface":13677,"Ġsubstitute":13678,"FROM":13679,"Ġlazy":13680,"Ġgotta":13681,"ĠHangul":13682,"ĠUrban":13683,"Conflict":13684,"Fore":13685,"Ġsle":13686,"ĠHo":13687,"ĠDer":13688,"Ġmanually":13689,"132":13690,"register":13691,"Ġ$${\\":13692,"ĠManager":13693,"Ġpositively":13694,"Ġvirtually":13695,"Save":13696,"Ġbases":13697,"Ġbother":13698,"ĠSports":13699,"Ġconstraint":13700,"ago":13701,"Ġplots":13702,"Ġfunctionality":13703,"Ġdefeat":13704,"rowth":13705,"Ġacknowledged":13706,"interface":13707,"Additional":13708,"Ġthreats":13709,"Ġduct":13710,"Ġsuggestions":13711,"Ġgarlic":13712,"ĠSpring":13713,"aeda":13714,"Ġbundles":13715,"ographer":13716,"Ġoutrage":13717,"Ġambiguous":13718,"aintenance":13719,"ĠMas":13720,"Star":13721,"Ġrepresentatives":13722,"printf":13723,"println":13724,"sun":13725,"Ġcow":13726,"Ġ09":13727,"Ġtherein":13728,"}$-":13729,"letter":13730,"Ġhumanity":13731,"Ġedition":13732,"Ġheading":13733,"ISH":13734,"Ġorgans":13735,"Ġcontroversial":13736,"KEY":13737,"Ġcriticism":13738,"Ġlogarith":13739,"Ġmisleading":13740,"ĠCollaboration":13741,"Ġaneurys":13742,"Template":13743,"made":13744,"Ġ^{\\":13745,"ĠTour":13746,"ĠLC":13747,"ready":13748,"Ġsynthetic":13749,"$]{}":13750,"Cost":13751,"Ġcul":13752,"Ġbra":13753,"Ġms":13754,"Ġ137":13755,"ãģ§":13756,"Release":13757,"Ġstayed":13758,"ĠHoly":13759,"è¦ģ":13760,"Ġelegant":13761,"ĠCitiz":13762,"Ġcooperate":13763,"Ġwhatsoever":13764,"Ġfeasibility":13765,"apeutic":13766,"instance":13767,"ulg":13768,"ĠFord":13769,"Ġchampionship":13770,"âĢĻ,":13771,"Ġ800":13772,"Ġevaluating":13773,"Changed":13774,"flags":13775,"Ġpersistent":13776,"subseteq":13777,"ĠALL":13778,"Ġremarkable":13779,"Ġmotivation":13780,"Ġcollaboration":13781,"ĠMargaret":13782,"RES":13783,"condition":13784,"Ġexclude":13785,"ĠTen":13786,"ĠKr":13787,"Ġintersection":13788,"ĠYeah":13789,"lessly":13790,"Ġmuseum":13791,"cases":13792,"Ġatom":13793,"Inc":13794,"Ġpersonality":13795,"Ġcorruption":13796,"ĠShould":13797,"ĠSea":13798,"record":13799,"BY":13800,"hd":13801,"iat":13802,"ĠdÃ©":13803,"etime":13804,"ĠSearch":13805,"ĠLook":13806,"Ġweird":13807,"verted":13808,"Ġprevented":13809,"Ġconstructor":13810,"password":13811,"Ġenhancement":13812,"Ġlubric":13813,"ĠImperial":13814,"ĠAadhaar":13815,"Ġarrhythm":13816,"Ġamyloid":13817,"039":13818,"bas":13819,"isa":13820,"ĠSav":13821,"Ġrelies":13822,"atories":13823,"GI":13824,"Ga":13825,"Parent":13826,"jar":13827,"zone":13828,"}>":13829,"ĠFri":13830,"Ġcommands":13831,"expr":13832,"Ġclaiming":13833,"Ġpublications":13834,"ĠPhot":13835,"Ġvaccination":13836,"opathy":13837,"Ġticket":13838,"coholic":13839,"Ġimplantation":13840,"VI":13841,"uf":13842,"Ð²":13843,"Ġfurn":13844,"Ġdance":13845,"ensation":13846,"Ġdelicious":13847,"Ġobjectives":13848,"Ġencounter":13849,"Ġhydrocarbons":13850,"Av":13851,"Ġsched":13852,"ĠPerson":13853,"ĠLD":13854,"ĠNaz":13855,"Ġintact":13856,"ĠVector":13857,"ENCE":13858,"Ġadvised":13859,"Ġcompete":13860,"Ġnorthern":13861,"ĠCNN":13862,"Human":13863,"ĠMueller":13864,"ĠBDNF":13865,"ĠJOIN":13866,"Ġspectrometry":13867,"BN":13868,"Ġgym":13869,"Ġstating":13870,"ĠNations":13871,"ĠGP":13872,"ĠĠĠĠĠĠĠĠĠĠĠĠĠĠĠĠĠĠĠĠĠĠĠĠĠĠĠĠĠĠĠ":13873,"INFO":13874,"Ġsatisfying":13875,"Ġparliament":13876,"important":13877,"ĠCoast":13878,"Ġattacked":13879,"Ġrespondent":13880,"Files":13881,"lg":13882,"Ñĩ":13883,"Ġ--------------------------------":13884,"oming":13885,"Ġ\"$":13886,"Ġcomplain":13887,"parameter":13888,"Ġembry":13889,"ĠParliament":13890,"Selected":13891,"risk":13892,"Ġreplied":13893,"Ġorigins":13894,"ĠOptional":13895,"Ġscientist":13896,"Ġsuperficial":13897,"ĠColumbus":13898,"Ġbitcoin":13899,"Ġanatomical":13900,"AX":13901,"Cr":13902,"hbar":13903,"iÃ³n":13904,"rv":13905,"sort":13906,"Ġgains":13907,"odot":13908,"ĠTGF":13909,"Ġadmin":13910,"156":13911,"Ġinvestigating":13912,"Ġcontinuously":13913,"Ġprotecting":13914,"Trump":13915,"Ġtraits":13916,"Ġdemocracy":13917,"ĭâĢĭâĢĭâĢĭâĢĭâĢĭâĢĭâĢĭâĢĭâĢĭâĢĭâĢĭâĢ":13918,"Hash":13919,"ply":13920,"Ġhoney":13921,"2020":13922,"ĠColor":13923,"Ġallele":13924,",...,":13925,"Ġbottles":13926,"Ġankle":13927,"ĠEXPECT":13928,"Ġbiomarkers":13929,"urance":13930,"ĠPubl":13931,"ĠBoy":13932,"ĠBrian":13933,"ĠHor":13934,"Ġopens":13935,"Ġundergoing":13936,"oven":13937,"Ġsilent":13938,"Ġnavigation":13939,"Ġpancreas":13940,"scherichia":13941,"`.":13942,"Î½":13943,"Ġinch":13944,"Ġmerc":13945,"utter":13946,"cha":13947,"ĠBible":13948,"1986":13949,"anny":13950,"switch":13951,"Ġprejudice":13952,"Media":13953,"Ġinaug":13954,"ĠSettings":13955,"ĠProfessional":13956,"Factor":13957,"wave":13958,"wrap":13959,"arth":13960,"ĠHart":13961,"Ġmayor":13962,"175":13963,"Ġpromised":13964,"Ġsimulated":13965,"Ġexpertise":13966,"ĠLI":13967,"spring":13968,"ĠRelease":13969,"Ġalongside":13970,"Ġearnings":13971,"typedef":13972,"Ġreproductive":13973,"Ġperpendicular":13974,"iseconds":13975,"Ġfiduciary":13976,"Ġaminotransferase":13977,"Sal":13978,"Ġbags":13979,"ĠSR":13980,"Ġvag":13981,"Ġquoted":13982,"Ġrelied":13983,"application":13984,"Ġfinance":13985,"Ġparams":13986,"Ġsuppression":13987,"rbrack":13988,"ĠPhoto":13989,"Ġplatforms":13990,"Ġefficiently":13991,"Ġtitles":13992,"Ġrhythm":13993,"Ġadhesive":13994,"Ġorganisations":13995,"ĠAssessment":13996,"KL":13997,"Ġbip":13998,"owers":13999,"Ġ\"%":14000,"phys":14001,"ĠShort":14002,"Ġviolations":14003,"Ġglad":14004,"ĠPHP":14005,"repository":14006,"GN":14007,"none":14008,"Ġconvention":14009,"emat":14010,"ĠWord":14011,"Ġfactual":14012,"NAL":14013,"Ġapproximate":14014,"Ġcollapse":14015,"ĠSmall":14016,"Record":14017,"Ġbranches":14018,"Ġreleasing":14019,"Ġunlimited":14020,"Ġawkward":14021,"ĠBayesian":14022,"Ġsympathetic":14023,"Ġingredient":14024,"ĠSchrÃ¶dinger":14025,"Tim":14026,"Ġho":14027,"ĠSeven":14028,"Ġasks":14029,"quot":14030,
[...]
