{
  "version": "1.0",
  "truncation": null,
  "padding": null,
  "added_tokens": [
    {
      "id": 0,
      "content": "[UNK]",
      "single_word": false,
      "lstrip": false,
      "rstrip": false,
      "normalized": false,
      "special": true
    },
    {
      "id": 1,
      "content": "[CLS]",
      "single_word": false,
      "lstrip": false,
      "rstrip": false,
      "normalized": false,
      "special": true
    },
    {
      "id": 2,
      "content": "[SEP]",
      "single_word": false,
      "lstrip": false,
      "rstrip": false,
      "normalized": false,
      "special": true
    },
    {
      "id": 3,
      "content": "[PAD]",
      "single_word": false,
      "lstrip": false,
      "rstrip": false,
      "normalized": false,
      "special": true
    },
    {
      "id": 4,
      "content": "[MASK]",
      "single_word": false,
      "lstrip": false,
      "rstrip": false,
      "normalized": false,
      "special": true
    }
  ],
  "normalizer": null,
  "pre_tokenizer": {
    "type": "ByteLevel",
    "add_prefix_space": true,
    "trim_offsets": true,
    "use_regex": true
  },
  "post_processor": null,
  "decoder": null,
  "model": {
    "type": "BPE",
    "dropout": null,
    "unk_token": "[UNK]",
    "continuing_subword_prefix": null,
    "end_of_word_suffix": null,
    "fuse_unk": false,
    "byte_fallback": false,
    "ignore_merges": false,
    "vocab": {
      "[UNK]": 0,
      "[CLS]": 1,
      "[SEP]": 2,
      "[PAD]": 3,
      "[MASK]": 4,
      "!": 5,
      "\"": 6,
      "#": 7,
      "$": 8,
      "%": 9,
      "&": 10,
      "'": 11,
      "(": 12,
      ")": 13,
      "*": 14,
      "+": 15,
      ",": 16,
      "-": 17,
      ".": 18,
      "/": 19,
      "0": 20,
      "1": 21,
      "2": 22,
      "3": 23,
      "4": 24,
      "5": 25,
      "6": 26,
      "7": 27,
      "8": 28,
      "9": 29,
      ":": 30,
      ";": 31,
      "<": 32,
      "=": 33,
      ">": 34,
      "?": 35,
      "@": 36,
      "A": 37,
      "B": 38,
      "C": 39,
      "D": 40,
      "E": 41,
      "F": 42,
      "G": 43,
      "H": 44,
      "I": 45,
      "J": 46,
      "K": 47,
      "L": 48,
      "M": 49,
      "N": 50,
      "O": 51,
      "P": 52,
      "Q": 53,
      "R": 54,
      "S": 55,
      "T": 56,
      "U": 57,
      "V": 58,
      "W": 59,
      "X": 60,
      "Y": 61,
      "Z": 62,
      "[": 63,
      "\\": 64,
      "]": 65,
      "^": 66,
      "_": 67,
      "`": 68,
      "a": 69,
      "b": 70,
      "c": 71,
      "d": 72,
      "e": 73,
      "f": 74,
      "g": 75,
      "h": 76,
      "i": 77,
      "j": 78,
      "k": 79,
      "l": 80,
      "m": 81,
      "n": 82,
      "o": 83,
      "p": 84,
      "q": 85,
      "r": 86,
      "s": 87,
      "t": 88,
      "u": 89,
      "v": 90,
      "w": 91,
      "x": 92,
      "y": 93,
      "z": 94,
      "{": 95,
      "|": 96,
      "}": 97,
      "~": 98,
      "¡": 99,
      "¢": 100,
      "£": 101,
      "¤": 102,
      "¥": 103,
      "¦": 104,
      "§": 105,
      "¨": 106,
      "©": 107,
      "ª": 108,
      "«": 109,
      "¬": 110,
      "®": 111,
      "¯": 112,
      "°": 113,
      "±": 114,
      "²": 115,
      "³": 116,
      "´": 117,
      "µ": 118,
      "¶": 119,
      "·": 120,
      "¸": 121,
      "¹": 122,
      "º": 123,
      "»": 124,
      "¼": 125,
      "½": 126,
      "¾": 127,
      "¿": 128,
      "Â": 129,
      "Ã": 130,
      "Ä": 131,
      "Å": 132,
      "Æ": 133,
      "Ç": 134,
      "È": 135,
      "É": 136,
      "Ê": 137,
      "Ë": 138,
      "Ì": 139,
      "Í": 140,
      "Î": 141,
      "Ï": 142,
      "Ð": 143,
      "Ñ": 144,
      "Ò": 145,
      "Ó": 146,
      "Ô": 147,
      "Õ": 148,
      "Ö": 149,
      "×": 150,
      "Ø": 151,
      "Ù": 152,
      "Ú": 153,
      "Û": 154,
      "Ü": 155,
      "Ý": 156,
      "Þ": 157,
      "ß": 158,
      "à": 159,
      "á": 160,
      "â": 161,
      "ã": 162,
      "ä": 163,
      "å": 164,
      "æ": 165,
      "ç": 166,
      "è": 167,
      "é": 168,
      "ê": 169,
      "ë": 170,
      "ì": 171,
      "í": 172,
      "î": 173,
      "ï": 174,
      "ð": 175,
      "ñ": 176,
      "ó": 177,
      "ô": 178,
      "Ā": 179,
      "ā": 180,
      "Ă": 181,
      "ă": 182,
      "Ą": 183,
      "ą": 184,
      "Ć": 185,
      "ć": 186,
      "Ĉ": 187,
      "ĉ": 188,
      "Ċ": 189,
      "ċ": 190,
      "Č": 191,
      "č": 192,
      "Ď": 193,
      "ď": 194,
      "Đ": 195,
      "đ": 196,
      "Ē": 197,
      "ē": 198,
      "Ĕ": 199,
      "ĕ": 200,
      "Ė": 201,
      "ė": 202,
      "Ę": 203,
      "ę": 204,
      "Ě": 205,
      "ě": 206,
      "Ĝ": 207,
      "ĝ": 208,
      "Ğ": 209,
      "ğ": 210,
      "Ġ": 211,
      "ġ": 212,
      "Ģ": 213,
      "ģ": 214,
      "Ĥ": 215,
      "ĥ": 216,
      "Ħ": 217,
      "ħ": 218,
      "Ĩ": 219,
      "ĩ": 220,
      "Ī": 221,
      "ī": 222,
      "Ĭ": 223,
      "ĭ": 224,
      "Į": 225,
      "į": 226,
      "İ": 227,
      "ı": 228,
      "Ĳ": 229,
      "ĳ": 230,
      "Ĵ": 231,
      "ĵ": 232,
      "Ķ": 233,
      "ķ": 234,
      "ĸ": 235,
      "Ĺ": 236,
      "ĺ": 237,
      "Ļ": 238,
      "ļ": 239,
      "Ľ": 240,
      "ľ": 241,
      "Ŀ": 242,
      "ŀ": 243,
      "Ł": 244,
      "ł": 245,
      "Ń": 246,
      "ĠĠ": 247,
      "Ġt": 248,
      "Ġa": 249,
      "in": 250,
      "he": 251,
      "re": 252,
      "on": 253,
      "ĠĠĠĠ": 254,
      "Ġthe": 255,
      "er": 256,
      "at": 257,
      "Ġs": 258,
      "en": 259,
      "Ġo": 260,
      "Ġc": 261,
      "Ġw": 262,
      "is": 263,
      "it": 264,
      "or": 265,
      "es": 266,
      "ed": 267,
      "al": 268,
      "an": 269,
      "Ġp": 270,
      "Ġf": 271,
      "Ġb": 272,
      "Ġan": 273,
      "ing": 274,
      "Ġin": 275,
      "Ġof": 276,
      "ar": 277,
      "ion": 278,
      "ou": 279,
      "Ġm": 280,
      "Ġd": 281,
      "ic": 282,
      "--": 283,
      "Ġto": 284,
      "le": 285,
      "as": 286,
      "ĠĠĠĠĠĠĠĠ": 287,
      "Ġand": 288,
      "ro": 289,
      "Ġth": 290,
      "ent": 291,
      "Ġh": 292,
      "ct": 293,
      "Ġre": 294,
      "et": 295,
      "Ġn": 296,
      "el": 297,
      "st": 298,
      "om": 299,
      "il": 300,
      "Ġe": 301,
      "Ġl": 302,
      "id": 303,
      "ot": 304,
      "im": 305,
      "ig": 306,
      "ve": 307,
      "Ġis": 308,
      "ut": 309,
      "Ġg": 310,
      "Ġ(": 311,
      "ĠT": 312,
      "----": 313,
      "am": 314,
      "ol": 315,
      "ĠI": 316,
      "ation": 317,
      "se": 318,
      "ce": 319,
      "ly": 320,
      "âĢ": 321,
      "Ġfor": 322,
      "ur": 323,
      "ĠĠĠ": 324,
      "Ġbe": 325,
      "ĠS": 326,
      "ow": 327,
      "Ġthat": 328,
      "Ġu": 329,
      "ad": 330,
      "Ġon": 331,
      "ĠA": 332,
      "ĠC": 333,
      "Ġst": 334,
      "ch": 335,
      "ver": 336,
      "ay": 337,
      "ul": 338,
      "ith": 339,
      "Ġ1": 340,
      "if": 341,
      "Ġcon": 342,
      "Ġwith": 343,
      "ra": 344,
      "ĠĠĠĠĠĠĠĠĠĠĠĠĠĠĠĠ": 345,
      "Ġy": 346,
      "Ġas": 347,
      "ir": 348,
      "od": 349,
      "ter": 350,
      "00": 351,
      "Ġpro": 352,
      "Ġ\"": 353,
      "ate": 354,
      "Ġ$": 355,
      "Ġit": 356,
      "her": 357,
      "um": 358,
      "ĠM": 359,
      "ab": 360,
      "pe": 361,
      "Ġal": 362,
      "Ġwe": 363,
      "ri": 364,
      "ge": 365,
      "nd": 366,
      "Ġv": 367,
      "==": 368,
      "Ġwh": 369,
      "Ġ2": 370,
      "ĠP": 371,
      "Ġde": 372,
      "res": 373,
      "pp": 374,
      "qu": 375,
      "ac": 376,
      "Ġyou": 377,
      "ment": 378,
      "est": 379,
      "Ġex": 380,
      "os": 381,
      "ist": 382,
      "ĠThe": 383,
      "Ġwas": 384,
      "ĠB": 385,
      "us": 386,
      "Ġ\\": 387,
      "Ġhe": 388,
      "--------": 389,
      "ant": 390,
      "Ġor": 391,
      "Ġcom": 392,
      "em": 393,
      "ht": 394,
      "Ġare": 395,
      "th": 396,
      "**": 397,
      "oc": 398,
      "Ġat": 399,
      "ers": 400,
      "Ġsu": 401,
      "iv": 402,
      "Ġ=": 403,
      "un": 404,
      "ity": 405,
      "ess": 406,
      "ain": 407,
      "Ġr": 408,
      "ĠH": 409,
      "op": 410,
      "ĠF": 411,
      "Ġby": 412,
      "ĠD": 413,
      "Ġse": 414,
      "ld": 415,
      "ill": 416,
      "ction": 417,
      "ore": 418,
      "rom": 419,
      "and": 420,
      "ĠW": 421,
      "nt": 422,
      "ke": 423,
      "Ġnot": 424,
      "Ġ-": 425,
      "end": 426,
      "Ġha": 427,
      "ĠR": 428,
      "ive": 429,
      "ĠL": 430,
      "ort": 431,
      "Ġne": 432,
      "pt": 433,
      "Ġthis": 434,
      "ĊĠĠĠĠ": 435,
      "ĠN": 436,
      "âĢĻ": 437,
      "Ġfrom": 438,
      "ight": 439,
      "art": 440,
      "ud": 441,
      "red": 442,
      "ĊĠĠĠ": 443,
      "pl": 444,
      "ell": 445,
      "Ġsh": 446,
      "ial": 447,
      "ies": 448,
      "te": 449,
      "ĠG": 450,
      "Ġch": 451,
      "Ġhave": 452,
      "ated": 453,
      "ĠE": 454,
      "fe": 455,
      "Ġ*": 456,
      "ure": 457,
      "ine": 458,
      "'s": 459,
      "ould": 460,
      "our": 461,
      "all": 462,
      "{\\": 463,
      "Ġle": 464,
      "Ġ0": 465,
      "ag": 466,
      "per": 467,
      "og": 468,
      "ust": 469,
      "age": 470,
      "ical": 471,
      "Ġcan": 472,
      "ame": 473,
      ").": 474,
      "ue": 475,
      "iz": 476,
      "ĠO": 477,
      "ich": 478,
      "rou": 479,
      "cl": 480,
      "Ġ3": 481,
      "ib": 482,
      "ĊĠĠĠĠĠĠĠĠ": 483,
      "out": 484,
      "ard": 485,
      "Ġus": 486,
      "ome": 487,
      "able": 488,
      "ie": 489,
      "ase": 490,
      "Ġres": 491,
      "Ġcl": 492,
      "Ġwhe": 493,
      ");": 494,
      "Ġab": 495,
      "ath": 496,
      "Ġj": 497,
      "ack": 498,
      "====": 499,
      "ult": 500,
      "ass": 501,
      "Ġ{": 502,
      "act": 503,
      "ost": 504,
      "Ġk": 505,
      "ans": 506,
      "01": 507,
      "Ġpl": 508,
      "Ġcomp": 509,
      "ide": 510,
      "ther": 511,
      ".\"": 512,
      "Ġad": 513,
      "Ġme": 514,
      "ĊĠ": 515,
      "ast": 516,
      "=\"": 517,
      "Ġcont": 518,
      "Ġwere": 519,
      "orm": 520,
      "ĠâĢ": 521,
      "Ġim": 522,
      "The": 523,
      "Ġall": 524,
      "Ġtr": 525,
      "ub": 526,
      "ign": 527,
      "ĠJ": 528,
      "ĊĠĠĠĠĠĠĠ": 529,
      "..": 530,
      "ĠU": 531,
      "ap": 532,
      "Ġ[": 533,
      "Ġdo": 534,
      "ind": 535,
      "ition": 536,
      "ak": 537,
      "ip": 538,
      "Ġwhich": 539,
      "ĠĠĠĠĠĠĠĠĠĠĠĠĠĠĠĠĠĠĠĠĠĠĠĠĠĠĠĠĠĠĠĠ": 540,
      "ph": 541,
      "Ġhas": 542,
      "ice": 543,
      "Ġ+": 544,
      "cc": 545,
      "one": 546,
      "ary": 547,
      "ous": 548,
      "ĉĉ": 549,
      "//": 550,
      "Ġbut": 551,
      "ime": 552,
      "Ġint": 553,
      "ens": 554,
      "ĠIn": 555,
      "are": 556,
      "int": 557,
      "----------------": 558,
      "con": 559,
      "Ġwor": 560,
      "_{": 561,
      "du": 562,
      "Ġdis": 563,
      "ress": 564,
      "ong": 565,
      "ence": 566,
      "ations": 567,
      "Ġ4": 568,
      "ty": 569,
      "ff": 570,
      "Ġwill": 571,
      "ne": 572,
      "ile": 573,
      "ok": 574,
      "Ġgo": 575,
      "),": 576,
      "Ġ<": 577,
      "ru": 578,
      "Ġout": 579,
      "ep": 580,
      "ose": 581,
      "ance": 582,
      "}}": 583,
      "gh": 584,
      "Âł": 585,
      "av": 586,
      "Ġif": 587,
      "Ġper": 588,
      "ents": 589,
      "Ġen": 590,
      "au": 591,
      "ally": 592,
      "ĠTh": 593,
      "ber": 594,
      "Ġ5": 595,
      "Ġhis": 596,
      "ace": 597,
      "Ġone": 598,
      "so": 599,
      "Ġun": 600,
      "port": 601,
      "xt": 602,
      "ely": 603,
      "ia": 604,
      "ord": 605,
      "Ġthey": 606,
      "ory": 607,
      "ire": 608,
      "ear": 609,
      "ach": 610,
      "ect": 611,
      "ions": 612,
      "Ġapp": 613,
      "Ġev": 614,
      "Ġso": 615,
      "form": 616,
      "ry": 617,
      "Ġup": 618,
      "ang": 619,
      "Ġqu": 620,
      "ree": 621,
      "lic": 622,
      "Ġar": 623,
      "Ġtheir": 624,
      "âĢĿ": 625,
      "Ġmore": 626,
      "Ġpart": 627,
      "ail": 628,
      "ĠK": 629,
      "ite": 630,
      "ors": 631,
      "ll": 632,
      "Ġthere": 633,
      "ys": 634,
      "Ġag": 635,
      "Ġpre": 636,
      "ake": 637,
      "Ġother": 638,
      "Ġli": 639,
      "own": 640,
      "ĠĠĠĠĠĠĠ": 641,
      "very": 642,
      "Ġ}": 643,
      "ound": 644,
      "Ġyour": 645,
      "ft": 646,
      "Ġ$\\": 647,
      "vel": 648,
      "Ġhad": 649,
      "ount": 650,
      "fere": 651,
      "cre": 652,
      "urn": 653,
      "ĠSt": 654,
      "Ġsa": 655,
      "ata": 656,
      "Ġbeen": 657,
      "com": 658,
      "Ġsp": 659,
      "math": 660,
      "Ġman": 661,
      "ks": 662,
      "Ġalso": 663,
      "Ġwho": 664,
      "erv": 665,
      "Ġany": 666,
      "we": 667,
      "ates": 668,
      "Ġwould": 669,
      "de": 670,
      "ĠV": 671,
      "Ġno": 672,
      "[@": 673,
      "Ġabout": 674,
      "nder": 675,
      "low": 676,
      "ject": 677,
      "ĊĊ": 678,
      "Ġwhen": 679,
      "eth": 680,
      "Ġmy": 681,
      "Ġ'": 682,
      "Ġ&": 683,
      "ific": 684,
      "ook": 685,
      "\\]": 686,
      "Ġob": 687,
      "Ġtime": 688,
      "ple": 689,
      "Ġthan": 690,
      "ater": 691,
      "'t": 692,
      "ict": 693,
      "Ġass": 694,
      "wo": 695,
      "erm": 696,
      "Ġ6": 697,
      "Ġover": 698,
      "ref": 699,
      "10": 700,
      "Ġits": 701,
      "}$": 702,
      "row": 703,
      "ring": 704,
      "Ġ19": 705,
      "Ġsome": 706,
      "Ġsc": 707,
      "ĠâĢľ": 708,
      "ob": 709,
      "clud": 710,
      "rib": 711,
      "ck": 712,
      "fter": 713,
      "ays": 714,
      "ces": 715,
      "</": 716,
      "Ġspe": 717,
      "get": 718,
      "Ġbet": 719,
      "Ġsy": 720,
      "lect": 721,
      "Ġnew": 722,
      "Ġgen": 723,
      "Ġdif": 724,
      "In": 725,
      "fect": 726,
      "ĊĠĠĠĠĠĠĠĠĠĠĠ": 727,
      "old": 728,
      "Ġam": 729,
      "irst": 730,
      "ove": 731,
      "^{": 732,
      "Ġte": 733,
      "ode": 734,
      "hat": 735,
      "ied": 736,
      "Ġinter": 737,
      "vers": 738,
      "Ġfe": 739,
      "ps": 740,
      "Ġsub": 741,
      "Ġget": 742,
      "ild": 743,
      "Ġdef": 744,
      "Ġacc": 745,
      "19": 746,
      "Ġher": 747,
      "Ġoff": 748,
      "Ġkn": 749,
      "ĠY": 750,
      "reat": 751,
      "ause": 752,
      "Ġcomm": 753,
      "Ġact": 754,
      "Ġinto": 755,
      "Ġour": 756,
      "ced": 757,
      "Ġunder": 758,
      "ov": 759,
      "Ġro": 760,
      "iss": 761,
      "Ġcons": 762,
      "ings": 763,
      "ink": 764,
      "Ġpe": 765,
      "ĠIt": 766,
      "##": 767,
      "Ġdes": 768,
      "Ġrel": 769,
      "Ġmay": 770,
      "ma": 771,
      "========": 772,
      "ual": 773,
      "Ġrec": 774,
      "12": 775,
      "ick": 776,
      "Ġonly": 777,
      "ative": 778,
      "Ġtwo": 779,
      "ari": 780,
      "pon": 781,
      "Ġsaid": 782,
      "Ġthem": 783,
      "Ġval": 784,
      "ert": 785,
      "iew": 786,
      "pect": 787,
      "Ġyear": 788,
      "Ġwork": 789,
      "Ġstud": 790,
      "Ġbec": 791,
      "Ġwhat": 792,
      "ular": 793,
      "Ġlike": 794,
      "Ġadd": 795,
      "Ġind": 796,
      "Ġ7": 797,
      "hed": 798,
      "Ġret": 799,
      "ark": 800,
      "Ġmod": 801,
      "igh": 802,
      "Ġreg": 803,
      "Ġpos": 804,
      "ĠCh": 805,
      "Ġtrans": 806,
      "pro": 807,
      "unction": 808,
      "Ġinv": 809,
      "elf": 810,
      "ĠThis": 811,
      "cess": 812,
      "oint": 813,
      "Ġem": 814,
      "Ġbl": 815,
      "Ġuse": 816,
      "ock": 817,
      "stem": 818,
      "Ġco": 819,
      "itt": 820,
      "ish": 821,
      "Ġfirst": 822,
      "Ġsuch": 823,
      "ased": 824,
      "ating": 825,
      "Ġjust": 826,
      "Ġ201": 827,
      "ex": 828,
      "ont": 829,
      "Ġpr": 830,
      "ef": 831,
      "Ġph": 832,
      "Ġ8": 833,
      "ĠWe": 834,
      "Ġpres": 835,
      "Ġform": 836,
      "Ġthese": 837,
      "ian": 838,
      "\",": 839,
      "ments": 840,
      "ade": 841,
      "Ġprov": 842,
      "ient": 843,
      "Ġdiffere": 844,
      "Ġwhere": 845,
      "ility": 846,
      "ĊĠĠĠĠĠ": 847,
      "11": 848,
      "Ġcol": 849,
      "}\\": 850,
      "ĠHe": 851,
      "Ġpat": 852,
      "Ġshe": 853,
      "Ġafter": 854,
      "Ġdet": 855,
      "Ġsign": 856,
      "rac": 857,
      "ize": 858,
      "Ġpol": 859,
      "Ċĉĉ": 860,
      "ident": 861,
      "aw": 862,
      "Ġhow": 863,
      "ec": 864,
      "Ġ10": 865,
      "ood": 866,
      "ween": 867,
      "oth": 868,
      "Ġneed": 869,
      "__": 870,
      "der": 871,
      "ss": 872,
      "ffect": 873,
      "olog": 874,
      "ople": 875,
      "the": 876,
      "Ġexp": 877,
      "gr": 878,
      "Ġset": 879,
      "type": 880,
      "ption": 881,
      "Ġthen": 882,
      "Ġcould": 883,
      "ublic": 884,
      "ution": 885,
      "ange": 886,
      "Ġclass": 887,
      "ĊĠĠĠĠĠĠĠĠĠĠĠĠĠĠĠ": 888,
      "Ġ9": 889,
      "](": 890,
      "()": 891,
      "Ġresult": 892,
      "Ġatt": 893,
      "St": 894,
      "Ġbetween": 895,
      "Ġcell": 896,
      "ough": 897,
      "Ġrem": 898,
      "fig": 899,
      "ise": 900,
      "000": 901,
      "right": 902,
      "ious": 903,
      "Ġ\\[": 904,
      "Ġsupp": 905,
      "les": 906,
      "ollow": 907,
      "20": 908,
      ".,": 909,
      "ix": 910,
      "eg": 911,
      "ble": 912,
      "ype": 913,
      "Ċĉ": 914,
      "Ġgrou": 915,
      "Ġ|": 916,
      "up": 917,
      "Ġinclud": 918,
      "Ġused": 919,
      "ible": 920,
      "ax": 921,
      "iel": 922,
      "ER": 923,
      "als": 924,
      "Ġdid": 925,
      "ourt": 926,
      "Ġdata": 927,
      "Ġnum": 928,
      "Ġshow": 929,
      "ues": 930,
      "ons": 931,
      "Ġknow": 932,
      "Ġfl": 933,
      "oy": 934,
      "){": 935,
      "cy": 936,
      "Ġfact": 937,
      "\">": 938,
      "Ġpeople": 939,
      "ract": 940,
      "tern": 941,
      "ull": 942,
      "Ġshould": 943,
      "ics": 944,
      "ox": 945,
      "rough": 946,
      "ning": 947,
      "Ġac": 948,
      "Ġcor": 949,
      "Ġsim": 950,
      "Ġhim": 951,
      "Ġsur": 952,
      "ms": 953,
      "Ġspec": 954,
      "its": 955,
      "hen": 956,
      "****": 957,
      "Ġrequ": 958,
      "Ġfollow": 959,
      "fore": 960,
      "Ġusing": 961,
      "Ġdist": 962,
      "ren": 963,
      "inal": 964,
      "ruct": 965,
      "Ġi": 966,
      "Ġsee": 967,
      "Ġback": 968,
      "Ġbecause": 969,
      "sp": 970,
      "Ġfunction": 971,
      "Ġconst": 972,
      "ined": 973,
      "ield": 974,
      "ful": 975,
      "Ġsystem": 976,
      "ities": 977,
      "Ġmost": 978,
      ")$": 979,
      "li": 980,
      "ever": 981,
      "Ġinst": 982,
      "IN": 983,
      "rit": 984,
      "15": 985,
      "--------------------------------": 986,
      "ĊĠĠĠĠĠĠĠĠĠĠĠĠĠĠĠĠ": 987,
      "ool": 988,
      "pos": 989,
      "Ġ.": 990,
      "put": 991,
      "13": 992,
      "ited": 993,
      "Ġend": 994,
      "Ġsm": 995,
      "sc": 996,
      "uring": 997,
      "ures": 998,
      "Ġwell": 999,
      "ins": 1000,
      "16": 1001,
      "\"}": 1002,
      "Ġreturn": 1003,
      "Ġthrough": 1004,
      "Ġprodu": 1005,
      "Ġtest": 1006,
      "Ġright": 1007,
      "Ġtra": 1008,
      "Ġgener": 1009,
      "Ġ[@": 1010,
      "(\\": 1011,
      "ĠUn": 1012,
      "Ġbu": 1013,
      "]{": 1014,
      "Ġagain": 1015,
      "Ġext": 1016,
      "Ġchar": 1017,
      "14": 1018,
      "Ġwant": 1019,
      "hes": 1020,
      "mer": 1021,
      "Ġhigh": 1022,
      "Ġdifferent": 1023,
      "Ġeach": 1024,
      "err": 1025,
      "ized": 1026,
      "ational": 1027,
      "to": 1028,
      "ĠĠĠĠĠ": 1029,
      "ower": 1030,
      "Ġcase": 1031,
      "->": 1032,
      "round": 1033,
      "cond": 1034,
      "Ġstate": 1035,
      "Ġdoes": 1036,
      "imes": 1037,
      "ator": 1038,
      "Ġent": 1039,
      "Ġeffect": 1040,
      "text": 1041,
      "ically": 1042,
      "wn": 1043,
      "io": 1044,
      "ric": 1045,
      "Th": 1046,
      "],": 1047,
      "ĠSe": 1048,
      "25": 1049,
      "ON": 1050,
      "ew": 1051,
      "uch": 1052,
      "other": 1053,
      "ta": 1054,
      "nce": 1055,
      "Ġeven": 1056,
      "riv": 1057,
      "ily": 1058,
      "Ġ200": 1059,
      "Ġmake": 1060,
      "ctions": 1061,
      "par": 1062,
      "cal": 1063,
      "ients": 1064,
      "set": 1065,
      "Ġmin": 1066,
      "ork": 1067,
      "let": 1068,
      "_{\\": 1069,
      "vent": 1070,
      "Ġ@": 1071,
      "rol": 1072,
      "Ġ:": 1073,
      "...": 1074,
      "Ġevery": 1075,
      "uc": 1076,
      "))": 1077,
      "18": 1078,
      "ethod": 1079,
      "Ġke": 1080,
      "Ġcur": 1081,
      "Ġra": 1082,
      "ute": 1083,
      "read": 1084,
      "Ġsame": 1085,
      "Ġcall": 1086,
      "ants": 1087,
      "frac": 1088,
      "ars": 1089,
      "Ġway": 1090,
      "Ġnow": 1091,
      "ger": 1092,
      "Ġanal": 1093,
      "Ġap": 1094,
      "cept": 1095,
      "Ġfind": 1096,
      "Ġdec": 1097,
      "ince": 1098,
      "val": 1099,
      "Ġ/": 1100,
      "Ġdon": 1101,
      "\":": 1102,
      "Ġincre": 1103,
      "aint": 1104,
      "arch": 1105,
      "](#": 1106,
      "Ġpoint": 1107,
      "oci": 1108,
      "ĠĠĠĠĠĠĠĠĠĠĠĠĠĠĠĠĠĠĠĠĠĠĠĠĠĠĠĠĠĠĠĠĠĠĠĠĠĠĠĠĠĠĠĠĠĠĠĠĠĠĠĠĠĠĠĠĠĠĠĠĠĠĠĠ": 1109,
      "Ġlook": 1110,
      "oid": 1111,
      "17": 1112,
      "Ġthose": 1113,
      "str": 1114,
      "ward": 1115,
      "velop": 1116,
      "Ġinte": 1117,
      "Ġlong": 1118,
      "Ġyears": 1119,
      "Ġvery": 1120,
      "Ġ_": 1121,
      "Ġdi": 1122,
      "ug": 1123,
      "ason": 1124,
      "ym": 1125,
      "Ġpartic": 1126,
      "Ġloc": 1127,
      "pr": 1128,
      "ense": 1129,
      "Ġboth": 1130,
      "Ġvari": 1131,
      "Ġhere": 1132,
      "ases": 1133,
      "und": 1134,
      "Ġmon": 1135,
      "rm": 1136,
      "day": 1137,
      "ines": 1138,
      "cent": 1139,
      "rent": 1140,
      "irect": 1141,
      "AT": 1142,
      "rest": 1143,
      "Ġaut": 1144,
      "Ġmat": 1145,
      "ample": 1146,
      "Ġfound": 1147,
      "Ġ//": 1148,
      "Ġbel": 1149,
      "Ġbeing": 1150,
      "atic": 1151,
      "ting": 1152,
      "air": 1153,
      "yp": 1154,
      "Ġtri": 1155,
      "$\\": 1156,
      "Ġmed": 1157,
      "Ġexper": 1158,
      "led": 1159,
      "?\"": 1160,
      "Ġappro": 1161,
      "Ġpers": 1162,
      "Ġpar": 1163,
      "::": 1164,
      "ages": 1165,
      "Ġmany": 1166,
      "Ġplay": 1167,
      "Ġbefore": 1168,
      "ife": 1169,
      "]{}": 1170,
      "32": 1171,
      "ng": 1172,
      "ices": 1173,
      "ĠCom": 1174,
      "It": 1175,
      "ared": 1176,
      "alth": 1177,
      "Ġnumber": 1178,
      "Ġfil": 1179,
      "]\\]": 1180,
      "ĠQ": 1181,
      "over": 1182,
      "Ġmem": 1183,
      "âĢī": 1184,
      "Ġgr": 1185,
      "Ġ**": 1186,
      "Ġprote": 1187,
      "tr": 1188,
      "Ġser": 1189,
      "ature": 1190,
      "50": 1191,
      "30": 1192,
      "app": 1193,
      "Ġx": 1194,
      "cer": 1195,
      "Ġel": 1196,
      "Ġcar": 1197,
      "Ġpublic": 1198,
      "ES": 1199,
      "ified": 1200,
      "AR": 1201,
      "aking": 1202,
      "Ġop": 1203,
      "sh": 1204,
      "of": 1205,
      "min": 1206,
      "Ġrespon": 1207,
      "}{": 1208,
      "ateg": 1209,
      "left": 1210,
      "ody": 1211,
      "ner": 1212,
      "Ġgu": 1213,
      "Ġthink": 1214,
      "Ġhel": 1215,
      "formation": 1216,
      "Ġche": 1217,
      "ĠĠĠĠĠĠ": 1218,
      "Ġins": 1219,
      "Ġstr": 1220,
      "eng": 1221,
      "ression": 1222,
      "Ġgood": 1223,
      "We": 1224,
      "ale": 1225,
      "ĊĊĠĠĠ": 1226,
      "Ġ12": 1227,
      "Ġprocess": 1228,
      "ave": 1229,
      "yl": 1230,
      "ash": 1231,
      "Ġdown": 1232,
      "Ġinf": 1233,
      "Ġrep": 1234,
      "upp": 1235,
      "Ġmodel": 1236,
      "ĠFor": 1237,
      "ank": 1238,
      "Ġmade": 1239,
      "Ġvalue": 1240,
      "Ġreport": 1241,
      "ĠâĢĵ": 1242,
      "ively": 1243,
      "Ġcourt": 1244,
      "ism": 1245,
      "ness": 1246,
      "ually": 1247,
      "line": 1248,
      "ven": 1249,
      "Ġ\\[[@": 1250,
      "Ġwhile": 1251,
      "Ġlevel": 1252,
      "ired": 1253,
      "view": 1254,
      "Ġgiv": 1255,
      "Ġstudy": 1256,
      "://": 1257,
      "Ġsol": 1258,
      "mathb": 1259,
      "gg": 1260,
      "NA": 1261,
      "Ġpresent": 1262,
      "ved": 1263,
      "Ġdevelop": 1264,
      "24": 1265,
      "',": 1266,
      "mon": 1267,
      "Ġstart": 1268,
      "ument": 1269,
      "ĠLet": 1270,
      "201": 1271,
      "way": 1272,
      "ained": 1273,
      "Ġlar": 1274,
      "Ġsupport": 1275,
      "OR": 1276,
      ",\\": 1277,
      "ght": 1278,
      "dition": 1279,
      "Ġref": 1280,
      "Ġcount": 1281,
      "---": 1282,
      "Ġdisc": 1283,
      "Ġsecond": 1284,
      "CR": 1285,
      "Ġmuch": 1286,
      "ret": 1287,
      "$,": 1288,
      "Ġequ": 1289,
      "ĠÂ": 1290,
      "cul": 1291,
      "Ġown": 1292,
      "ams": 1293,
      ".âĢĿ": 1294,
      "erg": 1295,
      "ision": 1296,
      "Ġhand": 1297,
      "ĠPro": 1298,
      "ĠRe": 1299,
      "ole": 1300,
      "Ġserv": 1301,
      "0000": 1302,
      "Ġterm": 1303,
      "igned": 1304,
      "Ġthree": 1305,
      "man": 1306,
      "(\"": 1307,
      "ization": 1308,
      "Ġread": 1309,
      "ĠIf": 1310,
      "Ġnon": 1311,
      "ĠAl": 1312,
      "ray": 1313,
      "Ġpatients": 1314,
      "Ġest": 1315,
      "ider": 1316,
      "lement": 1317,
      "$.": 1318,
      "gan": 1319,
      "ality": 1320,
      "ffic": 1321,
      "Ġdep": 1322,
      "oad": 1323,
      "Ġet": 1324,
      "use": 1325,
      "Ġmethod": 1326,
      "Ġposs": 1327,
      "uss": 1328,
      "Ġwithout": 1329,
      "Ġant": 1330,
      "Ġduring": 1331,
      "Ġorder": 1332,
      "amp": 1333,
      "Ġcells": 1334,
      "abel": 1335,
      "oun": 1336,
      "ency": 1337,
      "ential": 1338,
      "ĠAs": 1339,
      "cri": 1340,
      ",\"": 1341,
      "Ġname": 1342,
      "ton": 1343,
      "any": 1344,
      "med": 1345,
      "What": 1346,
      "80": 1347,
      "eta": 1348,
      "arly": 1349,
      "Ġ20": 1350,
      "ource": 1351,
      "ĠAnd": 1352,
      "Ġactiv": 1353,
      "Ġhelp": 1354,
      "Ġcre": 1355,
      "not": 1356,
      "Ġline": 1357,
      "ided": 1358,
      "EN": 1359,
      "ists": 1360,
      "idence": 1361,
      "ify": 1362,
      "Ġgroup": 1363,
      "amb": 1364,
      "Ġimport": 1365,
      "Ġproper": 1366,
      "Re": 1367,
      "Ġperform": 1368,
      "ĠHow": 1369,
      "name": 1370,
      "tt": 1371,
      "ST": 1372,
      "22": 1373,
      "cial": 1374,
      "IT": 1375,
      "ah": 1376,
      "ather": 1377,
      "Ġlast": 1378,
      "be": 1379,
      "ĠAn": 1380,
      "Ġcle": 1381,
      "ability": 1382,
      "40": 1383,
      "Ġproble": 1384,
      "Ġlead": 1385,
      "alk": 1386,
      "ters": 1387,
      "ouse": 1388,
      "Ġav": 1389,
      "Ġsay": 1390,
      "Ġrun": 1391,
      "raph": 1392,
      "ving": 1393,
      "Ġz": 1394,
      "Ġagainst": 1395,
      "ĠBut": 1396,
      "ww": 1397,
      "99": 1398,
      "Ġsmall": 1399,
      "ane": 1400,
      "ron": 1401,
      "Ġiss": 1402,
      "Ġgl": 1403,
      "ulation": 1404,
      "Ġoper": 1405,
      "ames": 1406,
      "Ġsignific": 1407,
      "(-": 1408,
      "Ġlet": 1409,
      "Ġconf": 1410,
      "Ġmust": 1411,
      "23": 1412,
      "ross": 1413,
      "Ġtake": 1414,
      "hip": 1415,
      "Ġtype": 1416,
      "\\[": 1417,
      "Ġstill": 1418,
      "Ġcontrol": 1419,
      "aim": 1420,
      "acter": 1421,
      "Ġchild": 1422,
      "Ġperson": 1423,
      "ann": 1424,
      "Ġlaw": 1425,
      "ots": 1426,
      "itive": 1427,
      "ml": 1428,
      "Ġpur": 1429,
      "Ġappe": 1430,
      "ĠYou": 1431,
      "Ġmet": 1432,
      "Con": 1433,
      "Ġsom": 1434,
      "ention": 1435,
      "Ġexpl": 1436,
      "Let": 1437,
      "oh": 1438,
      "Ġ15": 1439,
      "irc": 1440,
      "pha": 1441,
      "Ġinformation": 1442,
      "rt": 1443,
      "Ġ,": 1444,
      "();": 1445,
      "Ġdirect": 1446,
      "Ġday": 1447,
      "ysis": 1448,
      "serv": 1449,
      "He": 1450,
      "ek": 1451,
      "ier": 1452,
      "Ġcent": 1453,
      "ds": 1454,
      "33": 1455,
      "Ġinc": 1456,
      "AL": 1457,
      "Fig": 1458,
      "ÃĲ": 1459,
      "âĢľ": 1460,
      "Ġfin": 1461,
      "AN": 1462,
      "urther": 1463,
      "Ġed": 1464,
      "Ġquest": 1465,
      "atch": 1466,
      "chn": 1467,
      "less": 1468,
      "me": 1469,
      "yn": 1470,
      "ination": 1471,
      "64": 1472,
      "].": 1473,
      "ology": 1474,
      "Ġpost": 1475,
      "Ġfam": 1476,
      "Ġtreat": 1477,
      "60": 1478,
      "mathcal": 1479,
      "ides": 1480,
      "Ġresults": 1481,
      "Ex": 1482,
      "Ġident": 1483,
      "Ġstand": 1484,
      "vious": 1485,
      "Ġmeas": 1486,
      "ĊĠĠ": 1487,
      ")\\": 1488,
      "ote": 1489,
      "Ġsignificant": 1490,
      "200": 1491,
      "ets": 1492,
      "Ġelect": 1493,
      "Ġca": 1494,
      "oot": 1495,
      "ience": 1496,
      "ission": 1497,
      "da": 1498,
      "Ġfollowing": 1499,
      "This": 1500,
      "for": 1501,
      "Ġerr": 1502,
      "htt": 1503,
      "agn": 1504,
      "Ġbre": 1505,
      "Pro": 1506,
      "Ġmult": 1507,
      "ium": 1508,
      "work": 1509,
      "eral": 1510,
      "ital": 1511,
      "Ġ18": 1512,
      "duct": 1513,
      "ration": 1514,
      "ĠNew": 1515,
      "Ġdeterm": 1516,
      "ately": 1517,
      "land": 1518,
      "ral": 1519,
      "Ġgoing": 1520,
      "Ġallow": 1521,
      "ĠTr": 1522,
      "ording": 1523,
      "aj": 1524,
      "meric": 1525,
      "27": 1526,
      "Ġcontin": 1527,
      "ĠDe": 1528,
      "ains": 1529,
      "Ġlim": 1530,
      "Ġcondition": 1531,
      "ior": 1532,
      "ished": 1533,
      "ploy": 1534,
      "================": 1535,
      "}(": 1536,
      "aterial": 1537,
      "ured": 1538,
      "Ġcare": 1539,
      "Ġfr": 1540,
      "Ġwithin": 1541,
      "Ġ*/": 1542,
      "CT": 1543,
      "iff": 1544,
      "ural": 1545,
      "ule": 1546,
      "son": 1547,
      "Ġsince": 1548,
      "Ġreal": 1549,
      "Ġlife": 1550,
      "Ġaround": 1551,
      "Ġrece": 1552,
      "âĢĵ": 1553,
      "bl": 1554,
      "Ġstat": 1555,
      "ional": 1556,
      "Ġwr": 1557,
      "'m": 1558,
      "Ġworld": 1559,
      "Ġhum": 1560,
      "def": 1561,
      "ivers": 1562,
      "Ġredu": 1563,
      "Ġcurrent": 1564,
      "Ġdev": 1565,
      "az": 1566,
      "Ġinterest": 1567,
      "ackage": 1568,
      "Ã©": 1569,
      "35": 1570,
      "ĠX": 1571,
      "gen": 1572,
      "28": 1573,
      "alpha": 1574,
      "Ġaddition": 1575,
      "Ġhealth": 1576,
      "que": 1577,
      "Ġstruct": 1578,
      "ently": 1579,
      "ĠWh": 1580,
      "Ġgover": 1581,
      "ID": 1582,
      "ived": 1583,
      "chool": 1584,
      "SE": 1585,
      "Ġanother": 1586,
      "akes": 1587,
      "Ġ#": 1588,
      "ond": 1589,
      "Ġpass": 1590,
      "Ġmark": 1591,
      ",âĢĿ": 1592,
      "34": 1593,
      "self": 1594,
      "Ġinvest": 1595,
      "ott": 1596,
      "resent": 1597,
      "Ġ14": 1598,
      "Ġopen": 1599,
      "Ġtry": 1600,
      "crib": 1601,
      "arent": 1602,
      "lex": 1603,
      "Ġcr": 1604,
      "Ġ</": 1605,
      "Ġarg": 1606,
      "âĢĶ": 1607,
      "br": 1608,
      "Ġself": 1609,
      "ts": 1610,
      "Ġfield": 1611,
      "Ġgreat": 1612,
      "amet": 1613,
      "Ġdel": 1614,
      "Ġcommun": 1615,
      "bers": 1616,
      "Ġlist": 1617,
      "Ġexample": 1618,
      "####": 1619,
      "ives": 1620,
      "arg": 1621,
      "Ġimp": 1622,
      "ves": 1623,
      "You": 1624,
      "Ġpower": 1625,
      "ither": 1626,
      "gram": 1627,
      "rel": 1628,
      "dd": 1629,
      "Ġincluding": 1630,
      "]\\].": 1631,
      "37": 1632,
      "********": 1633,
      "ĠZ": 1634,
      "ĊĊĠ": 1635,
      "ways": 1636,
      "Ġocc": 1637,
      "LE": 1638,
      "face": 1639,
      "Ġtoo": 1640,
      "Ġmean": 1641,
      "sec": 1642,
      "ething": 1643,
      "Ġbeh": 1644,
      "Ġclaim": 1645,
      "Ġmight": 1646,
      "Ġsl": 1647,
      "Ġgiven": 1648,
      "ury": 1649,
      "Ġhead": 1650,
      "ĠCon": 1651,
      "Ġrespect": 1652,
      "Ġtem": 1653,
      "here": 1654,
      "arn": 1655,
      "05": 1656,
      "ribut": 1657,
      "Ġbas": 1658,
      "26": 1659,
      "Ġart": 1660,
      "ably": 1661,
      "arget": 1662,
      "ĠCl": 1663,
      "Ġreally": 1664,
      "^{\\": 1665,
      "ĠIs": 1666,
      "ĠSh": 1667,
      "Ġchang": 1668,
      "Ġgovern": 1669,
      "Ġassoci": 1670,
      "29": 1671,
      "Ġplace": 1672,
      "ope": 1673,
      "Ġ16": 1674,
      "Ch": 1675,
      "ump": 1676,
      "lection": 1677,
      "iness": 1678,
      "ĠHowever": 1679,
      "Ġless": 1680,
      "ining": 1681,
      "arm": 1682,
      "hor": 1683,
      "ĠAmeric": 1684,
      "Ġpot": 1685,
      "ĠThey": 1686,
      "stand": 1687,
      "Ġ{#": 1688,
      "lease": 1689,
      "Ġadv": 1690,
      "ought": 1691,
      "Ġhig": 1692,
      "ength": 1693,
      "RE": 1694,
      "Ġfile": 1695,
      "Ġ$$\\": 1696,
      "yt": 1697,
      "Ġlow": 1698,
      "Ġhapp": 1699,
      "ends": 1700,
      "38": 1701,
      "ference": 1702,
      "fer": 1703,
      "roll": 1704,
      "Ġhome": 1705,
      "Ġbased": 1706,
      "Ġ--": 1707,
      "Ġvis": 1708,
      "Ġmonth": 1709,
      "ety": 1710,
      "Ġapplic": 1711,
      "Ġtop": 1712,
      "ery": 1713,
      "ãģ": 1714,
      "36": 1715,
      "ategory": 1716,
      "icro": 1717,
      "aining": 1718,
      "Ġcap": 1719,
      "ivid": 1720,
      "ault": 1721,
      "'re": 1722,
      "Ġwom": 1723,
      "alse": 1724,
      "rap": 1725,
      "reg": 1726,
      "vert": 1727,
      "Ġve": 1728,
      "thing": 1729,
      "Ġfew": 1730,
      "Ġobject": 1731,
      "Ġgrow": 1732,
      "ocument": 1733,
      "Ġprob": 1734,
      "att": 1735,
      "Ġbus": 1736,
      "Ġcal": 1737,
      "elta": 1738,
      "ĠĠĠĠĠĠĠĠĠĠĠĠĠĠĠĠĠĠĠĠĠĠĠĠ": 1739,
      "21": 1740,
      "ĠNo": 1741,
      "Ġbest": 1742,
      "Ġanalysis": 1743,
      "('": 1744,
      "Ġindic": 1745,
      "Ġsing": 1746,
      "Ġpop": 1747,
      "ittle": 1748,
      "osed": 1749,
      "Ġobserv": 1750,
      "Ġmot": 1751,
      "Ġnext": 1752,
      "ĠâĢĶ": 1753,
      "âĪ": 1754,
      "leg": 1755,
      "IC": 1756,
      "Ġimportant": 1757,
      "by": 1758,
      "Ġtechn": 1759,
      "75": 1760,
      "ised": 1761,
      "AS": 1762,
      "mb": 1763,
      "Ġevidence": 1764,
      "Ġsomething": 1765,
      "els": 1766,
      "oss": 1767,
      "Ġpath": 1768,
      "ambda": 1769,
      "Ġleft": 1770,
      "Ġobt": 1771,
      "Cl": 1772,
      "ext": 1773,
      "45": 1774,
      "Ġfour": 1775,
      "Ġwhether": 1776,
      "Ġopt": 1777,
      "$$": 1778,
      "Ġcommon": 1779,
      "bs": 1780,
      "Ġproduct": 1781,
      "Ġchange": 1782,
      "requ": 1783,
      "90": 1784,
      "che": 1785,
      "cur": 1786,
      "ĠPh": 1787,
      "abl": 1788,
      "Ġbo": 1789,
      "Ġput": 1790,
      "Ġbelie": 1791,
      "inf": 1792,
      "ĠLe": 1793,
      "ertain": 1794,
      "Ġleg": 1795,
      "plic": 1796,
      "Ġsugg": 1797,
      "cing": 1798,
      "Ġsuggest": 1799,
      "ik": 1800,
      "ware": 1801,
      "95": 1802,
      "Ġview": 1803,
      "Ġseem": 1804,
      "ĠThere": 1805,
      "ification": 1806,
      "Ġfail": 1807,
      "Ġexpect": 1808,
      "Ġparticular": 1809,
      "ĠInd": 1810,
      "Ġprof": 1811,
      "used": 1812,
      "ĠWhat": 1813,
      "label": 1814,
      "Ġ30": 1815,
      "AC": 1816,
      "por": 1817,
      "hib": 1818,
      "amma": 1819,
      ")/": 1820,
      "Ġnever": 1821,
      "add": 1822,
      "ccess": 1823,
      "action": 1824,
      "mun": 1825,
      "Ġlight": 1826,
      "70": 1827,
      "col": 1828,
      "opy": 1829,
      "cont": 1830,
      "version": 1831,
      "},": 1832,
      "ĠEx": 1833,
      "Com": 1834,
      "Ġunt": 1835,
      "Ġinvol": 1836,
      "div": 1837,
      "rop": 1838,
      "Ġdescrib": 1839,
      "Ġconne": 1840,
      "Ġask": 1841,
      "Ġbetter": 1842,
      "ples": 1843,
      "Ġturn": 1844,
      "mu": 1845,
      "Ġsit": 1846,
      "Ġabove": 1847,
      "lu": 1848,
      "new": 1849,
      "ĠSo": 1850,
      "Ġlarge": 1851,
      "To": 1852,
      "Ġwater": 1853,
      "ended": 1854,
      "ene": 1855,
      "mathbb": 1856,
      "Ġ11": 1857,
      "part": 1858,
      "ending": 1859,
      "ered": 1860,
      "Ġproblem": 1861,
      "Ġbi": 1862,
      "Ġsk": 1863,
      "Ġtrue": 1864,
      "Ġreason": 1865,
      "As": 1866,
      "ilar": 1867,
      "co": 1868,
      "ird": 1869,
      "Ġrese": 1870,
      "egin": 1871,
      "Ġ{\\": 1872,
      "ormal": 1873,
      "ĠPl": 1874,
      "Ġeas": 1875,
      "orn": 1876,
      "IS": 1877,
      "ser": 1878,
      "Name": 1879,
      "igma": 1880,
      "Ġconsider": 1881,
      "pi": 1882,
      "ats": 1883,
      "Ġtreatment": 1884,
      "Ġleast": 1885,
      "Ġlittle": 1886,
      "Ġsize": 1887,
      "ED": 1888,
      "Ġpossible": 1889,
      "ĠShe": 1890,
      "ailable": 1891,
      "Ġgot": 1892,
      "ĠAll": 1893,
      "Ġlocal": 1894,
      "}_": 1895,
      "48": 1896,
      "ask": 1897,
      "ho": 1898,
      "Ġposition": 1899,
      "Ġcome": 1900,
      "Ġthings": 1901,
      "}^{": 1902,
      "Ġtot": 1903,
      "!\"": 1904,
      "=\\": 1905,
      "Ġris": 1906,
      "ĊĠĠĠĠĠĠĠĠĠ": 1907,
      "Ġdue": 1908,
      "Ġopp": 1909,
      "Ġbuild": 1910,
      "Ġpay": 1911,
      "Ġmov": 1912,
      "Ġimpro": 1913,
      "Ġcharacter": 1914,
      "____": 1915,
      "ividual": 1916,
      "Ġtyp": 1917,
      "rain": 1918,
      "Ġide": 1919,
      "ĠUS": 1920,
      "Ġrepresent": 1921,
      "back": 1922,
      "Ġ==": 1923,
      "illion": 1924,
      "Ġinit": 1925,
      "epend": 1926,
      "39": 1927,
      "ina": 1928,
      "Ġfree": 1929,
      "package": 1930,
      "Ġhy": 1931,
      "HE": 1932,
      "ush": 1933,
      "Ġrest": 1934,
      "data": 1935,
      "iron": 1936,
      "play": 1937,
      "):": 1938,
      "icle": 1939,
      "Ġ17": 1940,
      "aring": 1941,
      "Ġelse": 1942,
      "Ġold": 1943,
      "ajor": 1944,
      "ances": 1945,
      "Ġbig": 1946,
      "Ġquestion": 1947,
      "ĠTo": 1948,
      "idth": 1949,
      "Ġdefend": 1950,
      "Ġsever": 1951,
      "nal": 1952,
      "čĊ": 1953,
      "iod": 1954,
      "Ġhaving": 1955,
      "Ġdays": 1956,
      "Ġshown": 1957,
      "Ġoffic": 1958,
      "Ġgive": 1959,
      "ĠOn": 1960,
      "Ġhuman": 1961,
      "Ġrecord": 1962,
      "ological": 1963,
      "Ġfurther": 1964,
      "sum": 1965,
      "imal": 1966,
      "Ġbr": 1967,
      "Ġorgan": 1968,
      "begin": 1969,
      "aps": 1970,
      "Ġbro": 1971,
      "Ġgame": 1972,
      "Ġes": 1973,
      "];": 1974,
      "Ġtrial": 1975,
      "Ġgre": 1976,
      "}_{": 1977,
      "Ġprom": 1978,
      "Ġ25": 1979,
      "org": 1980,
      "Ġgovernment": 1981,
      "ĠApp": 1982,
      "Ġnet": 1983,
      "mod": 1984,
      "Ġprogram": 1985,
      "ergy": 1986,
      "Ġhist": 1987,
      "Ġweek": 1988,
      "Ġsum": 1989,
      "âĪĴ": 1990,
      "Ġemploy": 1991,
      "ĠState": 1992,
      "Ġcode": 1993,
      "atory": 1994,
      "ctor": 1995,
      "ĊĠĠĠĠĠĠĠĠĠĠĠĠĠĠĠĠĠĠĠ": 1996,
      "Ġprevious": 1997,
      "ream": 1998,
      "Se": 1999,
      "44": 2000,
      "etic": 2001,
      "bar": 2002,
      "Ġkeep": 2003,
      "65": 2004,
      "ns": 2005,
      "If": 2006,
      "ead": 2007,
      "Ġjud": 2008,
      "aut": 2009,
      "Ġexpression": 2010,
      "Ġhard": 2011,
      "Ġindividual": 2012,
      "Ġfeel": 2013,
      "Ġden": 2014,
      "Ġprovide": 2015,
      "Ġpa": 2016,
      "Ġcost": 2017,
      "Id": 2018,
      "Ġalways": 2019,
      "88": 2020,
      "itor": 2021,
      "Type": 2022,
      "Ġmain": 2023,
      "AP": 2024,
      "sel": 2025,
      "Ġ)": 2026,
      "inc": 2027,
      "Ġpotential": 2028,
      "Ġeither": 2029,
      "ĠAd": 2030,
      "ern": 2031,
      "Ġsw": 2032,
      "Ġknown": 2033,
      "Ġcalled": 2034,
      "Ġpriv": 2035,
      "uro": 2036,
      "RO": 2037,
      "Ġrad": 2038,
      "angle": 2039,
      "Ġdiv": 2040,
      "Ġ!": 2041,
      "But": 2042,
      "Ġsimilar": 2043,
      "Ġschool": 2044,
      "ĠThese": 2045,
      "Ġpred": 2046,
      "Ġcho": 2047,
      "ours": 2048,
      "iple": 2049,
      "usion": 2050,
      "ĠCourt": 2051,
      "Ġuntil": 2052,
      "Ġavailable": 2053,
      "ĠUnited": 2054,
      "Ġfamily": 2055,
      "phi": 2056,
      "Ġcomb": 2057,
      "though": 2058,
      "Ġwon": 2059,
      "Ġgeneral": 2060,
      "uck": 2061,
      "lev": 2062,
      "ception": 2063,
      "itle": 2064,
      "opt": 2065,
      "ocial": 2066,
      "Ġside": 2067,
      "raw": 2068,
      "Ġsingle": 2069,
      "clude": 2070,
      "Category": 2071,
      "Ġvol": 2072,
      "Ġfac": 2073,
      "uff": 2074,
      "ental": 2075,
      "Ġben": 2076,
      "LL": 2077,
      "aligned": 2078,
      "Ġteam": 2079,
      "Ġdise": 2080,
      "ĊĊĠĠĠĠĠĠĠ": 2081,
      "Ġmeans": 2082,
      "}$$": 2083,
      "Ġaction": 2084,
      "class": 2085,
      "ĠRes": 2086,
      "ready": 2087,
      "oney": 2088,
      "And": 2089,
      "Ġlik": 2090,
      "Ġspecific": 2091,
      "yle": 2092,
      "Ġproject": 2093,
      "Ġ13": 2094,
      "Ġphys": 2095,
      "ĠFr": 2096,
      "66": 2097,
      "Ġvalues": 2098,
      "Ġplan": 2099,
      "Ġ%": 2100,
      "var": 2101,
      "oor": 2102,
      "For": 2103,
      "Ġcases": 2104,
      "Ġable": 2105,
      "ten": 2106,
      "ison": 2107,
      "Ġchildren": 2108,
      "mit": 2109,
      "Ġsequ": 2110,
      "import": 2111,
      "Ġmajor": 2112,
      "Ġtimes": 2113,
      "itted": 2114,
      "98": 2115,
      "Ġseveral": 2116,
      "Ġmaterial": 2117,
      "Ġcirc": 2118,
      "pone": 2119,
      "ĠCol": 2120,
      "ourse": 2121,
      "ries": 2122,
      "roup": 2123,
      "Ġorig": 2124,
      "Ġhold": 2125,
      "oper": 2126,
      "Ġunderstand": 2127,
      "String": 2128,
      "iversity": 2129,
      "osp": 2130,
      "Ġder": 2131,
      "cript": 2132,
      "Ġsuper": 2133,
      "Ġhigher": 2134,
      "respon": 2135,
      "Ġtre": 2136,
      "usepackage": 2137,
      "Ġkey": 2138,
      "ĠThat": 2139,
      "ember": 2140,
      "ĠĠĠĠĠĠĠĠĠĠĠ": 2141,
      "Ġ100": 2142,
      "lambda": 2143,
      "key": 2144,
      "ressed": 2145,
      "ĠSc": 2146,
      "77": 2147,
      "Ġarea": 2148,
      "100": 2149,
      "essage": 2150,
      "Ġstudies": 2151,
      "Ġabs": 2152,
      "pped": 2153,
      "Ġ>": 2154,
      "indow": 2155,
      "Ġtarget": 2156,
      "Ġbody": 2157,
      "'ve": 2158,
      "rict": 2159,
      "gment": 2160,
      "ney": 2161,
      "cle": 2162,
      "ystem": 2163,
      "http": 2164,
      "this": 2165,
      "iol": 2166,
      "Ġmove": 2167,
      "^{-": 2168,
      "iting": 2169,
      "ored": 2170,
      "94": 2171,
      "Ġ24": 2172,
      "ET": 2173,
      "><": 2174,
      "ION": 2175,
      "Ġfull": 2176,
      "lected": 2177,
      "span": 2178,
      "Ġrate": 2179,
      "Ġperiod": 2180,
      "An": 2181,
      "Ġwhy": 2182,
      "sub": 2183,
      "Ġerror": 2184,
      "96": 2185,
      "idd": 2186,
      "_\\": 2187,
      "conom": 2188,
      "})": 2189,
      "Ġtotal": 2190,
      "Res": 2191,
      "ĠÃ": 2192,
      "Ċĉĉĉ": 2193,
      "Ġstandard": 2194,
      "mm": 2195,
      "ences": 2196,
      "mission": 2197,
      "Ġenergy": 2198,
      "Ċĉĉĉĉ": 2199,
      "04": 2200,
      "Ġbusiness": 2201,
      "}^": 2202,
      "97": 2203,
      "ume": 2204,
      "Ġneg": 2205,
      "Tr": 2206,
      "fficient": 2207,
      "Ġaccess": 2208,
      "eps": 2209,
      "Ġexist": 2210,
      "ustom": 2211,
      "hy": 2212,
      "Ġlater": 2213,
      "rior": 2214,
      "utes": 2215,
      "rug": 2216,
      "Ġlot": 2217,
      "ering": 2218,
      "ids": 2219,
      "ling": 2220,
      "ĠStates": 2221,
      "Ġspace": 2222,
      "Ġfar": 2223,
      "Ġreview": 2224,
      "Ġla": 2225,
      "pm": 2226,
      "ĠAr": 2227,
      "iction": 2228,
      "{{\\": 2229,
      "empt": 2230,
      "Ġsure": 2231,
      "Ġdiff": 2232,
      "string": 2233,
      "Ġprim": 2234,
      "ler": 2235,
      "ift": 2236,
      "time": 2237,
      "Ġ`": 2238,
      "ables": 2239,
      "Ġalready": 2240,
      "aintiff": 2241,
      "Ġfinal": 2242,
      "ged": 2243,
      "Ġdidn": 2244,
      "AD": 2245,
      "ister": 2246,
      "AM": 2247,
      "ibility": 2248,
      "Ġinvestig": 2249,
      "Ġshort": 2250,
      "ĠSp": 2251,
      "55": 2252,
      "Ġdiscuss": 2253,
      "Ġcrit": 2254,
      "ued": 2255,
      "sw": 2256,
      "Ġreported": 2257,
      "ĠAt": 2258,
      "Ġamong": 2259,
      "verage": 2260,
      "go": 2261,
      "Ġassociated": 2262,
      "ĠWhen": 2263,
      "ayer": 2264,
      "qrt": 2265,
      "cription": 2266,
      "Ġmass": 2267,
      "Ġlevels": 2268,
      "urs": 2269,
      "outh": 2270,
      "....": 2271,
      "test": 2272,
      "ĠCal": 2273,
      "OU": 2274,
      "Ġstrong": 2275,
      "ape": 2276,
      "alf": 2277,
      "Ġthought": 2278,
      "olution": 2279,
      "aken": 2280,
      "Ġpract": 2281,
      "Ġresponse": 2282,
      "Ġcertain": 2283,
      "iving": 2284,
      "Ġsent": 2285,
      "FF": 2286,
      "Ġmen": 2287,
      "Ġalong": 2288,
      "chan": 2289,
      "viron": 2290,
      "place": 2291,
      "nces": 2292,
      "ators": 2293,
      "Ġinj": 2294,
      "cd": 2295,
      "Ġparamet": 2296,
      "ivity": 2297,
      "side": 2298,
      "Ġamount": 2299,
      "ava": 2300,
      "////": 2301,
      "31": 2302,
      "Ġsubject": 2303,
      "asing": 2304,
      "Ġrequired": 2305,
      "Ġdone": 2306,
      "Ġwomen": 2307,
      "uppose": 2308,
      "ĠBl": 2309,
      "'ll": 2310,
      "mathbf": 2311,
      "Ġaway": 2312,
      "Ġsays": 2313,
      "Ġexperim": 2314,
      "../": 2315,
      "Ġpercent": 2316,
      "table": 2317,
      "Ġfri": 2318,
      "Ġissue": 2319,
      "List": 2320,
      "Ġ${\\": 2321,
      "Ġpress": 2322,
      "rist": 2323,
      "return": 2324,
      "Ġdom": 2325,
      "sequ": 2326,
      "rect": 2327,
      "ograph": 2328,
      "ey": 2329,
      "Ġid": 2330,
      "85": 2331,
      "Ġdesign": 2332,
      "II": 2333,
      "Val": 2334,
      "td": 2335,
      "Ġoften": 2336,
      "icy": 2337,
      "Ġrequire": 2338,
      "Ġlog": 2339,
      "Ġterms": 2340,
      "uation": 2341,
      "Ġactivity": 2342,
      "ilon": 2343,
      "ogn": 2344,
      "Cont": 2345,
      "IG": 2346,
      "ension": 2347,
      "Ġ=>": 2348,
      "rem": 2349,
      "ands": 2350,
      "Ġ50": 2351,
      "amples": 2352,
      "67": 2353,
      "Ġdevelopment": 2354,
      "ribution": 2355,
      "Ġtell": 2356,
      "ique": 2357,
      "osis": 2358,
      "Ġgroups": 2359,
      "iver": 2360,
      "Ġfore": 2361,
      "Ġport": 2362,
      "Ġhowever": 2363,
      "Ġdr": 2364,
      "orth": 2365,
      "ĠCo": 2366,
      "aster": 2367,
      "Ġage": 2368,
      "Ġwar": 2369,
      "Ġthing": 2370,
      "\")": 2371,
      "Ġevent": 2372,
      "Ġsens": 2373,
      "Ġsuccess": 2374,
      "Ġpolit": 2375,
      "Ġcheck": 2376,
      "lete": 2377,
      "eb": 2378,
      "-\\": 2379,
      "ga": 2380,
      "Ġvir": 2381,
      "stit": 2382,
      "ising": 2383,
      "Ġsal": 2384,
      "></": 2385,
      "beta": 2386,
      "Ġkind": 2387,
      "Ġenough": 2388,
      "Ġcourse": 2389,
      "Ġenc": 2390,
      "Ġaccount": 2391,
      "Ġsat": 2392,
      "acy": 2393,
      "ched": 2394,
      "arrow": 2395,
      "Ġtold": 2396,
      "Ġlower": 2397,
      "fl": 2398,
      "Ġrisk": 2399,
      "ĠĠĠĠĠĠĠĠĠ": 2400,
      "Ġthough": 2401,
      "ources": 2402,
      "ley": 2403,
      "68": 2404,
      "ohn": 2405,
      "Ġcompared": 2406,
      "Ġmicro": 2407,
      "Ġeng": 2408,
      "Ġcoun": 2409,
      "Ġstring": 2410,
      "ories": 2411,
      "Ġfund": 2412,
      "Ġrelations": 2413,
      "----------------------------------------------------------------": 2414,
      "Ġaff": 2415,
      "Ġcou": 2416,
      "date": 2417,
      "ING": 2418,
      "DE": 2419,
      "Is": 2420,
      "Ġbase": 2421,
      "OT": 2422,
      "Ġprovided": 2423,
      "sigma": 2424,
      "Ġmaking": 2425,
      "Ġaccording": 2426,
      "aces": 2427,
      "omet": 2428,
      "Ġinclude": 2429,
      "ores": 2430,
      "angu": 2431,
      "ĠOr": 2432,
      "Ġworking": 2433,
      "Col": 2434,
      "Ġvoid": 2435,
      "Ġnecess": 2436,
      "How": 2437,
      "Ġupon": 2438,
      "gin": 2439,
      "Ġconditions": 2440,
      "pecial": 2441,
      "âĢ¦": 2442,
      "order": 2443,
      "Ġ([": 2444,
      "Ġagree": 2445,
      "Ġrole": 2446,
      "Ġtext": 2447,
      "Ġbit": 2448,
      "Ġfood": 2449,
      "na": 2450,
      "ding": 2451,
      "ival": 2452,
      "AG": 2453,
      "Ġresearch": 2454,
      "ges": 2455,
      "Ġauthor": 2456,
      "Al": 2457,
      "Ġsection": 2458,
      "cret": 2459,
      "Ġuser": 2460,
      "]).": 2461,
      "Ġincrease": 2462,
      "Ġrange": 2463,
      "uture": 2464,
      "Ġeffects": 2465,
      "47": 2466,
      "Ġseen": 2467,
      "ubl": 2468,
      "Ġchanges": 2469,
      "vironment": 2470,
      "inter": 2471,
      "code": 2472,
      "ung": 2473,
      "html": 2474,
      "most": 2475,
      "Ġdoesn": 2476,
      "ache": 2477,
      "Ġdou": 2478,
      "Ġrespons": 2479,
      "ibr": 2480,
      "ession": 2481,
      "ties": 2482,
      "atures": 2483,
      "ij": 2484,
      "Ġ([@": 2485,
      "02": 2486,
      "Ġtax": 2487,
      "Ġtoget": 2488,
      "Ġdem": 2489,
      "Ġtogether": 2490,
      "iation": 2491,
      "Ġbenef": 2492,
      "Ġmil": 2493,
      "ground": 2494,
      "ĠâĢĺ": 2495,
      "Ġsource": 2496,
      "\\_": 2497,
      "ĠRep": 2498,
      "ee": 2499,
      "Ġdetail": 2500,
      "ĠÎ": 2501,
      "Ġcompon": 2502,
      "Ġprotein": 2503,
      "Ġmoney": 2504,
      "Ġproperty": 2505,
      "Ġann": 2506,
      "Ġcomput": 2507,
      "Ġflu": 2508,
      "Ġjob": 2509,
      "Ġpast": 2510,
      "medi": 2511,
      "Ġcomplet": 2512,
      "uit": 2513,
      "Ġincreased": 2514,
      "Ġbecome": 2515,
      "Ġtalk": 2516,
      "Ġimage": 2517,
      "rodu": 2518,
      "Ġfactors": 2519,
      "Ġmor": 2520,
      "artment": 2521,
      "CC": 2522,
      "Ġphot": 2523,
      "www": 2524,
      "head": 2525,
      "Ġservice": 2526,
      "Ġmechan": 2527,
      "ians": 2528,
      "Ġcannot": 2529,
      "69": 2530,
      "Ġobserved": 2531,
      "Ġdri": 2532,
      "08": 2533,
      "Ġcomplex": 2534,
      "rr": 2535,
      "Ġrequest": 2536,
      "Ġsepar": 2537,
      "Ġconduct": 2538,
      "Ġcountry": 2539,
      "Ġlove": 2540,
      "istic": 2541,
      "bo": 2542,
      "Ġparticip": 2543,
      "\"}).": 2544,
      "Ġbook": 2545,
      "af": 2546,
      "ĠUniversity": 2547,
      "Ġfoc": 2548,
      "uration": 2549,
      "mp": 2550,
      "value": 2551,
      "rix": 2552,
      "ev": 2553,
      "bt": 2554,
      "Ġlo": 2555,
      "Ġmonths": 2556,
      "Ġregard": 2557,
      "ection": 2558,
      "Ġcy": 2559,
      "minist": 2560,
      "ules": 2561,
      "Ġdisease": 2562,
      "Ġthird": 2563,
      "ortun": 2564,
      "anc": 2565,
      "wh": 2566,
      "Ġestabl": 2567,
      "eq": 2568,
      "On": 2569,
      "Ġcult": 2570,
      "Ġair": 2571,
      "Ġmeasure": 2572,
      "Ġmom": 2573,
      "ruction": 2574,
      "ĠÐ": 2575,
      "Ġearly": 2576,
      "Ġdoing": 2577,
      "cted": 2578,
      "log": 2579,
      "Ġsocial": 2580,
      "Ġinde": 2581,
      "Ġep": 2582,
      "Ġcreate": 2583,
      "Ġestim": 2584,
      "ĊĠĠĠĠĠĠĠĠĠĠĠĠĠĠĠĠĠĠĠĠĠĠĠĠĠĠĠĠĠĠĠĠ": 2585,
      "mat": 2586,
      "Data": 2587,
      "roid": 2588,
      "View": 2589,
      "Ġmeet": 2590,
      "umber": 2591,
      "pper": 2592,
      "unt": 2593,
      "Ġnormal": 2594,
      "icense": 2595,
      "Ġfrequ": 2596,
      "ependent": 2597,
      "Ġeconom": 2598,
      "78": 2599,
      "Ġcalcul": 2600,
      "Ġclear": 2601,
      "Ġstructure": 2602,
      "ĊĠĠĠĠĠĠ": 2603,
      "Sh": 2604,
      "Ġexc": 2605,
      "Ġdefendant": 2606,
      "Ġclin": 2607,
      "file": 2608,
      "No": 2609,
      "App": 2610,
      "ucle": 2611,
      "Ġcontent": 2612,
      "ĠGen": 2613,
      "ĠSee": 2614,
      "Ġspecial": 2615,
      "Ġprior": 2616,
      "Ġdescribed": 2617,
      "Ġdeath": 2618,
      "Ġbehav": 2619,
      "mathrm": 2620,
      "Ph": 2621,
      "%)": 2622,
      "ened": 2623,
      "Ġprivate": 2624,
      "Ġmultiple": 2625,
      "off": 2626,
      "sqrt": 2627,
      "Ġviol": 2628,
      "Ġactually": 2629,
      "Ġpositive": 2630,
      "mber": 2631,
      "comm": 2632,
      "icult": 2633,
      "const": 2634,
      "Ġpoints": 2635,
      "Ġversion": 2636,
      "Ġcompany": 2637,
      "uf": 2638,
      "ript": 2639,
      "Ar": 2640,
      "load": 2641,
      "Ġseason": 2642,
      "Ġwa": 2643,
      "ĠCan": 2644,
      "oms": 2645,
      "inary": 2646,
      "Ob": 2647,
      "Ġdrug": 2648,
      "Ġsignal": 2649,
      "Ġacross": 2650,
      "CH": 2651,
      ")*": 2652,
      "ixed": 2653,
      "Ġothers": 2654,
      "Un": 2655,
      "Ġquant": 2656,
      "imum": 2657,
      "ony": 2658,
      "There": 2659,
      "Ġconcer": 2660,
      "ires": 2661,
      "equ": 2662,
      "ĠBe": 2663,
      "ounds": 2664,
      "Ġsurface": 2665,
      "Ġrather": 2666,
      "pec": 2667,
      "Ġbreak": 2668,
      "Ġonce": 2669,
      "gamma": 2670,
      "Ġmax": 2671,
      "Ġinitial": 2672,
      "Ġear": 2673,
      "ening": 2674,
      "ceed": 2675,
      "ĠMr": 2676,
      "Ġq": 2677,
      "ĠĠĠĠĠĠĠĠĠĠ": 2678,
      "bib": 2679,
      "Ġcut": 2680,
      "ĠAN": 2681,
      "ĠFig": 2682,
      "}{\\": 2683,
      "irm": 2684,
      "\");": 2685,
      "posed": 2686,
      "itch": 2687,
      "Ġey": 2688,
      "Ġlikely": 2689,
      "AB": 2690,
      "+\\": 2691,
      "bit": 2692,
      "Ġfive": 2693,
      "Ġpick": 2694,
      "OM": 2695,
      "Ġred": 2696,
      "ilde": 2697,
      "Ġshows": 2698,
      "Ġcorrespon": 2699,
      "ogen": 2700,
      "OS": 2701,
      "Ġmillion": 2702,
      "Ġperformed": 2703,
      "Ġdam": 2704,
      "Ġshowed": 2705,
      "Ġbelow": 2706,
      "Ġweight": 2707,
      "ĠAmerican": 2708,
      "ĠIN": 2709,
      "sy": 2710,
      "delta": 2711,
      "Ġmembers": 2712,
      "ĠAss": 2713,
      "Ġmatter": 2714,
      "Ġmarket": 2715,
      "Ġfactor": 2716,
      "Ġhouse": 2717,
      "Ġdetect": 2718,
      "Ġdemon": 2719,
      "ried": 2720,
      "Ġcame": 2721,
      "arc": 2722,
      "Ġsystems": 2723,
      "ude": 2724,
      "Ġapproach": 2725,
      "Ġhtt": 2726,
      "Ġeval": 2727,
      "atter": 2728,
      "Ġspect": 2729,
      "rho": 2730,
      "gree": 2731,
      "ĠGod": 2732,
      "Ġaffect": 2733,
      "Ġfalse": 2734,
      "Ġcause": 2735,
      "ĠMay": 2736,
      "Ġmus": 2737,
      "09": 2738,
      "no": 2739,
      "Ġver": 2740,
      "Ġobtained": 2741,
      ".)": 2742,
      "Ġsite": 2743,
      "ensity": 2744,
      "cular": 2745,
      "Ġbar": 2746,
      "Ġtook": 2747,
      "Ġmakes": 2748,
      "year": 2749,
      "obal": 2750,
      "Ġ(*": 2751,
      ")(": 2752,
      "86": 2753,
      "07": 2754,
      "ones": 2755,
      "Ġvar": 2756,
      "Ġnight": 2757,
      "hing": 2758,
      "idered": 2759,
      "ama": 2760,
      "raft": 2761,
      "iter": 2762,
      "lim": 2763,
      "Ġvarious": 2764,
      "Ġapplication": 2765,
      "Ġever": 2766,
      "onal": 2767,
      "So": 2768,
      "Ġcancer": 2769,
      "Ġblood": 2770,
      "uses": 2771,
      "IM": 2772,
      "Ġsoft": 2773,
      "Ġexperience": 2774,
      "ai": 2775,
      "my": 2776,
      "Ġscre": 2777,
      "Ġmar": 2778,
      "Ġwrit": 2779,
      "Ġdecre": 2780,
      "03": 2781,
      "enc": 2782,
      "Ġlimit": 2783,
      "Ġdeal": 2784,
      "anguage": 2785,
      "'d": 2786,
      "001": 2787,
      "hold": 2788,
      "Ġtemper": 2789,
      "uild": 2790,
      "Ġwhole": 2791,
      "Ġtaken": 2792,
      "Ġanti": 2793,
      "Ġflow": 2794,
      "Ġconsidered": 2795,
      "Ġadded": 2796,
      "Ġfuture": 2797,
      "Ġ$(": 2798,
      "Ġrelated": 2799,
      "now": 2800,
      "oph": 2801,
      "abor": 2802,
      "Ġclos": 2803,
      "ĠOne": 2804,
      "ager": 2805,
      "rad": 2806,
      "Ġoccur": 2807,
      "ino": 2808,
      "net": 2809,
      "plement": 2810,
      "Ġele": 2811,
      "Ġyet": 2812,
      "Ġconcent": 2813,
      "^\\": 2814,
      "illed": 2815,
      "rec": 2816,
      "Ġdefined": 2817,
      "Ġaddress": 2818,
      "Ġdemonstr": 2819,
      "49": 2820,
      "umn": 2821,
      "Figure": 2822,
      "Ġloss": 2823,
      "ĠTe": 2824,
      "ĠĠĠĠĠĠĠĠĠĠĠĠĠĠĠĠĠĠĠĠĠĠĠĠĠĠĠĠĠĠĠĠĠĠĠĠĠĠĠĠĠĠĠĠĠĠĠĠĠĠĠĠĠĠĠĠĠĠĠĠĠĠĠĠĠĠĠĠĠĠĠĠĠĠĠĠĠĠĠĠĠĠĠĠĠĠĠĠĠĠĠĠĠĠĠĠĠĠĠĠĠĠĠĠĠĠĠĠĠĠĠĠĠĠĠĠĠĠĠĠĠĠĠĠĠĠĠĠ": 2825,
      "Ġblock": 2826,
      "Ġparent": 2827,
      "pping": 2828,
      "Â°": 2829,
      "Ġbelieve": 2830,
      "big": 2831,
      "rim": 2832,
      "OP": 2833,
      "87": 2834,
      "Ġmut": 2835,
      "ĠJohn": 2836,
      "Ġnull": 2837,
      "------------": 2838,
      "Ġitem": 2839,
      "aff": 2840,
      "Ġhom": 2841,
      "oll": 2842,
      "Ġconsist": 2843,
      "46": 2844,
      "ĠThen": 2845,
      "Ġrelationship": 2846,
      "ĠWith": 2847,
      "ero": 2848,
      "iding": 2849,
      "dis": 2850,
      "partial": 2851,
      "Ġsolution": 2852,
      "wards": 2853,
      "Ġcommunity": 2854,
      "ĠAfter": 2855,
      "see": 2856,
      "$-": 2857,
      "ply": 2858,
      "57": 2859,
      "lam": 2860,
      "Ġstates": 2861,
      "xim": 2862,
      "Ġwent": 2863,
      "Ġminutes": 2864,
      "ÂłÂł": 2865,
      "ĠCar": 2866,
      "Ð¾": 2867,
      "Ġsex": 2868,
      "andom": 2869,
      "Ġfra": 2870,
      "ĠCent": 2871,
      "42": 2872,
      "Ġrat": 2873,
      "xi": 2874,
      "ĠChrist": 2875,
      "ball": 2876,
      "Ġdecision": 2877,
      "ĠInt": 2878,
      "leq": 2879,
      "')": 2880,
      "Im": 2881,
      "Ġassess": 2882,
      "ledge": 2883,
      "Ġmind": 2884,
      "size": 2885,
      "Ġland": 2886,
      "ĠĊ": 2887,
      "chie": 2888,
      "ĠPat": 2889,
      "aged": 2890,
      "Ġdifficult": 2891,
      "Ġur": 2892,
      "ulated": 2893,
      "Ġmaint": 2894,
      "ĠOb": 2895,
      "rc": 2896,
      "Ġdevice": 2897,
      "Ġimmun": 2898,
      "ober": 2899,
      "Ġtrying": 2900,
      "Ġincluded": 2901,
      "~~": 2902,
      "UT": 2903,
      "Ãĥ": 2904,
      "Ġcamp": 2905,
      "pose": 2906,
      "verse": 2907,
      "Ġcross": 2908,
      "Ġinhib": 2909,
      "Ġdecl": 2910,
      "ãĤ": 2911,
      "Ġexam": 2912,
      "Ġcard": 2913,
      "Ġregion": 2914,
      "Ġcontract": 2915,
      "*,": 2916,
      "atus": 2917,
      "enn": 2918,
      "Ġenvironment": 2919,
      "SS": 2920,
      "body": 2921,
      "89": 2922,
      "Ġhalf": 2923,
      "Ġground": 2924,
      "unc": 2925,
      "ached": 2926,
      "Ġtoday": 2927,
      "theta": 2928,
      "Ġrespectively": 2929,
      "ideo": 2930,
      "Ġface": 2931,
      "util": 2932,
      "inding": 2933,
      "Ġtrad": 2934,
      "ÂĤ": 2935,
      "where": 2936,
      "Ġclose": 2937,
      "izing": 2938,
      "Ġmagn": 2939,
      "Ġcustom": 2940,
      "Ġdefin": 2941,
      "],[@": 2942,
      "Ġappl": 2943,
      "ĠAct": 2944,
      "Ġreceived": 2945,
      "Ġce": 2946,
      "Ġ},": 2947,
      "dro": 2948,
      "itting": 2949,
      "ĠMore": 2950,
      "/*": 2951,
      "IR": 2952,
      "mitted": 2953,
      "une": 2954,
      "aging": 2955,
      "ender": 2956,
      "IL": 2957,
      "Ġadditional": 2958,
      "Ġentire": 2959,
      "Ġintegr": 2960,
      "omega": 2961,
      "Ġtable": 2962,
      "Ġchall": 2963,
      "Ġcity": 2964,
      "ternal": 2965,
      "Ġsignificantly": 2966,
      "Ġanything": 2967,
      "CL": 2968,
      "}}\\": 2969,
      "mary": 2970,
      "Ġpatient": 2971,
      "Ġdat": 2972,
      "lying": 2973,
      "ribute": 2974,
      "Ġfav": 2975,
      "etition": 2976,
      "Ġnetwork": 2977,
      "Ġsix": 2978,
      "Ġsimple": 2979,
      "Ġill": 2980,
      "odes": 2981,
      "ike": 2982,
      "lor": 2983,
      "Ġsus": 2984,
      "ĠÂ§": 2985,
      "Ġaccept": 2986,
      "Ġbound": 2987,
      "position": 2988,
      "ĠMy": 2989,
      "wise": 2990,
      "Ġdig": 2991,
      "06": 2992,
      "gl": 2993,
      "Ġbring": 2994,
      "43": 2995,
      "Ġnat": 2996,
      "Ġlink": 2997,
      "reed": 2998,
      "Ġcompl": 2999,
      "Ġgrowth": 3000,
      "uk": 3001,
      "agement": 3002,
      "istance": 3003,
      "Ġneeds": 3004,
      "Ġasked": 3005,
      "hel": 3006,
      "ocal": 3007,
      "ederal": 3008,
      "ensive": 3009,
      "ĠMed": 3010,
      "IP": 3011,
      "AA": 3012,
      "93": 3013,
      "Ġgetting": 3014,
      "Ġhistory": 3015,
      "pecially": 3016,
      "****************": 3017,
      "Ġ\\\\": 3018,
      "Ġpan": 3019,
      "Ġtw": 3020,
      "tau": 3021,
      "ram": 3022,
      "Ġlength": 3023,
      "Ġwin": 3024,
      "gress": 3025,
      "Ġheart": 3026,
      "Ġindu": 3027,
      "apt": 3028,
      "Ðµ": 3029,
      "Ġlooking": 3030,
      "Table": 3031,
      "Ġnear": 3032,
      "Ġimprove": 3033,
      "aced": 3034,
      "])": 3035,
      "Ġroom": 3036,
      "ĠMan": 3037,
      "Ġattack": 3038,
      "ops": 3039,
      "Ġdifference": 3040,
      "Get": 3041,
      "Ġhref": 3042,
      "miss": 3043,
      "Ġmethods": 3044,
      "include": 3045,
      "Ġtum": 3046,
      "nu": 3047,
      "bf": 3048,
      "Ġseries": 3049,
      "++": 3050,
      "UR": 3051,
      "Ġparty": 3052,
      "using": 3053,
      "Ġcontact": 3054,
      "orld": 3055,
      "based": 3056,
      "isf": 3057,
      "Ġperformance": 3058,
      "Ġexec": 3059,
      "pre": 3060,
      "ĠĠĠĠĠĠĠĠĠĠĠĠĠĠĠ": 3061,
      "ication": 3062,
      "ENT": 3063,
      "uly": 3064,
      "Ġpaper": 3065,
      "but": 3066,
      "ĠEng": 3067,
      "Ġproblems": 3068,
      "Ġvia": 3069,
      "Ġplaintiff": 3070,
      "ÃĹ": 3071,
      "fully": 3072,
      "Ġinput": 3073,
      "ris": 3074,
      "times": 3075,
      "Ġthus": 3076,
      "84": 3077,
      "ĠBy": 3078,
      "ĠSte": 3079,
      "Ġmiss": 3080,
      "Ġissues": 3081,
      "Ġinvolved": 3082,
      "Ġ...": 3083,
      "92": 3084,
      "Ġsubst": 3085,
      "Ġ21": 3086,
      "infty": 3087,
      "Ġcorrect": 3088,
      "Ġalmost": 3089,
      "Â±": 3090,
      "Ġpattern": 3091,
      "IV": 3092,
      ")}": 3093,
      "state": 3094,
      "Ġadj": 3095,
      "All": 3096,
      "US": 3097,
      "Ġnothing": 3098,
      "Ġhours": 3099,
      "56": 3100,
      "à¤": 3101,
      "Ġservices": 3102,
      "Ġeff": 3103,
      "Ġtherefore": 3104,
      "Ġprevent": 3105,
      "ief": 3106,
      "OL": 3107,
      "ĠDep": 3108,
      "Ġneeded": 3109,
      "Ġexpected": 3110,
      "oo": 3111,
      "Ãĳ": 3112,
      "Ġeduc": 3113,
      "Ð°": 3114,
      "irl": 3115,
      "ĠMc": 3116,
      "Ġadminist": 3117,
      "ĠMar": 3118,
      "Ġassum": 3119,
      "Wh": 3120,
      "Ġworks": 3121,
      "more": 3122,
      "ĠCount": 3123,
      "Ġheld": 3124,
      "uments": 3125,
      "box": 3126,
      "iles": 3127,
      "ĠĠĠĠĠĠĠĠĠĠĠĠ": 3128,
      "anks": 3129,
      "ilt": 3130,
      "Value": 3131,
      "ilities": 3132,
      "rid": 3133,
      "Ġpopulation": 3134,
      "Ġinstead": 3135,
      "Ġachie": 3136,
      "Ġofficial": 3137,
      "Ġfilm": 3138,
      "Ġblack": 3139,
      "comes": 3140,
      "ynam": 3141,
      "Ġemb": 3142,
      "With": 3143,
      "Ġansw": 3144,
      "erc": 3145,
      "Ġinflu": 3146,
      "urope": 3147,
      "čĊĠĠĠ": 3148,
      "Ġhost": 3149,
      "https": 3150,
      "yz": 3151,
      "Ġshall": 3152,
      "width": 3153,
      "EM": 3154,
      "Ġattempt": 3155,
      "When": 3156,
      "lt": 3157,
      "Ġbegin": 3158,
      "gest": 3159,
      "Ġrecent": 3160,
      "Ġ$$": 3161,
      "list": 3162,
      "function": 3163,
      "Ġlines": 3164,
      "Ġseems": 3165,
      "ĠDef": 3166,
      "ĠMon": 3167,
      "atively": 3168,
      "Set": 3169,
      "Ġang": 3170,
      "Ġfall": 3171,
      "ĠCor": 3172,
      "Ġgene": 3173,
      "like": 3174,
      "76": 3175,
      "Ġimplement": 3176,
      "ales": 3177,
      "itten": 3178,
      "olve": 3179,
      "ips": 3180,
      "atal": 3181,
      "come": 3182,
      "Ġremov": 3183,
      "PE": 3184,
      "Ġidea": 3185,
      "41": 3186,
      "rs": 3187,
      "Ġstep": 3188,
      "Ġpolice": 3189,
      "ii": 3190,
      "Ġcoll": 3191,
      "Ġstory": 3192,
      "Ġmotion": 3193,
      "ĠCont": 3194,
      "with": 3195,
      "Ġintrodu": 3196,
      "That": 3197,
      "Ġelement": 3198,
      "TR": 3199,
      "selves": 3200,
      "By": 3201,
      "));": 3202,
      "ĠIm": 3203,
      "Ġcomes": 3204,
      "Ġstudents": 3205,
      "![": 3206,
      "Ġpubl": 3207,
      "}$,": 3208,
      "Ġ(-": 3209,
      "ros": 3210,
      "uth": 3211,
      "ĠNot": 3212,
      "Ġpredict": 3213,
      "Ġproduction": 3214,
      "Ġcolor": 3215,
      "Ġ40": 3216,
      "Ġbad": 3217,
      "Ġquality": 3218,
      "Ġtool": 3219,
      "91": 3220,
      "\";": 3221,
      "En": 3222,
      "Ġdisplay": 3223,
      "Ġoutput": 3224,
      "Ġsomeone": 3225,
      "Ġ/*": 3226,
      "lation": 3227,
      "anced": 3228,
      "Ġmodels": 3229,
      "ĠTHE": 3230,
      "word": 3231,
      "Ġreve": 3232,
      "des": 3233,
      "px": 3234,
      "ĠAm": 3235,
      "ging": 3236,
      "field": 3237,
      "Ġlearn": 3238,
      "rapy": 3239,
      "Ġtaking": 3240,
      "trans": 3241,
      "Ġstarted": 3242,
      "Ġpage": 3243,
      "Ġdocument": 3244,
      "ĠYork": 3245,
      "Ġfig": 3246,
      "Ġmedia": 3247,
      "light": 3248,
      "Ġprovides": 3249,
      "ĠMin": 3250,
      "Pl": 3251,
      "Ġyoung": 3252,
      "Ġload": 3253,
      "ensure": 3254,
      "Ġste": 3255,
      "Int": 3256,
      "Ġdistribution": 3257,
      "Ġpolicy": 3258,
      "Ġitself": 3259,
      "Ġ22": 3260,
      "RNA": 3261,
      "Ġsearch": 3262,
      "ĠPres": 3263,
      "ster": 3264,
      "ĠThus": 3265,
      "Ġnecessary": 3266,
      "ills": 3267,
      "\\\\": 3268,
      "rown": 3269,
      "}$.": 3270,
      "Ġrecogn": 3271,
      "ulations": 3272,
      "document": 3273,
      "ying": 3274,
      "ches": 3275,
      "Ġindust": 3276,
      "53": 3277,
      "eks": 3278,
      "ĠPol": 3279,
      "unch": 3280,
      "Ġ28": 3281,
      "ĠDo": 3282,
      "Ġnucle": 3283,
      "Ġaverage": 3284,
      "ĠĠĠĠĠĠĠĠĠĠĠĠĠ": 3285,
      "aled": 3286,
      "Ġlive": 3287,
      "Ġproced": 3288,
      "astic": 3289,
      "down": 3290,
      "^*": 3291,
      "ospital": 3292,
      "ites": 3293,
      "Ġrights": 3294,
      "Ġappear": 3295,
      "Ġprobably": 3296,
      "Ġ||": 3297,
      "54": 3298,
      "ĠTrump": 3299,
      "ĠNational": 3300,
      "define": 3301,
      "Ġcompar": 3302,
      "rror": 3303,
      "Ġdiagn": 3304,
      "Ġoriginal": 3305,
      "utions": 3306,
      "Ġfront": 3307,
      "Ġdire": 3308,
      "Ġclinical": 3309,
      "ĊĠĠĠĠĠĠĠĠĠĠĠĠĠĠĠĠĠĠĠĠĠĠĠ": 3310,
      "Ġess": 3311,
      "Ġmoment": 3312,
      "Delta": 3313,
      "book": 3314,
      "Ġalleg": 3315,
      "Ġconfig": 3316,
      "hem": 3317,
      "elt": 3318,
      "pri": 3319,
      "Ġexact": 3320,
      "param": 3321,
      "Mod": 3322,
      "Ġ27": 3323,
      "Ġimpact": 3324,
      "Ġpret": 3325,
      "Ġfunctions": 3326,
      "Ġâ": 3327,
      "Ġsimply": 3328,
      "Ġproducts": 3329,
      "ccording": 3330,
      "amed": 3331,
      "ributed": 3332,
      "ĠOF": 3333,
      "Ġphase": 3334,
      "Ġcorrel": 3335,
      "Ġwalk": 3336,
      "ecause": 3337,
      "Ġespecially": 3338,
      "error": 3339,
      "Ġdim": 3340,
      "osition": 3341,
      "Ġindex": 3342,
      "ĠEurope": 3343,
      "iqu": 3344,
      "Ġtemperature": 3345,
      "eration": 3346,
      "eter": 3347,
      "ĠBo": 3348,
      "Ġwords": 3349,
      "hers": 3350,
      "fr": 3351,
      "clusion": 3352,
      "|\\": 3353,
      "comp": 3354,
      "Ġsequence": 3355,
      "overed": 3356,
      "PS": 3357,
      "Ġfoot": 3358,
      "olic": 3359,
      "istics": 3360,
      "Ġsample": 3361,
      "bb": 3362,
      "Ġproperties": 3363,
      "Ġcontext": 3364,
      "su": 3365,
      "83": 3366,
      "ãĥ": 3367,
      "Ġdest": 3368,
      "Ġconv": 3369,
      "Ġgra": 3370,
      "Ġdepend": 3371,
      "oke": 3372,
      "augh": 3373,
      "Ġformer": 3374,
      "ĠMe": 3375,
      "xy": 3376,
      "Ġinstall": 3377,
      "Ġvalid": 3378,
      "point": 3379,
      "ĠEn": 3380,
      "Ġpersonal": 3381,
      "Ġchem": 3382,
      "Object": 3383,
      "Ġeffort": 3384,
      "Ġ!=": 3385,
      "Ġassert": 3386,
      "Ġprint": 3387,
      "Text": 3388,
      "actions": 3389,
      "Ġcomplete": 3390,
      "Ġderiv": 3391,
      "ĠCity": 3392,
      "inally": 3393,
      "refore": 3394,
      "ards": 3395,
      "Ġsil": 3396,
      "Ġdetermined": 3397,
      "Ġpresence": 3398,
      "arily": 3399,
      "($": 3400,
      "Ġmedical": 3401,
      "Ġcopy": 3402,
      "perty": 3403,
      "iddle": 3404,
      "Ġdistrict": 3405,
      "Ġconsum": 3406,
      "Ġ26": 3407,
      "Ġstatic": 3408,
      "Ġevents": 3409,
      "quad": 3410,
      "array": 3411,
      "Ġmole": 3412,
      "Ġgenes": 3413,
      "Ġquick": 3414,
      "Ġ23": 3415,
      "Ġpoly": 3416,
      "\\*": 3417,
      "ili": 3418,
      "Ġcred": 3419,
      "ĠInc": 3420,
      "Ġpolitical": 3421,
      "Ġoutside": 3422,
      "Ġpressure": 3423,
      "ien": 3424,
      "Ġsense": 3425,
      "plit": 3426,
      "Ġarray": 3427,
      "inks": 3428,
      "sl": 3429,
      "ux": 3430,
      "ymb": 3431,
      "struct": 3432,
      "Ġdate": 3433,
      "ĠJan": 3434,
      "Ġsatisf": 3435,
      "Ġstrateg": 3436,
      "Ġeffective": 3437,
      "Ġtypes": 3438,
      "ĠCD": 3439,
      "Ġlack": 3440,
      "Ġprimary": 3441,
      "ran": 3442,
      "ĠString": 3443,
      "Ġlanguage": 3444,
      "52": 3445,
      "My": 3446,
      "Ind": 3447,
      "OD": 3448,
      "ults": 3449,
      "dom": 3450,
      "Ġeverything": 3451,
      "Ġcreat": 3452,
      "Ġ&&": 3453,
      "item": 3454,
      "MS": 3455,
      "File": 3456,
      "Ġwrong": 3457,
      "Ġremain": 3458,
      "char": 3459,
      "58": 3460,
      "ronic": 3461,
      "Ġphysical": 3462,
      "path": 3463,
      "ocr": 3464,
      "Ġfeatures": 3465,
      "ĠÂ±": 3466,
      "Ġlonger": 3467,
      "/>": 3468,
      "../../": 3469,
      "annel": 3470,
      "do": 3471,
      "cm": 3472,
      "ana": 3473,
      "]{},": 3474,
      "Ġinside": 3475,
      "Ġpain": 3476,
      "Ġdetermine": 3477,
      "Ġconstit": 3478,
      "Ġselect": 3479,
      "Ġpresented": 3480,
      "Ġeasy": 3481,
      "culate": 3482,
      "bor": 3483,
      "At": 3484,
      "Ġjudgment": 3485,
      "Ġnews": 3486,
      "Ġquite": 3487,
      "Ġidentified": 3488,
      "Ġcreated": 3489,
      "ĠPr": 3490,
      "Ġmi": 3491,
      "Ġstop": 3492,
      "public": 3493,
      "Ġacid": 3494,
      "ese": 3495,
      "ises": 3496,
      "Ġrunning": 3497,
      "sych": 3498,
      "fra": 3499,
      "icon": 3500,
      "Ad": 3501,
      "59": 3502,
      "Ġincreasing": 3503,
      "Ġsamples": 3504,
      "ags": 3505,
      "Ġbasis": 3506,
      "ĠĠĠĠĠĠĠĠĠĠĠĠĠĠ": 3507,
      "Ġrandom": 3508,
      "ĠGe": 3509,
      "aving": 3510,
      "Âĥ": 3511,
      "Ġsurv": 3512,
      "Ġhyp": 3513,
      "Ġstay": 3514,
      "Ġwhite": 3515,
      "Ġparameters": 3516,
      "Ġevalu": 3517,
      "Ġwanted": 3518,
      "Ġhope": 3519,
      "74": 3520,
      "Ġtiss": 3521,
      "sim": 3522,
      "Ġstatus": 3523,
      "Ġfollows": 3524,
      "Ġund": 3525,
      "Ġcontroll": 3526,
      "Ed": 3527,
      "Ġstatement": 3528,
      "72": 3529,
      "rast": 3530,
      "rack": 3531,
      "Ġmember": 3532,
      "Item": 3533,
      "81": 3534,
      "ÑĤ": 3535,
      "urch": 3536,
      "Ġapproxim": 3537,
      "Ġareas": 3538,
      "Ġfire": 3539,
      "ancial": 3540,
      "82": 3541,
      "Ġpack": 3542,
      "}(\\": 3543,
      "rite": 3544,
      "Ġsem": 3545,
      "ĠGu": 3546,
      "Ġcontinu": 3547,
      "Ġisn": 3548,
      "79": 3549,
      "Ġelements": 3550,
      "print": 3551,
      "ĠLicense": 3552,
      "Ġframe": 3553,
      "Ġweeks": 3554,
      "Ġoil": 3555,
      "ogle": 3556,
      "51": 3557,
      "asons": 3558,
      "ĠPart": 3559,
      "ĠQu": 3560,
      "Ġdirectly": 3561,
      "Ġ?": 3562,
      "Ġpair": 3563,
      "Ġsecur": 3564,
      "Ġstra": 3565,
      "Ġconstant": 3566,
      "top": 3567,
      "void": 3568,
      "âĢĲ": 3569,
      "ervice": 3570,
      "Par": 3571,
      "lier": 3572,
      "Ġquestions": 3573,
      "Ġago": 3574,
      "sk": 3575,
      "Ġrecomm": 3576,
      "itary": 3577,
      "ĠPar": 3578,
      "CD": 3579,
      "ottom": 3580,
      "Ġfun": 3581,
      "Not": 3582,
      "dev": 3583,
      "63": 3584,
      "________": 3585,
      "Ġmemory": 3586,
      "EL": 3587,
      "Ġprinc": 3588,
      "lig": 3589,
      "ha": 3590,
      "Ġforce": 3591,
      "``": 3592,
      "rial": 3593,
      "Ġnatural": 3594,
      "Ġcry": 3595,
      "Ġgames": 3596,
      "acc": 3597,
      "user": 3598,
      "earch": 3599,
      "ega": 3600,
      "Ġtheory": 3601,
      "isions": 3602,
      "UN": 3603,
      "erson": 3604,
      "msg": 3605,
      "fection": 3606,
      "OC": 3607,
      "ellant": 3608,
      "Ġtraining": 3609,
      "itation": 3610,
      "Ġgrad": 3611,
      "ocol": 3612,
      "ĠPe": 3613,
      "Ġstri": 3614,
      "gn": 3615,
      "Ã¡": 3616,
      "Ġpie": 3617,
      "Ġavoid": 3618,
      "Ġsett": 3619,
      "era": 3620,
      "Ġ(\\[": 3621,
      "Key": 3622,
      "Ps": 3623,
      "Ġknowledge": 3624,
      "lementary": 3625,
      "Qu": 3626,
      "Ġtransfer": 3627,
      "Ġopportun": 3628,
      "TH": 3629,
      "rangle": 3630,
      "Ġgas": 3631,
      "Ġcontinue": 3632,
      "ially": 3633,
      "ĠHar": 3634,
      "ĠDr": 3635,
      "ĠDNA": 3636,
      "Ġextra": 3637,
      "Ġple": 3638,
      "ĠHis": 3639,
      "hood": 3640,
      "tilde": 3641,
      "Ġbuilding": 3642,
      "Ġbehind": 3643,
      "plate": 3644,
      "ĠSystem": 3645,
      "73": 3646,
      "met": 3647,
      "het": 3648,
      "clus": 3649,
      "rote": 3650,
      ")$.": 3651,
      "ously": 3652,
      "Ġfem": 3653,
      "Ġgreater": 3654,
      "reet": 3655,
      "Ġcontain": 3656,
      "Ġapplied": 3657,
      "Ġshare": 3658,
      "Ġmis": 3659,
      "iet": 3660,
      "\\])": 3661,
      "cell": 3662,
      "Ġreplace": 3663,
      "fs": 3664,
      "Ġlimited": 3665,
      "from": 3666,
      "Ġvideo": 3667,
      "rows": 3668,
      "ferences": 3669,
      "oma": 3670,
      "ayout": 3671,
      "Ġmice": 3672,
      "Ġdefault": 3673,
      "PL": 3674,
      "lege": 3675,
      "Ġrelease": 3676,
      "map": 3677,
      "Ġpreviously": 3678,
      "ĠPresident": 3679,
      "vere": 3680,
      "Ġbehavior": 3681,
      "ML": 3682,
      "ĠSuppose": 3683,
      "aves": 3684,
      "Ġmap": 3685,
      "Ġtitle": 3686,
      "Ġincludes": 3687,
      "Ġreduced": 3688,
      "Ġsaw": 3689,
      "Ġful": 3690,
      "pite": 3691,
      "term": 3692,
      "oles": 3693,
      "cdot": 3694,
      "ague": 3695,
      "ĠTherefore": 3696,
      "Ġjo": 3697,
      "SD": 3698,
      "oat": 3699,
      "\".": 3700,
      "Ġvict": 3701,
      "ula": 3702,
      "roph": 3703,
      "Ġability": 3704,
      "Ġoption": 3705,
      "Ġnational": 3706,
      "script": 3707,
      "ĠOur": 3708,
      "max": 3709,
      "mpt": 3710,
      "Ġbur": 3711,
      "71": 3712,
      "Ġexpress": 3713,
      "Ġveh": 3714,
      "elling": 3715,
      "BC": 3716,
      "js": 3717,
      "ĠIntern": 3718,
      "Ġfriend": 3719,
      "arning": 3720,
      "De": 3721,
      "ada": 3722,
      "Ġmessage": 3723,
      "ÃĤ": 3724,
      "Ġstyle": 3725,
      "Ġ60": 3726,
      "Ġmach": 3727,
      "Ġclaims": 3728,
      "osure": 3729,
      "isms": 3730,
      "Ġdeveloped": 3731,
      "imate": 3732,
      "Ġarticle": 3733,
      "Ġimmedi": 3734,
      "rant": 3735,
      "rief": 3736,
      "Ġopin": 3737,
      ":**": 3738,
      "Ġrev": 3739,
      "apter": 3740,
      "umb": 3741,
      "ader": 3742,
      "ĊĊĊ": 3743,
      "Ġlayer": 3744,
      "ĠAf": 3745,
      "fered": 3746,
      "osph": 3747,
      "Ġfavor": 3748,
      "Ð¸": 3749,
      "Ġaccom": 3750,
      "().": 3751,
      "sm": 3752,
      "ech": 3753,
      "length": 3754,
      "Ġimpl": 3755,
      "Ġpresident": 3756,
      "Ġhot": 3757,
      "Or": 3758,
      "Ġcompan": 3759,
      "icles": 3760,
      "Ġinvention": 3761,
      "ĠId": 3762,
      "ĠNe": 3763,
      "orks": 3764,
      "ners": 3765,
      "Ġsoftware": 3766,
      "psilon": 3767,
      "iber": 3768,
      ".'": 3769,
      "pen": 3770,
      "ament": 3771,
      "aches": 3772,
      "ĠAP": 3773,
      "Ġindependent": 3774,
      "Ġwrite": 3775,
      "Ġmother": 3776,
      "Ġhttp": 3777,
      "Ġprec": 3778,
      "ĠFurther": 3779,
      "kn": 3780,
      "otic": 3781,
      "Test": 3782,
      "Ġnumbers": 3783,
      "...\"": 3784,
      "Ġplayers": 3785,
      "ĠDist": 3786,
      "Ġwritten": 3787,
      "Ġappropri": 3788,
      "Ġprotect": 3789,
      "Ġmatch": 3790,
      "Ġdouble": 3791,
      "Ġautom": 3792,
      "Ġword": 3793,
      "Ġreference": 3794,
      "och": 3795,
      "Ġ2012": 3796,
      "Ġantib": 3797,
      "]^": 3798,
      "62": 3799,
      "Ġfollowed": 3800,
      "ĠJust": 3801,
      "ĠComp": 3802,
      "Ġcoming": 3803,
      "ĠSim": 3804,
      "She": 3805,
      "uary": 3806,
      "Ġparticularly": 3807,
      "aign": 3808,
      "Def": 3809,
      "ĠCounty": 3810,
      "ĠDes": 3811,
      "ethyl": 3812,
      "ĠSouth": 3813,
      "ĠSince": 3814,
      "Ġcand": 3815,
      "atives": 3816,
      "ocation": 3817,
      "ĠDem": 3818,
      "IF": 3819,
      "Ġslow": 3820,
      ")=": 3821,
      "Ġleave": 3822,
      "apan": 3823,
      "čĊč": 3824,
      "Ġactive": 3825,
      "gor": 3826,
      "Ġir": 3827,
      "Ġobtain": 3828,
      "Ġrefer": 3829,
      "Ġsecurity": 3830,
      "CA": 3831,
      "ĠWhile": 3832,
      "illi": 3833,
      "EX": 3834,
      "rupt": 3835,
      "Ġ;": 3836,
      "Ġprep": 3837,
      "Ġbir": 3838,
      "Ġclean": 3839,
      "ĠRuss": 3840,
      "urb": 3841,
      "Ġforward": 3842,
      "Ġnegative": 3843,
      "Ġmention": 3844,
      "Ġunit": 3845,
      "ĠPa": 3846,
      "Ġrepe": 3847,
      "range": 3848,
      "ĠST": 3849,
      "iven": 3850,
      "ishing": 3851,
      "vention": 3852,
      "Ġcorresponding": 3853,
      "Ġconstruct": 3854,
      "Ġ[*": 3855,
      "Ġgirl": 3856,
      "Ġwindow": 3857,
      "supp": 3858,
      "ĠOR": 3859,
      "Ġlate": 3860,
      "Ġnature": 3861,
      "ĠNorth": 3862,
      "Ġspecies": 3863,
      "Ġusually": 3864,
      "abase": 3865,
      "fo": 3866,
      "ĠPer": 3867,
      "non": 3868,
      "Add": 3869,
      "hest": 3870,
      "ĠReg": 3871,
      "Ġvot": 3872,
      "ä¸": 3873,
      "Ġrule": 3874,
      "ashing": 3875,
      "Ġrates": 3876,
      "Ġdifferences": 3877,
      "MA": 3878,
      "mega": 3879,
      "Ġliving": 3880,
      "Ġoffice": 3881,
      "61": 3882,
      "Ġaltern": 3883,
      "Ġalthough": 3884,
      "ĠHere": 3885,
      "Ġanswer": 3886,
      "Ġdynam": 3887,
      "Ġ2013": 3888,
      "Ġwhose": 3889,
      "Ġorg": 3890,
      "Ġnote": 3891,
      "inated": 3892,
      "Ġbox": 3893,
      "Ġglobal": 3894,
      "Ġpurch": 3895,
      "Ġpractice": 3896,
      "reng": 3897,
      "ĠWorld": 3898,
      "Ġoffer": 3899,
      "Ġtried": 3900,
      "ĠVal": 3901,
      "levant": 3902,
      "Ġargument": 3903,
      "Ġbrain": 3904,
      "SP": 3905,
      "Ġetc": 3906,
      "Ġanim": 3907,
      "Ġregular": 3908,
      "eline": 3909,
      "Ġonline": 3910,
      "Ġgrant": 3911,
      "Ġinstance": 3912,
      "Ġ2016": 3913,
      "Ġwebs": 3914,
      "atform": 3915,
      "}}$": 3916,
      "ĠAb": 3917,
      "Ġpo": 3918,
      "Ġcompet": 3919,
      "group": 3920,
      "isc": 3921,
      "Ġgenerally": 3922,
      "ils": 3923,
      "Ġlost": 3924,
      "oon": 3925,
      "cast": 3926,
      "Ġsle": 3927,
      "ste": 3928,
      "Ġrecently": 3929,
      "ĠSm": 3930,
      "psi": 3931,
      "aries": 3932,
      "ĠEd": 3933,
      "Ġprot": 3934,
      "itness": 3935,
      "inate": 3936,
      "erve": 3937,
      "Ġaccur": 3938,
      "ĠSome": 3939,
      "Ġwall": 3940,
      "ĠGo": 3941,
      "encies": 3942,
      "Le": 3943,
      "Ġ2014": 3944,
      "quest": 3945,
      "Ġthemselves": 3946,
      "urance": 3947,
      "change": 3948,
      "Suppose": 3949,
      "Ġbackground": 3950,
      "ĠPhys": 3951,
      "Ġanyone": 3952,
      "////////": 3953,
      "pret": 3954,
      "illing": 3955,
      "Ġtakes": 3956,
      "ener": 3957,
      "Ġproposed": 3958,
      "Ġcountries": 3959,
      "link": 3960,
      "Ġwatch": 3961,
      "joy": 3962,
      "Ġagreement": 3963,
      "================================": 3964,
      "vey": 3965,
      "Ġge": 3966,
      "Ġsort": 3967,
      "Ġdriv": 3968,
      "ees": 3969,
      "Ġresid": 3970,
      "ĠâĪĴ": 3971,
      "Ġsaying": 3972,
      "pat": 3973,
      "ivil": 3974,
      "pace": 3975,
      "CE": 3976,
      "Ġexcept": 3977,
      "Ġdensity": 3978,
      "Ġball": 3979,
      "Ġstress": 3980,
      "Ġ/>": 3981,
      "Exception": 3982,
      "ĠDav": 3983,
      "resh": 3984,
      "wide": 3985,
      "Ġtreated": 3986,
      "gorith": 3987,
      "lin": 3988,
      "Ġessential": 3989,
      "orph": 3990,
      "ĠII": 3991,
      "py": 3992,
      "ĠOct": 3993,
      "*~": 3994,
      "Des": 3995,
      "ĠMarch": 3996,
      "ĠFirst": 3997,
      "rew": 3998,
      "ned": 3999,
      "Ġanalyz": 4000,
      "vare": 4001,
      "}=": 4002,
      "Ġhimself": 4003,
      "ĠHouse": 4004,
      "Error": 4005,
      "ming": 4006,
      "Ġlegal": 4007,
      "00000000": 4008,
      "Ġrot": 4009,
      "ĠIS": 4010,
      "Ġsituation": 4011,
      "ufact": 4012,
      "Ġpurpose": 4013,
      "Ġfederal": 4014,
      "Ġhar": 4015,
      "ĊĠĠĠĠĠĠĠĠĠĠĠĠĠ": 4016,
      "^[@": 4017,
      "((": 4018,
      "pril": 4019,
      "Ġenh": 4020,
      "index": 4021,
      "Ġcenter": 4022,
      "Ġheav": 4023,
      "anger": 4024,
      "\"><": 4025,
      "Ġ29": 4026,
      "rightarrow": 4027,
      "Ġbecame": 4028,
      "ĠChina": 4029,
      "Ġ2015": 4030,
      "State": 4031,
      "Ġrelative": 4032,
      "ĠAmerica": 4033,
      "epsilon": 4034,
      "Ġfeed": 4035,
      "Ġpretty": 4036,
      "Ġspeed": 4037,
      "ĠSch": 4038,
      "ham": 4039,
      "Ġdeep": 4040,
      "Ġways": 4041,
      "Ġcover": 4042,
      "Ġdirection": 4043,
      "Ġhydro": 4044,
      "âĢĥ": 4045,
      "Ġrele": 4046,
      "bon": 4047,
      "Ġfinancial": 4048,
      "One": 4049,
      "Time": 4050,
      "ULL": 4051,
      "uel": 4052,
      "ï¼": 4053,
      "igen": 4054,
      "aily": 4055,
      "Ġfailed": 4056,
      "Ġserious": 4057,
      "Ġfast": 4058,
      "Ġpublished": 4059,
      "ulate": 4060,
      "ĠDepartment": 4061,
      "ĠAust": 4062,
      "Ġperfect": 4063,
      "Ġrespond": 4064,
      "Ġ);": 4065,
      "Ġpict": 4066,
      "acity": 4067,
      "003": 4068,
      "Ġvers": 4069,
      "varepsilon": 4070,
      "lib": 4071,
      "Ġintern": 4072,
      "Ġhighly": 4073,
      "lock": 4074,
      "\\].": 4075,
      "Omega": 4076,
      "ports": 4077,
      "['": 4078,
      "Ġwoman": 4079,
      "Cal": 4080,
      "Ġphen": 4081,
      "Ġprice": 4082,
      "Ġisol": 4083,
      "Ġfindings": 4084,
      "Man": 4085,
      "ĠBar": 4086,
      "Gamma": 4087,
      "reme": 4088,
      "sing": 4089,
      "Ġallowed": 4090,
      "pan": 4091,
      "bi": 4092,
      "Ġderivative": 4093,
      "Ġsufficient": 4094,
      "ĠAug": 4095
    },
    "merges": [
      [
        "Ġ",
        "Ġ"
      ],
      [
        "Ġ",
        "t"
      ],
      [
        "Ġ",
        "a"
      ],
      [
        "i",
        "n"
      ],
      [
        "h",
        "e"
      ],
      [
        "r",
        "e"
      ],
      [
        "o",
        "n"
      ],
      [
        "ĠĠ",
        "ĠĠ"
      ],
      [
        "Ġt",
        "he"
      ],
      [
        "e",
        "r"
      ],
      [
        "a",
        "t"
      ],
      [
        "Ġ",
        "s"
      ],
      [
        "e",
        "n"
      ],
      [
        "Ġ",
        "o"
      ],
      [
        "Ġ",
        "c"
      ],
      [
        "Ġ",
        "w"
      ],
      [
        "i",
        "s"
      ],
      [
        "i",
        "t"
      ],
      [
        "o",
        "r"
      ],
      [
        "e",
        "s"
      ],
      [
        "e",
        "d"
      ],
      [
        "a",
        "l"
      ],
      [
        "a",
        "n"
      ],
      [
        "Ġ",
        "p"
      ],
      [
        "Ġ",
        "f"
      ],
      [
        "Ġ",
        "b"
      ],
      [
        "Ġa",
        "n"
      ],
      [
        "in",
        "g"
      ],
      [
        "Ġ",
        "in"
      ],
      [
        "Ġo",
        "f"
      ],
      [
        "a",
        "r"
      ],
      [
        "i",
        "on"
      ],
      [
        "o",
        "u"
      ],
      [
        "Ġ",
        "m"
      ],
      [
        "Ġ",
        "d"
      ],
      [
        "i",
        "c"
      ],
      [
        "-",
        "-"
      ],
      [
        "Ġt",
        "o"
      ],
      [
        "l",
        "e"
      ],
      [
        "a",
        "s"
      ],
      [
        "ĠĠĠĠ",
        "ĠĠĠĠ"
      ],
      [
        "Ġan",
        "d"
      ],
      [
        "r",
        "o"
      ],
      [
        "Ġt",
        "h"
      ],
      [
        "en",
        "t"
      ],
      [
        "Ġ",
        "h"
      ],
      [
        "c",
        "t"
      ],
      [
        "Ġ",
        "re"
      ],
      [
        "e",
        "t"
      ],
      [
        "Ġ",
        "n"
      ],
      [
        "e",
        "l"
      ],
      [
        "s",
        "t"
      ],
      [
        "o",
        "m"
      ],
      [
        "i",
        "l"
      ],
      [
        "Ġ",
        "e"
      ],
      [
        "Ġ",
        "l"
      ],
      [
        "i",
        "d"
      ],
      [
        "o",
        "t"
      ],
      [
        "i",
        "m"
      ],
      [
        "i",
        "g"
      ],
      [
        "v",
        "e"
      ],
      [
        "Ġ",
        "is"
      ],
      [
        "u",
        "t"
      ],
      [
        "Ġ",
        "g"
      ],
      [
        "Ġ",
        "("
      ],
      [
        "Ġ",
        "T"
      ],
      [
        "--",
        "--"
      ],
      [
        "a",
        "m"
      ],
      [
        "o",
        "l"
      ],
      [
        "Ġ",
        "I"
      ],
      [
        "at",
        "ion"
      ],
      [
        "s",
        "e"
      ],
      [
        "c",
        "e"
      ],
      [
        "l",
        "y"
      ],
      [
        "â",
        "Ģ"
      ],
      [
        "Ġf",
        "or"
      ],
      [
        "u",
        "r"
      ],
      [
        "ĠĠ",
        "Ġ"
      ],
      [
        "Ġb",
        "e"
      ],
      [
        "Ġ",
        "S"
      ],
      [
        "o",
        "w"
      ],
      [
        "Ġth",
        "at"
      ],
      [
        "Ġ",
        "u"
      ],
      [
        "a",
        "d"
      ],
      [
        "Ġ",
        "on"
      ],
      [
        "Ġ",
        "A"
      ],
      [
        "Ġ",
        "C"
      ],
      [
        "Ġs",
        "t"
      ],
      [
        "c",
        "h"
      ],
      [
        "v",
        "er"
      ],
      [
        "a",
        "y"
      ],
      [
        "u",
        "l"
      ],
      [
        "it",
        "h"
      ],
      [
        "Ġ",
        "1"
      ],
      [
        "i",
        "f"
      ],
      [
        "Ġc",
        "on"
      ],
      [
        "Ġw",
        "ith"
      ],
      [
        "r",
        "a"
      ],
      [
        "ĠĠĠĠĠĠĠĠ",
        "ĠĠĠĠĠĠĠĠ"
      ],
      [
        "Ġ",
        "y"
      ],
      [
        "Ġa",
        "s"
      ],
      [
        "i",
        "r"
      ],
      [
        "o",
        "d"
      ],
      [
        "t",
        "er"
      ],
      [
        "0",
        "0"
      ],
      [
        "Ġp",
        "ro"
      ],
      [
        "Ġ",
        "\""
      ],
      [
        "at",
        "e"
      ],
      [
        "Ġ",
        "$"
      ],
      [
        "Ġ",
        "it"
      ],
      [
        "he",
        "r"
      ],
      [
        "u",
        "m"
      ],
      [
        "Ġ",
        "M"
      ],
      [
        "a",
        "b"
      ],
      [
        "p",
        "e"
      ],
      [
        "Ġa",
        "l"
      ],
      [
        "Ġw",
        "e"
      ],
      [
        "r",
        "i"
      ],
      [
        "g",
        "e"
      ],
      [
        "n",
        "d"
      ],
      [
        "Ġ",
        "v"
      ],
      [
        "=",
        "="
      ],
      [
        "Ġw",
        "h"
      ],
      [
        "Ġ",
        "2"
      ],
      [
        "Ġ",
        "P"
      ],
      [
        "Ġd",
        "e"
      ],
      [
        "re",
        "s"
      ],
      [
        "p",
        "p"
      ],
      [
        "q",
        "u"
      ],
      [
        "a",
        "c"
      ],
      [
        "Ġy",
        "ou"
      ],
      [
        "m",
        "ent"
      ],
      [
        "es",
        "t"
      ],
      [
        "Ġe",
        "x"
      ],
      [
        "o",
        "s"
      ],
      [
        "is",
        "t"
      ],
      [
        "ĠT",
        "he"
      ],
      [
        "Ġw",
        "as"
      ],
      [
        "Ġ",
        "B"
      ],
      [
        "u",
        "s"
      ],
      [
        "Ġ",
        "\\"
      ],
      [
        "Ġ",
        "he"
      ],
      [
        "----",
        "----"
      ],
      [
        "an",
        "t"
      ],
      [
        "Ġo",
        "r"
      ],
      [
        "Ġc",
        "om"
      ],
      [
        "e",
        "m"
      ],
      [
        "h",
        "t"
      ],
      [
        "Ġa",
        "re"
      ],
      [
        "t",
        "h"
      ],
      [
        "*",
        "*"
      ],
      [
        "o",
        "c"
      ],
      [
        "Ġa",
        "t"
      ],
      [
        "er",
        "s"
      ],
      [
        "Ġs",
        "u"
      ],
      [
        "i",
        "v"
      ],
      [
        "Ġ",
        "="
      ],
      [
        "u",
        "n"
      ],
      [
        "it",
        "y"
      ],
      [
        "es",
        "s"
      ],
      [
        "a",
        "in"
      ],
      [
        "Ġ",
        "r"
      ],
      [
        "Ġ",
        "H"
      ],
      [
        "o",
        "p"
      ],
      [
        "Ġ",
        "F"
      ],
      [
        "Ġb",
        "y"
      ],
      [
        "Ġ",
        "D"
      ],
      [
        "Ġs",
        "e"
      ],
      [
        "l",
        "d"
      ],
      [
        "il",
        "l"
      ],
      [
        "ct",
        "ion"
      ],
      [
        "o",
        "re"
      ],
      [
        "ro",
        "m"
      ],
      [
        "an",
        "d"
      ],
      [
        "Ġ",
        "W"
      ],
      [
        "n",
        "t"
      ],
      [
        "k",
        "e"
      ],
      [
        "Ġn",
        "ot"
      ],
      [
        "Ġ",
        "-"
      ],
      [
        "en",
        "d"
      ],
      [
        "Ġh",
        "a"
      ],
      [
        "Ġ",
        "R"
      ],
      [
        "i",
        "ve"
      ],
      [
        "Ġ",
        "L"
      ],
      [
        "or",
        "t"
      ],
      [
        "Ġn",
        "e"
      ],
      [
        "p",
        "t"
      ],
      [
        "Ġth",
        "is"
      ],
      [
        "Ċ",
        "ĠĠĠĠ"
      ],
      [
        "Ġ",
        "N"
      ],
      [
        "âĢ",
        "Ļ"
      ],
      [
        "Ġf",
        "rom"
      ],
      [
        "ig",
        "ht"
      ],
      [
        "ar",
        "t"
      ],
      [
        "u",
        "d"
      ],
      [
        "re",
        "d"
      ],
      [
        "Ċ",
        "ĠĠĠ"
      ],
      [
        "p",
        "l"
      ],
      [
        "el",
        "l"
      ],
      [
        "Ġs",
        "h"
      ],
      [
        "i",
        "al"
      ],
      [
        "i",
        "es"
      ],
      [
        "t",
        "e"
      ],
      [
        "Ġ",
        "G"
      ],
      [
        "Ġc",
        "h"
      ],
      [
        "Ġha",
        "ve"
      ],
      [
        "at",
        "ed"
      ],
      [
        "Ġ",
        "E"
      ],
      [
        "f",
        "e"
      ],
      [
        "Ġ",
        "*"
      ],
      [
        "u",
        "re"
      ],
      [
        "in",
        "e"
      ],
      [
        "'",
        "s"
      ],
      [
        "ou",
        "ld"
      ],
      [
        "ou",
        "r"
      ],
      [
        "al",
        "l"
      ],
      [
        "{",
        "\\"
      ],
      [
        "Ġ",
        "le"
      ],
      [
        "Ġ",
        "0"
      ],
      [
        "a",
        "g"
      ],
      [
        "p",
        "er"
      ],
      [
        "o",
        "g"
      ],
      [
        "u",
        "st"
      ],
      [
        "a",
        "ge"
      ],
      [
        "ic",
        "al"
      ],
      [
        "Ġc",
        "an"
      ],
      [
        "am",
        "e"
      ],
      [
        ")",
        "."
      ],
      [
        "u",
        "e"
      ],
      [
        "i",
        "z"
      ],
      [
        "Ġ",
        "O"
      ],
      [
        "ic",
        "h"
      ],
      [
        "r",
        "ou"
      ],
      [
        "c",
        "l"
      ],
      [
        "Ġ",
        "3"
      ],
      [
        "i",
        "b"
      ],
      [
        "Ċ",
        "ĠĠĠĠĠĠĠĠ"
      ],
      [
        "ou",
        "t"
      ],
      [
        "ar",
        "d"
      ],
      [
        "Ġu",
        "s"
      ],
      [
        "om",
        "e"
      ],
      [
        "ab",
        "le"
      ],
      [
        "i",
        "e"
      ],
      [
        "as",
        "e"
      ],
      [
        "Ġre",
        "s"
      ],
      [
        "Ġc",
        "l"
      ],
      [
        "Ġw",
        "he"
      ],
      [
        ")",
        ";"
      ],
      [
        "Ġa",
        "b"
      ],
      [
        "at",
        "h"
      ],
      [
        "Ġ",
        "j"
      ],
      [
        "ac",
        "k"
      ],
      [
        "==",
        "=="
      ],
      [
        "ul",
        "t"
      ],
      [
        "as",
        "s"
      ],
      [
        "Ġ",
        "{"
      ],
      [
        "a",
        "ct"
      ],
      [
        "o",
        "st"
      ],
      [
        "Ġ",
        "k"
      ],
      [
        "an",
        "s"
      ],
      [
        "0",
        "1"
      ],
      [
        "Ġp",
        "l"
      ],
      [
        "Ġcom",
        "p"
      ],
      [
        "id",
        "e"
      ],
      [
        "t",
        "her"
      ],
      [
        ".",
        "\""
      ],
      [
        "Ġa",
        "d"
      ],
      [
        "Ġm",
        "e"
      ],
      [
        "Ċ",
        "Ġ"
      ],
      [
        "as",
        "t"
      ],
      [
        "=",
        "\""
      ],
      [
        "Ġcon",
        "t"
      ],
      [
        "Ġwe",
        "re"
      ],
      [
        "or",
        "m"
      ],
      [
        "Ġ",
        "âĢ"
      ],
      [
        "Ġ",
        "im"
      ],
      [
        "T",
        "he"
      ],
      [
        "Ġal",
        "l"
      ],
      [
        "Ġt",
        "r"
      ],
      [
        "u",
        "b"
      ],
      [
        "ig",
        "n"
      ],
      [
        "Ġ",
        "J"
      ],
      [
        "ĊĠĠĠĠ",
        "ĠĠĠ"
      ],
      [
        ".",
        "."
      ],
      [
        "Ġ",
        "U"
      ],
      [
        "a",
        "p"
      ],
      [
        "Ġ",
        "["
      ],
      [
        "Ġd",
        "o"
      ],
      [
        "in",
        "d"
      ],
      [
        "it",
        "ion"
      ],
      [
        "a",
        "k"
      ],
      [
        "i",
        "p"
      ],
      [
        "Ġwh",
        "ich"
      ],
      [
        "ĠĠĠĠĠĠĠĠĠĠĠĠĠĠĠĠ",
        "ĠĠĠĠĠĠĠĠĠĠĠĠĠĠĠĠ"
      ],
      [
        "p",
        "h"
      ],
      [
        "Ġh",
        "as"
      ],
      [
        "ic",
        "e"
      ],
      [
        "Ġ",
        "+"
      ],
      [
        "c",
        "c"
      ],
      [
        "on",
        "e"
      ],
      [
        "ar",
        "y"
      ],
      [
        "ou",
        "s"
      ],
      [
        "ĉ",
        "ĉ"
      ],
      [
        "/",
        "/"
      ],
      [
        "Ġb",
        "ut"
      ],
      [
        "im",
        "e"
      ],
      [
        "Ġin",
        "t"
      ],
      [
        "en",
        "s"
      ],
      [
        "ĠI",
        "n"
      ],
      [
        "a",
        "re"
      ],
      [
        "in",
        "t"
      ],
      [
        "--------",
        "--------"
      ],
      [
        "c",
        "on"
      ],
      [
        "Ġw",
        "or"
      ],
      [
        "_",
        "{"
      ],
      [
        "d",
        "u"
      ],
      [
        "Ġd",
        "is"
      ],
      [
        "res",
        "s"
      ],
      [
        "on",
        "g"
      ],
      [
        "en",
        "ce"
      ],
      [
        "ation",
        "s"
      ],
      [
        "Ġ",
        "4"
      ],
      [
        "t",
        "y"
      ],
      [
        "f",
        "f"
      ],
      [
        "Ġw",
        "ill"
      ],
      [
        "n",
        "e"
      ],
      [
        "i",
        "le"
      ],
      [
        "o",
        "k"
      ],
      [
        "Ġg",
        "o"
      ],
      [
        ")",
        ","
      ],
      [
        "Ġ",
        "<"
      ],
      [
        "r",
        "u"
      ],
      [
        "Ġo",
        "ut"
      ],
      [
        "e",
        "p"
      ],
      [
        "o",
        "se"
      ],
      [
        "an",
        "ce"
      ],
      [
        "}",
        "}"
      ],
      [
        "g",
        "h"
      ],
      [
        "Â",
        "ł"
      ],
      [
        "a",
        "v"
      ],
      [
        "Ġ",
        "if"
      ],
      [
        "Ġp",
        "er"
      ],
      [
        "ent",
        "s"
      ],
      [
        "Ġ",
        "en"
      ],
      [
        "a",
        "u"
      ],
      [
        "al",
        "ly"
      ],
      [
        "ĠT",
        "h"
      ],
      [
        "b",
        "er"
      ],
      [
        "Ġ",
        "5"
      ],
      [
        "Ġh",
        "is"
      ],
      [
        "a",
        "ce"
      ],
      [
        "Ġon",
        "e"
      ],
      [
        "s",
        "o"
      ],
      [
        "Ġu",
        "n"
      ],
      [
        "p",
        "ort"
      ],
      [
        "x",
        "t"
      ],
      [
        "el",
        "y"
      ],
      [
        "i",
        "a"
      ],
      [
        "or",
        "d"
      ],
      [
        "Ġthe",
        "y"
      ],
      [
        "or",
        "y"
      ],
      [
        "i",
        "re"
      ],
      [
        "e",
        "ar"
      ],
      [
        "a",
        "ch"
      ],
      [
        "e",
        "ct"
      ],
      [
        "ion",
        "s"
      ],
      [
        "Ġa",
        "pp"
      ],
      [
        "Ġe",
        "v"
      ],
      [
        "Ġs",
        "o"
      ],
      [
        "f",
        "orm"
      ],
      [
        "r",
        "y"
      ],
      [
        "Ġu",
        "p"
      ],
      [
        "an",
        "g"
      ],
      [
        "Ġ",
        "qu"
      ],
      [
        "re",
        "e"
      ],
      [
        "l",
        "ic"
      ],
      [
        "Ġa",
        "r"
      ],
      [
        "Ġthe",
        "ir"
      ],
      [
        "âĢ",
        "Ŀ"
      ],
      [
        "Ġm",
        "ore"
      ],
      [
        "Ġp",
        "art"
      ],
      [
        "a",
        "il"
      ],
      [
        "Ġ",
        "K"
      ],
      [
        "it",
        "e"
      ],
      [
        "or",
        "s"
      ],
      [
        "l",
        "l"
      ],
      [
        "Ġthe",
        "re"
      ],
      [
        "y",
        "s"
      ],
      [
        "Ġa",
        "g"
      ],
      [
        "Ġp",
        "re"
      ],
      [
        "a",
        "ke"
      ],
      [
        "Ġo",
        "ther"
      ],
      [
        "Ġl",
        "i"
      ],
      [
        "ow",
        "n"
      ],
      [
        "ĠĠĠĠ",
        "ĠĠĠ"
      ],
      [
        "ver",
        "y"
      ],
      [
        "Ġ",
        "}"
      ],
      [
        "ou",
        "nd"
      ],
      [
        "Ġyou",
        "r"
      ],
      [
        "f",
        "t"
      ],
      [
        "Ġ$",
        "\\"
      ],
      [
        "v",
        "el"
      ],
      [
        "Ġh",
        "ad"
      ],
      [
        "ou",
        "nt"
      ],
      [
        "fe",
        "re"
      ],
      [
        "c",
        "re"
      ],
      [
        "ur",
        "n"
      ],
      [
        "ĠS",
        "t"
      ],
      [
        "Ġs",
        "a"
      ],
      [
        "at",
        "a"
      ],
      [
        "Ġbe",
        "en"
      ],
      [
        "c",
        "om"
      ],
      [
        "Ġs",
        "p"
      ],
      [
        "m",
        "ath"
      ],
      [
        "Ġm",
        "an"
      ],
      [
        "k",
        "s"
      ],
      [
        "Ġal",
        "so"
      ],
      [
        "Ġwh",
        "o"
      ],
      [
        "er",
        "v"
      ],
      [
        "Ġan",
        "y"
      ],
      [
        "w",
        "e"
      ],
      [
        "at",
        "es"
      ],
      [
        "Ġw",
        "ould"
      ],
      [
        "d",
        "e"
      ],
      [
        "Ġ",
        "V"
      ],
      [
        "Ġn",
        "o"
      ],
      [
        "[",
        "@"
      ],
      [
        "Ġab",
        "out"
      ],
      [
        "nd",
        "er"
      ],
      [
        "l",
        "ow"
      ],
      [
        "j",
        "ect"
      ],
      [
        "Ċ",
        "Ċ"
      ],
      [
        "Ġwhe",
        "n"
      ],
      [
        "et",
        "h"
      ],
      [
        "Ġm",
        "y"
      ],
      [
        "Ġ",
        "'"
      ],
      [
        "Ġ",
        "&"
      ],
      [
        "if",
        "ic"
      ],
      [
        "o",
        "ok"
      ],
      [
        "\\",
        "]"
      ],
      [
        "Ġo",
        "b"
      ],
      [
        "Ġt",
        "ime"
      ],
      [
        "p",
        "le"
      ],
      [
        "Ġth",
        "an"
      ],
      [
        "at",
        "er"
      ],
      [
        "'",
        "t"
      ],
      [
        "ic",
        "t"
      ],
      [
        "Ġas",
        "s"
      ],
      [
        "w",
        "o"
      ],
      [
        "er",
        "m"
      ],
      [
        "Ġ",
        "6"
      ],
      [
        "Ġo",
        "ver"
      ],
      [
        "re",
        "f"
      ],
      [
        "1",
        "0"
      ],
      [
        "Ġit",
        "s"
      ],
      [
        "}",
        "$"
      ],
      [
        "ro",
        "w"
      ],
      [
        "r",
        "ing"
      ],
      [
        "Ġ1",
        "9"
      ],
      [
        "Ġs",
        "ome"
      ],
      [
        "Ġs",
        "c"
      ],
      [
        "ĠâĢ",
        "ľ"
      ],
      [
        "o",
        "b"
      ],
      [
        "cl",
        "ud"
      ],
      [
        "ri",
        "b"
      ],
      [
        "c",
        "k"
      ],
      [
        "f",
        "ter"
      ],
      [
        "ay",
        "s"
      ],
      [
        "c",
        "es"
      ],
      [
        "<",
        "/"
      ],
      [
        "Ġs",
        "pe"
      ],
      [
        "g",
        "et"
      ],
      [
        "Ġb",
        "et"
      ],
      [
        "Ġs",
        "y"
      ],
      [
        "le",
        "ct"
      ],
      [
        "Ġne",
        "w"
      ],
      [
        "Ġg",
        "en"
      ],
      [
        "Ġd",
        "if"
      ],
      [
        "I",
        "n"
      ],
      [
        "fe",
        "ct"
      ],
      [
        "ĊĠĠĠĠĠĠĠĠ",
        "ĠĠĠ"
      ],
      [
        "ol",
        "d"
      ],
      [
        "Ġa",
        "m"
      ],
      [
        "ir",
        "st"
      ],
      [
        "o",
        "ve"
      ],
      [
        "^",
        "{"
      ],
      [
        "Ġt",
        "e"
      ],
      [
        "od",
        "e"
      ],
      [
        "h",
        "at"
      ],
      [
        "i",
        "ed"
      ],
      [
        "Ġin",
        "ter"
      ],
      [
        "ver",
        "s"
      ],
      [
        "Ġf",
        "e"
      ],
      [
        "p",
        "s"
      ],
      [
        "Ġsu",
        "b"
      ],
      [
        "Ġg",
        "et"
      ],
      [
        "il",
        "d"
      ],
      [
        "Ġde",
        "f"
      ],
      [
        "Ġa",
        "cc"
      ],
      [
        "1",
        "9"
      ],
      [
        "Ġ",
        "her"
      ],
      [
        "Ġof",
        "f"
      ],
      [
        "Ġk",
        "n"
      ],
      [
        "Ġ",
        "Y"
      ],
      [
        "re",
        "at"
      ],
      [
        "au",
        "se"
      ],
      [
        "Ġcom",
        "m"
      ],
      [
        "Ġa",
        "ct"
      ],
      [
        "Ġint",
        "o"
      ],
      [
        "Ġo",
        "ur"
      ],
      [
        "c",
        "ed"
      ],
      [
        "Ġu",
        "nder"
      ],
      [
        "o",
        "v"
      ],
      [
        "Ġ",
        "ro"
      ],
      [
        "is",
        "s"
      ],
      [
        "Ġcon",
        "s"
      ],
      [
        "ing",
        "s"
      ],
      [
        "in",
        "k"
      ],
      [
        "Ġp",
        "e"
      ],
      [
        "ĠI",
        "t"
      ],
      [
        "#",
        "#"
      ],
      [
        "Ġd",
        "es"
      ],
      [
        "Ġre",
        "l"
      ],
      [
        "Ġm",
        "ay"
      ],
      [
        "m",
        "a"
      ],
      [
        "====",
        "===="
      ],
      [
        "u",
        "al"
      ],
      [
        "Ġre",
        "c"
      ],
      [
        "1",
        "2"
      ],
      [
        "ic",
        "k"
      ],
      [
        "Ġon",
        "ly"
      ],
      [
        "at",
        "ive"
      ],
      [
        "Ġt",
        "wo"
      ],
      [
        "ar",
        "i"
      ],
      [
        "p",
        "on"
      ],
      [
        "Ġsa",
        "id"
      ],
      [
        "Ġthe",
        "m"
      ],
      [
        "Ġv",
        "al"
      ],
      [
        "er",
        "t"
      ],
      [
        "ie",
        "w"
      ],
      [
        "pe",
        "ct"
      ],
      [
        "Ġy",
        "ear"
      ],
      [
        "Ġwor",
        "k"
      ],
      [
        "Ġst",
        "ud"
      ],
      [
        "Ġbe",
        "c"
      ],
      [
        "Ġwh",
        "at"
      ],
      [
        "ul",
        "ar"
      ],
      [
        "Ġli",
        "ke"
      ],
      [
        "Ġad",
        "d"
      ],
      [
        "Ġin",
        "d"
      ],
      [
        "Ġ",
        "7"
      ],
      [
        "he",
        "d"
      ],
      [
        "Ġre",
        "t"
      ],
      [
        "ar",
        "k"
      ],
      [
        "Ġm",
        "od"
      ],
      [
        "ig",
        "h"
      ],
      [
        "Ġre",
        "g"
      ],
      [
        "Ġp",
        "os"
      ],
      [
        "ĠC",
        "h"
      ],
      [
        "Ġtr",
        "ans"
      ],
      [
        "p",
        "ro"
      ],
      [
        "un",
        "ction"
      ],
      [
        "Ġin",
        "v"
      ],
      [
        "el",
        "f"
      ],
      [
        "ĠTh",
        "is"
      ],
      [
        "c",
        "ess"
      ],
      [
        "o",
        "int"
      ],
      [
        "Ġe",
        "m"
      ],
      [
        "Ġb",
        "l"
      ],
      [
        "Ġu",
        "se"
      ],
      [
        "oc",
        "k"
      ],
      [
        "st",
        "em"
      ],
      [
        "Ġc",
        "o"
      ],
      [
        "it",
        "t"
      ],
      [
        "is",
        "h"
      ],
      [
        "Ġf",
        "irst"
      ],
      [
        "Ġsu",
        "ch"
      ],
      [
        "as",
        "ed"
      ],
      [
        "at",
        "ing"
      ],
      [
        "Ġj",
        "ust"
      ],
      [
        "Ġ2",
        "01"
      ],
      [
        "e",
        "x"
      ],
      [
        "on",
        "t"
      ],
      [
        "Ġp",
        "r"
      ],
      [
        "e",
        "f"
      ],
      [
        "Ġp",
        "h"
      ],
      [
        "Ġ",
        "8"
      ],
      [
        "ĠW",
        "e"
      ],
      [
        "Ġp",
        "res"
      ],
      [
        "Ġfor",
        "m"
      ],
      [
        "Ġthe",
        "se"
      ],
      [
        "i",
        "an"
      ],
      [
        "\"",
        ","
      ],
      [
        "ment",
        "s"
      ],
      [
        "ad",
        "e"
      ],
      [
        "Ġpro",
        "v"
      ],
      [
        "i",
        "ent"
      ],
      [
        "Ġdif",
        "fere"
      ],
      [
        "Ġwhe",
        "re"
      ],
      [
        "il",
        "ity"
      ],
      [
        "ĊĠĠĠĠ",
        "Ġ"
      ],
      [
        "1",
        "1"
      ],
      [
        "Ġc",
        "ol"
      ],
      [
        "}",
        "\\"
      ],
      [
        "ĠH",
        "e"
      ],
      [
        "Ġp",
        "at"
      ],
      [
        "Ġs",
        "he"
      ],
      [
        "Ġa",
        "fter"
      ],
      [
        "Ġd",
        "et"
      ],
      [
        "Ġs",
        "ign"
      ],
      [
        "ra",
        "c"
      ],
      [
        "iz",
        "e"
      ],
      [
        "Ġp",
        "ol"
      ],
      [
        "Ċ",
        "ĉĉ"
      ],
      [
        "id",
        "ent"
      ],
      [
        "a",
        "w"
      ],
      [
        "Ġh",
        "ow"
      ],
      [
        "e",
        "c"
      ],
      [
        "Ġ1",
        "0"
      ],
      [
        "o",
        "od"
      ],
      [
        "we",
        "en"
      ],
      [
        "ot",
        "h"
      ],
      [
        "Ġne",
        "ed"
      ],
      [
        "_",
        "_"
      ],
      [
        "d",
        "er"
      ],
      [
        "s",
        "s"
      ],
      [
        "f",
        "fect"
      ],
      [
        "ol",
        "og"
      ],
      [
        "op",
        "le"
      ],
      [
        "t",
        "he"
      ],
      [
        "Ġex",
        "p"
      ],
      [
        "g",
        "r"
      ],
      [
        "Ġs",
        "et"
      ],
      [
        "ty",
        "pe"
      ],
      [
        "pt",
        "ion"
      ],
      [
        "Ġthe",
        "n"
      ],
      [
        "Ġc",
        "ould"
      ],
      [
        "ub",
        "lic"
      ],
      [
        "ut",
        "ion"
      ],
      [
        "an",
        "ge"
      ],
      [
        "Ġcl",
        "ass"
      ],
      [
        "ĊĠĠĠĠĠĠĠĠ",
        "ĠĠĠĠĠĠĠ"
      ],
      [
        "Ġ",
        "9"
      ],
      [
        "]",
        "("
      ],
      [
        "(",
        ")"
      ],
      [
        "Ġres",
        "ult"
      ],
      [
        "Ġat",
        "t"
      ],
      [
        "S",
        "t"
      ],
      [
        "Ġbet",
        "ween"
      ],
      [
        "Ġc",
        "ell"
      ],
      [
        "ou",
        "gh"
      ],
      [
        "Ġre",
        "m"
      ],
      [
        "f",
        "ig"
      ],
      [
        "is",
        "e"
      ],
      [
        "00",
        "0"
      ],
      [
        "r",
        "ight"
      ],
      [
        "i",
        "ous"
      ],
      [
        "Ġ\\",
        "["
      ],
      [
        "Ġsu",
        "pp"
      ],
      [
        "l",
        "es"
      ],
      [
        "ol",
        "low"
      ],
      [
        "2",
        "0"
      ],
      [
        ".",
        ","
      ],
      [
        "i",
        "x"
      ],
      [
        "e",
        "g"
      ],
      [
        "b",
        "le"
      ],
      [
        "y",
        "pe"
      ],
      [
        "Ċ",
        "ĉ"
      ],
      [
        "Ġg",
        "rou"
      ],
      [
        "Ġ",
        "|"
      ],
      [
        "u",
        "p"
      ],
      [
        "Ġin",
        "clud"
      ],
      [
        "Ġus",
        "ed"
      ],
      [
        "ib",
        "le"
      ],
      [
        "a",
        "x"
      ],
      [
        "i",
        "el"
      ],
      [
        "E",
        "R"
      ],
      [
        "al",
        "s"
      ],
      [
        "Ġd",
        "id"
      ],
      [
        "our",
        "t"
      ],
      [
        "Ġd",
        "ata"
      ],
      [
        "Ġn",
        "um"
      ],
      [
        "Ġsh",
        "ow"
      ],
      [
        "u",
        "es"
      ],
      [
        "on",
        "s"
      ],
      [
        "Ġkn",
        "ow"
      ],
      [
        "Ġf",
        "l"
      ],
      [
        "o",
        "y"
      ],
      [
        ")",
        "{"
      ],
      [
        "c",
        "y"
      ],
      [
        "Ġf",
        "act"
      ],
      [
        "\"",
        ">"
      ],
      [
        "Ġpe",
        "ople"
      ],
      [
        "ra",
        "ct"
      ],
      [
        "ter",
        "n"
      ],
      [
        "ul",
        "l"
      ],
      [
        "Ġsh",
        "ould"
      ],
      [
        "ic",
        "s"
      ],
      [
        "o",
        "x"
      ],
      [
        "rou",
        "gh"
      ],
      [
        "n",
        "ing"
      ],
      [
        "Ġa",
        "c"
      ],
      [
        "Ġc",
        "or"
      ],
      [
        "Ġs",
        "im"
      ],
      [
        "Ġh",
        "im"
      ],
      [
        "Ġs",
        "ur"
      ],
      [
        "m",
        "s"
      ],
      [
        "Ġspe",
        "c"
      ],
      [
        "it",
        "s"
      ],
      [
        "he",
        "n"
      ],
      [
        "**",
        "**"
      ],
      [
        "Ġre",
        "qu"
      ],
      [
        "Ġf",
        "ollow"
      ],
      [
        "f",
        "ore"
      ],
      [
        "Ġus",
        "ing"
      ],
      [
        "Ġd",
        "ist"
      ],
      [
        "re",
        "n"
      ],
      [
        "in",
        "al"
      ],
      [
        "ru",
        "ct"
      ],
      [
        "Ġ",
        "i"
      ],
      [
        "Ġse",
        "e"
      ],
      [
        "Ġb",
        "ack"
      ],
      [
        "Ġbec",
        "ause"
      ],
      [
        "s",
        "p"
      ],
      [
        "Ġf",
        "unction"
      ],
      [
        "Ġcon",
        "st"
      ],
      [
        "in",
        "ed"
      ],
      [
        "iel",
        "d"
      ],
      [
        "f",
        "ul"
      ],
      [
        "Ġsy",
        "stem"
      ],
      [
        "it",
        "ies"
      ],
      [
        "Ġm",
        "ost"
      ],
      [
        ")",
        "$"
      ],
      [
        "l",
        "i"
      ],
      [
        "e",
        "ver"
      ],
      [
        "Ġin",
        "st"
      ],
      [
        "I",
        "N"
      ],
      [
        "r",
        "it"
      ],
      [
        "1",
        "5"
      ],
      [
        "----------------",
        "----------------"
      ],
      [
        "Ċ",
        "ĠĠĠĠĠĠĠĠĠĠĠĠĠĠĠĠ"
      ],
      [
        "o",
        "ol"
      ],
      [
        "p",
        "os"
      ],
      [
        "Ġ",
        "."
      ],
      [
        "p",
        "ut"
      ],
      [
        "1",
        "3"
      ],
      [
        "it",
        "ed"
      ],
      [
        "Ġ",
        "end"
      ],
      [
        "Ġs",
        "m"
      ],
      [
        "s",
        "c"
      ],
      [
        "ur",
        "ing"
      ],
      [
        "u",
        "res"
      ],
      [
        "Ġw",
        "ell"
      ],
      [
        "in",
        "s"
      ],
      [
        "1",
        "6"
      ],
      [
        "\"",
        "}"
      ],
      [
        "Ġret",
        "urn"
      ],
      [
        "Ġth",
        "rough"
      ],
      [
        "Ġpro",
        "du"
      ],
      [
        "Ġt",
        "est"
      ],
      [
        "Ġr",
        "ight"
      ],
      [
        "Ġt",
        "ra"
      ],
      [
        "Ġgen",
        "er"
      ],
      [
        "Ġ[",
        "@"
      ],
      [
        "(",
        "\\"
      ],
      [
        "ĠU",
        "n"
      ],
      [
        "Ġb",
        "u"
      ],
      [
        "]",
        "{"
      ],
      [
        "Ġag",
        "ain"
      ],
      [
        "Ġex",
        "t"
      ],
      [
        "Ġch",
        "ar"
      ],
      [
        "1",
        "4"
      ],
      [
        "Ġw",
        "ant"
      ],
      [
        "he",
        "s"
      ],
      [
        "m",
        "er"
      ],
      [
        "Ġh",
        "igh"
      ],
      [
        "Ġdiffere",
        "nt"
      ],
      [
        "Ġe",
        "ach"
      ],
      [
        "er",
        "r"
      ],
      [
        "iz",
        "ed"
      ],
      [
        "ation",
        "al"
      ],
      [
        "t",
        "o"
      ],
      [
        "ĠĠĠĠ",
        "Ġ"
      ],
      [
        "ow",
        "er"
      ],
      [
        "Ġc",
        "ase"
      ],
      [
        "-",
        ">"
      ],
      [
        "rou",
        "nd"
      ],
      [
        "con",
        "d"
      ],
      [
        "Ġst",
        "ate"
      ],
      [
        "Ġdo",
        "es"
      ],
      [
        "im",
        "es"
      ],
      [
        "at",
        "or"
      ],
      [
        "Ġ",
        "ent"
      ],
      [
        "Ġe",
        "ffect"
      ],
      [
        "te",
        "xt"
      ],
      [
        "ical",
        "ly"
      ],
      [
        "w",
        "n"
      ],
      [
        "i",
        "o"
      ],
      [
        "r",
        "ic"
      ],
      [
        "T",
        "h"
      ],
      [
        "]",
        ","
      ],
      [
        "ĠS",
        "e"
      ],
      [
        "2",
        "5"
      ],
      [
        "O",
        "N"
      ],
      [
        "e",
        "w"
      ],
      [
        "u",
        "ch"
      ],
      [
        "ot",
        "her"
      ],
      [
        "t",
        "a"
      ],
      [
        "n",
        "ce"
      ],
      [
        "Ġev",
        "en"
      ],
      [
        "ri",
        "v"
      ],
      [
        "il",
        "y"
      ],
      [
        "Ġ2",
        "00"
      ],
      [
        "Ġm",
        "ake"
      ],
      [
        "ction",
        "s"
      ],
      [
        "p",
        "ar"
      ],
      [
        "c",
        "al"
      ],
      [
        "i",
        "ents"
      ],
      [
        "s",
        "et"
      ],
      [
        "Ġm",
        "in"
      ],
      [
        "or",
        "k"
      ],
      [
        "le",
        "t"
      ],
      [
        "_",
        "{\\"
      ],
      [
        "v",
        "ent"
      ],
      [
        "Ġ",
        "@"
      ],
      [
        "ro",
        "l"
      ],
      [
        "Ġ",
        ":"
      ],
      [
        "..",
        "."
      ],
      [
        "Ġe",
        "very"
      ],
      [
        "u",
        "c"
      ],
      [
        ")",
        ")"
      ],
      [
        "1",
        "8"
      ],
      [
        "eth",
        "od"
      ],
      [
        "Ġ",
        "ke"
      ],
      [
        "Ġc",
        "ur"
      ],
      [
        "Ġ",
        "ra"
      ],
      [
        "ut",
        "e"
      ],
      [
        "re",
        "ad"
      ],
      [
        "Ġs",
        "ame"
      ],
      [
        "Ġc",
        "all"
      ],
      [
        "ant",
        "s"
      ],
      [
        "f",
        "rac"
      ],
      [
        "ar",
        "s"
      ],
      [
        "Ġw",
        "ay"
      ],
      [
        "Ġn",
        "ow"
      ],
      [
        "g",
        "er"
      ],
      [
        "Ġan",
        "al"
      ],
      [
        "Ġa",
        "p"
      ],
      [
        "ce",
        "pt"
      ],
      [
        "Ġf",
        "ind"
      ],
      [
        "Ġde",
        "c"
      ],
      [
        "in",
        "ce"
      ],
      [
        "v",
        "al"
      ],
      [
        "Ġ",
        "/"
      ],
      [
        "Ġd",
        "on"
      ],
      [
        "\"",
        ":"
      ],
      [
        "Ġin",
        "cre"
      ],
      [
        "ain",
        "t"
      ],
      [
        "ar",
        "ch"
      ],
      [
        "](",
        "#"
      ],
      [
        "Ġp",
        "oint"
      ],
      [
        "oc",
        "i"
      ],
      [
        "ĠĠĠĠĠĠĠĠĠĠĠĠĠĠĠĠĠĠĠĠĠĠĠĠĠĠĠĠĠĠĠĠ",
        "ĠĠĠĠĠĠĠĠĠĠĠĠĠĠĠĠĠĠĠĠĠĠĠĠĠĠĠĠĠĠĠĠ"
      ],
      [
        "Ġl",
        "ook"
      ],
      [
        "o",
        "id"
      ],
      [
        "1",
        "7"
      ],
      [
        "Ġth",
        "ose"
      ],
      [
        "st",
        "r"
      ],
      [
        "w",
        "ard"
      ],
      [
        "vel",
        "op"
      ],
      [
        "Ġin",
        "te"
      ],
      [
        "Ġl",
        "ong"
      ],
      [
        "Ġyear",
        "s"
      ],
      [
        "Ġ",
        "very"
      ],
      [
        "Ġ",
        "_"
      ],
      [
        "Ġd",
        "i"
      ],
      [
        "u",
        "g"
      ],
      [
        "as",
        "on"
      ],
      [
        "y",
        "m"
      ],
      [
        "Ġpart",
        "ic"
      ],
      [
        "Ġl",
        "oc"
      ],
      [
        "p",
        "r"
      ],
      [
        "en",
        "se"
      ],
      [
        "Ġb",
        "oth"
      ],
      [
        "Ġv",
        "ari"
      ],
      [
        "Ġhe",
        "re"
      ],
      [
        "as",
        "es"
      ],
      [
        "u",
        "nd"
      ],
      [
        "Ġm",
        "on"
      ],
      [
        "r",
        "m"
      ],
      [
        "d",
        "ay"
      ],
      [
        "in",
        "es"
      ],
      [
        "c",
        "ent"
      ],
      [
        "re",
        "nt"
      ],
      [
        "ire",
        "ct"
      ],
      [
        "A",
        "T"
      ],
      [
        "re",
        "st"
      ],
      [
        "Ġa",
        "ut"
      ],
      [
        "Ġm",
        "at"
      ],
      [
        "am",
        "ple"
      ],
      [
        "Ġf",
        "ound"
      ],
      [
        "Ġ",
        "//"
      ],
      [
        "Ġb",
        "el"
      ],
      [
        "Ġbe",
        "ing"
      ],
      [
        "at",
        "ic"
      ],
      [
        "t",
        "ing"
      ],
      [
        "a",
        "ir"
      ],
      [
        "y",
        "p"
      ],
      [
        "Ġt",
        "ri"
      ],
      [
        "$",
        "\\"
      ],
      [
        "Ġm",
        "ed"
      ],
      [
        "Ġex",
        "per"
      ],
      [
        "l",
        "ed"
      ],
      [
        "?",
        "\""
      ],
      [
        "Ġapp",
        "ro"
      ],
      [
        "Ġp",
        "ers"
      ],
      [
        "Ġp",
        "ar"
      ],
      [
        ":",
        ":"
      ],
      [
        "ag",
        "es"
      ],
      [
        "Ġman",
        "y"
      ],
      [
        "Ġpl",
        "ay"
      ],
      [
        "Ġbe",
        "fore"
      ],
      [
        "if",
        "e"
      ],
      [
        "]{",
        "}"
      ],
      [
        "3",
        "2"
      ],
      [
        "n",
        "g"
      ],
      [
        "ic",
        "es"
      ],
      [
        "ĠC",
        "om"
      ],
      [
        "I",
        "t"
      ],
      [
        "a",
        "red"
      ],
      [
        "al",
        "th"
      ],
      [
        "Ġnum",
        "ber"
      ],
      [
        "Ġf",
        "il"
      ],
      [
        "]",
        "\\]"
      ],
      [
        "Ġ",
        "Q"
      ],
      [
        "o",
        "ver"
      ],
      [
        "Ġm",
        "em"
      ],
      [
        "âĢ",
        "ī"
      ],
      [
        "Ġg",
        "r"
      ],
      [
        "Ġ",
        "**"
      ],
      [
        "Ġpro",
        "te"
      ],
      [
        "t",
        "r"
      ],
      [
        "Ġs",
        "er"
      ],
      [
        "at",
        "ure"
      ],
      [
        "5",
        "0"
      ],
      [
        "3",
        "0"
      ],
      [
        "a",
        "pp"
      ],
      [
        "Ġ",
        "x"
      ],
      [
        "c",
        "er"
      ],
      [
        "Ġ",
        "el"
      ],
      [
        "Ġc",
        "ar"
      ],
      [
        "Ġp",
        "ublic"
      ],
      [
        "E",
        "S"
      ],
      [
        "if",
        "ied"
      ],
      [
        "A",
        "R"
      ],
      [
        "ak",
        "ing"
      ],
      [
        "Ġo",
        "p"
      ],
      [
        "s",
        "h"
      ],
      [
        "o",
        "f"
      ],
      [
        "m",
        "in"
      ],
      [
        "Ġres",
        "pon"
      ],
      [
        "}",
        "{"
      ],
      [
        "ate",
        "g"
      ],
      [
        "le",
        "ft"
      ],
      [
        "od",
        "y"
      ],
      [
        "n",
        "er"
      ],
      [
        "Ġg",
        "u"
      ],
      [
        "Ġth",
        "ink"
      ],
      [
        "Ġhe",
        "l"
      ],
      [
        "form",
        "ation"
      ],
      [
        "Ġc",
        "he"
      ],
      [
        "ĠĠĠĠ",
        "ĠĠ"
      ],
      [
        "Ġin",
        "s"
      ],
      [
        "Ġst",
        "r"
      ],
      [
        "en",
        "g"
      ],
      [
        "ress",
        "ion"
      ],
      [
        "Ġgo",
        "od"
      ],
      [
        "W",
        "e"
      ],
      [
        "al",
        "e"
      ],
      [
        "Ċ",
        "ĊĠĠĠ"
      ],
      [
        "Ġ1",
        "2"
      ],
      [
        "Ġpro",
        "cess"
      ],
      [
        "a",
        "ve"
      ],
      [
        "y",
        "l"
      ],
      [
        "as",
        "h"
      ],
      [
        "Ġd",
        "own"
      ],
      [
        "Ġin",
        "f"
      ],
      [
        "Ġre",
        "p"
      ],
      [
        "u",
        "pp"
      ],
      [
        "Ġmod",
        "el"
      ],
      [
        "ĠF",
        "or"
      ],
      [
        "an",
        "k"
      ],
      [
        "Ġm",
        "ade"
      ],
      [
        "Ġval",
        "ue"
      ],
      [
        "Ġre",
        "port"
      ],
      [
        "ĠâĢ",
        "ĵ"
      ],
      [
        "iv",
        "ely"
      ],
      [
        "Ġc",
        "ourt"
      ],
      [
        "is",
        "m"
      ],
      [
        "n",
        "ess"
      ],
      [
        "u",
        "ally"
      ],
      [
        "l",
        "ine"
      ],
      [
        "v",
        "en"
      ],
      [
        "Ġ\\[",
        "[@"
      ],
      [
        "Ġwh",
        "ile"
      ],
      [
        "Ġle",
        "vel"
      ],
      [
        "i",
        "red"
      ],
      [
        "v",
        "iew"
      ],
      [
        "Ġg",
        "iv"
      ],
      [
        "Ġstud",
        "y"
      ],
      [
        ":",
        "//"
      ],
      [
        "Ġs",
        "ol"
      ],
      [
        "math",
        "b"
      ],
      [
        "g",
        "g"
      ],
      [
        "N",
        "A"
      ],
      [
        "Ġpres",
        "ent"
      ],
      [
        "v",
        "ed"
      ],
      [
        "Ġde",
        "velop"
      ],
      [
        "2",
        "4"
      ],
      [
        "'",
        ","
      ],
      [
        "m",
        "on"
      ],
      [
        "Ġst",
        "art"
      ],
      [
        "um",
        "ent"
      ],
      [
        "ĠL",
        "et"
      ],
      [
        "2",
        "01"
      ],
      [
        "w",
        "ay"
      ],
      [
        "ain",
        "ed"
      ],
      [
        "Ġl",
        "ar"
      ],
      [
        "Ġsupp",
        "ort"
      ],
      [
        "O",
        "R"
      ],
      [
        ",",
        "\\"
      ],
      [
        "g",
        "ht"
      ],
      [
        "d",
        "ition"
      ],
      [
        "Ġre",
        "f"
      ],
      [
        "Ġc",
        "ount"
      ],
      [
        "--",
        "-"
      ],
      [
        "Ġdis",
        "c"
      ],
      [
        "Ġse",
        "cond"
      ],
      [
        "C",
        "R"
      ],
      [
        "Ġm",
        "uch"
      ],
      [
        "re",
        "t"
      ],
      [
        "$",
        ","
      ],
      [
        "Ġe",
        "qu"
      ],
      [
        "Ġ",
        "Â"
      ],
      [
        "c",
        "ul"
      ],
      [
        "Ġo",
        "wn"
      ],
      [
        "am",
        "s"
      ],
      [
        ".",
        "âĢĿ"
      ],
      [
        "er",
        "g"
      ],
      [
        "is",
        "ion"
      ],
      [
        "Ġh",
        "and"
      ],
      [
        "ĠP",
        "ro"
      ],
      [
        "ĠR",
        "e"
      ],
      [
        "o",
        "le"
      ],
      [
        "Ġs",
        "erv"
      ],
      [
        "00",
        "00"
      ],
      [
        "Ġt",
        "erm"
      ],
      [
        "ign",
        "ed"
      ],
      [
        "Ġth",
        "ree"
      ],
      [
        "m",
        "an"
      ],
      [
        "(",
        "\""
      ],
      [
        "iz",
        "ation"
      ],
      [
        "Ġre",
        "ad"
      ],
      [
        "ĠI",
        "f"
      ],
      [
        "Ġn",
        "on"
      ],
      [
        "ĠA",
        "l"
      ],
      [
        "r",
        "ay"
      ],
      [
        "Ġpat",
        "ients"
      ],
      [
        "Ġ",
        "est"
      ],
      [
        "id",
        "er"
      ],
      [
        "le",
        "ment"
      ],
      [
        "$",
        "."
      ],
      [
        "g",
        "an"
      ],
      [
        "al",
        "ity"
      ],
      [
        "ff",
        "ic"
      ],
      [
        "Ġde",
        "p"
      ],
      [
        "o",
        "ad"
      ],
      [
        "Ġ",
        "et"
      ],
      [
        "u",
        "se"
      ],
      [
        "Ġm",
        "ethod"
      ],
      [
        "Ġpos",
        "s"
      ],
      [
        "us",
        "s"
      ],
      [
        "Ġwith",
        "out"
      ],
      [
        "Ġan",
        "t"
      ],
      [
        "Ġd",
        "uring"
      ],
      [
        "Ġor",
        "der"
      ],
      [
        "am",
        "p"
      ],
      [
        "Ġcell",
        "s"
      ],
      [
        "ab",
        "el"
      ],
      [
        "ou",
        "n"
      ],
      [
        "en",
        "cy"
      ],
      [
        "ent",
        "ial"
      ],
      [
        "ĠA",
        "s"
      ],
      [
        "c",
        "ri"
      ],
      [
        ",",
        "\""
      ],
      [
        "Ġn",
        "ame"
      ],
      [
        "t",
        "on"
      ],
      [
        "an",
        "y"
      ],
      [
        "m",
        "ed"
      ],
      [
        "W",
        "hat"
      ],
      [
        "8",
        "0"
      ],
      [
        "et",
        "a"
      ],
      [
        "ar",
        "ly"
      ],
      [
        "Ġ2",
        "0"
      ],
      [
        "our",
        "ce"
      ],
      [
        "ĠA",
        "nd"
      ],
      [
        "Ġact",
        "iv"
      ],
      [
        "Ġhel",
        "p"
      ],
      [
        "Ġc",
        "re"
      ],
      [
        "n",
        "ot"
      ],
      [
        "Ġl",
        "ine"
      ],
      [
        "id",
        "ed"
      ],
      [
        "E",
        "N"
      ],
      [
        "ist",
        "s"
      ],
      [
        "id",
        "ence"
      ],
      [
        "if",
        "y"
      ],
      [
        "Ġgrou",
        "p"
      ],
      [
        "am",
        "b"
      ],
      [
        "Ġim",
        "port"
      ],
      [
        "Ġpro",
        "per"
      ],
      [
        "R",
        "e"
      ],
      [
        "Ġper",
        "form"
      ],
      [
        "ĠH",
        "ow"
      ],
      [
        "n",
        "ame"
      ],
      [
        "t",
        "t"
      ],
      [
        "S",
        "T"
      ],
      [
        "2",
        "2"
      ],
      [
        "c",
        "ial"
      ],
      [
        "I",
        "T"
      ],
      [
        "a",
        "h"
      ],
      [
        "at",
        "her"
      ],
      [
        "Ġl",
        "ast"
      ],
      [
        "b",
        "e"
      ],
      [
        "ĠA",
        "n"
      ],
      [
        "Ġc",
        "le"
      ],
      [
        "ab",
        "ility"
      ],
      [
        "4",
        "0"
      ],
      [
        "Ġpro",
        "ble"
      ],
      [
        "Ġle",
        "ad"
      ],
      [
        "al",
        "k"
      ],
      [
        "ter",
        "s"
      ],
      [
        "ou",
        "se"
      ],
      [
        "Ġa",
        "v"
      ],
      [
        "Ġs",
        "ay"
      ],
      [
        "Ġr",
        "un"
      ],
      [
        "ra",
        "ph"
      ],
      [
        "v",
        "ing"
      ],
      [
        "Ġ",
        "z"
      ],
      [
        "Ġagain",
        "st"
      ],
      [
        "ĠB",
        "ut"
      ],
      [
        "w",
        "w"
      ],
      [
        "9",
        "9"
      ],
      [
        "Ġsm",
        "all"
      ],
      [
        "an",
        "e"
      ],
      [
        "r",
        "on"
      ],
      [
        "Ġis",
        "s"
      ],
      [
        "Ġg",
        "l"
      ],
      [
        "ul",
        "ation"
      ],
      [
        "Ġo",
        "per"
      ],
      [
        "am",
        "es"
      ],
      [
        "Ġsign",
        "ific"
      ],
      [
        "(",
        "-"
      ],
      [
        "Ġle",
        "t"
      ],
      [
        "Ġcon",
        "f"
      ],
      [
        "Ġm",
        "ust"
      ],
      [
        "2",
        "3"
      ],
      [
        "ro",
        "ss"
      ],
      [
        "Ġt",
        "ake"
      ],
      [
        "h",
        "ip"
      ],
      [
        "Ġt",
        "ype"
      ],
      [
        "\\",
        "["
      ],
      [
        "Ġst",
        "ill"
      ],
      [
        "Ġcont",
        "rol"
      ],
      [
        "a",
        "im"
      ],
      [
        "act",
        "er"
      ],
      [
        "Ġch",
        "ild"
      ],
      [
        "Ġpers",
        "on"
      ],
      [
        "an",
        "n"
      ],
      [
        "Ġl",
        "aw"
      ],
      [
        "ot",
        "s"
      ],
      [
        "it",
        "ive"
      ],
      [
        "m",
        "l"
      ],
      [
        "Ġp",
        "ur"
      ],
      [
        "Ġap",
        "pe"
      ],
      [
        "ĠY",
        "ou"
      ],
      [
        "Ġm",
        "et"
      ],
      [
        "C",
        "on"
      ],
      [
        "Ġs",
        "om"
      ],
      [
        "ent",
        "ion"
      ],
      [
        "Ġex",
        "pl"
      ],
      [
        "L",
        "et"
      ],
      [
        "o",
        "h"
      ],
      [
        "Ġ1",
        "5"
      ],
      [
        "ir",
        "c"
      ],
      [
        "ph",
        "a"
      ],
      [
        "Ġin",
        "formation"
      ],
      [
        "r",
        "t"
      ],
      [
        "Ġ",
        ","
      ],
      [
        "(",
        ");"
      ],
      [
        "Ġd",
        "irect"
      ],
      [
        "Ġd",
        "ay"
      ],
      [
        "ys",
        "is"
      ],
      [
        "s",
        "erv"
      ],
      [
        "H",
        "e"
      ],
      [
        "e",
        "k"
      ],
      [
        "i",
        "er"
      ],
      [
        "Ġc",
        "ent"
      ],
      [
        "d",
        "s"
      ],
      [
        "3",
        "3"
      ],
      [
        "Ġin",
        "c"
      ],
      [
        "A",
        "L"
      ],
      [
        "F",
        "ig"
      ],
      [
        "Ã",
        "Ĳ"
      ],
      [
        "âĢ",
        "ľ"
      ],
      [
        "Ġf",
        "in"
      ],
      [
        "A",
        "N"
      ],
      [
        "ur",
        "ther"
      ],
      [
        "Ġ",
        "ed"
      ],
      [
        "Ġqu",
        "est"
      ],
      [
        "at",
        "ch"
      ],
      [
        "ch",
        "n"
      ],
      [
        "l",
        "ess"
      ],
      [
        "m",
        "e"
      ],
      [
        "y",
        "n"
      ],
      [
        "in",
        "ation"
      ],
      [
        "6",
        "4"
      ],
      [
        "]",
        "."
      ],
      [
        "olog",
        "y"
      ],
      [
        "Ġp",
        "ost"
      ],
      [
        "Ġf",
        "am"
      ],
      [
        "Ġt",
        "reat"
      ],
      [
        "6",
        "0"
      ],
      [
        "math",
        "cal"
      ],
      [
        "id",
        "es"
      ],
      [
        "Ġresult",
        "s"
      ],
      [
        "E",
        "x"
      ],
      [
        "Ġ",
        "ident"
      ],
      [
        "Ġst",
        "and"
      ],
      [
        "v",
        "ious"
      ],
      [
        "Ġme",
        "as"
      ],
      [
        "Ċ",
        "ĠĠ"
      ],
      [
        ")",
        "\\"
      ],
      [
        "ot",
        "e"
      ],
      [
        "Ġsignific",
        "ant"
      ],
      [
        "2",
        "00"
      ],
      [
        "et",
        "s"
      ],
      [
        "Ġe",
        "lect"
      ],
      [
        "Ġc",
        "a"
      ],
      [
        "o",
        "ot"
      ],
      [
        "i",
        "ence"
      ],
      [
        "iss",
        "ion"
      ],
      [
        "d",
        "a"
      ],
      [
        "Ġfollow",
        "ing"
      ],
      [
        "Th",
        "is"
      ],
      [
        "f",
        "or"
      ],
      [
        "Ġ",
        "err"
      ],
      [
        "ht",
        "t"
      ],
      [
        "ag",
        "n"
      ],
      [
        "Ġb",
        "re"
      ],
      [
        "P",
        "ro"
      ],
      [
        "Ġm",
        "ult"
      ],
      [
        "i",
        "um"
      ],
      [
        "w",
        "ork"
      ],
      [
        "er",
        "al"
      ],
      [
        "it",
        "al"
      ],
      [
        "Ġ1",
        "8"
      ],
      [
        "du",
        "ct"
      ],
      [
        "r",
        "ation"
      ],
      [
        "ĠN",
        "ew"
      ],
      [
        "Ġdet",
        "erm"
      ],
      [
        "at",
        "ely"
      ],
      [
        "l",
        "and"
      ],
      [
        "r",
        "al"
      ],
      [
        "Ġgo",
        "ing"
      ],
      [
        "Ġall",
        "ow"
      ],
      [
        "ĠT",
        "r"
      ],
      [
        "ord",
        "ing"
      ],
      [
        "a",
        "j"
      ],
      [
        "mer",
        "ic"
      ],
      [
        "2",
        "7"
      ],
      [
        "Ġcont",
        "in"
      ],
      [
        "ĠD",
        "e"
      ],
      [
        "ain",
        "s"
      ],
      [
        "Ġl",
        "im"
      ],
      [
        "Ġcon",
        "dition"
      ],
      [
        "i",
        "or"
      ],
      [
        "is",
        "hed"
      ],
      [
        "pl",
        "oy"
      ],
      [
        "========",
        "========"
      ],
      [
        "}",
        "("
      ],
      [
        "ater",
        "ial"
      ],
      [
        "u",
        "red"
      ],
      [
        "Ġc",
        "are"
      ],
      [
        "Ġf",
        "r"
      ],
      [
        "Ġwith",
        "in"
      ],
      [
        "Ġ*",
        "/"
      ],
      [
        "C",
        "T"
      ],
      [
        "if",
        "f"
      ],
      [
        "ur",
        "al"
      ],
      [
        "u",
        "le"
      ],
      [
        "s",
        "on"
      ],
      [
        "Ġs",
        "ince"
      ],
      [
        "Ġre",
        "al"
      ],
      [
        "Ġl",
        "ife"
      ],
      [
        "Ġa",
        "round"
      ],
      [
        "Ġre",
        "ce"
      ],
      [
        "âĢ",
        "ĵ"
      ],
      [
        "b",
        "l"
      ],
      [
        "Ġst",
        "at"
      ],
      [
        "ion",
        "al"
      ],
      [
        "Ġw",
        "r"
      ],
      [
        "'",
        "m"
      ],
      [
        "Ġwor",
        "ld"
      ],
      [
        "Ġh",
        "um"
      ],
      [
        "de",
        "f"
      ],
      [
        "i",
        "vers"
      ],
      [
        "Ġre",
        "du"
      ],
      [
        "Ġcur",
        "rent"
      ],
      [
        "Ġde",
        "v"
      ],
      [
        "a",
        "z"
      ],
      [
        "Ġinte",
        "rest"
      ],
      [
        "ack",
        "age"
      ],
      [
        "Ã",
        "©"
      ],
      [
        "3",
        "5"
      ],
      [
        "Ġ",
        "X"
      ],
      [
        "g",
        "en"
      ],
      [
        "2",
        "8"
      ],
      [
        "al",
        "pha"
      ],
      [
        "Ġadd",
        "ition"
      ],
      [
        "Ġhe",
        "alth"
      ],
      [
        "qu",
        "e"
      ],
      [
        "Ġst",
        "ruct"
      ],
      [
        "ent",
        "ly"
      ],
      [
        "ĠW",
        "h"
      ],
      [
        "Ġgo",
        "ver"
      ],
      [
        "I",
        "D"
      ],
      [
        "iv",
        "ed"
      ],
      [
        "ch",
        "ool"
      ],
      [
        "S",
        "E"
      ],
      [
        "Ġan",
        "other"
      ],
      [
        "ak",
        "es"
      ],
      [
        "Ġ",
        "#"
      ],
      [
        "on",
        "d"
      ],
      [
        "Ġp",
        "ass"
      ],
      [
        "Ġm",
        "ark"
      ],
      [
        ",",
        "âĢĿ"
      ],
      [
        "3",
        "4"
      ],
      [
        "s",
        "elf"
      ],
      [
        "Ġinv",
        "est"
      ],
      [
        "ot",
        "t"
      ],
      [
        "res",
        "ent"
      ],
      [
        "Ġ1",
        "4"
      ],
      [
        "Ġop",
        "en"
      ],
      [
        "Ġtr",
        "y"
      ],
      [
        "c",
        "rib"
      ],
      [
        "are",
        "nt"
      ],
      [
        "le",
        "x"
      ],
      [
        "Ġc",
        "r"
      ],
      [
        "Ġ<",
        "/"
      ],
      [
        "Ġar",
        "g"
      ],
      [
        "âĢ",
        "Ķ"
      ],
      [
        "b",
        "r"
      ],
      [
        "Ġs",
        "elf"
      ],
      [
        "t",
        "s"
      ],
      [
        "Ġf",
        "ield"
      ],
      [
        "Ġg",
        "reat"
      ],
      [
        "am",
        "et"
      ],
      [
        "Ġd",
        "el"
      ],
      [
        "Ġcomm",
        "un"
      ],
      [
        "b",
        "ers"
      ],
      [
        "Ġl",
        "ist"
      ],
      [
        "Ġex",
        "ample"
      ],
      [
        "##",
        "##"
      ],
      [
        "iv",
        "es"
      ],
      [
        "ar",
        "g"
      ],
      [
        "Ġim",
        "p"
      ],
      [
        "v",
        "es"
      ],
      [
        "Y",
        "ou"
      ],
      [
        "Ġp",
        "ower"
      ],
      [
        "it",
        "her"
      ],
      [
        "gr",
        "am"
      ],
      [
        "re",
        "l"
      ],
      [
        "d",
        "d"
      ],
      [
        "Ġinclud",
        "ing"
      ],
      [
        "]\\]",
        "."
      ],
      [
        "3",
        "7"
      ],
      [
        "****",
        "****"
      ],
      [
        "Ġ",
        "Z"
      ],
      [
        "Ċ",
        "ĊĠ"
      ],
      [
        "w",
        "ays"
      ],
      [
        "Ġo",
        "cc"
      ],
      [
        "L",
        "E"
      ],
      [
        "f",
        "ace"
      ],
      [
        "Ġto",
        "o"
      ],
      [
        "Ġme",
        "an"
      ],
      [
        "se",
        "c"
      ],
      [
        "eth",
        "ing"
      ],
      [
        "Ġbe",
        "h"
      ],
      [
        "Ġcl",
        "aim"
      ],
      [
        "Ġm",
        "ight"
      ],
      [
        "Ġs",
        "l"
      ],
      [
        "Ġgiv",
        "en"
      ],
      [
        "ur",
        "y"
      ],
      [
        "Ġhe",
        "ad"
      ],
      [
        "ĠC",
        "on"
      ],
      [
        "Ġres",
        "pect"
      ],
      [
        "Ġt",
        "em"
      ],
      [
        "he",
        "re"
      ],
      [
        "ar",
        "n"
      ],
      [
        "0",
        "5"
      ],
      [
        "rib",
        "ut"
      ],
      [
        "Ġb",
        "as"
      ],
      [
        "2",
        "6"
      ],
      [
        "Ġar",
        "t"
      ],
      [
        "ab",
        "ly"
      ],
      [
        "ar",
        "get"
      ],
      [
        "ĠC",
        "l"
      ],
      [
        "Ġre",
        "ally"
      ],
      [
        "^",
        "{\\"
      ],
      [
        "ĠI",
        "s"
      ],
      [
        "ĠS",
        "h"
      ],
      [
        "Ġch",
        "ang"
      ],
      [
        "Ġgover",
        "n"
      ],
      [
        "Ġass",
        "oci"
      ],
      [
        "2",
        "9"
      ],
      [
        "Ġpl",
        "ace"
      ],
      [
        "o",
        "pe"
      ],
      [
        "Ġ1",
        "6"
      ],
      [
        "C",
        "h"
      ],
      [
        "um",
        "p"
      ],
      [
        "le",
        "ction"
      ],
      [
        "in",
        "ess"
      ],
      [
        "ĠHow",
        "ever"
      ],
      [
        "Ġl",
        "ess"
      ],
      [
        "in",
        "ing"
      ],
      [
        "ar",
        "m"
      ],
      [
        "h",
        "or"
      ],
      [
        "ĠA",
        "meric"
      ],
      [
        "Ġp",
        "ot"
      ],
      [
        "ĠThe",
        "y"
      ],
      [
        "st",
        "and"
      ],
      [
        "Ġ{",
        "#"
      ],
      [
        "le",
        "ase"
      ],
      [
        "Ġad",
        "v"
      ],
      [
        "ou",
        "ght"
      ],
      [
        "Ġh",
        "ig"
      ],
      [
        "eng",
        "th"
      ],
      [
        "R",
        "E"
      ],
      [
        "Ġf",
        "ile"
      ],
      [
        "Ġ$",
        "$\\"
      ],
      [
        "y",
        "t"
      ],
      [
        "Ġl",
        "ow"
      ],
      [
        "Ġha",
        "pp"
      ],
      [
        "end",
        "s"
      ],
      [
        "3",
        "8"
      ],
      [
        "fere",
        "nce"
      ],
      [
        "f",
        "er"
      ],
      [
        "ro",
        "ll"
      ],
      [
        "Ġh",
        "ome"
      ],
      [
        "Ġb",
        "ased"
      ],
      [
        "Ġ",
        "--"
      ],
      [
        "Ġv",
        "is"
      ],
      [
        "Ġmon",
        "th"
      ],
      [
        "et",
        "y"
      ],
      [
        "Ġapp",
        "lic"
      ],
      [
        "Ġto",
        "p"
      ],
      [
        "er",
        "y"
      ],
      [
        "ã",
        "ģ"
      ],
      [
        "3",
        "6"
      ],
      [
        "ateg",
        "ory"
      ],
      [
        "ic",
        "ro"
      ],
      [
        "ain",
        "ing"
      ],
      [
        "Ġc",
        "ap"
      ],
      [
        "iv",
        "id"
      ],
      [
        "a",
        "ult"
      ],
      [
        "'",
        "re"
      ],
      [
        "Ġw",
        "om"
      ],
      [
        "al",
        "se"
      ],
      [
        "ra",
        "p"
      ],
      [
        "re",
        "g"
      ],
      [
        "ver",
        "t"
      ],
      [
        "Ġ",
        "ve"
      ],
      [
        "th",
        "ing"
      ],
      [
        "Ġfe",
        "w"
      ],
      [
        "Ġob",
        "ject"
      ],
      [
        "Ġg",
        "row"
      ],
      [
        "oc",
        "ument"
      ],
      [
        "Ġpro",
        "b"
      ],
      [
        "at",
        "t"
      ],
      [
        "Ġb",
        "us"
      ],
      [
        "Ġc",
        "al"
      ],
      [
        "el",
        "ta"
      ],
      [
        "ĠĠĠĠĠĠĠĠĠĠĠĠĠĠĠĠ",
        "ĠĠĠĠĠĠĠĠ"
      ],
      [
        "2",
        "1"
      ],
      [
        "ĠN",
        "o"
      ],
      [
        "Ġb",
        "est"
      ],
      [
        "Ġanal",
        "ysis"
      ],
      [
        "(",
        "'"
      ],
      [
        "Ġind",
        "ic"
      ],
      [
        "Ġs",
        "ing"
      ],
      [
        "Ġp",
        "op"
      ],
      [
        "itt",
        "le"
      ],
      [
        "os",
        "ed"
      ],
      [
        "Ġob",
        "serv"
      ],
      [
        "Ġm",
        "ot"
      ],
      [
        "Ġne",
        "xt"
      ],
      [
        "ĠâĢ",
        "Ķ"
      ],
      [
        "â",
        "Ī"
      ],
      [
        "le",
        "g"
      ],
      [
        "I",
        "C"
      ],
      [
        "Ġimport",
        "ant"
      ],
      [
        "b",
        "y"
      ],
      [
        "Ġte",
        "chn"
      ],
      [
        "7",
        "5"
      ],
      [
        "is",
        "ed"
      ],
      [
        "A",
        "S"
      ],
      [
        "m",
        "b"
      ],
      [
        "Ġev",
        "idence"
      ],
      [
        "Ġsom",
        "ething"
      ],
      [
        "el",
        "s"
      ],
      [
        "os",
        "s"
      ],
      [
        "Ġp",
        "ath"
      ],
      [
        "amb",
        "da"
      ],
      [
        "Ġle",
        "ft"
      ],
      [
        "Ġob",
        "t"
      ],
      [
        "C",
        "l"
      ],
      [
        "e",
        "xt"
      ],
      [
        "4",
        "5"
      ],
      [
        "Ġf",
        "our"
      ],
      [
        "Ġwhe",
        "ther"
      ],
      [
        "Ġo",
        "pt"
      ],
      [
        "$",
        "$"
      ],
      [
        "Ġcomm",
        "on"
      ],
      [
        "b",
        "s"
      ],
      [
        "Ġprodu",
        "ct"
      ],
      [
        "Ġch",
        "ange"
      ],
      [
        "re",
        "qu"
      ],
      [
        "9",
        "0"
      ],
      [
        "c",
        "he"
      ],
      [
        "c",
        "ur"
      ],
      [
        "ĠP",
        "h"
      ],
      [
        "ab",
        "l"
      ],
      [
        "Ġb",
        "o"
      ],
      [
        "Ġp",
        "ut"
      ],
      [
        "Ġbel",
        "ie"
      ],
      [
        "in",
        "f"
      ],
      [
        "ĠL",
        "e"
      ],
      [
        "ert",
        "ain"
      ],
      [
        "Ġle",
        "g"
      ],
      [
        "pl",
        "ic"
      ],
      [
        "Ġsu",
        "gg"
      ],
      [
        "c",
        "ing"
      ],
      [
        "Ġsugg",
        "est"
      ],
      [
        "i",
        "k"
      ],
      [
        "w",
        "are"
      ],
      [
        "9",
        "5"
      ],
      [
        "Ġv",
        "iew"
      ],
      [
        "Ġse",
        "em"
      ],
      [
        "ĠThe",
        "re"
      ],
      [
        "ific",
        "ation"
      ],
      [
        "Ġf",
        "ail"
      ],
      [
        "Ġex",
        "pect"
      ],
      [
        "Ġpartic",
        "ular"
      ],
      [
        "ĠI",
        "nd"
      ],
      [
        "Ġpro",
        "f"
      ],
      [
        "us",
        "ed"
      ],
      [
        "ĠW",
        "hat"
      ],
      [
        "l",
        "abel"
      ],
      [
        "Ġ3",
        "0"
      ],
      [
        "A",
        "C"
      ],
      [
        "p",
        "or"
      ],
      [
        "h",
        "ib"
      ],
      [
        "am",
        "ma"
      ],
      [
        ")",
        "/"
      ],
      [
        "Ġne",
        "ver"
      ],
      [
        "ad",
        "d"
      ],
      [
        "cc",
        "ess"
      ],
      [
        "a",
        "ction"
      ],
      [
        "m",
        "un"
      ],
      [
        "Ġl",
        "ight"
      ],
      [
        "7",
        "0"
      ],
      [
        "c",
        "ol"
      ],
      [
        "op",
        "y"
      ],
      [
        "con",
        "t"
      ],
      [
        "vers",
        "ion"
      ],
      [
        "}",
        ","
      ],
      [
        "ĠE",
        "x"
      ],
      [
        "C",
        "om"
      ],
      [
        "Ġu",
        "nt"
      ],
      [
        "Ġinv",
        "ol"
      ],
      [
        "d",
        "iv"
      ],
      [
        "ro",
        "p"
      ],
      [
        "Ġdes",
        "crib"
      ],
      [
        "Ġcon",
        "ne"
      ],
      [
        "Ġas",
        "k"
      ],
      [
        "Ġbet",
        "ter"
      ],
      [
        "pl",
        "es"
      ],
      [
        "Ġt",
        "urn"
      ],
      [
        "m",
        "u"
      ],
      [
        "Ġs",
        "it"
      ],
      [
        "Ġab",
        "ove"
      ],
      [
        "l",
        "u"
      ],
      [
        "ne",
        "w"
      ],
      [
        "ĠS",
        "o"
      ],
      [
        "Ġlar",
        "ge"
      ],
      [
        "T",
        "o"
      ],
      [
        "Ġw",
        "ater"
      ],
      [
        "end",
        "ed"
      ],
      [
        "en",
        "e"
      ],
      [
        "mathb",
        "b"
      ],
      [
        "Ġ1",
        "1"
      ],
      [
        "p",
        "art"
      ],
      [
        "end",
        "ing"
      ],
      [
        "e",
        "red"
      ],
      [
        "Ġproble",
        "m"
      ],
      [
        "Ġb",
        "i"
      ],
      [
        "Ġs",
        "k"
      ],
      [
        "Ġtr",
        "ue"
      ],
      [
        "Ġre",
        "ason"
      ],
      [
        "A",
        "s"
      ],
      [
        "il",
        "ar"
      ],
      [
        "c",
        "o"
      ],
      [
        "ir",
        "d"
      ],
      [
        "Ġre",
        "se"
      ],
      [
        "eg",
        "in"
      ],
      [
        "Ġ",
        "{\\"
      ],
      [
        "orm",
        "al"
      ],
      [
        "ĠP",
        "l"
      ],
      [
        "Ġe",
        "as"
      ],
      [
        "or",
        "n"
      ],
      [
        "I",
        "S"
      ],
      [
        "s",
        "er"
      ],
      [
        "N",
        "ame"
      ],
      [
        "ig",
        "ma"
      ],
      [
        "Ġcons",
        "ider"
      ],
      [
        "p",
        "i"
      ],
      [
        "at",
        "s"
      ],
      [
        "Ġtreat",
        "ment"
      ],
      [
        "Ġle",
        "ast"
      ],
      [
        "Ġl",
        "ittle"
      ],
      [
        "Ġs",
        "ize"
      ],
      [
        "E",
        "D"
      ],
      [
        "Ġposs",
        "ible"
      ],
      [
        "ĠS",
        "he"
      ],
      [
        "ail",
        "able"
      ],
      [
        "Ġg",
        "ot"
      ],
      [
        "ĠA",
        "ll"
      ],
      [
        "Ġloc",
        "al"
      ],
      [
        "}",
        "_"
      ],
      [
        "4",
        "8"
      ],
      [
        "as",
        "k"
      ],
      [
        "h",
        "o"
      ],
      [
        "Ġpos",
        "ition"
      ],
      [
        "Ġcom",
        "e"
      ],
      [
        "Ġth",
        "ings"
      ],
      [
        "}",
        "^{"
      ],
      [
        "Ġto",
        "t"
      ],
      [
        "!",
        "\""
      ],
      [
        "=",
        "\\"
      ],
      [
        "Ġr",
        "is"
      ],
      [
        "ĊĠĠĠĠĠĠĠĠ",
        "Ġ"
      ],
      [
        "Ġd",
        "ue"
      ],
      [
        "Ġo",
        "pp"
      ],
      [
        "Ġbu",
        "ild"
      ],
      [
        "Ġp",
        "ay"
      ],
      [
        "Ġm",
        "ov"
      ],
      [
        "Ġim",
        "pro"
      ],
      [
        "Ġchar",
        "acter"
      ],
      [
        "__",
        "__"
      ],
      [
        "ivid",
        "ual"
      ],
      [
        "Ġt",
        "yp"
      ],
      [
        "ra",
        "in"
      ],
      [
        "Ġ",
        "ide"
      ],
      [
        "ĠU",
        "S"
      ],
      [
        "Ġrep",
        "resent"
      ],
      [
        "b",
        "ack"
      ],
      [
        "Ġ",
        "=="
      ],
      [
        "ill",
        "ion"
      ],
      [
        "Ġin",
        "it"
      ],
      [
        "ep",
        "end"
      ],
      [
        "3",
        "9"
      ],
      [
        "in",
        "a"
      ],
      [
        "Ġf",
        "ree"
      ],
      [
        "p",
        "ackage"
      ],
      [
        "Ġh",
        "y"
      ],
      [
        "H",
        "E"
      ],
      [
        "us",
        "h"
      ],
      [
        "Ġre",
        "st"
      ],
      [
        "d",
        "ata"
      ],
      [
        "ir",
        "on"
      ],
      [
        "pl",
        "ay"
      ],
      [
        ")",
        ":"
      ],
      [
        "ic",
        "le"
      ],
      [
        "Ġ1",
        "7"
      ],
      [
        "ar",
        "ing"
      ],
      [
        "Ġel",
        "se"
      ],
      [
        "Ġo",
        "ld"
      ],
      [
        "aj",
        "or"
      ],
      [
        "an",
        "ces"
      ],
      [
        "Ġb",
        "ig"
      ],
      [
        "Ġquest",
        "ion"
      ],
      [
        "ĠT",
        "o"
      ],
      [
        "id",
        "th"
      ],
      [
        "Ġdef",
        "end"
      ],
      [
        "Ġse",
        "ver"
      ],
      [
        "n",
        "al"
      ],
      [
        "č",
        "Ċ"
      ],
      [
        "i",
        "od"
      ],
      [
        "Ġha",
        "ving"
      ],
      [
        "Ġd",
        "ays"
      ],
      [
        "Ġsh",
        "own"
      ],
      [
        "Ġoff",
        "ic"
      ],
      [
        "Ġg",
        "ive"
      ],
      [
        "ĠO",
        "n"
      ],
      [
        "Ġhum",
        "an"
      ],
      [
        "Ġrec",
        "ord"
      ],
      [
        "olog",
        "ical"
      ],
      [
        "Ġf",
        "urther"
      ],
      [
        "s",
        "um"
      ],
      [
        "im",
        "al"
      ],
      [
        "Ġb",
        "r"
      ],
      [
        "Ġor",
        "gan"
      ],
      [
        "b",
        "egin"
      ],
      [
        "ap",
        "s"
      ],
      [
        "Ġb",
        "ro"
      ],
      [
        "Ġg",
        "ame"
      ],
      [
        "Ġ",
        "es"
      ],
      [
        "]",
        ";"
      ],
      [
        "Ġtri",
        "al"
      ],
      [
        "Ġg",
        "re"
      ],
      [
        "}",
        "_{"
      ],
      [
        "Ġpro",
        "m"
      ],
      [
        "Ġ2",
        "5"
      ],
      [
        "or",
        "g"
      ],
      [
        "Ġgovern",
        "ment"
      ],
      [
        "ĠA",
        "pp"
      ],
      [
        "Ġn",
        "et"
      ],
      [
        "m",
        "od"
      ],
      [
        "Ġpro",
        "gram"
      ],
      [
        "erg",
        "y"
      ],
      [
        "Ġh",
        "ist"
      ],
      [
        "Ġwe",
        "ek"
      ],
      [
        "Ġs",
        "um"
      ],
      [
        "âĪ",
        "Ĵ"
      ],
      [
        "Ġem",
        "ploy"
      ],
      [
        "ĠSt",
        "ate"
      ],
      [
        "Ġc",
        "ode"
      ],
      [
        "at",
        "ory"
      ],
      [
        "ct",
        "or"
      ],
      [
        "ĊĠĠĠĠĠĠĠĠĠĠĠĠĠĠĠĠ",
        "ĠĠĠ"
      ],
      [
        "Ġpre",
        "vious"
      ],
      [
        "re",
        "am"
      ],
      [
        "S",
        "e"
      ],
      [
        "4",
        "4"
      ],
      [
        "et",
        "ic"
      ],
      [
        "b",
        "ar"
      ],
      [
        "Ġke",
        "ep"
      ],
      [
        "6",
        "5"
      ],
      [
        "n",
        "s"
      ],
      [
        "I",
        "f"
      ],
      [
        "e",
        "ad"
      ],
      [
        "Ġj",
        "ud"
      ],
      [
        "a",
        "ut"
      ],
      [
        "Ġexp",
        "ression"
      ],
      [
        "Ġh",
        "ard"
      ],
      [
        "Ġind",
        "ividual"
      ],
      [
        "Ġfe",
        "el"
      ],
      [
        "Ġd",
        "en"
      ],
      [
        "Ġprov",
        "ide"
      ],
      [
        "Ġp",
        "a"
      ],
      [
        "Ġc",
        "ost"
      ],
      [
        "I",
        "d"
      ],
      [
        "Ġal",
        "ways"
      ],
      [
        "8",
        "8"
      ],
      [
        "it",
        "or"
      ],
      [
        "T",
        "ype"
      ],
      [
        "Ġm",
        "ain"
      ],
      [
        "A",
        "P"
      ],
      [
        "s",
        "el"
      ],
      [
        "Ġ",
        ")"
      ],
      [
        "in",
        "c"
      ],
      [
        "Ġpot",
        "ential"
      ],
      [
        "Ġe",
        "ither"
      ],
      [
        "ĠA",
        "d"
      ],
      [
        "er",
        "n"
      ],
      [
        "Ġs",
        "w"
      ],
      [
        "Ġkn",
        "own"
      ],
      [
        "Ġcall",
        "ed"
      ],
      [
        "Ġp",
        "riv"
      ],
      [
        "u",
        "ro"
      ],
      [
        "R",
        "O"
      ],
      [
        "Ġr",
        "ad"
      ],
      [
        "ang",
        "le"
      ],
      [
        "Ġd",
        "iv"
      ],
      [
        "Ġ",
        "!"
      ],
      [
        "B",
        "ut"
      ],
      [
        "Ġsim",
        "ilar"
      ],
      [
        "Ġs",
        "chool"
      ],
      [
        "ĠThe",
        "se"
      ],
      [
        "Ġp",
        "red"
      ],
      [
        "Ġch",
        "o"
      ],
      [
        "our",
        "s"
      ],
      [
        "ip",
        "le"
      ],
      [
        "us",
        "ion"
      ],
      [
        "ĠC",
        "ourt"
      ],
      [
        "Ġunt",
        "il"
      ],
      [
        "Ġav",
        "ailable"
      ],
      [
        "ĠUn",
        "ited"
      ],
      [
        "Ġfam",
        "ily"
      ],
      [
        "ph",
        "i"
      ],
      [
        "Ġcom",
        "b"
      ],
      [
        "th",
        "ough"
      ],
      [
        "Ġw",
        "on"
      ],
      [
        "Ġgener",
        "al"
      ],
      [
        "u",
        "ck"
      ],
      [
        "le",
        "v"
      ],
      [
        "ce",
        "ption"
      ],
      [
        "it",
        "le"
      ],
      [
        "op",
        "t"
      ],
      [
        "oc",
        "ial"
      ],
      [
        "Ġs",
        "ide"
      ],
      [
        "ra",
        "w"
      ],
      [
        "Ġsing",
        "le"
      ],
      [
        "clud",
        "e"
      ],
      [
        "C",
        "ategory"
      ],
      [
        "Ġv",
        "ol"
      ],
      [
        "Ġf",
        "ac"
      ],
      [
        "u",
        "ff"
      ],
      [
        "ent",
        "al"
      ],
      [
        "Ġb",
        "en"
      ],
      [
        "L",
        "L"
      ],
      [
        "al",
        "igned"
      ],
      [
        "Ġte",
        "am"
      ],
      [
        "Ġdis",
        "e"
      ],
      [
        "Ċ",
        "ĊĠĠĠĠĠĠĠ"
      ],
      [
        "Ġme",
        "ans"
      ],
      [
        "}$",
        "$"
      ],
      [
        "Ġa",
        "ction"
      ],
      [
        "cl",
        "ass"
      ],
      [
        "ĠR",
        "es"
      ],
      [
        "read",
        "y"
      ],
      [
        "one",
        "y"
      ],
      [
        "A",
        "nd"
      ],
      [
        "Ġli",
        "k"
      ],
      [
        "Ġspec",
        "ific"
      ],
      [
        "y",
        "le"
      ],
      [
        "Ġpro",
        "ject"
      ],
      [
        "Ġ1",
        "3"
      ],
      [
        "Ġph",
        "ys"
      ],
      [
        "ĠF",
        "r"
      ],
      [
        "6",
        "6"
      ],
      [
        "Ġval",
        "ues"
      ],
      [
        "Ġpl",
        "an"
      ],
      [
        "Ġ",
        "%"
      ],
      [
        "v",
        "ar"
      ],
      [
        "o",
        "or"
      ],
      [
        "F",
        "or"
      ],
      [
        "Ġc",
        "ases"
      ],
      [
        "Ġab",
        "le"
      ],
      [
        "t",
        "en"
      ],
      [
        "is",
        "on"
      ],
      [
        "Ġchild",
        "ren"
      ],
      [
        "m",
        "it"
      ],
      [
        "Ġse",
        "qu"
      ],
      [
        "im",
        "port"
      ],
      [
        "Ġm",
        "ajor"
      ],
      [
        "Ġt",
        "imes"
      ],
      [
        "itt",
        "ed"
      ],
      [
        "9",
        "8"
      ],
      [
        "Ġsever",
        "al"
      ],
      [
        "Ġm",
        "aterial"
      ],
      [
        "Ġc",
        "irc"
      ],
      [
        "p",
        "one"
      ],
      [
        "ĠC",
        "ol"
      ],
      [
        "our",
        "se"
      ],
      [
        "ri",
        "es"
      ],
      [
        "rou",
        "p"
      ],
      [
        "Ġor",
        "ig"
      ],
      [
        "Ġh",
        "old"
      ],
      [
        "op",
        "er"
      ],
      [
        "Ġunder",
        "stand"
      ],
      [
        "St",
        "ring"
      ],
      [
        "ivers",
        "ity"
      ],
      [
        "os",
        "p"
      ],
      [
        "Ġd",
        "er"
      ],
      [
        "cri",
        "pt"
      ],
      [
        "Ġsu",
        "per"
      ],
      [
        "Ġhig",
        "her"
      ],
      [
        "res",
        "pon"
      ],
      [
        "Ġt",
        "re"
      ],
      [
        "use",
        "package"
      ],
      [
        "Ġke",
        "y"
      ],
      [
        "ĠTh",
        "at"
      ],
      [
        "em",
        "ber"
      ],
      [
        "ĠĠĠĠĠĠĠĠ",
        "ĠĠĠ"
      ],
      [
        "Ġ1",
        "00"
      ],
      [
        "l",
        "ambda"
      ],
      [
        "ke",
        "y"
      ],
      [
        "ress",
        "ed"
      ],
      [
        "ĠS",
        "c"
      ],
      [
        "7",
        "7"
      ],
      [
        "Ġare",
        "a"
      ],
      [
        "1",
        "00"
      ],
      [
        "ess",
        "age"
      ],
      [
        "Ġstud",
        "ies"
      ],
      [
        "Ġab",
        "s"
      ],
      [
        "pp",
        "ed"
      ],
      [
        "Ġ",
        ">"
      ],
      [
        "ind",
        "ow"
      ],
      [
        "Ġt",
        "arget"
      ],
      [
        "Ġb",
        "ody"
      ],
      [
        "'",
        "ve"
      ],
      [
        "r",
        "ict"
      ],
      [
        "g",
        "ment"
      ],
      [
        "ne",
        "y"
      ],
      [
        "c",
        "le"
      ],
      [
        "y",
        "stem"
      ],
      [
        "htt",
        "p"
      ],
      [
        "th",
        "is"
      ],
      [
        "i",
        "ol"
      ],
      [
        "Ġm",
        "ove"
      ],
      [
        "^{",
        "-"
      ],
      [
        "it",
        "ing"
      ],
      [
        "ore",
        "d"
      ],
      [
        "9",
        "4"
      ],
      [
        "Ġ2",
        "4"
      ],
      [
        "E",
        "T"
      ],
      [
        ">",
        "<"
      ],
      [
        "I",
        "ON"
      ],
      [
        "Ġf",
        "ull"
      ],
      [
        "lect",
        "ed"
      ],
      [
        "sp",
        "an"
      ],
      [
        "Ġr",
        "ate"
      ],
      [
        "Ġper",
        "iod"
      ],
      [
        "A",
        "n"
      ],
      [
        "Ġwh",
        "y"
      ],
      [
        "s",
        "ub"
      ],
      [
        "Ġerr",
        "or"
      ],
      [
        "9",
        "6"
      ],
      [
        "id",
        "d"
      ],
      [
        "_",
        "\\"
      ],
      [
        "con",
        "om"
      ],
      [
        "}",
        ")"
      ],
      [
        "Ġtot",
        "al"
      ],
      [
        "R",
        "es"
      ],
      [
        "Ġ",
        "Ã"
      ],
      [
        "Ċĉĉ",
        "ĉ"
      ],
      [
        "Ġstand",
        "ard"
      ],
      [
        "m",
        "m"
      ],
      [
        "en",
        "ces"
      ],
      [
        "m",
        "ission"
      ],
      [
        "Ġen",
        "ergy"
      ],
      [
        "Ċĉĉ",
        "ĉĉ"
      ],
      [
        "0",
        "4"
      ],
      [
        "Ġbus",
        "iness"
      ],
      [
        "}",
        "^"
      ],
      [
        "9",
        "7"
      ],
      [
        "um",
        "e"
      ],
      [
        "Ġne",
        "g"
      ],
      [
        "T",
        "r"
      ],
      [
        "ffic",
        "ient"
      ],
      [
        "Ġacc",
        "ess"
      ],
      [
        "ep",
        "s"
      ],
      [
        "Ġex",
        "ist"
      ],
      [
        "ust",
        "om"
      ],
      [
        "h",
        "y"
      ],
      [
        "Ġl",
        "ater"
      ],
      [
        "ri",
        "or"
      ],
      [
        "ut",
        "es"
      ],
      [
        "ru",
        "g"
      ],
      [
        "Ġl",
        "ot"
      ],
      [
        "er",
        "ing"
      ],
      [
        "id",
        "s"
      ],
      [
        "l",
        "ing"
      ],
      [
        "ĠSt",
        "ates"
      ],
      [
        "Ġsp",
        "ace"
      ],
      [
        "Ġf",
        "ar"
      ],
      [
        "Ġre",
        "view"
      ],
      [
        "Ġl",
        "a"
      ],
      [
        "p",
        "m"
      ],
      [
        "ĠA",
        "r"
      ],
      [
        "ict",
        "ion"
      ],
      [
        "{",
        "{\\"
      ],
      [
        "em",
        "pt"
      ],
      [
        "Ġsu",
        "re"
      ],
      [
        "Ġdif",
        "f"
      ],
      [
        "st",
        "ring"
      ],
      [
        "Ġpr",
        "im"
      ],
      [
        "l",
        "er"
      ],
      [
        "if",
        "t"
      ],
      [
        "t",
        "ime"
      ],
      [
        "Ġ",
        "`"
      ],
      [
        "ab",
        "les"
      ],
      [
        "Ġal",
        "ready"
      ],
      [
        "aint",
        "iff"
      ],
      [
        "Ġf",
        "inal"
      ],
      [
        "g",
        "ed"
      ],
      [
        "Ġdid",
        "n"
      ],
      [
        "A",
        "D"
      ],
      [
        "is",
        "ter"
      ],
      [
        "A",
        "M"
      ],
      [
        "ib",
        "ility"
      ],
      [
        "Ġinvest",
        "ig"
      ],
      [
        "Ġsh",
        "ort"
      ],
      [
        "ĠS",
        "p"
      ],
      [
        "5",
        "5"
      ],
      [
        "Ġdisc",
        "uss"
      ],
      [
        "Ġc",
        "rit"
      ],
      [
        "u",
        "ed"
      ],
      [
        "s",
        "w"
      ],
      [
        "Ġreport",
        "ed"
      ],
      [
        "ĠA",
        "t"
      ],
      [
        "Ġam",
        "ong"
      ],
      [
        "ver",
        "age"
      ],
      [
        "g",
        "o"
      ],
      [
        "Ġassoci",
        "ated"
      ],
      [
        "ĠW",
        "hen"
      ],
      [
        "ay",
        "er"
      ],
      [
        "q",
        "rt"
      ],
      [
        "cri",
        "ption"
      ],
      [
        "Ġm",
        "ass"
      ],
      [
        "Ġlevel",
        "s"
      ],
      [
        "ur",
        "s"
      ],
      [
        "ou",
        "th"
      ],
      [
        "..",
        ".."
      ],
      [
        "t",
        "est"
      ],
      [
        "ĠC",
        "al"
      ],
      [
        "O",
        "U"
      ],
      [
        "Ġstr",
        "ong"
      ],
      [
        "a",
        "pe"
      ],
      [
        "al",
        "f"
      ],
      [
        "Ġth",
        "ought"
      ],
      [
        "ol",
        "ution"
      ],
      [
        "ak",
        "en"
      ],
      [
        "Ġp",
        "ract"
      ],
      [
        "Ġrespon",
        "se"
      ],
      [
        "Ġc",
        "ertain"
      ],
      [
        "iv",
        "ing"
      ],
      [
        "Ġs",
        "ent"
      ],
      [
        "F",
        "F"
      ],
      [
        "Ġm",
        "en"
      ],
      [
        "Ġal",
        "ong"
      ],
      [
        "ch",
        "an"
      ],
      [
        "v",
        "iron"
      ],
      [
        "pl",
        "ace"
      ],
      [
        "n",
        "ces"
      ],
      [
        "at",
        "ors"
      ],
      [
        "Ġin",
        "j"
      ],
      [
        "c",
        "d"
      ],
      [
        "Ġpar",
        "amet"
      ],
      [
        "iv",
        "ity"
      ],
      [
        "s",
        "ide"
      ],
      [
        "Ġam",
        "ount"
      ],
      [
        "av",
        "a"
      ],
      [
        "//",
        "//"
      ],
      [
        "3",
        "1"
      ],
      [
        "Ġsub",
        "ject"
      ],
      [
        "as",
        "ing"
      ],
      [
        "Ġrequ",
        "ired"
      ],
      [
        "Ġd",
        "one"
      ],
      [
        "Ġwom",
        "en"
      ],
      [
        "upp",
        "ose"
      ],
      [
        "ĠB",
        "l"
      ],
      [
        "'",
        "ll"
      ],
      [
        "mathb",
        "f"
      ],
      [
        "Ġa",
        "way"
      ],
      [
        "Ġs",
        "ays"
      ],
      [
        "Ġexper",
        "im"
      ],
      [
        "..",
        "/"
      ],
      [
        "Ġper",
        "cent"
      ],
      [
        "t",
        "able"
      ],
      [
        "Ġf",
        "ri"
      ],
      [
        "Ġiss",
        "ue"
      ],
      [
        "L",
        "ist"
      ],
      [
        "Ġ$",
        "{\\"
      ],
      [
        "Ġp",
        "ress"
      ],
      [
        "r",
        "ist"
      ],
      [
        "ret",
        "urn"
      ],
      [
        "Ġd",
        "om"
      ],
      [
        "se",
        "qu"
      ],
      [
        "re",
        "ct"
      ],
      [
        "og",
        "raph"
      ],
      [
        "e",
        "y"
      ],
      [
        "Ġ",
        "id"
      ],
      [
        "8",
        "5"
      ],
      [
        "Ġdes",
        "ign"
      ],
      [
        "I",
        "I"
      ],
      [
        "V",
        "al"
      ],
      [
        "t",
        "d"
      ],
      [
        "Ġof",
        "ten"
      ],
      [
        "ic",
        "y"
      ],
      [
        "Ġrequ",
        "ire"
      ],
      [
        "Ġl",
        "og"
      ],
      [
        "Ġterm",
        "s"
      ],
      [
        "u",
        "ation"
      ],
      [
        "Ġactiv",
        "ity"
      ],
      [
        "il",
        "on"
      ],
      [
        "og",
        "n"
      ],
      [
        "C",
        "ont"
      ],
      [
        "I",
        "G"
      ],
      [
        "ens",
        "ion"
      ],
      [
        "Ġ=",
        ">"
      ],
      [
        "re",
        "m"
      ],
      [
        "and",
        "s"
      ],
      [
        "Ġ5",
        "0"
      ],
      [
        "am",
        "ples"
      ],
      [
        "6",
        "7"
      ],
      [
        "Ġdevelop",
        "ment"
      ],
      [
        "rib",
        "ution"
      ],
      [
        "Ġt",
        "ell"
      ],
      [
        "i",
        "que"
      ],
      [
        "os",
        "is"
      ],
      [
        "Ġgrou",
        "ps"
      ],
      [
        "i",
        "ver"
      ],
      [
        "Ġf",
        "ore"
      ],
      [
        "Ġp",
        "ort"
      ],
      [
        "Ġhow",
        "ever"
      ],
      [
        "Ġd",
        "r"
      ],
      [
        "or",
        "th"
      ],
      [
        "ĠC",
        "o"
      ],
      [
        "as",
        "ter"
      ],
      [
        "Ġa",
        "ge"
      ],
      [
        "Ġw",
        "ar"
      ],
      [
        "Ġth",
        "ing"
      ],
      [
        "\"",
        ")"
      ],
      [
        "Ġev",
        "ent"
      ],
      [
        "Ġs",
        "ens"
      ],
      [
        "Ġsu",
        "ccess"
      ],
      [
        "Ġpol",
        "it"
      ],
      [
        "Ġche",
        "ck"
      ],
      [
        "le",
        "te"
      ],
      [
        "e",
        "b"
      ],
      [
        "-",
        "\\"
      ],
      [
        "g",
        "a"
      ],
      [
        "Ġv",
        "ir"
      ],
      [
        "st",
        "it"
      ],
      [
        "is",
        "ing"
      ],
      [
        "Ġs",
        "al"
      ],
      [
        ">",
        "</"
      ],
      [
        "b",
        "eta"
      ],
      [
        "Ġk",
        "ind"
      ],
      [
        "Ġen",
        "ough"
      ],
      [
        "Ġc",
        "ourse"
      ],
      [
        "Ġen",
        "c"
      ],
      [
        "Ġacc",
        "ount"
      ],
      [
        "Ġs",
        "at"
      ],
      [
        "ac",
        "y"
      ],
      [
        "c",
        "hed"
      ],
      [
        "ar",
        "row"
      ],
      [
        "Ġto",
        "ld"
      ],
      [
        "Ġl",
        "ower"
      ],
      [
        "f",
        "l"
      ],
      [
        "Ġris",
        "k"
      ],
      [
        "ĠĠĠĠĠĠĠĠ",
        "Ġ"
      ],
      [
        "Ġth",
        "ough"
      ],
      [
        "our",
        "ces"
      ],
      [
        "le",
        "y"
      ],
      [
        "6",
        "8"
      ],
      [
        "oh",
        "n"
      ],
      [
        "Ġcomp",
        "ared"
      ],
      [
        "Ġm",
        "icro"
      ],
      [
        "Ġen",
        "g"
      ],
      [
        "Ġc",
        "oun"
      ],
      [
        "Ġst",
        "ring"
      ],
      [
        "or",
        "ies"
      ],
      [
        "Ġf",
        "und"
      ],
      [
        "Ġrel",
        "ations"
      ],
      [
        "--------------------------------",
        "--------------------------------"
      ],
      [
        "Ġa",
        "ff"
      ],
      [
        "Ġc",
        "ou"
      ],
      [
        "d",
        "ate"
      ],
      [
        "IN",
        "G"
      ],
      [
        "D",
        "E"
      ],
      [
        "I",
        "s"
      ],
      [
        "Ġb",
        "ase"
      ],
      [
        "O",
        "T"
      ],
      [
        "Ġprov",
        "ided"
      ],
      [
        "s",
        "igma"
      ],
      [
        "Ġm",
        "aking"
      ],
      [
        "Ġacc",
        "ording"
      ],
      [
        "ac",
        "es"
      ],
      [
        "om",
        "et"
      ],
      [
        "Ġinclud",
        "e"
      ],
      [
        "o",
        "res"
      ],
      [
        "ang",
        "u"
      ],
      [
        "ĠO",
        "r"
      ],
      [
        "Ġwork",
        "ing"
      ],
      [
        "C",
        "ol"
      ],
      [
        "Ġv",
        "oid"
      ],
      [
        "Ġne",
        "cess"
      ],
      [
        "H",
        "ow"
      ],
      [
        "Ġup",
        "on"
      ],
      [
        "g",
        "in"
      ],
      [
        "Ġcondition",
        "s"
      ],
      [
        "pe",
        "cial"
      ],
      [
        "âĢ",
        "¦"
      ],
      [
        "ord",
        "er"
      ],
      [
        "Ġ(",
        "["
      ],
      [
        "Ġag",
        "ree"
      ],
      [
        "Ġro",
        "le"
      ],
      [
        "Ġte",
        "xt"
      ],
      [
        "Ġb",
        "it"
      ],
      [
        "Ġf",
        "ood"
      ],
      [
        "n",
        "a"
      ],
      [
        "d",
        "ing"
      ],
      [
        "iv",
        "al"
      ],
      [
        "A",
        "G"
      ],
      [
        "Ġrese",
        "arch"
      ],
      [
        "g",
        "es"
      ],
      [
        "Ġaut",
        "hor"
      ],
      [
        "A",
        "l"
      ],
      [
        "Ġse",
        "ction"
      ],
      [
        "cre",
        "t"
      ],
      [
        "Ġus",
        "er"
      ],
      [
        "]",
        ")."
      ],
      [
        "Ġincre",
        "ase"
      ],
      [
        "Ġr",
        "ange"
      ],
      [
        "ut",
        "ure"
      ],
      [
        "Ġeffect",
        "s"
      ],
      [
        "4",
        "7"
      ],
      [
        "Ġse",
        "en"
      ],
      [
        "ub",
        "l"
      ],
      [
        "Ġchang",
        "es"
      ],
      [
        "viron",
        "ment"
      ],
      [
        "in",
        "ter"
      ],
      [
        "c",
        "ode"
      ],
      [
        "un",
        "g"
      ],
      [
        "ht",
        "ml"
      ],
      [
        "m",
        "ost"
      ],
      [
        "Ġdoes",
        "n"
      ],
      [
        "ac",
        "he"
      ],
      [
        "Ġd",
        "ou"
      ],
      [
        "Ġrespon",
        "s"
      ],
      [
        "ib",
        "r"
      ],
      [
        "ess",
        "ion"
      ],
      [
        "t",
        "ies"
      ],
      [
        "at",
        "ures"
      ],
      [
        "i",
        "j"
      ],
      [
        "Ġ(",
        "[@"
      ],
      [
        "0",
        "2"
      ],
      [
        "Ġt",
        "ax"
      ],
      [
        "Ġto",
        "get"
      ],
      [
        "Ġde",
        "m"
      ],
      [
        "Ġtoget",
        "her"
      ],
      [
        "i",
        "ation"
      ],
      [
        "Ġben",
        "ef"
      ],
      [
        "Ġm",
        "il"
      ],
      [
        "g",
        "round"
      ],
      [
        "ĠâĢ",
        "ĺ"
      ],
      [
        "Ġs",
        "ource"
      ],
      [
        "\\",
        "_"
      ],
      [
        "ĠR",
        "ep"
      ],
      [
        "e",
        "e"
      ],
      [
        "Ġdet",
        "ail"
      ],
      [
        "Ġ",
        "Î"
      ],
      [
        "Ġcomp",
        "on"
      ],
      [
        "Ġprote",
        "in"
      ],
      [
        "Ġm",
        "oney"
      ],
      [
        "Ġproper",
        "ty"
      ],
      [
        "Ġan",
        "n"
      ],
      [
        "Ġcomp",
        "ut"
      ],
      [
        "Ġfl",
        "u"
      ],
      [
        "Ġj",
        "ob"
      ],
      [
        "Ġp",
        "ast"
      ],
      [
        "med",
        "i"
      ],
      [
        "Ġcomp",
        "let"
      ],
      [
        "u",
        "it"
      ],
      [
        "Ġincre",
        "ased"
      ],
      [
        "Ġbec",
        "ome"
      ],
      [
        "Ġt",
        "alk"
      ],
      [
        "Ġim",
        "age"
      ],
      [
        "ro",
        "du"
      ],
      [
        "Ġfact",
        "ors"
      ],
      [
        "Ġm",
        "or"
      ],
      [
        "art",
        "ment"
      ],
      [
        "C",
        "C"
      ],
      [
        "Ġph",
        "ot"
      ],
      [
        "ww",
        "w"
      ],
      [
        "he",
        "ad"
      ],
      [
        "Ġserv",
        "ice"
      ],
      [
        "Ġme",
        "chan"
      ],
      [
        "i",
        "ans"
      ],
      [
        "Ġcan",
        "not"
      ],
      [
        "6",
        "9"
      ],
      [
        "Ġobserv",
        "ed"
      ],
      [
        "Ġd",
        "ri"
      ],
      [
        "0",
        "8"
      ],
      [
        "Ġcomp",
        "lex"
      ],
      [
        "r",
        "r"
      ],
      [
        "Ġrequ",
        "est"
      ],
      [
        "Ġse",
        "par"
      ],
      [
        "Ġcon",
        "duct"
      ],
      [
        "Ġcount",
        "ry"
      ],
      [
        "Ġl",
        "ove"
      ],
      [
        "ist",
        "ic"
      ],
      [
        "b",
        "o"
      ],
      [
        "Ġpartic",
        "ip"
      ],
      [
        "\"}",
        ")."
      ],
      [
        "Ġb",
        "ook"
      ],
      [
        "a",
        "f"
      ],
      [
        "ĠUn",
        "iversity"
      ],
      [
        "Ġf",
        "oc"
      ],
      [
        "ur",
        "ation"
      ],
      [
        "m",
        "p"
      ],
      [
        "val",
        "ue"
      ],
      [
        "ri",
        "x"
      ],
      [
        "e",
        "v"
      ],
      [
        "b",
        "t"
      ],
      [
        "Ġl",
        "o"
      ],
      [
        "Ġmonth",
        "s"
      ],
      [
        "Ġreg",
        "ard"
      ],
      [
        "e",
        "ction"
      ],
      [
        "Ġc",
        "y"
      ],
      [
        "min",
        "ist"
      ],
      [
        "ul",
        "es"
      ],
      [
        "Ġdise",
        "ase"
      ],
      [
        "Ġth",
        "ird"
      ],
      [
        "ort",
        "un"
      ],
      [
        "an",
        "c"
      ],
      [
        "w",
        "h"
      ],
      [
        "Ġest",
        "abl"
      ],
      [
        "e",
        "q"
      ],
      [
        "O",
        "n"
      ],
      [
        "Ġc",
        "ult"
      ],
      [
        "Ġa",
        "ir"
      ],
      [
        "Ġmeas",
        "ure"
      ],
      [
        "Ġm",
        "om"
      ],
      [
        "ru",
        "ction"
      ],
      [
        "Ġ",
        "Ð"
      ],
      [
        "Ġe",
        "arly"
      ],
      [
        "Ġdo",
        "ing"
      ],
      [
        "ct",
        "ed"
      ],
      [
        "l",
        "og"
      ],
      [
        "Ġs",
        "ocial"
      ],
      [
        "Ġin",
        "de"
      ],
      [
        "Ġe",
        "p"
      ],
      [
        "Ġcre",
        "ate"
      ],
      [
        "Ġest",
        "im"
      ],
      [
        "Ċ",
        "ĠĠĠĠĠĠĠĠĠĠĠĠĠĠĠĠĠĠĠĠĠĠĠĠĠĠĠĠĠĠĠĠ"
      ],
      [
        "m",
        "at"
      ],
      [
        "D",
        "ata"
      ],
      [
        "ro",
        "id"
      ],
      [
        "V",
        "iew"
      ],
      [
        "Ġme",
        "et"
      ],
      [
        "um",
        "ber"
      ],
      [
        "pp",
        "er"
      ],
      [
        "un",
        "t"
      ],
      [
        "Ġn",
        "ormal"
      ],
      [
        "ic",
        "ense"
      ],
      [
        "Ġf",
        "requ"
      ],
      [
        "epend",
        "ent"
      ],
      [
        "Ġe",
        "conom"
      ],
      [
        "7",
        "8"
      ],
      [
        "Ġcal",
        "cul"
      ],
      [
        "Ġcle",
        "ar"
      ],
      [
        "Ġstruct",
        "ure"
      ],
      [
        "ĊĠĠĠĠ",
        "ĠĠ"
      ],
      [
        "S",
        "h"
      ],
      [
        "Ġex",
        "c"
      ],
      [
        "Ġdefend",
        "ant"
      ],
      [
        "Ġcl",
        "in"
      ],
      [
        "f",
        "ile"
      ],
      [
        "N",
        "o"
      ],
      [
        "A",
        "pp"
      ],
      [
        "uc",
        "le"
      ],
      [
        "Ġcont",
        "ent"
      ],
      [
        "ĠG",
        "en"
      ],
      [
        "ĠSe",
        "e"
      ],
      [
        "Ġspec",
        "ial"
      ],
      [
        "Ġp",
        "rior"
      ],
      [
        "Ġdescrib",
        "ed"
      ],
      [
        "Ġde",
        "ath"
      ],
      [
        "Ġbeh",
        "av"
      ],
      [
        "math",
        "rm"
      ],
      [
        "P",
        "h"
      ],
      [
        "%",
        ")"
      ],
      [
        "en",
        "ed"
      ],
      [
        "Ġpriv",
        "ate"
      ],
      [
        "Ġmult",
        "iple"
      ],
      [
        "o",
        "ff"
      ],
      [
        "s",
        "qrt"
      ],
      [
        "Ġv",
        "iol"
      ],
      [
        "Ġact",
        "ually"
      ],
      [
        "Ġpos",
        "itive"
      ],
      [
        "m",
        "ber"
      ],
      [
        "com",
        "m"
      ],
      [
        "ic",
        "ult"
      ],
      [
        "con",
        "st"
      ],
      [
        "Ġpoint",
        "s"
      ],
      [
        "Ġ",
        "version"
      ],
      [
        "Ġcomp",
        "any"
      ],
      [
        "u",
        "f"
      ],
      [
        "ri",
        "pt"
      ],
      [
        "A",
        "r"
      ],
      [
        "l",
        "oad"
      ],
      [
        "Ġse",
        "ason"
      ],
      [
        "Ġw",
        "a"
      ],
      [
        "ĠC",
        "an"
      ],
      [
        "om",
        "s"
      ],
      [
        "in",
        "ary"
      ],
      [
        "O",
        "b"
      ],
      [
        "Ġd",
        "rug"
      ],
      [
        "Ġsign",
        "al"
      ],
      [
        "Ġac",
        "ross"
      ],
      [
        "C",
        "H"
      ],
      [
        ")",
        "*"
      ],
      [
        "ix",
        "ed"
      ],
      [
        "Ġother",
        "s"
      ],
      [
        "U",
        "n"
      ],
      [
        "Ġqu",
        "ant"
      ],
      [
        "im",
        "um"
      ],
      [
        "on",
        "y"
      ],
      [
        "The",
        "re"
      ],
      [
        "Ġcon",
        "cer"
      ],
      [
        "i",
        "res"
      ],
      [
        "e",
        "qu"
      ],
      [
        "ĠB",
        "e"
      ],
      [
        "ound",
        "s"
      ],
      [
        "Ġsur",
        "face"
      ],
      [
        "Ġr",
        "ather"
      ],
      [
        "pe",
        "c"
      ],
      [
        "Ġbre",
        "ak"
      ],
      [
        "Ġon",
        "ce"
      ],
      [
        "g",
        "amma"
      ],
      [
        "Ġm",
        "ax"
      ],
      [
        "Ġinit",
        "ial"
      ],
      [
        "Ġe",
        "ar"
      ],
      [
        "en",
        "ing"
      ],
      [
        "ce",
        "ed"
      ],
      [
        "ĠM",
        "r"
      ],
      [
        "Ġ",
        "q"
      ],
      [
        "ĠĠĠĠĠĠĠĠ",
        "ĠĠ"
      ],
      [
        "b",
        "ib"
      ],
      [
        "Ġc",
        "ut"
      ],
      [
        "ĠA",
        "N"
      ],
      [
        "ĠF",
        "ig"
      ],
      [
        "}",
        "{\\"
      ],
      [
        "ir",
        "m"
      ],
      [
        "\"",
        ");"
      ],
      [
        "pos",
        "ed"
      ],
      [
        "it",
        "ch"
      ],
      [
        "Ġe",
        "y"
      ],
      [
        "Ġlik",
        "ely"
      ],
      [
        "A",
        "B"
      ],
      [
        "+",
        "\\"
      ],
      [
        "b",
        "it"
      ],
      [
        "Ġf",
        "ive"
      ],
      [
        "Ġp",
        "ick"
      ],
      [
        "O",
        "M"
      ],
      [
        "Ġre",
        "d"
      ],
      [
        "il",
        "de"
      ],
      [
        "Ġshow",
        "s"
      ],
      [
        "Ġcor",
        "respon"
      ],
      [
        "og",
        "en"
      ],
      [
        "O",
        "S"
      ],
      [
        "Ġm",
        "illion"
      ],
      [
        "Ġperform",
        "ed"
      ],
      [
        "Ġd",
        "am"
      ],
      [
        "Ġshow",
        "ed"
      ],
      [
        "Ġbel",
        "ow"
      ],
      [
        "Ġwe",
        "ight"
      ],
      [
        "ĠAmeric",
        "an"
      ],
      [
        "ĠI",
        "N"
      ],
      [
        "s",
        "y"
      ],
      [
        "d",
        "elta"
      ],
      [
        "Ġmem",
        "bers"
      ],
      [
        "ĠA",
        "ss"
      ],
      [
        "Ġmat",
        "ter"
      ],
      [
        "Ġmark",
        "et"
      ],
      [
        "Ġfact",
        "or"
      ],
      [
        "Ġh",
        "ouse"
      ],
      [
        "Ġdet",
        "ect"
      ],
      [
        "Ġde",
        "mon"
      ],
      [
        "ri",
        "ed"
      ],
      [
        "Ġc",
        "ame"
      ],
      [
        "ar",
        "c"
      ],
      [
        "Ġsystem",
        "s"
      ],
      [
        "ud",
        "e"
      ],
      [
        "Ġappro",
        "ach"
      ],
      [
        "Ġh",
        "tt"
      ],
      [
        "Ġev",
        "al"
      ],
      [
        "at",
        "ter"
      ],
      [
        "Ġspe",
        "ct"
      ],
      [
        "r",
        "ho"
      ],
      [
        "g",
        "ree"
      ],
      [
        "ĠG",
        "od"
      ],
      [
        "Ġa",
        "ffect"
      ],
      [
        "Ġf",
        "alse"
      ],
      [
        "Ġc",
        "ause"
      ],
      [
        "ĠM",
        "ay"
      ],
      [
        "Ġm",
        "us"
      ],
      [
        "0",
        "9"
      ],
      [
        "n",
        "o"
      ],
      [
        "Ġ",
        "ver"
      ],
      [
        "Ġobt",
        "ained"
      ],
      [
        ".",
        ")"
      ],
      [
        "Ġs",
        "ite"
      ],
      [
        "ens",
        "ity"
      ],
      [
        "c",
        "ular"
      ],
      [
        "Ġb",
        "ar"
      ],
      [
        "Ġto",
        "ok"
      ],
      [
        "Ġm",
        "akes"
      ],
      [
        "y",
        "ear"
      ],
      [
        "ob",
        "al"
      ],
      [
        "Ġ(",
        "*"
      ],
      [
        ")",
        "("
      ],
      [
        "8",
        "6"
      ],
      [
        "0",
        "7"
      ],
      [
        "on",
        "es"
      ],
      [
        "Ġv",
        "ar"
      ],
      [
        "Ġn",
        "ight"
      ],
      [
        "h",
        "ing"
      ],
      [
        "ide",
        "red"
      ],
      [
        "am",
        "a"
      ],
      [
        "ra",
        "ft"
      ],
      [
        "it",
        "er"
      ],
      [
        "l",
        "im"
      ],
      [
        "Ġvari",
        "ous"
      ],
      [
        "Ġapplic",
        "ation"
      ],
      [
        "Ġe",
        "ver"
      ],
      [
        "on",
        "al"
      ],
      [
        "S",
        "o"
      ],
      [
        "Ġcan",
        "cer"
      ],
      [
        "Ġbl",
        "ood"
      ],
      [
        "us",
        "es"
      ],
      [
        "I",
        "M"
      ],
      [
        "Ġso",
        "ft"
      ],
      [
        "Ġexper",
        "ience"
      ],
      [
        "a",
        "i"
      ],
      [
        "m",
        "y"
      ],
      [
        "Ġs",
        "cre"
      ],
      [
        "Ġm",
        "ar"
      ],
      [
        "Ġw",
        "rit"
      ],
      [
        "Ġde",
        "cre"
      ],
      [
        "0",
        "3"
      ],
      [
        "en",
        "c"
      ],
      [
        "Ġlim",
        "it"
      ],
      [
        "Ġde",
        "al"
      ],
      [
        "angu",
        "age"
      ],
      [
        "'",
        "d"
      ],
      [
        "00",
        "1"
      ],
      [
        "h",
        "old"
      ],
      [
        "Ġtem",
        "per"
      ],
      [
        "u",
        "ild"
      ],
      [
        "Ġwho",
        "le"
      ],
      [
        "Ġt",
        "aken"
      ],
      [
        "Ġant",
        "i"
      ],
      [
        "Ġf",
        "low"
      ],
      [
        "Ġcons",
        "idered"
      ],
      [
        "Ġadd",
        "ed"
      ],
      [
        "Ġf",
        "uture"
      ],
      [
        "Ġ$",
        "("
      ],
      [
        "Ġrel",
        "ated"
      ],
      [
        "n",
        "ow"
      ],
      [
        "op",
        "h"
      ],
      [
        "ab",
        "or"
      ],
      [
        "Ġcl",
        "os"
      ],
      [
        "ĠO",
        "ne"
      ],
      [
        "ag",
        "er"
      ],
      [
        "r",
        "ad"
      ],
      [
        "Ġocc",
        "ur"
      ],
      [
        "in",
        "o"
      ],
      [
        "n",
        "et"
      ],
      [
        "ple",
        "ment"
      ],
      [
        "Ġe",
        "le"
      ],
      [
        "Ġy",
        "et"
      ],
      [
        "Ġcon",
        "cent"
      ],
      [
        "^",
        "\\"
      ],
      [
        "ill",
        "ed"
      ],
      [
        "re",
        "c"
      ],
      [
        "Ġdef",
        "ined"
      ],
      [
        "Ġadd",
        "ress"
      ],
      [
        "Ġdemon",
        "str"
      ],
      [
        "4",
        "9"
      ],
      [
        "um",
        "n"
      ],
      [
        "Fig",
        "ure"
      ],
      [
        "Ġl",
        "oss"
      ],
      [
        "ĠT",
        "e"
      ],
      [
        "ĠĠĠĠĠĠĠĠĠĠĠĠĠĠĠĠĠĠĠĠĠĠĠĠĠĠĠĠĠĠĠĠĠĠĠĠĠĠĠĠĠĠĠĠĠĠĠĠĠĠĠĠĠĠĠĠĠĠĠĠĠĠĠĠ",
        "ĠĠĠĠĠĠĠĠĠĠĠĠĠĠĠĠĠĠĠĠĠĠĠĠĠĠĠĠĠĠĠĠĠĠĠĠĠĠĠĠĠĠĠĠĠĠĠĠĠĠĠĠĠĠĠĠĠĠĠĠĠĠĠĠ"
      ],
      [
        "Ġbl",
        "ock"
      ],
      [
        "Ġp",
        "arent"
      ],
      [
        "pp",
        "ing"
      ],
      [
        "Â",
        "°"
      ],
      [
        "Ġbelie",
        "ve"
      ],
      [
        "b",
        "ig"
      ],
      [
        "r",
        "im"
      ],
      [
        "O",
        "P"
      ],
      [
        "8",
        "7"
      ],
      [
        "Ġm",
        "ut"
      ],
      [
        "ĠJ",
        "ohn"
      ],
      [
        "Ġn",
        "ull"
      ],
      [
        "--------",
        "----"
      ],
      [
        "Ġit",
        "em"
      ],
      [
        "a",
        "ff"
      ],
      [
        "Ġh",
        "om"
      ],
      [
        "ol",
        "l"
      ],
      [
        "Ġcons",
        "ist"
      ],
      [
        "4",
        "6"
      ],
      [
        "ĠThe",
        "n"
      ],
      [
        "Ġrelations",
        "hip"
      ],
      [
        "ĠW",
        "ith"
      ],
      [
        "er",
        "o"
      ],
      [
        "id",
        "ing"
      ],
      [
        "d",
        "is"
      ],
      [
        "part",
        "ial"
      ],
      [
        "Ġsol",
        "ution"
      ],
      [
        "ward",
        "s"
      ],
      [
        "Ġcommun",
        "ity"
      ],
      [
        "ĠA",
        "fter"
      ],
      [
        "se",
        "e"
      ],
      [
        "$",
        "-"
      ],
      [
        "p",
        "ly"
      ],
      [
        "5",
        "7"
      ],
      [
        "l",
        "am"
      ],
      [
        "Ġst",
        "ates"
      ],
      [
        "x",
        "im"
      ],
      [
        "Ġw",
        "ent"
      ],
      [
        "Ġmin",
        "utes"
      ],
      [
        "Âł",
        "Âł"
      ],
      [
        "ĠC",
        "ar"
[...]
