#version: 0.2
Ġ Ġ
Ġ t
Ġ a
i n
h e
r e
o n
ĠĠ ĠĠ
Ġt he
e r
a t
Ġ s
e n
Ġ o
Ġ c
Ġ w
i s
i t
o r
e s
e d
a l
a n
Ġ p
Ġ f
Ġ b
Ġa n
in g
Ġ in
Ġo f
a r
i on
o u
Ġ m
Ġ d
i c
- -
Ġt o
l e
a s
ĠĠĠĠ ĠĠĠĠ
Ġan d
r o
Ġt h
en t
Ġ h
c t
Ġ re
e t
Ġ n
e l
s t
o m
i l
Ġ e
Ġ l
i d
o t
i m
i g
v e
Ġ is
u t
Ġ g
Ġ (
Ġ T
-- --
a m
o l
Ġ I
at ion
s e
c e
l y
â Ģ
Ġf or
u r
ĠĠ Ġ
Ġb e
Ġ S
o w
Ġth at
Ġ u
a d
Ġ on
Ġ A
Ġ C
Ġs t
c h
v er
a y
u l
it h
Ġ 1
i f
Ġc on
Ġw ith
r a
ĠĠĠĠĠĠĠĠ ĠĠĠĠĠĠĠĠ
Ġ y
Ġa s
i r
o d
t er
0 0
Ġp ro
Ġ "
at e
Ġ $
Ġ it
he r
u m
Ġ M
a b
p e
Ġa l
Ġw e
r i
g e
n d
Ġ v
= =
Ġw h
Ġ 2
Ġ P
Ġd e
re s
p p
q u
a c
Ġy ou
m ent
es t
Ġe x
o s
is t
ĠT he
Ġw as
Ġ B
u s
Ġ \
Ġ he
---- ----
an t
Ġo r
Ġc om
e m
h t
Ġa re
t h
* *
o c
Ġa t
er s
Ġs u
i v
Ġ =
u n
it y
es s
a in
Ġ r
Ġ H
o p
Ġ F
Ġb y
Ġ D
Ġs e
l d
il l
ct ion
o re
ro m
an d
Ġ W
n t
k e
Ġn ot
Ġ -
en d
Ġh a
Ġ R
i ve
Ġ L
or t
Ġn e
p t
Ġth is
Ċ ĠĠĠĠ
Ġ N
âĢ Ļ
Ġf rom
ig ht
ar t
u d
re d
Ċ ĠĠĠ
p l
el l
Ġs h
i al
i es
t e
Ġ G
Ġc h
Ġha ve
at ed
Ġ E
f e
Ġ *
u re
in e
' s
ou ld
ou r
al l
{ \
Ġ le
Ġ 0
a g
p er
o g
u st
a ge
ic al
Ġc an
am e
) .
u e
i z
Ġ O
ic h
r ou
c l
Ġ 3
i b
Ċ ĠĠĠĠĠĠĠĠ
ou t
ar d
Ġu s
om e
ab le
i e
as e
Ġre s
Ġc l
Ġw he
) ;
Ġa b
at h
Ġ j
ac k
== ==
ul t
as s
Ġ {
a ct
o st
Ġ k
an s
0 1
Ġp l
Ġcom p
id e
t her
. "
Ġa d
Ġm e
Ċ Ġ
as t
= "
Ġcon t
Ġwe re
or m
Ġ âĢ
Ġ im
T he
Ġal l
Ġt r
u b
ig n
Ġ J
ĊĠĠĠĠ ĠĠĠ
. .
Ġ U
a p
Ġ [
Ġd o
in d
it ion
a k
i p
Ġwh ich
ĠĠĠĠĠĠĠĠĠĠĠĠĠĠĠĠ ĠĠĠĠĠĠĠĠĠĠĠĠĠĠĠĠ
p h
Ġh as
ic e
Ġ +
c c
on e
ar y
ou s
ĉ ĉ
/ /
Ġb ut
im e
Ġin t
en s
ĠI n
a re
in t
-------- --------
c on
Ġw or
_ {
d u
Ġd is
res s
on g
en ce
ation s
Ġ 4
t y
f f
Ġw ill
n e
i le
o k
Ġg o
) ,
Ġ <
r u
Ġo ut
e p
o se
an ce
} }
g h
Â ł
a v
Ġ if
Ġp er
ent s
Ġ en
a u
al ly
ĠT h
b er
Ġ 5
Ġh is
a ce
Ġon e
s o
Ġu n
p ort
x t
el y
i a
or d
Ġthe y
or y
i re
e ar
a ch
e ct
ion s
Ġa pp
Ġe v
Ġs o
f orm
r y
Ġu p
an g
Ġ qu
re e
l ic
Ġa r
Ġthe ir
âĢ Ŀ
Ġm ore
Ġp art
a il
Ġ K
it e
or s
l l
Ġthe re
y s
Ġa g
Ġp re
a ke
Ġo ther
Ġl i
ow n
ĠĠĠĠ ĠĠĠ
ver y
Ġ }
ou nd
Ġyou r
f t
Ġ$ \
v el
Ġh ad
ou nt
fe re
c re
ur n
ĠS t
Ġs a
at a
Ġbe en
c om
Ġs p
m ath
Ġm an
k s
Ġal so
Ġwh o
er v
Ġan y
w e
at es
Ġw ould
d e
Ġ V
Ġn o
[ @
Ġab out
nd er
l ow
j ect
Ċ Ċ
Ġwhe n
et h
Ġm y
Ġ '
Ġ &
if ic
o ok
\ ]
Ġo b
Ġt ime
p le
Ġth an
at er
' t
ic t
Ġas s
w o
er m
Ġ 6
Ġo ver
re f
1 0
Ġit s
} $
ro w
r ing
Ġ1 9
Ġs ome
Ġs c
ĠâĢ ľ
o b
cl ud
ri b
c k
f ter
ay s
c es
< /
Ġs pe
g et
Ġb et
Ġs y
le ct
Ġne w
Ġg en
Ġd if
I n
fe ct
ĊĠĠĠĠĠĠĠĠ ĠĠĠ
ol d
Ġa m
ir st
o ve
^ {
Ġt e
od e
h at
i ed
Ġin ter
ver s
Ġf e
p s
Ġsu b
Ġg et
il d
Ġde f
Ġa cc
1 9
Ġ her
Ġof f
Ġk n
Ġ Y
re at
au se
Ġcom m
Ġa ct
Ġint o
Ġo ur
c ed
Ġu nder
o v
Ġ ro
is s
Ġcon s
ing s
in k
Ġp e
ĠI t
# #
Ġd es
Ġre l
Ġm ay
m a
==== ====
u al
Ġre c
1 2
ic k
Ġon ly
at ive
Ġt wo
ar i
p on
Ġsa id
Ġthe m
Ġv al
er t
ie w
pe ct
Ġy ear
Ġwor k
Ġst ud
Ġbe c
Ġwh at
ul ar
Ġli ke
Ġad d
Ġin d
Ġ 7
he d
Ġre t
ar k
Ġm od
ig h
Ġre g
Ġp os
ĠC h
Ġtr ans
p ro
un ction
Ġin v
el f
ĠTh is
c ess
o int
Ġe m
Ġb l
Ġu se
oc k
st em
Ġc o
it t
is h
Ġf irst
Ġsu ch
as ed
at ing
Ġj ust
Ġ2 01
e x
on t
Ġp r
e f
Ġp h
Ġ 8
ĠW e
Ġp res
Ġfor m
Ġthe se
i an
" ,
ment s
ad e
Ġpro v
i ent
Ġdif fere
Ġwhe re
il ity
ĊĠĠĠĠ Ġ
1 1
Ġc ol
} \
ĠH e
Ġp at
Ġs he
Ġa fter
Ġd et
Ġs ign
ra c
iz e
Ġp ol
Ċ ĉĉ
id ent
a w
Ġh ow
e c
Ġ1 0
o od
we en
ot h
Ġne ed
_ _
d er
s s
f fect
ol og
op le
t he
Ġex p
g r
Ġs et
ty pe
pt ion
Ġthe n
Ġc ould
ub lic
ut ion
an ge
Ġcl ass
ĊĠĠĠĠĠĠĠĠ ĠĠĠĠĠĠĠ
Ġ 9
] (
( )
Ġres ult
Ġat t
S t
Ġbet ween
Ġc ell
ou gh
Ġre m
f ig
is e
00 0
r ight
i ous
Ġ\ [
Ġsu pp
l es
ol low
2 0
. ,
i x
e g
b le
y pe
Ċ ĉ
Ġg rou
Ġ |
u p
Ġin clud
Ġus ed
ib le
a x
i el
E R
al s
Ġd id
our t
Ġd ata
Ġn um
Ġsh ow
u es
on s
Ġkn ow
Ġf l
o y
) {
c y
Ġf act
" >
Ġpe ople
ra ct
ter n
ul l
Ġsh ould
ic s
o x
rou gh
n ing
Ġa c
Ġc or
Ġs im
Ġh im
Ġs ur
m s
Ġspe c
it s
he n
** **
Ġre qu
Ġf ollow
f ore
Ġus ing
Ġd ist
re n
in al
ru ct
Ġ i
Ġse e
Ġb ack
Ġbec ause
s p
Ġf unction
Ġcon st
in ed
iel d
f ul
Ġsy stem
it ies
Ġm ost
) $
l i
e ver
Ġin st
I N
r it
1 5
---------------- ----------------
Ċ ĠĠĠĠĠĠĠĠĠĠĠĠĠĠĠĠ
o ol
p os
Ġ .
p ut
1 3
it ed
Ġ end
Ġs m
s c
ur ing
u res
Ġw ell
in s
1 6
" }
Ġret urn
Ġth rough
Ġpro du
Ġt est
Ġr ight
Ġt ra
Ġgen er
Ġ[ @
( \
ĠU n
Ġb u
] {
Ġag ain
Ġex t
Ġch ar
1 4
Ġw ant
he s
m er
Ġh igh
Ġdiffere nt
Ġe ach
er r
iz ed
ation al
t o
ĠĠĠĠ Ġ
ow er
Ġc ase
- >
rou nd
con d
Ġst ate
Ġdo es
im es
at or
Ġ ent
Ġe ffect
te xt
ical ly
w n
i o
r ic
T h
] ,
ĠS e
2 5
O N
e w
u ch
ot her
t a
n ce
Ġev en
ri v
il y
Ġ2 00
Ġm ake
ction s
p ar
c al
i ents
s et
Ġm in
or k
le t
_ {\
v ent
Ġ @
ro l
Ġ :
.. .
Ġe very
u c
) )
1 8
eth od
Ġ ke
Ġc ur
Ġ ra
ut e
re ad
Ġs ame
Ġc all
ant s
f rac
ar s
Ġw ay
Ġn ow
g er
Ġan al
Ġa p
ce pt
Ġf ind
Ġde c
in ce
v al
Ġ /
Ġd on
" :
Ġin cre
ain t
ar ch
]( #
Ġp oint
oc i
ĠĠĠĠĠĠĠĠĠĠĠĠĠĠĠĠĠĠĠĠĠĠĠĠĠĠĠĠĠĠĠĠ ĠĠĠĠĠĠĠĠĠĠĠĠĠĠĠĠĠĠĠĠĠĠĠĠĠĠĠĠĠĠĠĠ
Ġl ook
o id
1 7
Ġth ose
st r
w ard
vel op
Ġin te
Ġl ong
Ġyear s
Ġ very
Ġ _
Ġd i
u g
as on
y m
Ġpart ic
Ġl oc
p r
en se
Ġb oth
Ġv ari
Ġhe re
as es
u nd
Ġm on
r m
d ay
in es
c ent
re nt
ire ct
A T
re st
Ġa ut
Ġm at
am ple
Ġf ound
Ġ //
Ġb el
Ġbe ing
at ic
t ing
a ir
y p
Ġt ri
$ \
Ġm ed
Ġex per
l ed
? "
Ġapp ro
Ġp ers
Ġp ar
: :
ag es
Ġman y
Ġpl ay
Ġbe fore
if e
]{ }
3 2
n g
ic es
ĠC om
I t
a red
al th
Ġnum ber
Ġf il
] \]
Ġ Q
o ver
Ġm em
âĢ ī
Ġg r
Ġ **
Ġpro te
t r
Ġs er
at ure
5 0
3 0
a pp
Ġ x
c er
Ġ el
Ġc ar
Ġp ublic
E S
if ied
A R
ak ing
Ġo p
s h
o f
m in
Ġres pon
} {
ate g
le ft
od y
n er
Ġg u
Ġth ink
Ġhe l
form ation
Ġc he
ĠĠĠĠ ĠĠ
Ġin s
Ġst r
en g
ress ion
Ġgo od
W e
al e
Ċ ĊĠĠĠ
Ġ1 2
Ġpro cess
a ve
y l
as h
Ġd own
Ġin f
Ġre p
u pp
Ġmod el
ĠF or
an k
Ġm ade
Ġval ue
Ġre port
ĠâĢ ĵ
iv ely
Ġc ourt
is m
n ess
u ally
l ine
v en
Ġ\[ [@
Ġwh ile
Ġle vel
i red
v iew
Ġg iv
Ġstud y
: //
Ġs ol
math b
g g
N A
Ġpres ent
v ed
Ġde velop
2 4
' ,
m on
Ġst art
um ent
ĠL et
2 01
w ay
ain ed
Ġl ar
Ġsupp ort
O R
, \
g ht
d ition
Ġre f
Ġc ount
-- -
Ġdis c
Ġse cond
C R
Ġm uch
re t
$ ,
Ġe qu
Ġ Â
c ul
Ġo wn
am s
. âĢĿ
er g
is ion
Ġh and
ĠP ro
ĠR e
o le
Ġs erv
00 00
Ġt erm
ign ed
Ġth ree
m an
( "
iz ation
Ġre ad
ĠI f
Ġn on
ĠA l
r ay
Ġpat ients
Ġ est
id er
le ment
$ .
g an
al ity
ff ic
Ġde p
o ad
Ġ et
u se
Ġm ethod
Ġpos s
us s
Ġwith out
Ġan t
Ġd uring
Ġor der
am p
Ġcell s
ab el
ou n
en cy
ent ial
ĠA s
c ri
, "
Ġn ame
t on
an y
m ed
W hat
8 0
et a
ar ly
Ġ2 0
our ce
ĠA nd
Ġact iv
Ġhel p
Ġc re
n ot
Ġl ine
id ed
E N
ist s
id ence
if y
Ġgrou p
am b
Ġim port
Ġpro per
R e
Ġper form
ĠH ow
n ame
t t
S T
2 2
c ial
I T
a h
at her
Ġl ast
b e
ĠA n
Ġc le
ab ility
4 0
Ġpro ble
Ġle ad
al k
ter s
ou se
Ġa v
Ġs ay
Ġr un
ra ph
v ing
Ġ z
Ġagain st
ĠB ut
w w
9 9
Ġsm all
an e
r on
Ġis s
Ġg l
ul ation
Ġo per
am es
Ġsign ific
( -
Ġle t
Ġcon f
Ġm ust
2 3
ro ss
Ġt ake
h ip
Ġt ype
\ [
Ġst ill
Ġcont rol
a im
act er
Ġch ild
Ġpers on
an n
Ġl aw
ot s
it ive
m l
Ġp ur
Ġap pe
ĠY ou
Ġm et
C on
Ġs om
ent ion
Ġex pl
L et
o h
Ġ1 5
ir c
ph a
Ġin formation
r t
Ġ ,
( );
Ġd irect
Ġd ay
ys is
s erv
H e
e k
i er
Ġc ent
d s
3 3
Ġin c
A L
F ig
Ã Ĳ
âĢ ľ
Ġf in
A N
ur ther
Ġ ed
Ġqu est
at ch
ch n
l ess
m e
y n
in ation
6 4
] .
olog y
Ġp ost
Ġf am
Ġt reat
6 0
math cal
id es
Ġresult s
E x
Ġ ident
Ġst and
v ious
Ġme as
Ċ ĠĠ
) \
ot e
Ġsignific ant
2 00
et s
Ġe lect
Ġc a
o ot
i ence
iss ion
d a
Ġfollow ing
Th is
f or
Ġ err
ht t
ag n
Ġb re
P ro
Ġm ult
i um
w ork
er al
it al
Ġ1 8
du ct
r ation
ĠN ew
Ġdet erm
at ely
l and
r al
Ġgo ing
Ġall ow
ĠT r
ord ing
a j
mer ic
2 7
Ġcont in
ĠD e
ain s
Ġl im
Ġcon dition
i or
is hed
pl oy
======== ========
} (
ater ial
u red
Ġc are
Ġf r
Ġwith in
Ġ* /
C T
if f
ur al
u le
s on
Ġs ince
Ġre al
Ġl ife
Ġa round
Ġre ce
âĢ ĵ
b l
Ġst at
ion al
Ġw r
' m
Ġwor ld
Ġh um
de f
i vers
Ġre du
Ġcur rent
Ġde v
a z
Ġinte rest
ack age
Ã ©
3 5
Ġ X
g en
2 8
al pha
Ġadd ition
Ġhe alth
qu e
Ġst ruct
ent ly
ĠW h
Ġgo ver
I D
iv ed
ch ool
S E
Ġan other
ak es
Ġ #
on d
Ġp ass
Ġm ark
, âĢĿ
3 4
s elf
Ġinv est
ot t
res ent
Ġ1 4
Ġop en
Ġtr y
c rib
are nt
le x
Ġc r
Ġ< /
Ġar g
âĢ Ķ
b r
Ġs elf
t s
Ġf ield
Ġg reat
am et
Ġd el
Ġcomm un
b ers
Ġl ist
Ġex ample
## ##
iv es
ar g
Ġim p
v es
Y ou
Ġp ower
it her
gr am
re l
d d
Ġinclud ing
]\] .
3 7
**** ****
Ġ Z
Ċ ĊĠ
w ays
Ġo cc
L E
f ace
Ġto o
Ġme an
se c
eth ing
Ġbe h
Ġcl aim
Ġm ight
Ġs l
Ġgiv en
ur y
Ġhe ad
ĠC on
Ġres pect
Ġt em
he re
ar n
0 5
rib ut
Ġb as
2 6
Ġar t
ab ly
ar get
ĠC l
Ġre ally
^ {\
ĠI s
ĠS h
Ġch ang
Ġgover n
Ġass oci
2 9
Ġpl ace
o pe
Ġ1 6
C h
um p
le ction
in ess
ĠHow ever
Ġl ess
in ing
ar m
h or
ĠA meric
Ġp ot
ĠThe y
st and
Ġ{ #
le ase
Ġad v
ou ght
Ġh ig
eng th
R E
Ġf ile
Ġ$ $\
y t
Ġl ow
Ġha pp
end s
3 8
fere nce
f er
ro ll
Ġh ome
Ġb ased
Ġ --
Ġv is
Ġmon th
et y
Ġapp lic
Ġto p
er y
ã ģ
3 6
ateg ory
ic ro
ain ing
Ġc ap
iv id
a ult
' re
Ġw om
al se
ra p
re g
ver t
Ġ ve
th ing
Ġfe w
Ġob ject
Ġg row
oc ument
Ġpro b
at t
Ġb us
Ġc al
el ta
ĠĠĠĠĠĠĠĠĠĠĠĠĠĠĠĠ ĠĠĠĠĠĠĠĠ
2 1
ĠN o
Ġb est
Ġanal ysis
( '
Ġind ic
Ġs ing
Ġp op
itt le
os ed
Ġob serv
Ġm ot
Ġne xt
ĠâĢ Ķ
â Ī
le g
I C
Ġimport ant
b y
Ġte chn
7 5
is ed
A S
m b
Ġev idence
Ġsom ething
el s
os s
Ġp ath
amb da
Ġle ft
Ġob t
C l
e xt
4 5
Ġf our
Ġwhe ther
Ġo pt
$ $
Ġcomm on
b s
Ġprodu ct
Ġch ange
re qu
9 0
c he
c ur
ĠP h
ab l
Ġb o
Ġp ut
Ġbel ie
in f
ĠL e
ert ain
Ġle g
pl ic
Ġsu gg
c ing
Ġsugg est
i k
w are
9 5
Ġv iew
Ġse em
ĠThe re
ific ation
Ġf ail
Ġex pect
Ġpartic ular
ĠI nd
Ġpro f
us ed
ĠW hat
l abel
Ġ3 0
A C
p or
h ib
am ma
) /
Ġne ver
ad d
cc ess
a ction
m un
Ġl ight
7 0
c ol
op y
con t
vers ion
} ,
ĠE x
C om
Ġu nt
Ġinv ol
d iv
ro p
Ġdes crib
Ġcon ne
Ġas k
Ġbet ter
pl es
Ġt urn
m u
Ġs it
Ġab ove
l u
ne w
ĠS o
Ġlar ge
T o
Ġw ater
end ed
en e
mathb b
Ġ1 1
p art
end ing
e red
Ġproble m
Ġb i
Ġs k
Ġtr ue
Ġre ason
A s
il ar
c o
ir d
Ġre se
eg in
Ġ {\
orm al
ĠP l
Ġe as
or n
I S
s er
N ame
ig ma
Ġcons ider
p i
at s
Ġtreat ment
Ġle ast
Ġl ittle
Ġs ize
E D
Ġposs ible
ĠS he
ail able
Ġg ot
ĠA ll
Ġloc al
} _
4 8
as k
h o
Ġpos ition
Ġcom e
Ġth ings
} ^{
Ġto t
! "
= \
Ġr is
ĊĠĠĠĠĠĠĠĠ Ġ
Ġd ue
Ġo pp
Ġbu ild
Ġp ay
Ġm ov
Ġim pro
Ġchar acter
__ __
ivid ual
Ġt yp
ra in
Ġ ide
ĠU S
Ġrep resent
b ack
Ġ ==
ill ion
Ġin it
ep end
3 9
in a
Ġf ree
p ackage
Ġh y
H E
us h
Ġre st
d ata
ir on
pl ay
) :
ic le
Ġ1 7
ar ing
Ġel se
Ġo ld
aj or
an ces
Ġb ig
Ġquest ion
ĠT o
id th
Ġdef end
Ġse ver
n al
č Ċ
i od
Ġha ving
Ġd ays
Ġsh own
Ġoff ic
Ġg ive
ĠO n
Ġhum an
Ġrec ord
olog ical
Ġf urther
s um
im al
Ġb r
Ġor gan
b egin
ap s
Ġb ro
Ġg ame
Ġ es
] ;
Ġtri al
Ġg re
} _{
Ġpro m
Ġ2 5
or g
Ġgovern ment
ĠA pp
Ġn et
m od
Ġpro gram
erg y
Ġh ist
Ġwe ek
Ġs um
âĪ Ĵ
Ġem ploy
ĠSt ate
Ġc ode
at ory
ct or
ĊĠĠĠĠĠĠĠĠĠĠĠĠĠĠĠĠ ĠĠĠ
Ġpre vious
re am
S e
4 4
et ic
b ar
Ġke ep
6 5
n s
I f
e ad
Ġj ud
a ut
Ġexp ression
Ġh ard
Ġind ividual
Ġfe el
Ġd en
Ġprov ide
Ġp a
Ġc ost
I d
Ġal ways
8 8
it or
T ype
Ġm ain
A P
s el
Ġ )
in c
Ġpot ential
Ġe ither
ĠA d
er n
Ġs w
Ġkn own
Ġcall ed
Ġp riv
u ro
R O
Ġr ad
ang le
Ġd iv
Ġ !
B ut
Ġsim ilar
Ġs chool
ĠThe se
Ġp red
Ġch o
our s
ip le
us ion
ĠC ourt
Ġunt il
Ġav ailable
ĠUn ited
Ġfam ily
ph i
Ġcom b
th ough
Ġw on
Ġgener al
u ck
le v
ce ption
it le
op t
oc ial
Ġs ide
ra w
Ġsing le
clud e
C ategory
Ġv ol
Ġf ac
u ff
ent al
Ġb en
L L
al igned
Ġte am
Ġdis e
Ċ ĊĠĠĠĠĠĠĠ
Ġme ans
}$ $
Ġa ction
cl ass
ĠR es
read y
one y
A nd
Ġli k
Ġspec ific
y le
Ġpro ject
Ġ1 3
Ġph ys
ĠF r
6 6
Ġval ues
Ġpl an
Ġ %
v ar
o or
F or
Ġc ases
Ġab le
t en
is on
Ġchild ren
m it
Ġse qu
im port
Ġm ajor
Ġt imes
itt ed
9 8
Ġsever al
Ġm aterial
Ġc irc
p one
ĠC ol
our se
ri es
rou p
Ġor ig
Ġh old
op er
Ġunder stand
St ring
ivers ity
os p
Ġd er
cri pt
Ġsu per
Ġhig her
res pon
Ġt re
use package
Ġke y
ĠTh at
em ber
ĠĠĠĠĠĠĠĠ ĠĠĠ
Ġ1 00
l ambda
ke y
ress ed
ĠS c
7 7
Ġare a
1 00
ess age
Ġstud ies
Ġab s
pp ed
Ġ >
ind ow
Ġt arget
Ġb ody
' ve
r ict
g ment
ne y
c le
y stem
htt p
th is
i ol
Ġm ove
^{ -
it ing
ore d
9 4
Ġ2 4
E T
> <
I ON
Ġf ull
lect ed
sp an
Ġr ate
Ġper iod
A n
Ġwh y
s ub
Ġerr or
9 6
id d
_ \
con om
} )
Ġtot al
R es
Ġ Ã
Ċĉĉ ĉ
Ġstand ard
m m
en ces
m ission
Ġen ergy
Ċĉĉ ĉĉ
0 4
Ġbus iness
} ^
9 7
um e
Ġne g
T r
ffic ient
Ġacc ess
ep s
Ġex ist
ust om
h y
Ġl ater
ri or
ut es
ru g
Ġl ot
er ing
id s
l ing
ĠSt ates
Ġsp ace
Ġf ar
Ġre view
Ġl a
p m
ĠA r
ict ion
{ {\
em pt
Ġsu re
Ġdif f
st ring
Ġpr im
l er
if t
t ime
Ġ `
ab les
Ġal ready
aint iff
Ġf inal
g ed
Ġdid n
A D
is ter
A M
ib ility
Ġinvest ig
Ġsh ort
ĠS p
5 5
Ġdisc uss
Ġc rit
u ed
s w
Ġreport ed
ĠA t
Ġam ong
ver age
g o
Ġassoci ated
ĠW hen
ay er
q rt
cri ption
Ġm ass
Ġlevel s
ur s
ou th
.. ..
t est
ĠC al
O U
Ġstr ong
a pe
al f
Ġth ought
ol ution
ak en
Ġp ract
Ġrespon se
Ġc ertain
iv ing
Ġs ent
F F
Ġm en
Ġal ong
ch an
v iron
pl ace
n ces
at ors
Ġin j
c d
Ġpar amet
iv ity
s ide
Ġam ount
av a
// //
3 1
Ġsub ject
as ing
Ġrequ ired
Ġd one
Ġwom en
upp ose
ĠB l
' ll
mathb f
Ġa way
Ġs ays
Ġexper im
.. /
Ġper cent
t able
Ġf ri
Ġiss ue
L ist
Ġ$ {\
Ġp ress
r ist
ret urn
Ġd om
se qu
re ct
og raph
e y
Ġ id
8 5
Ġdes ign
I I
V al
t d
Ġof ten
ic y
Ġrequ ire
Ġl og
Ġterm s
u ation
Ġactiv ity
il on
og n
C ont
I G
ens ion
Ġ= >
re m
and s
Ġ5 0
am ples
6 7
Ġdevelop ment
rib ution
Ġt ell
i que
os is
Ġgrou ps
i ver
Ġf ore
Ġp ort
Ġhow ever
Ġd r
or th
ĠC o
as ter
Ġa ge
Ġw ar
Ġth ing
" )
Ġev ent
Ġs ens
Ġsu ccess
Ġpol it
Ġche ck
le te
e b
- \
g a
Ġv ir
st it
is ing
Ġs al
> </
b eta
Ġk ind
Ġen ough
Ġc ourse
Ġen c
Ġacc ount
Ġs at
ac y
c hed
ar row
Ġto ld
Ġl ower
f l
Ġris k
ĠĠĠĠĠĠĠĠ Ġ
Ġth ough
our ces
le y
6 8
oh n
Ġcomp ared
Ġm icro
Ġen g
Ġc oun
Ġst ring
or ies
Ġf und
Ġrel ations
-------------------------------- --------------------------------
Ġa ff
Ġc ou
d ate
IN G
D E
I s
Ġb ase
O T
Ġprov ided
s igma
Ġm aking
Ġacc ording
ac es
om et
Ġinclud e
o res
ang u
ĠO r
Ġwork ing
C ol
Ġv oid
Ġne cess
H ow
Ġup on
g in
Ġcondition s
pe cial
âĢ ¦
ord er
Ġ( [
Ġag ree
Ġro le
Ġte xt
Ġb it
Ġf ood
n a
d ing
iv al
A G
Ġrese arch
g es
Ġaut hor
A l
Ġse ction
cre t
Ġus er
] ).
Ġincre ase
Ġr ange
ut ure
Ġeffect s
4 7
Ġse en
ub l
Ġchang es
viron ment
in ter
c ode
un g
ht ml
m ost
Ġdoes n
ac he
Ġd ou
Ġrespon s
ib r
ess ion
t ies
at ures
i j
Ġ( [@
0 2
Ġt ax
Ġto get
Ġde m
Ġtoget her
i ation
Ġben ef
Ġm il
g round
ĠâĢ ĺ
Ġs ource
\ _
ĠR ep
e e
Ġdet ail
Ġ Î
Ġcomp on
Ġprote in
Ġm oney
Ġproper ty
Ġan n
Ġcomp ut
Ġfl u
Ġj ob
Ġp ast
med i
Ġcomp let
u it
Ġincre ased
Ġbec ome
Ġt alk
Ġim age
ro du
Ġfact ors
Ġm or
art ment
C C
Ġph ot
ww w
he ad
Ġserv ice
Ġme chan
i ans
Ġcan not
6 9
Ġobserv ed
Ġd ri
0 8
Ġcomp lex
r r
Ġrequ est
Ġse par
Ġcon duct
Ġcount ry
Ġl ove
ist ic
b o
Ġpartic ip
"} ).
Ġb ook
a f
ĠUn iversity
Ġf oc
ur ation
m p
val ue
ri x
e v
b t
Ġl o
Ġmonth s
Ġreg ard
e ction
Ġc y
min ist
ul es
Ġdise ase
Ġth ird
ort un
an c
w h
Ġest abl
e q
O n
Ġc ult
Ġa ir
Ġmeas ure
Ġm om
ru ction
Ġ Ð
Ġe arly
Ġdo ing
ct ed
l og
Ġs ocial
Ġin de
Ġe p
Ġcre ate
Ġest im
Ċ ĠĠĠĠĠĠĠĠĠĠĠĠĠĠĠĠĠĠĠĠĠĠĠĠĠĠĠĠĠĠĠĠ
m at
D ata
ro id
V iew
Ġme et
um ber
pp er
un t
Ġn ormal
ic ense
Ġf requ
epend ent
Ġe conom
7 8
Ġcal cul
Ġcle ar
Ġstruct ure
ĊĠĠĠĠ ĠĠ
S h
Ġex c
Ġdefend ant
Ġcl in
f ile
N o
A pp
uc le
Ġcont ent
ĠG en
ĠSe e
Ġspec ial
Ġp rior
Ġdescrib ed
Ġde ath
Ġbeh av
math rm
P h
% )
en ed
Ġpriv ate
Ġmult iple
o ff
s qrt
Ġv iol
Ġact ually
Ġpos itive
m ber
com m
ic ult
con st
Ġpoint s
Ġ version
Ġcomp any
u f
ri pt
A r
l oad
Ġse ason
Ġw a
ĠC an
om s
in ary
O b
Ġd rug
Ġsign al
Ġac ross
C H
) *
ix ed
Ġother s
U n
Ġqu ant
im um
on y
The re
Ġcon cer
i res
e qu
ĠB e
ound s
Ġsur face
Ġr ather
pe c
Ġbre ak
Ġon ce
g amma
Ġm ax
Ġinit ial
Ġe ar
en ing
ce ed
ĠM r
Ġ q
ĠĠĠĠĠĠĠĠ ĠĠ
b ib
Ġc ut
ĠA N
ĠF ig
} {\
ir m
" );
pos ed
it ch
Ġe y
Ġlik ely
A B
+ \
b it
Ġf ive
Ġp ick
O M
Ġre d
il de
Ġshow s
Ġcor respon
og en
O S
Ġm illion
Ġperform ed
Ġd am
Ġshow ed
Ġbel ow
Ġwe ight
ĠAmeric an
ĠI N
s y
d elta
Ġmem bers
ĠA ss
Ġmat ter
Ġmark et
Ġfact or
Ġh ouse
Ġdet ect
Ġde mon
ri ed
Ġc ame
ar c
Ġsystem s
ud e
Ġappro ach
Ġh tt
Ġev al
at ter
Ġspe ct
r ho
g ree
ĠG od
Ġa ffect
Ġf alse
Ġc ause
ĠM ay
Ġm us
0 9
n o
Ġ ver
Ġobt ained
. )
Ġs ite
ens ity
c ular
Ġb ar
Ġto ok
Ġm akes
y ear
ob al
Ġ( *
) (
8 6
0 7
on es
Ġv ar
Ġn ight
h ing
ide red
am a
ra ft
it er
l im
Ġvari ous
Ġapplic ation
Ġe ver
on al
S o
Ġcan cer
Ġbl ood
us es
I M
Ġso ft
Ġexper ience
a i
m y
Ġs cre
Ġm ar
Ġw rit
Ġde cre
0 3
en c
Ġlim it
Ġde al
angu age
' d
00 1
h old
Ġtem per
u ild
Ġwho le
Ġt aken
Ġant i
Ġf low
Ġcons idered
Ġadd ed
Ġf uture
Ġ$ (
Ġrel ated
n ow
op h
ab or
Ġcl os
ĠO ne
ag er
r ad
Ġocc ur
in o
n et
ple ment
Ġe le
Ġy et
Ġcon cent
^ \
ill ed
re c
Ġdef ined
Ġadd ress
Ġdemon str
4 9
um n
Fig ure
Ġl oss
ĠT e
ĠĠĠĠĠĠĠĠĠĠĠĠĠĠĠĠĠĠĠĠĠĠĠĠĠĠĠĠĠĠĠĠĠĠĠĠĠĠĠĠĠĠĠĠĠĠĠĠĠĠĠĠĠĠĠĠĠĠĠĠĠĠĠĠ ĠĠĠĠĠĠĠĠĠĠĠĠĠĠĠĠĠĠĠĠĠĠĠĠĠĠĠĠĠĠĠĠĠĠĠĠĠĠĠĠĠĠĠĠĠĠĠĠĠĠĠĠĠĠĠĠĠĠĠĠĠĠĠĠ
Ġbl ock
Ġp arent
pp ing
Â °
Ġbelie ve
b ig
r im
O P
8 7
Ġm ut
ĠJ ohn
Ġn ull
-------- ----
Ġit em
a ff
Ġh om
ol l
Ġcons ist
4 6
ĠThe n
Ġrelations hip
ĠW ith
er o
id ing
d is
part ial
Ġsol ution
ward s
Ġcommun ity
ĠA fter
se e
$ -
p ly
5 7
l am
Ġst ates
x im
Ġw ent
Ġmin utes
Âł Âł
ĠC ar
Ð ¾
Ġse x
and om
Ġf ra
ĠC ent
4 2
Ġr at
x i
ĠCh rist
b all
Ġdec ision
ĠI nt
le q
' )
I m
Ġass ess
led ge
Ġm ind
s ize
Ġl and
Ġ Ċ
ch ie
ĠP at
ag ed
Ġdiff icult
Ġ ur
ul ated
Ġm aint
ĠO b
r c
Ġdev ice
Ġim mun
o ber
Ġtry ing
Ġinclud ed
~ ~
U T
Ã ĥ
Ġc amp
p ose
ver se
Ġc ross
Ġin hib
Ġde cl
ã Ĥ
Ġex am
Ġc ard
Ġreg ion
Ġcont ract
* ,
at us
en n
Ġen vironment
S S
b ody
8 9
Ġh alf
Ġgrou nd
un c
ac hed
Ġto day
the ta
Ġrespect ively
ide o
Ġf ace
ut il
ind ing
Ġtr ad
Â Ĥ
w here
Ġcl ose
iz ing
Ġm agn
Ġc ustom
Ġdef in
], [@
Ġapp l
ĠA ct
Ġrece ived
Ġc e
Ġ} ,
d ro
itt ing
ĠM ore
/ *
I R
m itted
un e
ag ing
end er
I L
Ġaddition al
Ġent ire
Ġinte gr
ome ga
Ġt able
Ġch all
Ġc ity
tern al
Ġsignificant ly
Ġany thing
C L
}} \
m ary
Ġpat ient
Ġd at
ly ing
rib ute
Ġf av
et ition
Ġnet work
Ġs ix
Ġsim ple
Ġ ill
od es
i ke
l or
Ġs us
ĠÂ §
Ġac cept
Ġb ound
pos ition
ĠM y
w ise
Ġd ig
0 6
g l
Ġb ring
4 3
Ġn at
Ġl ink
re ed
Ġcom pl
Ġgrow th
u k
age ment
ist ance
Ġneed s
Ġask ed
he l
oc al
ed eral
ens ive
ĠM ed
I P
A A
9 3
Ġget ting
Ġhist ory
pecial ly
******** ********
Ġ\ \
Ġp an
Ġt w
t au
r am
Ġl ength
Ġw in
g ress
Ġhe art
Ġin du
a pt
Ð µ
Ġlook ing
T able
Ġne ar
Ġimpro ve
ac ed
] )
Ġro om
ĠM an
Ġatt ack
op s
Ġdiffere nce
G et
Ġh ref
m iss
Ġmethod s
in clude
Ġt um
n u
b f
Ġser ies
+ +
U R
Ġpart y
us ing
Ġcont act
or ld
b ased
is f
Ġperform ance
Ġex ec
p re
ĠĠĠĠĠĠĠĠ ĠĠĠĠĠĠĠ
ic ation
EN T
u ly
Ġpa per
b ut
ĠE ng
Ġproble ms
Ġv ia
Ġpl aintiff
Ã Ĺ
ful ly
Ġin put
r is
t imes
Ġth us
8 4
ĠB y
ĠS te
Ġm iss
Ġiss ues
Ġinvol ved
Ġ ...
9 2
Ġsub st
Ġ2 1
inf ty
Ġcor rect
Ġal most
Â ±
Ġpat tern
I V
) }
st ate
Ġad j
A ll
U S
Ġnot hing
Ġh ours
5 6
à ¤
Ġserv ices
Ġe ff
Ġthere fore
Ġpre vent
ie f
O L
ĠD ep
Ġneed ed
Ġexpect ed
o o
Ã ĳ
Ġed uc
Ð °
ir l
ĠM c
Ġad minist
ĠM ar
Ġass um
W h
Ġwor ks
m ore
ĠC ount
Ġhe ld
um ents
b ox
il es
ĠĠĠĠĠĠĠĠ ĠĠĠĠ
an ks
il t
Val ue
il ities
r id
Ġpop ulation
Ġinst ead
Ġa chie
Ġoffic ial
Ġfil m
Ġbl ack
com es
yn am
Ġem b
W ith
Ġan sw
er c
Ġinf lu
uro pe
č ĊĠĠĠ
Ġh ost
htt ps
y z
Ġsh all
w idth
E M
Ġatt empt
W hen
l t
Ġbe gin
g est
Ġrec ent
Ġ$ $
l ist
f unction
Ġl ines
Ġseem s
ĠD ef
ĠM on
at ively
S et
Ġan g
Ġf all
ĠC or
Ġgen e
li ke
7 6
Ġim plement
al es
itt en
ol ve
ip s
at al
c ome
Ġrem ov
P E
Ġide a
4 1
r s
Ġst ep
Ġpol ice
i i
Ġcol l
Ġst ory
Ġmot ion
ĠC ont
w ith
Ġint rodu
T hat
Ġe lement
T R
sel ves
B y
) );
ĠI m
Ġcom es
Ġstud ents
! [
Ġp ubl
}$ ,
Ġ( -
ro s
ut h
ĠN ot
Ġpred ict
Ġprodu ction
Ġcol or
Ġ4 0
Ġb ad
Ġqu ality
Ġto ol
9 1
" ;
E n
Ġdis play
Ġout put
Ġsome one
Ġ/ *
l ation
an ced
Ġmodel s
ĠT HE
w ord
Ġre ve
d es
p x
ĠA m
g ing
f ield
Ġle arn
rap y
Ġt aking
tr ans
Ġstart ed
Ġp age
Ġd ocument
ĠY ork
Ġf ig
Ġmed ia
l ight
Ġprov ides
ĠM in
P l
Ġyou ng
Ġl oad
ens ure
Ġst e
I nt
Ġdist ribution
Ġpol icy
Ġits elf
Ġ2 2
R NA
Ġse arch
ĠP res
st er
ĠTh us
Ġnecess ary
ill s
\ \
row n
}$ .
Ġrec ogn
ul ations
d ocument
y ing
c hes
Ġind ust
5 3
e ks
ĠP ol
un ch
Ġ2 8
ĠD o
Ġn ucle
Ġa verage
ĠĠĠĠĠĠĠĠ ĠĠĠĠĠ
al ed
Ġl ive
Ġpro ced
ast ic
d own
^ *
osp ital
it es
Ġright s
Ġappe ar
Ġprob ably
Ġ| |
5 4
ĠTr ump
ĠN ational
def ine
Ġcomp ar
rr or
Ġdi agn
Ġorig inal
ut ions
Ġfr ont
Ġd ire
Ġclin ical
ĊĠĠĠĠĠĠĠĠĠĠĠĠĠĠĠĠ ĠĠĠĠĠĠĠ
Ġ ess
Ġmom ent
D elta
b ook
Ġal leg
Ġcon fig
he m
el t
p ri
Ġex act
par am
M od
Ġ2 7
Ġimp act
Ġpre t
Ġfunction s
Ġ â
Ġsim ply
Ġproduct s
cc ording
am ed
ribut ed
ĠO F
Ġph ase
Ġcor rel
Ġw alk
ec ause
Ġes pecially
err or
Ġd im
os ition
Ġinde x
ĠE urope
i qu
Ġtemper ature
er ation
et er
ĠB o
Ġwor ds
her s
f r
cl usion
| \
com p
Ġsequ ence
ove red
P S
Ġf oot
ol ic
ist ics
Ġs ample
b b
Ġproper ties
Ġcon text
s u
8 3
ã ĥ
Ġd est
Ġcon v
Ġg ra
Ġdep end
o ke
au gh
Ġform er
ĠM e
x y
Ġinst all
Ġval id
p oint
ĠE n
Ġperson al
Ġche m
Ob ject
Ġeff ort
Ġ! =
Ġass ert
Ġpr int
T ext
a ctions
Ġcomp lete
Ġder iv
ĠC ity
in ally
ref ore
ard s
Ġs il
Ġdeterm ined
Ġpres ence
ar ily
( $
Ġmed ical
Ġc opy
per ty
idd le
Ġdist rict
Ġcons um
Ġ2 6
Ġst atic
Ġev ents
qu ad
ar ray
Ġm ole
Ġgen es
Ġqu ick
Ġ2 3
Ġpol y
\ *
il i
Ġc red
ĠIn c
Ġpolit ical
Ġout side
Ġpress ure
i en
Ġs ense
pl it
Ġar ray
in ks
s l
u x
ym b
st ruct
Ġd ate
ĠJ an
Ġsat isf
Ġstr ateg
Ġeffect ive
Ġtyp es
ĠC D
Ġl ack
Ġprim ary
r an
ĠSt ring
Ġl anguage
5 2
M y
I nd
O D
ult s
d om
Ġevery thing
Ġc reat
Ġ& &
it em
M S
F ile
Ġwr ong
Ġrem ain
ch ar
5 8
ron ic
Ġphys ical
p ath
oc r
Ġfe atures
ĠÂ ±
Ġlong er
/ >
../ ../
ann el
d o
c m
an a
]{} ,
Ġins ide
Ġp ain
Ġdeterm ine
Ġconst it
Ġse lect
Ġpresent ed
Ġeas y
cul ate
b or
A t
Ġjud gment
Ġnew s
Ġqu ite
Ġident ified
Ġcre ated
ĠP r
Ġm i
Ġst op
p ublic
Ġac id
es e
is es
Ġrun ning
sy ch
f ra
ic on
A d
5 9
Ġincre asing
Ġs amples
ag s
Ġbas is
ĠĠĠĠĠĠĠĠ ĠĠĠĠĠĠ
Ġr andom
ĠG e
av ing
Â ĥ
Ġsur v
Ġh yp
Ġst ay
Ġwh ite
Ġparamet ers
Ġeval u
Ġwant ed
Ġh ope
7 4
Ġt iss
s im
Ġstat us
Ġfollow s
Ġu nd
Ġcont roll
E d
Ġstate ment
7 2
r ast
ra ck
Ġmem ber
It em
8 1
Ñ Ĥ
ur ch
Ġappro xim
Ġare as
Ġf ire
an cial
8 2
Ġp ack
} (\
r ite
Ġs em
ĠG u
Ġcontin u
Ġis n
7 9
Ġele ments
pr int
ĠL icense
Ġfr ame
Ġwe eks
Ġo il
og le
5 1
as ons
ĠP art
ĠQ u
Ġdirect ly
Ġ ?
Ġp air
Ġse cur
Ġst ra
Ġconst ant
t op
v oid
âĢ Ĳ
erv ice
P ar
li er
Ġquest ions
Ġag o
s k
Ġre comm
it ary
ĠP ar
C D
ott om
Ġf un
N ot
de v
6 3
____ ____
Ġmem ory
E L
Ġpr inc
l ig
h a
Ġfor ce
` `
ri al
Ġnat ural
Ġc ry
Ġg ames
ac c
us er
ear ch
eg a
Ġthe ory
is ions
U N
ers on
ms g
fe ction
O C
ell ant
Ġtra ining
it ation
Ġgr ad
oc ol
ĠP e
Ġst ri
g n
Ã ¡
Ġp ie
Ġav oid
Ġset t
er a
Ġ( \[
K ey
P s
Ġknow ledge
lement ary
Q u
Ġtrans fer
Ġopp ortun
T H
r angle
Ġg as
Ġcontin ue
ial ly
ĠH ar
ĠD r
ĠD NA
Ġext ra
Ġp le
ĠH is
h ood
t ilde
Ġbuild ing
Ġbeh ind
pl ate
ĠS ystem
7 3
m et
he t
cl us
ro te
)$ .
ous ly
Ġf em
Ġgre ater
re et
Ġcont ain
Ġappl ied
Ġsh are
Ġm is
i et
\] )
c ell
Ġre place
f s
Ġlim ited
f rom
Ġv ideo
row s
fere nces
om a
ay out
Ġm ice
Ġdef ault
P L
le ge
Ġre lease
m ap
Ġprevious ly
ĠPres ident
ve re
Ġbehav ior
M L
ĠS uppose
av es
Ġm ap
Ġt itle
Ġinclud es
Ġredu ced
Ġsa w
Ġf ul
p ite
ter m
ol es
cd ot
ag ue
ĠThe refore
Ġj o
S D
o at
" .
Ġv ict
ul a
ro ph
Ġab ility
Ġo ption
Ġn ational
sc ript
ĠO ur
ma x
m pt
Ġb ur
7 1
Ġexp ress
Ġve h
ell ing
B C
j s
ĠIn tern
Ġfri end
ar ning
D e
ad a
Ġm essage
Ã Ĥ
Ġst yle
Ġ6 0
Ġm ach
Ġclaim s
os ure
is ms
Ġdevelop ed
im ate
Ġart icle
Ġim medi
r ant
ri ef
Ġop in
: **
Ġre v
ap ter
um b
ad er
ĊĊ Ċ
Ġl ayer
ĠA f
fe red
os ph
Ġfav or
Ð ¸
Ġacc om
( ).
s m
e ch
l ength
Ġim pl
Ġpres ident
Ġh ot
O r
Ġcomp an
ic les
Ġinv ention
ĠI d
ĠN e
or ks
n ers
Ġsoft ware
ps ilon
ib er
. '
p en
am ent
ac hes
ĠA P
Ġind ependent
Ġwr ite
Ġm other
Ġhtt p
Ġpre c
ĠF urther
k n
ot ic
T est
Ġnum bers
.. ."
Ġplay ers
ĠD ist
Ġwr itten
Ġappro pri
Ġprote ct
Ġmat ch
Ġdou ble
Ġaut om
Ġwor d
Ġre ference
o ch
Ġ201 2
Ġant ib
] ^
6 2
Ġfollow ed
ĠJ ust
ĠCom p
Ġcom ing
ĠS im
S he
u ary
Ġparticular ly
a ign
D ef
ĠCount y
ĠD es
eth yl
ĠS outh
ĠS ince
Ġc and
at ives
oc ation
ĠD em
I F
Ġs low
) =
Ġle ave
ap an
čĊ č
Ġact ive
g or
Ġ ir
Ġobt ain
Ġref er
Ġsecur ity
C A
ĠWh ile
ill i
E X
ru pt
Ġ ;
Ġpre p
Ġb ir
Ġcle an
ĠR uss
ur b
Ġfor ward
Ġneg ative
Ġm ention
Ġun it
ĠP a
Ġre pe
r ange
ĠS T
iv en
ish ing
vent ion
Ġcorrespon ding
Ġconst ruct
Ġ[ *
Ġg irl
Ġw indow
s upp
ĠO R
Ġl ate
Ġn ature
ĠN orth
Ġspec ies
Ġus ually
ab ase
f o
ĠP er
n on
A dd
he st
ĠR eg
Ġv ot
ä ¸
Ġr ule
ash ing
Ġr ates
Ġdiffere nces
M A
m ega
Ġl iving
Ġoff ice
6 1
Ġal tern
Ġal though
ĠHe re
Ġansw er
Ġd ynam
Ġ201 3
Ġwh ose
Ġor g
Ġnot e
in ated
Ġb ox
Ġgl obal
Ġpur ch
Ġpract ice
ren g
ĠW orld
Ġoff er
Ġtri ed
ĠV al
lev ant
Ġarg ument
Ġb rain
S P
Ġet c
Ġan im
Ġreg ular
el ine
Ġon line
Ġgr ant
Ġinst ance
Ġ201 6
Ġwe bs
at form
}} $
ĠA b
Ġp o
Ġcomp et
g roup
is c
Ġgener ally
il s
Ġl ost
o on
c ast
Ġs le
st e
Ġrec ently
ĠS m
ps i
ar ies
ĠE d
Ġpro t
it ness
in ate
er ve
Ġacc ur
ĠS ome
Ġw all
ĠG o
enc ies
L e
Ġ201 4
qu est
Ġthem selves
ur ance
ch ange
S uppose
Ġback ground
ĠPh ys
Ġany one
//// ////
p ret
ill ing
Ġt akes
en er
Ġpro posed
Ġcount ries
l ink
Ġw atch
j oy
Ġagree ment
================ ================
ve y
Ġg e
Ġs ort
Ġd riv
e es
Ġres id
Ġ âĪĴ
Ġsay ing
p at
iv il
p ace
C E
Ġex cept
Ġd ensity
Ġb all
Ġst ress
Ġ/ >
Ex ception
ĠD av
res h
w ide
Ġtre ated
gor ith
l in
Ġess ential
or ph
ĠI I
p y
ĠO ct
* ~
D es
ĠM arch
ĠF irst
re w
n ed
Ġanal yz
v are
} =
Ġhim self
ĠH ouse
E rror
m ing
Ġleg al
0000 0000
Ġro t
ĠI S
Ġsit uation
uf act
Ġpur pose
Ġf ederal
Ġh ar
ĊĠĠĠĠĠĠĠĠ ĠĠĠĠĠ
^ [@
( (
pr il
Ġen h
ind ex
Ġcent er
Ġhe av
ang er
"> <
Ġ2 9
right arrow
Ġbec ame
ĠCh ina
Ġ201 5
St ate
Ġrel ative
ĠAmeric a
eps ilon
Ġfe ed
Ġpret ty
Ġspe ed
ĠS ch
h am
Ġde ep
Ġw ays
Ġco ver
Ġdire ction
Ġhy dro
âĢ ĥ
Ġre le
b on
Ġfin ancial
O ne
T ime
U LL
u el
ï ¼
ig en
ail y
Ġfail ed
Ġser ious
Ġf ast
Ġpubl ished
ul ate
ĠDep artment
ĠA ust
Ġper fect
Ġrespon d
Ġ );
Ġp ict
ac ity
00 3
Ġ vers
vare psilon
l ib
Ġinter n
Ġhigh ly
l ock
\] .
O mega
port s
[ '
Ġwom an
C al
Ġp hen
Ġpr ice
Ġis ol
Ġfind ings
M an
ĠB ar
G amma
re me
s ing
Ġallow ed
p an
b i
Ġderiv ative
Ġsu fficient
ĠA ug
Ġse lected
Ġchar ge
a e
a it
Ġ ĊĠĠĠĠĠĠĠĠĠĠĠĠĠĠĠ
od ing
Ġn ode
Ġde gree
Ġcomm it
ach ing
b ase
Ġoper ation
rou ght
ĉĉ ĉĉ
u ge
Ġcompon ent
Ġst ar
iz es
Ġcom ment
Ġcomm and
Ġh or
oci ety
)$ ,
our nal
Ġst age
d im
Ġlar ger
Ġdes igned
a ur
Ġmeas ured
Ġl abel
an ch
Ġtrad ition
Ġg ave
th at
ra el
Ġj ury
## #
ĠG erm
Ġsa f
Ġdetail s
Ġg raph
in it
m ar
G F
ibr ary
ou d
arg in
Ġindividual s
ĠS u
Ġso on
P R
ĠGen eral
Ġcamp aign
Ġident ify
Cl ass
Ġd raw
o ice
Ġim ages
n b
Ġevery one
ad es
old s
Ġsubst ant
ore m
Ġcurrent ly
h aps
Ġca used
ĠA p
Ġfoc us
Ġal one
Ġp sych
P A
Ġaut h
Ġs qu
Ġqu e
Ġfri ends
Ġloc ation
Ġprote ins
f n
o e
Ġwas n
om y
Ġ201 1
Ġa ud
ĠJ une
ĠJ apan
ĠN ow
Ġvis it
} ;
O f
Ġgiv es
Ġre str
B S
al ing
Ġcompon ents
Ġst reng
T T
Ġ[ **
ĠAl though
Ġey es
d en
Ġst im
Ġb ank
Ġ201 0
Ġfil es
or age
Ġmat rix
Ġprof ess
ou ch
ĠRep ublic
Ġcho ice
Ġr ound
f il
Ġsc ale
Ġrequ ires
or ing
i ated
oc ks
Ġ: =
her n
z z
N S
ex p
Ġatt ention
Ġro ad
Ġf ixed
Ġcl ust
oper ator
Ġpro ceed
N ew
ers ion
se ction
Ġprom ot
F L
Ġcompan ies
es tern
Ġf ight
Ġbe gan
Ġk new
Ġuse ful
i us
hes is
ak er
Ġhy per
c all
ĠHe alth
Ġsy nt
i ency
z e
ff er
Ġlead ing
Ġp ull
Ġopt ions
Ġl ed
Ġsu it
Ġ201 7
Ġb al
Ġp oor
ĠS er
Ġ// /
ob ile
se mb
Ġfail ure
( ),
ÃĹ Â
--- |
os ing
Ġnot ice
Ġ __
Ġman agement
Ġc ook
ist ry
Ġfrequ ency
it ter
Ġus ers
Ġde b
E C
Ġth reat
Ġb ed
if ically
Ġ- >
act ive
com ing
Ġor d
re en
ograph y
ĠS en
Ġun ique
k en
Ġ" "
Ġeduc ation
c ap
ĠSe pt
r ate
ir ing
Ġcand id
Ġrat io
Ġtechn ology
P ath
} _{\
ir med
Ġsc he
or ney
č ĊĠ
Ġre cept
Ġcont ains
te e
ĠW ar
r ide
v is
Ġem erg
Ġs on
S ec
ell ow
c il
Ġdiv ided
. *
Ġcirc um
Ġcomplet ely
om en
Ġpr ime
Ġt en
Ġex erc
Ġgo al
Ġac qu
st yle
Ġcost s
Ġconne ction
ĠT H
r un
it ude
if ier
! !
Ġs n
S c
Ġl at
Ġpart s
S C
N ow
g u
Ġapp ly
Ġbu y
D o
Ġindust ry
Ġpart ies
Ġcent ral
ĠJan uary
. [
Ġser ver
Tr ue
Ġne igh
Ġen joy
st atic
ĠA pril
' );
ub e
kn own
U L
Ġappropri ate
s pec
Ġear lier
Ð¾ Ð
ĠG l
Ġf air
Ġhe at
Ġmult i
Ġman ufact
n es
ĠW est
Ġc yt
() );
Ġin form
Ġf ine
Ġexp ressed
ĠJ uly
Ġover all
Ġ\ <
ef ore
Ġdist ance
Ġp en
Ġt im
b and
Ġa im
Ġsupport ed
Ġgener ated
ĠĠĠĠĠĠĠĠĠĠĠĠĠĠĠĠ ĠĠĠ
al t
var phi
Ġde ad
Ġdefin ition
Ġ ----------------
^ +
Ġestabl ished
Ġst ated
Ġ3 1
Ġallow s
Ġd og
Ġtra ck
an cy
ĠTr ans
Ġw idth
Ġdev ices
O W
} .
Ġequ al
Ġh ospital
Ġbro ad
Ġeng ine
lic k
Ġ( $
Ġeas ily
Ġbo ard
Ġhe ight
ĠC ir
F rom
The y
ĠJ ud
Ġ< <
for ce
Ġim m
Ġsit es
č ĊĠĠĠĠĠĠĠ
ĠB rit
Ġcont aining
ab led
Ġwe b
Ġto wn
Ġre asons
ce mber
" />
Ġfind ing
ens es
d f
ã Ģ
ut ed
M P
F orm
O ver
ĠM ich
Ġ( \
Ġhig hest
Ġca pt
ch i
Ġcrit ical
= '
Ġloc ated
Ġ3 2
B e
Ġparamet er
Ġprodu ced
S upp
Ġactiv ities
Ġdis cl
Ġlead ers
Ġeconom ic
Ġtum or
Ġf ather
e ed
over n
ĠR ed
ĠF eb
Ġst aff
ur ity
Ġfil ed
Ġtr ust
ĠSt ud
ĠIs rael
. _
) -
Ġredu ce
ic a
Ġre levant
Ġwor th
o very
m ark
Ġon es
ĠA g
b ra
Ġcle arly
y ond
ĠM od
Ġact ual
){ #
Ġchall eng
ve c
Ġcon cept
D A
Ġauth ors
Ġn ames
Ġsy mpt
Ġmean ing
Ġf elt
Ġm ode
i ate
Ñ Ģ
ĠS w
Ġst ore
} ^{\
i os
b in
Ġopin ion
Ġvari able
Ġappe al
t itle
ymb ol
h and
ail s
Ġm ys
S im
ĠE l
Ġh it
k ing
ĠAN D
p id
Ġa x
Ġadj ust
yt es
Ġpl ant
Ġl es
S A
Ġwrit ing
Ġtra vel
Ġl iter
Con text
* -
b re
Ġv s
ĠC ons
Ġqu al
ib ly
Ġwebs ite
Ġs ound
ou ra
S ize
\ '
con fig
Ġpro of
Ġinj ury
Ġchang ed
Ġb rought
l ish
od ies
Ġd ro
Ġhand s
over line
Ġshow ing
ĠĠĠĠĠĠĠĠĠĠĠĠĠĠĠĠ Ġ
Ġsmall er
00 2
Ġ ÃĲ
Ġrece ive
col or
rel ated
Ġm id
' ;
ove mber
Ġgo es
Ġdo or
Ġus es
ĠG et
clud ed
Ġexperim ents
f ort
* .
Ġ200 8
Ġle arning
Ġd ark
Ġtrans ition
Ġcont rast
Ġappe ars
Ġr ules
Ġh on
operator name
f ont
Ġitem s
l angle
Ġ3 5
Ġelect ro
Ġve ctor
Ġlook s
Ġbe yond
Ġhe ard
Ġm er
m en
Ġe ffic
Ġd u
Ġrem ains
Ġcomput er
Ġcult ure
AT E
ĠC ong
ar ter
Ġcoun sel
' :
Ð ½
Ġbu ilt
Ġa w
Ġf at
ĠF rom
â Ķ
Ġ util
Ġf a
Ġunderstand ing
l a
Ġhe aring
Ġnum er
Ġrel ig
Ġinter pret
ĠG r
Ġbe aut
ashing ton
Ġadv ant
ra z
Ġlook ed
ro om
Ġro ot
Ġturn ed
Ġal gorith
Ġse cret
att le
Ġcar ry
ri er
Ġwork ed
Ġin n
Ġto wards
ĠA rt
Ġwon der
ren ce
op l
Ġsur pr
Ġmajor ity
ĠS y
ĠP ublic
Ġtrans port
Ġpre fer
Ġext ract
r um
Ġp lease
Ġb inding
Ġregard ing
w orks
in ct
Ġvari ables
Ġinter nal
Ġprodu ce
In fo
Ġdec ided
Ñ ģ
ut ive
lam m
Ġsk in
A fter
in put
il le
) ).
Ġex ists
Ġsom et
os ite
Ġthe rapy
Ġbenef its
Ġconne ct
ight s
Ġdri ve
Ġful ly
Ġl ov
ĠDist rict
R A
Ġconcent ration
Ġcont ribut
": "
Ġtiss ue
gr ams
Ġcoun ter
Ġsub sequ
Ġbir th
Ġre pl
ĠAug ust
Ġparent s
Ġe ight
Ġreport s
Ġt ask
Ġmil itary
Ġg un
Ġs old
Con fig
cul es
Ġresult ing
Ġco ol
Ġ200 9
Ġpro gress
ict ed
Ġ ^
Ġpro p
) ^
ra g
pect ive
ĠS chool
^{ (
l o
os es
Ġexact ly
ok en
Ġcou ple
Ġy ield
ir t
in st
Ġindic ated
j ava
Ġvir t
ĠA ccording
n ode
Ġin fection
ĠOct ober
un k
Ġline ar
) **
Ġset ting
Ġmed ium
f ree
Ġw rote
==== ==
e ah
}} (
st ream
Ġand roid
Ġinterest ing
Ġmor ning
Ġ/ **
Ċ ĊĠĠĠĠĠĠĠĠĠĠĠ
id ay
Ġo x
as is
en ge
ge q
Ġm ount
Ġmaterial s
c ount
Ġread ing
Ġveh icle
p ol
Ġcon sequ
Ġplay ed
Ġfe ature
ĠSept ember
\ <
g y
Ġsc ore
nb sp
Ġob vious
und red
Ġc am
ĠDe cember
}} _
Ġsol id
Ġinter view
Ġmeet ing
P C
Ġget s
d b
ĠAf ric
a res
Ġcol umn
Ġsepar ate
as m
Ġreason able
m aterial
it ro
Ġdef ine
ic ip
ĠL a
f ord
at he
\ ,
Ġre action
> >
l s
Ġ201 8
if orn
Ġplay er
Ġconst ruction
Ġfield s
ic it
ĠDem ocr
E vent
Ġapplic ations
Ġstart ing
te red
Ġz ero
Ġar rest
fra k
Ġse c
ĠS ub
Ġp ul
ĠCh ar
ad em
Ġmax imum
Ġthrough out
Ġli qu
M E
g s
q l
Ġparticip ants
are st
ic o
ra b
ang ed
Ġvol ume
Ġnot ed
er ate
Ġdam age
Ġprocess es
ĠD ata
ĠC he
Ġreg ions
Ġdom ain
Ġform ation
c os
Ġcol lect
C t
i ences
Ġconne cted
Ġcl osed
c ase
Ġro b
Ġsaf ety
Ġf ix
Ġl ives
Ġinst it
st art
Ġabs ol
Ġn or
Ġbe comes
Ġform ed
om ic
ĠB ecause
Ġar ch
Ġf it
Ex p
gr ad
Ġs ources
Ġsl ight
erv ed
ir it
Ġadminist ration
Ġas pect
tr ue
Ġhe ar
O ut
ru ary
Ġl ay
Ġsa fe
Ġreve aled
Ġco ord
ger y
Ġintern ational
Ġst ru
Ġinter action
ĠÃ Ĺ
Ġst d
---- --
Ġc it
ĠSe ction
ĠD et
Ġs we
] :
V ER
Ġtrans form
id a
Ġcol lection
Ġother wise
ES S
Ġbas ic
Ġtest s
ĠN ovember
Ġref lect
con s
A b
Ġlaw s
H T
m ail
w as
Ġ eth
ur t
iforn ia
Ġimmedi ately
inf o
Ġt er
Ġm ess
Ġequ ation
B A
Ġdem and
ĠMore over
Ġpop ular
R T
Ġsc ient
amet er
con ne
ot al
ĠCent er
w id
wh ich
im age
ĠI L
Ġ ign
Ġvict im
Ġredu ction
Ġa ctions
Ġ8 0
Ġrele ased
ĠUS A
at ur
ĠS an
Ġth ous
Ġh ous
am in
pl ing
ĠW ashington
AN T
Ġ er
Ġopportun ity
Ġto ward
cl es
S ub
i ance
. \
Ġpa id
Ġm ort
Ġinflu ence
ĠI D
Ġmechan ism
Ġgiv ing
ĠD is
ES T
ĠO f
ĠC oun
C S
Ġrem ember
ĠH igh
Ġro ll
' ]
Ġw ide
b ur
oun ced
Ġ9 0
l ong
C P
ĠB r
ĠR ec
bo ard
Ġmet ab
Ġconsist ent
Ġcomb ination
im ony
Ġfig ure
Ġtest ing
ĠP ark
Ġsle ep
ĠM ark
semb ly
Ġdef ense
Ġu lt
B ig
Ġspe ak
ph p
Ġ ]
Ġrel atively
ĠCom mission
#### ####
Ġw ild
math frak
ra int
Ġ ensure
Ġsomet imes
a el
al le
Ġres ources
C O
c in
Ġph osph
Ġres istance
Ġform s
Ġcap ital
Ġm ur
F alse
Ġph one
Ġy es
ct ors
Ġquick ly
Ġfunction al
Ġcl ient
z ym
Ġa ware
ĠA D
ĠA ng
ob ject
Ġm iddle
Ġthink ing
t em
ĠP M
n y
Ġalleg ed
Ġch ance
R I
if ul
che ck
N ode
Ġstreng th
Ġsp in
Ġ( **
âĶ Ģ
Ġmys elf
ent y
Ġproced ure
Ġgre en
ĠIn st
Ġhapp en
stit ute
Ġplay ing
He re
Ġmem br
[ ]
ĠT able
Ġne arly
Ġcho ose
Ġrem ove
ĠT w
Ġport ion
Ġsw itch
Ġprov iding
Ġmove ment
Ġne ut
Ġmov ed
Ġent er
uff er
Ġdetect ed
il ies
pon ent
Ġhapp ened
as te
Ġconduct ed
Ġdat abase
Ġb ottom
Ġbl og
Ġachie ve
Ġ ~
ĠN et
P D
Ġmov ing
Ġleg is
Ġexist ing
Ġc ore
Ġst ation
o oth
Ġobject s
p c
k y
pos es
Ġm al
Ġestabl ish
[ ^
if orm
Ġb rief
Ġmus ic
ĠAust ral
ĠOb ama
Ġcom plic
Ġread y
Ġch annel
Ġcircum st
E E
Ġre ach
er ia
ĠL ist
Ġcomm er
Ġh undred
iqu es
Ġequ ival
M ap
Ġl if
Ġd aily
Ġst eps
Ċ ĊĠĠĠĠĠ
5 00
ens ions
Ġcalcul ated
j ection
Ġfact s
Ġcirc uit
F A
Ġanal ys
In st
Ġinc or
Ġfin ally
Ġanim als
Ind ex
ĠF l
lic ation
Ġconcent r
\] ,
Ġindic ate
i able
O h
Ġyour self
F ield
ot o
Ġdemonstr ated
ĠH ol
end ant
Ġne arest
Ġem ail
Ġ il
F r
Ġex hib
et t
air s
le vel
p ir
ĠĠĠĠĠĠĠĠĠĠĠĠĠĠĠĠ ĠĠ
en cing
p arent
Ġun its
% ,
ĠAl so
ĠS ec
ĠT ex
() )
f low
v est
Ġcom ments
"} ,
it ors
om in
} ,\
Ġpro ve
IN T
th on
Ġu pper
Ġcr im
Ġstat ist
ĠN ULL
#### ##
Ġw ave
ĠA dd
Ġreg ul
ĠA M
Ġb and
ĠCal ifornia
Ġtr ade
Ġj ur
at in
rom e
Ġcap acity
c an
E qu
Ġcar ried
ĠRe v
U p
Ġremov ed
Ġp etition
u ced
Ġd oc
so ft
Ġpl aced
ĠK ing
Ġb acter
indow s
Ġb order
Ġse ven
Ġs end
C ON
Ġprocess ing
ĠL aw
ock et
u nder
re es
Ġp ow
Tr ans
Ġf ear
Ġst uff
Ġvari ety
o z
F l
Ġc ivil
Ġ3 7
Ġbl ue
ĠH er
u i
Ġwe ak
Ġw itness
ot ype
Ġset s
---| ---|
F T
Ġsh ape
ĠO ther
Ġw ife
ĠC O
au ght
ate ver
Ġ4 5
Ã Ń
i ers
ig ation
G L
ĠA T
Ġscre en
ĠFeb ruary
Ġoper ator
Ġdist ributed
Ġbenef it
Ġext rem
I B
ĠH am
* (
Ġp ackage
stit ution
M e
Ġse lection
Ġc ert
Ġm g
Ġ200 7
ur rent
Ã ³
w ell
pect ed
Ġl abor
Ġsuggest ed
ut y
um in
Ġ row
ĠE ven
Ġpe ak
Ġmach ine
c oh
ol ved
i pe
de red
ac ing
Ġon to
im ent
ĠFig ure
Ġtr uth
Ġrecomm end
", "
Ġn amed
Ġra ce
L A
, -
Ġpre m
or b
]\] ,
sp ace
Ġapp arent
ro y
Ġpro grams
Ġim ag
n um
c irc
S er
ĠAss oci
D S
app ing
I A
Ġcompar ison
Ar ray
C ode
Ġwork ers
ĠP re
ic ity
Col or
um an
ot he
Ġhealth y
Ġconf lic
/ (-
Ġn ation
Ġpl atform
U M
Ġincre ases
L og
ĠP al
at ically
Ġl ib
H and
m d
Ġmagn etic
Ġs en
ĠEurope an
Ġsus p
ra ce
bl ock
Ġexp osure
el le
Ġn orm
ri e
ĠA ut
Ġmay be
Ġpass ed
Ġlet ters
om as
c ar
ĠWh ite
cont ent
op en
ch o
Ġpl aces
D ate
Ġrespons ible
Ġvis ual
P T
Ġmeas ures
Ġ\ ,
ĠInd ia
Ġdiscuss ed
Ġreplace ment
ith ub
ens ional
Ġup d
ber g
ify ing
Ġm ag
Ġsa ve
Ġcor por
Ġapproxim ately
Ġ9 5
ĠB ro
b uild
augh ter
Ġpick ed
Ġb ill
ond on
ĠC ON
Ġha ir
Ġlet ter
Ġcharacter istics
Ġb ul
Ġinc ome
Î ±
Ġman ner
k ay
ĊĠĠĠĠĠĠĠĠĠĠĠĠĠĠĠĠ ĠĠĠĠĠĠĠĠĠĠĠ
ĠBo ard
Ġjud ge
Ġem ot
Ġsympt oms
Ġ7 0
d ot
c ore
Ġins urance
/ (
Ġup date
p ass
ur l
[ \
s ource
ĠF ound
Ġf resh
Ġw id
d i
Ġdrug s
om b
Ġstruct ures
z a
ad o
Ġf ib
ru it
Ġad opt
Ġtalk ing
ĠRes earch
ĠPa ul
Ġbegin ning
Ġar riv
ĠA c
ĠU K
Ġun c
Ġstra ight
ĠIn ter
R eg
Ġh our
Ġcontin ued
A tt
Ġsh ot
Ġmod ern
Ġpan el
roll er
Ġn ut
Ġun f
Ġd ie
b m
Ġdis s
Ġm ale
Ġtest imony
it is
Ġ3 6
Ġsp read
R ec
Ġass ume
n ormal
Ġactiv ation
Ġb ud
as p
Ġ ri
Ġse vere
iz er
Ġreturn ed
ar a
i pp
)/ (-
Ġun s
Ġt our
Ġexperim ent
Ġhapp y
Ġad apt
Ġt end
Ġed ge
A ct
ĠĠĠĠĠĠĠĠĠĠĠĠĠĠĠĠ ĠĠĠĠ
re ate
ĠFurther more
* )
Ġ ut
Ġm it
ĠR NA
Ġdet ection
Ġsc en
00 4
Ġst ock
Ġfore ign
a a
Ġb ab
ĠM us
Ġ} );
Ġb illion
Ġt ree
Ġn ice
cur rent
Ġinvestig ation
P O
il ed
vent ional
Re quest
idd en
cre ate
ap i
Ġm ac
' '
Ġdel ay
Y es
Ġchem ical
Ġa ward
ou l
Ġexp and
* ]{}
Ġth row
Ġk ids
Î ²
Ġr out
ĠJ e
h ost
Ġsc ript
ĠG overn
ĠA tt
yn c
ĠDav id
Ġfil ter
Ġ4 8
AR T
Ġdes cription
ar r
Ġthe rm
ari an
ĠT est
Â Ń
g ar
pt r
or ter
Ġ( (
Ġcl ub
as ion
ĠI ll
ĠEng lish
Ġexerc ise
ĠM or
ren ch
p ost
E G
Im age
ist ant
C ount
unt u
Ġex ception
Ġne ur
âĶĢ âĶĢ
Ġra pid
ri a
Ġsex ual
Ġinter face
D is
Ġsh ift
Ġsp ent
ĠT O
y st
Ġins ert
Ġspec ifically
Ġden ied
ĠW illi
Ġchall enge
Ġpl ans
Ġsur gery
Ġs ell
Ġfam ilies
X X
ab s
ĠCong ress
Ġstrateg y
Ġliqu id
fr ame
Ġsol utions
C F
Ġaltern ative
Ġser ve
: "
Ġsh oot
x x
Ġtest ed
Ġcompl aint
go ing
Ġ2 000
Ġwa it
Ġr ul
Mod el
Ġofficial s
Ġcare er
ĠIntern ational
ar ant
ari o
Ġcould n
Ġsum mary
Ġwant s
Ġst o
Ġmention ed
âĢ ¢
AL L
ĠO ff
ra v
B uild
ld ots
Ġe lection
Ġt ouch
Ġ200 6
ign ment
Ġar m
Ġno vel
Ġp ark
ic ks
ic ial
ic ed
Ġprep ared
Â ¾
Ġn il
U ser
Q L
ç ļ
r ary
Ġ( !
or ge
Ġcl ick
Ġlead s
P P
Ġdes pite
ĠP ost
Ġopt im
Ġth ick
ab il
ell ig
Ġm ill
Ġstud ent
Ġun less
re ly
ig ration
Ġde bt
Ġhyp ot
Ġag ent
In ter
ole an
Ġfem ale
Ġl ip
Ġcy cle
ot a
m and
Ġstud ied
Ġn one
Ġmod ule
ip ment
çļ Ħ
Ġk ill
Ġimpro ved
Ġpl ate
Ġsu p
Ġnucle ar
Ġdi et
Ġtyp ically
Ġp ush
Ġcomb ined
id ers
A V
S H
% %
ing u
pt ions
Ġexpl ain
Ġmet al
M O
ĠS upp
Ġey e
up reme
âĢ ²
( {\
act ory
c s
ĠY our
ĠD on
l en
Ġexperim ental
as er
Ph i
Ġgrow ing
it z
fect ed
Ġcontrol s
Ġpl us
Ġd ed
Ġent ry
Ġcommun ication
Ġ-- >
Ġsuccess ful
Ġmin imum
Ġh op
Ġv ote
Ġ( "
as cular
Ġsurv ival
it ivity
en ced
Ġu ne
il ing
an o
ĠĠĠĠĠĠĠĠĠĠĠĠĠĠĠĠ ĠĠĠĠĠ
Ġcommer cial
ines e
Cal culate
Ġconf irmed
Ġd anger
st ract
Ġsub str
00 5
d ed
ĠA nt
ĠC H
id el
ĠInd ian
Ġk illed
Â µ
à ¸
ĠÎ ¼
d ict
pro du
in ner
Ġmole cular
W ell
Ġgu y
** )
Ġcircumst ances
os en
Ġindu ced
Ġs ociety
ĊĊ ĉ
Ġpie ce
Ġmot or
ĠD i
Ġper haps
Ġhtt ps
ÂłÂł ÂłÂł
Ġv ac
Ġag reed
Ġmon itor
Ġdis miss
Ġ3 3
Ġenc oura
Ġra ised
Ġelect r
Ġoper ations
ing ly
Ġse ed
ann ed
Ġanalyz ed
at o
g ithub
Ġprot ocol
Ġprofess ional
& \
R S
ing er
Ġill ust
Ġre ached
b an
Ġl inks
ĠT V
Ġsy n
Ġwhere as
Ġcall s
Ġaffect ed
Ġd ied
Ġassoci ation
ĠB ank
ĠC ode
Ġtool s
Ġfe et
Ġc ru
yp es
ot imes
Ġdr ink
Ġemploy ees
rac y
Ġoffic er
Ġclass es
Ġhand le
k g
Ġc op
A ss
"> </
Ġmin or
Ġm m
ĠM ost
ĠR el
c her
ri ent
Ġca uses
Ġev olution
fere nt
Ġsent ence
iz ations
ad ing
Ġwould n
Ġtr ig
ĠNew s
Ġprob ability
ou te
Ġsu n
b olds
Ġtrans l
Ġmed ic
pr ime
Ġke pt
ĠN ote
Ġsur round
. ](
^ âĪĴ
Ġ3 4
ĠN S
Ġeffort s
Ġs rc
Ġm ental
act ers
Ġj ava
Ġpro port
Ġcol lected
G roup
c or
ial og
p o
Ġe fficient
act or
Ġtradition al
Ġoccur red
Ġh uge
Ġm ix
B L
Ġg al
.... ....
bolds ymbol
C s
i ra
Ġcred it
as ma
Ġt rou
Ġc ast
Ġc atch
Ġcon ver
Ġpre par
00 01
wo od
Ġintrodu ced
E lement
Ġrel ation
Ġfa ith
ĠPl aintiff
E nt
C an
S ervice
id em
Ġdiscuss ion
reed om
ar th
sub set
Ġsuggest s
Ġbehav i
W hy
ĠSu per
w rite
n am
ĠN OT
Ġsu st
opy right
Ġestim ated
m em
Ġcertain ly
l ocal
Ġen zym
ĠS et
Ġexpl ained
Ġst orage
Ġtechn iques
Ġk id
ĠL ondon
Ġhist or
Ġl ock
Ġcorrel ation
Ġdiagn osis
ul f
res ents
Ġim plic
Ġstat ute
L ambda
p a
omet ry
Ġelect ric
Ġrem aining
c a
Ġmov ie
Ġprote ction
Ġch rom
ass ert
Ġadvant age
Ġg one
Ġapp ellant
u ate
p age
k a
K E
Ġbeaut iful
S igma
Ġinf lamm
coh ol
Ġfor ces
app a
Ġcard i
Ġcrim inal
Ġalgorith m
in y
Ġk in
Ġch ain
Ġm ist
ograph ic
ĠG roup
C M
Ġbu ffer
Ġrequire ments
Ġ200 5
Ġpro sec
P er
Ġbig gest
{ {
Ġv oice
Ġocc up
Ġpro s
}} _{
B I
d ir
M essage
it led
Wh ile
O ur
t age
R ep
sh ip
d oc
ĠB en
op ic
in ity
Ġabs ence
Ġgu ess
Ġrecord s
/ **
\ |
Ġform at
ĠE m
is ation
Ġgener ation
. $$
Ġp un
Ġt al
i very
Ġfoot ball
mod el
Ġpict ure
Ġold er
Ġorgan ization
Ġrespons es
Ġd oll
Ġmiss ing
Ġserv ed
w hat
Ġtem por
Ġwh om
Ġcit iz
ĠE ach
D R
Ġadd ing
M ethod
ĠE ast
ace book
Ġoff ers
Ġopt ical
Ġbre ast
Ġquant um
Ġfl oor
res hold
) ?
Ġder ived
Ġe at
riv ate
Ġcreat ing
Ġman if
Ġv an
g reg
Ġbro ther
ym ph
ĠTex as
Ġsc ience
Ġpol ic
Ġsubject s
č Ċĉ
Ġpur poses
Ġ4 2
B l
Ġ( )
os c
s rc
B U
Ġ vert
Ġeconom y
$ (
Ġex ternal
Ġan imal
ĠBl ack
ĠĠĠĠĠĠĠĠĠĠĠĠĠĠĠĠ ĠĠĠĠĠĠĠ
Ġst ream
d et
old er
olog ies
Ġide as
h ow
Ġint ended
} -
Ġschool s
-------------------------------- ----------------
ist an
und ay
alle l
C I
s f
ang ing
Ġaut o
AN D
Ġd rop
Ġproper ly
mm et
F il
ck now
Ġrep resents
icro soft
ind uced
Ġres olution
n el
Ġext ent
F irst
S I
def ault
Ġj oint
Ġgl ass
so le
ĠBrit ish
Ġp ool
Ġdecre ased
Ġdirect or
Ġthan k
it ory
Ġrad io
Ġsy mmet
mb ox
Ġsum mer
P re
Ġco e
Ġcon vers
ĠO h
N T
spec ific
res ult
ic ians
Ġ3 8
Ġth read
Ġbel ong
z on
Ġcom fort
Ġauthor ity
ĠS upreme
Ġmechan isms
non umber
et urn
ĠE v
Ġprote cted
Ġe arn
Ġvir us
Ġdist inct
ĠJ ew
Ġlar gest
Â »
Ġs av
OR T
Ġsy mb
y a
Ġatt orney
Ġexper ien
Ġfeel ing
Ġgr and
or ry
es is
wh ile
Ġar bit
M T
S p
i at
Ġcommun ic
Ġinterest s
( &
Com p
Ġte ams
P r
ensure math
A ut
Ġtechn ique
Ġmembr ane
/ \
Ġoffic ers
Ġreg ist
C o
s ens
ĠJ ack
F I
Ġcr ime
How ever
ĠGo ogle
_ .
Ġcont ained
a ud
ri an
Ġte ac
Ġ rac
ĠS ur
Ġslight ly
Ġc at
ty p
Ġd ry
Ġem pt
id ge
Ġlo op
Ġv el
ĠO ver
Ġf irm
pos s
Ġg old
r d
Ġsal es
B ox
c ks
ues day
Ġstru gg
U E
Ġdri ver
Ġsh ared
Ġv ent
Ġgu ys
Ġb ool
C G
ut or
Ġsit u
Ġchar ged
on ic
j o
val id
Ġopen ing
p ack
f unc
C he
Ġchar acters
et es
ĠAn y
ag o
}} }
l ast
Ġdou bt
Ġlat est
ol ar
Ġerr ors
in te
ord ers
Ġproject s
ug in
Ġr ise
ĠR em
ĠCh inese
**************** ****************
ĠA L
Ġof fered
Ġep is
M R
Ġcon ventional
Ġh us
Ġpr ison
Â ·
. [@
il arly
Ġhold ing
ĠD an
Ġco verage
** ]{},
Ġd ra
Ġann ounced
ou ble
L ine
r ich
Ġk it
om an
Ġneigh bor
ĠSt reet
ĠCan ada
ĠFound ation
Ġh ol
Ġex change
ĠE q
ĠT wo
het ic
âĢĿ .
Ġdescrib e
ĠR E
Ġent ered
Ġcons erv
Ġwe ap
Ġg ain
Pro perty
ĠD E
Ġag ents
Ġinter actions
Ġinvol ve
Ġr ing
d raw
j ust
ĠFr iday
ven ue
AT ION
Ġsupp ly
ill a
}} {
pl ify
en ame
S U
Ġr ank
ang es
Ġdecre ase
ari ant
c are
m ic
ĠC irc
ĠG reen
ĠCl ass
ĠR ober
S ystem
ĠĠĠĠĠĠĠĠĠĠĠĠĠĠĠĠ ĠĠĠĠĠĠ
Ġexper t
ĠC a
Ġag ency
x ml
Ġanalys es
Se e
ri age
Ġdo se
S te
Ġprof ile
ĠCal culate
Ġcry st
Ġconcentr ations
abl a
Ġrepe ated
Ġcomp osition
( {
Ġw ish
k in
Ġsm ooth
ĠCom mun
h i
ĠCoun cil
ĠPe ople
Ġw ind
Ġout come
S ome
Ġview s
il er
ru ctions
O G
" ).
ĠJ ames
sum mary
ĠD irect
âĢ Ĭ
Â ½
Ġown ers
Ġrecept or
c hen
l if
Ġne uro
Ġgen etic
ĊĊ ĊĊ
ans ion
Ġqu arter
č ĊĠĠĠĠĠĠĠĠĠĠĠ
ĠS uch
Ġexist ence
qu ery
Ġposs ibility
Ġc old
ĠF e
C all
Ġpl ants
Ġ" [
Ġel im
Ġoper ating
pon se
S ource
ain er
Ġ+ =
Ġelect ron
Ġcomplet ed
Ġdriv ing
pl ed
R ef
ĠA rm
Ġtre nd
Ġreturn s
onal d
ĠR ich
Ġc ir
Ġpattern s
ĠU nder
Ġst ars
Ġinte ger
Ġsign als
Ġare n
mit tee
Ġwh atever
as ks
in i
ĠF OR
Ġ200 4
v ille
Ġident ity
Ġheav y
ot ed
ĠC A
OU T
ch ild
ĠĠĠĠĠĠĠĠĠĠĠĠĠĠĠĠĠĠĠĠĠĠĠĠĠĠĠĠĠĠĠĠ ĠĠĠĠĠĠĠĠĠĠĠĠĠĠĠĠĠĠĠĠĠĠĠĠ
Ġdise ases
t es
Ġinterest ed
Ġgener ate
======== ==
Ġ --------
re ated
ĠW ed
as c
p g
IT H
o om
Ġl it
Ġst able
it ect
Ġfin ite
Î ¼
Ġ$ {
ar p
Ġbut ton
Ġme ant
R L
Ġpe ace
Ġequival ent
Ġqu ery
Ġappe ared
Ġ} ;
Ġequ ipment
Ġindic ates
c ence
Ġimport ance
ĠS ervice
Ġb oy
pro perty
ĠMon day
y ou
Ġspect rum
Ġconf irm
Ġw el
r ated
Ġcontroll ed
Ġm obile
k appa
ĠT ra
Ġcar bon
wid et
Ġhold s
ĠM art
widet ilde
n abla
Ġcon clusion
ĠK e
Ġsequ ences
Ġincor por
ĠAd dition
d t
Ġcon vert
ĠB oth
am ily
Ġrun s
se m
Ġdi ag
b a
ĠW estern
d ots
Ġjur is
ĠW ell
Ġconfig uration
Ġn an
ĠP D
Ġhapp ens
a fter
IT Y
Ġpartic les
P H
Ġpre gn
Ġ201 9
in n
P I
m ain
Ġb ra
Ġsecond ary
Ġdefend ants
Ġre ality
xt ure
Ġm ouse
Ġto x
} )$
ject ed
il it
Man ager
] ),
ĠO ut
urs day
. </
am ine
iven ess
we b
Ġmaint ain
ï¼ Į
C lick
Ġp y
Ġsu ff
Ġc atal
Ġrefer red
ge bra
Ġapp rec
Ġmeasure ments
Ġdig ital
ER T
Ġb ow
nes day
Ġinst r
an cing
ĠIn s
Ġsur vey
il os
clud ing
Ġs ession
Ġ ------------
An y
Ġtra in
Ġcontinu ous
ur ies
ĠIn stitute
st on
Ð° Ð
el ess
] [
Ċĉĉĉĉ ĉ
Ġseem ed
Ġf lex
f aces
se lect
Ġcomp ens
Ġdevelop ing
er ic
cre te
1 01
N D
Ġstate ments
ist ent
ĠTe chn
Ġdis p
Ġno ise
ĠD ay
Ġ ing
Ġb urn
Ġl ibrary
f alse
N E
Ġ5 00
Ġf arm
ra ction
Ġal cohol
Ġp ure
rid ge
h al
oth ing
ic ated
ĠSe cond
Ġsp irit
ind er
ĠA ir
201 5
h as
Ġatt ract
! --
T O
Ġdown load
l ook
ĠY es
he ight
Ġch ronic
ant ly
ĠSm ith
ab ilities
Ġc ateg
Ġbal ance
Ġremain der
Ġrepresent ation
ĠA S
Ġex cess
P e
ĠJ es
ĠD el
ad y
ra pe
Ġenvironment al
Ġjob s
r ig
ĠM al
Ġexc ell
ĠComp any
Ġcol lege
Ġappro ved
ĠA re
or row
Ġdi ab
oc ity
Ġce le
} +
am ing
om orph
ĠM et
ĠE very
ĠF acebook
Ġl atter
Ġiss ued
Ġsh o
Ġli ver
C K
Ġhigh light
Ġb orn
Ġsqu are
Ġextrem ely
ow s
ĠIt al
Ġspe ech
l n
Ġknow s
w in
Ġempt y
Ġwar rant
ĠMich ael
Ġh ab
Ġsp ot
ĠS unday
Ġestim ate
E nd
M I
Ġex amples
Ġpart ners
Ġorig in
ane ous
Ġlead er
Ġab use
Ġc overed
Ġchar ges
Ġtrans mission
ĠK ore
Ġl ung
ĠP ort
ĠP ress
)/ (
se y
Ġser um
ĠB ig
Ġa head
Ġexpl icit
Ġreg ulation
al ysis
Ġliter ature
le m
ĠM ac
ĠF lor
ens or
Ġst re
h ouse
ail ed
k i
Ġsubstant ial
) [
Ġsign ed
Ġopen ed
Ġhus band
ap ache
Ġimplement ation
Ġt error
ĠWh y
i as
Ġsc ene
Ġflu id
Ġcustom ers
as ure
ste in
ĠM at
r l
og ene
Ġch urch
r or
Ġform ula
Ġv ill
Ċ ĊĠĠĠĠĠĠ
Ġocc urs
yt ic
ĠThe orem
D on
Ġpl asma
Ġint ent
ĠChrist ian
Ġw ood
g ments
Ġrecord ed
ĠC R
Ġdel ivery
Ġcomp ounds
ĠE R
atur day
Ġdec isions
Ġapp ar
is hes
Ġcy cl
m t
app ro
he nt
Ġext ension
ĠM iss
ĠL eg
t arget
leg al
Ġrece iving
Ġevalu ated
$ $\
Ġass ay
Ġnet works
ul in
Ġin ner
Ġallow ing
But ton
du c
Ġcall ing
Ġext ended
pro cess
Ġle aves
ĠAmeric ans
pro duct
Ġviol ence
let s
Ġw at
an es
Ġ7 5
Ġha ven
ĠF rench
Ġpercent age
A Y
re al
form at
Ġdig it
ĠUn ion
f irst
Ġout comes
---- ---
A ccording
it ative
Ġconcer ns
Ġassess ment
** (-
m essage
Ġapp oint
Ġsubsequ ent
end if
n ames
Ġle aving
Ġthous ands
ĠCom mittee
ok es
Ġ200 3
b al
Ġtest ified
Ġhelp ed
ph one
ok ing
s a
Ġmost ly
stand ing
e rest
å ı
i pped
Ġunder lying
Ġown er
Ġar r
I ST
Ġimmun e
Ġgu arant
ĠLe ague
Ġarg uments
ĠF inally
land s
Ġs ale
\ {
Ġeffic iency
N et
ore t
ĠD uring
ell ed
ĠT uesday
ortun ately
ribut es
om es
st d
Ġw ire
Ġmus cle
u ps
v an
il ty
n ight
ific ations
Ġl ymph
Ġrepresent ed
ed y
ĠU sing
Ġcrit eria
ad s
Ġcent ury
Ġun iform
end ment
Ġra ise
) =\
ser ver
====== =
Ġ ĊĠ
ĠJ er
te x
Ġgreat est
ĠC T
Ġexam ined
aut hor
Ġmanufact ure
z eta
201 3
s or
Ġv acc
Ġbud get
n ull
Ġspec ified
Ġlearn ed
Ġevent ually
Ġbook s
) "
S M
ĠS un
Ġad ult
ro g
Ġ3 9
E xt
Ġpower ful
Ġdisc rim
ĠL ou
Ġsh ut
P oint
Ġcandid ate
ĠW H
y an
b ed
Ġcur ve
om al
ost ic
Ġrest aur
hen s
Ġdep ends
z en
201 4
Ġlimit ations
201 6
Ġinc ident
ĠM any
Ġposition s
: \
i h
it ely
Ġbe g
Ġl icense
ak ers
Ġe lev
Ġconstit ution
ĠI ran
y r
Ġsche me
OR D
Ġde fect
w ed
Ġsupp osed
Ġpl ane
amp ions
ĠGerm any
Ġ6 4
ĠJud ge
Ġvol tage
oper ative
Qu ery
B ar
ĠâĢ ¦
Ġinvestig ated
Ġv ary
)* (
Ġth reshold
' .
---- -
ĠWe b
et te
Ġachie ved
ĠSc ience
Ġtyp ical
d em
? âĢĿ
S ON
ãĢ Ĥ
ĠI II
ĠL em
Ġrese arc
Ġw arm
0000 00
Ġpath way
FF FF
ĊĠĠĠĠĠĠĠĠ ĠĠĠĠ
is her
Ġg ar
Ġgo als
Ġpurch ase
Ġ$ {{\
Ġm ixed
g t
ĠN one
ot es
Ġchang ing
Ġun ivers
ip al
Ġpolic ies
ĠCol lege
Ġ 00
Ġj ournal
Ġ4 4
Cl ient
Ġfra ction
i ant
Ġproced ures
Ġsp ring
row ser
Ġstandard s
Ġmetab ol
d ependent
ol f
supp lementary
en u
Ġrec overy
od ay
The se
Ġfl at
Ġf ish
Ġen force
Ġapplic able
ĠAssoci ation
Ġgrant ed
Ġt ub
Ġsp end
Ġfil ms
P ol
à ¥
b ug
c p
dim ensional
Ġ200 1
Ġte le
ĠA R
g ression
P RO
** ]{}
ĠGovern ment
ell a
s he
The n
g ers
ĠB ay
U D
CT ION
Ġhe ter
Ġact s
Ġisol ated
Ġin sp
Ġper t
Ġfl av
l aw
Ġa cknow
we ight
Ġpol ar
AS S
ĠU p
D B
Ġg on
Ġdes ired
$ {
N umber
Ġeval uation
Ġsee ing
F C
ruct ure
ist ed
l ang
a per
J ust
, '
d r
or gan
Ġeas ier
Ġsubstr ate
ri end
j son
A re
ĠT R
Ġman ager
Ġse ctions
c f
Ġinde ed
Ġstrong ly
Ġrel ief
Ġtra ffic
Ġdetail ed
Ġmor ph
Ġfund s
Ġp aint
Ġinvest ment
Ġbab y
c el
i pl
Ġf uel
; \
ain e
Ġch osen
Ġfour th
Ġl ab
Ġ5 5
Ġf ol
but ton
Ġent itled
Ġ{ {\
Ġm aster
F S
Ã ¶
ĠCh urch
201 2
St ream
Ã ¨
In put
Ġre plic
Ġf reedom
Ġc ategory
Ġst ored
ĠF in
Ġrestr ict
R un
est ed
ill er
Ġg ly
j ud
Ġcomm itted
Ġjo in
est s
Ġacc ord
Ġpro pos
Ġam az
} =\
Ġd aughter
Ġclust er
ce ived
Ġre vers
Ġd uty
Ġcon clude
Ġconsider ing
im g
cret ion
bre ak
ĠM em
Ġ6 5
ĠWh ich
Ġdirect ed
//////// ////////
ĠEng land
ĠP en
ĠF orm
Ġsymb ol
oc ytes
Ġf if
D L
Ġd raft
Ġpay ment
F P
Ġthan ks
fe e
Ġgal ax
ect or
ann els
ĠFlor ida
Ġpr ices
Ġinc ub
am ental
Ġb ond
c at
Ġcr is
ĠS N
ber t
Ġfor ced
Ġdoc uments
Q U
Ġem ph
Ġrelig ious
ĠT om
ĠPart y
Ġear th
Ġint ellig
velop ment
201 7
d iction
ĠW il
Ġlist ed
sm all
d at
3 00
ĠM o
Ã ¼
Ġc up
Ġacc ident
ER R
ÃĲ Âµ
est ic
> (
con text
Ġn av
ition s
Ġox id
ple t
iv o
ĠTh ursday
Ġdeterm ination
Ġappar atus
ĠC opyright
Ġst ories
U s
Ġm o
Ġequ ations
Ġstim ul
St art
Ġsk ills
Ġro ck
Ġconflic t
Ġfoc used
] --
Ġal ter
Ġdep ending
in v
Ġfor th
ri ve
Ġ3 00
ĠH ill
ĠS al
Ġwa iting
Ġl ose
am m
ĠS E
Ġvirt ual
Ġpl ays
_{ {\
it able
}} ^
ĠWed nesday
Ġresult ed
s g
Ġcons ult
Ġ200 2
Ġmin im
re p
Ġf ans
idel ines
Ġacc um
Ġe cho
clus ive
Ġmeasure ment
AG E
N O
Ġu int
i ot
ĠP C
Ġconcer n
Ġobserv ations
Ġposs ibly
Ġs ch
lev ision
sc ale
Ġvers us
ou nce
Ġmod ified
st atus
Ġbelie ved
on ly
cd ots
ĠRuss ia
Ġde g
"} .
---------------------------------------------------------------- ----------------------------------------------------------------
G en
P art
B O
ĠH IV
ĠC I
b ound
Y PE
ĠO pen
Cont ent
ĠT ime
Ġaff ord
Ġexcell ent
Ġassum ing
Ġt ag
out put
ĠG old
ĠM A
Ġcomp r
e vent
Ġne ither
ry pt
Res ult
al ty
Ġn odes
ĠI T
S ince
in ations
us hed
Ġfe es
Ġang le
ĠB re
ĠD iv
Ġexpl an
Ġfl oat
Ġoff ense
Ġtw ice
ĠN a
Ġce re
ĠL ord
Ġemploy ed
ĠV ir
st ood
im ately
rape ut
Ġappro aches
Ġcommun ities
Ġdam ages
Â ¶
Ġob lig
ĠU N
ĠE X
Ġcomp are
v a
ĠS erv
B ack
ĠF ree
se arch
Ġst reet
Ġplan ning
G E
AC K
ell ular
Ġ4 1
Ġsc an
Ġsee k
Ġres ource
Ġinvestig ate
ĠR ob
Ġstand ing
im er
Ġenh ance
G B
Ġsal t
ĠS am
Ġr ich
Ġpre val
Ġsc ores
um ns
ĠW indows
Ġtrans cription
ä »
ĠB el
Ġc os
Ġconf idence
Ġaccur acy
othe rapy
Ġ1 20
ip her
Ġsh ock
Ġfund ing
12 8
ĠB er
Ġhel ps
Ġb atter
ĠF ile
Ġwill ing
Ġconcer ned
]-- [@
ĠR ef
Ġhous ing
S L
ed ia
Ġtri als
el se
ĠM ary
ic ian
Ġinter vention
ĠP et
Ġsens itivity
out hern
l ayout
Ġ _{
\ !
Ġcitiz ens
Ġe gg
ĠE nd
Ġmain ly
ist ory
Ġdep th
Ġgu ilty
ĠB ur
Ø §
Ġbound ary
d el
Ġask ing
Ġelect ronic
n av
u ous
Ġad ults
int on
od ed
Ġrelationship s
pl oad
ĠM ex
ĠS H
Ġt un
Cont roller
IN E
ĠCirc uit
Re ad
er ior
ĠS aturday
Ġsp at
Ġp al
ĠJapan ese
Ġinvol ving
se ct
Ġdat as
Ġexperien ced
Ġanal og
and roid
% .
ĠP R
^+ ^
ĠIs lam
Ġb on
Ġfin ished
Ġevalu ate
Ġc ogn
Ġ& =
Ġexp osed
Ġrec ip
Ã ¤
ĠB rown
us al
cl ient
Ġexp ansion
Ġcont ribution
R em
m id
________ ________
Wh ich
Ġsignal ing
ĠC L
Ġext ends
ont al
ĠA lex
poss ible
Ġadv ice
Ġwor se
ap pe
Over ride
ater al
c r
B ase
es h
ĠS olve
el es
T e
s in
ĠJes us
g ent
Ġframe work
ĊĠĠĠĠĠĠĠĠĠĠĠĠĠĠĠĠ Ġ
2 000
Ġemploy ee
" ),
T A
M ore
Ġcontin ues
c up
Ġcap able
201 0
add ing
ul s
ĠĠĠĠĠĠĠĠĠĠĠĠĠĠĠĠĠĠĠĠĠĠĠĠĠĠĠĠĠĠĠĠĠĠĠĠĠĠĠĠĠĠĠĠĠĠĠĠĠĠĠĠĠĠĠĠĠĠĠĠĠĠĠĠĠĠĠĠĠĠĠĠĠĠĠĠĠĠĠĠĠĠĠĠĠĠĠĠĠĠĠĠĠĠĠĠĠĠĠĠĠĠĠĠĠĠĠĠĠĠĠĠĠĠĠĠĠĠĠĠĠĠĠĠĠĠĠĠ ĠĠĠĠĠĠĠĠĠĠĠĠĠĠĠĠĠĠĠĠĠĠĠĠĠĠĠĠĠĠĠĠĠĠĠĠĠĠĠĠĠĠĠĠĠĠĠĠĠĠĠĠĠĠĠĠĠĠĠĠĠĠĠĠĠĠĠĠĠĠĠĠĠĠĠĠĠĠĠĠĠĠĠĠĠĠĠĠĠĠĠĠĠĠĠĠĠĠĠĠĠĠĠĠĠĠĠĠĠĠĠĠĠĠĠĠĠĠĠĠĠĠĠĠĠĠĠĠ
Ġad vert
201 1
it a
Ġf ab
Ġsett ings
ĠF ederal
Ġide al
č ĊĠĠĠĠĠ
Ġdep artment
Ġd il
Ġassess ed
Ġint ensity
ĠAustral ia
ut ely
Ġcrit ic
um er
Ġpl ot
ĠS D
ĠIntern et
Ġ ion
Ġh arm
00 7
F IG
) ^{
Ġphen omen
/ -
Ġre nt
Ñ ĥ
ĠOff ice
Ġd ys
. **
iv ation
ĠGe orge
j e
ĠI P
en ance
et ime
Ġcomp etition
Ġor dered
EN D
con f
Ġadv ance
Ġadv anced
Ġdemonstr ate
Ġbi ological
Ġgu ide
Ġplaintiff s
p ress
O K
Ġpe pt
Ġrel ates
Ġst ack
N ote
V ert
N F
ra q
et ing
00 6
; &
ern el
Ð »
Ġmur der
ap ers
ĠF ield
ĠM S
Ġpers ons
ro t
Ġdel iver
Ġc ash
M D
Ġsc ope
il ton
G C
Ġst rain
ent ry
Ġchalleng es
dis play
Ġ4 9
Ġpotential ly
ĠG ood
Ġsuit able
Ġ4 7
Ġb an
Ġim aging
d y
Ġ4 6
ĠH all
mod ule
Ġhum ans
g ical
Ġvel ocity
u a
ĠF IG
Ġn orth
ĠP lease
ĠRober t
k er
Ġinter val
Ġind epend
Ġcons ent
Ġcon ference
Ġr ats
Ġdec ide
Ġsto pped
Ġf ill
ĠC P
ĠS um
Ġ iron
Ġs am
Ġstatist ical
ft ware
Ġconst raint
Ġimprove ment
Ġar ter
miss ions
ĠG a
V ersion
L ast
u int
Ġrec all
Ġt ight
âĢĿ ,
Sim plify
i ary
Ġadminist r
ort hern
ĠDef endant
Ġc row
Ġm el
Ġclaim ed
Ġcons c
Ġrem ained
as hed
Ġth in
Ġstr ict
Ġ4 3
ili ar
app ed
ort ed
ĠN O
RO M
U t
if ferent
G o
omet ric
ard en
i ples
Ġend ed
ĠT ype
in ates
ĉĉ ĉ
if ies
ER S
Ġs ides
Ġbur den
xy gen
Ġun known
Ġpart ial
Ġd uration
Ġm and
Ġch ief
ĠU se
du le
ĠSt at
Ġlegis l
s d
Ġj ump
Ġsuggest ing
ĊĠĠĠĠĠĠĠĠ ĠĠ
Ġr an
ĊĠĠĠĠĠĠĠĠĠĠĠĠĠĠĠĠ ĠĠĠĠĠĠĠĠĠĠĠĠĠĠĠ
ĠRuss ian
ĠL in
Re v
Ġfrequ ently
Ġdisc overed
ĠT ur
Ġbr anch
Ġhe nce
12 0
ĠÂ £
it ud
ar ks
G e
Ġdo ctor
Ġad equ
Â º
Ġl ic
ĠRepublic an
ĠW ork
Ġb ag
ĠI F
ant ic
======== ====
clus ions
Ġre verse
ear s
Ġarg ues
ĠR ule
ple te
d ep
Ġs an
Ġo rient
) }\
Ġlim its
Ġb right
Ġn ine
Ġcele br
~~ ~
Ġnecess arily
F e
Ġ1 50
S cript
Ġt on
Ġcol on
Ġar ms
ĠC E
Ġann ual
re y
char ge
ri p
O ff
ĠAN Y
Ġmark ed
Fr ame
C reate
arg s
ploy ment
j u
m g
Ġcourt s
201 8
Che ck
ĠSe cret
Ġsy nd
Ġso le
Ġsecond s
Ġph arm
Ġ5 6
dd en
Ġrad iation
Ġax is
Ġform al
Ġvari ation
Ġdest roy
Ġas sembly
Ġst ability
Ġr ough
Ġ ens
iver se
ro ke
G A
) ]
ĠMin ister
i ological
ĠH ence
* /
" ]
Ġpol l
Ġwid ely
Ġt ick
Con ne
Ġac ute
T C
u ing
Ġantib ody
Ġthere by
ool s
I O
Ġst ick
Ġdefin itely
ĠS and
Ġbr and
m as
ĠTw itter
ell s
ĠL ike
Ġor al
ic ious
Ġcon ven
Ġprov ision
Ġt ables
P ost
Ġ ice
Ġposs ess
Ġlink ed
Ġdim ension
Ġaspect s
ĠJohn son
Ġm RNA
Ġc ort
Ġgra v
Ġattack s
us iness
m ethod
mon th
Ġkeep ing
ĠL og
Ġimpl ies
Ġnumer ous
hel ial
ic ago
Re ferences
Ġpop ulations
ĠFr ance
m ut
M on
Ġindic ating
AB LE
Ġu l
ĠGerm an
Ġan c
Ġstart s
ĠW ITH
P age
as y
Ġmi xture
ĠJust ice
oc hem
ĠO nce
Ġident ification
Ġfund amental
N N
r ine
Ġwas te
Ġarch itect
Ġopp osite
c ut
Ġra re
Ġaccept ed
A ction
os h
rodu ction
ĠD ec
H S
ĠOn ly
Ġ ĊĠĠĠ
Ġinterpret ation
Ġmort ality
Ġun able
Ġinst ructions
Ch ar
Ġentire ly
Ġviol ation
Ġm ission
Ġinter act
Ġbre ath
ĠAp pe
Ġco ach
Ġbe at
w ar
Res ponse
( [
Ġtr uly
Ġabsol ute
Ġrecogn ized
Ps i
M ay
Ġj u
Ġs outh
ag on
Ġcell ular
Ġb one
Ġgon na
\ /
msg id
Ġpract ices
Ġdist ingu
Ġre produ
Ġgirl s
un it
hed ul
"} )
ren cy
Ġs pl
Ġcont ribute
Ġnot es
Ġgl uc
A meric
Ġn arrow
and a
Ġpar allel
Ġdeg rees
ens ed
Ġsu dden
M C
Ġend s
Ġpart ner
St atus
Ġmass ive
he ther
Ġsupport ing
Ġrel ax
ĠI raq
Ġsm art
ash ion
ĠP A
Ġsupp l
Fil ter
msg str
Ġm outh
f ind
ĠM ass
op ath
x e
ĠSen ate
Ġpro test
ne xt
le ctions
1 10
ĠO N
p ng
Ġtri p
Ġrespons ibility
Ġre act
} )\
requ est
EX T
Ġsign s
$ )
Ġbe coming
Ġmil es
Ġemploy ment
Ġa st
cl aim
Ġpoly mer
v ol
cal e
Ġcor re
ap se
B D
ost er
ĠOb ject
Ġatt ached
Ġappear ance
Ġcam era
(\ [
ell o
Ġs in
Ġtechn ical
i pping
L oad
Ġaccom pl
Ġ[ [
S olve
Ġdis k
Ġcomp ound
Ġh ole
Ġman aged
Ġresid ents
Ġr oute
ĠPro gram
ER E
ĠG ive
Ġdepend ent
ty le
Ġoff set
N e
ir al
4 00
Ġv itro
Ġmin ute
app end
ĠC le
Ġmole cules
wide hat
Ġen able
Ġcon cluded
Ġdynam ic
Ġco h
t ra
\] ).
or ters
Ġes c
Ġap art
Ġcommon ly
Ġamount s
cle ar
w ing
Ġp ix
\[ [@
ĠS ing
T E
Ġdef ic
Ġass igned
opt ion
ĠM ot
m atch
Ġconsider ation
L abel
B P
Ġcomm ission
med ia
Ġpro lif
Ġphot o
k ins
D ec
* ^
k et
Ġpur su
Ġunder stood
Def ault
Ġart icles
om ial
Hand ler
Ġdynam ics
ĠThe ir
ĠP H
F O
Ġs ought
y er
Ġrequire ment
ef fect
Ġfac ilit
ĠJ ava
he rent
ĠInst ead
L S
ak ed
ĠAn n
Ġeffect ively
Ġaccur ate
un s
{ "
gr ade
U I
ĠPl an
L C
V A
Ġsh ip
Ġg ap
cont rol
ro ad
Ġestim ates
ir ty
Ġjuris diction
ĠP RO
Ġsens itive
Ġmicro sc
ad ata
sc rib
ne g
Ġsp aces
Ġtem plate
ad ian
Ġre nder
Ġcon j
Ġ5 2
Ġf illed
Ġst em
ĠT or
ĠAfric a
line ar
us cript
** ,
}} {\
Ġs plit
f ess
Ġdec ades
ed ing
Ġus ual
Ġmess ages
ij ms
ĠPh il
Ġb ath
ĠTh omas
ch ron
Ġb inary
Ġ5 1
Ġest ate
ĠAP I
Ġo xygen
Ġjust ice
Ġsp ending
Y our
per ties
ĠP CR
pro te
# :
Ġsee king
rapeut ic
Ġdis put
l ife
ĠSc ott
Ġflu ores
ĠT imes
å Ī
t ings
Ġw ww
or al
ol a
Ġad mitted
Ġn om
Ġneg ot
Ġsen ior
ust er
ĠB ill
ĠN or
Ġf ont
I E
ress ive
Ġfavor ite
ĠR iver
w s
and er
ive red
P lease
Ġc m
Ġstrateg ies
Ġp et
ĠM ag
C OM
Ġsec ure
str ong
m o
Ġswe et
ĠE arth
Ġobject ive
val ues
We b
ĠM ad
Ġconsum ption
ist or
++ )
Ġhor iz
Ġs qrt
ob j
ag ger
Ġ7 2
st ar
ĠW ill
Ġab und
ĠSt and
Ġbro ken
Ġass istance
pro p
Ġcharacter ized
Ġsim pl
ant a
m L
Ġg ender
ig r
ĠP y
h igh
D et
Ġpl astic
ick en
Ġint ention
Y eah
] ]
ĠN E
Ġsmall est
Ġac adem
b our
ĠF ore
am ber
fl oat
Ġint ra
Ġpredict ed
Ġar range
^ -
Ġem ission
200 8
ĠInd eed
O B
p rivate
li k
Ġtiss ues
[ "
ribut ions
Â ¸
Ä ģ
w ater
ĠM il
Ġp ed
Ġord ers
Ġre b
ĠPro ject
f old
Ġch air
Ġhe m
ur a
L ayout
am i
Ġco f
ĠD en
ole cules
Ġf an
N U
Ġneur ons
} /
ĠS P
Ġc art
Ġ[ ]
Ġprinc iple
Ġscient ific
ĠCar ol
T wo
Ġp ages
os a
Ġexp ensive
Ġmar riage
ad ow
Ġal t
Ġz one
f it
Cont rol
al a
Ġrecomm ended
R el
ĠMed ical
Ġph ilos
' ).
G l
Ġsub set
Ġsupport s
ogen ic
qu ot
y g
t ab
Ġf ell
A m
Ġcustom er
? ?
Ġ5 4
Ġcor ner
Ġpartic le
co in
Ġpie ces
an i
ĠM ethod
æ ľ
T S
s ystem
ne ver
Ġman uscript
oun ter
ĠMus lim
oc y
ĠLou is
Ġper man
200 9
Ġwatch ing
ĠFr anc
ĠIn formation
t ag
Ġex ceed
Ġlar g
Ġla unch
D C
ĠS pec
Ġdis cretion
ĠR ad
ed s
Ġca using
r ition
et ch
ĠS il
Ġsuccess fully
Ġte levision
Ġm argin
ĠI V
sh ow
Ġch annels
ĠFr ank
Ġcomp re
Ġto ler
Ġ19 99
are n
ott ed
Ġtrans cript
Ġinf o
w er
s plit
Ġbas eline
F R
Ġtarget s
y e
ĠM a
gen er
v ant
Ġsup ra
Ġredu cing
se ud
T em
Ġcris is
ĠH ospital
f a
Ġse gment
ik i
Ġam b
f ast
Ġw arn
ĠE U
en a
Ġlarg ely
Ġb attle
Ġun ion
Ġim possible
t w
ac ent
Ġp H
Ġv it
}} ,
ĠA rab
Ġsc r
Ġinhib ition
S R
Ġcomp osite
ĠC r
ĠC ap
ollow ing
Ġautom atically
" "
Ġs itting
cre en
Ġinstall ed
Ġinform ed
ĠM ath
ex ec
Ġep it
Ġsupp lement
Ġdiab etes
Ġprom ote
Ġauthor ities
ĠH el
Ġatt end
Ġresearc hers
Ġâ ī
ĠW AR
V E
Ġv ess
ox y
ĠQ ue
in ite
Ġacc el
c ss
br id
Ġas ym
Ġstruct ural
Ġwor ry
i ability
Ġs and
ĠSo ftware
Ġexam ination
Ġmar ried
ĠG L
Ġorgan ic
Ġse ctor
Ġs ac
ĠCent ral
Ġfor get
Ġcomp act
// /
ol id
Ġdis order
Ġt or
Ġdom in
ogen esis
ĠSt r
Ġrepresent ative
ul ating
th m
Ġkn ock
im b
Z E
ro ot
ĠV ol
v in
Ġstra ins
N ext
ĠB i
e z
U P
O H
pl ant
Ġweek end
Ġproport ion
Ġse at
Ġput ting
Ġvis ible
ĠĠĠĠĠĠĠĠĠĠĠĠĠĠĠĠĠĠĠĠĠĠĠĠĠĠĠĠĠĠĠĠĠĠĠĠĠĠĠĠĠĠĠĠĠĠĠĠĠĠĠĠĠĠĠĠĠĠĠĠĠĠĠĠ ĠĠĠĠĠĠĠĠĠĠĠĠĠĠĠĠĠĠĠĠĠĠĠĠĠĠĠĠĠĠĠĠ
go ogle
ĠE duc
Ġjo ined
`` `
Ġgu ard
Ġf aster
Ġs i
Ġconcer ning
ĠLem ma
ĠB ack
or ation
Ġst ret
Ġve get
Ġed itor
Ġad m
Ġrepl aced
fe ctions
Ġfac ilities
Ġobserv ation
Ġdi vers
Ġfin ish
ĊĠĠĠĠĠĠĠĠ ĠĠĠĠĠĠ
Ġb ott
M r
n umber
ĠIt s
ĠAfric an
Ġsol ve
ĠV iew
d ist
Ġdeb ate
ox id
Ġd ream
Th anks
ĠCh icago
medi ate
