{"[UNK]":0,"[CLS]":1,"[SEP]":2,"[PAD]":3,"[MASK]":4,"!":5,"\"":6,"#":7,"$":8,"%":9,"&":10,"'":11,"(":12,")":13,"*":14,"+":15,",":16,"-":17,".":18,"/":19,"0":20,"1":21,"2":22,"3":23,"4":24,"5":25,"6":26,"7":27,"8":28,"9":29,":":30,";":31,"<":32,"=":33,">":34,"?":35,"@":36,"A":37,"B":38,"C":39,"D":40,"E":41,"F":42,"G":43,"H":44,"I":45,"J":46,"K":47,"L":48,"M":49,"N":50,"O":51,"P":52,"Q":53,"R":54,"S":55,"T":56,"U":57,"V":58,"W":59,"X":60,"Y":61,"Z":62,"[":63,"\\":64,"]":65,"^":66,"_":67,"`":68,"a":69,"b":70,"c":71,"d":72,"e":73,"f":74,"g":75,"h":76,"i":77,"j":78,"k":79,"l":80,"m":81,"n":82,"o":83,"p":84,"q":85,"r":86,"s":87,"t":88,"u":89,"v":90,"w":91,"x":92,"y":93,"z":94,"{":95,"|":96,"}":97,"~":98,"¡":99,"¢":100,"£":101,"¤":102,"¥":103,"¦":104,"§":105,"¨":106,"©":107,"ª":108,"«":109,"¬":110,"®":111,"¯":112,"°":113,"±":114,"²":115,"³":116,"´":117,"µ":118,"¶":119,"·":120,"¸":121,"¹":122,"º":123,"»":124,"¼":125,"½":126,"¾":127,"¿":128,"Â":129,"Ã":130,"Ä":131,"Å":132,"Æ":133,"Ç":134,"È":135,"É":136,"Ê":137,"Ë":138,"Ì":139,"Í":140,"Î":141,"Ï":142,"Ð":143,"Ñ":144,"Ò":145,"Ó":146,"Ô":147,"Õ":148,"Ö":149,"×":150,"Ø":151,"Ù":152,"Ú":153,"Û":154,"Ü":155,"Ý":156,"Þ":157,"ß":158,"à":159,"á":160,"â":161,"ã":162,"ä":163,"å":164,"æ":165,"ç":166,"è":167,"é":168,"ê":169,"ë":170,"ì":171,"í":172,"î":173,"ï":174,"ð":175,"ñ":176,"ó":177,"ô":178,"Ā":179,"ā":180,"Ă":181,"ă":182,"Ą":183,"ą":184,"Ć":185,"ć":186,"Ĉ":187,"ĉ":188,"Ċ":189,"ċ":190,"Č":191,"č":192,"Ď":193,"ď":194,"Đ":195,"đ":196,"Ē":197,"ē":198,"Ĕ":199,"ĕ":200,"Ė":201,"ė":202,"Ę":203,"ę":204,"Ě":205,"ě":206,"Ĝ":207,"ĝ":208,"Ğ":209,"ğ":210,"Ġ":211,"ġ":212,"Ģ":213,"ģ":214,"Ĥ":215,"ĥ":216,"Ħ":217,"ħ":218,"Ĩ":219,"ĩ":220,"Ī":221,"ī":222,"Ĭ":223,"ĭ":224,"Į":225,"į":226,"İ":227,"ı":228,"Ĳ":229,"ĳ":230,"Ĵ":231,"ĵ":232,"Ķ":233,"ķ":234,"ĸ":235,"Ĺ":236,"ĺ":237,"Ļ":238,"ļ":239,"Ľ":240,"ľ":241,"Ŀ":242,"ŀ":243,"Ł":244,"ł":245,"Ń":246,"ĠĠ":247,"Ġt":248,"Ġa":249,"in":250,"he":251,"re":252,"on":253,"ĠĠĠĠ":254,"Ġthe":255,"er":256,"at":257,"Ġs":258,"en":259,"Ġo":260,"Ġc":261,"Ġw":262,"is":263,"it":264,"or":265,"es":266,"ed":267,"al":268,"an":269,"Ġp":270,"Ġf":271,"Ġb":272,"Ġan":273,"ing":274,"Ġin":275,"Ġof":276,"ar":277,"ion":278,"ou":279,"Ġm":280,"Ġd":281,"ic":282,"--":283,"Ġto":284,"le":285,"as":286,"ĠĠĠĠĠĠĠĠ":287,"Ġand":288,"ro":289,"Ġth":290,"ent":291,"Ġh":292,"ct":293,"Ġre":294,"et":295,"Ġn":296,"el":297,"st":298,"om":299,"il":300,"Ġe":301,"Ġl":302,"id":303,"ot":304,"im":305,"ig":306,"ve":307,"Ġis":308,"ut":309,"Ġg":310,"Ġ(":311,"ĠT":312,"----":313,"am":314,"ol":315,"ĠI":316,"ation":317,"se":318,"ce":319,"ly":320,"âĢ":321,"Ġfor":322,"ur":323,"ĠĠĠ":324,"Ġbe":325,"ĠS":326,"ow":327,"Ġthat":328,"Ġu":329,"ad":330,"Ġon":331,"ĠA":332,"ĠC":333,"Ġst":334,"ch":335,"ver":336,"ay":337,"ul":338,"ith":339,"Ġ1":340,"if":341,"Ġcon":342,"Ġwith":343,"ra":344,"ĠĠĠĠĠĠĠĠĠĠĠĠĠĠĠĠ":345,"Ġy":346,"Ġas":347,"ir":348,"od":349,"ter":350,"00":351,"Ġpro":352,"Ġ\"":353,"ate":354,"Ġ$":355,"Ġit":356,"her":357,"um":358,"ĠM":359,"ab":360,"pe":361,"Ġal":362,"Ġwe":363,"ri":364,"ge":365,"nd":366,"Ġv":367,"==":368,"Ġwh":369,"Ġ2":370,"ĠP":371,"Ġde":372,"res":373,"pp":374,"qu":375,"ac":376,"Ġyou":377,"ment":378,"est":379,"Ġex":380,"os":381,"ist":382,"ĠThe":383,"Ġwas":384,"ĠB":385,"us":386,"Ġ\\":387,"Ġhe":388,"--------":389,"ant":390,"Ġor":391,"Ġcom":392,"em":393,"ht":394,"Ġare":395,"th":396,"**":397,"oc":398,"Ġat":399,"ers":400,"Ġsu":401,"iv":402,"Ġ=":403,"un":404,"ity":405,"ess":406,"ain":407,"Ġr":408,"ĠH":409,"op":410,"ĠF":411,"Ġby":412,"ĠD":413,"Ġse":414,"ld":415,"ill":416,"ction":417,"ore":418,"rom":419,"and":420,"ĠW":421,"nt":422,"ke":423,"Ġnot":424,"Ġ-":425,"end":426,"Ġha":427,"ĠR":428,"ive":429,"ĠL":430,"ort":431,"Ġne":432,"pt":433,"Ġthis":434,"ĊĠĠĠĠ":435,"ĠN":436,"âĢĻ":437,"Ġfrom":438,"ight":439,"art":440,"ud":441,"red":442,"ĊĠĠĠ":443,"pl":444,"ell":445,"Ġsh":446,"ial":447,"ies":448,"te":449,"ĠG":450,"Ġch":451,"Ġhave":452,"ated":453,"ĠE":454,"fe":455,"Ġ*":456,"ure":457,"ine":458,"'s":459,"ould":460,"our":461,"all":462,"{\\":463,"Ġle":464,"Ġ0":465,"ag":466,"per":467,"og":468,"ust":469,"age":470,"ical":471,"Ġcan":472,"ame":473,").":474,"ue":475,"iz":476,"ĠO":477,"ich":478,"rou":479,"cl":480,"Ġ3":481,"ib":482,"ĊĠĠĠĠĠĠĠĠ":483,"out":484,"ard":485,"Ġus":486,"ome":487,"able":488,"ie":489,"ase":490,"Ġres":491,"Ġcl":492,"Ġwhe":493,");":494,"Ġab":495,"ath":496,"Ġj":497,"ack":498,"====":499,"ult":500,"ass":501,"Ġ{":502,"act":503,"ost":504,"Ġk":505,"ans":506,"01":507,"Ġpl":508,"Ġcomp":509,"ide":510,"ther":511,".\"":512,"Ġad":513,"Ġme":514,"ĊĠ":515,"ast":516,"=\"":517,"Ġcont":518,"Ġwere":519,"orm":520,"ĠâĢ":521,"Ġim":522,"The":523,"Ġall":524,"Ġtr":525,"ub":526,"ign":527,"ĠJ":528,"ĊĠĠĠĠĠĠĠ":529,"..":530,"ĠU":531,"ap":532,"Ġ[":533,"Ġdo":534,"ind":535,"ition":536,"ak":537,"ip":538,"Ġwhich":539,"ĠĠĠĠĠĠĠĠĠĠĠĠĠĠĠĠĠĠĠĠĠĠĠĠĠĠĠĠĠĠĠĠ":540,"ph":541,"Ġhas":542,"ice":543,"Ġ+":544,"cc":545,"one":546,"ary":547,"ous":548,"ĉĉ":549,"//":550,"Ġbut":551,"ime":552,"Ġint":553,"ens":554,"ĠIn":555,"are":556,"int":557,"----------------":558,"con":559,"Ġwor":560,"_{":561,"du":562,"Ġdis":563,"ress":564,"ong":565,"ence":566,"ations":567,"Ġ4":568,"ty":569,"ff":570,"Ġwill":571,"ne":572,"ile":573,"ok":574,"Ġgo":575,"),":576,"Ġ<":577,"ru":578,"Ġout":579,"ep":580,"ose":581,"ance":582,"}}":583,"gh":584,"Âł":585,"av":586,"Ġif":587,"Ġper":588,"ents":589,"Ġen":590,"au":591,"ally":592,"ĠTh":593,"ber":594,"Ġ5":595,"Ġhis":596,"ace":597,"Ġone":598,"so":599,"Ġun":600,"port":601,"xt":602,"ely":603,"ia":604,"ord":605,"Ġthey":606,"ory":607,"ire":608,"ear":609,"ach":610,"ect":611,"ions":612,"Ġapp":613,"Ġev":614,"Ġso":615,"form":616,"ry":617,"Ġup":618,"ang":619,"Ġqu":620,"ree":621,"lic":622,"Ġar":623,"Ġtheir":624,"âĢĿ":625,"Ġmore":626,"Ġpart":627,"ail":628,"ĠK":629,"ite":630,"ors":631,"ll":632,"Ġthere":633,"ys":634,"Ġag":635,"Ġpre":636,"ake":637,"Ġother":638,"Ġli":639,"own":640,"ĠĠĠĠĠĠĠ":641,"very":642,"Ġ}":643,"ound":644,"Ġyour":645,"ft":646,"Ġ$\\":647,"vel":648,"Ġhad":649,"ount":650,"fere":651,"cre":652,"urn":653,"ĠSt":654,"Ġsa":655,"ata":656,"Ġbeen":657,"com":658,"Ġsp":659,"math":660,"Ġman":661,"ks":662,"Ġalso":663,"Ġwho":664,"erv":665,"Ġany":666,"we":667,"ates":668,"Ġwould":669,"de":670,"ĠV":671,"Ġno":672,"[@":673,"Ġabout":674,"nder":675,"low":676,"ject":677,"ĊĊ":678,"Ġwhen":679,"eth":680,"Ġmy":681,"Ġ'":682,"Ġ&":683,"ific":684,"ook":685,"\\]":686,"Ġob":687,"Ġtime":688,"ple":689,"Ġthan":690,"ater":691,"'t":692,"ict":693,"Ġass":694,"wo":695,"erm":696,"Ġ6":697,"Ġover":698,"ref":699,"10":700,"Ġits":701,"}$":702,"row":703,"ring":704,"Ġ19":705,"Ġsome":706,"Ġsc":707,"ĠâĢľ":708,"ob":709,"clud":710,"rib":711,"ck":712,"fter":713,"ays":714,"ces":715,"</":716,"Ġspe":717,"get":718,"Ġbet":719,"Ġsy":720,"lect":721,"Ġnew":722,"Ġgen":723,"Ġdif":724,"In":725,"fect":726,"ĊĠĠĠĠĠĠĠĠĠĠĠ":727,"old":728,"Ġam":729,"irst":730,"ove":731,"^{":732,"Ġte":733,"ode":734,"hat":735,"ied":736,"Ġinter":737,"vers":738,"Ġfe":739,"ps":740,"Ġsub":741,"Ġget":742,"ild":743,"Ġdef":744,"Ġacc":745,"19":746,"Ġher":747,"Ġoff":748,"Ġkn":749,"ĠY":750,"reat":751,"ause":752,"Ġcomm":753,"Ġact":754,"Ġinto":755,"Ġour":756,"ced":757,"Ġunder":758,"ov":759,"Ġro":760,"iss":761,"Ġcons":762,"ings":763,"ink":764,"Ġpe":765,"ĠIt":766,"##":767,"Ġdes":768,"Ġrel":769,"Ġmay":770,"ma":771,"========":772,"ual":773,"Ġrec":774,"12":775,"ick":776,"Ġonly":777,"ative":778,"Ġtwo":779,"ari":780,"pon":781,"Ġsaid":782,"Ġthem":783,"Ġval":784,"ert":785,"iew":786,"pect":787,"Ġyear":788,"Ġwork":789,"Ġstud":790,"Ġbec":791,"Ġwhat":792,"ular":793,"Ġlike":794,"Ġadd":795,"Ġind":796,"Ġ7":797,"hed":798,"Ġret":799,"ark":800,"Ġmod":801,"igh":802,"Ġreg":803,"Ġpos":804,"ĠCh":805,"Ġtrans":806,"pro":807,"unction":808,"Ġinv":809,"elf":810,"ĠThis":811,"cess":812,"oint":813,"Ġem":814,"Ġbl":815,"Ġuse":816,"ock":817,"stem":818,"Ġco":819,"itt":820,"ish":821,"Ġfirst":822,"Ġsuch":823,"ased":824,"ating":825,"Ġjust":826,"Ġ201":827,"ex":828,"ont":829,"Ġpr":830,"ef":831,"Ġph":832,"Ġ8":833,"ĠWe":834,"Ġpres":835,"Ġform":836,"Ġthese":837,"ian":838,"\",":839,"ments":840,"ade":841,"Ġprov":842,"ient":843,"Ġdiffere":844,"Ġwhere":845,"ility":846,"ĊĠĠĠĠĠ":847,"11":848,"Ġcol":849,"}\\":850,"ĠHe":851,"Ġpat":852,"Ġshe":853,"Ġafter":854,"Ġdet":855,"Ġsign":856,"rac":857,"ize":858,"Ġpol":859,"Ċĉĉ":860,"ident":861,"aw":862,"Ġhow":863,"ec":864,"Ġ10":865,"ood":866,"ween":867,"oth":868,"Ġneed":869,"__":870,"der":871,"ss":872,"ffect":873,"olog":874,"ople":875,"the":876,"Ġexp":877,"gr":878,"Ġset":879,"type":880,"ption":881,"Ġthen":882,"Ġcould":883,"ublic":884,"ution":885,"ange":886,"Ġclass":887,"ĊĠĠĠĠĠĠĠĠĠĠĠĠĠĠĠ":888,"Ġ9":889,"](":890,"()":891,"Ġresult":892,"Ġatt":893,"St":894,"Ġbetween":895,"Ġcell":896,"ough":897,"Ġrem":898,"fig":899,"ise":900,"000":901,"right":902,"ious":903,"Ġ\\[":904,"Ġsupp":905,"les":906,"ollow":907,"20":908,".,":909,"ix":910,"eg":911,"ble":912,"ype":913,"Ċĉ":914,"Ġgrou":915,"Ġ|":916,"up":917,"Ġinclud":918,"Ġused":919,"ible":920,"ax":921,"iel":922,"ER":923,"als":924,"Ġdid":925,"ourt":926,"Ġdata":927,"Ġnum":928,"Ġshow":929,"ues":930,"ons":931,"Ġknow":932,"Ġfl":933,"oy":934,"){":935,"cy":936,"Ġfact":937,"\">":938,"Ġpeople":939,"ract":940,"tern":941,"ull":942,"Ġshould":943,"ics":944,"ox":945,"rough":946,"ning":947,"Ġac":948,"Ġcor":949,"Ġsim":950,"Ġhim":951,"Ġsur":952,"ms":953,"Ġspec":954,"its":955,"hen":956,"****":957,"Ġrequ":958,"Ġfollow":959,"fore":960,"Ġusing":961,"Ġdist":962,"ren":963,"inal":964,"ruct":965,"Ġi":966,"Ġsee":967,"Ġback":968,"Ġbecause":969,"sp":970,"Ġfunction":971,"Ġconst":972,"ined":973,"ield":974,"ful":975,"Ġsystem":976,"ities":977,"Ġmost":978,")$":979,"li":980,"ever":981,"Ġinst":982,"IN":983,"rit":984,"15":985,"--------------------------------":986,"ĊĠĠĠĠĠĠĠĠĠĠĠĠĠĠĠĠ":987,"ool":988,"pos":989,"Ġ.":990,"put":991,"13":992,"ited":993,"Ġend":994,"Ġsm":995,"sc":996,"uring":997,"ures":998,"Ġwell":999,"ins":1000,"16":1001,"\"}":1002,"Ġreturn":1003,"Ġthrough":1004,"Ġprodu":1005,"Ġtest":1006,"Ġright":1007,"Ġtra":1008,"Ġgener":1009,"Ġ[@":1010,"(\\":1011,"ĠUn":1012,"Ġbu":1013,"]{":1014,"Ġagain":1015,"Ġext":1016,"Ġchar":1017,"14":1018,"Ġwant":1019,"hes":1020,"mer":1021,"Ġhigh":1022,"Ġdifferent":1023,"Ġeach":1024,"err":1025,"ized":1026,"ational":1027,"to":1028,"ĠĠĠĠĠ":1029,"ower":1030,"Ġcase":1031,"->":1032,"round":1033,"cond":1034,"Ġstate":1035,"Ġdoes":1036,"imes":1037,"ator":1038,"Ġent":1039,"Ġeffect":1040,"text":1041,"ically":1042,"wn":1043,"io":1044,"ric":1045,"Th":1046,"],":1047,"ĠSe":1048,"25":1049,"ON":1050,"ew":1051,"uch":1052,"other":1053,"ta":1054,"nce":1055,"Ġeven":1056,"riv":1057,"ily":1058,"Ġ200":1059,"Ġmake":1060,"ctions":1061,"par":1062,"cal":1063,"ients":1064,"set":1065,"Ġmin":1066,"ork":1067,"let":1068,"_{\\":1069,"vent":1070,"Ġ@":1071,"rol":1072,"Ġ:":1073,"...":1074,"Ġevery":1075,"uc":1076,"))":1077,"18":1078,"ethod":1079,"Ġke":1080,"Ġcur":1081,"Ġra":1082,"ute":1083,"read":1084,"Ġsame":1085,"Ġcall":1086,"ants":1087,"frac":1088,"ars":1089,"Ġway":1090,"Ġnow":1091,"ger":1092,"Ġanal":1093,"Ġap":1094,"cept":1095,"Ġfind":1096,"Ġdec":1097,"ince":1098,"val":1099,"Ġ/":1100,"Ġdon":1101,"\":":1102,"Ġincre":1103,"aint":1104,"arch":1105,"](#":1106,"Ġpoint":1107,"oci":1108,"ĠĠĠĠĠĠĠĠĠĠĠĠĠĠĠĠĠĠĠĠĠĠĠĠĠĠĠĠĠĠĠĠĠĠĠĠĠĠĠĠĠĠĠĠĠĠĠĠĠĠĠĠĠĠĠĠĠĠĠĠĠĠĠĠ":1109,"Ġlook":1110,"oid":1111,"17":1112,"Ġthose":1113,"str":1114,"ward":1115,"velop":1116,"Ġinte":1117,"Ġlong":1118,"Ġyears":1119,"Ġvery":1120,"Ġ_":1121,"Ġdi":1122,"ug":1123,"ason":1124,"ym":1125,"Ġpartic":1126,"Ġloc":1127,"pr":1128,"ense":1129,"Ġboth":1130,"Ġvari":1131,"Ġhere":1132,"ases":1133,"und":1134,"Ġmon":1135,"rm":1136,"day":1137,"ines":1138,"cent":1139,"rent":1140,"irect":1141,"AT":1142,"rest":1143,"Ġaut":1144,"Ġmat":1145,"ample":1146,"Ġfound":1147,"Ġ//":1148,"Ġbel":1149,"Ġbeing":1150,"atic":1151,"ting":1152,"air":1153,"yp":1154,"Ġtri":1155,"$\\":1156,"Ġmed":1157,"Ġexper":1158,"led":1159,"?\"":1160,"Ġappro":1161,"Ġpers":1162,"Ġpar":1163,"::":1164,"ages":1165,"Ġmany":1166,"Ġplay":1167,"Ġbefore":1168,"ife":1169,"]{}":1170,"32":1171,"ng":1172,"ices":1173,"ĠCom":1174,"It":1175,"ared":1176,"alth":1177,"Ġnumber":1178,"Ġfil":1179,"]\\]":1180,"ĠQ":1181,"over":1182,"Ġmem":1183,"âĢī":1184,"Ġgr":1185,"Ġ**":1186,"Ġprote":1187,"tr":1188,"Ġser":1189,"ature":1190,"50":1191,"30":1192,"app":1193,"Ġx":1194,"cer":1195,"Ġel":1196,"Ġcar":1197,"Ġpublic":1198,"ES":1199,"ified":1200,"AR":1201,"aking":1202,"Ġop":1203,"sh":1204,"of":1205,"min":1206,"Ġrespon":1207,"}{":1208,"ateg":1209,"left":1210,"ody":1211,"ner":1212,"Ġgu":1213,"Ġthink":1214,"Ġhel":1215,"formation":1216,"Ġche":1217,"ĠĠĠĠĠĠ":1218,"Ġins":1219,"Ġstr":1220,"eng":1221,"ression":1222,"Ġgood":1223,"We":1224,"ale":1225,"ĊĊĠĠĠ":1226,"Ġ12":1227,"Ġprocess":1228,"ave":1229,"yl":1230,"ash":1231,"Ġdown":1232,"Ġinf":1233,"Ġrep":1234,"upp":1235,"Ġmodel":1236,"ĠFor":1237,"ank":1238,"Ġmade":1239,"Ġvalue":1240,"Ġreport":1241,"ĠâĢĵ":1242,"ively":1243,"Ġcourt":1244,"ism":1245,"ness":1246,"ually":1247,"line":1248,"ven":1249,"Ġ\\[[@":1250,"Ġwhile":1251,"Ġlevel":1252,"ired":1253,"view":1254,"Ġgiv":1255,"Ġstudy":1256,"://":1257,"Ġsol":1258,"mathb":1259,"gg":1260,"NA":1261,"Ġpresent":1262,"ved":1263,"Ġdevelop":1264,"24":1265,"',":1266,"mon":1267,"Ġstart":1268,"ument":1269,"ĠLet":1270,"201":1271,"way":1272,"ained":1273,"Ġlar":1274,"Ġsupport":1275,"OR":1276,",\\":1277,"ght":1278,"dition":1279,"Ġref":1280,"Ġcount":1281,"---":1282,"Ġdisc":1283,"Ġsecond":1284,"CR":1285,"Ġmuch":1286,"ret":1287,"$,":1288,"Ġequ":1289,"ĠÂ":1290,"cul":1291,"Ġown":1292,"ams":1293,".âĢĿ":1294,"erg":1295,"ision":1296,"Ġhand":1297,"ĠPro":1298,"ĠRe":1299,"ole":1300,"Ġserv":1301,"0000":1302,"Ġterm":1303,"igned":1304,"Ġthree":1305,"man":1306,"(\"":1307,"ization":1308,"Ġread":1309,"ĠIf":1310,"Ġnon":1311,"ĠAl":1312,"ray":1313,"Ġpatients":1314,"Ġest":1315,"ider":1316,"lement":1317,"$.":1318,"gan":1319,"ality":1320,"ffic":1321,"Ġdep":1322,"oad":1323,"Ġet":1324,"use":1325,"Ġmethod":1326,"Ġposs":1327,"uss":1328,"Ġwithout":1329,"Ġant":1330,"Ġduring":1331,"Ġorder":1332,"amp":1333,"Ġcells":1334,"abel":1335,"oun":1336,"ency":1337,"ential":1338,"ĠAs":1339,"cri":1340,",\"":1341,"Ġname":1342,"ton":1343,"any":1344,"med":1345,"What":1346,"80":1347,"eta":1348,"arly":1349,"Ġ20":1350,"ource":1351,"ĠAnd":1352,"Ġactiv":1353,"Ġhelp":1354,"Ġcre":1355,"not":1356,"Ġline":1357,"ided":1358,"EN":1359,"ists":1360,"idence":1361,"ify":1362,"Ġgroup":1363,"amb":1364,"Ġimport":1365,"Ġproper":1366,"Re":1367,"Ġperform":1368,"ĠHow":1369,"name":1370,"tt":1371,"ST":1372,"22":1373,"cial":1374,"IT":1375,"ah":1376,"ather":1377,"Ġlast":1378,"be":1379,"ĠAn":1380,"Ġcle":1381,"ability":1382,"40":1383,"Ġproble":1384,"Ġlead":1385,"alk":1386,"ters":1387,"ouse":1388,"Ġav":1389,"Ġsay":1390,"Ġrun":1391,"raph":1392,"ving":1393,"Ġz":1394,"Ġagainst":1395,"ĠBut":1396,"ww":1397,"99":1398,"Ġsmall":1399,"ane":1400,"ron":1401,"Ġiss":1402,"Ġgl":1403,"ulation":1404,"Ġoper":1405,"ames":1406,"Ġsignific":1407,"(-":1408,"Ġlet":1409,"Ġconf":1410,"Ġmust":1411,"23":1412,"ross":1413,"Ġtake":1414,"hip":1415,"Ġtype":1416,"\\[":1417,"Ġstill":1418,"Ġcontrol":1419,"aim":1420,"acter":1421,"Ġchild":1422,"Ġperson":1423,"ann":1424,"Ġlaw":1425,"ots":1426,"itive":1427,"ml":1428,"Ġpur":1429,"Ġappe":1430,"ĠYou":1431,"Ġmet":1432,"Con":1433,"Ġsom":1434,"ention":1435,"Ġexpl":1436,"Let":1437,"oh":1438,"Ġ15":1439,"irc":1440,"pha":1441,"Ġinformation":1442,"rt":1443,"Ġ,":1444,"();":1445,"Ġdirect":1446,"Ġday":1447,"ysis":1448,"serv":1449,"He":1450,"ek":1451,"ier":1452,"Ġcent":1453,"ds":1454,"33":1455,"Ġinc":1456,"AL":1457,"Fig":1458,"ÃĲ":1459,"âĢľ":1460,"Ġfin":1461,"AN":1462,"urther":1463,"Ġed":1464,"Ġquest":1465,"atch":1466,"chn":1467,"less":1468,"me":1469,"yn":1470,"ination":1471,"64":1472,"].":1473,"ology":1474,"Ġpost":1475,"Ġfam":1476,"Ġtreat":1477,"60":1478,"mathcal":1479,"ides":1480,"Ġresults":1481,"Ex":1482,"Ġident":1483,"Ġstand":1484,"vious":1485,"Ġmeas":1486,"ĊĠĠ":1487,")\\":1488,"ote":1489,"Ġsignificant":1490,"200":1491,"ets":1492,"Ġelect":1493,"Ġca":1494,"oot":1495,"ience":1496,"ission":1497,"da":1498,"Ġfollowing":1499,"This":1500,"for":1501,"Ġerr":1502,"htt":1503,"agn":1504,"Ġbre":1505,"Pro":1506,"Ġmult":1507,"ium":1508,"work":1509,"eral":1510,"ital":1511,"Ġ18":1512,"duct":1513,"ration":1514,"ĠNew":1515,"Ġdeterm":1516,"ately":1517,"land":1518,"ral":1519,"Ġgoing":1520,"Ġallow":1521,"ĠTr":1522,"ording":1523,"aj":1524,"meric":1525,"27":1526,"Ġcontin":1527,"ĠDe":1528,"ains":1529,"Ġlim":1530,"Ġcondition":1531,"ior":1532,"ished":1533,"ploy":1534,"================":1535,"}(":1536,"aterial":1537,"ured":1538,"Ġcare":1539,"Ġfr":1540,"Ġwithin":1541,"Ġ*/":1542,"CT":1543,"iff":1544,"ural":1545,"ule":1546,"son":1547,"Ġsince":1548,"Ġreal":1549,"Ġlife":1550,"Ġaround":1551,"Ġrece":1552,"âĢĵ":1553,"bl":1554,"Ġstat":1555,"ional":1556,"Ġwr":1557,"'m":1558,"Ġworld":1559,"Ġhum":1560,"def":1561,"ivers":1562,"Ġredu":1563,"Ġcurrent":1564,"Ġdev":1565,"az":1566,"Ġinterest":1567,"ackage":1568,"Ã©":1569,"35":1570,"ĠX":1571,"gen":1572,"28":1573,"alpha":1574,"Ġaddition":1575,"Ġhealth":1576,"que":1577,"Ġstruct":1578,"ently":1579,"ĠWh":1580,"Ġgover":1581,"ID":1582,"ived":1583,"chool":1584,"SE":1585,"Ġanother":1586,"akes":1587,"Ġ#":1588,"ond":1589,"Ġpass":1590,"Ġmark":1591,",âĢĿ":1592,"34":1593,"self":1594,"Ġinvest":1595,"ott":1596,"resent":1597,"Ġ14":1598,"Ġopen":1599,"Ġtry":1600,"crib":1601,"arent":1602,"lex":1603,"Ġcr":1604,"Ġ</":1605,"Ġarg":1606,"âĢĶ":1607,"br":1608,"Ġself":1609,"ts":1610,"Ġfield":1611,"Ġgreat":1612,"amet":1613,"Ġdel":1614,"Ġcommun":1615,"bers":1616,"Ġlist":1617,"Ġexample":1618,"####":1619,"ives":1620,"arg":1621,"Ġimp":1622,"ves":1623,"You":1624,"Ġpower":1625,"ither":1626,"gram":1627,"rel":1628,"dd":1629,"Ġincluding":1630,"]\\].":1631,"37":1632,"********":1633,"ĠZ":1634,"ĊĊĠ":1635,"ways":1636,"Ġocc":1637,"LE":1638,"face":1639,"Ġtoo":1640,"Ġmean":1641,"sec":1642,"ething":1643,"Ġbeh":1644,"Ġclaim":1645,"Ġmight":1646,"Ġsl":1647,"Ġgiven":1648,"ury":1649,"Ġhead":1650,"ĠCon":1651,"Ġrespect":1652,"Ġtem":1653,"here":1654,"arn":1655,"05":1656,"ribut":1657,"Ġbas":1658,"26":1659,"Ġart":1660,"ably":1661,"arget":1662,"ĠCl":1663,"Ġreally":1664,"^{\\":1665,"ĠIs":1666,"ĠSh":1667,"Ġchang":1668,"Ġgovern":1669,"Ġassoci":1670,"29":1671,"Ġplace":1672,"ope":1673,"Ġ16":1674,"Ch":1675,"ump":1676,"lection":1677,"iness":1678,"ĠHowever":1679,"Ġless":1680,"ining":1681,"arm":1682,"hor":1683,"ĠAmeric":1684,"Ġpot":1685,"ĠThey":1686,"stand":1687,"Ġ{#":1688,"lease":1689,"Ġadv":1690,"ought":1691,"Ġhig":1692,"ength":1693,"RE":1694,"Ġfile":1695,"Ġ$$\\":1696,"yt":1697,"Ġlow":1698,"Ġhapp":1699,"ends":1700,"38":1701,"ference":1702,"fer":1703,"roll":1704,"Ġhome":1705,"Ġbased":1706,"Ġ--":1707,"Ġvis":1708,"Ġmonth":1709,"ety":1710,"Ġapplic":1711,"Ġtop":1712,"ery":1713,"ãģ":1714,"36":1715,"ategory":1716,"icro":1717,"aining":1718,"Ġcap":1719,"ivid":1720,"ault":1721,"'re":1722,"Ġwom":1723,"alse":1724,"rap":1725,"reg":1726,"vert":1727,"Ġve":1728,"thing":1729,"Ġfew":1730,"Ġobject":1731,"Ġgrow":1732,"ocument":1733,"Ġprob":1734,"att":1735,"Ġbus":1736,"Ġcal":1737,"elta":1738,"ĠĠĠĠĠĠĠĠĠĠĠĠĠĠĠĠĠĠĠĠĠĠĠĠ":1739,"21":1740,"ĠNo":1741,"Ġbest":1742,"Ġanalysis":1743,"('":1744,"Ġindic":1745,"Ġsing":1746,"Ġpop":1747,"ittle":1748,"osed":1749,"Ġobserv":1750,"Ġmot":1751,"Ġnext":1752,"ĠâĢĶ":1753,"âĪ":1754,"leg":1755,"IC":1756,"Ġimportant":1757,"by":1758,"Ġtechn":1759,"75":1760,"ised":1761,"AS":1762,"mb":1763,"Ġevidence":1764,"Ġsomething":1765,"els":1766,"oss":1767,"Ġpath":1768,"ambda":1769,"Ġleft":1770,"Ġobt":1771,"Cl":1772,"ext":1773,"45":1774,"Ġfour":1775,"Ġwhether":1776,"Ġopt":1777,"$$":1778,"Ġcommon":1779,"bs":1780,"Ġproduct":1781,"Ġchange":1782,"requ":1783,"90":1784,"che":1785,"cur":1786,"ĠPh":1787,"abl":1788,"Ġbo":1789,"Ġput":1790,"Ġbelie":1791,"inf":1792,"ĠLe":1793,"ertain":1794,"Ġleg":1795,"plic":1796,"Ġsugg":1797,"cing":1798,"Ġsuggest":1799,"ik":1800,"ware":1801,"95":1802,"Ġview":1803,"Ġseem":1804,"ĠThere":1805,"ification":1806,"Ġfail":1807,"Ġexpect":1808,"Ġparticular":1809,"ĠInd":1810,"Ġprof":1811,"used":1812,"ĠWhat":1813,"label":1814,"Ġ30":1815,"AC":1816,"por":1817,"hib":1818,"amma":1819,")/":1820,"Ġnever":1821,"add":1822,"ccess":1823,"action":1824,"mun":1825,"Ġlight":1826,"70":1827,"col":1828,"opy":1829,"cont":1830,"version":1831,"},":1832,"ĠEx":1833,"Com":1834,"Ġunt":1835,"Ġinvol":1836,"div":1837,"rop":1838,"Ġdescrib":1839,"Ġconne":1840,"Ġask":1841,"Ġbetter":1842,"ples":1843,"Ġturn":1844,"mu":1845,"Ġsit":1846,"Ġabove":1847,"lu":1848,"new":1849,"ĠSo":1850,"Ġlarge":1851,"To":1852,"Ġwater":1853,"ended":1854,"ene":1855,"mathbb":1856,"Ġ11":1857,"part":1858,"ending":1859,"ered":1860,"Ġproblem":1861,"Ġbi":1862,"Ġsk":1863,"Ġtrue":1864,"Ġreason":1865,"As":1866,"ilar":1867,"co":1868,"ird":1869,"Ġrese":1870,"egin":1871,"Ġ{\\":1872,"ormal":1873,"ĠPl":1874,"Ġeas":1875,"orn":1876,"IS":1877,"ser":1878,"Name":1879,"igma":1880,"Ġconsider":1881,"pi":1882,"ats":1883,"Ġtreatment":1884,"Ġleast":1885,"Ġlittle":1886,"Ġsize":1887,"ED":1888,"Ġpossible":1889,"ĠShe":1890,"ailable":1891,"Ġgot":1892,"ĠAll":1893,"Ġlocal":1894,"}_":1895,"48":1896,"ask":1897,"ho":1898,"Ġposition":1899,"Ġcome":1900,"Ġthings":1901,"}^{":1902,"Ġtot":1903,"!\"":1904,"=\\":1905,"Ġris":1906,"ĊĠĠĠĠĠĠĠĠĠ":1907,"Ġdue":1908,"Ġopp":1909,"Ġbuild":1910,"Ġpay":1911,"Ġmov":1912,"Ġimpro":1913,"Ġcharacter":1914,"____":1915,"ividual":1916,"Ġtyp":1917,"rain":1918,"Ġide":1919,"ĠUS":1920,"Ġrepresent":1921,"back":1922,"Ġ==":1923,"illion":1924,"Ġinit":1925,"epend":1926,"39":1927,"ina":1928,"Ġfree":1929,"package":1930,"Ġhy":1931,"HE":1932,"ush":1933,"Ġrest":1934,"data":1935,"iron":1936,"play":1937,"):":1938,"icle":1939,"Ġ17":1940,"aring":1941,"Ġelse":1942,"Ġold":1943,"ajor":1944,"ances":1945,"Ġbig":1946,"Ġquestion":1947,"ĠTo":1948,"idth":1949,"Ġdefend":1950,"Ġsever":1951,"nal":1952,"čĊ":1953,"iod":1954,"Ġhaving":1955,"Ġdays":1956,"Ġshown":1957,"Ġoffic":1958,"Ġgive":1959,"ĠOn":1960,"Ġhuman":1961,"Ġrecord":1962,"ological":1963,"Ġfurther":1964,"sum":1965,"imal":1966,"Ġbr":1967,"Ġorgan":1968,"begin":1969,"aps":1970,"Ġbro":1971,"Ġgame":1972,"Ġes":1973,"];":1974,"Ġtrial":1975,"Ġgre":1976,"}_{":1977,"Ġprom":1978,"Ġ25":1979,"org":1980,"Ġgovernment":1981,"ĠApp":1982,"Ġnet":1983,"mod":1984,"Ġprogram":1985,"ergy":1986,"Ġhist":1987,"Ġweek":1988,"Ġsum":1989,"âĪĴ":1990,"Ġemploy":1991,"ĠState":1992,"Ġcode":1993,"atory":1994,"ctor":1995,"ĊĠĠĠĠĠĠĠĠĠĠĠĠĠĠĠĠĠĠĠ":1996,"Ġprevious":1997,"ream":1998,"Se":1999,"44":2000,"etic":2001,"bar":2002,"Ġkeep":2003,"65":2004,"ns":2005,"If":2006,"ead":2007,"Ġjud":2008,"aut":2009,"Ġexpression":2010,"Ġhard":2011,"Ġindividual":2012,"Ġfeel":2013,"Ġden":2014,"Ġprovide":2015,"Ġpa":2016,"Ġcost":2017,"Id":2018,"Ġalways":2019,"88":2020,"itor":2021,"Type":2022,"Ġmain":2023,"AP":2024,"sel":2025,"Ġ)":2026,"inc":2027,"Ġpotential":2028,"Ġeither":2029,"ĠAd":2030,"ern":2031,"Ġsw":2032,"Ġknown":2033,"Ġcalled":2034,"Ġpriv":2035,"uro":2036,"RO":2037,"Ġrad":2038,"angle":2039,"Ġdiv":2040,"Ġ!":2041,"But":2042,"Ġsimilar":2043,"Ġschool":2044,"ĠThese":2045,"Ġpred":2046,"Ġcho":2047,"ours":2048,"iple":2049,"usion":2050,"ĠCourt":2051,"Ġuntil":2052,"Ġavailable":2053,"ĠUnited":2054,"Ġfamily":2055,"phi":2056,"Ġcomb":2057,"though":2058,"Ġwon":2059,"Ġgeneral":2060,"uck":2061,"lev":2062,"ception":2063,"itle":2064,"opt":2065,"ocial":2066,"Ġside":2067,"raw":2068,"Ġsingle":2069,"clude":2070,"Category":2071,"Ġvol":2072,"Ġfac":2073,"uff":2074,"ental":2075,"Ġben":2076,"LL":2077,"aligned":2078,"Ġteam":2079,"Ġdise":2080,"ĊĊĠĠĠĠĠĠĠ":2081,"Ġmeans":2082,"}$$":2083,"Ġaction":2084,"class":2085,"ĠRes":2086,"ready":2087,"oney":2088,"And":2089,"Ġlik":2090,"Ġspecific":2091,"yle":2092,"Ġproject":2093,"Ġ13":2094,"Ġphys":2095,"ĠFr":2096,"66":2097,"Ġvalues":2098,"Ġplan":2099,"Ġ%":2100,"var":2101,"oor":2102,"For":2103,"Ġcases":2104,"Ġable":2105,"ten":2106,"ison":2107,"Ġchildren":2108,"mit":2109,"Ġsequ":2110,"import":2111,"Ġmajor":2112,"Ġtimes":2113,"itted":2114,"98":2115,"Ġseveral":2116,"Ġmaterial":2117,"Ġcirc":2118,"pone":2119,"ĠCol":2120,"ourse":2121,"ries":2122,"roup":2123,"Ġorig":2124,"Ġhold":2125,"oper":2126,"Ġunderstand":2127,"String":2128,"iversity":2129,"osp":2130,"Ġder":2131,"cript":2132,"Ġsuper":2133,"Ġhigher":2134,"respon":2135,"Ġtre":2136,"usepackage":2137,"Ġkey":2138,"ĠThat":2139,"ember":2140,"ĠĠĠĠĠĠĠĠĠĠĠ":2141,"Ġ100":2142,"lambda":2143,"key":2144,"ressed":2145,"ĠSc":2146,"77":2147,"Ġarea":2148,"100":2149,"essage":2150,"Ġstudies":2151,"Ġabs":2152,"pped":2153,"Ġ>":2154,"indow":2155,"Ġtarget":2156,"Ġbody":2157,"'ve":2158,"rict":2159,"gment":2160,"ney":2161,"cle":2162,"ystem":2163,"http":2164,"this":2165,"iol":2166,"Ġmove":2167,"^{-":2168,"iting":2169,"ored":2170,"94":2171,"Ġ24":2172,"ET":2173,"><":2174,"ION":2175,"Ġfull":2176,"lected":2177,"span":2178,"Ġrate":2179,"Ġperiod":2180,"An":2181,"Ġwhy":2182,"sub":2183,"Ġerror":2184,"96":2185,"idd":2186,"_\\":2187,"conom":2188,"})":2189,"Ġtotal":2190,"Res":2191,"ĠÃ":2192,"Ċĉĉĉ":2193,"Ġstandard":2194,"mm":2195,"ences":2196,"mission":2197,"Ġenergy":2198,"Ċĉĉĉĉ":2199,"04":2200,"Ġbusiness":2201,"}^":2202,"97":2203,"ume":2204,"Ġneg":2205,"Tr":2206,"fficient":2207,"Ġaccess":2208,"eps":2209,"Ġexist":2210,"ustom":2211,"hy":2212,"Ġlater":2213,"rior":2214,"utes":2215,"rug":2216,"Ġlot":2217,"ering":2218,"ids":2219,"ling":2220,"ĠStates":2221,"Ġspace":2222,"Ġfar":2223,"Ġreview":2224,"Ġla":2225,"pm":2226,"ĠAr":2227,"iction":2228,"{{\\":2229,"empt":2230,"Ġsure":2231,"Ġdiff":2232,"string":2233,"Ġprim":2234,"ler":2235,"ift":2236,"time":2237,"Ġ`":2238,"ables":2239,"Ġalready":2240,"aintiff":2241,"Ġfinal":2242,"ged":2243,"Ġdidn":2244,"AD":2245,"ister":2246,"AM":2247,"ibility":2248,"Ġinvestig":2249,"Ġshort":2250,"ĠSp":2251,"55":2252,"Ġdiscuss":2253,"Ġcrit":2254,"ued":2255,"sw":2256,"Ġreported":2257,"ĠAt":2258,"Ġamong":2259,"verage":2260,"go":2261,"Ġassociated":2262,"ĠWhen":2263,"ayer":2264,"qrt":2265,"cription":2266,"Ġmass":2267,"Ġlevels":2268,"urs":2269,"outh":2270,"....":2271,"test":2272,"ĠCal":2273,"OU":2274,"Ġstrong":2275,"ape":2276,"alf":2277,"Ġthought":2278,"olution":2279,"aken":2280,"Ġpract":2281,"Ġresponse":2282,"Ġcertain":2283,"iving":2284,"Ġsent":2285,"FF":2286,"Ġmen":2287,"Ġalong":2288,"chan":2289,"viron":2290,"place":2291,"nces":2292,"ators":2293,"Ġinj":2294,"cd":2295,"Ġparamet":2296,"ivity":2297,"side":2298,"Ġamount":2299,"ava":2300,"////":2301,"31":2302,"Ġsubject":2303,"asing":2304,"Ġrequired":2305,"Ġdone":2306,"Ġwomen":2307,"uppose":2308,"ĠBl":2309,"'ll":2310,"mathbf":2311,"Ġaway":2312,"Ġsays":2313,"Ġexperim":2314,"../":2315,"Ġpercent":2316,"table":2317,"Ġfri":2318,"Ġissue":2319,"List":2320,"Ġ${\\":2321,"Ġpress":2322,"rist":2323,"return":2324,"Ġdom":2325,"sequ":2326,"rect":2327,"ograph":2328,"ey":2329,"Ġid":2330,"85":2331,"Ġdesign":2332,"II":2333,"Val":2334,"td":2335,"Ġoften":2336,"icy":2337,"Ġrequire":2338,"Ġlog":2339,"Ġterms":2340,"uation":2341,"Ġactivity":2342,"ilon":2343,"ogn":2344,"Cont":2345,"IG":2346,"ension":2347,"Ġ=>":2348,"rem":2349,"ands":2350,"Ġ50":2351,"amples":2352,"67":2353,"Ġdevelopment":2354,"ribution":2355,"Ġtell":2356,"ique":2357,"osis":2358,"Ġgroups":2359,"iver":2360,"Ġfore":2361,"Ġport":2362,"Ġhowever":2363,"Ġdr":2364,"orth":2365,"ĠCo":2366,"aster":2367,"Ġage":2368,"Ġwar":2369,"Ġthing":2370,"\")":2371,"Ġevent":2372,"Ġsens":2373,"Ġsuccess":2374,"Ġpolit":2375,"Ġcheck":2376,"lete":2377,"eb":2378,"-\\":2379,"ga":2380,"Ġvir":2381,"stit":2382,"ising":2383,"Ġsal":2384,"></":2385,"beta":2386,"Ġkind":2387,"Ġenough":2388,"Ġcourse":2389,"Ġenc":2390,"Ġaccount":2391,"Ġsat":2392,"acy":2393,"ched":2394,"arrow":2395,"Ġtold":2396,"Ġlower":2397,"fl":2398,"Ġrisk":2399,"ĠĠĠĠĠĠĠĠĠ":2400,"Ġthough":2401,"ources":2402,"ley":2403,"68":2404,"ohn":2405,"Ġcompared":2406,"Ġmicro":2407,"Ġeng":2408,"Ġcoun":2409,"Ġstring":2410,"ories":2411,"Ġfund":2412,"Ġrelations":2413,"----------------------------------------------------------------":2414,"Ġaff":2415,"Ġcou":2416,"date":2417,"ING":2418,"DE":2419,"Is":2420,"Ġbase":2421,"OT":2422,"Ġprovided":2423,"sigma":2424,"Ġmaking":2425,"Ġaccording":2426,"aces":2427,"omet":2428,"Ġinclude":2429,"ores":2430,"angu":2431,"ĠOr":2432,"Ġworking":2433,"Col":2434,"Ġvoid":2435,"Ġnecess":2436,"How":2437,"Ġupon":2438,"gin":2439,"Ġconditions":2440,"pecial":2441,"âĢ¦":2442,"order":2443,"Ġ([":2444,"Ġagree":2445,"Ġrole":2446,"Ġtext":2447,"Ġbit":2448,"Ġfood":2449,"na":2450,"ding":2451,"ival":2452,"AG":2453,"Ġresearch":2454,"ges":2455,"Ġauthor":2456,"Al":2457,"Ġsection":2458,"cret":2459,"Ġuser":2460,"]).":2461,"Ġincrease":2462,"Ġrange":2463,"uture":2464,"Ġeffects":2465,"47":2466,"Ġseen":2467,"ubl":2468,"Ġchanges":2469,"vironment":2470,"inter":2471,"code":2472,"ung":2473,"html":2474,"most":2475,"Ġdoesn":2476,"ache":2477,"Ġdou":2478,"Ġrespons":2479,"ibr":2480,"ession":2481,"ties":2482,"atures":2483,"ij":2484,"Ġ([@":2485,"02":2486,"Ġtax":2487,"Ġtoget":2488,"Ġdem":2489,"Ġtogether":2490,"iation":2491,"Ġbenef":2492,"Ġmil":2493,"ground":2494,"ĠâĢĺ":2495,"Ġsource":2496,"\\_":2497,"ĠRep":2498,"ee":2499,"Ġdetail":2500,"ĠÎ":2501,"Ġcompon":2502,"Ġprotein":2503,"Ġmoney":2504,"Ġproperty":2505,"Ġann":2506,"Ġcomput":2507,"Ġflu":2508,"Ġjob":2509,"Ġpast":2510,"medi":2511,"Ġcomplet":2512,"uit":2513,"Ġincreased":2514,"Ġbecome":2515,"Ġtalk":2516,"Ġimage":2517,"rodu":2518,"Ġfactors":2519,"Ġmor":2520,"artment":2521,"CC":2522,"Ġphot":2523,"www":2524,"head":2525,"Ġservice":2526,"Ġmechan":2527,"ians":2528,"Ġcannot":2529,"69":2530,"Ġobserved":2531,"Ġdri":2532,"08":2533,"Ġcomplex":2534,"rr":2535,"Ġrequest":2536,"Ġsepar":2537,"Ġconduct":2538,"Ġcountry":2539,"Ġlove":2540,"istic":2541,"bo":2542,"Ġparticip":2543,"\"}).":2544,"Ġbook":2545,"af":2546,"ĠUniversity":2547,"Ġfoc":2548,"uration":2549,"mp":2550,"value":2551,"rix":2552,"ev":2553,"bt":2554,"Ġlo":2555,"Ġmonths":2556,"Ġregard":2557,"ection":2558,"Ġcy":2559,"minist":2560,"ules":2561,"Ġdisease":2562,"Ġthird":2563,"ortun":2564,"anc":2565,"wh":2566,"Ġestabl":2567,"eq":2568,"On":2569,"Ġcult":2570,"Ġair":2571,"Ġmeasure":2572,"Ġmom":2573,"ruction":2574,"ĠÐ":2575,"Ġearly":2576,"Ġdoing":2577,"cted":2578,"log":2579,"Ġsocial":2580,"Ġinde":2581,"Ġep":2582,"Ġcreate":2583,"Ġestim":2584,"ĊĠĠĠĠĠĠĠĠĠĠĠĠĠĠĠĠĠĠĠĠĠĠĠĠĠĠĠĠĠĠĠĠ":2585,"mat":2586,"Data":2587,"roid":2588,"View":2589,"Ġmeet":2590,"umber":2591,"pper":2592,"unt":2593,"Ġnormal":2594,"icense":2595,"Ġfrequ":2596,"ependent":2597,"Ġeconom":2598,"78":2599,"Ġcalcul":2600,"Ġclear":2601,"Ġstructure":2602,"ĊĠĠĠĠĠĠ":2603,"Sh":2604,"Ġexc":2605,"Ġdefendant":2606,"Ġclin":2607,"file":2608,"No":2609,"App":2610,"ucle":2611,"Ġcontent":2612,"ĠGen":2613,"ĠSee":2614,"Ġspecial":2615,"Ġprior":2616,"Ġdescribed":2617,"Ġdeath":2618,"Ġbehav":2619,"mathrm":2620,"Ph":2621,"%)":2622,"ened":2623,"Ġprivate":2624,"Ġmultiple":2625,"off":2626,"sqrt":2627,"Ġviol":2628,"Ġactually":2629,"Ġpositive":2630,"mber":2631,"comm":2632,"icult":2633,"const":2634,"Ġpoints":2635,"Ġversion":2636,"Ġcompany":2637,"uf":2638,"ript":2639,"Ar":2640,"load":2641,"Ġseason":2642,"Ġwa":2643,"ĠCan":2644,"oms":2645,"inary":2646,"Ob":2647,"Ġdrug":2648,"Ġsignal":2649,"Ġacross":2650,"CH":2651,")*":2652,"ixed":2653,"Ġothers":2654,"Un":2655,"Ġquant":2656,"imum":2657,"ony":2658,"There":2659,"Ġconcer":2660,"ires":2661,"equ":2662,"ĠBe":2663,"ounds":2664,"Ġsurface":2665,"Ġrather":2666,"pec":2667,"Ġbreak":2668,"Ġonce":2669,"gamma":2670,"Ġmax":2671,"Ġinitial":2672,"Ġear":2673,"ening":2674,"ceed":2675,"ĠMr":2676,"Ġq":2677,"ĠĠĠĠĠĠĠĠĠĠ":2678,"bib":2679,"Ġcut":2680,"ĠAN":2681,"ĠFig":2682,"}{\\":2683,"irm":2684,"\");":2685,"posed":2686,"itch":2687,"Ġey":2688,"Ġlikely":2689,"AB":2690,"+\\":2691,"bit":2692,"Ġfive":2693,"Ġpick":2694,"OM":2695,"Ġred":2696,"ilde":2697,"Ġshows":2698,"Ġcorrespon":2699,"ogen":2700,"OS":2701,"Ġmillion":2702,"Ġperformed":2703,"Ġdam":2704,"Ġshowed":2705,"Ġbelow":2706,"Ġweight":2707,"ĠAmerican":2708,"ĠIN":2709,"sy":2710,"delta":2711,"Ġmembers":2712,"ĠAss":2713,"Ġmatter":2714,"Ġmarket":2715,"Ġfactor":2716,"Ġhouse":2717,"Ġdetect":2718,"Ġdemon":2719,"ried":2720,"Ġcame":2721,"arc":2722,"Ġsystems":2723,"ude":2724,"Ġapproach":2725,"Ġhtt":2726,"Ġeval":2727,"atter":2728,"Ġspect":2729,"rho":2730,"gree":2731,"ĠGod":2732,"Ġaffect":2733,"Ġfalse":2734,"Ġcause":2735,"ĠMay":2736,"Ġmus":2737,"09":2738,"no":2739,"Ġver":2740,"Ġobtained":2741,".)":2742,"Ġsite":2743,"ensity":2744,"cular":2745,"Ġbar":2746,"Ġtook":2747,"Ġmakes":2748,"year":2749,"obal":2750,"Ġ(*":2751,")(":2752,"86":2753,"07":2754,"ones":2755,"Ġvar":2756,"Ġnight":2757,"hing":2758,"idered":2759,"ama":2760,"raft":2761,"iter":2762,"lim":2763,"Ġvarious":2764,"Ġapplication":2765,"Ġever":2766,"onal":2767,"So":2768,"Ġcancer":2769,"Ġblood":2770,"uses":2771,"IM":2772,"Ġsoft":2773,"Ġexperience":2774,"ai":2775,"my":2776,"Ġscre":2777,"Ġmar":2778,"Ġwrit":2779,"Ġdecre":2780,"03":2781,"enc":2782,"Ġlimit":2783,"Ġdeal":2784,"anguage":2785,"'d":2786,"001":2787,"hold":2788,"Ġtemper":2789,"uild":2790,"Ġwhole":2791,"Ġtaken":2792,"Ġanti":2793,"Ġflow":2794,"Ġconsidered":2795,"Ġadded":2796,"Ġfuture":2797,"Ġ$(":2798,"Ġrelated":2799,"now":2800,"oph":2801,"abor":2802,"Ġclos":2803,"ĠOne":2804,"ager":2805,"rad":2806,"Ġoccur":2807,"ino":2808,"net":2809,"plement":2810,"Ġele":2811,"Ġyet":2812,"Ġconcent":2813,"^\\":2814,"illed":2815,"rec":2816,"Ġdefined":2817,"Ġaddress":2818,"Ġdemonstr":2819,"49":2820,"umn":2821,"Figure":2822,"Ġloss":2823,"ĠTe":2824,"ĠĠĠĠĠĠĠĠĠĠĠĠĠĠĠĠĠĠĠĠĠĠĠĠĠĠĠĠĠĠĠĠĠĠĠĠĠĠĠĠĠĠĠĠĠĠĠĠĠĠĠĠĠĠĠĠĠĠĠĠĠĠĠĠĠĠĠĠĠĠĠĠĠĠĠĠĠĠĠĠĠĠĠĠĠĠĠĠĠĠĠĠĠĠĠĠĠĠĠĠĠĠĠĠĠĠĠĠĠĠĠĠĠĠĠĠĠĠĠĠĠĠĠĠĠĠĠĠ":2825,"Ġblock":2826,"Ġparent":2827,"pping":2828,"Â°":2829,"Ġbelieve":2830,"big":2831,"rim":2832,"OP":2833,"87":2834,"Ġmut":2835,"ĠJohn":2836,"Ġnull":2837,"------------":2838,"Ġitem":2839,"aff":2840,"Ġhom":2841,"oll":2842,"Ġconsist":2843,"46":2844,"ĠThen":2845,"Ġrelationship":2846,"ĠWith":2847,"ero":2848,"iding":2849,"dis":2850,"partial":2851,"Ġsolution":2852,"wards":2853,"Ġcommunity":2854,"ĠAfter":2855,"see":2856,"$-":2857,"ply":2858,"57":2859,"lam":2860,"Ġstates":2861,"xim":2862,"Ġwent":2863,"Ġminutes":2864,"ÂłÂł":2865,"ĠCar":2866,"Ð¾":2867,"Ġsex":2868,"andom":2869,"Ġfra":2870,"ĠCent":2871,"42":2872,"Ġrat":2873,"xi":2874,"ĠChrist":2875,"ball":2876,"Ġdecision":2877,"ĠInt":2878,"leq":2879,"')":2880,"Im":2881,"Ġassess":2882,"ledge":2883,"Ġmind":2884,"size":2885,"Ġland":2886,"ĠĊ":2887,"chie":2888,"ĠPat":2889,"aged":2890,"Ġdifficult":2891,"Ġur":2892,"ulated":2893,"Ġmaint":2894,"ĠOb":2895,"rc":2896,"Ġdevice":2897,"Ġimmun":2898,"ober":2899,"Ġtrying":2900,"Ġincluded":2901,"~~":2902,"UT":2903,"Ãĥ":2904,"Ġcamp":2905,"pose":2906,"verse":2907,"Ġcross":2908,"Ġinhib":2909,"Ġdecl":2910,"ãĤ":2911,"Ġexam":2912,"Ġcard":2913,"Ġregion":2914,"Ġcontract":2915,"*,":2916,"atus":2917,"enn":2918,"Ġenvironment":2919,"SS":2920,"body":2921,"89":2922,"Ġhalf":2923,"Ġground":2924,"unc":2925,"ached":2926,"Ġtoday":2927,"theta":2928,"Ġrespectively":2929,"ideo":2930,"Ġface":2931,"util":2932,"inding":2933,"Ġtrad":2934,"ÂĤ":2935,"where":2936,"Ġclose":2937,"izing":2938,"Ġmagn":2939,"Ġcustom":2940,"Ġdefin":2941,"],[@":2942,"Ġappl":2943,"ĠAct":2944,"Ġreceived":2945,"Ġce":2946,"Ġ},":2947,"dro":2948,"itting":2949,"ĠMore":2950,"/*":2951,"IR":2952,"mitted":2953,"une":2954,"aging":2955,"ender":2956,"IL":2957,"Ġadditional":2958,"Ġentire":2959,"Ġintegr":2960,"omega":2961,"Ġtable":2962,"Ġchall":2963,"Ġcity":2964,"ternal":2965,"Ġsignificantly":2966,"Ġanything":2967,"CL":2968,"}}\\":2969,"mary":2970,"Ġpatient":2971,"Ġdat":2972,"lying":2973,"ribute":2974,"Ġfav":2975,"etition":2976,"Ġnetwork":2977,"Ġsix":2978,"Ġsimple":2979,"Ġill":2980,"odes":2981,"ike":2982,"lor":2983,"Ġsus":2984,"ĠÂ§":2985,"Ġaccept":2986,"Ġbound":2987,"position":2988,"ĠMy":2989,"wise":2990,"Ġdig":2991,"06":2992,"gl":2993,"Ġbring":2994,"43":2995,"Ġnat":2996,"Ġlink":2997,"reed":2998,"Ġcompl":2999,"Ġgrowth":3000,"uk":3001,"agement":3002,"istance":3003,"Ġneeds":3004,"Ġasked":3005,"hel":3006,"ocal":3007,"ederal":3008,"ensive":3009,"ĠMed":3010,"IP":3011,"AA":3012,"93":3013,"Ġgetting":3014,"Ġhistory":3015,"pecially":3016,"****************":3017,"Ġ\\\\":3018,"Ġpan":3019,"Ġtw":3020,"tau":3021,"ram":3022,"Ġlength":3023,"Ġwin":3024,"gress":3025,"Ġheart":3026,"Ġindu":3027,"apt":3028,"Ðµ":3029,"Ġlooking":3030,"Table":3031,"Ġnear":3032,"Ġimprove":3033,"aced":3034,"])":3035,"Ġroom":3036,"ĠMan":3037,"Ġattack":3038,"ops":3039,"Ġdifference":3040,"Get":3041,"Ġhref":3042,"miss":3043,"Ġmethods":3044,"include":3045,"Ġtum":3046,"nu":3047,"bf":3048,"Ġseries":3049,"++":3050,"UR":3051,"Ġparty":3052,"using":3053,"Ġcontact":3054,"orld":3055,"based":3056,"isf":3057,"Ġperformance":3058,"Ġexec":3059,"pre":3060,"ĠĠĠĠĠĠĠĠĠĠĠĠĠĠĠ":3061,"ication":3062,"ENT":3063,"uly":3064,"Ġpaper":3065,"but":3066,"ĠEng":3067,"Ġproblems":3068,"Ġvia":3069,"Ġplaintiff":3070,"ÃĹ":3071,"fully":3072,"Ġinput":3073,"ris":3074,"times":3075,"Ġthus":3076,"84":3077,"ĠBy":3078,"ĠSte":3079,"Ġmiss":3080,"Ġissues":3081,"Ġinvolved":3082,"Ġ...":3083,"92":3084,"Ġsubst":3085,"Ġ21":3086,"infty":3087,"Ġcorrect":3088,"Ġalmost":3089,"Â±":3090,"Ġpattern":3091,"IV":3092,")}":3093,"state":3094,"Ġadj":3095,"All":3096,"US":3097,"Ġnothing":3098,"Ġhours":3099,"56":3100,"à¤":3101,"Ġservices":3102,"Ġeff":3103,"Ġtherefore":3104,"Ġprevent":3105,"ief":3106,"OL":3107,"ĠDep":3108,"Ġneeded":3109,"Ġexpected":3110,"oo":3111,"Ãĳ":3112,"Ġeduc":3113,"Ð°":3114,"irl":3115,"ĠMc":3116,"Ġadminist":3117,"ĠMar":3118,"Ġassum":3119,"Wh":3120,"Ġworks":3121,"more":3122,"ĠCount":3123,"Ġheld":3124,"uments":3125,"box":3126,"iles":3127,"ĠĠĠĠĠĠĠĠĠĠĠĠ":3128,"anks":3129,"ilt":3130,"Value":3131,"ilities":3132,"rid":3133,"Ġpopulation":3134,"Ġinstead":3135,"Ġachie":3136,"Ġofficial":3137,"Ġfilm":3138,"Ġblack":3139,"comes":3140,"ynam":3141,"Ġemb":3142,"With":3143,"Ġansw":3144,"erc":3145,"Ġinflu":3146,"urope":3147,"čĊĠĠĠ":3148,"Ġhost":3149,"https":3150,"yz":3151,"Ġshall":3152,"width":3153,"EM":3154,"Ġattempt":3155,"When":3156,"lt":3157,"Ġbegin":3158,"gest":3159,"Ġrecent":3160,"Ġ$$":3161,"list":3162,"function":3163,"Ġlines":3164,"Ġseems":3165,"ĠDef":3166,"ĠMon":3167,"atively":3168,"Set":3169,"Ġang":3170,"Ġfall":3171,"ĠCor":3172,"Ġgene":3173,"like":3174,"76":3175,"Ġimplement":3176,"ales":3177,"itten":3178,"olve":3179,"ips":3180,"atal":3181,"come":3182,"Ġremov":3183,"PE":3184,"Ġidea":3185,"41":3186,"rs":3187,"Ġstep":3188,"Ġpolice":3189,"ii":3190,"Ġcoll":3191,"Ġstory":3192,"Ġmotion":3193,"ĠCont":3194,"with":3195,"Ġintrodu":3196,"That":3197,"Ġelement":3198,"TR":3199,"selves":3200,"By":3201,"));":3202,"ĠIm":3203,"Ġcomes":3204,"Ġstudents":3205,"![":3206,"Ġpubl":3207,"}$,":3208,"Ġ(-":3209,"ros":3210,"uth":3211,"ĠNot":3212,"Ġpredict":3213,"Ġproduction":3214,"Ġcolor":3215,"Ġ40":3216,"Ġbad":3217,"Ġquality":3218,"Ġtool":3219,"91":3220,"\";":3221,"En":3222,"Ġdisplay":3223,"Ġoutput":3224,"Ġsomeone":3225,"Ġ/*":3226,"lation":3227,"anced":3228,"Ġmodels":3229,"ĠTHE":3230,"word":3231,"Ġreve":3232,"des":3233,"px":3234,"ĠAm":3235,"ging":3236,"field":3237,"Ġlearn":3238,"rapy":3239,"Ġtaking":3240,"trans":3241,"Ġstarted":3242,"Ġpage":3243,"Ġdocument":3244,"ĠYork":3245,"Ġfig":3246,"Ġmedia":3247,"light":3248,"Ġprovides":3249,"ĠMin":3250,"Pl":3251,"Ġyoung":3252,"Ġload":3253,"ensure":3254,"Ġste":3255,"Int":3256,"Ġdistribution":3257,"Ġpolicy":3258,"Ġitself":3259,"Ġ22":3260,"RNA":3261,"Ġsearch":3262,"ĠPres":3263,"ster":3264,"ĠThus":3265,"Ġnecessary":3266,"ills":3267,"\\\\":3268,"rown":3269,"}$.":3270,"Ġrecogn":3271,"ulations":3272,"document":3273,"ying":3274,"ches":3275,"Ġindust":3276,"53":3277,"eks":3278,"ĠPol":3279,"unch":3280,"Ġ28":3281,"ĠDo":3282,"Ġnucle":3283,"Ġaverage":3284,"ĠĠĠĠĠĠĠĠĠĠĠĠĠ":3285,"aled":3286,"Ġlive":3287,"Ġproced":3288,"astic":3289,"down":3290,"^*":3291,"ospital":3292,"ites":3293,"Ġrights":3294,"Ġappear":3295,"Ġprobably":3296,"Ġ||":3297,"54":3298,"ĠTrump":3299,"ĠNational":3300,"define":3301,"Ġcompar":3302,"rror":3303,"Ġdiagn":3304,"Ġoriginal":3305,"utions":3306,"Ġfront":3307,"Ġdire":3308,"Ġclinical":3309,"ĊĠĠĠĠĠĠĠĠĠĠĠĠĠĠĠĠĠĠĠĠĠĠĠ":3310,"Ġess":3311,"Ġmoment":3312,"Delta":3313,"book":3314,"Ġalleg":3315,"Ġconfig":3316,"hem":3317,"elt":3318,"pri":3319,"Ġexact":3320,"param":3321,"Mod":3322,"Ġ27":3323,"Ġimpact":3324,"Ġpret":3325,"Ġfunctions":3326,"Ġâ":3327,"Ġsimply":3328,"Ġproducts":3329,"ccording":3330,"amed":3331,"ributed":3332,"ĠOF":3333,"Ġphase":3334,"Ġcorrel":3335,"Ġwalk":3336,"ecause":3337,"Ġespecially":3338,"error":3339,"Ġdim":3340,"osition":3341,"Ġindex":3342,"ĠEurope":3343,"iqu":3344,"Ġtemperature":3345,"eration":3346,"eter":3347,"ĠBo":3348,"Ġwords":3349,"hers":3350,"fr":3351,"clusion":3352,"|\\":3353,"comp":3354,"Ġsequence":3355,"overed":3356,"PS":3357,"Ġfoot":3358,"olic":3359,"istics":3360,"Ġsample":3361,"bb":3362,"Ġproperties":3363,"Ġcontext":3364,"su":3365,"83":3366,"ãĥ":3367,"Ġdest":3368,"Ġconv":3369,"Ġgra":3370,"Ġdepend":3371,"oke":3372,"augh":3373,"Ġformer":3374,"ĠMe":3375,"xy":3376,"Ġinstall":3377,"Ġvalid":3378,"point":3379,"ĠEn":3380,"Ġpersonal":3381,"Ġchem":3382,"Object":3383,"Ġeffort":3384,"Ġ!=":3385,"Ġassert":3386,"Ġprint":3387,"Text":3388,"actions":3389,"Ġcomplete":3390,"Ġderiv":3391,"ĠCity":3392,"inally":3393,"refore":3394,"ards":3395,"Ġsil":3396,"Ġdetermined":3397,"Ġpresence":3398,"arily":3399,"($":3400,"Ġmedical":3401,"Ġcopy":3402,"perty":3403,"iddle":3404,"Ġdistrict":3405,"Ġconsum":3406,"Ġ26":3407,"Ġstatic":3408,"Ġevents":3409,"quad":3410,"array":3411,"Ġmole":3412,"Ġgenes":3413,"Ġquick":3414,"Ġ23":3415,"Ġpoly":3416,"\\*":3417,"ili":3418,"Ġcred":3419,"ĠInc":3420,"Ġpolitical":3421,"Ġoutside":3422,"Ġpressure":3423,"ien":3424,"Ġsense":3425,"plit":3426,"Ġarray":3427,"inks":3428,"sl":3429,"ux":3430,"ymb":3431,"struct":3432,"Ġdate":3433,"ĠJan":3434,"Ġsatisf":3435,"Ġstrateg":3436,"Ġeffective":3437,"Ġtypes":3438,"ĠCD":3439,"Ġlack":3440,"Ġprimary":3441,"ran":3442,"ĠString":3443,"Ġlanguage":3444,"52":3445,"My":3446,"Ind":3447,"OD":3448,"ults":3449,"dom":3450,"Ġeverything":3451,"Ġcreat":3452,"Ġ&&":3453,"item":3454,"MS":3455,"File":3456,"Ġwrong":3457,"Ġremain":3458,"char":3459,"58":3460,"ronic":3461,"Ġphysical":3462,"path":3463,"ocr":3464,"Ġfeatures":3465,"ĠÂ±":3466,"Ġlonger":3467,"/>":3468,"../../":3469,"annel":3470,"do":3471,"cm":3472,"ana":3473,"]{},":3474,"Ġinside":3475,"Ġpain":3476,"Ġdetermine":3477,"Ġconstit":3478,"Ġselect":3479,"Ġpresented":3480,"Ġeasy":3481,"culate":3482,"bor":3483,"At":3484,"Ġjudgment":3485,"Ġnews":3486,"Ġquite":3487,"Ġidentified":3488,"Ġcreated":3489,"ĠPr":3490,"Ġmi":3491,"Ġstop":3492,"public":3493,"Ġacid":3494,"ese":3495,"ises":3496,"Ġrunning":3497,"sych":3498,"fra":3499,"icon":3500,"Ad":3501,"59":3502,"Ġincreasing":3503,"Ġsamples":3504,"ags":3505,"Ġbasis":3506,"ĠĠĠĠĠĠĠĠĠĠĠĠĠĠ":3507,"Ġrandom":3508,"ĠGe":3509,"aving":3510,"Âĥ":3511,"Ġsurv":3512,"Ġhyp":3513,"Ġstay":3514,"Ġwhite":3515,"Ġparameters":3516,"Ġevalu":3517,"Ġwanted":3518,"Ġhope":3519,"74":3520,"Ġtiss":3521,"sim":3522,"Ġstatus":3523,"Ġfollows":3524,"Ġund":3525,"Ġcontroll":3526,"Ed":3527,"Ġstatement":3528,"72":3529,"rast":3530,"rack":3531,"Ġmember":3532,"Item":3533,"81":3534,"ÑĤ":3535,"urch":3536,"Ġapproxim":3537,"Ġareas":3538,"Ġfire":3539,"ancial":3540,"82":3541,"Ġpack":3542,"}(\\":3543,"rite":3544,"Ġsem":3545,"ĠGu":3546,"Ġcontinu":3547,"Ġisn":3548,"79":3549,"Ġelements":3550,"print":3551,"ĠLicense":3552,"Ġframe":3553,"Ġweeks":3554,"Ġoil":3555,"ogle":3556,"51":3557,"asons":3558,"ĠPart":3559,"ĠQu":3560,"Ġdirectly":3561,"Ġ?":3562,"Ġpair":3563,"Ġsecur":3564,"Ġstra":3565,"Ġconstant":3566,"top":3567,"void":3568,"âĢĲ":3569,"ervice":3570,"Par":3571,"lier":3572,"Ġquestions":3573,"Ġago":3574,"sk":3575,"Ġrecomm":3576,"itary":3577,"ĠPar":3578,"CD":3579,"ottom":3580,"Ġfun":3581,"Not":3582,"dev":3583,"63":3584,"________":3585,"Ġmemory":3586,"EL":3587,"Ġprinc":3588,"lig":3589,"ha":3590,"Ġforce":3591,"``":3592,"rial":3593,"Ġnatural":3594,"Ġcry":3595,"Ġgames":3596,"acc":3597,"user":3598,"earch":3599,"ega":3600,"Ġtheory":3601,"isions":3602,"UN":3603,"erson":3604,"msg":3605,"fection":3606,"OC":3607,"ellant":3608,"Ġtraining":3609,"itation":3610,"Ġgrad":3611,"ocol":3612,"ĠPe":3613,"Ġstri":3614,"gn":3615,"Ã¡":3616,"Ġpie":3617,"Ġavoid":3618,"Ġsett":3619,"era":3620,"Ġ(\\[":3621,"Key":3622,"Ps":3623,"Ġknowledge":3624,"lementary":3625,"Qu":3626,"Ġtransfer":3627,"Ġopportun":3628,"TH":3629,"rangle":3630,"Ġgas":3631,"Ġcontinue":3632,"ially":3633,"ĠHar":3634,"ĠDr":3635,"ĠDNA":3636,"Ġextra":3637,"Ġple":3638,"ĠHis":3639,"hood":3640,"tilde":3641,"Ġbuilding":3642,"Ġbehind":3643,"plate":3644,"ĠSystem":3645,"73":3646,"met":3647,"het":3648,"clus":3649,"rote":3650,")$.":3651,"ously":3652,"Ġfem":3653,"Ġgreater":3654,"reet":3655,"Ġcontain":3656,"Ġapplied":3657,"Ġshare":3658,"Ġmis":3659,"iet":3660,"\\])":3661,"cell":3662,"Ġreplace":3663,"fs":3664,"Ġlimited":3665,"from":3666,"Ġvideo":3667,"rows":3668,"ferences":3669,"oma":3670,"ayout":3671,"Ġmice":3672,"Ġdefault":3673,"PL":3674,"lege":3675,"Ġrelease":3676,"map":3677,"Ġpreviously":3678,"ĠPresident":3679,"vere":3680,"Ġbehavior":3681,"ML":3682,"ĠSuppose":3683,"aves":3684,"Ġmap":3685,"Ġtitle":3686,"Ġincludes":3687,"Ġreduced":3688,"Ġsaw":3689,"Ġful":3690,"pite":3691,"term":3692,"oles":3693,"cdot":3694,"ague":3695,"ĠTherefore":3696,"Ġjo":3697,"SD":3698,"oat":3699,"\".":3700,"Ġvict":3701,"ula":3702,"roph":3703,"Ġability":3704,"Ġoption":3705,"Ġnational":3706,"script":3707,"ĠOur":3708,"max":3709,"mpt":3710,"Ġbur":3711,"71":3712,"Ġexpress":3713,"Ġveh":3714,"elling":3715,"BC":3716,"js":3717,"ĠIntern":3718,"Ġfriend":3719,"arning":3720,"De":3721,"ada":3722,"Ġmessage":3723,"ÃĤ":3724,"Ġstyle":3725,"Ġ60":3726,"Ġmach":3727,"Ġclaims":3728,"osure":3729,"isms":3730,"Ġdeveloped":3731,"imate":3732,"Ġarticle":3733,"Ġimmedi":3734,"rant":3735,"rief":3736,"Ġopin":3737,":**":3738,"Ġrev":3739,"apter":3740,"umb":3741,"ader":3742,"ĊĊĊ":3743,"Ġlayer":3744,"ĠAf":3745,"fered":3746,"osph":3747,"Ġfavor":3748,"Ð¸":3749,"Ġaccom":3750,"().":3751,"sm":3752,"ech":3753,"length":3754,"Ġimpl":3755,"Ġpresident":3756,"Ġhot":3757,"Or":3758,"Ġcompan":3759,"icles":3760,"Ġinvention":3761,"ĠId":3762,"ĠNe":3763,"orks":3764,"ners":3765,"Ġsoftware":3766,"psilon":3767,"iber":3768,".'":3769,"pen":3770,"ament":3771,"aches":3772,"ĠAP":3773,"Ġindependent":3774,"Ġwrite":3775,"Ġmother":3776,"Ġhttp":3777,"Ġprec":3778,"ĠFurther":3779,"kn":3780,"otic":3781,"Test":3782,"Ġnumbers":3783,"...\"":3784,"Ġplayers":3785,"ĠDist":3786,"Ġwritten":3787,"Ġappropri":3788,"Ġprotect":3789,"Ġmatch":3790,"Ġdouble":3791,"Ġautom":3792,"Ġword":3793,"Ġreference":3794,"och":3795,"Ġ2012":3796,"Ġantib":3797,"]^":3798,"62":3799,"Ġfollowed":3800,"ĠJust":3801,"ĠComp":3802,"Ġcoming":3803,"ĠSim":3804,"She":3805,"uary":3806,"Ġparticularly":3807,"aign":3808,"Def":3809,"ĠCounty":3810,"ĠDes":3811,"ethyl":3812,"ĠSouth":3813,"ĠSince":3814,"Ġcand":3815,"atives":3816,"ocation":3817,"ĠDem":3818,"IF":3819,"Ġslow":3820,")=":3821,"Ġleave":3822,"apan":3823,"čĊč":3824,"Ġactive":3825,"gor":3826,"Ġir":3827,"Ġobtain":3828,"Ġrefer":3829,"Ġsecurity":3830,"CA":3831,"ĠWhile":3832,"illi":3833,"EX":3834,"rupt":3835,"Ġ;":3836,"Ġprep":3837,"Ġbir":3838,"Ġclean":3839,"ĠRuss":3840,"urb":3841,"Ġforward":3842,"Ġnegative":3843,"Ġmention":3844,"Ġunit":3845,"ĠPa":3846,"Ġrepe":3847,"range":3848,"ĠST":3849,"iven":3850,"ishing":3851,"vention":3852,"Ġcorresponding":3853,"Ġconstruct":3854,"Ġ[*":3855,"Ġgirl":3856,"Ġwindow":3857,"supp":3858,"ĠOR":3859,"Ġlate":3860,"Ġnature":3861,"ĠNorth":3862,"Ġspecies":3863,"Ġusually":3864,"abase":3865,"fo":3866,"ĠPer":3867,"non":3868,"Add":3869,"hest":3870,"ĠReg":3871,"Ġvot":3872,"ä¸":3873,"Ġrule":3874,"ashing":3875,"Ġrates":3876,"Ġdifferences":3877,"MA":3878,"mega":3879,"Ġliving":3880,"Ġoffice":3881,"61":3882,"Ġaltern":3883,"Ġalthough":3884,"ĠHere":3885,"Ġanswer":3886,"Ġdynam":3887,"Ġ2013":3888,"Ġwhose":3889,"Ġorg":3890,"Ġnote":3891,"inated":3892,"Ġbox":3893,"Ġglobal":3894,"Ġpurch":3895,"Ġpractice":3896,"reng":3897,"ĠWorld":3898,"Ġoffer":3899,"Ġtried":3900,"ĠVal":3901,"levant":3902,"Ġargument":3903,"Ġbrain":3904,"SP":3905,"Ġetc":3906,"Ġanim":3907,"Ġregular":3908,"eline":3909,"Ġonline":3910,"Ġgrant":3911,"Ġinstance":3912,"Ġ2016":3913,"Ġwebs":3914,"atform":3915,"}}$":3916,"ĠAb":3917,"Ġpo":3918,"Ġcompet":3919,"group":3920,"isc":3921,"Ġgenerally":3922,"ils":3923,"Ġlost":3924,"oon":3925,"cast":3926,"Ġsle":3927,"ste":3928,"Ġrecently":3929,"ĠSm":3930,"psi":3931,"aries":3932,"ĠEd":3933,"Ġprot":3934,"itness":3935,"inate":3936,"erve":3937,"Ġaccur":3938,"ĠSome":3939,"Ġwall":3940,"ĠGo":3941,"encies":3942,"Le":3943,"Ġ2014":3944,"quest":3945,"Ġthemselves":3946,"urance":3947,"change":3948,"Suppose":3949,"Ġbackground":3950,"ĠPhys":3951,"Ġanyone":3952,"////////":3953,"pret":3954,"illing":3955,"Ġtakes":3956,"ener":3957,"Ġproposed":3958,"Ġcountries":3959,"link":3960,"Ġwatch":3961,"joy":3962,"Ġagreement":3963,"================================":3964,"vey":3965,"Ġge":3966,"Ġsort":3967,"Ġdriv":3968,"ees":3969,"Ġresid":3970,"ĠâĪĴ":3971,"Ġsaying":3972,"pat":3973,"ivil":3974,"pace":3975,"CE":3976,"Ġexcept":3977,"Ġdensity":3978,"Ġball":3979,"Ġstress":3980,"Ġ/>":3981,"Exception":3982,"ĠDav":3983,"resh":3984,"wide":3985,"Ġtreated":3986,"gorith":3987,"lin":3988,"Ġessential":3989,"orph":3990,"ĠII":3991,"py":3992,"ĠOct":3993,"*~":3994,"Des":3995,"ĠMarch":3996,"ĠFirst":3997,"rew":3998,"ned":3999,"Ġanalyz":4000,"vare":4001,"}=":4002,"Ġhimself":4003,"ĠHouse":4004,"Error":4005,"ming":4006,"Ġlegal":4007,"00000000":4008,"Ġrot":4009,"ĠIS":4010,"Ġsituation":4011,"ufact":4012,"Ġpurpose":4013,"Ġfederal":4014,"Ġhar":4015,"ĊĠĠĠĠĠĠĠĠĠĠĠĠĠ":4016,"^[@":4017,"((":4018,"pril":4019,"Ġenh":4020,"index":4021,"Ġcenter":4022,"Ġheav":4023,"anger":4024,"\"><":4025,"Ġ29":4026,"rightarrow":4027,"Ġbecame":4028,"ĠChina":4029,"Ġ2015":4030,"State":4031,"Ġrelative":4032,"ĠAmerica":4033,"epsilon":4034,"Ġfeed":4035,"Ġpretty":4036,"Ġspeed":4037,"ĠSch":4038,"ham":4039,"Ġdeep":4040,"Ġways":4041,"Ġcover":4042,"Ġdirection":4043,"Ġhydro":4044,"âĢĥ":4045,"Ġrele":4046,"bon":4047,"Ġfinancial":4048,"One":4049,"Time":4050,"ULL":4051,"uel":4052,"ï¼":4053,"igen":4054,"aily":4055,"Ġfailed":4056,"Ġserious":4057,"Ġfast":4058,"Ġpublished":4059,"ulate":4060,"ĠDepartment":4061,"ĠAust":4062,"Ġperfect":4063,"Ġrespond":4064,"Ġ);":4065,"Ġpict":4066,"acity":4067,"003":4068,"Ġvers":4069,"varepsilon":4070,"lib":4071,"Ġintern":4072,"Ġhighly":4073,"lock":4074,"\\].":4075,"Omega":4076,"ports":4077,"['":4078,"Ġwoman":4079,"Cal":4080,"Ġphen":4081,"Ġprice":4082,"Ġisol":4083,"Ġfindings":4084,"Man":4085,"ĠBar":4086,"Gamma":4087,"reme":4088,"sing":4089,"Ġallowed":4090,"pan":4091,"bi":4092,"Ġderivative":4093,"Ġsufficient":4094,"ĠAug":4095,"Ġselected":4096,"Ġcharge":4097,"ae":4098,"ait":4099,"ĠĊĠĠĠĠĠĠĠĠĠĠĠĠĠĠĠ":4100,"oding":4101,"Ġnode":4102,"Ġdegree":4103,"Ġcommit":4104,"aching":4105,"base":4106,"Ġoperation":4107,"rought":4108,"ĉĉĉĉ":4109,"uge":4110,"Ġcomponent":4111,"Ġstar":4112,"izes":4113,"Ġcomment":4114,"Ġcommand":4115,"Ġhor":4116,"ociety":4117,")$,":4118,"ournal":4119,"Ġstage":4120,"dim":4121,"Ġlarger":4122,"Ġdesigned":4123,"aur":4124,"Ġmeasured":4125,"Ġlabel":4126,"anch":4127,"Ġtradition":4128,"Ġgave":4129,"that":4130,"rael":4131,"Ġjury":4132,"###":4133,"ĠGerm":4134,"Ġsaf":4135,"Ġdetails":4136,"Ġgraph":4137,"init":4138,"mar":4139,"GF":4140,"ibrary":4141,"oud":4142,"argin":4143,"Ġindividuals":4144,"ĠSu":4145,"Ġsoon":4146,"PR":4147,"ĠGeneral":4148,"Ġcampaign":4149,"Ġidentify":4150,"Class":4151,"Ġdraw":4152,"oice":4153,"Ġimages":4154,"nb":4155,"Ġeveryone":4156,"ades":4157,"olds":4158,"Ġsubstant":4159,"orem":4160,"Ġcurrently":4161,"haps":4162,"Ġcaused":4163,"ĠAp":4164,"Ġfocus":4165,"Ġalone":4166,"Ġpsych":4167,"PA":4168,"Ġauth":4169,"Ġsqu":4170,"Ġque":4171,"Ġfriends":4172,"Ġlocation":4173,"Ġproteins":4174,"fn":4175,"oe":4176,"Ġwasn":4177,"omy":4178,"Ġ2011":4179,"Ġaud":4180,"ĠJune":4181,"ĠJapan":4182,"ĠNow":4183,"Ġvisit":4184,"};":4185,"Of":4186,"Ġgives":4187,"Ġrestr":4188,"BS":4189,"aling":4190,"Ġcomponents":4191,"Ġstreng":4192,"TT":4193,"Ġ[**":4194,"ĠAlthough":4195,"Ġeyes":4196,"den":4197,"Ġstim":4198,"Ġbank":4199,"Ġ2010":4200,"Ġfiles":4201,"orage":4202,"Ġmatrix":4203,"Ġprofess":4204,"ouch":4205,"ĠRepublic":4206,"Ġchoice":4207,"Ġround":4208,"fil":4209,"Ġscale":4210,"Ġrequires":4211,"oring":4212,"iated":4213,"ocks":4214,"Ġ:=":4215,"hern":4216,"zz":4217,"NS":4218,"exp":4219,"Ġattention":4220,"Ġroad":4221,"Ġfixed":4222,"Ġclust":4223,"operator":4224,"Ġproceed":4225,"New":4226,"ersion":4227,"section":4228,"Ġpromot":4229,"FL":4230,"Ġcompanies":4231,"estern":4232,"Ġfight":4233,"Ġbegan":4234,"Ġknew":4235,"Ġuseful":4236,"ius":4237,"hesis":4238,"aker":4239,"Ġhyper":4240,"call":4241,"ĠHealth":4242,"Ġsynt":4243,"iency":4244,"ze":4245,"ffer":4246,"Ġleading":4247,"Ġpull":4248,"Ġoptions":4249,"Ġled":4250,"Ġsuit":4251,"Ġ2017":4252,"Ġbal":4253,"Ġpoor":4254,"ĠSer":4255,"Ġ///":4256,"obile":4257,"semb":4258,"Ġfailure":4259,"(),":4260,"ÃĹÂ":4261,"---|":4262,"osing":4263,"Ġnotice":4264,"Ġ__":4265,"Ġmanagement":4266,"Ġcook":4267,"istry":4268,"Ġfrequency":4269,"itter":4270,"Ġusers":4271,"Ġdeb":4272,"EC":4273,"Ġthreat":4274,"Ġbed":4275,"ifically":4276,"Ġ->":4277,"active":4278,"coming":4279,"Ġord":4280,"reen":4281,"ography":4282,"ĠSen":4283,"Ġunique":4284,"ken":4285,"Ġ\"\"":4286,"Ġeducation":4287,"cap":4288,"ĠSept":4289,"rate":4290,"iring":4291,"Ġcandid":4292,"Ġratio":4293,"Ġtechnology":4294,"Path":4295,"}_{\\":4296,"irmed":4297,"Ġsche":4298,"orney":4299,"čĊĠ":4300,"Ġrecept":4301,"Ġcontains":4302,"tee":4303,"ĠWar":4304,"ride":4305,"vis":4306,"Ġemerg":4307,"Ġson":4308,"Sec":4309,"ellow":4310,"cil":4311,"Ġdivided":4312,".*":4313,"Ġcircum":4314,"Ġcompletely":4315,"omen":4316,"Ġprime":4317,"Ġten":4318,"Ġexerc":4319,"Ġgoal":4320,"Ġacqu":4321,"style":4322,"Ġcosts":4323,"Ġconnection":4324,"ĠTH":4325,"run":4326,"itude":4327,"ifier":4328,"!!":4329,"Ġsn":4330,"Sc":4331,"Ġlat":4332,"Ġparts":4333,"SC":4334,"Now":4335,"gu":4336,"Ġapply":4337,"Ġbuy":4338,"Do":4339,"Ġindustry":4340,"Ġparties":4341,"Ġcentral":4342,"ĠJanuary":4343,".[":4344,"Ġserver":4345,"True":4346,"Ġneigh":4347,"Ġenjoy":4348,"static":4349,"ĠApril":4350,"');":4351,"ube":4352,"known":4353,"UL":4354,"Ġappropriate":4355,"spec":4356,"Ġearlier":4357,"Ð¾Ð":4358,"ĠGl":4359,"Ġfair":4360,"Ġheat":4361,"Ġmulti":4362,"Ġmanufact":4363,"nes":4364,"ĠWest":4365,"Ġcyt":4366,"());":4367,"Ġinform":4368,"Ġfine":4369,"Ġexpressed":4370,"ĠJuly":4371,"Ġoverall":4372,"Ġ\\<":4373,"efore":4374,"Ġdistance":4375,"Ġpen":4376,"Ġtim":4377,"band":4378,"Ġaim":4379,"Ġsupported":4380,"Ġgenerated":4381,"ĠĠĠĠĠĠĠĠĠĠĠĠĠĠĠĠĠĠĠ":4382,"alt":4383,"varphi":4384,"Ġdead":4385,"Ġdefinition":4386,"Ġ----------------":4387,"^+":4388,"Ġestablished":4389,"Ġstated":4390,"Ġ31":4391,"Ġallows":4392,"Ġdog":4393,"Ġtrack":4394,"ancy":4395,"ĠTrans":4396,"Ġwidth":4397,"Ġdevices":4398,"OW":4399,"}.":4400,"Ġequal":4401,"Ġhospital":4402,"Ġbroad":4403,"Ġengine":4404,"lick":4405,"Ġ($":4406,"Ġeasily":4407,"Ġboard":4408,"Ġheight":4409,"ĠCir":4410,"From":4411,"They":4412,"ĠJud":4413,"Ġ<<":4414,"force":4415,"Ġimm":4416,"Ġsites":4417,"čĊĠĠĠĠĠĠĠ":4418,"ĠBrit":4419,"Ġcontaining":4420,"abled":4421,"Ġweb":4422,"Ġtown":4423,"Ġreasons":4424,"cember":4425,"\"/>":4426,"Ġfinding":4427,"enses":4428,"df":4429,"ãĢ":4430,"uted":4431,"MP":4432,"Form":4433,"Over":4434,"ĠMich":4435,"Ġ(\\":4436,"Ġhighest":4437,"Ġcapt":4438,"chi":4439,"Ġcritical":4440,"='":4441,"Ġlocated":4442,"Ġ32":4443,"Be":4444,"Ġparameter":4445,"Ġproduced":4446,"Supp":4447,"Ġactivities":4448,"Ġdiscl":4449,"Ġleaders":4450,"Ġeconomic":4451,"Ġtumor":4452,"Ġfather":4453,"eed":4454,"overn":4455,"ĠRed":4456,"ĠFeb":4457,"Ġstaff":4458,"urity":4459,"Ġfiled":4460,"Ġtrust":4461,"ĠStud":4462,"ĠIsrael":4463,"._":4464,")-":4465,"Ġreduce":4466,"ica":4467,"Ġrelevant":4468,"Ġworth":4469,"overy":4470,"mark":4471,"Ġones":4472,"ĠAg":4473,"bra":4474,"Ġclearly":4475,"yond":4476,"ĠMod":4477,"Ġactual":4478,"){#":4479,"Ġchalleng":4480,"vec":4481,"Ġconcept":4482,"DA":4483,"Ġauthors":4484,"Ġnames":4485,"Ġsympt":4486,"Ġmeaning":4487,"Ġfelt":4488,"Ġmode":4489,"iate":4490,"ÑĢ":4491,"ĠSw":4492,"Ġstore":4493,"}^{\\":4494,"ios":4495,"bin":4496,"Ġopinion":4497,"Ġvariable":4498,"Ġappeal":4499,"title":4500,"ymbol":4501,"hand":4502,"ails":4503,"Ġmys":4504,"Sim":4505,"ĠEl":4506,"Ġhit":4507,"king":4508,"ĠAND":4509,"pid":4510,"Ġax":4511,"Ġadjust":4512,"ytes":4513,"Ġplant":4514,"Ġles":4515,"SA":4516,"Ġwriting":4517,"Ġtravel":4518,"Ġliter":4519,"Context":4520,"*-":4521,"bre":4522,"Ġvs":4523,"ĠCons":4524,"Ġqual":4525,"ibly":4526,"Ġwebsite":4527,"Ġsound":4528,"oura":4529,"Size":4530,"\\'":4531,"config":4532,"Ġproof":4533,"Ġinjury":4534,"Ġchanged":4535,"Ġbrought":4536,"lish":4537,"odies":4538,"Ġdro":4539,"Ġhands":4540,"overline":4541,"Ġshowing":4542,"ĠĠĠĠĠĠĠĠĠĠĠĠĠĠĠĠĠ":4543,"Ġsmaller":4544,"002":4545,"ĠÃĲ":4546,"Ġreceive":4547,"color":4548,"related":4549,"Ġmid":4550,"';":4551,"ovember":4552,"Ġgoes":4553,"Ġdoor":4554,"Ġuses":4555,"ĠGet":4556,"cluded":4557,"Ġexperiments":4558,"fort":4559,"*.":4560,"Ġ2008":4561,"Ġlearning":4562,"Ġdark":4563,"Ġtransition":4564,"Ġcontrast":4565,"Ġappears":4566,"Ġrules":4567,"Ġhon":4568,"operatorname":4569,"font":4570,"Ġitems":4571,"langle":4572,"Ġ35":4573,"Ġelectro":4574,"Ġvector":4575,"Ġlooks":4576,"Ġbeyond":4577,"Ġheard":4578,"Ġmer":4579,"men":4580,"Ġeffic":4581,"Ġdu":4582,"Ġremains":4583,"Ġcomputer":4584,"Ġculture":4585,"ATE":4586,"ĠCong":4587,"arter":4588,"Ġcounsel":4589,"':":4590,"Ð½":4591,"Ġbuilt":4592,"Ġaw":4593,"Ġfat":4594,"ĠFrom":4595,"âĶ":4596,"Ġutil":4597,"Ġfa":4598,"Ġunderstanding":4599,"la":4600,"Ġhearing":4601,"Ġnumer":4602,"Ġrelig":4603,"Ġinterpret":4604,"ĠGr":4605,"Ġbeaut":4606,"ashington":4607,"Ġadvant":4608,"raz":4609,"Ġlooked":4610,"room":4611,"Ġroot":4612,"Ġturned":4613,"Ġalgorith":4614,"Ġsecret":4615,"attle":4616,"Ġcarry":4617,"rier":4618,"Ġworked":4619,"Ġinn":4620,"Ġtowards":4621,"ĠArt":4622,"Ġwonder":4623,"rence":4624,"opl":4625,"Ġsurpr":4626,"Ġmajority":4627,"ĠSy":4628,"ĠPublic":4629,"Ġtransport":4630,"Ġprefer":4631,"Ġextract":4632,"rum":4633,"Ġplease":4634,"Ġbinding":4635,"Ġregarding":4636,"works":4637,"inct":4638,"Ġvariables":4639,"Ġinternal":4640,"Ġproduce":4641,"Info":4642,"Ġdecided":4643,"Ñģ":4644,"utive":4645,"lamm":4646,"Ġskin":4647,"After":4648,"input":4649,"ille":4650,")).":4651,"Ġexists":4652,"Ġsomet":4653,"osite":4654,"Ġtherapy":4655,"Ġbenefits":4656,"Ġconnect":4657,"ights":4658,"Ġdrive":4659,"Ġfully":4660,"Ġlov":4661,"ĠDistrict":4662,"RA":4663,"Ġconcentration":4664,"Ġcontribut":4665,"\":\"":4666,"Ġtissue":4667,"grams":4668,"Ġcounter":4669,"Ġsubsequ":4670,"Ġbirth":4671,"Ġrepl":4672,"ĠAugust":4673,"Ġparents":4674,"Ġeight":4675,"Ġreports":4676,"Ġtask":4677,"Ġmilitary":4678,"Ġgun":4679,"Ġsold":4680,"Config":4681,"cules":4682,"Ġresulting":4683,"Ġcool":4684,"Ġ2009":4685,"Ġprogress":4686,"icted":4687,"Ġ^":4688,"Ġprop":4689,")^":4690,"rag":4691,"pective":4692,"ĠSchool":4693,"^{(":4694,"lo":4695,"oses":4696,"Ġexactly":4697,"oken":4698,"Ġcouple":4699,"Ġyield":4700,"irt":4701,"inst":4702,"Ġindicated":4703,"java":4704,"Ġvirt":4705,"ĠAccording":4706,"node":4707,"Ġinfection":4708,"ĠOctober":4709,"unk":4710,"Ġlinear":4711,")**":4712,"Ġsetting":4713,"Ġmedium":4714,"free":4715,"Ġwrote":4716,"======":4717,"eah":4718,"}}(":4719,"stream":4720,"Ġandroid":4721,"Ġinteresting":4722,"Ġmorning":4723,"Ġ/**":4724,"ĊĊĠĠĠĠĠĠĠĠĠĠĠ":4725,"iday":4726,"Ġox":4727,"asis":4728,"enge":4729,"geq":4730,"Ġmount":4731,"Ġmaterials":4732,"count":4733,"Ġreading":4734,"Ġvehicle":4735,"pol":4736,"Ġconsequ":4737,"Ġplayed":4738,"Ġfeature":4739,"ĠSeptember":4740,"\\<":4741,"gy":4742,"Ġscore":4743,"nbsp":4744,"Ġobvious":4745,"undred":4746,"Ġcam":4747,"ĠDecember":4748,"}}_":4749,"Ġsolid":4750,"Ġinterview":4751,"Ġmeeting":4752,"PC":4753,"Ġgets":4754,"db":4755,"ĠAfric":4756,"ares":4757,"Ġcolumn":4758,"Ġseparate":4759,"asm":4760,"Ġreasonable":4761,"material":4762,"itro":4763,"Ġdefine":4764,"icip":4765,"ĠLa":4766,"ford":4767,"athe":4768,"\\,":4769,"Ġreaction":4770,">>":4771,"ls":4772,"Ġ2018":4773,"iforn":4774,"Ġplayer":4775,"Ġconstruction":4776,"Ġfields":4777,"icit":4778,"ĠDemocr":4779,"Event":4780,"Ġapplications":4781,"Ġstarting":4782,"tered":4783,"Ġzero":4784,"Ġarrest":4785,"frak":4786,"Ġsec":4787,"ĠSub":4788,"Ġpul":4789,"ĠChar":4790,"adem":4791,"Ġmaximum":4792,"Ġthroughout":4793,"Ġliqu":4794,"ME":4795,"gs":4796,"ql":4797,"Ġparticipants":4798,"arest":4799,"ico":4800,"rab":4801,"anged":4802,"Ġvolume":4803,"Ġnoted":4804,"erate":4805,"Ġdamage":4806,"Ġprocesses":4807,"ĠData":4808,"ĠChe":4809,"Ġregions":4810,"Ġdomain":4811,"Ġformation":4812,"cos":4813,"Ġcollect":4814,"Ct":4815,"iences":4816,"Ġconnected":4817,"Ġclosed":4818,"case":4819,"Ġrob":4820,"Ġsafety":4821,"Ġfix":4822,"Ġlives":4823,"Ġinstit":4824,"start":4825,"Ġabsol":4826,"Ġnor":4827,"Ġbecomes":4828,"Ġformed":4829,"omic":4830,"ĠBecause":4831,"Ġarch":4832,"Ġfit":4833,"Exp":4834,"grad":4835,"Ġsources":4836,"Ġslight":4837,"erved":4838,"irit":4839,"Ġadministration":4840,"Ġaspect":4841,"true":4842,"Ġhear":4843,"Out":4844,"ruary":4845,"Ġlay":4846,"Ġsafe":4847,"Ġrevealed":4848,"Ġcoord":4849,"gery":4850,"Ġinternational":4851,"Ġstru":4852,"Ġinteraction":4853,"ĠÃĹ":4854,"Ġstd":4855,"------":4856,"Ġcit":4857,"ĠSection":4858,"ĠDet":4859,"Ġswe":4860,"]:":4861,"VER":4862,"Ġtransform":4863,"ida":4864,"Ġcollection":4865,"Ġotherwise":4866,"ESS":4867,"Ġbasic":4868,"Ġtests":4869,"ĠNovember":4870,"Ġreflect":4871,"cons":4872,"Ab":4873,"Ġlaws":4874,"HT":4875,"mail":4876,"was":4877,"Ġeth":4878,"urt":4879,"ifornia":4880,"Ġimmediately":4881,"info":4882,"Ġter":4883,"Ġmess":4884,"Ġequation":4885,"BA":4886,"Ġdemand":4887,"ĠMoreover":4888,"Ġpopular":4889,"RT":4890,"Ġscient":4891,"ameter":4892,"conne":4893,"otal":4894,"ĠCenter":4895,"wid":4896,"which":4897,"image":4898,"ĠIL":4899,"Ġign":4900,"Ġvictim":4901,"Ġreduction":4902,"Ġactions":4903,"Ġ80":4904,"Ġreleased":4905,"ĠUSA":4906,"atur":4907,"ĠSan":4908,"Ġthous":4909,"Ġhous":4910,"amin":4911,"pling":4912,"ĠWashington":4913,"ANT":4914,"Ġer":4915,"Ġopportunity":4916,"Ġtoward":4917,"cles":4918,"Sub":4919,"iance":4920,".\\":4921,"Ġpaid":4922,"Ġmort":4923,"Ġinfluence":4924,"ĠID":4925,"Ġmechanism":4926,"Ġgiving":4927,"ĠDis":4928,"EST":4929,"ĠOf":4930,"ĠCoun":4931,"CS":4932,"Ġremember":4933,"ĠHigh":4934,"Ġroll":4935,"']":4936,"Ġwide":4937,"bur":4938,"ounced":4939,"Ġ90":4940,"long":4941,"CP":4942,"ĠBr":4943,"ĠRec":4944,"board":4945,"Ġmetab":4946,"Ġconsistent":4947,"Ġcombination":4948,"imony":4949,"Ġfigure":4950,"Ġtesting":4951,"ĠPark":4952,"Ġsleep":4953,"ĠMark":4954,"sembly":4955,"Ġdefense":4956,"Ġult":4957,"Big":4958,"Ġspeak":4959,"php":4960,"Ġ]":4961,"Ġrelatively":4962,"ĠCommission":4963,"########":4964,"Ġwild":4965,"mathfrak":4966,"raint":4967,"Ġensure":4968,"Ġsometimes":4969,"ael":4970,"alle":4971,"Ġresources":4972,"CO":4973,"cin":4974,"Ġphosph":4975,"Ġresistance":4976,"Ġforms":4977,"Ġcapital":4978,"Ġmur":4979,"False":4980,"Ġphone":4981,"Ġyes":4982,"ctors":4983,"Ġquickly":4984,"Ġfunctional":4985,"Ġclient":4986,"zym":4987,"Ġaware":4988,"ĠAD":4989,"ĠAng":4990,"object":4991,"Ġmiddle":4992,"Ġthinking":4993,"tem":4994,"ĠPM":4995,"ny":4996,"Ġalleged":4997,"Ġchance":4998,"RI":4999,"iful":5000,"check":5001,"Node":5002,"Ġstrength":5003,"Ġspin":5004,"Ġ(**":5005,"âĶĢ":5006,"Ġmyself":5007,"enty":5008,"Ġprocedure":5009,"Ġgreen":5010,"ĠInst":5011,"Ġhappen":5012,"stitute":5013,"Ġplaying":5014,"Here":5015,"Ġmembr":5016,"[]":5017,"ĠTable":5018,"Ġnearly":5019,"Ġchoose":5020,"Ġremove":5021,"ĠTw":5022,"Ġportion":5023,"Ġswitch":5024,"Ġproviding":5025,"Ġmovement":5026,"Ġneut":5027,"Ġmoved":5028,"Ġenter":5029,"uffer":5030,"Ġdetected":5031,"ilies":5032,"ponent":5033,"Ġhappened":5034,"aste":5035,"Ġconducted":5036,"Ġdatabase":5037,"Ġbottom":5038,"Ġblog":5039,"Ġachieve":5040,"Ġ~":5041,"ĠNet":5042,"PD":5043,"Ġmoving":5044,"Ġlegis":5045,"Ġexisting":5046,"Ġcore":5047,"Ġstation":5048,"ooth":5049,"Ġobjects":5050,"pc":5051,"ky":5052,"poses":5053,"Ġmal":5054,"Ġestablish":5055,"[^":5056,"iform":5057,"Ġbrief":5058,"Ġmusic":5059,"ĠAustral":5060,"ĠObama":5061,"Ġcomplic":5062,"Ġready":5063,"Ġchannel":5064,"Ġcircumst":5065,"EE":5066,"Ġreach":5067,"eria":5068,"ĠList":5069,"Ġcommer":5070,"Ġhundred":5071,"iques":5072,"Ġequival":5073,"Map":5074,"Ġlif":5075,"Ġdaily":5076,"Ġsteps":5077,"ĊĊĠĠĠĠĠ":5078,"500":5079,"ensions":5080,"Ġcalculated":5081,"jection":5082,"Ġfacts":5083,"Ġcircuit":5084,"FA":5085,"Ġanalys":5086,"Inst":5087,"Ġincor":5088,"Ġfinally":5089,"Ġanimals":5090,"Index":5091,"ĠFl":5092,"lication":5093,"Ġconcentr":5094,"\\],":5095,"Ġindicate":5096,"iable":5097,"Oh":5098,"Ġyourself":5099,"Field":5100,"oto":5101,"Ġdemonstrated":5102,"ĠHol":5103,"endant":5104,"Ġnearest":5105,"Ġemail":5106,"Ġil":5107,"Fr":5108,"Ġexhib":5109,"ett":5110,"airs":5111,"level":5112,"pir":5113,"ĠĠĠĠĠĠĠĠĠĠĠĠĠĠĠĠĠĠ":5114,"encing":5115,"parent":5116,"Ġunits":5117,"%,":5118,"ĠAlso":5119,"ĠSec":5120,"ĠTex":5121,"())":5122,"flow":5123,"vest":5124,"Ġcomments":5125,"\"},":5126,"itors":5127,"omin":5128,"},\\":5129,"Ġprove":5130,"INT":5131,"thon":5132,"Ġupper":5133,"Ġcrim":5134,"Ġstatist":5135,"ĠNULL":5136,"######":5137,"Ġwave":5138,"ĠAdd":5139,"Ġregul":5140,"ĠAM":5141,"Ġband":5142,"ĠCalifornia":5143,"Ġtrade":5144,"Ġjur":5145,"atin":5146,"rome":5147,"Ġcapacity":5148,"can":5149,"Equ":5150,"Ġcarried":5151,"ĠRev":5152,"Up":5153,"Ġremoved":5154,"Ġpetition":5155,"uced":5156,"Ġdoc":5157,"soft":5158,"Ġplaced":5159,"ĠKing":5160,"Ġbacter":5161,"indows":5162,"Ġborder":5163,"Ġseven":5164,"Ġsend":5165,"CON":5166,"Ġprocessing":5167,"ĠLaw":5168,"ocket":5169,"under":5170,"rees":5171,"Ġpow":5172,"Trans":5173,"Ġfear":5174,"Ġstuff":5175,"Ġvariety":5176,"oz":5177,"Fl":5178,"Ġcivil":5179,"Ġ37":5180,"Ġblue":5181,"ĠHer":5182,"ui":5183,"Ġweak":5184,"Ġwitness":5185,"otype":5186,"Ġsets":5187,"---|---|":5188,"FT":5189,"Ġshape":5190,"ĠOther":5191,"Ġwife":5192,"ĠCO":5193,"aught":5194,"atever":5195,"Ġ45":5196,"ÃŃ":5197,"iers":5198,"igation":5199,"GL":5200,"ĠAT":5201,"Ġscreen":5202,"ĠFebruary":5203,"Ġoperator":5204,"Ġdistributed":5205,"Ġbenefit":5206,"Ġextrem":5207,"IB":5208,"ĠHam":5209,"*(":5210,"Ġpackage":5211,"stitution":5212,"Me":5213,"Ġselection":5214,"Ġcert":5215,"Ġmg":5216,"Ġ2007":5217,"urrent":5218,"Ã³":5219,"well":5220,"pected":5221,"Ġlabor":5222,"Ġsuggested":5223,"uty":5224,"umin":5225,"Ġrow":5226,"ĠEven":5227,"Ġpeak":5228,"Ġmachine":5229,"coh":5230,"olved":5231,"ipe":5232,"dered":5233,"acing":5234,"Ġonto":5235,"iment":5236,"ĠFigure":5237,"Ġtruth":5238,"Ġrecommend":5239,"\",\"":5240,"Ġnamed":5241,"Ġrace":5242,"LA":5243,",-":5244,"Ġprem":5245,"orb":5246,"]\\],":5247,"space":5248,"Ġapparent":5249,"roy":5250,"Ġprograms":5251,"Ġimag":5252,"num":5253,"circ":5254,"Ser":5255,"ĠAssoci":5256,"DS":5257,"apping":5258,"IA":5259,"Ġcomparison":5260,"Array":5261,"Code":5262,"Ġworkers":5263,"ĠPre":5264,"icity":5265,"Color":5266,"uman":5267,"othe":5268,"Ġhealthy":5269,"Ġconflic":5270,"/(-":5271,"Ġnation":5272,"Ġplatform":5273,"UM":5274,"Ġincreases":5275,"Log":5276,"ĠPal":5277,"atically":5278,"Ġlib":5279,"Hand":5280,"md":5281,"Ġmagnetic":5282,"Ġsen":5283,"ĠEuropean":5284,"Ġsusp":5285,"race":5286,"block":5287,"Ġexposure":5288,"elle":5289,"Ġnorm":5290,"rie":5291,"ĠAut":5292,"Ġmaybe":5293,"Ġpassed":5294,"Ġletters":5295,"omas":5296,"car":5297,"ĠWhite":5298,"content":5299,"open":5300,"cho":5301,"Ġplaces":5302,"Date":5303,"Ġresponsible":5304,"Ġvisual":5305,"PT":5306,"Ġmeasures":5307,"Ġ\\,":5308,"ĠIndia":5309,"Ġdiscussed":5310,"Ġreplacement":5311,"ithub":5312,"ensional":5313,"Ġupd":5314,"berg":5315,"ifying":5316,"Ġmag":5317,"Ġsave":5318,"Ġcorpor":5319,"Ġapproximately":5320,"Ġ95":5321,"ĠBro":5322,"build":5323,"aughter":5324,"Ġpicked":5325,"Ġbill":5326,"ondon":5327,"ĠCON":5328,"Ġhair":5329,"Ġletter":5330,"Ġcharacteristics":5331,"Ġbul":5332,"Ġincome":5333,"Î±":5334,"Ġmanner":5335,"kay":5336,"ĊĠĠĠĠĠĠĠĠĠĠĠĠĠĠĠĠĠĠĠĠĠĠĠĠĠĠĠ":5337,"ĠBoard":5338,"Ġjudge":5339,"Ġemot":5340,"Ġsymptoms":5341,"Ġ70":5342,"dot":5343,"core":5344,"Ġinsurance":5345,"/(":5346,"Ġupdate":5347,"pass":5348,"url":5349,"[\\":5350,"source":5351,"ĠFound":5352,"Ġfresh":5353,"Ġwid":5354,"di":5355,"Ġdrugs":5356,"omb":5357,"Ġstructures":5358,"za":5359,"ado":5360,"Ġfib":5361,"ruit":5362,"Ġadopt":5363,"Ġtalking":5364,"ĠResearch":5365,"ĠPaul":5366,"Ġbeginning":5367,"Ġarriv":5368,"ĠAc":5369,"ĠUK":5370,"Ġunc":5371,"Ġstraight":5372,"ĠInter":5373,"Reg":5374,"Ġhour":5375,"Ġcontinued":5376,"Att":5377,"Ġshot":5378,"Ġmodern":5379,"Ġpanel":5380,"roller":5381,"Ġnut":5382,"Ġunf":5383,"Ġdie":5384,"bm":5385,"Ġdiss":5386,"Ġmale":5387,"Ġtestimony":5388,"itis":5389,"Ġ36":5390,"Ġspread":5391,"Rec":5392,"Ġassume":5393,"normal":5394,"Ġactivation":5395,"Ġbud":5396,"asp":5397,"Ġri":5398,"Ġsevere":5399,"izer":5400,"Ġreturned":5401,"ara":5402,"ipp":5403,")/(-":5404,"Ġuns":5405,"Ġtour":5406,"Ġexperiment":5407,"Ġhappy":5408,"Ġadapt":5409,"Ġtend":5410,"Ġedge":5411,"Act":5412,"ĠĠĠĠĠĠĠĠĠĠĠĠĠĠĠĠĠĠĠĠ":5413,"reate":5414,"ĠFurthermore":5415,"*)":5416,"Ġut":5417,"Ġmit":5418,"ĠRNA":5419,"Ġdetection":5420,"Ġscen":5421,"004":5422,"Ġstock":5423,"Ġforeign":5424,"aa":5425,"Ġbab":5426,"ĠMus":5427,"Ġ});":5428,"Ġbillion":5429,"Ġtree":5430,"Ġnice":5431,"current":5432,"Ġinvestigation":5433,"PO":5434,"iled":5435,"ventional":5436,"Request":5437,"idden":5438,"create":5439,"api":5440,"Ġmac":5441,"''":5442,"Ġdelay":5443,"Yes":5444,"Ġchemical":5445,"Ġaward":5446,"oul":5447,"Ġexpand":5448,"*]{}":5449,"Ġthrow":5450,"Ġkids":5451,"Î²":5452,"Ġrout":5453,"ĠJe":5454,"host":5455,"Ġscript":5456,"ĠGovern":5457,"ĠAtt":5458,"ync":5459,"ĠDavid":5460,"Ġfilter":5461,"Ġ48":5462,"ART":5463,"Ġdescription":5464,"arr":5465,"Ġtherm":5466,"arian":5467,"ĠTest":5468,"ÂŃ":5469,"gar":5470,"ptr":5471,"orter":5472,"Ġ((":5473,"Ġclub":5474,"asion":5475,"ĠIll":5476,"ĠEnglish":5477,"Ġexercise":5478,"ĠMor":5479,"rench":5480,"post":5481,"EG":5482,"Image":5483,"istant":5484,"Count":5485,"untu":5486,"Ġexception":5487,"Ġneur":5488,"âĶĢâĶĢ":5489,"Ġrapid":5490,"ria":5491,"Ġsexual":5492,"Ġinterface":5493,"Dis":5494,"Ġshift":5495,"Ġspent":5496,"ĠTO":5497,"yst":5498,"Ġinsert":5499,"Ġspecifically":5500,"Ġdenied":5501,"ĠWilli":5502,"Ġchallenge":5503,"Ġplans":5504,"Ġsurgery":5505,"Ġsell":5506,"Ġfamilies":5507,"XX":5508,"abs":5509,"ĠCongress":5510,"Ġstrategy":5511,"Ġliquid":5512,"frame":5513,"Ġsolutions":5514,"CF":5515,"Ġalternative":5516,"Ġserve":5517,":\"":5518,"Ġshoot":5519,"xx":5520,"Ġtested":5521,"Ġcomplaint":5522,"going":5523,"Ġ2000":5524,"Ġwait":5525,"Ġrul":5526,"Model":5527,"Ġofficials":5528,"Ġcareer":5529,"ĠInternational":5530,"arant":5531,"ario":5532,"Ġcouldn":5533,"Ġsummary":5534,"Ġwants":5535,"Ġsto":5536,"Ġmentioned":5537,"âĢ¢":5538,"ALL":5539,"ĠOff":5540,"rav":5541,"Build":5542,"ldots":5543,"Ġelection":5544,"Ġtouch":5545,"Ġ2006":5546,"ignment":5547,"Ġarm":5548,"Ġnovel":5549,"Ġpark":5550,"icks":5551,"icial":5552,"iced":5553,"Ġprepared":5554,"Â¾":5555,"Ġnil":5556,"User":5557,"QL":5558,"çļ":5559,"rary":5560,"Ġ(!":5561,"orge":5562,"Ġclick":5563,"Ġleads":5564,"PP":5565,"Ġdespite":5566,"ĠPost":5567,"Ġoptim":5568,"Ġthick":5569,"abil":5570,"ellig":5571,"Ġmill":5572,"Ġstudent":5573,"Ġunless":5574,"rely":5575,"igration":5576,"Ġdebt":5577,"Ġhypot":5578,"Ġagent":5579,"Inter":5580,"olean":5581,"Ġfemale":5582,"Ġlip":5583,"Ġcycle":5584,"ota":5585,"mand":5586,"Ġstudied":5587,"Ġnone":5588,"Ġmodule":5589,"ipment":5590,"çļĦ":5591,"Ġkill":5592,"Ġimproved":5593,"Ġplate":5594,"Ġsup":5595,"Ġnuclear":5596,"Ġdiet":5597,"Ġtypically":5598,"Ġpush":5599,"Ġcombined":5600,"iders":5601,"AV":5602,"SH":5603,"%%":5604,"ingu":5605,"ptions":5606,"Ġexplain":5607,"Ġmetal":5608,"MO":5609,"ĠSupp":5610,"Ġeye":5611,"upreme":5612,"âĢ²":5613,"({\\":5614,"actory":5615,"cs":5616,"ĠYour":5617,"ĠDon":5618,"len":5619,"Ġexperimental":5620,"aser":5621,"Phi":5622,"Ġgrowing":5623,"itz":5624,"fected":5625,"Ġcontrols":5626,"Ġplus":5627,"Ġded":5628,"Ġentry":5629,"Ġcommunication":5630,"Ġ-->":5631,"Ġsuccessful":5632,"Ġminimum":5633,"Ġhop":5634,"Ġvote":5635,"Ġ(\"":5636,"ascular":5637,"Ġsurvival":5638,"itivity":5639,"enced":5640,"Ġune":5641,"iling":5642,"ano":5643,"ĠĠĠĠĠĠĠĠĠĠĠĠĠĠĠĠĠĠĠĠĠ":5644,"Ġcommercial":5645,"inese":5646,"Calculate":5647,"Ġconfirmed":5648,"Ġdanger":5649,"stract":5650,"Ġsubstr":5651,"005":5652,"ded":5653,"ĠAnt":5654,"ĠCH":5655,"idel":5656,"ĠIndian":5657,"Ġkilled":5658,"Âµ":5659,"à¸":5660,"ĠÎ¼":5661,"dict":5662,"produ":5663,"inner":5664,"Ġmolecular":5665,"Well":5666,"Ġguy":5667,"**)":5668,"Ġcircumstances":5669,"osen":5670,"Ġinduced":5671,"Ġsociety":5672,"ĊĊĉ":5673,"Ġpiece":5674,"Ġmotor":5675,"ĠDi":5676,"Ġperhaps":5677,"Ġhttps":5678,"ÂłÂłÂłÂł":5679,"Ġvac":5680,"Ġagreed":5681,"Ġmonitor":5682,"Ġdismiss":5683,"Ġ33":5684,"Ġencoura":5685,"Ġraised":5686,"Ġelectr":5687,"Ġoperations":5688,"ingly":5689,"Ġseed":5690,"anned":5691,"Ġanalyzed":5692,"ato":5693,"github":5694,"Ġprotocol":5695,"Ġprofessional":5696,"&\\":5697,"RS":5698,"inger":5699,"Ġillust":5700,"Ġreached":5701,"ban":5702,"Ġlinks":5703,"ĠTV":5704,"Ġsyn":5705,"Ġwhereas":5706,"Ġcalls":5707,"Ġaffected":5708,"Ġdied":5709,"Ġassociation":5710,"ĠBank":5711,"ĠCode":5712,"Ġtools":5713,"Ġfeet":5714,"Ġcru":5715,"ypes":5716,"otimes":5717,"Ġdrink":5718,"Ġemployees":5719,"racy":5720,"Ġofficer":5721,"Ġclasses":5722,"Ġhandle":5723,"kg":5724,"Ġcop":5725,"Ass":5726,"\"></":5727,"Ġminor":5728,"Ġmm":5729,"ĠMost":5730,"ĠRel":5731,"cher":5732,"rient":5733,"Ġcauses":5734,"Ġevolution":5735,"ferent":5736,"Ġsentence":5737,"izations":5738,"ading":5739,"Ġwouldn":5740,"Ġtrig":5741,"ĠNews":5742,"Ġprobability":5743,"oute":5744,"Ġsun":5745,"bolds":5746,"Ġtransl":5747,"Ġmedic":5748,"prime":5749,"Ġkept":5750,"ĠNote":5751,"Ġsurround":5752,".](":5753,"^âĪĴ":5754,"Ġ34":5755,"ĠNS":5756,"Ġefforts":5757,"Ġsrc":5758,"Ġmental":5759,"acters":5760,"Ġjava":5761,"Ġproport":5762,"Ġcollected":5763,"Group":5764,"cor":5765,"ialog":5766,"po":5767,"Ġefficient":5768,"actor":5769,"Ġtraditional":5770,"Ġoccurred":5771,"Ġhuge":5772,"Ġmix":5773,"BL":5774,"Ġgal":5775,"........":5776,"boldsymbol":5777,"Cs":5778,"ira":5779,"Ġcredit":5780,"asma":5781,"Ġtrou":5782,"Ġcast":5783,"Ġcatch":5784,"Ġconver":5785,"Ġprepar":5786,"0001":5787,"wood":5788,"Ġintroduced":5789,"Element":5790,"Ġrelation":5791,"Ġfaith":5792,"ĠPlaintiff":5793,"Ent":5794,"Can":5795,"Service":5796,"idem":5797,"Ġdiscussion":5798,"reedom":5799,"arth":5800,"subset":5801,"Ġsuggests":5802,"Ġbehavi":5803,"Why":5804,"ĠSuper":5805,"write":5806,"nam":5807,"ĠNOT":5808,"Ġsust":5809,"opyright":5810,"Ġestimated":5811,"mem":5812,"Ġcertainly":5813,"local":5814,"Ġenzym":5815,"ĠSet":5816,"Ġexplained":5817,"Ġstorage":5818,"Ġtechniques":5819,"Ġkid":5820,"ĠLondon":5821,"Ġhistor":5822,"Ġlock":5823,"Ġcorrelation":5824,"Ġdiagnosis":5825,"ulf":5826,"resents":5827,"Ġimplic":5828,"Ġstatute":5829,"Lambda":5830,"pa":5831,"ometry":5832,"Ġelectric":5833,"Ġremaining":5834,"ca":5835,"Ġmovie":5836,"Ġprotection":5837,"Ġchrom":5838,"assert":5839,"Ġadvantage":5840,"Ġgone":5841,"Ġappellant":5842,"uate":5843,"page":5844,"ka":5845,"KE":5846,"Ġbeautiful":5847,"Sigma":5848,"Ġinflamm":5849,"cohol":5850,"Ġforces":5851,"appa":5852,"Ġcardi":5853,"Ġcriminal":5854,"Ġalgorithm":5855,"iny":5856,"Ġkin":5857,"Ġchain":5858,"Ġmist":5859,"ographic":5860,"ĠGroup":5861,"CM":5862,"Ġbuffer":5863,"Ġrequirements":5864,"Ġ2005":5865,"Ġprosec":5866,"Per":5867,"Ġbiggest":5868,"{{":5869,"Ġvoice":5870,"Ġoccup":5871,"Ġpros":5872,"}}_{":5873,"BI":5874,"dir":5875,"Message":5876,"itled":5877,"While":5878,"Our":5879,"tage":5880,"Rep":5881,"ship":5882,"doc":5883,"ĠBen":5884,"opic":5885,"inity":5886,"Ġabsence":5887,"Ġguess":5888,"Ġrecords":5889,"/**":5890,"\\|":5891,"Ġformat":5892,"ĠEm":5893,"isation":5894,"Ġgeneration":5895,".$$":5896,"Ġpun":5897,"Ġtal":5898,"ivery":5899,"Ġfootball":5900,"model":5901,"Ġpicture":5902,"Ġolder":5903,"Ġorganization":5904,"Ġresponses":5905,"Ġdoll":5906,"Ġmissing":5907,"Ġserved":5908,"what":5909,"Ġtempor":5910,"Ġwhom":5911,"Ġcitiz":5912,"ĠEach":5913,"DR":5914,"Ġadding":5915,"Method":5916,"ĠEast":5917,"acebook":5918,"Ġoffers":5919,"Ġoptical":5920,"Ġbreast":5921,"Ġquantum":5922,"Ġfloor":5923,"reshold":5924,")?":5925,"Ġderived":5926,"Ġeat":5927,"rivate":5928,"Ġcreating":5929,"Ġmanif":5930,"Ġvan":5931,"greg":5932,"Ġbrother":5933,"ymph":5934,"ĠTexas":5935,"Ġscience":5936,"Ġpolic":5937,"Ġsubjects":5938,"čĊĉ":5939,"Ġpurposes":5940,"Ġ42":5941,"Bl":5942,"Ġ()":5943,"osc":5944,"src":5945,"BU":5946,"Ġvert":5947,"Ġeconomy":5948,"$(":5949,"Ġexternal":5950,"Ġanimal":5951,"ĠBlack":5952,"ĠĠĠĠĠĠĠĠĠĠĠĠĠĠĠĠĠĠĠĠĠĠĠ":5953,"Ġstream":5954,"det":5955,"older":5956,"ologies":5957,"Ġideas":5958,"how":5959,"Ġintended":5960,"}-":5961,"Ġschools":5962,"------------------------------------------------":5963,"istan":5964,"unday":5965,"allel":5966,"CI":5967,"sf":5968,"anging":5969,"Ġauto":5970,"AND":5971,"Ġdrop":5972,"Ġproperly":5973,"mmet":5974,"Fil":5975,"cknow":5976,"Ġrepresents":5977,"icrosoft":5978,"induced":5979,"Ġresolution":5980,"nel":5981,"Ġextent":5982,"First":5983,"SI":5984,"default":5985,"Ġjoint":5986,"Ġglass":5987,"sole":5988,"ĠBritish":5989,"Ġpool":5990,"Ġdecreased":5991,"Ġdirector":5992,"Ġthank":5993,"itory":5994,"Ġradio":5995,"Ġsymmet":5996,"mbox":5997,"Ġsummer":5998,"Pre":5999,"Ġcoe":6000,"Ġconvers":6001,"ĠOh":6002,"NT":6003,"specific":6004,"result":6005,"icians":6006,"Ġ38":6007,"Ġthread":6008,"Ġbelong":6009,"zon":6010,"Ġcomfort":6011,"Ġauthority":6012,"ĠSupreme":6013,"Ġmechanisms":6014,"nonumber":6015,"eturn":6016,"ĠEv":6017,"Ġprotected":6018,"Ġearn":6019,"Ġvirus":6020,"Ġdistinct":6021,"ĠJew":6022,"Ġlargest":6023,"Â»":6024,"Ġsav":6025,"ORT":6026,"Ġsymb":6027,"ya":6028,"Ġattorney":6029,"Ġexperien":6030,"Ġfeeling":6031,"Ġgrand":6032,"orry":6033,"esis":6034,"while":6035,"Ġarbit":6036,"MT":6037,"Sp":6038,"iat":6039,"Ġcommunic":6040,"Ġinterests":6041,"(&":6042,"Comp":6043,"Ġteams":6044,"Pr":6045,"ensuremath":6046,"Aut":6047,"Ġtechnique":6048,"Ġmembrane":6049,"/\\":6050,"Ġofficers":6051,"Ġregist":6052,"Co":6053,"sens":6054,"ĠJack":6055,"FI":6056,"Ġcrime":6057,"However":6058,"ĠGoogle":6059,"_.":6060,"Ġcontained":6061,"aud":6062,"rian":6063,"Ġteac":6064,"Ġrac":6065,"ĠSur":6066,"Ġslightly":6067,"Ġcat":6068,"typ":6069,"Ġdry":6070,"Ġempt":6071,"idge":6072,"Ġloop":6073,"Ġvel":6074,"ĠOver":6075,"Ġfirm":6076,"poss":6077,"Ġgold":6078,"rd":6079,"Ġsales":6080,"Box":6081,"cks":6082,"uesday":6083,"Ġstrugg":6084,"UE":6085,"Ġdriver":6086,"Ġshared":6087,"Ġvent":6088,"Ġguys":6089,"Ġbool":6090,"CG":6091,"utor":6092,"Ġsitu":6093,"Ġcharged":6094,"onic":6095,"jo":6096,"valid":6097,"Ġopening":6098,"pack":6099,"func":6100,"Che":6101,"Ġcharacters":6102,"etes":6103,"ĠAny":6104,"ago":6105,"}}}":6106,"last":6107,"Ġdoubt":6108,"Ġlatest":6109,"olar":6110,"Ġerrors":6111,"inte":6112,"orders":6113,"Ġprojects":6114,"ugin":6115,"Ġrise":6116,"ĠRem":6117,"ĠChinese":6118,"********************************":6119,"ĠAL":6120,"Ġoffered":6121,"Ġepis":6122,"MR":6123,"Ġconventional":6124,"Ġhus":6125,"Ġprison":6126,"Â·":6127,".[@":6128,"ilarly":6129,"Ġholding":6130,"ĠDan":6131,"Ġcoverage":6132,"**]{},":6133,"Ġdra":6134,"Ġannounced":6135,"ouble":6136,"Line":6137,"rich":6138,"Ġkit":6139,"oman":6140,"Ġneighbor":6141,"ĠStreet":6142,"ĠCanada":6143,"ĠFoundation":6144,"Ġhol":6145,"Ġexchange":6146,"ĠEq":6147,"ĠTwo":6148,"hetic":6149,"âĢĿ.":6150,"Ġdescribe":6151,"ĠRE":6152,"Ġentered":6153,"Ġconserv":6154,"Ġweap":6155,"Ġgain":6156,"Property":6157,"ĠDE":6158,"Ġagents":6159,"Ġinteractions":6160,"Ġinvolve":6161,"Ġring":6162,"draw":6163,"just":6164,"ĠFriday":6165,"venue":6166,"ATION":6167,"Ġsupply":6168,"illa":6169,"}}{":6170,"plify":6171,"ename":6172,"SU":6173,"Ġrank":6174,"anges":6175,"Ġdecrease":6176,"ariant":6177,"care":6178,"mic":6179,"ĠCirc":6180,"ĠGreen":6181,"ĠClass":6182,"ĠRober":6183,"System":6184,"ĠĠĠĠĠĠĠĠĠĠĠĠĠĠĠĠĠĠĠĠĠĠ":6185,"Ġexpert":6186,"ĠCa":6187,"Ġagency":6188,"xml":6189,"Ġanalyses":6190,"See":6191,"riage":6192,"Ġdose":6193,"Ste":6194,"Ġprofile":6195,"ĠCalculate":6196,"Ġcryst":6197,"Ġconcentrations":6198,"abla":6199,"Ġrepeated":6200,"Ġcomposition":6201,"({":6202,"Ġwish":6203,"kin":6204,"Ġsmooth":6205,"ĠCommun":6206,"hi":6207,"ĠCouncil":6208,"ĠPeople":6209,"Ġwind":6210,"Ġoutcome":6211,"Some":6212,"Ġviews":6213,"iler":6214,"ructions":6215,"OG":6216,"\").":6217,"ĠJames":6218,"summary":6219,"ĠDirect":6220,"âĢĬ":6221,"Â½":6222,"Ġowners":6223,"Ġreceptor":6224,"chen":6225,"lif":6226,"Ġneuro":6227,"Ġgenetic":6228,"ĊĊĊĊ":6229,"ansion":6230,"Ġquarter":6231,"čĊĠĠĠĠĠĠĠĠĠĠĠ":6232,"ĠSuch":6233,"Ġexistence":6234,"query":6235,"Ġpossibility":6236,"Ġcold":6237,"ĠFe":6238,"Call":6239,"Ġplants":6240,"Ġ\"[":6241,"Ġelim":6242,"Ġoperating":6243,"ponse":6244,"Source":6245,"ainer":6246,"Ġ+=":6247,"Ġelectron":6248,"Ġcompleted":6249,"Ġdriving":6250,"pled":6251,"Ref":6252,"ĠArm":6253,"Ġtrend":6254,"Ġreturns":6255,"onald":6256,"ĠRich":6257,"Ġcir":6258,"Ġpatterns":6259,"ĠUnder":6260,"Ġstars":6261,"Ġinteger":6262,"Ġsignals":6263,"Ġaren":6264,"mittee":6265,"Ġwhatever":6266,"asks":6267,"ini":6268,"ĠFOR":6269,"Ġ2004":6270,"ville":6271,"Ġidentity":6272,"Ġheavy":6273,"oted":6274,"ĠCA":6275,"OUT":6276,"child":6277,"ĠĠĠĠĠĠĠĠĠĠĠĠĠĠĠĠĠĠĠĠĠĠĠĠĠĠĠĠĠĠĠĠĠĠĠĠĠĠĠĠĠĠĠĠĠĠĠĠĠĠĠĠĠĠĠĠ":6278,"Ġdiseases":6279,"tes":6280,"Ġinterested":6281,"Ġgenerate":6282,"==========":6283,"Ġ--------":6284,"reated":6285,"ĠWed":6286,"asc":6287,"pg":6288,"ITH":6289,"oom":6290,"Ġlit":6291,"Ġstable":6292,"itect":6293,"Ġfinite":6294,"Î¼":6295,"Ġ${":6296,"arp":6297,"Ġbutton":6298,"Ġmeant":6299,"RL":6300,"Ġpeace":6301,"Ġequivalent":6302,"Ġquery":6303,"Ġappeared":6304,"Ġ};":6305,"Ġequipment":6306,"Ġindicates":6307,"cence":6308,"Ġimportance":6309,"ĠService":6310,"Ġboy":6311,"property":6312,"ĠMonday":6313,"you":6314,"Ġspectrum":6315,"Ġconfirm":6316,"Ġwel":6317,"rated":6318,"Ġcontrolled":6319,"Ġmobile":6320,"kappa":6321,"ĠTra":6322,"Ġcarbon":6323,"widet":6324,"Ġholds":6325,"ĠMart":6326,"widetilde":6327,"nabla":6328,"Ġconclusion":6329,"ĠKe":6330,"Ġsequences":6331,"Ġincorpor":6332,"ĠAddition":6333,"dt":6334,"Ġconvert":6335,"ĠBoth":6336,"amily":6337,"Ġruns":6338,"sem":6339,"Ġdiag":6340,"ba":6341,"ĠWestern":6342,"dots":6343,"Ġjuris":6344,"ĠWell":6345,"Ġconfiguration":6346,"Ġnan":6347,"ĠPD":6348,"Ġhappens":6349,"after":6350,"ITY":6351,"Ġparticles":6352,"PH":6353,"Ġpregn":6354,"Ġ2019":6355,"inn":6356,"PI":6357,"main":6358,"Ġbra":6359,"Ġsecondary":6360,"Ġdefendants":6361,"Ġreality":6362,"xture":6363,"Ġmouse":6364,"Ġtox":6365,"})$":6366,"jected":6367,"ilit":6368,"Manager":6369,"]),":6370,"ĠOut":6371,"ursday":6372,".</":6373,"amine":6374,"iveness":6375,"web":6376,"Ġmaintain":6377,"ï¼Į":6378,"Click":6379,"Ġpy":6380,"Ġsuff":6381,"Ġcatal":6382,"Ġreferred":6383,"gebra":6384,"Ġapprec":6385,"Ġmeasurements":6386,"Ġdigital":6387,"ERT":6388,"Ġbow":6389,"nesday":6390,"Ġinstr":6391,"ancing":6392,"ĠIns":6393,"Ġsurvey":6394,"ilos":6395,"cluding":6396,"Ġsession":6397,"Ġ------------":6398,"Any":6399,"Ġtrain":6400,"Ġcontinuous":6401,"uries":6402,"ĠInstitute":6403,"ston":6404,"Ð°Ð":6405,"eless":6406,"][":6407,"Ċĉĉĉĉĉ":6408,"Ġseemed":6409,"Ġflex":6410,"faces":6411,"select":6412,"Ġcompens":6413,"Ġdeveloping":6414,"eric":6415,"crete":6416,"101":6417,"ND":6418,"Ġstatements":6419,"istent":6420,"ĠTechn":6421,"Ġdisp":6422,"Ġnoise":6423,"ĠDay":6424,"Ġing":6425,"Ġburn":6426,"Ġlibrary":6427,"false":6428,"NE":6429,"Ġ500":6430,"Ġfarm":6431,"raction":6432,"Ġalcohol":6433,"Ġpure":6434,"ridge":6435,"hal":6436,"othing":6437,"icated":6438,"ĠSecond":6439,"Ġspirit":6440,"inder":6441,"ĠAir":6442,"2015":6443,"has":6444,"Ġattract":6445,"!--":6446,"TO":6447,"Ġdownload":6448,"look":6449,"ĠYes":6450,"height":6451,"Ġchronic":6452,"antly":6453,"ĠSmith":6454,"abilities":6455,"Ġcateg":6456,"Ġbalance":6457,"Ġremainder":6458,"Ġrepresentation":6459,"ĠAS":6460,"Ġexcess":6461,"Pe":6462,"ĠJes":6463,"ĠDel":6464,"ady":6465,"rape":6466,"Ġenvironmental":6467,"Ġjobs":6468,"rig":6469,"ĠMal":6470,"Ġexcell":6471,"ĠCompany":6472,"Ġcollege":6473,"Ġapproved":6474,"ĠAre":6475,"orrow":6476,"Ġdiab":6477,"ocity":6478,"Ġcele":6479,"}+":6480,"aming":6481,"omorph":6482,"ĠMet":6483,"ĠEvery":6484,"ĠFacebook":6485,"Ġlatter":6486,"Ġissued":6487,"Ġsho":6488,"Ġliver":6489,"CK":6490,"Ġhighlight":6491,"Ġborn":6492,"Ġsquare":6493,"Ġextremely":6494,"ows":6495,"ĠItal":6496,"Ġspeech":6497,"ln":6498,"Ġknows":6499,"win":6500,"Ġempty":6501,"Ġwarrant":6502,"ĠMichael":6503,"Ġhab":6504,"Ġspot":6505,"ĠSunday":6506,"Ġestimate":6507,"End":6508,"MI":6509,"Ġexamples":6510,"Ġpartners":6511,"Ġorigin":6512,"aneous":6513,"Ġleader":6514,"Ġabuse":6515,"Ġcovered":6516,"Ġcharges":6517,"Ġtransmission":6518,"ĠKore":6519,"Ġlung":6520,"ĠPort":6521,"ĠPress":6522,")/(":6523,"sey":6524,"Ġserum":6525,"ĠBig":6526,"Ġahead":6527,"Ġexplicit":6528,"Ġregulation":6529,"alysis":6530,"Ġliterature":6531,"lem":6532,"ĠMac":6533,"ĠFlor":6534,"ensor":6535,"Ġstre":6536,"house":6537,"ailed":6538,"ki":6539,"Ġsubstantial":6540,")[":6541,"Ġsigned":6542,"Ġopened":6543,"Ġhusband":6544,"apache":6545,"Ġimplementation":6546,"Ġterror":6547,"ĠWhy":6548,"ias":6549,"Ġscene":6550,"Ġfluid":6551,"Ġcustomers":6552,"asure":6553,"stein":6554,"ĠMat":6555,"rl":6556,"ogene":6557,"Ġchurch":6558,"ror":6559,"Ġformula":6560,"Ġvill":6561,"ĊĊĠĠĠĠĠĠ":6562,"Ġoccurs":6563,"ytic":6564,"ĠTheorem":6565,"Don":6566,"Ġplasma":6567,"Ġintent":6568,"ĠChristian":6569,"Ġwood":6570,"gments":6571,"Ġrecorded":6572,"ĠCR":6573,"Ġdelivery":6574,"Ġcompounds":6575,"ĠER":6576,"aturday":6577,"Ġdecisions":6578,"Ġappar":6579,"ishes":6580,"Ġcycl":6581,"mt":6582,"appro":6583,"hent":6584,"Ġextension":6585,"ĠMiss":6586,"ĠLeg":6587,"target":6588,"legal":6589,"Ġreceiving":6590,"Ġevaluated":6591,"$$\\":6592,"Ġassay":6593,"Ġnetworks":6594,"ulin":6595,"Ġinner":6596,"Ġallowing":6597,"Button":6598,"duc":6599,"Ġcalling":6600,"Ġextended":6601,"process":6602,"Ġleaves":6603,"ĠAmericans":6604,"product":6605,"Ġviolence":6606,"lets":6607,"Ġwat":6608,"anes":6609,"Ġ75":6610,"Ġhaven":6611,"ĠFrench":6612,"Ġpercentage":6613,"AY":6614,"real":6615,"format":6616,"Ġdigit":6617,"ĠUnion":6618,"first":6619,"Ġoutcomes":6620,"-------":6621,"According":6622,"itative":6623,"Ġconcerns":6624,"Ġassessment":6625,"**(-":6626,"message":6627,"Ġappoint":6628,"Ġsubsequent":6629,"endif":6630,"names":6631,"Ġleaving":6632,"Ġthousands":6633,"ĠCommittee":6634,"okes":6635,"Ġ2003":6636,"bal":6637,"Ġtestified":6638,"Ġhelped":6639,"phone":6640,"oking":6641,"sa":6642,"Ġmostly":6643,"standing":6644,"erest":6645,"åı":6646,"ipped":6647,"Ġunderlying":6648,"Ġowner":6649,"Ġarr":6650,"IST":6651,"Ġimmune":6652,"Ġguarant":6653,"ĠLeague":6654,"Ġarguments":6655,"ĠFinally":6656,"lands":6657,"Ġsale":6658,"\\{":6659,"Ġefficiency":6660,"Net":6661,"oret":6662,"ĠDuring":6663,"elled":6664,"ĠTuesday":6665,"ortunately":6666,"ributes":6667,"omes":6668,"std":6669,"Ġwire":6670,"Ġmuscle":6671,"ups":6672,"van":6673,"ilty":6674,"night":6675,"ifications":6676,"Ġlymph":6677,"Ġrepresented":6678,"edy":6679,"ĠUsing":6680,"Ġcriteria":6681,"ads":6682,"Ġcentury":6683,"Ġuniform":6684,"endment":6685,"Ġraise":6686,")=\\":6687,"server":6688,"=======":6689,"ĠĊĠ":6690,"ĠJer":6691,"tex":6692,"Ġgreatest":6693,"ĠCT":6694,"Ġexamined":6695,"author":6696,"Ġmanufacture":6697,"zeta":6698,"2013":6699,"sor":6700,"Ġvacc":6701,"Ġbudget":6702,"null":6703,"Ġspecified":6704,"Ġlearned":6705,"Ġeventually":6706,"Ġbooks":6707,")\"":6708,"SM":6709,"ĠSun":6710,"Ġadult":6711,"rog":6712,"Ġ39":6713,"Ext":6714,"Ġpowerful":6715,"Ġdiscrim":6716,"ĠLou":6717,"Ġshut":6718,"Point":6719,"Ġcandidate":6720,"ĠWH":6721,"yan":6722,"bed":6723,"Ġcurve":6724,"omal":6725,"ostic":6726,"Ġrestaur":6727,"hens":6728,"Ġdepends":6729,"zen":6730,"2014":6731,"Ġlimitations":6732,"2016":6733,"Ġincident":6734,"ĠMany":6735,"Ġpositions":6736,":\\":6737,"ih":6738,"itely":6739,"Ġbeg":6740,"Ġlicense":6741,"akers":6742,"Ġelev":6743,"Ġconstitution":6744,"ĠIran":6745,"yr":6746,"Ġscheme":6747,"ORD":6748,"Ġdefect":6749,"wed":6750,"Ġsupposed":6751,"Ġplane":6752,"ampions":6753,"ĠGermany":6754,"Ġ64":6755,"ĠJudge":6756,"Ġvoltage":6757,"operative":6758,"Query":6759,"Bar":6760,"ĠâĢ¦":6761,"Ġinvestigated":6762,"Ġvary":6763,")*(":6764,"Ġthreshold":6765,"'.":6766,"-----":6767,"ĠWeb":6768,"ette":6769,"Ġachieved":6770,"ĠScience":6771,"Ġtypical":6772,"dem":6773,"?âĢĿ":6774,"SON":6775,"ãĢĤ":6776,"ĠIII":6777,"ĠLem":6778,"Ġresearc":6779,"Ġwarm":6780,"000000":6781,"Ġpathway":6782,"FFFF":6783,"ĊĠĠĠĠĠĠĠĠĠĠĠĠ":6784,"isher":6785,"Ġgar":6786,"Ġgoals":6787,"Ġpurchase":6788,"Ġ${{\\":6789,"Ġmixed":6790,"gt":6791,"ĠNone":6792,"otes":6793,"Ġchanging":6794,"Ġunivers":6795,"ipal":6796,"Ġpolicies":6797,"ĠCollege":6798,"Ġ00":6799,"Ġjournal":6800,"Ġ44":6801,"Client":6802,"Ġfraction":6803,"iant":6804,"Ġprocedures":6805,"Ġspring":6806,"rowser":6807,"Ġstandards":6808,"Ġmetabol":6809,"dependent":6810,"olf":6811,"supplementary":6812,"enu":6813,"Ġrecovery":6814,"oday":6815,"These":6816,"Ġflat":6817,"Ġfish":6818,"Ġenforce":6819,"Ġapplicable":6820,"ĠAssociation":6821,"Ġgranted":6822,"Ġtub":6823,"Ġspend":6824,"Ġfilms":6825,"Pol":6826,"à¥":6827,"bug":6828,"cp":6829,"dimensional":6830,"Ġ2001":6831,"Ġtele":6832,"ĠAR":6833,"gression":6834,"PRO":6835,"**]{}":6836,"ĠGovernment":6837,"ella":6838,"she":6839,"Then":6840,"gers":6841,"ĠBay":6842,"UD":6843,"CTION":6844,"Ġheter":6845,"Ġacts":6846,"Ġisolated":6847,"Ġinsp":6848,"Ġpert":6849,"Ġflav":6850,"law":6851,"Ġacknow":6852,"weight":6853,"Ġpolar":6854,"ASS":6855,"ĠUp":6856,"DB":6857,"Ġgon":6858,"Ġdesired":6859,"${":6860,"Number":6861,"Ġevaluation":6862,"Ġseeing":6863,"FC":6864,"ructure":6865,"isted":6866,"lang":6867,"aper":6868,"Just":6869,",'":6870,"dr":6871,"organ":6872,"Ġeasier":6873,"Ġsubstrate":6874,"riend":6875,"json":6876,"Are":6877,"ĠTR":6878,"Ġmanager":6879,"Ġsections":6880,"cf":6881,"Ġindeed":6882,"Ġstrongly":6883,"Ġrelief":6884,"Ġtraffic":6885,"Ġdetailed":6886,"Ġmorph":6887,"Ġfunds":6888,"Ġpaint":6889,"Ġinvestment":6890,"Ġbaby":6891,"cel":6892,"ipl":6893,"Ġfuel":6894,";\\":6895,"aine":6896,"Ġchosen":6897,"Ġfourth":6898,"Ġlab":6899,"Ġ55":6900,"Ġfol":6901,"button":6902,"Ġentitled":6903,"Ġ{{\\":6904,"Ġmaster":6905,"FS":6906,"Ã¶":6907,"ĠChurch":6908,"2012":6909,"Stream":6910,"Ã¨":6911,"Input":6912,"Ġreplic":6913,"Ġfreedom":6914,"Ġcategory":6915,"Ġstored":6916,"ĠFin":6917,"Ġrestrict":6918,"Run":6919,"ested":6920,"iller":6921,"Ġgly":6922,"jud":6923,"Ġcommitted":6924,"Ġjoin":6925,"ests":6926,"Ġaccord":6927,"Ġpropos":6928,"Ġamaz":6929,"}=\\":6930,"Ġdaughter":6931,"Ġcluster":6932,"ceived":6933,"Ġrevers":6934,"Ġduty":6935,"Ġconclude":6936,"Ġconsidering":6937,"img":6938,"cretion":6939,"break":6940,"ĠMem":6941,"Ġ65":6942,"ĠWhich":6943,"Ġdirected":6944,"////////////////":6945,"ĠEngland":6946,"ĠPen":6947,"ĠForm":6948,"Ġsymbol":6949,"ocytes":6950,"Ġfif":6951,"DL":6952,"Ġdraft":6953,"Ġpayment":6954,"FP":6955,"Ġthanks":6956,"fee":6957,"Ġgalax":6958,"ector":6959,"annels":6960,"ĠFlorida":6961,"Ġprices":6962,"Ġincub":6963,"amental":6964,"Ġbond":6965,"cat":6966,"Ġcris":6967,"ĠSN":6968,"bert":6969,"Ġforced":6970,"Ġdocuments":6971,"QU":6972,"Ġemph":6973,"Ġreligious":6974,"ĠTom":6975,"ĠParty":6976,"Ġearth":6977,"Ġintellig":6978,"velopment":6979,"2017":6980,"diction":6981,"ĠWil":6982,"Ġlisted":6983,"small":6984,"dat":6985,"300":6986,"ĠMo":6987,"Ã¼":6988,"Ġcup":6989,"Ġaccident":6990,"ERR":6991,"ÃĲÂµ":6992,"estic":6993,">(":6994,"context":6995,"Ġnav":6996,"itions":6997,"Ġoxid":6998,"plet":6999,"ivo":7000,"ĠThursday":7001,"Ġdetermination":7002,"Ġapparatus":7003,"ĠCopyright":7004,"Ġstories":7005,"Us":7006,"Ġmo":7007,"Ġequations":7008,"Ġstimul":7009,"Start":7010,"Ġskills":7011,"Ġrock":7012,"Ġconflict":7013,"Ġfocused":7014,"]--":7015,"Ġalter":7016,"Ġdepending":7017,"inv":7018,"Ġforth":7019,"rive":7020,"Ġ300":7021,"ĠHill":7022,"ĠSal":7023,"Ġwaiting":7024,"Ġlose":7025,"amm":7026,"ĠSE":7027,"Ġvirtual":7028,"Ġplays":7029,"_{{\\":7030,"itable":7031,"}}^":7032,"ĠWednesday":7033,"Ġresulted":7034,"sg":7035,"Ġconsult":7036,"Ġ2002":7037,"Ġminim":7038,"rep":7039,"Ġfans":7040,"idelines":7041,"Ġaccum":7042,"Ġecho":7043,"clusive":7044,"Ġmeasurement":7045,"AGE":7046,"NO":7047,"Ġuint":7048,"iot":7049,"ĠPC":7050,"Ġconcern":7051,"Ġobservations":7052,"Ġpossibly":7053,"Ġsch":7054,"levision":7055,"scale":7056,"Ġversus":7057,"ounce":7058,"Ġmodified":7059,"status":7060,"Ġbelieved":7061,"only":7062,"cdots":7063,"ĠRussia":7064,"Ġdeg":7065,"\"}.":7066,"--------------------------------------------------------------------------------------------------------------------------------":7067,"Gen":7068,"Part":7069,"BO":7070,"ĠHIV":7071,"ĠCI":7072,"bound":7073,"YPE":7074,"ĠOpen":7075,"Content":7076,"ĠTime":7077,"Ġafford":7078,"Ġexcellent":7079,"Ġassuming":7080,"Ġtag":7081,"output":7082,"ĠGold":7083,"ĠMA":7084,"Ġcompr":7085,"event":7086,"Ġneither":7087,"rypt":7088,"Result":7089,"alty":7090,"Ġnodes":7091,"ĠIT":7092,"Since":7093,"inations":7094,"ushed":7095,"Ġfees":7096,"Ġangle":7097,"ĠBre":7098,"ĠDiv":7099,"Ġexplan":7100,"Ġfloat":7101,"Ġoffense":7102,"Ġtwice":7103,"ĠNa":7104,"Ġcere":7105,"ĠLord":7106,"Ġemployed":7107,"ĠVir":7108,"stood":7109,"imately":7110,"rapeut":7111,"Ġapproaches":7112,"Ġcommunities":7113,"Ġdamages":7114,"Â¶":7115,"Ġoblig":7116,"ĠUN":7117,"ĠEX":7118,"Ġcompare":7119,"va":7120,"ĠServ":7121,"Back":7122,"ĠFree":7123,"search":7124,"Ġstreet":7125,"Ġplanning":7126,"GE":7127,"ACK":7128,"ellular":7129,"Ġ41":7130,"Ġscan":7131,"Ġseek":7132,"Ġresource":7133,"Ġinvestigate":7134,"ĠRob":7135,"Ġstanding":7136,"imer":7137,"Ġenhance":7138,"GB":7139,"Ġsalt":7140,"ĠSam":7141,"Ġrich":7142,"Ġpreval":7143,"Ġscores":7144,"umns":7145,"ĠWindows":7146,"Ġtranscription":7147,"ä»":7148,"ĠBel":7149,"Ġcos":7150,"Ġconfidence":7151,"Ġaccuracy":7152,"otherapy":7153,"Ġ120":7154,"ipher":7155,"Ġshock":7156,"Ġfunding":7157,"128":7158,"ĠBer":7159,"Ġhelps":7160,"Ġbatter":7161,"ĠFile":7162,"Ġwilling":7163,"Ġconcerned":7164,"]--[@":7165,"ĠRef":7166,"Ġhousing":7167,"SL":7168,"edia":7169,"Ġtrials":7170,"else":7171,"ĠMary":7172,"ician":7173,"Ġintervention":7174,"ĠPet":7175,"Ġsensitivity":7176,"outhern":7177,"layout":7178,"Ġ_{":7179,"\\!":7180,"Ġcitizens":7181,"Ġegg":7182,"ĠEnd":7183,"Ġmainly":7184,"istory":7185,"Ġdepth":7186,"Ġguilty":7187,"ĠBur":7188,"Ø§":7189,"Ġboundary":7190,"del":7191,"Ġasking":7192,"Ġelectronic":7193,"nav":7194,"uous":7195,"Ġadults":7196,"inton":7197,"oded":7198,"Ġrelationships":7199,"pload":7200,"ĠMex":7201,"ĠSH":7202,"Ġtun":7203,"Controller":7204,"INE":7205,"ĠCircuit":7206,"Read":7207,"erior":7208,"ĠSaturday":7209,"Ġspat":7210,"Ġpal":7211,"ĠJapanese":7212,"Ġinvolving":7213,"sect":7214,"Ġdatas":7215,"Ġexperienced":7216,"Ġanalog":7217,"android":7218,"%.":7219,"ĠPR":7220,"^+^":7221,"ĠIslam":7222,"Ġbon":7223,"Ġfinished":7224,"Ġevaluate":7225,"Ġcogn":7226,"Ġ&=":7227,"Ġexposed":7228,"Ġrecip":7229,"Ã¤":7230,"ĠBrown":7231,"usal":7232,"client":7233,"Ġexpansion":7234,"Ġcontribution":7235,"Rem":7236,"mid":7237,"________________":7238,"Which":7239,"Ġsignaling":7240,"ĠCL":7241,"Ġextends":7242,"ontal":7243,"ĠAlex":7244,"possible":7245,"Ġadvice":7246,"Ġworse":7247,"appe":7248,"Override":7249,"ateral":7250,"cr":7251,"Base":7252,"esh":7253,"ĠSolve":7254,"eles":7255,"Te":7256,"sin":7257,"ĠJesus":7258,"gent":7259,"Ġframework":7260,"ĊĠĠĠĠĠĠĠĠĠĠĠĠĠĠĠĠĠ":7261,"2000":7262,"Ġemployee":7263,"\"),":7264,"TA":7265,"More":7266,"Ġcontinues":7267,"cup":7268,"Ġcapable":7269,"2010":7270,"adding":7271,"uls":7272,"ĠĠĠĠĠĠĠĠĠĠĠĠĠĠĠĠĠĠĠĠĠĠĠĠĠĠĠĠĠĠĠĠĠĠĠĠĠĠĠĠĠĠĠĠĠĠĠĠĠĠĠĠĠĠĠĠĠĠĠĠĠĠĠĠĠĠĠĠĠĠĠĠĠĠĠĠĠĠĠĠĠĠĠĠĠĠĠĠĠĠĠĠĠĠĠĠĠĠĠĠĠĠĠĠĠĠĠĠĠĠĠĠĠĠĠĠĠĠĠĠĠĠĠĠĠĠĠĠĠĠĠĠĠĠĠĠĠĠĠĠĠĠĠĠĠĠĠĠĠĠĠĠĠĠĠĠĠĠĠĠĠĠĠĠĠĠĠĠĠĠĠĠĠĠĠĠĠĠĠĠĠĠĠĠĠĠĠĠĠĠĠĠĠĠĠĠĠĠĠĠĠĠĠĠĠĠĠĠĠĠĠĠĠĠĠĠĠĠĠĠĠĠĠĠĠĠĠĠĠĠĠĠĠĠĠĠĠĠĠĠĠĠĠĠĠĠĠĠĠĠĠĠĠĠĠĠ":7273,"Ġadvert":7274,"2011":7275,"ita":7276,"Ġfab":7277,"Ġsettings":7278,"ĠFederal":7279,"Ġideal":7280,"čĊĠĠĠĠĠ":7281,"Ġdepartment":7282,"Ġdil":7283,"Ġassessed":7284,"Ġintensity":7285,"ĠAustralia":7286,"utely":7287,"Ġcritic":7288,"umer":7289,"Ġplot":7290,"ĠSD":7291,"ĠInternet":7292,"Ġion":7293,"Ġharm":7294,"007":7295,"FIG":7296,")^{":7297,"Ġphenomen":7298,"/-":7299,"Ġrent":7300,"Ñĥ":7301,"ĠOffice":7302,"Ġdys":7303,".**":7304,"ivation":7305,"ĠGeorge":7306,"je":7307,"ĠIP":7308,"enance":7309,"etime":7310,"Ġcompetition":7311,"Ġordered":7312,"END":7313,"conf":7314,"Ġadvance":7315,"Ġadvanced":7316,"Ġdemonstrate":7317,"Ġbiological":7318,"Ġguide":7319,"Ġplaintiffs":7320,"press":7321,"OK":7322,"Ġpept":7323,"Ġrelates":7324,"Ġstack":7325,"Note":7326,"Vert":7327,"NF":7328,"raq":7329,"eting":7330,"006":7331,";&":7332,"ernel":7333,"Ð»":7334,"Ġmurder":7335,"apers":7336,"ĠField":7337,"ĠMS":7338,"Ġpersons":7339,"rot":7340,"Ġdeliver":7341,"Ġcash":7342,"MD":7343,"Ġscope":7344,"ilton":7345,"GC":7346,"Ġstrain":7347,"entry":7348,"Ġchallenges":7349,"display":7350,"Ġ49":7351,"Ġpotentially":7352,"ĠGood":7353,"Ġsuitable":7354,"Ġ47":7355,"Ġban":7356,"Ġimaging":7357,"dy":7358,"Ġ46":7359,"ĠHall":7360,"module":7361,"Ġhumans":7362,"gical":7363,"Ġvelocity":7364,"ua":7365,"ĠFIG":7366,"Ġnorth":7367,"ĠPlease":7368,"ĠRobert":7369,"ker":7370,"Ġinterval":7371,"Ġindepend":7372,"Ġconsent":7373,"Ġconference":7374,"Ġrats":7375,"Ġdecide":7376,"Ġstopped":7377,"Ġfill":7378,"ĠCP":7379,"ĠSum":7380,"Ġiron":7381,"Ġsam":7382,"Ġstatistical":7383,"ftware":7384,"Ġconstraint":7385,"Ġimprovement":7386,"Ġarter":7387,"missions":7388,"ĠGa":7389,"Version":7390,"Last":7391,"uint":7392,"Ġrecall":7393,"Ġtight":7394,"âĢĿ,":7395,"Simplify":7396,"iary":7397,"Ġadministr":7398,"orthern":7399,"ĠDefendant":7400,"Ġcrow":7401,"Ġmel":7402,"Ġclaimed":7403,"Ġconsc":7404,"Ġremained":7405,"ashed":7406,"Ġthin":7407,"Ġstrict":7408,"Ġ43":7409,"iliar":7410,"apped":7411,"orted":7412,"ĠNO":7413,"ROM":7414,"Ut":7415,"ifferent":7416,"Go":7417,"ometric":7418,"arden":7419,"iples":7420,"Ġended":7421,"ĠType":7422,"inates":7423,"ĉĉĉ":7424,"ifies":7425,"ERS":7426,"Ġsides":7427,"Ġburden":7428,"xygen":7429,"Ġunknown":7430,"Ġpartial":7431,"Ġduration":7432,"Ġmand":7433,"Ġchief":7434,"ĠUse":7435,"dule":7436,"ĠStat":7437,"Ġlegisl":7438,"sd":7439,"Ġjump":7440,"Ġsuggesting":7441,"ĊĠĠĠĠĠĠĠĠĠĠ":7442,"Ġran":7443,"ĊĠĠĠĠĠĠĠĠĠĠĠĠĠĠĠĠĠĠĠĠĠĠĠĠĠĠĠĠĠĠĠ":7444,"ĠRussian":7445,"ĠLin":7446,"Rev":7447,"Ġfrequently":7448,"Ġdiscovered":7449,"ĠTur":7450,"Ġbranch":7451,"Ġhence":7452,"120":7453,"ĠÂ£":7454,"itud":7455,"arks":7456,"Ge":7457,"Ġdoctor":7458,"Ġadequ":7459,"Âº":7460,"Ġlic":7461,"ĠRepublican":7462,"ĠWork":7463,"Ġbag":7464,"ĠIF":7465,"antic":7466,"============":7467,"clusions":7468,"Ġreverse":7469,"ears":7470,"Ġargues":7471,"ĠRule":7472,"plete":7473,"dep":7474,"Ġsan":7475,"Ġorient":7476,")}\\":7477,"Ġlimits":7478,"Ġbright":7479,"Ġnine":7480,"Ġcelebr":7481,"~~~":7482,"Ġnecessarily":7483,"Fe":7484,"Ġ150":7485,"Script":7486,"Ġton":7487,"Ġcolon":7488,"Ġarms":7489,"ĠCE":7490,"Ġannual":7491,"rey":7492,"charge":7493,"rip":7494,"Off":7495,"ĠANY":7496,"Ġmarked":7497,"Frame":7498,"Create":7499,"args":7500,"ployment":7501,"ju":7502,"mg":7503,"Ġcourts":7504,"2018":7505,"Check":7506,"ĠSecret":7507,"Ġsynd":7508,"Ġsole":7509,"Ġseconds":7510,"Ġpharm":7511,"Ġ56":7512,"dden":7513,"Ġradiation":7514,"Ġaxis":7515,"Ġformal":7516,"Ġvariation":7517,"Ġdestroy":7518,"Ġassembly":7519,"Ġstability":7520,"Ġrough":7521,"Ġens":7522,"iverse":7523,"roke":7524,"GA":7525,")]":7526,"ĠMinister":7527,"iological":7528,"ĠHence":7529,"*/":7530,"\"]":7531,"Ġpoll":7532,"Ġwidely":7533,"Ġtick":7534,"Conne":7535,"Ġacute":7536,"TC":7537,"uing":7538,"Ġantibody":7539,"Ġthereby":7540,"ools":7541,"IO":7542,"Ġstick":7543,"Ġdefinitely":7544,"ĠSand":7545,"Ġbrand":7546,"mas":7547,"ĠTwitter":7548,"ells":7549,"ĠLike":7550,"Ġoral":7551,"icious":7552,"Ġconven":7553,"Ġprovision":7554,"Ġtables":7555,"Post":7556,"Ġice":7557,"Ġpossess":7558,"Ġlinked":7559,"Ġdimension":7560,"Ġaspects":7561,"ĠJohnson":7562,"ĠmRNA":7563,"Ġcort":7564,"Ġgrav":7565,"Ġattacks":7566,"usiness":7567,"method":7568,"month":7569,"Ġkeeping":7570,"ĠLog":7571,"Ġimplies":7572,"Ġnumerous":7573,"helial":7574,"icago":7575,"References":7576,"Ġpopulations":7577,"ĠFrance":7578,"mut":7579,"Mon":7580,"Ġindicating":7581,"ABLE":7582,"Ġul":7583,"ĠGerman":7584,"Ġanc":7585,"Ġstarts":7586,"ĠWITH":7587,"Page":7588,"asy":7589,"Ġmixture":7590,"ĠJustice":7591,"ochem":7592,"ĠOnce":7593,"Ġidentification":7594,"Ġfundamental":7595,"NN":7596,"rine":7597,"Ġwaste":7598,"Ġarchitect":7599,"Ġopposite":7600,"cut":7601,"Ġrare":7602,"Ġaccepted":7603,"Action":7604,"osh":7605,"roduction":7606,"ĠDec":7607,"HS":7608,"ĠOnly":7609,"ĠĊĠĠĠ":7610,"Ġinterpretation":7611,"Ġmortality":7612,"Ġunable":7613,"Ġinstructions":7614,"Char":7615,"Ġentirely":7616,"Ġviolation":7617,"Ġmission":7618,"Ġinteract":7619,"Ġbreath":7620,"ĠAppe":7621,"Ġcoach":7622,"Ġbeat":7623,"war":7624,"Response":7625,"([":7626,"Ġtruly":7627,"Ġabsolute":7628,"Ġrecognized":7629,"Psi":7630,"May":7631,"Ġju":7632,"Ġsouth":7633,"agon":7634,"Ġcellular":7635,"Ġbone":7636,"Ġgonna":7637,"\\/":7638,"msgid":7639,"Ġpractices":7640,"Ġdistingu":7641,"Ġreprodu":7642,"Ġgirls":7643,"unit":7644,"hedul":7645,"\"})":7646,"rency":7647,"Ġspl":7648,"Ġcontribute":7649,"Ġnotes":7650,"Ġgluc":7651,"Americ":7652,"Ġnarrow":7653,"anda":7654,"Ġparallel":7655,"Ġdegrees":7656,"ensed":7657,"Ġsudden":7658,"MC":7659,"Ġends":7660,"Ġpartner":7661,"Status":7662,"Ġmassive":7663,"hether":7664,"Ġsupporting":7665,"Ġrelax":7666,"ĠIraq":7667,"Ġsmart":7668,"ashion":7669,"ĠPA":7670,"Ġsuppl":7671,"Filter":7672,"msgstr":7673,"Ġmouth":7674,"find":7675,"ĠMass":7676,"opath":7677,"xe":7678,"ĠSenate":7679,"Ġprotest":7680,"next":7681,"lections":7682,"110":7683,"ĠON":7684,"png":7685,"Ġtrip":7686,"Ġresponsibility":7687,"Ġreact":7688,"})\\":7689,"request":7690,"EXT":7691,"Ġsigns":7692,"$)":7693,"Ġbecoming":7694,"Ġmiles":7695,"Ġemployment":7696,"Ġast":7697,"claim":7698,"Ġpolymer":7699,"vol":7700,"cale":7701,"Ġcorre":7702,"apse":7703,"BD":7704,"oster":7705,"ĠObject":7706,"Ġattached":7707,"Ġappearance":7708,"Ġcamera":7709,"(\\[":7710,"ello":7711,"Ġsin":7712,"Ġtechnical":7713,"ipping":7714,"Load":7715,"Ġaccompl":7716,"Ġ[[":7717,"Solve":7718,"Ġdisk":7719,"Ġcompound":7720,"Ġhole":7721,"Ġmanaged":7722,"Ġresidents":7723,"Ġroute":7724,"ĠProgram":7725,"ERE":7726,"ĠGive":7727,"Ġdependent":7728,"tyle":7729,"Ġoffset":7730,"Ne":7731,"iral":7732,"400":7733,"Ġvitro":7734,"Ġminute":7735,"append":7736,"ĠCle":7737,"Ġmolecules":7738,"widehat":7739,"Ġenable":7740,"Ġconcluded":7741,"Ġdynamic":7742,"Ġcoh":7743,"tra":7744,"\\]).":7745,"orters":7746,"Ġesc":7747,"Ġapart":7748,"Ġcommonly":7749,"Ġamounts":7750,"clear":7751,"wing":7752,"Ġpix":7753,"\\[[@":7754,"ĠSing":7755,"TE":7756,"Ġdefic":7757,"Ġassigned":7758,"option":7759,"ĠMot":7760,"match":7761,"Ġconsideration":7762,"Label":7763,"BP":7764,"Ġcommission":7765,"media":7766,"Ġprolif":7767,"Ġphoto":7768,"kins":7769,"Dec":7770,"*^":7771,"ket":7772,"Ġpursu":7773,"Ġunderstood":7774,"Default":7775,"Ġarticles":7776,"omial":7777,"Handler":7778,"Ġdynamics":7779,"ĠTheir":7780,"ĠPH":7781,"FO":7782,"Ġsought":7783,"yer":7784,"Ġrequirement":7785,"effect":7786,"Ġfacilit":7787,"ĠJava":7788,"herent":7789,"ĠInstead":7790,"LS":7791,"aked":7792,"ĠAnn":7793,"Ġeffectively":7794,"Ġaccurate":7795,"uns":7796,"{\"":7797,"grade":7798,"UI":7799,"ĠPlan":7800,"LC":7801,"VA":7802,"Ġship":7803,"Ġgap":7804,"control":7805,"road":7806,"Ġestimates":7807,"irty":7808,"Ġjurisdiction":7809,"ĠPRO":7810,"Ġsensitive":7811,"Ġmicrosc":7812,"adata":7813,"scrib":7814,"neg":7815,"Ġspaces":7816,"Ġtemplate":7817,"adian":7818,"Ġrender":7819,"Ġconj":7820,"Ġ52":7821,"Ġfilled":7822,"Ġstem":7823,"ĠTor":7824,"ĠAfrica":7825,"linear":7826,"uscript":7827,"**,":7828,"}}{\\":7829,"Ġsplit":7830,"fess":7831,"Ġdecades":7832,"eding":7833,"Ġusual":7834,"Ġmessages":7835,"ijms":7836,"ĠPhil":7837,"Ġbath":7838,"ĠThomas":7839,"chron":7840,"Ġbinary":7841,"Ġ51":7842,"Ġestate":7843,"ĠAPI":7844,"Ġoxygen":7845,"Ġjustice":7846,"Ġspending":7847,"Your":7848,"perties":7849,"ĠPCR":7850,"prote":7851,"#:":7852,"Ġseeking":7853,"rapeutic":7854,"Ġdisput":7855,"life":7856,"ĠScott":7857,"Ġfluores":7858,"ĠTimes":7859,"åĪ":7860,"tings":7861,"Ġwww":7862,"oral":7863,"ola":7864,"Ġadmitted":7865,"Ġnom":7866,"Ġnegot":7867,"Ġsenior":7868,"uster":7869,"ĠBill":7870,"ĠNor":7871,"Ġfont":7872,"IE":7873,"ressive":7874,"Ġfavorite":7875,"ĠRiver":7876,"ws":7877,"ander":7878,"ivered":7879,"Please":7880,"Ġcm":7881,"Ġstrategies":7882,"Ġpet":7883,"ĠMag":7884,"COM":7885,"Ġsecure":7886,"strong":7887,"mo":7888,"Ġsweet":7889,"ĠEarth":7890,"Ġobjective":7891,"values":7892,"Web":7893,"ĠMad":7894,"Ġconsumption":7895,"istor":7896,"++)":7897,"Ġhoriz":7898,"Ġsqrt":7899,"obj":7900,"agger":7901,"Ġ72":7902,"star":7903,"ĠWill":7904,"Ġabund":7905,"ĠStand":7906,"Ġbroken":7907,"Ġassistance":7908,"prop":7909,"Ġcharacterized":7910,"Ġsimpl":7911,"anta":7912,"mL":7913,"Ġgender":7914,"igr":7915,"ĠPy":7916,"high":7917,"Det":7918,"Ġplastic":7919,"icken":7920,"Ġintention":7921,"Yeah":7922,"]]":7923,"ĠNE":7924,"Ġsmallest":7925,"Ġacadem":7926,"bour":7927,"ĠFore":7928,"amber":7929,"float":7930,"Ġintra":7931,"Ġpredicted":7932,"Ġarrange":7933,"^-":7934,"Ġemission":7935,"2008":7936,"ĠIndeed":7937,"OB":7938,"private":7939,"lik":7940,"Ġtissues":7941,"[\"":7942,"ributions":7943,"Â¸":7944,"Äģ":7945,"water":7946,"ĠMil":7947,"Ġped":7948,"Ġorders":7949,"Ġreb":7950,"ĠProject":7951,"fold":7952,"Ġchair":7953,"Ġhem":7954,"ura":7955,"Layout":7956,"ami":7957,"Ġcof":7958,"ĠDen":7959,"olecules":7960,"Ġfan":7961,"NU":7962,"Ġneurons":7963,"}/":7964,"ĠSP":7965,"Ġcart":7966,"Ġ[]":7967,"Ġprinciple":7968,"Ġscientific":7969,"ĠCarol":7970,"Two":7971,"Ġpages":7972,"osa":7973,"Ġexpensive":7974,"Ġmarriage":7975,"adow":7976,"Ġalt":7977,"Ġzone":7978,"fit":7979,"Control":7980,"ala":7981,"Ġrecommended":7982,"Rel":7983,"ĠMedical":7984,"Ġphilos":7985,"').":7986,"Gl":7987,"Ġsubset":7988,"Ġsupports":7989,"ogenic":7990,"quot":7991,"yg":7992,"tab":7993,"Ġfell":7994,"Am":7995,"Ġcustomer":7996,"??":7997,"Ġ54":7998,"Ġcorner":7999,"Ġparticle":8000,"coin":8001,"Ġpieces":8002,"ani":8003,"ĠMethod":8004,"æľ":8005,"TS":8006,"system":8007,"never":8008,"Ġmanuscript":8009,"ounter":8010,"ĠMuslim":8011,"ocy":8012,"ĠLouis":8013,"Ġperman":8014,"2009":8015,"Ġwatching":8016,"ĠFranc":8017,"ĠInformation":8018,"tag":8019,"Ġexceed":8020,"Ġlarg":8021,"Ġlaunch":8022,"DC":8023,"ĠSpec":8024,"Ġdiscretion":8025,"ĠRad":8026,"eds":8027,"Ġcausing":8028,"rition":8029,"etch":8030,"ĠSil":8031,"Ġsuccessfully":8032,"Ġtelevision":8033,"Ġmargin":8034,"ĠIV":8035,"show":8036,"Ġchannels":8037,"ĠFrank":8038,"Ġcompre":8039,"Ġtoler":8040,"Ġ1999":8041,"aren":8042,"otted":8043,"Ġtranscript":8044,"Ġinfo":8045,"wer":8046,"split":8047,"Ġbaseline":8048,"FR":8049,"Ġtargets":8050,"ye":8051,"ĠMa":8052,"gener":8053,"vant":8054,"Ġsupra":8055,"Ġreducing":8056,"seud":8057,"Tem":8058,"Ġcrisis":8059,"ĠHospital":8060,"fa":8061,"Ġsegment":8062,"iki":8063,"Ġamb":8064,"fast":8065,"Ġwarn":8066,"ĠEU":8067,"ena":8068,"Ġlargely":8069,"Ġbattle":8070,"Ġunion":8071,"Ġimpossible":8072,"tw":8073,"acent":8074,"ĠpH":8075,"Ġvit":8076,"}},":8077,"ĠArab":8078,"Ġscr":8079,"Ġinhibition":8080,"SR":8081,"Ġcomposite":8082,"ĠCr":8083,"ĠCap":8084,"ollowing":8085,"Ġautomatically":8086,"\"\"":8087,"Ġsitting":8088,"creen":8089,"Ġinstalled":8090,"Ġinformed":8091,"ĠMath":8092,"exec":8093,"Ġepit":8094,"Ġsupplement":8095,"Ġdiabetes":8096,"Ġpromote":8097,"Ġauthorities":8098,"ĠHel":8099,"Ġattend":8100,"Ġresearchers":8101,"Ġâī":8102,"ĠWAR":8103,"VE":8104,"Ġvess":8105,"oxy":8106,"ĠQue":8107,"inite":8108,"Ġaccel":8109,"css":8110,"brid":8111,"Ġasym":8112,"Ġstructural":8113,"Ġworry":8114,"iability":8115,"Ġsand":8116,"ĠSoftware":8117,"Ġexamination":8118,"Ġmarried":8119,"ĠGL":8120,"Ġorganic":8121,"Ġsector":8122,"Ġsac":8123,"ĠCentral":8124,"Ġforget":8125,"Ġcompact":8126,"///":8127,"olid":8128,"Ġdisorder":8129,"Ġtor":8130,"Ġdomin":8131,"ogenesis":8132,"ĠStr":8133,"Ġrepresentative":8134,"ulating":8135,"thm":8136,"Ġknock":8137,"imb":8138,"ZE":8139,"root":8140,"ĠVol":8141,"vin":8142,"Ġstrains":8143,"Next":8144,"ĠBi":8145,"ez":8146,"UP":8147,"OH":8148,"plant":8149,"Ġweekend":8150,"Ġproportion":8151,"Ġseat":8152,"Ġputting":8153,"Ġvisible":8154,"ĠĠĠĠĠĠĠĠĠĠĠĠĠĠĠĠĠĠĠĠĠĠĠĠĠĠĠĠĠĠĠĠĠĠĠĠĠĠĠĠĠĠĠĠĠĠĠĠĠĠĠĠĠĠĠĠĠĠĠĠĠĠĠĠĠĠĠĠĠĠĠĠĠĠĠĠĠĠĠĠĠĠĠĠĠĠĠĠĠĠĠĠĠĠĠĠ":8155,"google":8156,"ĠEduc":8157,"Ġjoined":8158,"```":8159,"Ġguard":8160,"Ġfaster":8161,"Ġsi":8162,"Ġconcerning":8163,"ĠLemma":8164,"ĠBack":8165,"oration":8166,"Ġstret":8167,"Ġveget":8168,"Ġeditor":8169,"Ġadm":8170,"Ġreplaced":8171,"fections":8172,"Ġfacilities":8173,"Ġobservation":8174,"Ġdivers":8175,"Ġfinish":8176,"ĊĠĠĠĠĠĠĠĠĠĠĠĠĠĠ":8177,"Ġbott":8178,"Mr":8179,"number":8180,"ĠIts":8181,"ĠAfrican":8182,"Ġsolve":8183,"ĠView":8184,"dist":8185,"Ġdebate":8186,"oxid":8187,"Ġdream":8188,"Thanks":8189,"ĠChicago":8190,"mediate":8191}