#version: 0.2
Ġ Ġ
Ġ t
Ġ a
i n
h e
r e
o n
ĠĠ ĠĠ
Ġt he
e r
a t
Ġ s
e n
Ġ o
Ġ c
Ġ w
i s
i t
o r
e s
e d
a l
a n
Ġ p
Ġ f
Ġ b
Ġa n
in g
Ġ in
Ġo f
a r
i on
o u
Ġ m
Ġ d
i c
- -
Ġt o
l e
a s
ĠĠĠĠ ĠĠĠĠ
Ġan d
r o
Ġt h
en t
Ġ h
c t
Ġ re
e t
Ġ n
e l
s t
o m
i l
Ġ e
Ġ l
i d
o t
i m
i g
v e
Ġ is
u t
Ġ g
Ġ (
Ġ T
-- --
a m
o l
Ġ I
at ion
s e
c e
l y
â Ģ
Ġf or
u r
ĠĠ Ġ
Ġb e
Ġ S
o w
Ġth at
Ġ u
a d
Ġ on
Ġ A
Ġ C
Ġs t
c h
v er
a y
u l
it h
Ġ 1
i f
Ġc on
Ġw ith
r a
ĠĠĠĠĠĠĠĠ ĠĠĠĠĠĠĠĠ
Ġ y
Ġa s
i r
o d
t er
0 0
Ġp ro
Ġ "
at e
Ġ $
Ġ it
he r
u m
Ġ M
a b
p e
Ġa l
Ġw e
r i
g e
n d
Ġ v
= =
Ġw h
Ġ 2
Ġ P
Ġd e
re s
p p
q u
a c
Ġy ou
m ent
es t
Ġe x
o s
is t
ĠT he
Ġw as
Ġ B
u s
Ġ \
Ġ he
---- ----
an t
Ġo r
Ġc om
e m
h t
Ġa re
t h
* *
o c
Ġa t
er s
Ġs u
i v
Ġ =
u n
it y
es s
a in
Ġ r
Ġ H
o p
Ġ F
Ġb y
Ġ D
Ġs e
l d
il l
ct ion
o re
ro m
an d
Ġ W
n t
k e
Ġn ot
Ġ -
en d
Ġh a
Ġ R
i ve
Ġ L
or t
Ġn e
p t
Ġth is
Ċ ĠĠĠĠ
Ġ N
âĢ Ļ
Ġf rom
ig ht
ar t
u d
re d
Ċ ĠĠĠ
p l
el l
Ġs h
i al
i es
t e
Ġ G
Ġc h
Ġha ve
at ed
Ġ E
f e
Ġ *
u re
in e
' s
ou ld
ou r
al l
{ \
Ġ le
Ġ 0
a g
p er
o g
u st
a ge
ic al
Ġc an
am e
) .
u e
i z
Ġ O
ic h
r ou
c l
Ġ 3
i b
Ċ ĠĠĠĠĠĠĠĠ
ou t
ar d
Ġu s
om e
ab le
i e
as e
Ġre s
Ġc l
Ġw he
) ;
Ġa b
at h
Ġ j
ac k
== ==
ul t
as s
Ġ {
a ct
o st
Ġ k
an s
0 1
Ġp l
Ġcom p
id e
t her
. "
Ġa d
Ġm e
Ċ Ġ
as t
= "
Ġcon t
Ġwe re
or m
Ġ âĢ
Ġ im
T he
Ġal l
Ġt r
u b
ig n
Ġ J
ĊĠĠĠĠ ĠĠĠ
. .
Ġ U
a p
Ġ [
Ġd o
in d
it ion
a k
i p
Ġwh ich
ĠĠĠĠĠĠĠĠĠĠĠĠĠĠĠĠ ĠĠĠĠĠĠĠĠĠĠĠĠĠĠĠĠ
p h
Ġh as
ic e
Ġ +
c c
on e
ar y
ou s
ĉ ĉ
/ /
Ġb ut
im e
Ġin t
en s
ĠI n
a re
in t
-------- --------
c on
Ġw or
_ {
d u
Ġd is
res s
on g
en ce
ation s
Ġ 4
t y
f f
Ġw ill
n e
i le
o k
Ġg o
) ,
Ġ <
r u
Ġo ut
e p
o se
an ce
} }
g h
Â ł
a v
Ġ if
Ġp er
ent s
Ġ en
a u
al ly
ĠT h
b er
Ġ 5
Ġh is
a ce
Ġon e
s o
Ġu n
p ort
x t
el y
i a
or d
Ġthe y
or y
i re
e ar
a ch
e ct
ion s
Ġa pp
Ġe v
Ġs o
f orm
r y
Ġu p
an g
Ġ qu
re e
l ic
Ġa r
Ġthe ir
âĢ Ŀ
Ġm ore
Ġp art
a il
Ġ K
it e
or s
l l
Ġthe re
y s
Ġa g
Ġp re
a ke
Ġo ther
Ġl i
ow n
ĠĠĠĠ ĠĠĠ
ver y
Ġ }
ou nd
Ġyou r
f t
Ġ$ \
v el
Ġh ad
ou nt
fe re
c re
ur n
ĠS t
Ġs a
at a
Ġbe en
c om
Ġs p
m ath
Ġm an
k s
Ġal so
Ġwh o
er v
Ġan y
w e
at es
Ġw ould
d e
Ġ V
Ġn o
[ @
Ġab out
nd er
l ow
j ect
Ċ Ċ
Ġwhe n
et h
Ġm y
Ġ '
Ġ &
if ic
o ok
\ ]
Ġo b
Ġt ime
p le
Ġth an
at er
' t
ic t
Ġas s
w o
er m
Ġ 6
Ġo ver
re f
1 0
Ġit s
} $
ro w
r ing
Ġ1 9
Ġs ome
Ġs c
ĠâĢ ľ
o b
cl ud
ri b
c k
f ter
ay s
c es
< /
Ġs pe
g et
Ġb et
Ġs y
le ct
Ġne w
Ġg en
Ġd if
I n
fe ct
ĊĠĠĠĠĠĠĠĠ ĠĠĠ
ol d
Ġa m
ir st
o ve
^ {
Ġt e
od e
h at
i ed
Ġin ter
ver s
Ġf e
p s
Ġsu b
Ġg et
il d
Ġde f
Ġa cc
1 9
Ġ her
Ġof f
Ġk n
Ġ Y
re at
au se
Ġcom m
Ġa ct
Ġint o
Ġo ur
c ed
Ġu nder
o v
Ġ ro
is s
Ġcon s
ing s
in k
Ġp e
ĠI t
# #
Ġd es
Ġre l
Ġm ay
m a
==== ====
u al
Ġre c
1 2
ic k
Ġon ly
at ive
Ġt wo
ar i
p on
Ġsa id
Ġthe m
Ġv al
er t
ie w
pe ct
Ġy ear
Ġwor k
Ġst ud
Ġbe c
Ġwh at
ul ar
Ġli ke
Ġad d
Ġin d
Ġ 7
he d
Ġre t
ar k
Ġm od
ig h
Ġre g
Ġp os
ĠC h
Ġtr ans
p ro
un ction
Ġin v
el f
ĠTh is
c ess
o int
Ġe m
Ġb l
Ġu se
oc k
st em
Ġc o
it t
is h
Ġf irst
Ġsu ch
as ed
at ing
Ġj ust
Ġ2 01
e x
on t
Ġp r
e f
Ġp h
Ġ 8
ĠW e
Ġp res
Ġfor m
Ġthe se
i an
" ,
ment s
ad e
Ġpro v
i ent
Ġdif fere
Ġwhe re
il ity
ĊĠĠĠĠ Ġ
1 1
Ġc ol
} \
ĠH e
Ġp at
Ġs he
Ġa fter
Ġd et
Ġs ign
ra c
iz e
Ġp ol
Ċ ĉĉ
id ent
a w
Ġh ow
e c
Ġ1 0
o od
we en
ot h
Ġne ed
_ _
d er
s s
f fect
ol og
op le
t he
Ġex p
g r
Ġs et
ty pe
pt ion
Ġthe n
Ġc ould
ub lic
ut ion
an ge
Ġcl ass
ĊĠĠĠĠĠĠĠĠ ĠĠĠĠĠĠĠ
Ġ 9
] (
( )
Ġres ult
Ġat t
S t
Ġbet ween
Ġc ell
ou gh
Ġre m
f ig
is e
00 0
r ight
i ous
Ġ\ [
Ġsu pp
l es
ol low
2 0
. ,
i x
e g
b le
y pe
Ċ ĉ
Ġg rou
Ġ |
u p
Ġin clud
Ġus ed
ib le
a x
i el
E R
al s
Ġd id
our t
Ġd ata
Ġn um
Ġsh ow
u es
on s
Ġkn ow
Ġf l
o y
) {
c y
Ġf act
" >
Ġpe ople
ra ct
ter n
ul l
Ġsh ould
ic s
o x
rou gh
n ing
Ġa c
Ġc or
Ġs im
Ġh im
Ġs ur
m s
Ġspe c
it s
he n
** **
Ġre qu
Ġf ollow
f ore
Ġus ing
Ġd ist
re n
in al
ru ct
Ġ i
Ġse e
Ġb ack
Ġbec ause
s p
Ġf unction
Ġcon st
in ed
iel d
f ul
Ġsy stem
it ies
Ġm ost
) $
l i
e ver
Ġin st
I N
r it
1 5
---------------- ----------------
Ċ ĠĠĠĠĠĠĠĠĠĠĠĠĠĠĠĠ
o ol
p os
Ġ .
p ut
1 3
it ed
Ġ end
Ġs m
s c
ur ing
u res
Ġw ell
in s
1 6
" }
Ġret urn
Ġth rough
Ġpro du
Ġt est
Ġr ight
Ġt ra
Ġgen er
Ġ[ @
( \
ĠU n
Ġb u
] {
Ġag ain
Ġex t
Ġch ar
1 4
Ġw ant
he s
m er
Ġh igh
Ġdiffere nt
Ġe ach
er r
iz ed
ation al
t o
ĠĠĠĠ Ġ
ow er
Ġc ase
- >
rou nd
con d
Ġst ate
Ġdo es
im es
at or
Ġ ent
Ġe ffect
te xt
ical ly
w n
i o
r ic
T h
] ,
ĠS e
2 5
O N
e w
u ch
ot her
t a
n ce
Ġev en
ri v
il y
Ġ2 00
Ġm ake
ction s
p ar
c al
i ents
s et
Ġm in
or k
le t
_ {\
v ent
Ġ @
ro l
Ġ :
.. .
Ġe very
u c
) )
1 8
eth od
Ġ ke
Ġc ur
Ġ ra
ut e
re ad
Ġs ame
Ġc all
ant s
f rac
ar s
Ġw ay
Ġn ow
g er
Ġan al
Ġa p
ce pt
Ġf ind
Ġde c
in ce
v al
Ġ /
Ġd on
" :
Ġin cre
ain t
ar ch
]( #
Ġp oint
oc i
ĠĠĠĠĠĠĠĠĠĠĠĠĠĠĠĠĠĠĠĠĠĠĠĠĠĠĠĠĠĠĠĠ ĠĠĠĠĠĠĠĠĠĠĠĠĠĠĠĠĠĠĠĠĠĠĠĠĠĠĠĠĠĠĠĠ
Ġl ook
o id
1 7
Ġth ose
st r
w ard
vel op
Ġin te
Ġl ong
Ġyear s
Ġ very
Ġ _
Ġd i
u g
as on
y m
Ġpart ic
Ġl oc
p r
en se
Ġb oth
Ġv ari
Ġhe re
as es
u nd
Ġm on
r m
d ay
in es
c ent
re nt
ire ct
A T
re st
Ġa ut
Ġm at
am ple
Ġf ound
Ġ //
Ġb el
Ġbe ing
at ic
t ing
a ir
y p
Ġt ri
$ \
Ġm ed
Ġex per
l ed
? "
Ġapp ro
Ġp ers
Ġp ar
: :
ag es
Ġman y
Ġpl ay
Ġbe fore
if e
]{ }
3 2
n g
ic es
ĠC om
I t
a red
al th
Ġnum ber
Ġf il
] \]
Ġ Q
o ver
Ġm em
âĢ ī
Ġg r
Ġ **
Ġpro te
t r
Ġs er
at ure
5 0
3 0
a pp
Ġ x
c er
Ġ el
Ġc ar
Ġp ublic
E S
if ied
A R
ak ing
Ġo p
s h
o f
m in
Ġres pon
} {
ate g
le ft
od y
n er
Ġg u
Ġth ink
Ġhe l
form ation
Ġc he
ĠĠĠĠ ĠĠ
Ġin s
Ġst r
en g
ress ion
Ġgo od
W e
al e
Ċ ĊĠĠĠ
Ġ1 2
Ġpro cess
a ve
y l
as h
Ġd own
Ġin f
Ġre p
u pp
Ġmod el
ĠF or
an k
Ġm ade
Ġval ue
Ġre port
ĠâĢ ĵ
iv ely
Ġc ourt
is m
n ess
u ally
l ine
v en
Ġ\[ [@
Ġwh ile
Ġle vel
i red
v iew
Ġg iv
Ġstud y
: //
Ġs ol
math b
g g
N A
Ġpres ent
v ed
Ġde velop
2 4
' ,
m on
Ġst art
um ent
ĠL et
2 01
w ay
ain ed
Ġl ar
Ġsupp ort
O R
, \
g ht
d ition
Ġre f
Ġc ount
-- -
Ġdis c
Ġse cond
C R
Ġm uch
re t
$ ,
Ġe qu
Ġ Â
c ul
Ġo wn
am s
. âĢĿ
er g
is ion
Ġh and
ĠP ro
ĠR e
o le
Ġs erv
00 00
Ġt erm
ign ed
Ġth ree
m an
( "
iz ation
Ġre ad
ĠI f
Ġn on
ĠA l
r ay
Ġpat ients
Ġ est
id er
le ment
$ .
g an
al ity
ff ic
Ġde p
o ad
Ġ et
u se
Ġm ethod
Ġpos s
us s
Ġwith out
Ġan t
Ġd uring
Ġor der
am p
Ġcell s
ab el
ou n
en cy
ent ial
ĠA s
c ri
, "
Ġn ame
t on
an y
m ed
W hat
8 0
et a
ar ly
Ġ2 0
our ce
ĠA nd
Ġact iv
Ġhel p
Ġc re
n ot
Ġl ine
id ed
E N
ist s
id ence
if y
Ġgrou p
am b
Ġim port
Ġpro per
R e
Ġper form
ĠH ow
n ame
t t
S T
2 2
c ial
I T
a h
at her
Ġl ast
b e
ĠA n
Ġc le
ab ility
4 0
Ġpro ble
Ġle ad
al k
ter s
ou se
Ġa v
Ġs ay
Ġr un
ra ph
v ing
Ġ z
Ġagain st
ĠB ut
w w
9 9
Ġsm all
an e
r on
Ġis s
Ġg l
ul ation
Ġo per
am es
Ġsign ific
( -
Ġle t
Ġcon f
Ġm ust
2 3
ro ss
Ġt ake
h ip
Ġt ype
\ [
Ġst ill
Ġcont rol
a im
act er
Ġch ild
Ġpers on
an n
Ġl aw
ot s
it ive
m l
Ġp ur
Ġap pe
ĠY ou
Ġm et
C on
Ġs om
ent ion
Ġex pl
L et
o h
Ġ1 5
ir c
ph a
Ġin formation
r t
Ġ ,
( );
Ġd irect
Ġd ay
ys is
s erv
H e
e k
i er
Ġc ent
d s
3 3
Ġin c
A L
F ig
Ã Ĳ
âĢ ľ
Ġf in
A N
ur ther
Ġ ed
Ġqu est
at ch
ch n
l ess
m e
y n
in ation
6 4
] .
olog y
Ġp ost
Ġf am
Ġt reat
6 0
math cal
id es
Ġresult s
E x
Ġ ident
Ġst and
v ious
Ġme as
Ċ ĠĠ
) \
ot e
Ġsignific ant
2 00
et s
Ġe lect
Ġc a
o ot
i ence
iss ion
d a
Ġfollow ing
Th is
f or
Ġ err
ht t
ag n
Ġb re
P ro
Ġm ult
i um
w ork
er al
it al
Ġ1 8
du ct
r ation
ĠN ew
Ġdet erm
at ely
l and
r al
Ġgo ing
Ġall ow
ĠT r
ord ing
a j
mer ic
2 7
Ġcont in
ĠD e
ain s
Ġl im
Ġcon dition
i or
is hed
pl oy
======== ========
} (
ater ial
u red
Ġc are
Ġf r
Ġwith in
Ġ* /
C T
if f
ur al
u le
s on
Ġs ince
Ġre al
Ġl ife
Ġa round
Ġre ce
âĢ ĵ
b l
Ġst at
ion al
Ġw r
' m
Ġwor ld
Ġh um
de f
i vers
Ġre du
Ġcur rent
Ġde v
a z
Ġinte rest
ack age
Ã ©
3 5
Ġ X
g en
2 8
al pha
Ġadd ition
Ġhe alth
qu e
Ġst ruct
ent ly
ĠW h
Ġgo ver
I D
iv ed
ch ool
S E
Ġan other
ak es
Ġ #
on d
Ġp ass
Ġm ark
, âĢĿ
3 4
s elf
Ġinv est
ot t
res ent
Ġ1 4
Ġop en
Ġtr y
c rib
are nt
le x
Ġc r
Ġ< /
Ġar g
âĢ Ķ
b r
Ġs elf
t s
Ġf ield
Ġg reat
am et
Ġd el
Ġcomm un
b ers
Ġl ist
Ġex ample
## ##
iv es
ar g
Ġim p
v es
Y ou
Ġp ower
it her
gr am
re l
d d
Ġinclud ing
]\] .
3 7
**** ****
Ġ Z
Ċ ĊĠ
w ays
Ġo cc
L E
f ace
Ġto o
Ġme an
se c
eth ing
Ġbe h
Ġcl aim
Ġm ight
Ġs l
Ġgiv en
ur y
Ġhe ad
ĠC on
Ġres pect
Ġt em
he re
ar n
0 5
rib ut
Ġb as
2 6
Ġar t
ab ly
ar get
ĠC l
Ġre ally
^ {\
ĠI s
ĠS h
Ġch ang
Ġgover n
Ġass oci
2 9
Ġpl ace
o pe
Ġ1 6
C h
um p
le ction
in ess
ĠHow ever
Ġl ess
in ing
ar m
h or
ĠA meric
Ġp ot
ĠThe y
st and
Ġ{ #
le ase
Ġad v
ou ght
Ġh ig
eng th
R E
Ġf ile
Ġ$ $\
y t
Ġl ow
Ġha pp
end s
3 8
fere nce
f er
ro ll
Ġh ome
Ġb ased
Ġ --
Ġv is
Ġmon th
et y
Ġapp lic
Ġto p
er y
ã ģ
3 6
ateg ory
ic ro
ain ing
Ġc ap
iv id
a ult
' re
Ġw om
al se
ra p
re g
ver t
Ġ ve
th ing
Ġfe w
Ġob ject
Ġg row
oc ument
Ġpro b
at t
Ġb us
Ġc al
el ta
ĠĠĠĠĠĠĠĠĠĠĠĠĠĠĠĠ ĠĠĠĠĠĠĠĠ
2 1
ĠN o
Ġb est
Ġanal ysis
( '
Ġind ic
Ġs ing
Ġp op
itt le
os ed
Ġob serv
Ġm ot
Ġne xt
ĠâĢ Ķ
â Ī
le g
I C
Ġimport ant
b y
Ġte chn
7 5
is ed
A S
m b
Ġev idence
Ġsom ething
el s
os s
Ġp ath
amb da
Ġle ft
Ġob t
C l
e xt
4 5
Ġf our
Ġwhe ther
Ġo pt
$ $
Ġcomm on
b s
Ġprodu ct
Ġch ange
re qu
9 0
c he
c ur
ĠP h
ab l
Ġb o
Ġp ut
Ġbel ie
in f
ĠL e
ert ain
Ġle g
pl ic
Ġsu gg
c ing
Ġsugg est
i k
w are
9 5
Ġv iew
Ġse em
ĠThe re
ific ation
Ġf ail
Ġex pect
Ġpartic ular
ĠI nd
Ġpro f
us ed
ĠW hat
l abel
Ġ3 0
A C
p or
h ib
am ma
) /
Ġne ver
ad d
cc ess
a ction
m un
Ġl ight
7 0
c ol
op y
con t
vers ion
} ,
ĠE x
C om
Ġu nt
Ġinv ol
d iv
ro p
Ġdes crib
Ġcon ne
Ġas k
Ġbet ter
pl es
Ġt urn
m u
Ġs it
Ġab ove
l u
ne w
ĠS o
Ġlar ge
T o
Ġw ater
end ed
en e
mathb b
Ġ1 1
p art
end ing
e red
Ġproble m
Ġb i
Ġs k
Ġtr ue
Ġre ason
A s
il ar
c o
ir d
Ġre se
eg in
Ġ {\
orm al
ĠP l
Ġe as
or n
I S
s er
N ame
ig ma
Ġcons ider
p i
at s
Ġtreat ment
Ġle ast
Ġl ittle
Ġs ize
E D
Ġposs ible
ĠS he
ail able
Ġg ot
ĠA ll
Ġloc al
} _
4 8
as k
h o
Ġpos ition
Ġcom e
Ġth ings
} ^{
Ġto t
! "
= \
Ġr is
ĊĠĠĠĠĠĠĠĠ Ġ
Ġd ue
Ġo pp
Ġbu ild
Ġp ay
Ġm ov
Ġim pro
Ġchar acter
__ __
ivid ual
Ġt yp
ra in
Ġ ide
ĠU S
Ġrep resent
b ack
Ġ ==
ill ion
Ġin it
ep end
3 9
in a
Ġf ree
p ackage
Ġh y
H E
us h
Ġre st
d ata
ir on
pl ay
) :
ic le
Ġ1 7
ar ing
Ġel se
Ġo ld
aj or
an ces
Ġb ig
Ġquest ion
ĠT o
id th
Ġdef end
Ġse ver
n al
č Ċ
i od
Ġha ving
Ġd ays
Ġsh own
Ġoff ic
Ġg ive
ĠO n
Ġhum an
Ġrec ord
olog ical
Ġf urther
s um
im al
Ġb r
Ġor gan
b egin
ap s
Ġb ro
Ġg ame
Ġ es
] ;
Ġtri al
Ġg re
} _{
Ġpro m
Ġ2 5
or g
Ġgovern ment
ĠA pp
Ġn et
m od
Ġpro gram
erg y
Ġh ist
Ġwe ek
Ġs um
âĪ Ĵ
Ġem ploy
ĠSt ate
Ġc ode
at ory
ct or
ĊĠĠĠĠĠĠĠĠĠĠĠĠĠĠĠĠ ĠĠĠ
Ġpre vious
re am
S e
4 4
et ic
b ar
Ġke ep
6 5
n s
I f
e ad
Ġj ud
a ut
Ġexp ression
Ġh ard
Ġind ividual
Ġfe el
Ġd en
Ġprov ide
Ġp a
Ġc ost
I d
Ġal ways
8 8
it or
T ype
Ġm ain
A P
s el
Ġ )
in c
Ġpot ential
Ġe ither
ĠA d
er n
Ġs w
Ġkn own
Ġcall ed
Ġp riv
u ro
R O
Ġr ad
ang le
Ġd iv
Ġ !
B ut
Ġsim ilar
Ġs chool
ĠThe se
Ġp red
Ġch o
our s
ip le
us ion
ĠC ourt
Ġunt il
Ġav ailable
ĠUn ited
Ġfam ily
ph i
Ġcom b
th ough
Ġw on
Ġgener al
u ck
le v
ce ption
it le
op t
oc ial
Ġs ide
ra w
Ġsing le
clud e
C ategory
Ġv ol
Ġf ac
u ff
ent al
Ġb en
L L
al igned
Ġte am
Ġdis e
Ċ ĊĠĠĠĠĠĠĠ
Ġme ans
}$ $
Ġa ction
cl ass
ĠR es
read y
one y
A nd
Ġli k
Ġspec ific
y le
Ġpro ject
Ġ1 3
Ġph ys
ĠF r
6 6
Ġval ues
Ġpl an
Ġ %
v ar
o or
F or
Ġc ases
Ġab le
t en
is on
Ġchild ren
m it
Ġse qu
im port
Ġm ajor
Ġt imes
itt ed
9 8
Ġsever al
Ġm aterial
Ġc irc
p one
ĠC ol
our se
ri es
rou p
Ġor ig
Ġh old
op er
Ġunder stand
St ring
ivers ity
os p
Ġd er
cri pt
Ġsu per
Ġhig her
res pon
Ġt re
use package
Ġke y
ĠTh at
em ber
ĠĠĠĠĠĠĠĠ ĠĠĠ
Ġ1 00
l ambda
ke y
ress ed
ĠS c
7 7
Ġare a
1 00
ess age
Ġstud ies
Ġab s
pp ed
Ġ >
ind ow
Ġt arget
Ġb ody
' ve
r ict
g ment
ne y
c le
y stem
htt p
th is
i ol
Ġm ove
^{ -
it ing
ore d
9 4
Ġ2 4
E T
> <
I ON
Ġf ull
lect ed
sp an
Ġr ate
Ġper iod
A n
Ġwh y
s ub
Ġerr or
9 6
id d
_ \
con om
} )
Ġtot al
R es
Ġ Ã
Ċĉĉ ĉ
Ġstand ard
m m
en ces
m ission
Ġen ergy
Ċĉĉ ĉĉ
0 4
Ġbus iness
} ^
9 7
um e
Ġne g
T r
ffic ient
Ġacc ess
ep s
Ġex ist
ust om
h y
Ġl ater
ri or
ut es
ru g
Ġl ot
er ing
id s
l ing
ĠSt ates
Ġsp ace
Ġf ar
Ġre view
Ġl a
p m
ĠA r
ict ion
{ {\
em pt
Ġsu re
Ġdif f
st ring
Ġpr im
l er
if t
t ime
Ġ `
ab les
Ġal ready
aint iff
Ġf inal
g ed
Ġdid n
A D
is ter
A M
ib ility
Ġinvest ig
Ġsh ort
ĠS p
5 5
Ġdisc uss
Ġc rit
u ed
s w
Ġreport ed
ĠA t
Ġam ong
ver age
g o
Ġassoci ated
ĠW hen
ay er
q rt
cri ption
Ġm ass
Ġlevel s
ur s
ou th
.. ..
t est
ĠC al
O U
Ġstr ong
a pe
al f
Ġth ought
ol ution
ak en
Ġp ract
Ġrespon se
Ġc ertain
iv ing
Ġs ent
F F
Ġm en
Ġal ong
ch an
v iron
pl ace
n ces
at ors
Ġin j
c d
Ġpar amet
iv ity
s ide
Ġam ount
av a
// //
3 1
Ġsub ject
as ing
Ġrequ ired
Ġd one
Ġwom en
upp ose
ĠB l
' ll
mathb f
Ġa way
Ġs ays
Ġexper im
.. /
Ġper cent
t able
Ġf ri
Ġiss ue
L ist
Ġ$ {\
Ġp ress
r ist
ret urn
Ġd om
se qu
re ct
og raph
e y
Ġ id
8 5
Ġdes ign
I I
V al
t d
Ġof ten
ic y
Ġrequ ire
Ġl og
Ġterm s
u ation
Ġactiv ity
il on
og n
C ont
I G
ens ion
Ġ= >
re m
and s
Ġ5 0
am ples
6 7
Ġdevelop ment
rib ution
Ġt ell
i que
os is
Ġgrou ps
i ver
Ġf ore
Ġp ort
Ġhow ever
Ġd r
or th
ĠC o
as ter
Ġa ge
Ġw ar
Ġth ing
" )
Ġev ent
Ġs ens
Ġsu ccess
Ġpol it
Ġche ck
le te
e b
- \
g a
Ġv ir
st it
is ing
Ġs al
> </
b eta
Ġk ind
Ġen ough
Ġc ourse
Ġen c
Ġacc ount
Ġs at
ac y
c hed
ar row
Ġto ld
Ġl ower
f l
Ġris k
ĠĠĠĠĠĠĠĠ Ġ
Ġth ough
our ces
le y
6 8
oh n
Ġcomp ared
Ġm icro
Ġen g
Ġc oun
Ġst ring
or ies
Ġf und
Ġrel ations
-------------------------------- --------------------------------
Ġa ff
Ġc ou
d ate
IN G
D E
I s
Ġb ase
O T
Ġprov ided
s igma
Ġm aking
Ġacc ording
ac es
om et
Ġinclud e
o res
ang u
ĠO r
Ġwork ing
C ol
Ġv oid
Ġne cess
H ow
Ġup on
g in
Ġcondition s
pe cial
âĢ ¦
ord er
Ġ( [
Ġag ree
Ġro le
Ġte xt
Ġb it
Ġf ood
n a
d ing
iv al
A G
Ġrese arch
g es
Ġaut hor
A l
Ġse ction
cre t
Ġus er
] ).
Ġincre ase
Ġr ange
ut ure
Ġeffect s
4 7
Ġse en
ub l
Ġchang es
viron ment
in ter
c ode
un g
ht ml
m ost
Ġdoes n
ac he
Ġd ou
Ġrespon s
ib r
ess ion
t ies
at ures
i j
Ġ( [@
0 2
Ġt ax
Ġto get
Ġde m
Ġtoget her
i ation
Ġben ef
Ġm il
g round
ĠâĢ ĺ
Ġs ource
\ _
ĠR ep
e e
Ġdet ail
Ġ Î
Ġcomp on
Ġprote in
Ġm oney
Ġproper ty
Ġan n
Ġcomp ut
Ġfl u
Ġj ob
Ġp ast
med i
Ġcomp let
u it
Ġincre ased
Ġbec ome
Ġt alk
Ġim age
ro du
Ġfact ors
Ġm or
art ment
C C
Ġph ot
ww w
he ad
Ġserv ice
Ġme chan
i ans
Ġcan not
6 9
Ġobserv ed
Ġd ri
0 8
Ġcomp lex
r r
Ġrequ est
Ġse par
Ġcon duct
Ġcount ry
Ġl ove
ist ic
b o
Ġpartic ip
"} ).
Ġb ook
a f
ĠUn iversity
Ġf oc
ur ation
m p
val ue
ri x
e v
b t
Ġl o
Ġmonth s
Ġreg ard
e ction
Ġc y
min ist
ul es
Ġdise ase
Ġth ird
ort un
an c
w h
Ġest abl
e q
O n
Ġc ult
Ġa ir
Ġmeas ure
Ġm om
ru ction
Ġ Ð
Ġe arly
Ġdo ing
ct ed
l og
Ġs ocial
Ġin de
Ġe p
Ġcre ate
Ġest im
Ċ ĠĠĠĠĠĠĠĠĠĠĠĠĠĠĠĠĠĠĠĠĠĠĠĠĠĠĠĠĠĠĠĠ
m at
D ata
ro id
V iew
Ġme et
um ber
pp er
un t
Ġn ormal
ic ense
Ġf requ
epend ent
Ġe conom
7 8
Ġcal cul
Ġcle ar
Ġstruct ure
ĊĠĠĠĠ ĠĠ
S h
Ġex c
Ġdefend ant
Ġcl in
f ile
N o
A pp
uc le
Ġcont ent
ĠG en
ĠSe e
Ġspec ial
Ġp rior
Ġdescrib ed
Ġde ath
Ġbeh av
math rm
P h
% )
en ed
Ġpriv ate
Ġmult iple
o ff
s qrt
Ġv iol
Ġact ually
Ġpos itive
m ber
com m
ic ult
con st
Ġpoint s
Ġ version
Ġcomp any
u f
ri pt
A r
l oad
Ġse ason
Ġw a
ĠC an
om s
in ary
O b
Ġd rug
Ġsign al
Ġac ross
C H
) *
ix ed
Ġother s
U n
Ġqu ant
im um
on y
The re
Ġcon cer
i res
e qu
ĠB e
ound s
Ġsur face
Ġr ather
pe c
Ġbre ak
Ġon ce
g amma
Ġm ax
Ġinit ial
Ġe ar
en ing
ce ed
ĠM r
Ġ q
ĠĠĠĠĠĠĠĠ ĠĠ
b ib
Ġc ut
ĠA N
ĠF ig
} {\
ir m
" );
pos ed
it ch
Ġe y
Ġlik ely
A B
+ \
b it
Ġf ive
Ġp ick
O M
Ġre d
il de
Ġshow s
Ġcor respon
og en
O S
Ġm illion
Ġperform ed
Ġd am
Ġshow ed
Ġbel ow
Ġwe ight
ĠAmeric an
ĠI N
s y
d elta
Ġmem bers
ĠA ss
Ġmat ter
Ġmark et
Ġfact or
Ġh ouse
Ġdet ect
Ġde mon
ri ed
Ġc ame
ar c
Ġsystem s
ud e
Ġappro ach
Ġh tt
Ġev al
at ter
Ġspe ct
r ho
g ree
ĠG od
Ġa ffect
Ġf alse
Ġc ause
ĠM ay
Ġm us
0 9
n o
Ġ ver
Ġobt ained
. )
Ġs ite
ens ity
c ular
Ġb ar
Ġto ok
Ġm akes
y ear
ob al
Ġ( *
) (
8 6
0 7
on es
Ġv ar
Ġn ight
h ing
ide red
am a
ra ft
it er
l im
Ġvari ous
Ġapplic ation
Ġe ver
on al
S o
Ġcan cer
Ġbl ood
us es
I M
Ġso ft
Ġexper ience
a i
m y
Ġs cre
Ġm ar
Ġw rit
Ġde cre
0 3
en c
Ġlim it
Ġde al
angu age
' d
00 1
h old
Ġtem per
u ild
Ġwho le
Ġt aken
Ġant i
Ġf low
Ġcons idered
Ġadd ed
Ġf uture
Ġ$ (
Ġrel ated
n ow
op h
ab or
Ġcl os
ĠO ne
ag er
r ad
Ġocc ur
in o
n et
ple ment
Ġe le
Ġy et
Ġcon cent
^ \
ill ed
re c
Ġdef ined
Ġadd ress
Ġdemon str
4 9
um n
Fig ure
Ġl oss
ĠT e
ĠĠĠĠĠĠĠĠĠĠĠĠĠĠĠĠĠĠĠĠĠĠĠĠĠĠĠĠĠĠĠĠĠĠĠĠĠĠĠĠĠĠĠĠĠĠĠĠĠĠĠĠĠĠĠĠĠĠĠĠĠĠĠĠ ĠĠĠĠĠĠĠĠĠĠĠĠĠĠĠĠĠĠĠĠĠĠĠĠĠĠĠĠĠĠĠĠĠĠĠĠĠĠĠĠĠĠĠĠĠĠĠĠĠĠĠĠĠĠĠĠĠĠĠĠĠĠĠĠ
Ġbl ock
Ġp arent
pp ing
Â °
Ġbelie ve
b ig
r im
O P
8 7
Ġm ut
ĠJ ohn
Ġn ull
-------- ----
Ġit em
a ff
Ġh om
ol l
Ġcons ist
4 6
ĠThe n
Ġrelations hip
ĠW ith
er o
id ing
d is
part ial
Ġsol ution
ward s
Ġcommun ity
ĠA fter
se e
$ -
p ly
5 7
l am
Ġst ates
x im
Ġw ent
Ġmin utes
Âł Âł
ĠC ar
Ð ¾
Ġse x
and om
Ġf ra
ĠC ent
4 2
Ġr at
x i
ĠCh rist
b all
Ġdec ision
ĠI nt
le q
' )
I m
Ġass ess
led ge
Ġm ind
s ize
Ġl and
Ġ Ċ
ch ie
ĠP at
ag ed
Ġdiff icult
Ġ ur
ul ated
Ġm aint
ĠO b
r c
Ġdev ice
Ġim mun
o ber
Ġtry ing
Ġinclud ed
~ ~
U T
Ã ĥ
Ġc amp
p ose
ver se
Ġc ross
Ġin hib
Ġde cl
ã Ĥ
Ġex am
Ġc ard
Ġreg ion
Ġcont ract
* ,
at us
en n
Ġen vironment
S S
b ody
8 9
Ġh alf
Ġgrou nd
un c
ac hed
Ġto day
the ta
Ġrespect ively
ide o
Ġf ace
ut il
ind ing
Ġtr ad
Â Ĥ
w here
Ġcl ose
iz ing
Ġm agn
Ġc ustom
Ġdef in
], [@
Ġapp l
ĠA ct
Ġrece ived
Ġc e
Ġ} ,
d ro
itt ing
ĠM ore
/ *
I R
m itted
un e
ag ing
end er
I L
Ġaddition al
Ġent ire
Ġinte gr
ome ga
Ġt able
Ġch all
Ġc ity
tern al
Ġsignificant ly
Ġany thing
C L
}} \
m ary
Ġpat ient
Ġd at
ly ing
rib ute
Ġf av
et ition
Ġnet work
Ġs ix
Ġsim ple
Ġ ill
od es
i ke
l or
Ġs us
ĠÂ §
Ġac cept
Ġb ound
pos ition
ĠM y
w ise
Ġd ig
0 6
g l
Ġb ring
4 3
Ġn at
Ġl ink
re ed
Ġcom pl
Ġgrow th
u k
age ment
ist ance
Ġneed s
Ġask ed
he l
oc al
ed eral
ens ive
ĠM ed
I P
A A
9 3
Ġget ting
Ġhist ory
pecial ly
******** ********
Ġ\ \
Ġp an
Ġt w
t au
r am
Ġl ength
Ġw in
g ress
Ġhe art
Ġin du
a pt
Ð µ
Ġlook ing
T able
Ġne ar
Ġimpro ve
ac ed
] )
Ġro om
ĠM an
Ġatt ack
op s
Ġdiffere nce
G et
Ġh ref
m iss
Ġmethod s
in clude
Ġt um
n u
b f
Ġser ies
+ +
U R
Ġpart y
us ing
Ġcont act
or ld
b ased
is f
Ġperform ance
Ġex ec
p re
ĠĠĠĠĠĠĠĠ ĠĠĠĠĠĠĠ
ic ation
EN T
u ly
Ġpa per
b ut
ĠE ng
Ġproble ms
Ġv ia
Ġpl aintiff
Ã Ĺ
ful ly
Ġin put
r is
t imes
Ġth us
8 4
ĠB y
ĠS te
Ġm iss
Ġiss ues
Ġinvol ved
Ġ ...
9 2
Ġsub st
Ġ2 1
inf ty
Ġcor rect
Ġal most
Â ±
Ġpat tern
I V
) }
st ate
Ġad j
A ll
U S
Ġnot hing
Ġh ours
5 6
à ¤
Ġserv ices
Ġe ff
Ġthere fore
Ġpre vent
ie f
O L
ĠD ep
Ġneed ed
Ġexpect ed
o o
Ã ĳ
Ġed uc
Ð °
ir l
ĠM c
Ġad minist
ĠM ar
Ġass um
W h
Ġwor ks
m ore
ĠC ount
Ġhe ld
um ents
b ox
il es
ĠĠĠĠĠĠĠĠ ĠĠĠĠ
an ks
il t
Val ue
il ities
r id
Ġpop ulation
Ġinst ead
Ġa chie
Ġoffic ial
Ġfil m
Ġbl ack
com es
yn am
Ġem b
W ith
Ġan sw
er c
Ġinf lu
uro pe
č ĊĠĠĠ
Ġh ost
htt ps
y z
Ġsh all
w idth
E M
Ġatt empt
W hen
l t
Ġbe gin
g est
Ġrec ent
Ġ$ $
l ist
f unction
Ġl ines
Ġseem s
ĠD ef
ĠM on
at ively
S et
Ġan g
Ġf all
ĠC or
Ġgen e
li ke
7 6
Ġim plement
al es
itt en
ol ve
ip s
at al
c ome
Ġrem ov
P E
Ġide a
4 1
r s
Ġst ep
Ġpol ice
i i
Ġcol l
Ġst ory
Ġmot ion
ĠC ont
w ith
Ġint rodu
T hat
Ġe lement
T R
sel ves
B y
) );
ĠI m
Ġcom es
Ġstud ents
! [
Ġp ubl
}$ ,
Ġ( -
ro s
ut h
ĠN ot
Ġpred ict
Ġprodu ction
Ġcol or
Ġ4 0
Ġb ad
Ġqu ality
Ġto ol
9 1
" ;
E n
Ġdis play
Ġout put
Ġsome one
Ġ/ *
l ation
an ced
Ġmodel s
ĠT HE
w ord
Ġre ve
d es
p x
ĠA m
g ing
f ield
Ġle arn
rap y
Ġt aking
tr ans
Ġstart ed
Ġp age
Ġd ocument
ĠY ork
Ġf ig
Ġmed ia
l ight
Ġprov ides
ĠM in
P l
Ġyou ng
Ġl oad
ens ure
Ġst e
I nt
Ġdist ribution
Ġpol icy
Ġits elf
Ġ2 2
R NA
Ġse arch
ĠP res
st er
ĠTh us
Ġnecess ary
ill s
\ \
row n
}$ .
Ġrec ogn
ul ations
d ocument
y ing
c hes
Ġind ust
5 3
e ks
ĠP ol
un ch
Ġ2 8
ĠD o
Ġn ucle
Ġa verage
ĠĠĠĠĠĠĠĠ ĠĠĠĠĠ
al ed
Ġl ive
Ġpro ced
ast ic
d own
^ *
osp ital
it es
Ġright s
Ġappe ar
Ġprob ably
Ġ| |
5 4
ĠTr ump
ĠN ational
def ine
Ġcomp ar
rr or
Ġdi agn
Ġorig inal
ut ions
Ġfr ont
Ġd ire
Ġclin ical
ĊĠĠĠĠĠĠĠĠĠĠĠĠĠĠĠĠ ĠĠĠĠĠĠĠ
Ġ ess
Ġmom ent
D elta
b ook
Ġal leg
Ġcon fig
he m
el t
p ri
Ġex act
par am
M od
Ġ2 7
Ġimp act
Ġpre t
Ġfunction s
Ġ â
Ġsim ply
Ġproduct s
cc ording
am ed
ribut ed
ĠO F
Ġph ase
Ġcor rel
Ġw alk
ec ause
Ġes pecially
err or
Ġd im
os ition
Ġinde x
ĠE urope
i qu
Ġtemper ature
er ation
et er
ĠB o
Ġwor ds
her s
f r
cl usion
| \
com p
Ġsequ ence
ove red
P S
Ġf oot
ol ic
ist ics
Ġs ample
b b
Ġproper ties
Ġcon text
s u
8 3
ã ĥ
Ġd est
Ġcon v
Ġg ra
Ġdep end
o ke
au gh
Ġform er
ĠM e
x y
Ġinst all
Ġval id
p oint
ĠE n
Ġperson al
Ġche m
Ob ject
Ġeff ort
Ġ! =
Ġass ert
Ġpr int
T ext
a ctions
Ġcomp lete
Ġder iv
ĠC ity
in ally
ref ore
ard s
Ġs il
Ġdeterm ined
Ġpres ence
ar ily
( $
Ġmed ical
Ġc opy
per ty
idd le
Ġdist rict
Ġcons um
Ġ2 6
Ġst atic
Ġev ents
qu ad
ar ray
Ġm ole
Ġgen es
Ġqu ick
Ġ2 3
Ġpol y
\ *
il i
Ġc red
ĠIn c
Ġpolit ical
Ġout side
Ġpress ure
i en
Ġs ense
pl it
Ġar ray
in ks
s l
u x
ym b
st ruct
Ġd ate
ĠJ an
Ġsat isf
Ġstr ateg
Ġeffect ive
Ġtyp es
ĠC D
Ġl ack
Ġprim ary
r an
ĠSt ring
Ġl anguage
5 2
M y
I nd
O D
ult s
d om
Ġevery thing
Ġc reat
Ġ& &
it em
M S
F ile
Ġwr ong
Ġrem ain
ch ar
5 8
ron ic
Ġphys ical
p ath
oc r
Ġfe atures
ĠÂ ±
Ġlong er
/ >
../ ../
ann el
d o
c m
an a
]{} ,
Ġins ide
Ġp ain
Ġdeterm ine
Ġconst it
Ġse lect
Ġpresent ed
Ġeas y
cul ate
b or
A t
Ġjud gment
Ġnew s
Ġqu ite
Ġident ified
Ġcre ated
ĠP r
Ġm i
Ġst op
p ublic
Ġac id
es e
is es
Ġrun ning
sy ch
f ra
ic on
A d
5 9
Ġincre asing
Ġs amples
ag s
Ġbas is
ĠĠĠĠĠĠĠĠ ĠĠĠĠĠĠ
Ġr andom
ĠG e
av ing
Â ĥ
Ġsur v
Ġh yp
Ġst ay
Ġwh ite
Ġparamet ers
Ġeval u
Ġwant ed
Ġh ope
7 4
Ġt iss
s im
Ġstat us
Ġfollow s
Ġu nd
Ġcont roll
E d
Ġstate ment
7 2
r ast
ra ck
Ġmem ber
It em
8 1
Ñ Ĥ
ur ch
Ġappro xim
Ġare as
Ġf ire
an cial
8 2
Ġp ack
} (\
r ite
Ġs em
ĠG u
Ġcontin u
Ġis n
7 9
Ġele ments
pr int
ĠL icense
Ġfr ame
Ġwe eks
Ġo il
og le
5 1
as ons
ĠP art
ĠQ u
Ġdirect ly
Ġ ?
Ġp air
Ġse cur
Ġst ra
Ġconst ant
t op
v oid
âĢ Ĳ
erv ice
P ar
li er
Ġquest ions
Ġag o
s k
Ġre comm
it ary
ĠP ar
C D
ott om
Ġf un
N ot
de v
6 3
____ ____
Ġmem ory
E L
Ġpr inc
l ig
h a
Ġfor ce
` `
ri al
Ġnat ural
Ġc ry
Ġg ames
ac c
us er
ear ch
eg a
Ġthe ory
is ions
U N
ers on
ms g
fe ction
O C
ell ant
Ġtra ining
it ation
Ġgr ad
oc ol
ĠP e
Ġst ri
g n
Ã ¡
Ġp ie
Ġav oid
Ġset t
er a
Ġ( \[
K ey
P s
Ġknow ledge
lement ary
Q u
Ġtrans fer
Ġopp ortun
T H
r angle
Ġg as
Ġcontin ue
ial ly
ĠH ar
ĠD r
ĠD NA
Ġext ra
Ġp le
ĠH is
h ood
t ilde
Ġbuild ing
Ġbeh ind
pl ate
ĠS ystem
7 3
m et
he t
cl us
ro te
)$ .
ous ly
Ġf em
Ġgre ater
re et
Ġcont ain
Ġappl ied
Ġsh are
Ġm is
i et
\] )
c ell
Ġre place
f s
Ġlim ited
f rom
Ġv ideo
row s
fere nces
om a
ay out
Ġm ice
Ġdef ault
P L
le ge
Ġre lease
m ap
Ġprevious ly
ĠPres ident
ve re
Ġbehav ior
M L
ĠS uppose
av es
Ġm ap
Ġt itle
Ġinclud es
Ġredu ced
Ġsa w
Ġf ul
p ite
ter m
ol es
cd ot
ag ue
ĠThe refore
Ġj o
S D
o at
" .
Ġv ict
ul a
ro ph
Ġab ility
Ġo ption
Ġn ational
sc ript
ĠO ur
ma x
m pt
Ġb ur
7 1
Ġexp ress
Ġve h
ell ing
B C
j s
ĠIn tern
Ġfri end
ar ning
D e
ad a
Ġm essage
Ã Ĥ
Ġst yle
Ġ6 0
Ġm ach
Ġclaim s
os ure
is ms
Ġdevelop ed
im ate
Ġart icle
Ġim medi
r ant
ri ef
Ġop in
: **
Ġre v
ap ter
um b
ad er
ĊĊ Ċ
Ġl ayer
ĠA f
fe red
os ph
Ġfav or
Ð ¸
Ġacc om
( ).
s m
e ch
l ength
Ġim pl
Ġpres ident
Ġh ot
O r
Ġcomp an
ic les
Ġinv ention
ĠI d
ĠN e
or ks
n ers
Ġsoft ware
ps ilon
ib er
. '
p en
am ent
ac hes
ĠA P
Ġind ependent
Ġwr ite
Ġm other
Ġhtt p
Ġpre c
ĠF urther
k n
ot ic
T est
Ġnum bers
.. ."
Ġplay ers
ĠD ist
Ġwr itten
Ġappro pri
Ġprote ct
Ġmat ch
Ġdou ble
Ġaut om
Ġwor d
Ġre ference
o ch
Ġ201 2
Ġant ib
] ^
6 2
Ġfollow ed
ĠJ ust
ĠCom p
Ġcom ing
ĠS im
S he
u ary
Ġparticular ly
a ign
D ef
ĠCount y
ĠD es
eth yl
ĠS outh
ĠS ince
Ġc and
at ives
oc ation
ĠD em
I F
Ġs low
) =
Ġle ave
ap an
čĊ č
Ġact ive
g or
Ġ ir
Ġobt ain
Ġref er
Ġsecur ity
C A
ĠWh ile
ill i
E X
ru pt
Ġ ;
Ġpre p
Ġb ir
Ġcle an
ĠR uss
ur b
Ġfor ward
Ġneg ative
Ġm ention
Ġun it
ĠP a
Ġre pe
r ange
ĠS T
iv en
ish ing
vent ion
Ġcorrespon ding
Ġconst ruct
Ġ[ *
Ġg irl
Ġw indow
s upp
ĠO R
Ġl ate
Ġn ature
ĠN orth
Ġspec ies
Ġus ually
ab ase
f o
ĠP er
n on
A dd
he st
ĠR eg
Ġv ot
ä ¸
Ġr ule
ash ing
Ġr ates
Ġdiffere nces
M A
m ega
Ġl iving
Ġoff ice
6 1
Ġal tern
Ġal though
ĠHe re
Ġansw er
Ġd ynam
Ġ201 3
Ġwh ose
Ġor g
Ġnot e
in ated
Ġb ox
Ġgl obal
Ġpur ch
Ġpract ice
ren g
ĠW orld
Ġoff er
Ġtri ed
ĠV al
lev ant
Ġarg ument
Ġb rain
S P
Ġet c
Ġan im
Ġreg ular
el ine
Ġon line
Ġgr ant
Ġinst ance
Ġ201 6
Ġwe bs
at form
}} $
ĠA b
Ġp o
Ġcomp et
g roup
is c
Ġgener ally
il s
Ġl ost
o on
c ast
Ġs le
st e
Ġrec ently
ĠS m
ps i
ar ies
ĠE d
Ġpro t
it ness
in ate
er ve
Ġacc ur
ĠS ome
Ġw all
ĠG o
enc ies
L e
Ġ201 4
qu est
Ġthem selves
ur ance
ch ange
S uppose
Ġback ground
ĠPh ys
Ġany one
//// ////
p ret
ill ing
Ġt akes
en er
Ġpro posed
Ġcount ries
l ink
Ġw atch
j oy
Ġagree ment
================ ================
ve y
Ġg e
Ġs ort
Ġd riv
e es
Ġres id
Ġ âĪĴ
Ġsay ing
p at
iv il
p ace
C E
Ġex cept
Ġd ensity
Ġb all
Ġst ress
Ġ/ >
Ex ception
ĠD av
res h
w ide
Ġtre ated
gor ith
l in
Ġess ential
or ph
ĠI I
p y
ĠO ct
* ~
D es
ĠM arch
ĠF irst
re w
n ed
Ġanal yz
v are
} =
Ġhim self
ĠH ouse
E rror
m ing
Ġleg al
0000 0000
Ġro t
ĠI S
Ġsit uation
uf act
Ġpur pose
Ġf ederal
Ġh ar
ĊĠĠĠĠĠĠĠĠ ĠĠĠĠĠ
^ [@
( (
pr il
Ġen h
ind ex
Ġcent er
Ġhe av
ang er
"> <
Ġ2 9
right arrow
Ġbec ame
ĠCh ina
Ġ201 5
St ate
Ġrel ative
ĠAmeric a
eps ilon
Ġfe ed
Ġpret ty
Ġspe ed
ĠS ch
h am
Ġde ep
Ġw ays
Ġco ver
Ġdire ction
Ġhy dro
âĢ ĥ
Ġre le
b on
Ġfin ancial
O ne
T ime
U LL
u el
ï ¼
ig en
ail y
Ġfail ed
Ġser ious
Ġf ast
Ġpubl ished
ul ate
ĠDep artment
ĠA ust
Ġper fect
Ġrespon d
Ġ );
Ġp ict
ac ity
00 3
Ġ vers
vare psilon
l ib
Ġinter n
Ġhigh ly
l ock
\] .
O mega
port s
[ '
Ġwom an
C al
Ġp hen
Ġpr ice
Ġis ol
Ġfind ings
M an
ĠB ar
G amma
re me
s ing
Ġallow ed
p an
b i
Ġderiv ative
Ġsu fficient
ĠA ug
Ġse lected
Ġchar ge
a e
a it
Ġ ĊĠĠĠĠĠĠĠĠĠĠĠĠĠĠĠ
od ing
Ġn ode
Ġde gree
Ġcomm it
ach ing
b ase
Ġoper ation
rou ght
ĉĉ ĉĉ
u ge
Ġcompon ent
Ġst ar
iz es
Ġcom ment
Ġcomm and
Ġh or
oci ety
)$ ,
our nal
Ġst age
d im
Ġlar ger
Ġdes igned
a ur
Ġmeas ured
Ġl abel
an ch
Ġtrad ition
Ġg ave
th at
ra el
Ġj ury
## #
ĠG erm
Ġsa f
Ġdetail s
Ġg raph
in it
m ar
G F
ibr ary
ou d
arg in
Ġindividual s
ĠS u
Ġso on
P R
ĠGen eral
Ġcamp aign
Ġident ify
Cl ass
Ġd raw
o ice
Ġim ages
n b
Ġevery one
ad es
old s
Ġsubst ant
ore m
Ġcurrent ly
h aps
Ġca used
ĠA p
Ġfoc us
Ġal one
Ġp sych
P A
Ġaut h
Ġs qu
Ġqu e
Ġfri ends
Ġloc ation
Ġprote ins
f n
o e
Ġwas n
om y
Ġ201 1
Ġa ud
ĠJ une
ĠJ apan
ĠN ow
Ġvis it
} ;
O f
Ġgiv es
Ġre str
B S
al ing
Ġcompon ents
Ġst reng
T T
Ġ[ **
ĠAl though
Ġey es
d en
Ġst im
Ġb ank
Ġ201 0
Ġfil es
or age
Ġmat rix
Ġprof ess
ou ch
ĠRep ublic
Ġcho ice
Ġr ound
f il
Ġsc ale
Ġrequ ires
or ing
i ated
oc ks
Ġ: =
her n
z z
N S
ex p
Ġatt ention
Ġro ad
Ġf ixed
Ġcl ust
oper ator
Ġpro ceed
N ew
ers ion
se ction
Ġprom ot
F L
Ġcompan ies
es tern
Ġf ight
Ġbe gan
Ġk new
Ġuse ful
i us
hes is
ak er
Ġhy per
c all
ĠHe alth
Ġsy nt
i ency
z e
ff er
Ġlead ing
Ġp ull
Ġopt ions
Ġl ed
Ġsu it
Ġ201 7
Ġb al
Ġp oor
ĠS er
Ġ// /
ob ile
se mb
Ġfail ure
( ),
ÃĹ Â
--- |
os ing
Ġnot ice
Ġ __
Ġman agement
Ġc ook
ist ry
Ġfrequ ency
it ter
Ġus ers
Ġde b
E C
Ġth reat
Ġb ed
if ically
Ġ- >
act ive
com ing
Ġor d
re en
ograph y
ĠS en
Ġun ique
k en
Ġ" "
Ġeduc ation
c ap
ĠSe pt
r ate
ir ing
Ġcand id
Ġrat io
Ġtechn ology
P ath
} _{\
ir med
Ġsc he
or ney
č ĊĠ
Ġre cept
Ġcont ains
te e
ĠW ar
r ide
v is
Ġem erg
Ġs on
S ec
ell ow
c il
Ġdiv ided
. *
Ġcirc um
Ġcomplet ely
om en
Ġpr ime
Ġt en
Ġex erc
Ġgo al
Ġac qu
st yle
Ġcost s
Ġconne ction
ĠT H
r un
it ude
if ier
! !
Ġs n
S c
Ġl at
Ġpart s
S C
N ow
g u
Ġapp ly
Ġbu y
D o
Ġindust ry
Ġpart ies
Ġcent ral
ĠJan uary
. [
Ġser ver
Tr ue
Ġne igh
Ġen joy
st atic
ĠA pril
' );
ub e
kn own
U L
Ġappropri ate
s pec
Ġear lier
Ð¾ Ð
ĠG l
Ġf air
Ġhe at
Ġmult i
Ġman ufact
n es
ĠW est
Ġc yt
() );
Ġin form
Ġf ine
Ġexp ressed
ĠJ uly
Ġover all
Ġ\ <
ef ore
Ġdist ance
Ġp en
Ġt im
b and
Ġa im
Ġsupport ed
Ġgener ated
ĠĠĠĠĠĠĠĠĠĠĠĠĠĠĠĠ ĠĠĠ
al t
var phi
Ġde ad
Ġdefin ition
Ġ ----------------
^ +
Ġestabl ished
Ġst ated
Ġ3 1
Ġallow s
Ġd og
Ġtra ck
an cy
ĠTr ans
Ġw idth
Ġdev ices
O W
} .
Ġequ al
Ġh ospital
Ġbro ad
Ġeng ine
lic k
Ġ( $
Ġeas ily
Ġbo ard
Ġhe ight
ĠC ir
F rom
The y
ĠJ ud
Ġ< <
for ce
Ġim m
Ġsit es
č ĊĠĠĠĠĠĠĠ
ĠB rit
Ġcont aining
ab led
Ġwe b
Ġto wn
Ġre asons
ce mber
" />
Ġfind ing
ens es
d f
ã Ģ
ut ed
M P
F orm
O ver
ĠM ich
Ġ( \
Ġhig hest
Ġca pt
ch i
Ġcrit ical
= '
Ġloc ated
Ġ3 2
B e
Ġparamet er
Ġprodu ced
S upp
Ġactiv ities
Ġdis cl
Ġlead ers
Ġeconom ic
Ġtum or
Ġf ather
e ed
over n
ĠR ed
ĠF eb
Ġst aff
ur ity
Ġfil ed
Ġtr ust
ĠSt ud
ĠIs rael
. _
) -
Ġredu ce
ic a
Ġre levant
Ġwor th
o very
m ark
Ġon es
ĠA g
b ra
Ġcle arly
y ond
ĠM od
Ġact ual
){ #
Ġchall eng
ve c
Ġcon cept
D A
Ġauth ors
Ġn ames
Ġsy mpt
Ġmean ing
Ġf elt
Ġm ode
i ate
Ñ Ģ
ĠS w
Ġst ore
} ^{\
i os
b in
Ġopin ion
Ġvari able
Ġappe al
t itle
ymb ol
h and
ail s
Ġm ys
S im
ĠE l
Ġh it
k ing
ĠAN D
p id
Ġa x
Ġadj ust
yt es
Ġpl ant
Ġl es
S A
Ġwrit ing
Ġtra vel
Ġl iter
Con text
* -
b re
Ġv s
ĠC ons
Ġqu al
ib ly
Ġwebs ite
Ġs ound
ou ra
S ize
\ '
con fig
Ġpro of
Ġinj ury
Ġchang ed
Ġb rought
l ish
od ies
Ġd ro
Ġhand s
over line
Ġshow ing
ĠĠĠĠĠĠĠĠĠĠĠĠĠĠĠĠ Ġ
Ġsmall er
00 2
Ġ ÃĲ
Ġrece ive
col or
rel ated
Ġm id
' ;
ove mber
Ġgo es
Ġdo or
Ġus es
ĠG et
clud ed
Ġexperim ents
f ort
* .
Ġ200 8
Ġle arning
Ġd ark
Ġtrans ition
Ġcont rast
Ġappe ars
Ġr ules
Ġh on
operator name
f ont
Ġitem s
l angle
Ġ3 5
Ġelect ro
Ġve ctor
Ġlook s
Ġbe yond
Ġhe ard
Ġm er
m en
Ġe ffic
Ġd u
Ġrem ains
Ġcomput er
Ġcult ure
AT E
ĠC ong
ar ter
Ġcoun sel
' :
Ð ½
Ġbu ilt
Ġa w
Ġf at
ĠF rom
â Ķ
Ġ util
Ġf a
Ġunderstand ing
l a
Ġhe aring
Ġnum er
Ġrel ig
Ġinter pret
ĠG r
Ġbe aut
ashing ton
Ġadv ant
ra z
Ġlook ed
ro om
Ġro ot
Ġturn ed
Ġal gorith
Ġse cret
att le
Ġcar ry
ri er
Ġwork ed
Ġin n
Ġto wards
ĠA rt
Ġwon der
ren ce
op l
Ġsur pr
Ġmajor ity
ĠS y
ĠP ublic
Ġtrans port
Ġpre fer
Ġext ract
r um
Ġp lease
Ġb inding
Ġregard ing
w orks
in ct
Ġvari ables
Ġinter nal
Ġprodu ce
In fo
Ġdec ided
Ñ ģ
ut ive
lam m
Ġsk in
A fter
in put
il le
) ).
Ġex ists
Ġsom et
os ite
Ġthe rapy
Ġbenef its
Ġconne ct
ight s
Ġdri ve
Ġful ly
Ġl ov
ĠDist rict
R A
Ġconcent ration
Ġcont ribut
": "
Ġtiss ue
gr ams
Ġcoun ter
Ġsub sequ
Ġbir th
Ġre pl
ĠAug ust
Ġparent s
Ġe ight
Ġreport s
Ġt ask
Ġmil itary
Ġg un
Ġs old
Con fig
cul es
Ġresult ing
Ġco ol
Ġ200 9
Ġpro gress
ict ed
Ġ ^
Ġpro p
) ^
ra g
pect ive
ĠS chool
^{ (
l o
os es
Ġexact ly
ok en
Ġcou ple
Ġy ield
ir t
in st
Ġindic ated
j ava
Ġvir t
ĠA ccording
n ode
Ġin fection
ĠOct ober
un k
Ġline ar
) **
Ġset ting
Ġmed ium
f ree
Ġw rote
==== ==
e ah
}} (
st ream
Ġand roid
Ġinterest ing
Ġmor ning
Ġ/ **
Ċ ĊĠĠĠĠĠĠĠĠĠĠĠ
id ay
Ġo x
as is
en ge
ge q
Ġm ount
Ġmaterial s
c ount
Ġread ing
Ġveh icle
p ol
Ġcon sequ
Ġplay ed
Ġfe ature
ĠSept ember
\ <
g y
Ġsc ore
nb sp
Ġob vious
und red
Ġc am
ĠDe cember
}} _
Ġsol id
Ġinter view
Ġmeet ing
P C
Ġget s
d b
ĠAf ric
a res
Ġcol umn
Ġsepar ate
as m
Ġreason able
m aterial
it ro
Ġdef ine
ic ip
ĠL a
f ord
at he
\ ,
Ġre action
> >
l s
Ġ201 8
if orn
Ġplay er
Ġconst ruction
Ġfield s
ic it
ĠDem ocr
E vent
Ġapplic ations
Ġstart ing
te red
Ġz ero
Ġar rest
fra k
Ġse c
ĠS ub
Ġp ul
ĠCh ar
ad em
Ġmax imum
Ġthrough out
Ġli qu
M E
g s
q l
Ġparticip ants
are st
ic o
ra b
ang ed
Ġvol ume
Ġnot ed
er ate
Ġdam age
Ġprocess es
ĠD ata
ĠC he
Ġreg ions
Ġdom ain
Ġform ation
c os
Ġcol lect
C t
i ences
Ġconne cted
Ġcl osed
c ase
Ġro b
Ġsaf ety
Ġf ix
Ġl ives
Ġinst it
st art
Ġabs ol
Ġn or
Ġbe comes
Ġform ed
om ic
ĠB ecause
Ġar ch
Ġf it
Ex p
gr ad
Ġs ources
Ġsl ight
erv ed
ir it
Ġadminist ration
Ġas pect
tr ue
Ġhe ar
O ut
ru ary
Ġl ay
Ġsa fe
Ġreve aled
Ġco ord
ger y
Ġintern ational
Ġst ru
Ġinter action
ĠÃ Ĺ
Ġst d
---- --
Ġc it
ĠSe ction
ĠD et
Ġs we
] :
V ER
Ġtrans form
id a
Ġcol lection
Ġother wise
ES S
Ġbas ic
Ġtest s
ĠN ovember
Ġref lect
con s
A b
Ġlaw s
H T
m ail
w as
Ġ eth
ur t
iforn ia
Ġimmedi ately
inf o
Ġt er
Ġm ess
Ġequ ation
B A
Ġdem and
ĠMore over
Ġpop ular
R T
Ġsc ient
amet er
con ne
ot al
ĠCent er
w id
wh ich
im age
ĠI L
Ġ ign
Ġvict im
Ġredu ction
Ġa ctions
Ġ8 0
Ġrele ased
ĠUS A
at ur
ĠS an
Ġth ous
Ġh ous
am in
pl ing
ĠW ashington
AN T
Ġ er
Ġopportun ity
Ġto ward
cl es
S ub
i ance
. \
Ġpa id
Ġm ort
Ġinflu ence
ĠI D
Ġmechan ism
Ġgiv ing
ĠD is
ES T
ĠO f
ĠC oun
C S
Ġrem ember
ĠH igh
Ġro ll
' ]
Ġw ide
b ur
oun ced
Ġ9 0
l ong
C P
ĠB r
ĠR ec
bo ard
Ġmet ab
Ġconsist ent
Ġcomb ination
im ony
Ġfig ure
Ġtest ing
ĠP ark
Ġsle ep
ĠM ark
semb ly
Ġdef ense
Ġu lt
B ig
Ġspe ak
ph p
Ġ ]
Ġrel atively
ĠCom mission
#### ####
Ġw ild
math frak
ra int
Ġ ensure
Ġsomet imes
a el
al le
Ġres ources
C O
c in
Ġph osph
Ġres istance
Ġform s
Ġcap ital
Ġm ur
F alse
Ġph one
Ġy es
ct ors
Ġquick ly
Ġfunction al
Ġcl ient
z ym
Ġa ware
ĠA D
ĠA ng
ob ject
Ġm iddle
Ġthink ing
t em
ĠP M
n y
Ġalleg ed
Ġch ance
R I
if ul
che ck
N ode
Ġstreng th
Ġsp in
Ġ( **
âĶ Ģ
Ġmys elf
ent y
Ġproced ure
Ġgre en
ĠIn st
Ġhapp en
stit ute
Ġplay ing
He re
Ġmem br
[ ]
ĠT able
Ġne arly
Ġcho ose
Ġrem ove
ĠT w
Ġport ion
Ġsw itch
Ġprov iding
Ġmove ment
Ġne ut
Ġmov ed
Ġent er
uff er
Ġdetect ed
il ies
pon ent
Ġhapp ened
as te
Ġconduct ed
Ġdat abase
Ġb ottom
Ġbl og
Ġachie ve
Ġ ~
ĠN et
P D
Ġmov ing
Ġleg is
Ġexist ing
Ġc ore
Ġst ation
o oth
Ġobject s
p c
k y
pos es
Ġm al
Ġestabl ish
[ ^
if orm
Ġb rief
Ġmus ic
ĠAust ral
ĠOb ama
Ġcom plic
Ġread y
Ġch annel
Ġcircum st
E E
Ġre ach
er ia
ĠL ist
Ġcomm er
Ġh undred
iqu es
Ġequ ival
M ap
Ġl if
Ġd aily
Ġst eps
Ċ ĊĠĠĠĠĠ
5 00
ens ions
Ġcalcul ated
j ection
Ġfact s
Ġcirc uit
F A
Ġanal ys
In st
Ġinc or
Ġfin ally
Ġanim als
Ind ex
ĠF l
lic ation
Ġconcent r
\] ,
Ġindic ate
i able
O h
Ġyour self
F ield
ot o
Ġdemonstr ated
ĠH ol
end ant
Ġne arest
Ġem ail
Ġ il
F r
Ġex hib
et t
air s
le vel
p ir
ĠĠĠĠĠĠĠĠĠĠĠĠĠĠĠĠ ĠĠ
en cing
p arent
Ġun its
% ,
ĠAl so
ĠS ec
ĠT ex
() )
f low
v est
Ġcom ments
"} ,
it ors
om in
} ,\
Ġpro ve
IN T
th on
Ġu pper
Ġcr im
Ġstat ist
ĠN ULL
#### ##
Ġw ave
ĠA dd
Ġreg ul
ĠA M
Ġb and
ĠCal ifornia
Ġtr ade
Ġj ur
at in
rom e
Ġcap acity
c an
E qu
Ġcar ried
ĠRe v
U p
Ġremov ed
Ġp etition
u ced
Ġd oc
so ft
Ġpl aced
ĠK ing
Ġb acter
indow s
Ġb order
Ġse ven
Ġs end
C ON
Ġprocess ing
ĠL aw
ock et
u nder
re es
Ġp ow
Tr ans
Ġf ear
Ġst uff
Ġvari ety
o z
F l
Ġc ivil
Ġ3 7
Ġbl ue
ĠH er
u i
Ġwe ak
Ġw itness
ot ype
Ġset s
---| ---|
F T
Ġsh ape
ĠO ther
Ġw ife
ĠC O
au ght
ate ver
Ġ4 5
Ã Ń
i ers
ig ation
G L
ĠA T
Ġscre en
ĠFeb ruary
Ġoper ator
Ġdist ributed
Ġbenef it
Ġext rem
I B
ĠH am
* (
Ġp ackage
stit ution
M e
Ġse lection
Ġc ert
Ġm g
Ġ200 7
ur rent
Ã ³
w ell
pect ed
Ġl abor
Ġsuggest ed
ut y
um in
Ġ row
ĠE ven
Ġpe ak
Ġmach ine
c oh
ol ved
i pe
de red
ac ing
Ġon to
im ent
ĠFig ure
Ġtr uth
Ġrecomm end
", "
Ġn amed
Ġra ce
L A
, -
Ġpre m
or b
]\] ,
sp ace
Ġapp arent
ro y
Ġpro grams
Ġim ag
n um
c irc
S er
ĠAss oci
D S
app ing
I A
Ġcompar ison
Ar ray
C ode
Ġwork ers
ĠP re
ic ity
Col or
um an
ot he
Ġhealth y
Ġconf lic
/ (-
Ġn ation
Ġpl atform
U M
Ġincre ases
L og
ĠP al
at ically
Ġl ib
H and
m d
Ġmagn etic
Ġs en
ĠEurope an
Ġsus p
ra ce
bl ock
Ġexp osure
el le
Ġn orm
ri e
ĠA ut
Ġmay be
Ġpass ed
Ġlet ters
om as
c ar
ĠWh ite
cont ent
op en
ch o
Ġpl aces
D ate
Ġrespons ible
Ġvis ual
P T
Ġmeas ures
Ġ\ ,
ĠInd ia
Ġdiscuss ed
Ġreplace ment
ith ub
ens ional
Ġup d
ber g
ify ing
Ġm ag
Ġsa ve
Ġcor por
Ġapproxim ately
Ġ9 5
ĠB ro
b uild
augh ter
Ġpick ed
Ġb ill
ond on
ĠC ON
Ġha ir
Ġlet ter
Ġcharacter istics
Ġb ul
Ġinc ome
Î ±
Ġman ner
k ay
ĊĠĠĠĠĠĠĠĠĠĠĠĠĠĠĠĠ ĠĠĠĠĠĠĠĠĠĠĠ
ĠBo ard
Ġjud ge
Ġem ot
Ġsympt oms
Ġ7 0
d ot
c ore
Ġins urance
/ (
Ġup date
p ass
ur l
[ \
s ource
ĠF ound
Ġf resh
Ġw id
d i
Ġdrug s
om b
Ġstruct ures
z a
ad o
Ġf ib
ru it
Ġad opt
Ġtalk ing
ĠRes earch
ĠPa ul
Ġbegin ning
Ġar riv
ĠA c
ĠU K
Ġun c
Ġstra ight
ĠIn ter
R eg
Ġh our
Ġcontin ued
A tt
Ġsh ot
Ġmod ern
Ġpan el
roll er
Ġn ut
Ġun f
Ġd ie
b m
Ġdis s
Ġm ale
Ġtest imony
it is
Ġ3 6
Ġsp read
R ec
Ġass ume
n ormal
Ġactiv ation
Ġb ud
as p
Ġ ri
Ġse vere
iz er
Ġreturn ed
ar a
i pp
)/ (-
Ġun s
Ġt our
Ġexperim ent
Ġhapp y
Ġad apt
Ġt end
Ġed ge
A ct
ĠĠĠĠĠĠĠĠĠĠĠĠĠĠĠĠ ĠĠĠĠ
re ate
ĠFurther more
* )
Ġ ut
Ġm it
ĠR NA
Ġdet ection
Ġsc en
00 4
Ġst ock
Ġfore ign
a a
Ġb ab
ĠM us
Ġ} );
Ġb illion
Ġt ree
Ġn ice
cur rent
Ġinvestig ation
P O
il ed
vent ional
Re quest
idd en
cre ate
ap i
Ġm ac
' '
Ġdel ay
Y es
Ġchem ical
Ġa ward
ou l
Ġexp and
* ]{}
Ġth row
Ġk ids
Î ²
Ġr out
ĠJ e
h ost
Ġsc ript
ĠG overn
ĠA tt
yn c
ĠDav id
Ġfil ter
Ġ4 8
AR T
Ġdes cription
ar r
Ġthe rm
ari an
ĠT est
Â Ń
g ar
pt r
or ter
Ġ( (
Ġcl ub
as ion
ĠI ll
ĠEng lish
Ġexerc ise
ĠM or
ren ch
p ost
E G
Im age
ist ant
C ount
unt u
Ġex ception
Ġne ur
âĶĢ âĶĢ
Ġra pid
ri a
Ġsex ual
Ġinter face
D is
Ġsh ift
Ġsp ent
ĠT O
y st
Ġins ert
Ġspec ifically
Ġden ied
ĠW illi
Ġchall enge
Ġpl ans
Ġsur gery
Ġs ell
Ġfam ilies
X X
ab s
ĠCong ress
Ġstrateg y
Ġliqu id
fr ame
Ġsol utions
C F
Ġaltern ative
Ġser ve
: "
Ġsh oot
x x
Ġtest ed
Ġcompl aint
go ing
Ġ2 000
Ġwa it
Ġr ul
Mod el
Ġofficial s
Ġcare er
ĠIntern ational
ar ant
ari o
Ġcould n
Ġsum mary
Ġwant s
Ġst o
Ġmention ed
âĢ ¢
AL L
ĠO ff
ra v
B uild
ld ots
Ġe lection
Ġt ouch
Ġ200 6
ign ment
Ġar m
Ġno vel
Ġp ark
ic ks
ic ial
ic ed
Ġprep ared
Â ¾
Ġn il
U ser
Q L
ç ļ
r ary
Ġ( !
or ge
Ġcl ick
Ġlead s
P P
Ġdes pite
ĠP ost
Ġopt im
Ġth ick
ab il
ell ig
Ġm ill
Ġstud ent
Ġun less
re ly
ig ration
Ġde bt
Ġhyp ot
Ġag ent
In ter
ole an
Ġfem ale
Ġl ip
Ġcy cle
ot a
m and
Ġstud ied
Ġn one
Ġmod ule
ip ment
çļ Ħ
Ġk ill
Ġimpro ved
Ġpl ate
Ġsu p
Ġnucle ar
Ġdi et
Ġtyp ically
Ġp ush
Ġcomb ined
id ers
A V
S H
% %
ing u
pt ions
Ġexpl ain
Ġmet al
M O
ĠS upp
Ġey e
up reme
âĢ ²
( {\
act ory
c s
ĠY our
ĠD on
l en
Ġexperim ental
as er
Ph i
Ġgrow ing
it z
fect ed
Ġcontrol s
Ġpl us
Ġd ed
Ġent ry
Ġcommun ication
Ġ-- >
Ġsuccess ful
Ġmin imum
Ġh op
Ġv ote
Ġ( "
as cular
Ġsurv ival
it ivity
en ced
Ġu ne
il ing
an o
ĠĠĠĠĠĠĠĠĠĠĠĠĠĠĠĠ ĠĠĠĠĠ
Ġcommer cial
ines e
Cal culate
Ġconf irmed
Ġd anger
st ract
Ġsub str
00 5
d ed
ĠA nt
ĠC H
id el
ĠInd ian
Ġk illed
Â µ
à ¸
ĠÎ ¼
d ict
pro du
in ner
Ġmole cular
W ell
Ġgu y
** )
Ġcircumst ances
os en
Ġindu ced
Ġs ociety
ĊĊ ĉ
Ġpie ce
Ġmot or
ĠD i
Ġper haps
Ġhtt ps
ÂłÂł ÂłÂł
Ġv ac
Ġag reed
Ġmon itor
Ġdis miss
Ġ3 3
Ġenc oura
Ġra ised
Ġelect r
Ġoper ations
ing ly
Ġse ed
ann ed
Ġanalyz ed
at o
g ithub
Ġprot ocol
Ġprofess ional
& \
R S
ing er
Ġill ust
Ġre ached
b an
Ġl inks
ĠT V
Ġsy n
Ġwhere as
Ġcall s
Ġaffect ed
Ġd ied
Ġassoci ation
ĠB ank
ĠC ode
Ġtool s
Ġfe et
Ġc ru
yp es
ot imes
Ġdr ink
Ġemploy ees
rac y
Ġoffic er
Ġclass es
Ġhand le
k g
Ġc op
A ss
"> </
Ġmin or
Ġm m
ĠM ost
ĠR el
c her
ri ent
Ġca uses
Ġev olution
fere nt
Ġsent ence
iz ations
ad ing
Ġwould n
Ġtr ig
ĠNew s
Ġprob ability
ou te
Ġsu n
b olds
Ġtrans l
Ġmed ic
pr ime
Ġke pt
ĠN ote
Ġsur round
. ](
^ âĪĴ
Ġ3 4
ĠN S
Ġeffort s
Ġs rc
Ġm ental
act ers
Ġj ava
Ġpro port
Ġcol lected
G roup
c or
ial og
p o
Ġe fficient
act or
Ġtradition al
Ġoccur red
Ġh uge
Ġm ix
B L
Ġg al
.... ....
bolds ymbol
C s
i ra
Ġcred it
as ma
Ġt rou
Ġc ast
Ġc atch
Ġcon ver
Ġpre par
00 01
wo od
Ġintrodu ced
E lement
Ġrel ation
Ġfa ith
ĠPl aintiff
E nt
C an
S ervice
id em
Ġdiscuss ion
reed om
ar th
sub set
Ġsuggest s
Ġbehav i
W hy
ĠSu per
w rite
n am
ĠN OT
Ġsu st
opy right
Ġestim ated
m em
Ġcertain ly
l ocal
Ġen zym
ĠS et
Ġexpl ained
Ġst orage
Ġtechn iques
Ġk id
ĠL ondon
Ġhist or
Ġl ock
Ġcorrel ation
Ġdiagn osis
ul f
res ents
Ġim plic
Ġstat ute
L ambda
p a
omet ry
Ġelect ric
Ġrem aining
c a
Ġmov ie
Ġprote ction
Ġch rom
ass ert
Ġadvant age
Ġg one
Ġapp ellant
u ate
p age
k a
K E
Ġbeaut iful
S igma
Ġinf lamm
coh ol
Ġfor ces
app a
Ġcard i
Ġcrim inal
Ġalgorith m
in y
Ġk in
Ġch ain
Ġm ist
ograph ic
ĠG roup
C M
Ġbu ffer
Ġrequire ments
Ġ200 5
Ġpro sec
P er
Ġbig gest
{ {
Ġv oice
Ġocc up
Ġpro s
}} _{
B I
d ir
M essage
it led
Wh ile
O ur
t age
R ep
sh ip
d oc
ĠB en
op ic
in ity
Ġabs ence
Ġgu ess
Ġrecord s
/ **
\ |
Ġform at
ĠE m
is ation
Ġgener ation
. $$
Ġp un
Ġt al
i very
Ġfoot ball
mod el
Ġpict ure
Ġold er
Ġorgan ization
Ġrespons es
Ġd oll
Ġmiss ing
Ġserv ed
w hat
Ġtem por
Ġwh om
Ġcit iz
ĠE ach
D R
Ġadd ing
M ethod
ĠE ast
ace book
Ġoff ers
Ġopt ical
Ġbre ast
Ġquant um
Ġfl oor
res hold
) ?
Ġder ived
Ġe at
riv ate
Ġcreat ing
Ġman if
Ġv an
g reg
Ġbro ther
ym ph
ĠTex as
Ġsc ience
Ġpol ic
Ġsubject s
č Ċĉ
Ġpur poses
Ġ4 2
B l
Ġ( )
os c
s rc
B U
Ġ vert
Ġeconom y
$ (
Ġex ternal
Ġan imal
ĠBl ack
ĠĠĠĠĠĠĠĠĠĠĠĠĠĠĠĠ ĠĠĠĠĠĠĠ
Ġst ream
d et
old er
olog ies
Ġide as
h ow
Ġint ended
} -
Ġschool s
-------------------------------- ----------------
ist an
und ay
alle l
C I
s f
ang ing
Ġaut o
AN D
Ġd rop
Ġproper ly
mm et
F il
ck now
Ġrep resents
icro soft
ind uced
Ġres olution
n el
Ġext ent
F irst
S I
def ault
Ġj oint
Ġgl ass
so le
ĠBrit ish
Ġp ool
Ġdecre ased
Ġdirect or
Ġthan k
it ory
Ġrad io
Ġsy mmet
mb ox
Ġsum mer
P re
Ġco e
Ġcon vers
ĠO h
N T
spec ific
res ult
ic ians
Ġ3 8
Ġth read
Ġbel ong
z on
Ġcom fort
Ġauthor ity
ĠS upreme
Ġmechan isms
non umber
et urn
ĠE v
Ġprote cted
Ġe arn
Ġvir us
Ġdist inct
ĠJ ew
Ġlar gest
Â »
Ġs av
OR T
Ġsy mb
y a
Ġatt orney
Ġexper ien
Ġfeel ing
Ġgr and
or ry
es is
wh ile
Ġar bit
M T
S p
i at
Ġcommun ic
Ġinterest s
( &
Com p
Ġte ams
P r
ensure math
A ut
Ġtechn ique
Ġmembr ane
/ \
Ġoffic ers
Ġreg ist
C o
s ens
ĠJ ack
F I
Ġcr ime
How ever
ĠGo ogle
_ .
Ġcont ained
a ud
ri an
Ġte ac
Ġ rac
ĠS ur
Ġslight ly
Ġc at
ty p
Ġd ry
Ġem pt
id ge
Ġlo op
Ġv el
ĠO ver
Ġf irm
pos s
Ġg old
r d
Ġsal es
B ox
c ks
ues day
Ġstru gg
U E
Ġdri ver
Ġsh ared
Ġv ent
Ġgu ys
Ġb ool
C G
ut or
Ġsit u
Ġchar ged
on ic
j o
val id
Ġopen ing
p ack
f unc
C he
Ġchar acters
et es
ĠAn y
ag o
}} }
l ast
Ġdou bt
Ġlat est
ol ar
Ġerr ors
in te
ord ers
Ġproject s
ug in
Ġr ise
ĠR em
ĠCh inese
**************** ****************
ĠA L
Ġof fered
Ġep is
M R
Ġcon ventional
Ġh us
Ġpr ison
Â ·
. [@
il arly
Ġhold ing
ĠD an
Ġco verage
** ]{},
Ġd ra
Ġann ounced
ou ble
L ine
r ich
Ġk it
om an
Ġneigh bor
ĠSt reet
ĠCan ada
ĠFound ation
Ġh ol
Ġex change
ĠE q
ĠT wo
het ic
âĢĿ .
Ġdescrib e
ĠR E
Ġent ered
Ġcons erv
Ġwe ap
Ġg ain
Pro perty
ĠD E
Ġag ents
Ġinter actions
Ġinvol ve
Ġr ing
d raw
j ust
ĠFr iday
ven ue
AT ION
Ġsupp ly
ill a
}} {
pl ify
en ame
S U
Ġr ank
ang es
Ġdecre ase
ari ant
c are
m ic
ĠC irc
ĠG reen
ĠCl ass
ĠR ober
S ystem
ĠĠĠĠĠĠĠĠĠĠĠĠĠĠĠĠ ĠĠĠĠĠĠ
Ġexper t
ĠC a
Ġag ency
x ml
Ġanalys es
Se e
ri age
Ġdo se
S te
Ġprof ile
ĠCal culate
Ġcry st
Ġconcentr ations
abl a
Ġrepe ated
Ġcomp osition
( {
Ġw ish
k in
Ġsm ooth
ĠCom mun
h i
ĠCoun cil
ĠPe ople
Ġw ind
Ġout come
S ome
Ġview s
il er
ru ctions
O G
" ).
ĠJ ames
sum mary
ĠD irect
âĢ Ĭ
Â ½
Ġown ers
Ġrecept or
c hen
l if
Ġne uro
Ġgen etic
ĊĊ ĊĊ
ans ion
Ġqu arter
č ĊĠĠĠĠĠĠĠĠĠĠĠ
ĠS uch
Ġexist ence
qu ery
Ġposs ibility
Ġc old
ĠF e
C all
Ġpl ants
Ġ" [
Ġel im
Ġoper ating
pon se
S ource
ain er
Ġ+ =
Ġelect ron
Ġcomplet ed
Ġdriv ing
pl ed
R ef
ĠA rm
Ġtre nd
Ġreturn s
onal d
ĠR ich
Ġc ir
Ġpattern s
ĠU nder
Ġst ars
Ġinte ger
Ġsign als
Ġare n
mit tee
Ġwh atever
as ks
in i
ĠF OR
Ġ200 4
v ille
Ġident ity
Ġheav y
ot ed
ĠC A
OU T
ch ild
ĠĠĠĠĠĠĠĠĠĠĠĠĠĠĠĠĠĠĠĠĠĠĠĠĠĠĠĠĠĠĠĠ ĠĠĠĠĠĠĠĠĠĠĠĠĠĠĠĠĠĠĠĠĠĠĠĠ
Ġdise ases
t es
Ġinterest ed
Ġgener ate
======== ==
Ġ --------
re ated
ĠW ed
as c
p g
IT H
o om
Ġl it
Ġst able
it ect
Ġfin ite
Î ¼
Ġ$ {
ar p
Ġbut ton
Ġme ant
R L
Ġpe ace
Ġequival ent
Ġqu ery
Ġappe ared
Ġ} ;
Ġequ ipment
Ġindic ates
c ence
Ġimport ance
ĠS ervice
Ġb oy
pro perty
ĠMon day
y ou
Ġspect rum
Ġconf irm
Ġw el
r ated
Ġcontroll ed
Ġm obile
k appa
ĠT ra
Ġcar bon
wid et
Ġhold s
ĠM art
widet ilde
n abla
Ġcon clusion
ĠK e
Ġsequ ences
Ġincor por
ĠAd dition
d t
Ġcon vert
ĠB oth
am ily
Ġrun s
se m
Ġdi ag
b a
ĠW estern
d ots
Ġjur is
ĠW ell
Ġconfig uration
Ġn an
ĠP D
Ġhapp ens
a fter
IT Y
Ġpartic les
P H
Ġpre gn
Ġ201 9
in n
P I
m ain
Ġb ra
Ġsecond ary
Ġdefend ants
Ġre ality
xt ure
Ġm ouse
Ġto x
} )$
ject ed
il it
Man ager
] ),
ĠO ut
urs day
. </
am ine
iven ess
we b
Ġmaint ain
ï¼ Į
C lick
Ġp y
Ġsu ff
Ġc atal
Ġrefer red
ge bra
Ġapp rec
Ġmeasure ments
Ġdig ital
ER T
Ġb ow
nes day
Ġinst r
an cing
ĠIn s
Ġsur vey
il os
clud ing
Ġs ession
Ġ ------------
An y
Ġtra in
Ġcontinu ous
ur ies
ĠIn stitute
st on
Ð° Ð
el ess
] [
Ċĉĉĉĉ ĉ
Ġseem ed
Ġf lex
f aces
se lect
Ġcomp ens
Ġdevelop ing
er ic
cre te
1 01
N D
Ġstate ments
ist ent
ĠTe chn
Ġdis p
Ġno ise
ĠD ay
Ġ ing
Ġb urn
Ġl ibrary
f alse
N E
Ġ5 00
Ġf arm
ra ction
Ġal cohol
Ġp ure
rid ge
h al
oth ing
ic ated
ĠSe cond
Ġsp irit
ind er
ĠA ir
201 5
h as
Ġatt ract
! --
T O
Ġdown load
l ook
ĠY es
he ight
Ġch ronic
ant ly
ĠSm ith
ab ilities
Ġc ateg
Ġbal ance
Ġremain der
Ġrepresent ation
ĠA S
Ġex cess
P e
ĠJ es
ĠD el
ad y
ra pe
Ġenvironment al
Ġjob s
r ig
ĠM al
Ġexc ell
ĠComp any
Ġcol lege
Ġappro ved
ĠA re
or row
Ġdi ab
oc ity
Ġce le
} +
am ing
om orph
ĠM et
ĠE very
ĠF acebook
Ġl atter
Ġiss ued
Ġsh o
Ġli ver
C K
Ġhigh light
Ġb orn
Ġsqu are
Ġextrem ely
ow s
ĠIt al
Ġspe ech
l n
Ġknow s
w in
Ġempt y
Ġwar rant
ĠMich ael
Ġh ab
Ġsp ot
ĠS unday
Ġestim ate
E nd
M I
Ġex amples
Ġpart ners
Ġorig in
ane ous
Ġlead er
Ġab use
Ġc overed
Ġchar ges
Ġtrans mission
ĠK ore
Ġl ung
ĠP ort
ĠP ress
)/ (
se y
Ġser um
ĠB ig
Ġa head
Ġexpl icit
Ġreg ulation
al ysis
Ġliter ature
le m
ĠM ac
ĠF lor
ens or
Ġst re
h ouse
ail ed
k i
Ġsubstant ial
) [
Ġsign ed
Ġopen ed
Ġhus band
ap ache
Ġimplement ation
Ġt error
ĠWh y
i as
Ġsc ene
Ġflu id
Ġcustom ers
as ure
ste in
ĠM at
r l
og ene
Ġch urch
r or
Ġform ula
Ġv ill
Ċ ĊĠĠĠĠĠĠ
Ġocc urs
yt ic
ĠThe orem
D on
Ġpl asma
Ġint ent
ĠChrist ian
Ġw ood
g ments
Ġrecord ed
ĠC R
Ġdel ivery
Ġcomp ounds
ĠE R
atur day
Ġdec isions
Ġapp ar
is hes
Ġcy cl
m t
app ro
he nt
Ġext ension
ĠM iss
ĠL eg
t arget
leg al
Ġrece iving
Ġevalu ated
$ $\
Ġass ay
Ġnet works
ul in
Ġin ner
Ġallow ing
But ton
du c
Ġcall ing
Ġext ended
pro cess
Ġle aves
ĠAmeric ans
pro duct
Ġviol ence
let s
Ġw at
an es
Ġ7 5
Ġha ven
ĠF rench
Ġpercent age
A Y
re al
form at
Ġdig it
ĠUn ion
f irst
Ġout comes
---- ---
A ccording
it ative
Ġconcer ns
Ġassess ment
** (-
m essage
Ġapp oint
Ġsubsequ ent
end if
n ames
Ġle aving
Ġthous ands
ĠCom mittee
ok es
Ġ200 3
b al
Ġtest ified
Ġhelp ed
ph one
ok ing
s a
Ġmost ly
stand ing
e rest
å ı
i pped
Ġunder lying
Ġown er
Ġar r
I ST
Ġimmun e
Ġgu arant
ĠLe ague
Ġarg uments
ĠF inally
land s
Ġs ale
\ {
Ġeffic iency
N et
ore t
ĠD uring
ell ed
ĠT uesday
ortun ately
ribut es
om es
st d
Ġw ire
Ġmus cle
u ps
v an
il ty
n ight
ific ations
Ġl ymph
Ġrepresent ed
ed y
ĠU sing
Ġcrit eria
ad s
Ġcent ury
Ġun iform
end ment
Ġra ise
) =\
ser ver
====== =
Ġ ĊĠ
ĠJ er
te x
Ġgreat est
ĠC T
Ġexam ined
aut hor
Ġmanufact ure
z eta
201 3
s or
Ġv acc
Ġbud get
n ull
Ġspec ified
Ġlearn ed
Ġevent ually
Ġbook s
) "
S M
ĠS un
Ġad ult
ro g
Ġ3 9
E xt
Ġpower ful
Ġdisc rim
ĠL ou
Ġsh ut
P oint
Ġcandid ate
ĠW H
y an
b ed
Ġcur ve
om al
ost ic
Ġrest aur
hen s
Ġdep ends
z en
201 4
Ġlimit ations
201 6
Ġinc ident
ĠM any
Ġposition s
: \
i h
it ely
Ġbe g
Ġl icense
ak ers
Ġe lev
Ġconstit ution
ĠI ran
y r
Ġsche me
OR D
Ġde fect
w ed
Ġsupp osed
Ġpl ane
amp ions
ĠGerm any
Ġ6 4
ĠJud ge
Ġvol tage
oper ative
Qu ery
B ar
ĠâĢ ¦
Ġinvestig ated
Ġv ary
)* (
Ġth reshold
' .
---- -
ĠWe b
et te
Ġachie ved
ĠSc ience
Ġtyp ical
d em
? âĢĿ
S ON
ãĢ Ĥ
ĠI II
ĠL em
Ġrese arc
Ġw arm
0000 00
Ġpath way
FF FF
ĊĠĠĠĠĠĠĠĠ ĠĠĠĠ
is her
Ġg ar
Ġgo als
Ġpurch ase
Ġ$ {{\
Ġm ixed
g t
ĠN one
ot es
Ġchang ing
Ġun ivers
ip al
Ġpolic ies
ĠCol lege
Ġ 00
Ġj ournal
Ġ4 4
Cl ient
Ġfra ction
i ant
Ġproced ures
Ġsp ring
row ser
Ġstandard s
Ġmetab ol
d ependent
ol f
supp lementary
en u
Ġrec overy
od ay
The se
Ġfl at
Ġf ish
Ġen force
Ġapplic able
ĠAssoci ation
Ġgrant ed
Ġt ub
Ġsp end
Ġfil ms
P ol
à ¥
b ug
c p
dim ensional
Ġ200 1
Ġte le
ĠA R
g ression
P RO
** ]{}
ĠGovern ment
ell a
s he
The n
g ers
ĠB ay
U D
CT ION
Ġhe ter
Ġact s
Ġisol ated
Ġin sp
Ġper t
Ġfl av
l aw
Ġa cknow
we ight
Ġpol ar
AS S
ĠU p
D B
Ġg on
Ġdes ired
$ {
N umber
Ġeval uation
Ġsee ing
F C
ruct ure
ist ed
l ang
a per
J ust
, '
d r
or gan
Ġeas ier
Ġsubstr ate
ri end
j son
A re
ĠT R
Ġman ager
Ġse ctions
c f
Ġinde ed
Ġstrong ly
Ġrel ief
Ġtra ffic
Ġdetail ed
Ġmor ph
Ġfund s
Ġp aint
Ġinvest ment
Ġbab y
c el
i pl
Ġf uel
; \
ain e
Ġch osen
Ġfour th
Ġl ab
Ġ5 5
Ġf ol
but ton
Ġent itled
Ġ{ {\
Ġm aster
F S
Ã ¶
ĠCh urch
201 2
St ream
Ã ¨
In put
Ġre plic
Ġf reedom
Ġc ategory
Ġst ored
ĠF in
Ġrestr ict
R un
est ed
ill er
Ġg ly
j ud
Ġcomm itted
Ġjo in
est s
Ġacc ord
Ġpro pos
Ġam az
} =\
Ġd aughter
Ġclust er
ce ived
Ġre vers
Ġd uty
Ġcon clude
Ġconsider ing
im g
cret ion
bre ak
ĠM em
Ġ6 5
ĠWh ich
Ġdirect ed
//////// ////////
ĠEng land
ĠP en
ĠF orm
Ġsymb ol
oc ytes
Ġf if
D L
Ġd raft
Ġpay ment
F P
Ġthan ks
fe e
Ġgal ax
ect or
ann els
ĠFlor ida
Ġpr ices
Ġinc ub
am ental
Ġb ond
c at
Ġcr is
ĠS N
ber t
Ġfor ced
Ġdoc uments
Q U
Ġem ph
Ġrelig ious
ĠT om
ĠPart y
Ġear th
Ġint ellig
velop ment
201 7
d iction
ĠW il
Ġlist ed
sm all
d at
3 00
ĠM o
Ã ¼
Ġc up
Ġacc ident
ER R
ÃĲ Âµ
est ic
> (
con text
Ġn av
ition s
Ġox id
ple t
iv o
ĠTh ursday
Ġdeterm ination
Ġappar atus
ĠC opyright
Ġst ories
U s
Ġm o
Ġequ ations
Ġstim ul
St art
Ġsk ills
Ġro ck
Ġconflic t
Ġfoc used
] --
Ġal ter
Ġdep ending
in v
Ġfor th
ri ve
Ġ3 00
ĠH ill
ĠS al
Ġwa iting
Ġl ose
am m
ĠS E
Ġvirt ual
Ġpl ays
_{ {\
it able
}} ^
ĠWed nesday
Ġresult ed
s g
Ġcons ult
Ġ200 2
Ġmin im
re p
Ġf ans
idel ines
Ġacc um
Ġe cho
clus ive
Ġmeasure ment
AG E
N O
Ġu int
i ot
ĠP C
Ġconcer n
Ġobserv ations
Ġposs ibly
Ġs ch
lev ision
sc ale
Ġvers us
ou nce
Ġmod ified
st atus
Ġbelie ved
on ly
cd ots
ĠRuss ia
Ġde g
"} .
---------------------------------------------------------------- ----------------------------------------------------------------
G en
P art
B O
ĠH IV
ĠC I
b ound
Y PE
ĠO pen
Cont ent
ĠT ime
Ġaff ord
Ġexcell ent
Ġassum ing
Ġt ag
out put
ĠG old
ĠM A
Ġcomp r
e vent
Ġne ither
ry pt
Res ult
al ty
Ġn odes
ĠI T
S ince
in ations
us hed
Ġfe es
Ġang le
ĠB re
ĠD iv
Ġexpl an
Ġfl oat
Ġoff ense
Ġtw ice
ĠN a
Ġce re
ĠL ord
Ġemploy ed
ĠV ir
st ood
im ately
rape ut
Ġappro aches
Ġcommun ities
Ġdam ages
Â ¶
Ġob lig
ĠU N
ĠE X
Ġcomp are
v a
ĠS erv
B ack
ĠF ree
se arch
Ġst reet
Ġplan ning
G E
AC K
ell ular
Ġ4 1
Ġsc an
Ġsee k
Ġres ource
Ġinvestig ate
ĠR ob
Ġstand ing
im er
Ġenh ance
G B
Ġsal t
ĠS am
Ġr ich
Ġpre val
Ġsc ores
um ns
ĠW indows
Ġtrans cription
ä »
ĠB el
Ġc os
Ġconf idence
Ġaccur acy
othe rapy
Ġ1 20
ip her
Ġsh ock
Ġfund ing
12 8
ĠB er
Ġhel ps
Ġb atter
ĠF ile
Ġwill ing
Ġconcer ned
]-- [@
ĠR ef
Ġhous ing
S L
ed ia
Ġtri als
el se
ĠM ary
ic ian
Ġinter vention
ĠP et
Ġsens itivity
out hern
l ayout
Ġ _{
\ !
Ġcitiz ens
Ġe gg
ĠE nd
Ġmain ly
ist ory
Ġdep th
Ġgu ilty
ĠB ur
Ø §
Ġbound ary
d el
Ġask ing
Ġelect ronic
n av
u ous
Ġad ults
int on
od ed
Ġrelationship s
pl oad
ĠM ex
ĠS H
Ġt un
Cont roller
IN E
ĠCirc uit
Re ad
er ior
ĠS aturday
Ġsp at
Ġp al
ĠJapan ese
Ġinvol ving
se ct
Ġdat as
Ġexperien ced
Ġanal og
and roid
% .
ĠP R
^+ ^
ĠIs lam
Ġb on
Ġfin ished
Ġevalu ate
Ġc ogn
Ġ& =
Ġexp osed
Ġrec ip
Ã ¤
ĠB rown
us al
cl ient
Ġexp ansion
Ġcont ribution
R em
m id
________ ________
Wh ich
Ġsignal ing
ĠC L
Ġext ends
ont al
ĠA lex
poss ible
Ġadv ice
Ġwor se
ap pe
Over ride
ater al
c r
B ase
es h
ĠS olve
el es
T e
s in
ĠJes us
g ent
Ġframe work
ĊĠĠĠĠĠĠĠĠĠĠĠĠĠĠĠĠ Ġ
2 000
Ġemploy ee
" ),
T A
M ore
Ġcontin ues
c up
Ġcap able
201 0
add ing
ul s
ĠĠĠĠĠĠĠĠĠĠĠĠĠĠĠĠĠĠĠĠĠĠĠĠĠĠĠĠĠĠĠĠĠĠĠĠĠĠĠĠĠĠĠĠĠĠĠĠĠĠĠĠĠĠĠĠĠĠĠĠĠĠĠĠĠĠĠĠĠĠĠĠĠĠĠĠĠĠĠĠĠĠĠĠĠĠĠĠĠĠĠĠĠĠĠĠĠĠĠĠĠĠĠĠĠĠĠĠĠĠĠĠĠĠĠĠĠĠĠĠĠĠĠĠĠĠĠĠ ĠĠĠĠĠĠĠĠĠĠĠĠĠĠĠĠĠĠĠĠĠĠĠĠĠĠĠĠĠĠĠĠĠĠĠĠĠĠĠĠĠĠĠĠĠĠĠĠĠĠĠĠĠĠĠĠĠĠĠĠĠĠĠĠĠĠĠĠĠĠĠĠĠĠĠĠĠĠĠĠĠĠĠĠĠĠĠĠĠĠĠĠĠĠĠĠĠĠĠĠĠĠĠĠĠĠĠĠĠĠĠĠĠĠĠĠĠĠĠĠĠĠĠĠĠĠĠĠ
Ġad vert
201 1
it a
Ġf ab
Ġsett ings
ĠF ederal
Ġide al
č ĊĠĠĠĠĠ
Ġdep artment
Ġd il
Ġassess ed
Ġint ensity
ĠAustral ia
ut ely
Ġcrit ic
um er
Ġpl ot
ĠS D
ĠIntern et
Ġ ion
Ġh arm
00 7
F IG
) ^{
Ġphen omen
/ -
Ġre nt
Ñ ĥ
ĠOff ice
Ġd ys
. **
iv ation
ĠGe orge
j e
ĠI P
en ance
et ime
Ġcomp etition
Ġor dered
EN D
con f
Ġadv ance
Ġadv anced
Ġdemonstr ate
Ġbi ological
Ġgu ide
Ġplaintiff s
p ress
O K
Ġpe pt
Ġrel ates
Ġst ack
N ote
V ert
N F
ra q
et ing
00 6
; &
ern el
Ð »
Ġmur der
ap ers
ĠF ield
ĠM S
Ġpers ons
ro t
Ġdel iver
Ġc ash
M D
Ġsc ope
il ton
G C
Ġst rain
ent ry
Ġchalleng es
dis play
Ġ4 9
Ġpotential ly
ĠG ood
Ġsuit able
Ġ4 7
Ġb an
Ġim aging
d y
Ġ4 6
ĠH all
mod ule
Ġhum ans
g ical
Ġvel ocity
u a
ĠF IG
Ġn orth
ĠP lease
ĠRober t
k er
Ġinter val
Ġind epend
Ġcons ent
Ġcon ference
Ġr ats
Ġdec ide
Ġsto pped
Ġf ill
ĠC P
ĠS um
Ġ iron
Ġs am
Ġstatist ical
ft ware
Ġconst raint
Ġimprove ment
Ġar ter
miss ions
ĠG a
V ersion
L ast
u int
Ġrec all
Ġt ight
âĢĿ ,
Sim plify
i ary
Ġadminist r
ort hern
ĠDef endant
Ġc row
Ġm el
Ġclaim ed
Ġcons c
Ġrem ained
as hed
Ġth in
Ġstr ict
Ġ4 3
ili ar
app ed
ort ed
ĠN O
RO M
U t
if ferent
G o
omet ric
ard en
i ples
Ġend ed
ĠT ype
in ates
ĉĉ ĉ
if ies
ER S
Ġs ides
Ġbur den
xy gen
Ġun known
Ġpart ial
Ġd uration
Ġm and
Ġch ief
ĠU se
du le
ĠSt at
Ġlegis l
s d
Ġj ump
Ġsuggest ing
ĊĠĠĠĠĠĠĠĠ ĠĠ
Ġr an
ĊĠĠĠĠĠĠĠĠĠĠĠĠĠĠĠĠ ĠĠĠĠĠĠĠĠĠĠĠĠĠĠĠ
ĠRuss ian
ĠL in
Re v
Ġfrequ ently
Ġdisc overed
ĠT ur
Ġbr anch
Ġhe nce
12 0
ĠÂ £
it ud
ar ks
G e
Ġdo ctor
Ġad equ
Â º
Ġl ic
ĠRepublic an
ĠW ork
Ġb ag
ĠI F
ant ic
======== ====
clus ions
Ġre verse
ear s
Ġarg ues
ĠR ule
ple te
d ep
Ġs an
Ġo rient
) }\
Ġlim its
Ġb right
Ġn ine
Ġcele br
~~ ~
Ġnecess arily
F e
Ġ1 50
S cript
Ġt on
Ġcol on
Ġar ms
ĠC E
Ġann ual
re y
char ge
ri p
O ff
ĠAN Y
Ġmark ed
Fr ame
C reate
arg s
ploy ment
j u
m g
Ġcourt s
201 8
Che ck
ĠSe cret
Ġsy nd
Ġso le
Ġsecond s
Ġph arm
Ġ5 6
dd en
Ġrad iation
Ġax is
Ġform al
Ġvari ation
Ġdest roy
Ġas sembly
Ġst ability
Ġr ough
Ġ ens
iver se
ro ke
G A
) ]
ĠMin ister
i ological
ĠH ence
* /
" ]
Ġpol l
Ġwid ely
Ġt ick
Con ne
Ġac ute
T C
u ing
Ġantib ody
Ġthere by
ool s
I O
Ġst ick
Ġdefin itely
ĠS and
Ġbr and
m as
ĠTw itter
ell s
ĠL ike
Ġor al
ic ious
Ġcon ven
Ġprov ision
Ġt ables
P ost
Ġ ice
Ġposs ess
Ġlink ed
Ġdim ension
Ġaspect s
ĠJohn son
Ġm RNA
Ġc ort
Ġgra v
Ġattack s
us iness
m ethod
mon th
Ġkeep ing
ĠL og
Ġimpl ies
Ġnumer ous
hel ial
ic ago
Re ferences
Ġpop ulations
ĠFr ance
m ut
M on
Ġindic ating
AB LE
Ġu l
ĠGerm an
Ġan c
Ġstart s
ĠW ITH
P age
as y
Ġmi xture
ĠJust ice
oc hem
ĠO nce
Ġident ification
Ġfund amental
N N
r ine
Ġwas te
Ġarch itect
Ġopp osite
c ut
Ġra re
Ġaccept ed
A ction
os h
rodu ction
ĠD ec
H S
ĠOn ly
Ġ ĊĠĠĠ
Ġinterpret ation
Ġmort ality
Ġun able
Ġinst ructions
Ch ar
Ġentire ly
Ġviol ation
Ġm ission
Ġinter act
Ġbre ath
ĠAp pe
Ġco ach
Ġbe at
w ar
Res ponse
( [
Ġtr uly
Ġabsol ute
Ġrecogn ized
Ps i
M ay
Ġj u
Ġs outh
ag on
Ġcell ular
Ġb one
Ġgon na
\ /
msg id
Ġpract ices
Ġdist ingu
Ġre produ
Ġgirl s
un it
hed ul
"} )
ren cy
Ġs pl
Ġcont ribute
Ġnot es
Ġgl uc
A meric
Ġn arrow
and a
Ġpar allel
Ġdeg rees
ens ed
Ġsu dden
M C
Ġend s
Ġpart ner
St atus
Ġmass ive
he ther
Ġsupport ing
Ġrel ax
ĠI raq
Ġsm art
ash ion
ĠP A
Ġsupp l
Fil ter
msg str
Ġm outh
f ind
ĠM ass
op ath
x e
ĠSen ate
Ġpro test
ne xt
le ctions
1 10
ĠO N
p ng
Ġtri p
Ġrespons ibility
Ġre act
} )\
requ est
EX T
Ġsign s
$ )
Ġbe coming
Ġmil es
Ġemploy ment
Ġa st
cl aim
Ġpoly mer
v ol
cal e
Ġcor re
ap se
B D
ost er
ĠOb ject
Ġatt ached
Ġappear ance
Ġcam era
(\ [
ell o
Ġs in
Ġtechn ical
i pping
L oad
Ġaccom pl
Ġ[ [
S olve
Ġdis k
Ġcomp ound
Ġh ole
Ġman aged
Ġresid ents
Ġr oute
ĠPro gram
ER E
ĠG ive
Ġdepend ent
ty le
Ġoff set
N e
ir al
4 00
Ġv itro
Ġmin ute
app end
ĠC le
Ġmole cules
wide hat
Ġen able
Ġcon cluded
Ġdynam ic
Ġco h
t ra
\] ).
or ters
Ġes c
Ġap art
Ġcommon ly
Ġamount s
cle ar
w ing
Ġp ix
\[ [@
ĠS ing
T E
Ġdef ic
Ġass igned
opt ion
ĠM ot
m atch
Ġconsider ation
L abel
B P
Ġcomm ission
med ia
Ġpro lif
Ġphot o
k ins
D ec
* ^
k et
Ġpur su
Ġunder stood
Def ault
Ġart icles
om ial
Hand ler
Ġdynam ics
ĠThe ir
ĠP H
F O
Ġs ought
y er
Ġrequire ment
ef fect
Ġfac ilit
ĠJ ava
he rent
ĠInst ead
L S
ak ed
ĠAn n
Ġeffect ively
Ġaccur ate
un s
{ "
gr ade
U I
ĠPl an
L C
V A
Ġsh ip
Ġg ap
cont rol
ro ad
Ġestim ates
ir ty
Ġjuris diction
ĠP RO
Ġsens itive
Ġmicro sc
ad ata
sc rib
ne g
Ġsp aces
Ġtem plate
ad ian
Ġre nder
Ġcon j
Ġ5 2
Ġf illed
Ġst em
ĠT or
ĠAfric a
line ar
us cript
** ,
}} {\
Ġs plit
f ess
Ġdec ades
ed ing
Ġus ual
Ġmess ages
ij ms
ĠPh il
Ġb ath
ĠTh omas
ch ron
Ġb inary
Ġ5 1
Ġest ate
ĠAP I
Ġo xygen
Ġjust ice
Ġsp ending
Y our
per ties
ĠP CR
pro te
# :
Ġsee king
rapeut ic
Ġdis put
l ife
ĠSc ott
Ġflu ores
ĠT imes
å Ī
t ings
Ġw ww
or al
ol a
Ġad mitted
Ġn om
Ġneg ot
Ġsen ior
ust er
ĠB ill
ĠN or
Ġf ont
I E
ress ive
Ġfavor ite
ĠR iver
w s
and er
ive red
P lease
Ġc m
Ġstrateg ies
Ġp et
ĠM ag
C OM
Ġsec ure
str ong
m o
Ġswe et
ĠE arth
Ġobject ive
val ues
We b
ĠM ad
Ġconsum ption
ist or
++ )
Ġhor iz
Ġs qrt
ob j
ag ger
Ġ7 2
st ar
ĠW ill
Ġab und
ĠSt and
Ġbro ken
Ġass istance
pro p
Ġcharacter ized
Ġsim pl
ant a
m L
Ġg ender
ig r
ĠP y
h igh
D et
Ġpl astic
ick en
Ġint ention
Y eah
] ]
ĠN E
Ġsmall est
Ġac adem
b our
ĠF ore
am ber
fl oat
Ġint ra
Ġpredict ed
Ġar range
^ -
Ġem ission
200 8
ĠInd eed
O B
p rivate
li k
Ġtiss ues
[ "
ribut ions
Â ¸
Ä ģ
w ater
ĠM il
Ġp ed
Ġord ers
Ġre b
ĠPro ject
f old
Ġch air
Ġhe m
ur a
L ayout
am i
Ġco f
ĠD en
ole cules
Ġf an
N U
Ġneur ons
} /
ĠS P
Ġc art
Ġ[ ]
Ġprinc iple
Ġscient ific
ĠCar ol
T wo
Ġp ages
os a
Ġexp ensive
Ġmar riage
ad ow
Ġal t
Ġz one
f it
Cont rol
al a
Ġrecomm ended
R el
ĠMed ical
Ġph ilos
' ).
G l
Ġsub set
Ġsupport s
ogen ic
qu ot
y g
t ab
Ġf ell
A m
Ġcustom er
? ?
Ġ5 4
Ġcor ner
Ġpartic le
co in
Ġpie ces
an i
ĠM ethod
æ ľ
T S
s ystem
ne ver
Ġman uscript
oun ter
ĠMus lim
oc y
ĠLou is
Ġper man
200 9
Ġwatch ing
ĠFr anc
ĠIn formation
t ag
Ġex ceed
Ġlar g
Ġla unch
D C
ĠS pec
Ġdis cretion
ĠR ad
ed s
Ġca using
r ition
et ch
ĠS il
Ġsuccess fully
Ġte levision
Ġm argin
ĠI V
sh ow
Ġch annels
ĠFr ank
Ġcomp re
Ġto ler
Ġ19 99
are n
ott ed
Ġtrans cript
Ġinf o
w er
s plit
Ġbas eline
F R
Ġtarget s
y e
ĠM a
gen er
v ant
Ġsup ra
Ġredu cing
se ud
T em
Ġcris is
ĠH ospital
f a
Ġse gment
ik i
Ġam b
f ast
Ġw arn
ĠE U
en a
Ġlarg ely
Ġb attle
Ġun ion
Ġim possible
t w
ac ent
Ġp H
Ġv it
}} ,
ĠA rab
Ġsc r
Ġinhib ition
S R
Ġcomp osite
ĠC r
ĠC ap
ollow ing
Ġautom atically
" "
Ġs itting
cre en
Ġinstall ed
Ġinform ed
ĠM ath
ex ec
Ġep it
Ġsupp lement
Ġdiab etes
Ġprom ote
Ġauthor ities
ĠH el
Ġatt end
Ġresearc hers
Ġâ ī
ĠW AR
V E
Ġv ess
ox y
ĠQ ue
in ite
Ġacc el
c ss
br id
Ġas ym
Ġstruct ural
Ġwor ry
i ability
Ġs and
ĠSo ftware
Ġexam ination
Ġmar ried
ĠG L
Ġorgan ic
Ġse ctor
Ġs ac
ĠCent ral
Ġfor get
Ġcomp act
// /
ol id
Ġdis order
Ġt or
Ġdom in
ogen esis
ĠSt r
Ġrepresent ative
ul ating
th m
Ġkn ock
im b
Z E
ro ot
ĠV ol
v in
Ġstra ins
N ext
ĠB i
e z
U P
O H
pl ant
Ġweek end
Ġproport ion
Ġse at
Ġput ting
Ġvis ible
ĠĠĠĠĠĠĠĠĠĠĠĠĠĠĠĠĠĠĠĠĠĠĠĠĠĠĠĠĠĠĠĠĠĠĠĠĠĠĠĠĠĠĠĠĠĠĠĠĠĠĠĠĠĠĠĠĠĠĠĠĠĠĠĠ ĠĠĠĠĠĠĠĠĠĠĠĠĠĠĠĠĠĠĠĠĠĠĠĠĠĠĠĠĠĠĠĠ
go ogle
ĠE duc
Ġjo ined
`` `
Ġgu ard
Ġf aster
Ġs i
Ġconcer ning
ĠLem ma
ĠB ack
or ation
Ġst ret
Ġve get
Ġed itor
Ġad m
Ġrepl aced
fe ctions
Ġfac ilities
Ġobserv ation
Ġdi vers
Ġfin ish
ĊĠĠĠĠĠĠĠĠ ĠĠĠĠĠĠ
Ġb ott
M r
n umber
ĠIt s
ĠAfric an
Ġsol ve
ĠV iew
d ist
Ġdeb ate
ox id
Ġd ream
Th anks
ĠCh icago
medi ate
ĠG reat
Ġher self
Ġfor g
Ġal gebra
G R
L a
} |
Ġre form
Ã §
W here
Ġact ing
cont in
Ġse a
pt ic
Ġ1 01
S u
Ġbehavi our
Ġlay ers
Ġover l
Al though
Ġb le
ĠAn other
Ġsu gar
Ġhom es
& =
Ġantib odies
Ġassum ed
com mon
Ġdanger ous
ott en
ĠCl inton
opt ions
Ġturn s
ĠPro te
Ġcandid ates
s ign
NA ME
l oc
Ġl ie
Ġinvol ves
Ġres on
An other
Ġme rely
Ġmat ters
Ġap opt
IC E
Ġemerg ency
le ments
15 0
Ġprop ag
Ġur l
Ġam pl
ĠL ong
k l
ars h
ĠS O
) |
ĠSec urity
n ut
ĊĊ ĠĠ
Ġdes c
or a
Ġj our
Ġ19 90
Ġcontain er
sc he
Ġsub t
Ġdifferent ial
Ġexper iences
ĠF ed
Ġpers pective
Ġhundred s
Inst ance
Ġ20 20
Ġfl ag
ĠH uman
Ġ* )
Ġl uck
Ġpass ing
Ġamaz ing
Ġlow est
Ġexpl ore
Ġexec utive
Ġpair s
Ġdeterm ining
Ġneg lig
G G
Ġrep air
el i
ult ure
equ iv
G u
amet ers
ĠU s
ĠE qu
f riend
ĠS l
Ġl ived
ĠH T
Ġclos ely
ane ously
Ġbi as
Ġsim ult
M M
\* \*
ĠG al
ĠÃ ł
] );
Ġprov ed
ell ar
Ġdirect ory
ub untu
ap ed
Ġa id
lect ric
Ġw rt
Ġout er
Ġmen u
ĠCh ild
T D
od er
iv ated
AT A
Ġpost ed
Ġn ative
Ġreg ister
om er
Ġwalk ing
Ġcl ar
Ġpolit ics
ĠF our
en ess
ampions hip
Ġconvers ation
Ġg ate
re r
Ġp ump
Ġli ability
H z
ĠM ont
ort ion
R ight
ĠS ocial
c ers
Ĥ ¬
Ġ ---
Ġtre es
Ġmil k
Ġarg ue
Ġde let
Ġfam iliar
ple x
Ġb io
ĠSt ar
Ġinst ant
hy dro
eg er
Ġprinc ipal
D NA
ĠO ffic
ĠW here
Ġf re
. -
L ook
ic ular
Ġmonitor ing
Ġtell ing
Ġprim arily
> ,
ok ed
Ġinn ov
Ġpre v
ĠM er
Ġsignific ance
ig an
pro ject
Ġbl ocks
Ġemb ed
Ġinitial ly
Ġin equ
av en
Ġlov ed
font s
Ġde pos
UR L
Ġc ities
Ġv ivo
Ġoper ators
H el
Ġhon est
Ġcorrespon d
p ers
00 8
T ER
Ġphot os
Ġp ip
Ġ5 3
Ġl ots
des cription
b orn
ic ate
00 000
Ġob ser
Ġdoll ars
Ġhe ll
Ġinj uries
ĠY OU
Ġshe ll
Ġe ating
Ġv ision
Ġinstit ution
ay ers
Ġv ul
Ġr ational
Ġdel ivered
um s
Ġimplement ed
Ġm aps
Ġdis orders
Ġwe ar
ĠCol or
16 0
Se lect
document class
P at
u h
ord s
at rix
Ġbusiness es
Ġ\ {
Ġb ind
ĠCont rol
Ġcontribut ions
Ġcons ists
Ġ9 9
Ġinj ection
c i
ident ial
we et
Ġass ault
u zz
op hy
the less
min imal
ent ed
Ġsens or
Ġaccord ance
av el
and on
the n
Ġsus pect
B R
ĠL ife
ĠJ ones
Ġgrow n
Ġbig ger
Ġenh anced
Ġ19 98
Ġopt imal
et her
Ġclos er
Ġleaders hip
Ġd ress
C U
ĠÎ ²
Ġdep art
Ġto m
ree k
h ome
Ġde fe
Ġb odies
C ell
O ther
ĠH y
C IT
Ġl aser
IN D
call ed
ĠĠĠĠĠĠĠĠĠĠĠĠĠĠĠĠĠĠĠĠĠĠĠĠ ĠĠĠ
reat ment
Ġc aught
Ġterm inal
Ġaccount s
Ġp ig
Ġorgan izations
od ds
ro vers
Ġgen ome
ĠA v
Ġle ague
Ġm ethyl
Ġloc ations
j pg
Ġext end
Out put
Ġrem ark
Ġconsequ ences
F unction
sk i
Ġil legal
s up
Ġopportun ities
Ġs orry
D P
Ã £
ĠR oy
Ġmin imal
Ġelectr ical
y les
V is
M ax
Ġr ub
b uf
ĠG O
Ġfra ud
Ġcorrect ly
Ġf er
ur ally
Ġfig ures
p et
av as
Ġf old
ĠP ut
Ġmaint enance
Ġr ig
ĠMed ic
ĠMc C
l ines
1 000
Ġint r
) +
Ġarriv ed
Ġden ote
Ġp p
ĠFranc is
Ġfac ility
M ode
ĠĠĠĠĠĠĠĠĠĠĠĠĠĠĠĠĠĠĠĠĠĠĠĠ Ġ
Ġtherm al
] $
** (
Ġclos est
Ġthought s
ĠÃ ĳ
ĠE xt
mat rix
Ġpath ways
Ġpreval ence
ru ption
rac ellular
Ġen em
Ġp il
Ġhouse hold
tem plate
Ġinter net
r ics
Ġd ual
Ġsynd rome
ag en
200 6
ir us
B efore
k o
Ġremov al
f ill
Ġp in
B uffer
f oot
on ym
id ents
Ġtrou ble
Ġpoint ed
Ġx ml
Ġdisplay ed
Form at
Ġsurround ing
ĠA cc
V D
Ġmut ations
Ġf ruit
Â Ģ
Con st
ĠN ame
ST R
Ġabsol utely
Ġp ri
ĠM ax
Ġc oc
\] ),
Ġpract ical
]^ .
ĠDemocr atic
Ġinst ruction
Ġupd ated
Ġcor on
Ġpro hib
ĠRich ard
Ġcre ation
I ES
li ament
Ġapparent ly
C ons
Ġintegr ated
Ġsc al
Ġinstr ument
Ġc as
Ġbacter ia
Ġflu x
** *
ĠN on
ĠC up
Ġmet ast
or ption
Ġcl ients
Ġst ages
ĠSp ring
Ġt ro
Ġprof ession
v o
ĠRe view
200 7
st ack
i ations
Ġ19 97
M ENT
Ġpre ced
Ġhelp ing
sc r
ach ment
201 9
Ġdep ression
al ign
Ġunc ertain
Ġ4 00
Ġspect ra
sp ring
Ġmed ian
Ph ys
Ġeven ing
Ġemot ional
Ġcou pling
Ġscre ening
Ġconv iction
p hen
ĠVir gin
Ġs ounds
Ġimpl ied
} );
Ġ1 000
Ġreg ression
Ġt ail
erv es
if ts
Ġadopt ed
et al
ar ge
rou ps
Ġsub mitted
ĠS ign
Ġsc hedul
Ġs ports
Ġkit chen
ĠApp ellant
och ond
sens ors
Ġneighbor hood
Ġ5 8
t xt
Ġcommit tee
athe red
ap h
ĠWilli ams
Ġr id
v ider
II I
B M
Ġtop ic
end ants
Ġing red
R ANT
Ġs ong
Ġ9 6
ĠV is
s i
ç Ķ
ch ain
Ġne ck
Ġbe am
Ar g
Ġconstruct ed
Ġ1 10
Ġra il
per t
ĠPol ice
Ġarg ued
Ġsynt hesis
Ġsur ve
p df
Ġam plit
Ġdescrib es
r b
Ġpict ures
Ġclass ical
ä ½
Ġdog s
Ġg ast
Ġm ine
O per
=" #
Ġprov isions
č Ċĉĉ
Ġam ino
Ġman age
Ġsol ar
Ġrec over
Ġ" (
rit er
25 0
Ġepis ode
Ġthe oret
Ġcoll abor
ĠM ult
ĠR T
Ġcharacter istic
Ġcount s
ĠRe ad
AR E
Ġessential ly
Ġshe et
=" ../../
L R
Ġl ig
ĠB as
Ġas c
Ġ5 7
Ġk ick
M in
Ġcopy right
ĠÃĹ Â
Ġs ke
Ġme at
ĠC all
F actory
Ġsu c
Ðµ Ð
ĠCom mon
m osp
m i
}{ -
Ġ\ >
}^ \
Ġt asks
Ġtot ally
P CR
Ġj e
W H
ri ers
Ġexplan ation
- (
Ġmark ets
Ġrem ote
12 5
Ġcateg ories
cent er
Ġspat ial
OR E
Ġadv oc
Com mand
s ur
ĠO S
Ġtax es
Ġfeed back
ist ing
Ġt it
\ "
Ġgu idelines
ĠĠĠĠĠĠĠĠĠĠĠĠĠĠĠĠĠĠĠĠĠĠĠĠ ĠĠ
ĠInt erest
ĠD C
ens us
set length
in et
Ġbu nd
Ġhypot hesis
Ġspe aking
Ġp it
Ġmaint ained
m es
Build er
ent er
Ġdes ire
ĠC amp
e per
Ġappro val
Ġch apter
Ġ Ã©
Ġ19 96
AC E
an ol
Ġdecl ared
Ġreg ime
Ġf ashion
Ġrec ording
Ġso il
at ural
ail ability
Ġlist en
Ġconsc ious
Ġm a
Ġwe alth
Ġult imately
Ġ"" "
ys ym
Ġ8 5
}\ ,
Ġc ov
ĠN av
ĠF ire
Ġfab ric
is ters
ion e
ĠServ ices
ĠCor p
Ġimmedi ate
= {
È ±
D M
Ġoff ering
Ġl en
ĠW al
ĠCh ief
ams math
ĠW all
uss ion
a o
g ence
Ġ5 9
head er
gree k
| |
iat ric
ĠH aw
Ġtell s
Ġdr am
roll ed
. âĢĻ
b ool
ĠB E
Ġe igen
ĠC are
L ink
s n
Ġf ellow
avas cript
Ġqu iet
Ġra w
Ġreport ing
Ġprepar ation
Ġident ical
Ġtreat ments
ĠH ome
ob e
S m
Ġass ign
Ġthe rapeutic
Ġcon sole
Ġk ne
un te
01 0
ss ymb
O ptions
E very
serv ice
ĠS k
ĠV er
å ®
r h
am ssymb
M B
Ġclass ification
Ġinit i
ell er
Res ource
Ġdif fer
id ity
Ġk ing
f lu
bs y
Ġreal ize
ĠDe velopment
######## ########
] [@
erm an
Ġtrans formation
ĠI R
ĠJ ose
ams fonts
Ġneut ral
Ġmod ify
Ġreg ulations
Ġrecogn ition
Ġcof fee
O pen
ort s
b el
Ġexam ine
Ġm ic
Ġenc oding
man n
Ġserv ing
Ġrespect ive
rs fs
Ġo d
Ġcur ves
Ġobvious ly
Res ults
math rsfs
Ġrequest ed
ĠH en
ams bsy
Ġprinc iples
up greek
is er
L D
idem argin
Ġcompre hens
u able
ad ed
200 5
S tyle
Ġsp oke
odds idemargin
ĠChe ck
was ysym
Ġsur gical
Ġinc idence
Ġpur s
Ġ$ (\
ĠH E
duct or
Ġdisc overy
Ġfind s
Ġb ars
B lock
Ġsitu ations
K e
tt p
In it
L ength
cl ose
List ener
Ġill ness
ĠM icrosoft
Com ponent
g raph
q quad
Ġtum ors
Ġh al
ĠL i
Ġcar cin
ve ctor
( *
Ġt aste
^ ,
ian a
LE CT
ĠD O
d x
ĠIs land
Ġprom pt
od ium
ĠSecret ary
Att ribute
B ecause
å Ĳ
Ġpl ain
Ġwor st
& &
as ive
Ġpost s
Ġcont em
t x
S O
ĠAddition ally
ĠB it
Ġl ies
c b
Ġrot ation
in er
Ã£ o
Ġcont rovers
Ġshoot ing
ĠApp le
f fered
ĠT ext
: (
Ġcru cial
ĠC ath
ot ypes
om atic
ĠÎ ±
Ġag greg
Ġyou th
empt y
ĠL ib
Ġcl imate
Ġs ick
Ġcompl iance
ter day
be red
Ġb ought
ĠDemocr ats
Ġhelp ful
Ġall oc
Ġm ent
Ġv en
F ind
au ge
Ġcogn itive
th let
Ġass ets
Ġpull ed
te en
Ġn urs
Ġlo an
se cond
200 1
ä º
ic ide
Ġo k
att ice
ne q
ĠL abor
Ġsome what
Ġrequest s
Ġtrans action
Ġth r
Up date
D D
ĠT im
Ġplan et
Ġarrest ed
Ġal ign
m ode
crib ed
Ġcont ents
xi ety
> &
ĠP eter
Ġsust ain
Ġenforce ment
Ġm ask
Ġh urt
F E
ner gy
Ġrul ing
25 6
C urrent
Supp lementary
Ġdra wn
ĠF il
ĠM ur
ĠS ociety
Ġ6 6
T oken
Ġte aching
Ġhe ro
âĢ ĺ
ĠP o
Ġprefer red
Ġgluc ose
E ng
Ġ ],
s pe
å ħ
Ġposs ession
c ard
Ġm ail
pro t
ut ory
Ġh ate
ri um
ud d
Ġh idden
Ġ\ *
Ġin fected
b en
Ġpres um
Ġt ube
Id ent
Ġf urn
ĠP ower
ĠL u
Ġman ip
Ġdeath s
Ġbi om
ĠDe v
S pec
Ġdriv en
ish ment
W ork
m ult
ĠDirect or
ĠF und
all ow
Ġlog ic
\ ^
est ion
ĠZ e
ĠAd minist
Ġenzym e
Ġfight ing
Ġre nd
ĠTh ose
Ġapp lying
Ġpick ing
G ener
Ġnorm ally
Ġintellig ence
% ),
Ġre ct
Ġvot ers
b ottom
ĠJ ournal
Ġn m
Ġcent re
az ine
p ush
ĠR oad
Ġpow ers
ever al
Ġnot iced
}^{ (
Ġweap ons
ari able
D ev
cl ick
b uffer
G ET
)) )
Ġcarry ing
Ġreal ized
ĠT em
Ġcount y
at tr
Ġdiv ision
ĠS pe
ic ing
rol og
ĠAr ch
Ġper mission
Ġgr ade
Ġro les
Ġassum ption
up date
ĠCor por
h ar
ĠI g
bl ing
Ġmechan ical
Ġvert ical
Ġcontroll er
Ġinc red
Ġspect ral
Ġgr id
Ġprolif eration
Ġp or
qu are
Ġ& \
Ġf iber
ĠM el
ak istan
Ġread s
} +\
Ñ ı
W S
ĠLe e
h an
Ġour selves
es ides
in ition
Ġcult ural
Ġper ipher
ĠR eturn
is or
fil ter
N one
Ġocc asion
Ġregist ered
m olecules
R ow
Ġac ids
Ġ6 2
ĠMod el
sc ill
Ġsubstant ially
ĠD onald
respon se
Ġattempt s
D I
Ġin fections
AT H
ĠEduc ation
ĠP T
Ġtrig ger
oid s
T ex
Ġhapp ening
s en
Ġg ro
M et
T ab
em ia
Ġt ip
ĠN ov
ĠVal ue
out s
G T
Ġor th
N OT
j a
erm ine
Ġacc used
ĠHam ilton
Ġmill ions
Ġexc ited
ĠWh o
O ST
Ġimag ine
p ower
ĠTh anks
Ġsepar ated
ch ing
Ch ild
Ġcal c
d irect
âĢ ĭ
Ġdis ag
Ġat mosp
f ortunately
ĠB et
Ġexper ts
UL T
Ġcon version
200 4
N C
Ġdi ameter
ĠM ount
Ġ à¤
Ġpat ent
Ġpay ing
] \
Ġdro pped
Ġper mit
ĠWilli am
Ġun iversity
Ġemb od
Ġcorrel ated
Ġmedic ine
ĠD ate
typ es
k t
ob by
Ġwe ather
Ġf o
Pe ople
Â ¼
Ġb low
ĠM s
Ġch art
in ical
ĠN ever
Ġopp osition
Ġconsum er
Ġmet ric
Ġpl anned
ĠAtt orney
W ho
Ġlegis lation
Ġrad ius
Ġ6 3
ĠWAR RANT
M em
h r
Ġsuper ior
W idth
Equ al
r if
ĠKore a
Ġbo olean
Ġs ister
Ġinstit utions
Ġv ide
Ġm ir
IG HT
H C
Config uration
Ġt rac
Ġ> =
Ñ Į
V AL
Ġpurch ased
bl og
e lement
Ġn ic
s ome
Ġs izes
Ġknow ing
Ġf le
Ġh all
Ġsim ulation
Ġconstitution al
Ġre actions
Ġfe e
Ġdocument ation
Ġc ars
Ġfe els
Ġcryst al
A K
t ml
Ġf ant
not ation
k es
Ġshe l
Ġcon c
ĠW ood
ess ions
-------- -
g i
ĠD u
. /
P a
Ġintrodu ce
ost on
ĠMart in
ĠA ff
Ġrel iable
ĠI r
Ġde grad
Ġal pha
Ġ6 8
yn omial
Ġincreasing ly
Ġsh aring
Ġprom ise
Ġre in
vent ions
è ¿
Ġvir al
Ġown ed
Ġo kay
math sf
Ġm M
Ġtransfer red
un ched
er red
Ġkind s
B B
Ġdom estic
Ġrelig ion
ha ust
ut ing
end ar
D irect
Ġcomplic ated
ri ver
Ġent ity
D ep
Ġc ab
Ġsubst ance
Ġansw ers
ĠG NU
the re
St r
= (
Ġvictim s
Ġrapid ly
z y
Ġrecogn ize
Ġorig inally
ĠDiv ision
Ġform ing
ak s
es ter
ĠT re
or ne
)* (-
Ġset up
Ġw ine
}} ^{
Ġrad ical
Ġslow ly
appro x
Ġ --------------------------------
ĠF ind
Ġb rowser
Ġcorpor ate
f iles
{ -
Ġm es
rib le
Ġext ensive
ĠA ri
Ġacqu ired
25 5
Al so
Ġany way
ar ation
ĠMex ico
ĠK ey
ig inal
ag raph
Ġcl ock
Ġ19 95
p in
Ġthe orem
Ġd ust
um a
igh ter
Ġret rie
Ġrad i
col umn
Ġmit ochond
Ġintegr al
Ċ ĊĠĠĠĠĠĠĠĠĠĠĠĠĠĠĠ
ins on
Ġcry pt
ĠAt l
Ã³ n
Ġindu ction
) }{
' $
ĠGr and
ĠÂ µ
Ġrestaur ant
Â ®
Ġth or
p op
w est
( _
sequ ently
Ġmi R
not e
Ġadd ressed
Ġbatter y
"} ),
Ġris ks
M ult
Pro cess
ax is
Th ank
ĠTr ust
ĠĠĠĠĠĠĠĠĠĠĠĠĠĠĠĠĠĠĠĠĠĠĠĠ ĠĠĠĠĠ
Ġregul atory
Th read
Ġaff irm
it o
st ep
Ġbo ost
Ġfe at
olog ic
bur g
conne ct
Ġpay ments
Ġpass word
Ġreview ed
Ġhead er
Ġwin ning
ĠMe an
Â ģ
Ġcol umns
Ġstat istics
is ely
ĠB uild
Ġintegr ation
Ġpresent ation
ĊĊ ĠĠĠĠĠĠĠĠĠĠĠĠĠĠĠĠĠĠĠĠĠĠĠĠĠĠĠĠĠĠĠĠ
Ġfair ly
Ġsh op
Ġo scill
v ision
He y
V ID
Ġp ars
Ġinflamm atory
Ġf ault
ĠJ o
s id
Ġaud ience
it ure
Ġ6 7
Ġdis appe
off set
Ġparticip ate
~ ,
Ġm ob
Ġal k
6 00
Ġst ead
ĠC S
Ġev ident
Ġ$ -
Ġpre jud
Ġg ift
l ie
Ġbu g
ĠN Y
reg ulated
B E
T YPE
Ġclust ers
ĠR un
Ġret ail
ĠS ol
Ġmanif est
Ġmoment um
ĠI M
Ġgood s
Ġcompens ation
n ger
Ġit er
Ġbet a
Ġpro be
Ġhot el
ar ia
Ġfail s
Ġindust rial
Ġw ound
Ġcomp at
as tern
Ġa ver
b les
ly mp
atter ing
ĠC OM
Ġwindow s
Ġw ra
Ġaut hent
Ġregard less
Americ an
f ix
am ely
Ġres c
Ġtemper atures
ĠAc adem
Ġl ift
ib ilities
ĠU RL
Ġ" \
Ġb rown
Ġpursu ant
-------- --
H L
ãģ ®
rop y
W indow
Ġc ro
ffic ients
Ċ Č
ĠP an
ific ate
ĠC am
em a
Ġwar ning
Ġcho ices
Ġhydro gen
ira ble
Ġeng aged
T arget
Ġtw enty
Ġ19 80
Ġco al
Ġveh icles
Ġcomfort able
rupt cy
s v
ĠS C
y es
Ġcapt ure
Ġsim ulations
Ġ: )
ĠMay be
~~ ~~
Ġb are
Ġsur faces
A c
Ġser ial
Ġpublic ation
Ġt ort
Ġad verse
in als
ĠCon stitution
S Y
Ġin qu
che m
Ser ver
Ġm eth
agn etic
ĠOh io
Ġg od
Ġf uck
rou d
Ġyou nger
ĠDo es
Ġed ges
ĠL ake
Ġk illing
no on
) }$
Ġinst ruct
H A
Ġn g
Ġlabor atory
osp it
Ġcou pled
d ouble
ĠMr s
Ġoper ate
Ñ ĭ
Ġfl o
Ġsu ffered
J ohn
Ġscen ario
Ġ6 1
D eb
A F
Ġsepar ation
Ġwonder ful
Ġst ores
Ġas ide
ĠB ook
Ġsubsequ ently
Add ress
Ġb anks
ĠAppe als
Ġesc ape
ĠM i
Ġcalcul ate
Ġturn ing
ĠĠĠĠĠĠĠĠĠĠĠĠĠĠĠĠĠĠĠĠĠĠĠĠ ĠĠĠĠ
ĠO per
min us
ĠVirgin ia
Ġover ride
n ic
Ġ }}
ĠV ersion
N ET
Ġref used
Pro ject
ĠL os
Ġdepend ence
}_ \
Ġrem ind
Ġbuild ings
ag ues
uss ian
am ination
Ġo dd
á »
Ġattempt ed
Ġprodu cing
ĠTh ree
$ _
V er
Ġwrit er
Ġs ad
Ġcol ors
G S
N ull
Ġfam ous
y cl
ĠCan adian
f oo
Ġinhib itor
ast s
b untu
Ġsm oking
me an
Ġv ast
Ġsuff ering
ĠS U
Ġv eter
act ic
Ġwall s
Ġgu id
M any
Ġpropos al
Ġfl ight
Re ference
if er
Ġcalcul ation
Ġst ood
Ġb in
ĠL and
Ġdec ade
Ġcol le
Ġcorrespon ds
Ġd a
app oint
Â ´
ĠJew ish
ĠA ma
Ġre new
Ġapopt osis
oper ation
Ġemploy er
Ġsche dule
C or
v als
u y
is a
Ġdis charge
Ġ- \
Ġbo ys
om ething
ĠG ame
er ry
Ġbelie f
H R
Ġaccom mod
Ġstri ke
Ġvers ions
sh ot
Ġcont ributed
Ġrepresent ing
æ ĸ
AP I
Ab out
Ġpl enty
pos itive
Ġproceed ings
Ġbe er
Ġh ur
Ġbas ically
n n
Ġfac ing
ĠM I
00 9
Ġex it
E ven
P M
ĠL ine
ĠAm ong
Ġrecept ors
ĠRepublic ans
Ġt ough
m ake
Ġvill age
Ġ2 50
ĠOr gan
Ġnew sp
Ġext reme
Ġel ig
Ġpro gression
Ġm apping
Ġarbit rary
% ;
ter ior
Ġdisc over
Ġmin ister
omet imes
d l
Ġsupp ress
el ly
Ġteac her
Ġatt ribute
Ġb oot
p ool
č ĊĠĠĠĠĠĠĠĠĠĠĠĠĠĠĠ
Ġinvolve ment
ĠEx p
Ċĉĉĉĉ ĉĉĉĉ
Ġy ellow
-------- ---
Ġmod es
ĠF ood
Ġwalk ed
Ġground s
Ġ19 94
Ġprep are
Ġequ ally
Ġinflamm ation
Ġacknow led
W rite
raz il
Ġcoe fficient
200 3
z ero
t ed
ĠL ast
Ġver dict
Ġthick ness
Ġsp okes
il ib
Ġconsum ers
Ġis land
Ġopp osed
Ġth rows
ĠC ard
Ġcirc le
Ð º
ĠB ush
ĠCarol ina
Ġperform ing
Ġstim ulation
Ġreg ional
ĠF A
E l
ĠGe org
Ġmov es
Ġencoura ge
Ġpol ym
re port
Des cription
Ġobser ve
Ġappl ies
Ġw inter
Ġal le
Ġelectro de
ĠAccording ly
ĠL o
ĠP akistan
Ġfor t
Ġag encies
Ġf ly
Ġvul ner
Ġdivers ity
Ġch amber
Ġper m
all oc
âĢĶ âĢĶ
HE CK
; </
Ġd inner
Ġw ed
Ġy e
C ase
Ġcont rary
sc ri
Ġc rack
Ġpregn ancy
v m
Ġvol unte
Ġbacter ial
Ġperiod s
Ġsatisf ied
10 5
ĠJack son
h ab
R ed
Ġres pir
Ġke ys
Ġl ens
Ġstrong er
Ġadj acent
b efore
Ġmor al
Ġbe ar
Ġmiss ed
Ġpriv ile
ĠCon st
Ġ rows
en v
ĠG iven
S l
eli hood
), \
Ġte ach
Ġcre ates
Ġcon d
Ġdecl ine
ĠÐ ¿
ĠT op
Ġwhere in
Ġdim ensions
ĠNet work
i ology
Ġmagn itude
2 14
Ġmut ant
Ġsav ed
Ġstatist ically
He ader
Ġal ert
Ġcon form
Ġan s
Ġden omin
EN SE
im a
Ġsh ares
ĠR o
âĶĢâĶĢ âĶĢâĶĢ
ĠU ser
Ġbeg ins
Ġperman ent
b ro
os ome
Ġf ro
Ġprof iles
Ġon going
aw s
Ġthere of
Ġmod erate
Ġ== =
. $
ĠY et
L O
ro sc
ff ff
ĠAm endment
ric es
Ġcoe fficients
ag ers
Ġn od
Ġmark ers
Ġdecre asing
ob s
raz y
01 5
Ġhy brid
Ġre const
ĠW ater
Ġex cluded
Ġbring ing
Ġstand s
Exp and
t wo
le ep
Ġnew ly
Ġconne ctions
ĠAut hor
ĠJe ff
U se
F OR
c pp
j i
Ġn a
Ġinf rast
U C
n ov
riv ial
Ġsymmet ry
Ġfore st
Ġhab it
G ood
Ġw al
Ġm igration
oc racy
Ġeffic acy
------------ -
Ġteac hers
Ġan xiety
Ġst er
Ġvict ory
Ġrepe at
Ã ħ
Ġcyt ok
Ġ$ |
Ġconsequ ence
is k
math scr
Ġrequ iring
Ġread er
iction ary
Ġl osing
Ġ\ -
Ġexpl o
g age
Ġcir cul
Ġpol ynomial
Ġcard s
Ġmanufact uring
Ġs elling
Ġter rit
ri ents
r ick
Ġs port
B o
Â §
re place
OC K
Ġcomplic ations
D id
Ġhyper t
en ger
Ġadequ ate
x p
Ġ ..
Ġextract ed
ĠB al
ĠN ext
est inal
Ġex haust
Ġtarget ed
L ocation
Ġsem icon
"} ](
Ġinter mediate
ex ample
ĠJ ul
Ġob st
Ġsem i
P AR
A g
Ġl augh
Ġfood s
Ġles ions
Ġinj ured
ino is
D own
con duct
Ġsus cept
Ġde lete
Ġdeal ing
Ġsuc ceed
Ġun iverse
ĠSim ilarly
point s
Ġemph as
Ġrob ust
ĠPal est
ĠAn alysis
ĠS a
ĠP ac
Ġtra ined
ent h
19 99
ĠJ im
á Ģ
g ly
H is
L ocal
ra ge
cl ip
Ġdiagn ostic
ict or
aw a
ogene ous
Se cond
Ġ ),
{ (
Ġ{ }
Ġmut ation
Ġ7 7
ct x
Ġus age
lik ely
200 2
ĠIn it
Ġcomput ed
Ġsurpr ising
v as
Ġinst ances
Ġbring s
elle e
ic ul
ĠĠĠĠĠĠĠĠĠĠĠĠĠĠĠĠĠĠĠĠĠĠĠĠ ĠĠĠĠĠĠĠ
ot ox
á ¹
ĠB oston
Ġwe aring
Ġshould n
ĠAr ray
18 0
Ġmom ents
ĠArm y
Ġann ounce
Ġdiag ram
Ġfra gment
n i
th read
Ġres erved
Ġsum mar
r in
ĠPro fess
il ation
use um
Â ²
u um
Ġfac es
ĠBl ue
Ch ange
Ġcalcul ations
re ason
S QL
Ġass ist
Ġactiv ated
Ġtr uck
Ex ternal
add ress
Ġtechn ologies
Ġinv al
ĠF ROM
Ġap artment
1 12
Ġt ou
Ġreview s
C ar
Ġre ly
N R
Ġk ernel
ĠDes pite
ap es
M ost
ON E
10 3
Ġs ight
Ù Ħ
d est
il a
fr ont
in ternal
Ġdec ay
ac cess
Ġdist urb
ĠM E
ĠR am
Ġac et
p erson
ass oci
Ġ< =
------------ --
T op
on ia
}. $$
conom ic
0 20
w hen
Ġdifferent iation
ĠCon ne
ĠOr der
Ġcardi ac
L ike
8 00
ef ined
Ġ: :
Ġalleg ations
Ġdis pl
Ġ19 93
z o
irc raft
Ġuns igned
H D
ĠRep ort
Ġ6 9
for ward
ĠEx per
Ġelect ed
in cluding
Ġch icken
Ġcl oud
ĠB ased
ĠM ike
Ġded icated
lim its
Ġcheck ed
Ġ19 92
Ġemb ry
Ġclass ified
00000000 00000000
P V
Ġsatisf y
Ġch ose
Col umn
Ġch lor
AR D
Ġserious ly
Ġ rib
Ġphosph ory
Ġe c
Ġord inary
Ġre nal
Ġsurpr ise
Ļ ª
Ġh un
Ġre venue
Ġf ed
ĠTr ue
Ġt ract
Ġdist ributions
Ġb its
Ġ< -
IL ITY
Ċĉĉĉĉ ĉĉ
. ^[@
Ġapp ell
av ed
Ġgalax ies
Ġag ed
Ġhistor ical
AR Y
pl us
Ġany where
F D
Ġs now
Ġwith draw
b ul
aterial s
names pace
App lication
Ġcorre ction
Ġcut ting
y nt
ĠChrist mas
Ġgl ut
Ġpres ents
RNA s
Ġmat ches
Ġco ast
â ĸ
if act
dev ice
ĠR ight
Ġg ather
Ġtheoret ical
ans as
Ex ec
Ġval uable
Ġperfect ly
an im
ĠL ook
a us
ĠM ake
Ġl attice
ĠAg ain
Ġdiagn osed
Ġt ab
Ġmetab olic
Ġo l
Ġto ken
Ġpred iction
ĠTe am
ure au
ĠL ab
u ction
oc ard
Ġor b
Ġla unched
}\ \
Ġthem e
um es
ay lor
Ġd ialog
ier arch
Ġincub ated
, $
os ity
Ġqu ad
Ġdatas et
irt ual
f ull
n m
Ġby tes
Ġpl ur
Ġcare fully
gh an
Ġacadem ic
Ġche st
ĠR ock
men u
Ġtrans lation
Ġ8 4
Ġstat utory
ĠIm age
Ġbr idge
inst all
Ġ7 8
Ġcre am
l ate
] "
Ġabs orb
Ġexec ution
avel ength
Ġg auge
is ons
} -\
ĠE D
de c
Ġafter noon
Ġp seud
Ġst aining
D r
form ed
ĠB ow
å ¤
as i
ĠPar is
Ġr ide
ĠDan iel
ĠCl ub
Ġp our
Ġm eta
Ġthous and
C ore
ĠChar les
ĠAng eles
P G
Ġinfrast ructure
Ġbre aking
ĠC OU
Ġwel come
Ġt ack
Ġ7 4
ĠT own
Ġeduc ational
Ġyes terday
T HE
Ġround ed
ĠĠĠĠĠĠĠĠĠĠĠĠĠĠĠĠĠĠĠĠĠĠĠĠ ĠĠĠĠĠĠ
]{} ]{}
Ġhard ware
ĠS pecial
ic an
ox ide
clud es
ĠE rror
Ġins ulin
Ġmetabol ism
Ġdom ains
ĠRe al
rem ove
ell i
Ġf inger
oles ter
ĠH ot
D uring
Ġload ed
000 2
Ġsp an
æ ķ
Ġdrink ing
Ġ1 80
comm and
). $$
M ark
Ġre ferences
Ġsufficient ly
Ġ8 8
itro gen
ĠM D
Ġcont ends
Ġur ban
l ocation
ĠB efore
S ign
Ġ9 8
Ġm ild
Ġrout ine
Ġint ake
Ġcar rier
Ġcomplex ity
um ps
Ġpart ially
Ġim posed
Ġab normal
A cc
isc ussion
un icip
el lect
r ase
W R
10 2
C V
Ġconv in
Ġs ou
Ġdiscl osed
ir ms
ual ity
Ġ9 7
Ġconserv ative
Ġsome where
Ġeng age
ast y
ari ju
Ġyield s
a ft
Ġst abil
Ġcont rad
M ar
in ction
Ġcontroll ing
Ġben ch
12 3
mon d
ĠO ld
ariju ana
N um
og ether
he mat
ĠW omen
A ccess
Le vel
Ġnumer ical
n c
Ġne u
pl an
Ġcompar able
Ġindu ce
Ġreve al
Ġbelie ves
Ġres olve
medi ated
%% %%
Ġst roke
Ġd ict
ĠPl ay
Ġjour ney
t mp
Ġconstraint s
w an
Ġad hes
og g
Ġb at
Ġg all
} [
un ct
Ġcomprehens ive
Ġbeh alf
Ġad mission
Ġw est
ĠBrit ain
Ġt ens
v i
es ome
P i
Ġmarket ing
Ġbut ter
T ree
Ġserv es
Ġintrodu ction
ĠCorpor ation
}( {\
s uch
Ġv o
Conne ction
Ġm arg
m eta
ĠC ase
ire ment
ious ly
Ġc ache
U rl
' ),
du ction
Ġdiscrim ination
op rote
Ã© s
Ġunivers al
Ġin clusion
Ġbl ind
gy pt
ur i
G O
Ġhand ling
ĠN C
Ġant icip
Ġdiv ide
R ange
b ial
erv ation
L Y
Ġun us
ov ascular
Ġexplicit ly
Ġg el
Ġchalleng ing
ĠB usiness
T ask
h av
text bf
Ġev il
Ġsam pling
ĠB ase
Ġgre w
ut ch
Ġc ited
ĠR om
Ġc av
U RE
ĠAustral ian
Ġsimult aneously
Ġste el
Ġh orm
)$ $
Ġcl ot
Ġcon sec
Ġb read
az e
Ġwhe el
ĠB rad
par ams
13 0
ĠIn vest
Ġal ive
sc ape
mon ary
ocy te
Ġs au
is ition
r as
sh ould
Ġprof it
Ġm ales
F inally
Ġne ural
D IR
Ġb il
Ġclass ic
ĠS her
ĠC ell
Ġdenomin ator
ĠT oday
Ġvari ations
dition al
Ġhealth care
ra ined
Ġgreat ly
Ġflu ct
Ġab andon
ĠTechn ology
R eturn
Ġde com
st ore
u an
Ġrespond ed
Ġpl ug
Ġprov ider
Ġdisc ipl
Ġamplit ude
c aps
Ġh ospit
Ġr u
aut h
Ġe ast
Ġcop ies
Ġimpro ving
rom ise
} ]
Ġquant ity
ĠO lymp
Ġunder w
ĠS ar
pro d
37 7
Ġingred ients
Ġfew er
ow a
% ).
---|---| ---|---|
Ġp roud
th rough
M ed
ĠH R
z er
Ġs oci
01 4
k it
Ġpen alty
Ġmark er
year s
ĠM iddle
Ġdes cript
v y
ĠP age
ĠO K
Ġapproxim ation
ad ium
Ġins u
gress ive
ol ars
ĠCom put
ĠF ox
Ġsk y
ĠG re
Ġ7 6
Ġpul se
Ġf ract
Ġcoh ort
ĠHT ML
Ġs ending
ĠJ r
Ġmov ies
Ġelev ated
ot yp
Ġdri vers
c ule
Ġs ed
the y
ĠDet ermine
st at
Ġgen u
add r
ĠE ll
Ġc odes
Ġn amely
m ov
ĠB razil
ce an
pon ents
ochem ical
M enu
Ġo mitted
by te
Ġro oms
) ),
Ġ** (
TT P
Ġex port
Ġnear by
ĠS QL
Ġ icon
Ġdo ct
ĠCol umb
Ġcomp aring
Ġdifficult y
Ġsh arp
Ġsign ature
Ġp apers
ĠJ oe
el a
we red
ĠIll inois
Ġre jected
Ġvari ance
ĠB est
Do es
V C
or se
Ġcommit ment
è ¯
ĠC ast
Ġle af
Ġs oc
ĠP oint
Ġun con
IC ENSE
Ġprec isely
ĠL ocal
Ġ Ø
Ġfif th
r ical
ĠMed ia
Ġob j
IV E
Ġinequ ality
ĠSt art
P tr
ĠC ivil
P an
Ġdisag ree
par se
frame work
Ġune x
Ġ7 1
11 1
ĠU k
Ġinvest ors
ĠVal ley
Ġmach ines
V M
ĠItal y
Ġhas n
Ġat oms
min ent
Ã ł
Ġre ar
ĠJ ac
Ġscient ists
Ġre ward
Ġmatch ing
Ġfr ust
< \
Ġbu ying
Ġfem ales
Ġsemicon ductor
, $$
| ^
ĠFor ce
Ġnat urally
ĠE nergy
Val id
Ġ Ï
ĠY ear
Ġdes k
a ver
ĠN A
Ġbus y
Ġdo ctors
Ġinv ent
Ġaud io
Ċ ĠĠĠĠĠĠĠĠĠĠĠĠĠĠĠĠĠĠĠĠĠĠĠĠĠĠĠĠĠĠĠĠĠĠĠĠĠĠĠĠĠĠĠĠĠĠĠĠĠĠĠĠĠĠĠĠĠĠĠĠĠĠĠĠ
ĠMich igan
ir y
ĠAs ia
back ground
Ġim per
! âĢĿ
Ġmult ip
fra id
g rav
Ġs ulf
m al
Ġ7 3
Ġbro ke
ĠCol l
c it
Ġadministr ative
ak a
f i
w r
Ġ$\ {
Ġ+ +
let on
h ol
O nce
or i
ĠC hem
et ies
Ġsc ored
ĠH and
Ġele ctions
ĠE th
Ġmeas uring
B r
ĠC urrent
Ġ1 30
Ġleg it
Ġb omb
Ġarg s
Ġrestr icted
ĠD M
Ġcoord inates
bl ue
ĠRes ults
in ating
10 4
ĠB Y
Ġcare ful
Ġen abled
ilib rium
IM E
æ ĺ
Ġperipher al
Ġsurpr ised
Ġpros pect
s ite
ch arg
Ġpriv acy
p ref
Ġredu ces
Ġmod ification
ĠCath olic
Ġri ver
Ġadjust ed
ĠJ on
E ach
ĠAma zon
Ġprov en
N P
Ġschedul ed
Ġparticip ation
f inal
Ġpos it
Off set
S che
Ġdi verse
ot ion
N on
Ġnot ion
ĠC amb
we ek
Ġ9 4
ĠSp an
01 8
ab out
em ic
Ġcomp osed
Ġimp air
Ġbul k
w ill
Ġabs orption
Ġmagn et
Ġfeel ings
Ġindepend ently
}^{ -
doc s
f act
all s
W E
Ġtra ce
Ġcap ac
P o
}} )
Ġ era
Ġmist ake
ann a
ĠF unction
Ġany more
Ġcover ing
em ail
ne um
ĠR et
Ġar my
Ġra in
Ġcontinu ing
Ġpro gn
angu ages
Ġpharm ac
Ġre com
ĠDes cription
Ġunder t
Ġkin ase
Ġpresident ial
Ġtim ing
s ys
Ġc able
Ġsett lement
r ams
Ġde ploy
ire ction
Ġrev olution
ĠK im
m ac
m aster
Ġche ap
ours es
Ġhead s
C ome
Ġload ing
ĠCE O
Ġadd s
He ight
rou s
olog ist
Ġlip id
Ġl ists
material s
leg ate
P osition
us r
Ġsub stit
Ġcr imes
Ġprogram ming
Ġn erv
Ġa thlet
Ġtalk ed
Ġcommunic ations
Ġe ase
Equ als
ĠR est
\ }$
f ire
er ated
ĠDav is
Ġa ircraft
Ġclos ing
ĠP S
Le ft
Ã ª
ĠC reate
Ġgener ating
Ġhere in
at i
Pro vider
Ġpass ion
On ly
st one
Ent ry
Ġopin ions
ĠCh apter
ĠS ource
ĠW is
St at
Ġy ards
Ġrece iver
Ġf el
ĠMan agement
U ST
Ġexec uted
= >
E v
im ents
ag ent
Ġexhib it
Ġprec ise
Ġpartners hip
Ġdis h
ĠN umber
Ġprior ity
ĠPr ime
Ġpart ition
Ġpetition er
. ;
wh ite
ĠSy ria
Ġve ctors
Ġloc ally
Ġaccom pan
Ġw aves
> \
Ġad vent
dis c
ist ence
iss ions
ĠS i
Ġa fraid
Ġleg s
onym ous
r ont
', '
f d
Ġsw im
ĠL ight
ult y
uc ks
red it
ĠYou ng
Ġmat hemat
Ġg arden
Ġfail ing
SE T
or ial
Ġref ers
Ġdecl are
S um
Ġnut rition
Ġwhe never
Ġ{ {
ĠK ar
ĠCh ris
Ġsudden ly
Ġo s
Ġcut s
Ġag ric
Ġc razy
sh ift
Ġfrequ ent
Ġhous es
01 7
Ġp itch
Ġaim ed
ĠI C
ĠEn ter
ĠH on
, {\
IT ION
Ġ19 91
Ġinhib itors
Ã ¢
------------ ---
Ġt aught
Ġtempor ary
ĠB ern
d p
re q
ERR OR
$ ]{}
Ġin her
Ġfor um
Ġh ook
ĠApp lication
ĠA ction
Ġexp enses
11 7
Ġcult ures
c ache
ĠF ar
Ġf unc
ĠSp ace
Ent ity
U sing
olog ically
ĠD own
Ġh o
Ġweap on
N ames
Ġsupp ose
Mod ule
Deb ug
Ġdomin ant
Ġprodu ces
ĠEng ine
ĠPro position
Ġ7 9
Ġstr ange
igr ants
Ġupd ates
Ġun w
P ORT
ĠS at
AA AA
de bug
Ġco inc
99 99
ĠC ross
h ave
ĠS M
æ Ī
Ġte eth
ĠE gypt
Ġwat ched
Ġw estern
O kay
ros is
it an
Ġ} \
ĠC ur
Ġatt ributes
ath an
ĠR ights
Ġprov iders
Ġplur ality
on a
Ġgr an
ĠK n
S earch
Ġqu ot
Ġreason ably
P ER
yl van
Ġ8 3
id en
ĠTh ank
Ġshould er
Ġorient ation
Ġfrequ encies
Ġ> >
Ġign ore
Ġbroad cast
Ġstre ets
Ġver tex
Ġt rib
ĠPol icy
ist ical
Ġprocess ed
Ġtrad ing
Ġ1 25
ins ic
ne cess
Ġn erve
Ġ\ "
St ud
P ort
1 19
S ch
Ġg ent
u ct
Ġaware ness
p res
Ġdis appoint
() :
Ġloss es
Ġw avelength
ct ic
ant i
pr ise
Ġh at
Ġbl ank
i ro
Ġt iny
Ġ8 7
< !--
v s
ĠR oman
w orld
Se ction
et he
Ġsil ver
O p
Col lect
Ġwitness es
Par ameter
p ay
ĠE lect
oc us
met ric
hold er
ari ate
Ġval ve
Ġdu plic
U nder
Ġbas ket
Ġimprove ments
Ġc yl
T P
Ġsp ons
Ġte en
s es
Ġpl ates
ĠU V
Ġsome how
aw n
10 7
ÂłÂłÂłÂł ÂłÂłÂłÂł
ion ed
ps on
d ig
re ll
ĠPro v
Ġ8 2
Ġgener ic
Ġmar ks
d iff
Ġv ascular
ĠGl obal
T ag
12 7
Ġcol our
ĠCons ider
Ġtal ks
Ġt ank
Ġlaw yer
Ġexpl ains
ĊĠĠĠĠĠĠĠĠĠĠĠĠĠĠĠĠ ĠĠĠĠĠ
w art
Ġfluores cence
Ġ9 3
olester ol
Ġh oles
ĠP ers
Ġte a
Ġdiv isor
Ġl ayout
ĠL ow
Ġ8 9
A CT
Ġ( $\
Ġant igen
Ġa er
hand le
d ays
Ġtrans plant
Ġorgan ized
Ġvide os
Ġstrugg le
23 1
Ġsu ffer
Ġgover ning
Ġreturn ing
ke ys
ang o
ĠE nt
Â ¿
Ġmanufacture r
D ir
u ce
ill ance
T V
Ġtr ick
Ġpert urb
Ġperson nel
ĠK en
vious ly
' _
em s
I X
Ġwere n
ĠWil son
Ġrespir atory
Ġun likely
Ġcrow d
Ġcar b
Ġrough ly
ĠAf ghan
R ES
Ġ} )
Ġg ang
ĊĠĠĠĠ ĊĠĠĠ
E m
2 17
p ot
r at
Ġper mitted
ang ers
ĠM ap
f ol
01 6
Ġarchitect ure
Ġdire ctions
2 32
w ho
Ġpass age
Ġha z
mpt y
Ġ1 15
} "
ĠL ie
Ġmod ules
ac le
t ree
D i
Ġcook ing
Ġrec ipe
f amily
Ġche cks
Ġuncertain ty
Ġ9 2
Ġelse where
Ġd b
ib ration
The ta
il ly
ogen ous
ĠSh ow
ick et
are t
Ġre ject
C ustom
Ġco vers
st o
Ġsub mit
Ġme al
Ġrestr iction
Ġge ometry
ĠEx ec
Ġpark ing
Ġ8 6
Ġdev iation
op es
Ġover come
Ġw et
Ġ" /
Ġbound ed
se x
ĠE vent
? '
se ason
ĠW ay
Ġs oul
op ol
ĠIsrael i
Ġs odium
Ġcomp ute
ub y
Ġconsist ing
Ġf older
ĠH D
Act ivity
}} }}
ult ural
Ġcy cles
O ption
ĠM u
Ġple a
e h
ink ing
Ġextra ction
Ġkeep s
ylvan ia
14 0
Ġut ility
ep ing
Ġpath s
ĠM iller
Ġ19 70
19 98
Ġbo at
ear ing
Ġcontract s
Ġdis ability
Ġm arijuana
Ġse asons
back s
Ġsing ular
act ivity
Ġmod ul
Ġref uge
IG N
et ry
Ġalgorith ms
T itle
Ġaffect s
Ġcon clusions
a ired
f ound
Î ³
Ġh am
ant ed
s ession
Ġg iant
ur able
ĠG ar
)) /(
ĠE L
opl us
Ġpar as
I LL
c opy
Ġ1 19
Ġclean ing
Ġpept ide
Ġthe ories
ĠM AP
end ix
Ġmed ication
s end
i est
Ġconvert ed
ĠP L
ĠCommun ity
su per
R ad
Ġconsider able
P ut
Ġfl ash
Ġread ers
ad or
Ġul tr
Ġby te
Ġ Ñģ
omorph ism
on ical
as ic
Ġg ay
ĠC ook
Ġint ellect
ater nal
Ġav ailability
Ġon set
Ġ9 1
Ġ$ [
und le
Ġdisput e
Ġl unch
text rm
ut able
Ġinval id
10 8
ial s
rop ic
E V
m aking
reg ulation
C a
Ġpow der
al i
ad ers
Ġres olved
OU R
Ġview ed
f in
l ayer
d c
Ġmaint aining
ĠB on
ĠU I
ĠL ew
Ġbow l
Ġir re
ĠD R
Ġp ushed
AM E
ĠB O
ar ters
Ġperson ally
k ind
Ġ1 11
Ġ riv
ĠG R
por ary
IT E
F s
Ġprevent ion
com ment
d on
ex port
çĶ ¨
Ġcomplet ion
Ġent ries
p ie
et ary
ĠM ain
Ġstring s
Ġ( (-
id al
Ġu pload
Ġconv icted
ra ine
Ġadvant ages
ĠSt an
ro oms
ail ing
h ash
Ġapprec iate
end a
D ocument
ĠOffic er
Ġr ural
Ġsat ell
Ġrec ur
MA X
ĠE V
Ġguarant ee
T ypes
ĠC ustom
Ġf ired
Ġind irect
ĠÐ ²
Ġspec im
Ġp ra
erg ies
Ġbar rier
Ġconven ient
Ġdys function
P ass
Ġdiscuss ions
Ste p
Ġowners hip
y y
ow nt
ĠW T
Ġsequ encing
d oor
ĠV an
Ġsc attering
k m
put ation
Ġphenomen on
Ġfil ing
F urther
Ġ\ |
Ġocc as
Ġre fere
Ġ( âĢľ
S ION
Ġregular ly
Ġt ape
ad vant
et ics
zon a
in ator
Ġcompet ing
ĠS outhern
neg ative
' \
ON T
Ġ ì
ord an
Ġoper ated
Ġcon ve
Ġp od
Ġopp on
Ġatmosp here
Ð ²
Ġm uc
Ġr ice
ĠWITH OUT
scrib e
Ġst up
es ity
Ġf ing
Ġcompr ising
Ġexpl os
s ql
AB ILITY
Ġsc hem
Un it
T otal
w a
re ams
ĠItal ian
Ġquant itative
Ġcent ers
est ival
Ġcoun cil
ĠR ay
Ġth inks
ĠE ffect
IN S
i otic
ont o
ĠB a
ĠH ig
Ġent ering
l at
p ed
ĠÂ ¶
M s
ĠHen ry
bl ack
Ġsystem atic
ific ial
ĠCent re
o ir
he rence
FL AG
t otal
^{- \
ibr aries
f c
Ġver ify
uns igned
u its
ĠM ic
Ġfav our
ĠL A
Ġmax im
Im pl
ĠI re
m ay
Ġnames pace
+ ^
Ġwork er
ĠSpan ish
Ġal b
Ġsust ained
erg ic
ris es
Ġgovern ments
cont ainer
SI ZE
iber ty
Ġsatisf ies
Ġaccum ulation
Ġfall ing
L ong
ns ylvania
C B
c raft
Ġcapt ured
}} $.
ou red
Ġtele phone
M ake
X iv
}} }\
t ons
Ġvac uum
wed ge
Ġthor ough
over ty
]{ }\
Ġh ack
ĠW hether
d ra
Tem plate
id get
G r
Ġre aching
ĠW at
Ġexpand ed
Ġdem ands
Ġinter ventions
sec urity
ĠW alk
Ġremov ing
Ġcolle agues
H ttp
Ġcre w
Ġdismiss ed
Ġhoriz ontal
ad der
Ġover w
ĠStand ard
ed ef
Ġst orm
Ġconf ront
Ġrecommend ations
opl asm
c ustom
ST AT
Ġaff ili
Ġanal yt
Ġtom orrow
y o
ro se
at abase
au g
Ġdegrad ation
Ġhe pat
Ġqual ified
ĠR ap
Ġnerv ous
ĠÂ °
Ġinv asion
Ġport ions
Ġquestion na
ĠSer ver
Ġfall s
< ?
Ġprofess or
Ġincorpor ated
Ġex clusive
ĠR od
Ġbund le
Ġ8 1
rop ri
ut ies
Ġc oding
Ġh ide
Ġpsych ological
Ġ1 40
je ctions
ĠF re
ocol ate
h ire
ĠFrancis co
ĠN FL
Ġworld wide
d epend
h is
be ing
ĠP E
Ġpack ages
Ġ19 89
ĠJer sey
er k
ile y
Ġpre lim
Ġmass es
Ġkid ney
ĠG ra
Ġdest ination
ĠE p
Ġgrad ient
ij er
em ed
dom ain
Ġst ations
cond ition
Ġcompet itive
t reated
inst ance
ĠD ou
ĠD id
Ġadminist ered
ang ular
Ġsize of
am ps
Ġfac ed
Ġrec ru
Ġ\ ;
Ġthe rap
Ġass ays
ĠDef endants
Ġhon or
Ġvol unt
ĠAd v
subset eq
Ġ1 13
ech o
Ġsc ales
ĠS ix
Ġst one
ĠM en
Ġsepar ately
Ġanc ient
ĠAp ache
Ġinter ference
Ġegg s
p red
im ages
Ġsyn chron
á ĥ
hold ers
D O
Ġfol ks
p ad
Ġcon crete
T ool
Ġdecre ases
Cont ainer
Ġad en
t ask
Ġel der
Ġcan n
ace ut
Ġ1 12
" ))
os omes
Ġphys ics
h us
Ġst uck
def ined
ĠF L
S w
E CT
ry st
Ġro of
inf lamm
Ġ19 88
g ra
Ġc raft
ol t
Ġro se
ĠStud ies
Ġinter vals
Ġvot es
ĠSw ed
Ġmount ed
Ġfriend ly
ĠSupp ort
st op
A p
Ñ ĩ
print f
est yle
Ġillust r
we alth
pon ential
ĠAs ian
Ġ1 14
RE F
_{ (
Ġtarget ing
ĊĠĠĠĠĠĠĠĠĠĠĠĠĠĠĠĠĠĠĠĠĠĠĠĠĠĠĠĠĠĠĠĠ ĠĠĠ
h s
Ġaddress es
Ġent r
ĠPalest in
associ ated
Ġg ut
Ġpil ot
Ċ ĊĠĠĠĠ
ĠGeorg ia
_ ,
G raph
itud es
Ġfl ood
b ell
iv a
Ðµ Ð½
Ġprofession als
}} }$
Ġc ust
= -
g reen
ĠCon ference
com plete
Ġan ch
elf are
Ġcreat ive
ĠB ob
Ġinter ior
ĠRes pon
ĠH a
b p
Ġ( %)
. ]
Ġro ots
d rop
* ]{},
å Ĭ
ĠD ie
Ġvari ants
Ġst ir
Ġpromot er
KE Y
ĠP ay
10 6
b c
ict ions
ed ge
ĠAb out
St ore
Or der
Ġinn oc
ol ving
Ġappoint ed
H igh
Ġtox ic
Ġappe als
Ġris ing
Ġmed i
ĠW ild
ov ed
> .
Ġanalyz e
Ġ ----------------------------------------------------------------
ĠAn al
Pro duct
su ccess
ĠPro cess
Ġheav ily
and ed
ins ert
Ġflex ible
set minus
Ġconstit ute
ch anged
Ġhas h
Ġpass es
Ġexpress ions
G P
Ġdraw ing
Ġo v
Ġprotect ive
ĠRoy al
Ġlik elihood
Ġpar agraph
Ġref lected
Ġsever ity
Ġexpect ations
ĠT otal
cy cl
form s
Ġu pt
) _
ĠM O
Ġinsu fficient
Ġconsec utive
iz z
Ġbe ach
Ġpar a
ĠA gree
miss ible
Ġab stract
Ġt ensor
Ġal ignment
y d
ach ine
ĠV ictor
Ġrat ios
viron ments
ĠT urn
ĠB ra
Ġlimit ation
Ġinf inite
Ġmove ments
ial ize
ĠPat ients
Ġy eah
Ġsole ly
Ġsold iers
Ġdi ver
ĠSc ient
Set tings
Ġsim ilarly
Ġvacc ine
Ġadvert ising
ĠL I
R R
Ġrel ating
Ġconstant ly
Ġd op
Ġb ands
ur d
re nd
Ġseed s
g ame
x c
Ġhospit als
Ġad mit
b et
h ard
ĠA LL
Ġenzym es
ask a
p u
Ġch ip
D raw
Ġmal ign
Ġbeaut y
Ġaward ed
Ġfound ation
Ġse es
Ġoff ensive
Ġans wered
Ġrestrict ions
olog ists
ĠAnd rew
Ġgl ad
Ġengine ering
cm d
ĠJose ph
ĠLet t
Ġ( '
Ġsubject ed
ĠAcadem y
Ġbi ke
Ġjud icial
Ġabs ent
Ġmeet ings
Ġ10 4
Ġ rom
ĠE s
En c
ou ston
ĠA ge
ir ation
Ġman ual
AM P
ynam ic
ick ing
Ġcomp rises
ĠM ajor
Ġsuppl ied
ĠAnd roid
Ġcon ce
ãĢ ģ
Ġtempor al
ĠT aylor
Ġ1 60
gl obal
Ġvary ing
24 8
Ġhop ing
Ġpro jection
ĠN orthern
Ġasym pt
A E
h our
16 8
n orm
mon y
w indow
Ġt urb
u ated
s is
lo op
ĠT ake
t oken
C ache
an al
ĠR a
Ġproceed ing
o vers
Ġv ice
ijer ph
Ġenjoy ed
Ġn ations
des c
ĠP ath
ath y
Ġimmun ity
Ġimplic ations
b ind
ĊĊ ĉĉ
` ,
Ġphys ician
Ġche ese
Ġaccess ible
Ġresid ual
Ġcoord inate
Ġpix el
Ġexec ute
Ġvalid ation
ĠPlaintiff s
Ġm amm
Ġ[ '
ĠSc ot
Ġst om
ĠT ax
l ers
u ations
Ġcarcin oma
Ġt u
Ġdistingu ish
b inding
ĠDes ign
ĠIslam ic
N av
}} $,
ĠD ar
SE LECT
Ġacqu isition
Ġag es
M ain
app lication
P os
ĠF ollowing
B T
i Ã³n
Ed it
ĠE st
Ġg est
ens ities
w all
ĠF BI
Ġd ump
Ġ" $
Ġla id
Ġlight s
ĠPen nsylvania
Ġn arr
clip se
ac co
i pt
Ġclot hes
âĢ ħ
Ġcalc ium
d ers
Ġpat ch
G rid
al and
Ġbon ds
Ġabund ance
low er
Ġdef ines
ac et
Ġsau ce
ãĥ ¼
Ġfeed ing
L P
rep resent
Ġdeterm in
Ġhe ating
01 2
supp ort
Ġbenef icial
S ort
b ot
Ġmac roph
Ġconj ug
ĠBe ach
Ġ10 2
ES M
........ ........
ĠM icro
Ġcorpor ation
ĠM att
ĠG i
Ġk m
ĠRep resent
Ġarter y
ĠLin ux
n an
Ġb ull
Ġf usion
ĠL uc
Ġm sg
Ġâī ¥
el ing
ot ide
Ġ1 17
Ġrec ruit
Ġdestroy ed
M at
Ġr anging
ĠâĢ ¢
ĠInd ex
Ġspec ify
Ġinstall ation
e en
ubl ished
em an
M c
Ġvit amin
\ >
ð Ł
S V
n ament
Ġt et
In v
Ġass ignment
ob ic
ol ly
Ġun a
conne ction
ig ate
Ġimm igration
Ġdevelop ers
Ġbl ess
ĠR yan
Ġdes irable
equ al
}} (\
ĠA G
Ġ! [
]{ .
ev in
Ġp m
ĠTH IS
Ġex em
Ġa f
Ġpar ad
Ġp adding
Ġer red
c am
Ġar med
Ġgr ass
g it
Ġins ight
Ġunus ual
Ġin cons
Ġal tered
b old
Ġm as
ĠNever theless
wid get
ĠAdminist ration
Ġaccept able
Ġeffect iveness
jo in
Ġbre ach
Ġelig ible
d agger
Ġl in
Ġearn ed
3 10
Ġprelim inary
Ġautom atic
d ent
and o
re nder
Ġstru ck
form ance
Ġconsist ently
.. \
hes ized
u v
ĠP ass
er ies
d ated
ac er
cl osure
com mun
under line
rac le
ĠPat ent
}} _{\
Ġs essions
ĠM aster
Ġoccur rence
Ġep idem
Ġb unch
TH ER
Dev ice
Ġmat rices
Ġvis ited
ĠL td
Ġvot ing
Ġun clear
ĠF ort
Ġguid ance
Ġhor se
. ),
Ġin fect
11 5
Inter face
ard ing
Ġhar vest
ig er
================================ ================================
Ġfacilit ate
Ġnormal ized
Ċĉ ĠĠĠ
h ot
Ġin line
as hes
Ġper ceived
ĠColor ado
Ġend ing
Ġsm ile
Ġtrack ing
Ġpack et
w rap
Ġmole cule
Ġw ake
Ġb ub
AN G
V ector
Ġarrange ment
Ġevery body
omet er
ĠPy thon
Ġ\ #
Ġang ular
s ch
hel p
ĠSte ve
Ġh ierarch
Ġlib eral
t ri
al d
Ġviol ent
Ġdi pl
iv ariate
Ġspirit ual
im p
Ġat om
Ġsh it
iz able
Ġsur ge
Ġsk ill
Ġhad n
Ġsho pping
Ġ6 00
S pe
B it
Ġidentify ing
Ġcomplex es
' }
ãģ Ħ
C le
g ov
Ġra rely
on om
Ġrul ed
Ġrandom ly
ul ative
Ph one
- *
Ġtreat ing
w orth
ĠUn fortunately
ĠF amily
Ġatt ended
pl ot
Ġ ĊĠĠĠĠĠĠĠ
en um
â ī
anc hes
11 6
================ ====
Ġprom ising
ĠIre land
ar se
Ġprec ision
Ġv ital
ä¸ Ģ
Ġchild hood
cell s
Ġdis advant
Ġdesign s
Ġpolit icians
Ġsh orter
effect ive
ĠJew s
Ġag ing
Ġdec ent
Ġ10 9
Ġintegr ity
Ġt ur
ry ing
ĠC ru
Ġtransport ation
Ġt ips
inter face
ch annel
Ġoverw hel
Ġult imate
Ġchem otherapy
Ġt all
01 9
ĠS A
Ġde position
ĠL ear
Ġ10 5
Ġpo inter
O F
ĠT enn
19 96
pt on
Ġwas hed
ĠN AS
ĠAri zona
Ġox ide
Ġdeep ly
ĠO x
Ġpregn ant
Ġcl ause
ge red
Ġbir ds
Ġlif etime
Ġ+ /-
="../../ ../../
Ġcollect ive
Ġstead y
Ġ= \
Ġj oy
Ġconcept s
D ialog
ĠJ SON
ĠPro duct
Ġsent encing
Ġhard er
ĠB L
og ram
e lect
U SE
ĠMedic ine
Ġn it
on ing
is l
at ile
Ġb id
E val
f ish
e ven
ro le
ĠS everal
Ġevery where
Ġ< !--
\_ [
BU G
ari ous
Ġdec or
Ġsurv ive
Ġstri p
Ġl umin
ĠT ri
Ġfore ver
Ġresid ues
å ľ
ĠInd ust
Ġphot ograph
Ut ils
Ġlabel s
Ġo lig
ĠA ccess
ir k
Ġj son
Ġ1 18
Ġam ended
Ġle an
ac on
Ġalleged ly
Ġdeb ug
all ing
m ethyl
ĠCh ampionship
Ġ[ "
Ġph ases
Ġin herent
ody nam
ĠT erm
ĠS che
l ot
ph al
ĠK enn
Ġdis abled
ĠInt roduction
ps y
app y
Ġ12 8
č Ċĉĉĉ
aut o
Ġsw it
Ġbl ot
Ġ19 83
az a
ç »
D el
Con f
Me an
A SE
u z
Ġle uk
Ġdoct rine
g ood
19 97
ĠM R
Ġnewsp aper
as ant
ol ine
F B
if iers
ĠL im
aw ay
Ġcamp us
Ġcomput ing
n one
ĠCont in
Th ree
æķ °
Ġmet all
ĠSer ies
z one
ĠH istory
re ference
Ġfun ny
word s
Ġcur rency
an alysis
fl ags
In s
u id
l ined
Ġ10 6
\ }
end ers
aud i
Ġmonth ly
Sh ow
MO ESM
Ġdo ors
st ra
Ġ1 16
Ġsymmet ric
Ġcr ash
ble m
Ġutil ized
Ġrepeated ly
Ġc um
ĠCan cer
Â Ĺ
h space
B ody
Ġp neum
Ġwrit es
Ġflav or
ĠD am
ĠM P
ber ry
ĠST AT
IS A
ĠF red
Ġaccompan ied
Ġmix ing
og l
Ġenem y
Ġbank ruptcy
Ġexhib ited
ii i
Ġrep orter
ĠO l
Ġviol ated
Ġl ying
Ġarr anged
ĠT al
A rt
ul ator
ak i
Ġent ertain
E mpty
pi racy
ET H
â Ħ
Ġsm oke
Ġl ys
Ġfe as
Ġpul monary
Ġscal ar
Ġvess el
Ġen vironments
Ġcheck ing
Ġme re
D U
inflamm atory
Ġp el
RE G
ĠH un
st able
ad i
Ġj et
Ġres idence
Ġar c
T L
è ¡
Ġ( @
ĠSp ain
è ®
b u
/ .
C N
Ġoccur ring
g al
Ġmitochond rial
Ġad oles
orne ys
oy d
FI LE
ĠC rim
Ġsurve illance
Ġl anguages
b d
ĠÐ ½
ĠH o
ĠStud y
Ġreve als
b oot
R ect
Ð ¼
Ġh ang
Ġstudy ing
Ġtop ics
Ġ Ù
u cl
ĠS n
: =
ĠCon f
ĠR og
Ġphilos ophy
à ¬
ĠP B
Ġread ily
Ġvot ed
Ġj ail
Ġdecl ined
Ġm unicip
Ġ ×
Ġrec overed
Ġd ad
Ġper ception
H ave
m ember
Î Ķ
Ġ19 86
Ġsupp orters
en able
ĠE astern
ĠM id
Ġor bit
field s
com ponent
reg ular
0 24
Ġpan els
Ġrevers ed
ret t
ĠWe ek
ug ht
13 5
g roups
ill ary
Ġderiv atives
off s
ĠQu ant
ĠD ue
Ġbu ck
ĠM arc
is cal
n l
Ġs lic
Exp ression
Ġlegisl ative
Ġdefect s
Ġd oses
l anguage
Ġembed ded
Ġsub sid
Ġinterpret ed
que ue
Ġm ock
t k
Ġtrans actions
ĠMethod s
LE D
Ġcorrel ations
ĠA B
ĠD ig
P RE
or ous
Ġput s
Ġtro ops
Ġlik ed
ĠÂ Ĺ
Ġst ellar
Ġbott le
ĠC M
ĠC u
Ġtra il
Ġpred omin
ot helial
Ġun like
Ġmir ror
Ġres ist
Ġfib ers
ĠCar l
ĠChild ren
Ġd rain
c us
ĠGu ard
ĠTh ough
Ġch olesterol
Ġwire less
or able
re v
en ant
b led
Ġprint ed
Ġd uties
Ġsystem ic
ĠK it
Ġpro minent
' >
; ;
is p
Ġprosec utor
Ġ19 87
ĠCom mand
ack s
ock er
Ġlabel ed
ub s
Ġr ating
Ġar ise
19 95
Ġd rag
[ [
Ġcool ing
H ello
pr im
Ġexc iting
Ġauthor ized
Ġpro pose
qu es
Ġpar se
Q ue
clus ively
y ers
Ġact or
D av
ush ing
Ġexpress ing
ĠP ART
end or
j avascript
Ġinflu enced
omorph ic
Ġillust rated
& #
ĠWARRANT IES
Ġassoci ations
Ġneigh b
Ġs outhern
ub le
Ġmount ain
az z
ocr atic
Ġt one
ĠG ene
Ġc ourses
t bl
Ġg ained
vers ely
ric ular
Ġprint ing
Ġbur st
necess ary
pl ates
Ġpl asm
ĠB ru
Ġp ending
ic ations
") );
Ġf ert
ĠB ell
Ġra ising
Ġatt itude
N G
Ġdis crete
Ġlo ans
ov es
ĠIm ages
W indows
ĠEn vironment
Ġconnect ing
Ġinsp ired
Ġkne e
Ġt ension
Ġvalid ity
E P
ov a
aw are
c ases
] -
< <
Ġdis rupt
ĠT er
ment ioned
Ġsu icide
Ġstup id
Ġn orthern
Ĩ Ĵ
o es
Ġpr on
Ġgalax y
ĠTh ird
ĠPac ific
() {
ap shot
t rack
h ang
S erv
ĠF air
Ġhop es
H i
12 4
Ġregist ration
c ategory
sc ope
Ġprosec ution
ĠTh rough
10 9
Ġsome body
Ġphen otype
Ġign ored
ĠP sych
ãģ Ĺ
Ġinv ariant
id av
~ *
o pp
Ġcontact s
M ac
ĠC y
ĠP rim
pro file
ar on
Ġgu est
Ġreson ance
34 9
ad el
A v
01 3
ĠKing dom
Ġisol ation
n ie
ĠWith out
D oc
T ra
F ont
Ġden otes
.* ]{}
pl ugin
al ities
ow ski
ĠM L
scri ption
b ecause
b order
con v
cl er
Int eger
Ġprevent ing
Ġcardi ovascular
I SE
ĠAg ency
c hers
H ost
Ġh tml
m ask
Ġtrans mitted
ĠBro ok
Ġt y
*~ *
lic enses
Ġliter ally
Ġequ ilibrium
ĠAgree ment
Ġg ross
Ġ" #
he ast
ap or
plic ity
à ®
Ġ âĪ
Ġexcess ive
Ġcomput ation
Ġdiff usion
os omal
Un ited
Ġpros pective
ĠH ave
Ġp ounds
Ġembod iment
Ġelim inate
Ġo ste
am ic
ĠE r
Ġfact ory
nes ota
! )
int age
ou ter
ĠL ove
b ral
ĠB R
gen ic
H as
á º
Ġswitch ing
st ic
01 1
au x
Ġpublic ly
Ġgrav ity
s ave
pe ction
ĠG ames
Ġed it
ack et
am ond
Ġdef ensive
Ġc ig
Ġimpro per
Ġfl our
Re ader
S ur
Ġphosphory lation
Ġelectric ity
Ġc in
pos itory
Ġd ip
Ġreg ulated
ph y
Ġwor ried
Ġton ight
Ġob esity
Ġphys ically
ĠAnd erson
ĠBit coin
ur ations
Ġam endment
sh ort
ole cular
col l
ag an
Ġfr anch
Ġdifficult ies
ĠW ord
ãģ Ļ
ĠĠĠĠĠĠĠĠĠĠĠĠĠĠĠĠĠĠĠĠĠĠĠĠĠĠĠĠĠĠĠĠ ĠĠĠ
Ġcomb ine
ĠF oot
Ġdest ruction
Ġbox es
Ġdelay ed
Ġf ung
ring e
Ġspecific ity
å Ń
S W
l ated
Ġpan cre
Ġattract ive
us et
Ġden ial
Ġ ip
Ġassum ptions
Ġunex pected
per p
Ġepis odes
eng ers
ru p
Ġcol i
Ġover night
. (
Ar gs
o i
fl oor
ĠZe aland
12 6
Ġfound ed
Ġp overty
Ġd ial
S ing
ut ter
erm ined
st rap
ĠCon sequently
Ġpr ay
Ġcap s
Ġsearch ing
Ġsp r
Ġatt ributed
m ate
ol i
Ġr um
ĠĠĠĠĠĠĠĠĠĠĠĠĠĠĠĠĠĠĠĠĠĠĠĠĠĠĠĠĠĠĠĠ ĠĠ
Ġth ro
ĠP rem
ann y
Ġt ill
ĠC OP
Ġhard ly
ĠPer haps
p ow
ĠV iet
Ġdispl ays
a que
F ound
Ġp ace
Ġb atch
RE AD
_{ -
Ġblock ed
Ġab ortion
ne x
\ ,\
Ġh its
ag ram
Ġacknow ledge
Ġre n
app ropri
mer ce
Ġcont ra
pro v
Ġgenu ine
ĠP ot
Ġfl ags
Con vert
J S
Ġth rom
ick er
11 4
ure r
x s
Ġfr ames
ĠIN T
Ġcompat ible
Ġbelie fs
Ġ19 85
D em
Ġsch olars
Ġo ven
Ġincor rect
Ġk il
ĠC as
rit ing
Ġper missions
it ical
ik es
inte gr
Ġ10 3
ĠS af
č ĊĠĠĠĠ
Ġm l
ĠHe ad
P res
Ġb oss
Ġen ables
Ġvis its
Ġobt aining
S ession
Ġret ain
Ġdel iber
Ġaffect ing
h uman
sh ape
ĠAddition al
ĠC ost
Ġex ponential
u ity
ob acter
Ġgener ator
j ar
vent h
A nal
Ġ10 8
Ġinter rupt
Ġpe pper
Ġ{ @
y ard
Ġg otten
ĠM ah
Ġmag ic
ĠS ir
Ġgun s
e gr
on ed
Val ues
ens ing
0 22
ĠSpec ifically
Ġb orrow
Ġdifferent ly
^ )
Ġc od
ĠR A
ur g
Ġmax imal
de lete
m ates
Ġweight s
Ġaw esome
Ġdescrib ing
Ġbehavi ors
F ree
Ġf its
b ad
ĠT itle
Ġreflect s
Ġhar ass
ur se
ĠS ov
Ġ0 1
AV E
iz ers
Ġcont est
May be
ĠMin istry
Ġas ks
Ġfunction ality
res ource
Item s
I ter
Ġbe aring
Ġf illing
ĠI owa
un ior
Ġdesign ated
Ġde als
Ġdem ocracy
ph osph
Ġcomm ands
W idget
t n
Ġin k
Ġcall back
Ġclin ic
est amp
Ġunderw ent
im ation
19 94
ĠF ord
Ġtrend s
Ġt ang
** .
Ġpredict ions
al so
Ġinvestig ations
Ġk iss
com fort
Ñģ ÑĤ
Ġequ ality
Ã© e
aps ed
Ġselect ive
Ġinterview s
19 2
ĠUn ivers
Ad ditional
Ġb att
ĠR ather
ĠR en
Rec ord
f usion
ĠO p
qu al
ĠH ard
on omy
t im
/ âĪĴ
B s
Ġc ord
Ġbl ame
^ ^
Ġsho es
\ .
el d
Ġtext ure
ph asis
Ġbreak s
requ ency
J o
Ġprogress ive
0 23
Ġf itness
ucle ar
ĠA ward
Ġprogram me
en ergy
Ġse gments
Ġcon vey
ĠF alse
ber y
$ ^{-
HT ML
fig ure
ru le
//////////////// ////////////////
ie ve
aceut ical
Ġlist ening
place ment
Ġg ear
Ġwe ird
++ ;
gg ed
Ġweek ly
I AL
pr ison
h h
Ġm s
Ġm old
ish op
ast ed
ĠC ore
ĠP rior
By Id
Ġfarm ers
Ġd Ã©
Ġvari ant
Ġdetect or
ĠL ic
par ison
Col lection
r andom
âĢ ¯
Ġsp ont
Ġcons piracy
Ġprem ium
ĠS on
trans lation
ĠA sh
7 00
ĠJ ordan
Ġxml ns
ĠArt icle
Ġcomb at
Ġconscious ness
Ġm ad
Ġfoc using
Ġhypert ension
Ġsynt hetic
Ġinsert ed
ĠR h
Ġbound aries
Ġgr ate
Ġpy thon
ot on
Ġp ipe
og rap
Ġintellect ual
ĠSt ill
Ġattempt ing
Ġcomp lement
ĠSc iences
oc key
are a
T F
} '
Ġcos m
og a
Ġang ry
child ren
Aut hor
Ġvert ices
Ġad s
Ġ19 84
ĠN ick
Ġfavor able
G H
Ġcomput ers
Ġind ices
ĠT our
^{ *
Ġ1 35
c as
Ġadapt ed
Ġapp s
Ġconf ident
ĠA C
Ġrend ered
Ġphys icians
Ġreg ulate
us p
che ster
roph y
ĠG reek
ari ance
Ġvar ied
cept ions
der ived
âĦ ¢
11 3
Ġf itting
oph ag
Ġd ownt
Ġm ath
Oper ation
mod ules
Ġfat ty
ĠG rant
h u
Ġcomb inations
Ġaim s
Ġde eper
Ġint racellular
i em
Ġtra ject
čĊ čĊ
Ġref lection
ud io
Ġed ition
P ref
Ġ$ .
Ġin verse
Ġsett led
ĠCP U
ĠS anta
rit is
Ġfund ed
Ġ1 32
Ġstret ch
Ġh ung
new s
Ġneglig ence
B V
Ġd ates
âĢ² -
et c
Ġrestaur ants
Ġlater al
for all
Ġter rible
Ġint ense
Ġdisc ount
reg ister
e ff
* (-
Ġ Âł
Ġle ak
Par ams
Ġpeak s
Ġsusp ension
m ons
Ġl oud
ab b
ĠColumb ia
Ġmat ched
Ġlim iting
Ġret irement
Ġdiscl osure
Ġm ood
Ġh int
ĠS aint
Ġcoll apse
OL D
Hand le
Ġ" <
ow ed
Ġquant ities
Ġepit helial
Ġsatisf ying
Ġmag azine
Ġd ans
P arent
ime q
Ġcatal yst
Ġtrans parent
ĠC F
ĠR ound
ĠP BS
. :
_ [
he ld
tr ation
conne cted
ul er
Ġent re
Ġcateg or
Ġsc oring
)) /
part y
ra pper
Ġpro position
() ->
Ġju ice
PE CT
Ġbreak fast
in th
m ove
19 90
p riv
Ġcons ensus
Ġpe er
Ġfing ers
Ġpot ent
he et
Ġcho osing
Ġch a
ĠB C
ab is
Ġtax p
Ġmort gage
Ġvulner able
s imeq
ĠProfess or
oc oc
Ġsc aling
Ġlaws uit
é Ģ
rom agnetic
ĠF ull
Ġch ains
ĠL y
Ġman ually
enn is
Ġgent le
Ġprefer ably
Ġdam aged
m ma
Ġdoll ar
19 93
Ġre con
. ).
if ting
ol s
ol en
Ġtra v
Ġlik es
Ġ+ \
abl ing
Ġstrict ly
ĠK ent
Ġrepresent ations
Ġt ied
ĠC apt
ce ive
Ġphys iological
Ġhol iday
Ġst ake
Ġret ro
RE E
ĠCommon wealth
Ġdevelop er
Ġsuppl ies
H er
č ĊĠĠ
Ġsh ots
im mun
Ġwonder ing
St ack
ĠPro perty
ĠPl ace
H ash
y our
b ibr
Ġcon cur
end o
Ġisol ates
_ +
ĠG P
Ġtoler ance
ĠH or
Ġen act
Ġb ounds
m n
t ool
dis p
âĢĻ .
}$ $\
Ġmin i
b ec
term inal
Ġpush ing
Ġmil it
h om
ĠP I
Ġag gressive
plet ion
Ġ ions
h ad
cons in
Ġvisit ors
pass word
Ġent ities
ig in
Ġcan cel
ĠĠĠĠĠĠĠĠĠĠĠĠĠĠĠĠĠĠĠĠĠĠĠĠĠĠĠĠĠĠĠĠ Ġ
ul ent
Ġdiv or
ĠN F
ĠO P
Ġqu ote
ĠAd am
; ">
Par am
t an
Ġqu i
Ġob jection
Ġlog ical
ĠH u
ĠTur key
2 20
Ġtem p
Ġb ills
Ġdim in
it age
Ġgl ob
Ġvir uses
Ġl os
item s
ress ing
- $
CO DE
IT ED
â Ĥ¬
Ġpar am
AL SE
b ow
ĠC C
ĠS R
Ġun em
met ry
Ġs ir
AS H
Des pite
~ )
h l
,\ ,
Ø ±
Ġass istant
Ġc ock
ĠB ible
Pan el
ro cy
ĠD ifferent
ĊĠĠĠĠĠĠĠĠĠĠĠĠĠĠĠĠ ĠĠĠĠ
m ade
ad min
ĠĠĠĠĠĠĠĠĠĠĠĠĠĠĠĠĠĠĠĠĠĠĠĠĠĠĠĠĠĠĠĠ ĠĠĠĠĠĠĠ
N ULL
ir th
pl ane
Ġco at
ĠW E
Ġbase ball
se q
Ġn ons
ĠP ur
Ġab dom
Ġnucle us
Ġemerg ing
ãĤ Ĵ
vert ed
Ġrefer ring
Ġres erv
Ġequ ipped
h op
=" @
us ers
er as
Ġanal yst
ĠGa ussian
ĠAs sembly
Ġinqu iry
Ġcl imb
ĠS W
Ð ´
_ >
å º
Ġpro long
14 5
on i
util s
p ur
Â ³
T oday
Ġmembers hip
Ġcav ity
Ġsh r
ĠUn less
T EST
Ġp ocket
Ġ** *
Ġdefic iency
itud inal
E ffect
ĠL ind
ph ase
Ġsens ors
ĠPar liament
æ Ĺ
Ġterrit ory
æĺ ¯
> ();
}} }_
sem ble
Ġtox icity
Î º
Ġto w
ĠHar ris
Ġplatform s
ĠY eah
Ġo vere
gr id
Ġinv ited
un a
Ġtre m
Ġbirth s
Ġvess els
Ġprom ised
J son
ĠâĢ ĭ
Ġt ired
ĠCo ast
b es
Ġs aving
Ġext ending
Ġtrans mit
Ġmus cles
Ġdef ining
Ġden y
ĠMin nesota
t ocol
Ġhe aling
Ġs oph
Ġod ds
ĠA z
Ġpip eline
Ġparticip ated
Ġmodel ing
Ġagree ments
12 9
w t
ou ri
Ġpolym orph
se lected
D ist
Ġth y
Ġp ill
ĠHol ly
Ġoblig ation
Ġd ance
ĠHamilton ian
o a
ĠF isher
d am
Ġstom ach
$ ^{
ĠD aily
ĠIndian a
Ġ| \
do i
Ġin jected
[ **
ac cept
Ġaccur ately
ĠW in
av irus
Ġestim ation
Ġbehavior al
cript or
Ġenc ounter
acc ount
w alk
Ġpen et
Ch apter
cur sor
e ach
h ma
Ġsus pected
oc yt
Ġpres erve
Ġinf lation
Ġno body
ãģ «
Ġestablish ment
Ġemot ion
ĠAfghan istan
Ġmeaning ful
bur gh
Ġregard ed
Ġcert ificate
H ar
Ġcort ex
Ġb ird
ĠTh om
Ġwed ding
Ġimp ressive
ĠP op
reg ion
Ġtal ent
Ġle ase
Ġph rase
D F
l arge
Ġde emed
Ġpl ugin
col on
p read
Ġcon dem
Ġle ct
anc ies
A ng
Ġar rive
Ġsusp ended
ict ure
ig m
Ġad min
py thon
ĠT NF
å ¼
ĠF ather
ĠKore an
Ġres istant
ĠTor onto
ĠL ittle
ĠPH P
Ġstay ed
Ġoxid ative
Ġc ub
Ġres ident
ac her
Ġrel iability
Ġ' '
ĠQue en
å Ľ
Ġpromot ing
Ġm L
ari os
Ġar ising
cent ury
Ġrem em
24 0
Ġexp ense
P y
Ġwe igh
2 80
Ġindic ation
Ġcompar isons
Ġelectr ons
um my
c anc
Ġmicrosc opy
v ir
ĠL ibrary
Ġse iz
Ġelder ly
Ġend othelial
s ample
Ġadjust ment
) </
Ġ -------
m ass
l ay
en za
ĠE mp
Ġart ificial
e re
Ġen ergies
Ġperson ality
ĠH ouston
view s
R ound
Ġv ag
Ġdemonstr ates
el ve
Ġbr anches
Ġre ven
id x
Ġaff idav
big g
ific ant
art icles
Ġlif estyle
uset ts
Ġsp ots
ĠSystem s
ĠReg ister
CH AR
rec ated
ach usetts
Ġexist ed
G M
20 20
17 5
Ġinput s
Ġdist ances
ĠS av
iot ics
Ġthreat s
Ġ10 7
Ġdefinition s
op sy
Ġsupp ression
ĠSp irit
art icle
Ġdefe at
Ġeng agement
Ġj unction
Ġpost erior
Ġpers u
V F
Ġinhib ited
Ġconstit u
ut ers
ĠDef ense
Ġvari ability
R ule
Ġpot ato
Ġn ose
Ġpoint ing
Ġvis iting
Ġ19 81
Ġdocument ed
A uth
el come
Ġgen omic
in ance
Ġ&= &
it arian
ĠB ab
ĠH im
Ġaw ait
) _{
ĠB at
cl osed
ĠIF N
Ġrep ly
Ġc ow
b its
Ġt ends
pe ople
Ġr anges
Ġen um
Ġtra uma
ed u
al o
Ġin ev
Ġwarrant y
uck y
ol ver
l b
Ġl ibraries
Ġem pir
ard ed
ĠCamb ridge
ĠS audi
Ġhand ler
I RE
Ġminor ity
as ia
st ers
ph ys
ĠMo ore
Ġclos ure
Ġpun ishment
D H
D iscussion
13 2
Ġye ast
GF R
Ġcomplaint s
13 6
16 5
Ġcap abilities
Ġhead ed
d k
ĠB ul
al g
Ġch ocolate
}, $$
ĠLew is
Ġ19 60
ĠE ric
? )
å °
Ġupt ake
op her
) }(
R oot
Ġis o
ge x
ens ively
Ġfin ance
osc opic
Ġth irty
Ġm erg
om ain
Ġalong side
ĠChrist ians
CON FIG
v c
L INE
ian o
Ġemerg ed
Ġop ens
L icense
Ġsuggest ions
Ġden ying
m akers
Ġw ing
Ġsatisf action
ar ched
Ġsp ray
Ġ25 5
ĠM athe
ĠL atin
19 92
IN K
p rom
Ġb es
Ġup set
he alth
11 8
Â £
ĠInterest ingly
A nt
Ġn itrogen
Ġd ental
Ġin cl
w atch
Ġparticip ant
pp ers
' ],
ol is
Ġbasket ball
75 3
re lease
Ab stract
en na
ĠI l
ĊĠĠĠĠĠĠĠĠĠĠĠĠĠĠĠĠĠĠĠĠĠĠĠĠĠĠĠĠĠĠĠĠ ĠĠĠĠĠĠĠ
Ġcan cell
Ġfac ulty
Ġprepar ing
ĠSh ould
ĠH z
Act ive
ĠN ode
ot ropic
Ġindu ces
od d
ides pread
Ġx e
Gen eral
` .
Ġtr im
ĠCh air
Ġd ense
u er
us ive
Ġm ig
ĠN ations
g un
Ġtransform ed
all as
Ġwin ner
M AT
Ġhead ing
Ġimplic it
Ġdes per
Ġvirt ually
ĠF if
[ $
14 7
Ġan ger
Ġind ict
Ġhost s
Ġb ases
itz er
st age
Ident ifier
w d
L o
| -
ON G
ah oma
Ġv ibr
he p
Ġant agon
Ġt we
19 91
ĠC ro
Ġsc roll
a ire
Ġclaim ing
m M
PO ST
Ġt act
Ġw elfare
de gree
â Ļª
94 6
a id
z ing
B ased
il st
Ġass et
Int roduction
Ġrece ives
Ġblock ing
Ġrespond ents
nut rients
Ġcoron ary
stitution al
Ġwat ers
r ank
Ġto mat
Ġprob able
in ely
Ġtick et
ĠG all
Pro perties
Ġlock ed
bt n
Ġ ).
Ġconf usion
F ull
Ġf ake
reason able
ĠG C
ĠSe a
ĠP K
ĠF IT
Ġn p
ĠĠĠĠĠĠĠĠĠĠĠĠĠĠĠĠĠĠĠĠĠĠĠĠĠĠĠĠĠĠĠĠ ĠĠĠĠĠ
he x
Ġgovern or
ÃĲÂµ ÃĲ
a is
Ġcommunic ate
Ġaff irmed
Ġch ances
Ġprotocol s
Ġ1 33
ĠF arm
ĠS S
Ġoptim ization
Ġag enda
Ġconst ants
id ine
ĠD ise
Ġres et
ĠCommission er
ĠIg G
T ake
Ġdecom position
Ġat he
reg on
000 5
M o
ĊĠĠĠĠĠĠĠĠĠĠĠĠĠĠĠĠ ĠĠĠĠĠĠĠĠĠ
ĠH as
ĠÎ Ķ
ĠSil ver
ĠA h
Ġsub group
Ġcult ured
Ġsp ark
pl ain
Ġe q
Ġpar ams
Ġshort ly
Ġl ap
Ġapprec iated
ia h
Ġple asure
Ġfro zen
ant e
Ġl um
Ġspect rosc
s ort
Ġsh aft
Ġdeterm ines
Ġtim ely
or ient
Ġcirc ular
14 4
W orld
m itting
Ġf ru
ĠÂ »
Ġor ange
im ental
Ġjust ify
Ġdist inction
Ġdon or
Ġar th
Ġsol ved
Ġg rain
form ing
Ġappoint ment
Ġtrac ks
i ating
Ġsil icon
ĠC NN
Ġin sect
)\ ,
Dis play
A X
E F
m argin
Ġble eding
ĠTH AT
Ġcook ies
ced ure
Ġefficient ly
Ġin cent
ab eth
Ġmut ants
Ġ1 34
ĠMark et
Ġsec ured
row th
pat ient
Ġth rown
Ġex clusion
Ġlocal ization
g athered
20 4
Ġcritic ism
Ġpro xim
ĠM ill
ĠĠĠĠĠĠĠĠĠĠĠĠĠĠĠĠĠĠĠĠĠĠĠĠĠĠĠĠĠĠĠĠ ĠĠĠĠ
h abil
s ym
ĠC at
8 25
Ġt ags
13 4
B oth
Ġre putation
Ġnav igation
ou rier
Ġthreat ened
GF P
ade qu
ĠL at
Ġmem ories
Ġcust ody
ĠO UT
f b
Ser ial
Ġstimul us
ad en
ĠM as
ĠS ports
w ait
Ġsil ent
ia z
Ġd ent
ĠR os
Ġ{ "
Ġstri king
Ä ±
rit ical
Ġoption al
n at
ap ing
Ġreplic ation
B F
M AP
Ġflu or
Ġany body
Ġcan cers
ol ves
ĠIns urance
ĠS ort
Ġc ot
Ġcounter part
Ġcirc uits
ĠIm mun
Ġinstr uments
Ġprejud ice
at re
ĠSte phen
Def inition
Ch rist
Ġf lying
Ġhistor ic
Ġw ins
Ġ19 82
Ġb ip
t ools
Ġli able
ĠHol y
Ġchalleng ed
Th us
hip s
Ġtra its
Ġnon linear
Ġmat ure
Ġc ul
Ġtri es
mod els
Ġcons erved
ĠId ent
tem p
Ġin ject
Ġevery day
ĠP ract
ĠWis consin
Ġt weet
Ġr h
ph ia
Ġfact ual
ĠE M
Ġresc ue
Ġdec imal
P ars
set tings
Ġact ed
Ġf i
Ġmel an
$ ).
f all
Ġinc hes
F ONT
ĠEx ception
Ġcal m
******************************** ********************************
Ġgr ay
Ġbelong s
Ġdri ed
19 86
Ġveget ables
Ġst ained
Par ameters
s creen
Ġ8 00
w p
ĠD ocument
ãĤ ĭ
Ġres idential
T M
Ã Ħ
Ġlit igation
Ġsatell ite
Ġmin ing
Ġque ue
in stein
Ġcon vention
J an
ĠF R
ĠPr inc
Con n
ĠBl ock
Ġu b
. \[[@
op ed
17 0
ãģ §
čĊ čĊĠĠĠ
ĠReturn s
Ġfil ters
Ġgraph s
ĠÎ¼ g
, _
ĠS ometimes
Ġex clusively
Ġse ats
15 5
) ^{\
og ens
Ġgrad ually
Ġflow s
ĠP etition
Ġte ch
e le
ĠK now
Ġâ Ĥ¬
Ġbed room
Ġprevent ed
Ġper pet
art s
h bar
ang el
att ribute
Ġsent enced
rec ord
Ġimpair ment
f our
ĠH ay
Ġw age
c ourt
t ail
eng ine
z i
Ù Ĩ
Ġflow ers
sk y
pro fit
ential s
ĠK elly
Back ground
Ġ< ?
it ations
En abled
Ġw idespread
ĠO pt
Ġgeneral ized
Ġestabl ishing
Ġrespond ent
Ġsimilar ity
Ġconver gence
ch a
Ġconf used
ul um
oc l
Ġact ors
Ġp i
Ġmother s
ĠV ill
ĠAl tern
Ġart ist
Ġres in
kl ahoma
b est
ĠT ok
Ġst ating
ple ments
um ing
b ury
Ġnot ation
o is
Ġ ^{
ĠSov iet
Ġroad s
ĠX ML
ĠE S
ĠL ar
Ġindepend ence
at om
Ġcomp ression
**** ,
Ġdesc ending
Ġp as
gen eration
Ġmind s
Ġrepl ied
Ġinter section
Ġjo ining
ĠB u
ĠW he
z ip
stand ard
Ġmo ist
Ġbare ly
adel phia
ar ity
Call back
' (
im s
ID S
t i
Ġsee ks
ĠK ansas
Ġm ol
Ġat omic
Ġscen es
ĠS em
Ġsymbol s
Ġrest ore
l it
p any
Ġpolar ization
B IT
B ytes
Ġmot ions
Ġmethyl ation
Ġgu ests
Ġs quad
ffic iency
Ġl ady
pos ing
Ġview ing
Ġsal ary
Ġ' \
h w
r ans
Ġb old
Ġimpl ant
Ġquestionna ire
Ġpre ference
12 2
As ync
if def
Ã ±
Ġt rivial
Ġaccompl ish
Ġprocess or
ĠL O
ed it
Ġenhance ment
he ll
Ġ1 36
Ġcap ability
Ġf iscal
ab ama
Ġpres cribed
comp at
Ġincred ible
ĠĠĠĠĠĠĠĠĠĠĠĠĠĠĠĠĠĠĠĠĠĠĠĠĠĠĠĠĠĠĠĠ ĠĠĠĠĠĠĠĠĠ
Ġair port
D ay
un ning
Ġam end
ĠL ink
Ġd ivid
ĠA F
"} ;
ĠC G
Ġd ating
ĠRad io
Ġman aging
let ter
ä¸ ª
Ġatt orneys
Ġunf air
ivid ually
ine ment
Ġaccept ance
20 5
V ol
ĠMass achusetts
Ġs hed
Ġbrief ly
oprote in
fil ename
à¥ į
Ġp ub
er ator
V P
ĠUp date
Ġan terior
ĠN ature
Ġhe p
ĠB ang
nt il
Ġa ux
Ġatt achment
Ġlegit imate
Ġst yles
Ġcoc aine
Ġacknowled ged
Ġviol ations
ĠPh ot
ĠS cale
im m
e val
Ġem issions
@ "
im pl
ta h
Ġan omal
$ _{
Ġpept ides
Ġdram atic
ethe less
T X
ĠL ess
Ġpart ly
and al
l ab
Ġc athe
Ġsure ly
Ġcont ention
) }}
b ian
Ġb arg
Ġmot if
Ġcharacter ization
Ġoff ices
Ġdiet ary
." ,
IS H
Ġo h
inte rest
Ġprotect ing
Ġste re
ĠCl inical
) ^{-
Ġunder go
Ġparticip ating
Ġrandom ized
13 3
Supp ort
W ill
Ġsav ings
ĠL C
{ }
Ġhe x
Ġinvestig ating
Ġred ist
D ATA
to String
Ġm aternal
Ġprov ince
ĠK evin
Ġfel ony
em at
Ad apter
Ġkn ife
ĠD isc
Ġsign ing
Ġland scape
lin ux
B ER
ĠG OP
ĠL E
Ġun necessary
M iss
ĠĠĠĠĠĠĠĠĠĠĠĠĠĠĠĠĠĠĠĠĠĠĠĠĠĠĠĠĠĠĠĠ ĠĠĠĠĠĠ
are r
av ailable
ov ing
Ġrac ial
D iv
)* -
il bert
Ġse al
Ġperiod ic
Ġsy mp
S F
Ġadv ised
0 25
L oc
Ġmed iated
Ġim prison
Ġlet ting
Ġmer ch
âĢĻ ,
B ook
ogg le
Ġrepresent atives
O VA
OR Y
g b
Ġanti oxid
Ġqu asi
Ch anged
ĠD B
i y
I con
F our
Ġp ad
az y
V I
pro gram
Ġproport ional
Ġf ur
ĠSt ation
Ġconserv ation
ĠO s
Ġret ros
Y P
Ġlov es
p gen
og s
ĠA BC
Ġsh adow
Ġmod ifications
sl ant
12 1
ER V
Ġtun nel
ĠA st
ĠScot land
V ar
id o
gen erate
om ers
ĠD rug
Su per
Ġf ool
Ġmembr anes
Ġdis charg
Ġremark able
Ġen orm
ors es
Ġpl ots
Ġlov ely
ĠK ong
Fl ags
P ublic
!! !
li um
Ġco ating
Ġsent ences
Ġwarn ed
Ġpur ified
Ġent hus
Ġr s
ĠN atural
Ġ ------------------------------------------------
ĠIr ish
ĠS us
ĠHaw ai
Ġemot ions
Ġconfig ured
Ass ert
Ġthere in
sche ma
ĠC HECK
ĠT en
Ġch amp
Ġelectro des
e a
Ġimp aired
Ġbiom ark
D IS
Ġco operation
Ġout break
C ap
T ube
S n
ĠV AL
ĠAss ert
trans form
qu ence
ĠPl us
hy d
Ġcur v
Ġluck y
Ġnurs ing
Ġad ip
Ġact ively
ĠCon dition
Ġconstruct or
Ġd ies
Ġdro ve
ap ore
13 8
ĠSh ort
Ġout standing
Ġang i
ĠUk raine
Ġs ake
Ġcontrovers ial
sh aped
OM E
Ġde but
15 6
Ġenthus i
4 50
Ġex ert
N ESS
Ġb ron
ĠT E
ĠIn clude
Ġar row
p air
Gl obal
ant h
O ct
ĠM it
Ġaccompl ished
Ġoverl ap
ĠUn it
Ġr ings
ogene ity
Ġsh ipping
Ġrel ate
Ġh ip
Ġrad ial
13 7
Ġpix els
+ )
ay a
ĠB rian
St and
Hel per
ig ger
Com mon
Ġencoura ged
play er
in ent
ĠG raph
Ġdiscl oses
ĠW atch
Ġdep riv
Ġsurv iv
ed ly
Ġsh ield
Ġint estinal
Ġinit iated
000 4
Ġinf ants
Ġw ider
Ġgrav it
Ġrel ies
h d
Ġrob ot
Ex ample
Ġdis aster
Ġmac ro
Ð¾Ð ²
ĠAn th
Ġsl ide
Ed itor
Ġprivile ge
enn y
ĠO nt
2 10
W riter
Ġfranch ise
Ġm oon
ail ure
Ġanc est
t urn
X F
C r
m c
Ġsecret ary
Ġcir cles
Ġposit ively
Ġgener ations
à¤ ¾
map sto
S K
less ly
at ar
Ġto b
Ġs el
ĠAr g
Ġintr insic
ĠK a
================ ========
Ġfunction ing
es see
Ġmy th
Ġco pper
U V
Ġexpl ored
Ġst ops
UL AR
p ing
Ġpar liament
l an
Ġdom inated
display style
AS K
Ġm os
b at
e rer
Ġg raft
ĠÐ ¸
Ġsil ence
am ide
lic t
Ġimportant ly
S pace
N s
Ġcross ing
ĠC reat
id ate
w iki
à ¹
qu ired
Ph oto
Ġperm its
Ġs que
Ġ1 37
Ġd ot
ĠR ail
print ln
ĠG M
pm atrix
Ġbath room
Ġl ands
im on
ĠW as
Ġl ux
oc om
ord inary
el son
Ġattack ed
ĠMary land
Ġbrother s
Ġreason ing
Ġf irms
ĠB MI
ĊĠĠĠĠĠĠĠĠĠĠĠĠĠĠĠĠ ĠĠ
Ġaccom pany
ĠL ED
Ġch at
Ġcor ruption
od ge
Ġra pe
Ġcontinu ously
L ICENSE
Ġarriv al
a fe
W ARE
Ġinf ant
Ġfant astic
Ġper me
Ġen rich
Pr int
Ġg ains
Ġup coming
oph il
Ġcompet e
ĠE C
ĠAT P
Ġconflic ts
H istory
Ġpro xy
ĠR ose
Ġqu oted
r ons
ĠM ut
ogl ob
Ġdown stream
ĠS earch
ĠD un
Ġannounce ment
overn ment
* =
Ġmy ocard
Ġprof its
ĠB BC
Ġconvin ced
Ġimp ose
Ġ" ,
ore r
FA ULT
ab stract
OR K
it ored
Ġcomput ational
ĠN othing
Ġexpert ise
W ORD
met adata
ili pp
ĠNav y
19 89
Ġm im
Ġpurs ue
ĠA venue
ĠM useum
ĠAll en
Ġam big
Ġ1 38
r ass
Ġb rack
Ġret ained
000 3
Ġdatas ets
Ġir rad
os in
Ðµ ÑĤ
Ġwebs ites
Ġfluct uations
Ġh ipp
ĠS L
d riv
Ġfeat ured
b us
Ġb ags
ĠH aving
Cl ose
Ġgrate ful
ĠH TTP
ast ing
Ġscan ning
ĠSand ers
ĠO regon
Ġ19 79
Ġgrad uate
x f
Ġg erm
Ġrel ied
Ġcan onical
19 88
h alf
Ġal umin
Ġed iting
[ (
Ġguarant eed
19 85
Ġemph asis
Ġwh is
CR E
Ġadv is
u is
Ġdriv es
ĠH art
Ġcryst all
Ġch ampionship
Ġcontem porary
Ġcomp ly
G iven
Ġro d
Ġg athered
qu ality
f ive
Ġt ie
Ġmut ual
Ġconsist ency
Ġrecur rence
ĠP erson
OR S
Ġindic ator
rel ation
Ġcytok ines
res ults
Ġstimul i
it ated
ĠH ong
ator ies
S k
Ġchrom osome
Ġcor n
Ġs per
ib l
IN FO
Ġinstitution al
f illed
ĠC lick
own ed
ĠG ree
requ ire
pref ix
re a
Ġaff inity
Ġpubl ish
Ġe leg
Ġne c
Ġwrit ers
Ġsynt ax
\! \!
um or
Ġdim ensional
Ġstrateg ic
Ġf iring
Ġmacroph ages
Ġre aches
p b
Ġo ught
Ġu m
Method s
( {{\
W est
Ġmanif old
Ġinhib it
ar ms
}} =
Ġaccount ing
ur red
Ġexpect ation
Ġconsist ed
Ġburn ing
Ġde put
Ġcl othing
at omic
be an
Ġtrans ient
or ic
Ġlack ing
Ġsol vent
Ġ0 9
E rr
iz abeth
Ġbi os
19 0
sem bl
Ðµ ÑĢ
Ġra b
Ġchrom at
w ave
ĠHar ry
th ur
E q
m ol
ĠP UR
ex pected
iqu it
Ġ$ ('
f ers
ĠAre a
Ġneu rolog
Ġgener ates
Ġstud io
Ġsan ctions
th ree
Ġstrugg ling
O pt
av or
Ġpen al
Ġstay ing
Ġb ene
Ġscre ens
s un
v ised
ĠRel ated
w ould
o en
Ġret ired
mon ic
T im
PO SE
Ġmedic ations
Ġw is
Ġsubst ances
En ter
r us
Ġbu ff
Ġh oney
AC C
Ġtob acco
ĠAr k
æ ī
ĠT ai
ĠMuslim s
Ġcar ries
ĠLe vel
Im port
Ġcorrect ed
ĠHill ary
ĠDef ault
ab ases
ĠB ox
f p
Ġwas h
ĠĠĠĠĠĠĠĠĠĠĠĠĠĠĠĠĠĠĠĠĠĠĠĠĠĠĠĠĠĠĠĠ ĠĠĠĠĠĠĠĠ
appropri ate
: </
Ġ12 7
34 5
h ole
Ġcollabor ation
eq n
w at
ok er
AT ED
ĠSe lect
v t
19 84
ĠK IND
Ġser vers
N a
St ar
ĠL ag
M icrosoft
ĠLe ft
s quare
ount ered
Ġrepl acing
ck er
Ġes cap
========== =
Ġterror ist
Ġa u
Ġminim ize
ĠBro ad
Ġsl ot
cle an
rif ug
ist a
ãģ ¦
ĠMat the
Ġfra gments
ĠPro p
Ġcoll ision
ĠF O
ĠF lu
ĠScient ific
Â» Â
Ġentr ance
Ġder ive
B en
L i
Ġdr ama
Ġpredict ive
Ġel astic
ĠB an
Ġrep orters
Ġro y
Ġs li
Ġt ong
cont aining
script style
ĠHolly wood
C ur
Ġeth nic
v ideo
Ġ19 77
ĠM B
Ġsp inal
p d
am y
ĠÐ º
Ġent ropy
Ġlong itudinal
Ġlo ose
Ġa rom
Ġex ch
Net work
T G
Ġrout es
Ġan th
Ġsl ope
Ġexcept ions
Ġc ake
VER SION
Ġag grav
ĠLeg isl
=" /
Ġp ic
Ġal arm
ĠAnt on
15 7
Ġcontribut ing
Ġscen arios
ot ing
ĠU buntu
Ġentertain ment
yn chron
Ġiniti ative
ĠT ry
Ġimp ression
ĠN ic
Ġto oth
Ġd reams
ĠB io
pre ne
Ġg ri
at on
Ġgast ric
Ġ1 70
I ED
c ost
ris k
ut f
pe at
Ġsh ifts
opath y
M AN
ĠT ask
2 11
L ife
Ġp iv
ĠMi ami
al ian
Ġschem es
vis or
Ġstraight forward
Ġinhib itory
Ġtend ency
P K
ĠS Y
Ġexp end
ĠAl abama
m icro
Ġposs ibilities
is an
he res
ro it
el and
Ġbro ader
99 9
Ġplace ment
) }{\
Ġh ired
Ġlic ensed
Sh are
T w
Ġpoor ly
st im
Ġd os
Ġ$$ {\
ï¼ ļ
F iles
ĠEd ward
ĠMathe mat
Ġgu ilt
for ced
ĠSim ilar
ig ue
Ġpresent ing
Ġbeg un
}} ^{\
Ġalle le
Ġf itted
Ġneighb ors
ru ed
Ġdetect ing
Ġt ar
st ud
v ia
ort ic
Ġnan op
ĠJe an
ĠC ells
ĊĊ ĊĊĊ
3 50
Ġmer it
Ġlaw yers
Ġenc ountered
Ġspokes man
Ġs ys
Ġst iff
Ġ ï
Ġ19 78
Ġplace bo
Ġsh ips
Ġl oy
Ġpers istent
Ġnot ing
ract ed
ĠPhil adelphia
ĠN az
Ġorder ing
Ġincub ation
Ġf ibr
ĠF ive
Ġwant ing
Ġequ ity
Ġanalys ed
look ing
ĠB udd
Ġles ion
Ġreconst ruction
ĠM ER
? >
Ġdebt or
Ġind ividually
Ġman agers
W A
ik a
Ġneur onal
Ġal igned
Ġsp here
ĠJava Script
Ġf ishing
ĠOver all
Ċĉĉĉĉ ĉĉĉ
Ġoccup ied
c ert
G ame
br as
Ġme als
OW N
14 6
ĠT B
Ġhaz ard
AR S
con g
Ġeth anol
Acc ount
ik ip
it ance
Ġst olen
Ã¡ Âº
Ġra ises
Ġinf il
Ġassoci ate
13 9
App ellant
ĠP itt
Ġ12 3
ĠStud ent
Pl atform
Ġchemical s
Ġund efined
Ġbel t
Ġdel icious
}} }(
Ġg olf
0 30
D a
product ive
ĠDie go
ed a
ed ed
Ġd ont
ĠSm all
ĠC SS
ĠExec utive
Ġsc ar
Ġaff airs
Ġap olog
cl oud
Ġdel ight
Ġspecim ens
IC K
Ġins pection
Ġ( <
20 2
ĠU t
Ġneigh bour
Ġtri ple
ĠN orm
P F
at tered
op ens
igh ters
Ġlog in
Ġsurround ed
Ġposition ed
hav ior
q q
ĠA k
p resent
Ġhe mat
ĠM ars
ĠSe attle
Ġlocal ized
D onald
č ĊĠĠĠĠĠĠĠĠĠĠĠĠĠĠĠĠĠĠĠ
ĠÂ «
Ġcitiz en
Ġform ulation
U ID
Ġaddress ing
R est
Ġpromot ion
Ġc erv
Ġm ile
ĠA li
ĠC hen
19 8
Ġhand led
Ġal ien
call back
M edia
b ytes
Ġar ises
Exp ress
ĠV en
V ideo
st yles
ĠM om
ex per
le ading
spe ed
ĠO klahoma
Ob j
Ġ------------ -
Ġnegot iations
ĠFr ame
Ġbirth day
ĠO il
G od
app ly
Ġquad r
min ute
Ġbe ings
ĠFoot ball
ĠA RE
pro perties
ĠCh ange
f g
Ġgra ce
spring framework
15 4
Run time
own er
Re al
ĠDe bt
ment ed
Ġbr illi
j ango
ĠB ureau
Ġqu it
D T
in ic
Ġgr ants
ĠC it
Ġur ine
Eng ine
ord on
D ER
ĠF C
ric hed
Ġex clude
" ],
ĠG reg
Ġlet s
ĠL LC
ĠN R
), $$
Ġcorpor ations
19 87
ĠC ub
Ġterm ination
p adding
ĠFore ign
Ġver ified
ÃĲ Âº
ĠN ation
i ar
Ġcl im
ĠMan ager
Ġorg ans
ĠF I
Ġpro c
pl o
lev ance
2 30
Ġan est
f x
Ġdisp ersion
Ġheart s
ĠLab our
Ġconsider ations
P op
et ermined
it ol
Ġroll ing
ĠM oh
Ġhighlight ed
ĠB ol
Ġclub s
M ich
X ML
âĢ ©
Ġcar riers
De lete
Ġchair man
ĠSy rian
w ich
ili ary
Ġf atal
iv ities
ĠIn vention
Ġshe ets
ĠB AS
de velop
sh are
f ar
ĠPh oto
ĠE ag
Ġpro state
ãģ ¾
ĠF ac
Ġindict ment
Ġleg end
E Q
St op
dep th
ĠOb serv
Ġoccasion ally
ĠIn v
av ax
Ġins ights
Ġsim ulated
Ġim plements
sh ared
Ġeng aging
Ġexpand ing
com put
Ġsuggest ion
Ġbar riers
Ġsh apes
Ġphot on
bb ed
Direct ory
m ers
Ġl obby
Ġflex ibility
ĠCl aim
vel ope
Ġk g
pp at
Ġpres cription
Ġut ter
ise ment
od a
Ġappro ached
ĠS oc
em ale
ĠL oad
Ġdistrict s
ĠÎ¼ M
Ġbreath ing
== =
ĠS elf
s r
Ġrem arks
L ayer
n p
ud es
---------------- ----
ĠR oss
Ġreal istic
Ġmon itored
Ġtour nament
Ġtit les
* \
}{ {\
yl ation
Ġweak ness
ĠM ir
net work
Ġincons istent
b age
Ġang les
ãģ Ł
Ġvol umes
er ge
Ġdis hes
ĠJac ob
k now
ĠK at
ĠFore st
F actor
Ġincred ibly
Ġp ist
Ġvolunte ers
ikip edia
iter ator
Ġdevelopment al
> ;
Â ¤
Ġ-------- ---
Ġdelet ed
app er
Ġl on
Ġimpact s
ĠH ope
ĠN ob
ĠB ry
Ġin ference
const ruct
] }
Ġfem in
Ġdist ant
J SON
hy thm
Ġsleep ing
B el
Ġ19 75
Ġpost operative
Ġmathemat ical
Ġyour s
Ġ' /
gorith m
ĠC V
ĠPr ince
Ġarr ays
Ġmod ulation
roph ic
Ġast hma
Ġfore cast
Ġsol ving
am er
Ġconvers ations
Ġbar rel
b oth
oc amp
Ġte asp
ĠÃ ħ
ĠOx ford
D ITION
K ind
Ġdis pos
Ġdis posed
Ġenc oded
ĠP ack
tr l
Ġ0 5
Ġmand atory
P UT
ĠOn line
Ġabandon ed
W T
Ġdecl aration
Ġd ying
åľ ¨
ĠVis ual
Ġneed le
semb led
Ġgly c
A H
ĠCont ent
ĠIm port
Ġsl ice
25 4
Ġimp ly
mark et
XX XX
l ibrary
Ġsm ell
with out
b rief
y mer
AC H
Ġextract s
Ġpure ly
&= &
.. ...
Ġsupp ressed
Ġpo ison
Ġbal anced
nd ef
Ġfil ename
Ġtransl ate
Ġcyt oplasm
ä ¹
b n
j ob
sw itch
W ait
Ġsp oken
ĠPr ice
b urn
}$ -
.. .,
ĠF uture
pl er
v ard
Ġh itting
ik ing
I H
ater n
Ġsub stitute
cy cle
ĠI O
ĠS ym
am ous
Ġproceed s
Ġsecret ion
ĠR O
th an
FFFF FFFF
* \<
erv ing
Ġmot ivation
Ġfoc uses
Ġup grade
arc hes
Ġlig and
P ATH
Ġaccording ly
âĢ¦ .
ĠThe ory
Ġcontrovers y
Ġsix th
Ġinnov ation
Ġapp end
Ġple ased
oc on
Ġpromot ed
)/( (-
ĠMiss ouri
ro bl
return s
ĠO ption
Ġrem edy
Ġpull ing
Ġatt ach
pr ice
ro c
Ġtransition s
Ġconsider ably
Ġarg uing
Ġsp ac
ogen etic
ĠTrans port
Ġmer ge
Ð ¿
Ġoper ational
Ġdo zen
Ġanalyt ical
pro of
ãģ ¯
Ġexpl aining
Ġexhib its
ĠHot el
Ġovere xp
Ġins pect
DE BUG
Ġtranscript s
Ġint act
}} )$
Ġmorph ology
icip ants
E mail
Ġeth ical
âĢĿ )
Ġgar lic
ĠB oy
Ġt mp
ir ds
Ġmob ility
Ġde leg
sc ious
Eval uate
( !
j ack
plic ation
B Y
de cl
Ġinter fer
j oint
Ġ č
Ġc ure
Ġ ,\
d one
ĠCons erv
fe ed
} :
Ġt ies
Ġin adequ
=" ../
i ac
Ġ3 50
ID E
is o
es ian
ĠN BA
in line
Ġconduct ing
ĠWith in
Ġevalu ating
Ġfound er
ĠĠĠĠĠĠĠĠĠĠĠĠĠĠĠĠĠĠĠĠĠĠĠĠĠĠĠĠĠĠĠĠ ĠĠĠĠĠĠĠĠĠĠ
20 6
at um
Ġreview ing
ĠH ind
ĠR OS
ut s
16 6
and y
Ċĉ Ġ
Us ers
Ġnarr ative
Ġf ate
Ġpre fix
Ġres erve
Ġph ones
et o
DE V
L OG
ĠM essage
ĠP ow
Ġenem ies
, âĢĻ
Tr ump
ĠB ud
Ġreported ly
( :
æ ł
old ing
Ġinnoc ent
Ġ19 76
Ġcann abis
p ic
Ġ âĢĻ
Ġa str
L ock
R et
ĠS I
Ġdisp ers
Ġconven ience
Ġleg ally
Ġpost ing
Ch annel
cons ider
Ġpr ayer
Ġpl acing
bin ant
Ġ0 2
Ġsw ing
Ġimplement ing
ĠIn f
Ã º
ĠR ab
Ġofficial ly
l ied
14 3
Th ose
$ ;
ĠC t
S i
ĠS ky
\| _{
å ĩ
oc ur
ag a
qu arters
Ġph yl
Ġv ig
Ġrem ed
Ġhom ogeneous
Ġn urse
Ġcurv ature
ĠC re
eles c
Ġhorm one
Ġsustain able
qu ant
Ġball s
prote cted
ĠRap ids
ĠP u
Ġvar ies
m ad
Ġout door
De cl
A ST
Ġth rew
Ġassert ed
P ool
Ġcount ing
ĠF actor
trans fer
18 7
P al
Ġ ------
Ġheav en
Ġrecruit ment
Ġpro pri
AR N
ĠT an
wr itten
xt ures
ĠF inal
ĠGovern or
L im
f ox
m ind
d river
CL UD
Ġo cean
.[ ]{
ĠB UT
Ġob sc
A ge
Ġconstit utes
lim ited
ÃĹÂ Ļ
ĠMot ion
Ġoverwhel ming
r ust
est e
ĠR F
Ġg rap
de hy
Ġfe ver
St orage
ĠP U
Ġtravel ing
par a
ĠPART IC
k ish
ĠD allas
Ġol ive
Ġmethod ology
p aren
ri ends
Å į
ĠM Y
Ġacqu ire
Ġmy el
r ating
inte ger
Ġt ender
ĠLe on
ĊĠĠĠĠĠĠĠĠĠĠĠĠĠĠĠĠ ĠĠĠĠĠĠ
pl atform
ĠGold en
Ġden oted
17 7
> ::
Ġl as
Ġmicro bi
Ġshift ed
Ġless ons
ĠPalestin ian
9 00
ĠT arget
Ġ[ $
n atural
Ð° Ð½
in os
Ed ge
Ġnucle i
ĠS F
Ġmot iv
Ġappell ate
Ġt ears
Ġ" %
r ific
Ġn ick
Ġext racellular
Ġprob ation
Ġvalid ate
Ġmetast asis
Ġen v
ĠFin ancial
Ġn as
ĠCOU RT
Ġerr one
14 8
Ġbi ology
Ġ12 1
oc he
Ġpoll ution
bul let
Ġc ups
art ifact
ĠAlex ander
Ġappe aring
Ġless er
ic ion
Ġun iqu
Ġsuscept ibility
Ġover r
18 5
Ġra ces
Ġw ages
Ġsubstr ates
ĠRe quest
Ġcent rifug
New s
M art
Ġh anging
Ġimm igrants
par ameter
_ ;
Ġ" -
ĠG ro
per iod
ĠU pon
ĠW ould
In valid
ĠB all
pl ug
Ġem bar
Cons ider
Ġconfig urations
Ġspe aker
Ġr ally
Ġobject ives
Ġg amma
Ġv iable
ix el
M OD
In tern
Ġorgan isms
iz za
Pol icy
T ON
Ġste pped
~ \
it ate
ĠD im
Ġmer its
ĠR ules
cur s
Ġcl ip
Ġdiscuss ing
Ġl act
Ġab ilities
ose x
Ġdram atically
^{ +
By te
ĠB or
Ġassert s
Ġbelong ing
ĠM other
ĠM C
ĠSing apore
iss ue
AR K
Ġfall en
ph ant
ord ered
h idden
Ġinvestig ators
ĠI de
Ġdevelop ments
Ġdro ps
Ġchar ging
on der
Ġw rap
or iginal
Ġhighlight s
g ate
)\ \
Ġelect roph
ĠTenn essee
class es
Ġrob bery
ä¸ Ń
equ als
T erm
g el
J ECT
ÃĲÂµ Ãĳ
ĠW ars
Ġas pir
ĠL es
ĠU SE
16 7
ĠCh annel
Ġ-------- -
ĠT ony
Ġprodu cer
DE F
tw itter
Ġinnov ative
Ġan not
let al
Ġlength s
] =
Ġnecess ity
Ġ------------ --
20 8
ĠIn cre
k w
Ġtop ological
crib e
ĠC orn
Re lease
Ġadopt ion
ĠR ome
Ġ-------- --
Ġr iding
Ġp ink
13 1
del im
j ax
ĠH an
ock ets
Ġoper ates
Ġrece ipt
ar ound
Ġexc itation
Ġso vere
19 5
H y
Ġhuman ity
ĠOrgan ization
FLAG S
c ross
2 25
37 5
ge bras
Ġdis contin
Ġfluores cent
habil itation
J ava
ĠR on
Ġcred ibility
IP T
Ġassert ion
ĠM RI
ĠT OD
e conomic
cont rolled
Ġfre ely
Ġgra b
b ach
ac char
Ġoxid ation
ĠEd itor
Ġprev ents
18 8
Ġsaf ely
W in
Ð° ÑĤ
Ġpack ed
ĠN ight
Ġconve x
ĠG ib
comp ass
ĠCap ital
g if
19 80
Ġcas ual
Ġwis dom
Ġb ol
og onal
Ġi o
Ġm esh
ĠH om
ĠCl ark
ou ds
_ (
Ġproject ed
Ġafford able
M atrix
pie ce
ĠB ad
Ġwhe at
Ġsto pping
Ġinv asive
Ġatt ending
B ank
Ġsh out
Ġtrig gered
s ized
Ġalter ations
Ġfuck ing
Ġmod est
)$ -
Ġlight ing
in ch
Ġdon ors
her lands
typ edef
Ġun ity
Ġ ë
ous es
atch ing
ĠApp ro
ĠL anguage
ĠB ridge
Ġadapt ation
ex tern
Ġprom ises
in ery
Ġcons olid
ĠYou Tube
Ġt utor
er ver
Ġa pt
Ġas ync
M ask
ĠU lt
Ġconfirm ation
A pi
est abl
ĠK h
ãģ ¨
ens ation
ĠProte ction
Ġme ets
Ġcomb ining
ĠD IS
}$ )
Ġb other
Ġhe lic
ĠH ub
ĠExp ression
Ġnurs es
P rim
Ġsh ame
Ġcam eras
ex ists
Ġdet erior
Ġdis se
Ġutil ize
Fl oat
M ath
Ġres ort
Ġrelax ation
ĠĠ Ċ
ĠSar ah
c ies
Ġathlet es
ors hip
ĠJ ason
Ġover se
pe red
C ard
it us
Dav id
ĠMean while
ĠC ome
æ Ŀ
ĠC ab
Ġconc ert
Â ĩ
uls ion
ĠPUR POSE
Ġdef icit
Ġ Ä
Ġcompl ain
Ġd ensities
Ġcondition al
Ġmet rics
---|---| ---
ĠBro ther
D an
Ġa ug
,\ ,\
ro gen
ĠCom b
t u
ĠS K
CH ANT
hes es
ĠWH ERE
de g
test s
ential ly
ĠB rief
Po inter
Ġoccas ions
ĠAut o
Ġrid icul
c over
Ġret ention
Ġinvest ments
Ġ0 8
Ġhand ed
Ġart ists
ĠSt ock
user name
sp in
Ġt el
re ction
ĠEx press
ĠBer lin
Ġarbit ration
ĠB urn
at iv
ĠAuthor ity
in fected
Ġprotest s
Ġf oo
v ation
38 7
3 60
d istance
Ù ħ
\ #
Ġanim ation
i ors
fil m
im et
Ġtest ify
C opy
UT F
Ġgold en
Ġins ured
ĠAcc ount
2 24
M IN
ĠB arn
ion ic
Ġmist akes
Ġjud ges
ĠÐ ¾
Trans form
Ġdiag onal
Ġflo ating
ĠE mer
Ġcomp iler
Se lected
Ġdat abases
ĠB alt
' ))
link ed
P N
ĠHow ard
ĠLic ensed
ĠEx ample
![ ](
Ġs ocket
Ġgast ro
re view
Ġmot ivated
Ġens uring
Ù Ī
ĠS ure
Ġd ated
re z
is en
+ -
Ġinf ra
Ġenorm ous
ĠSt ore
Ġrem and
-------------------------------------------------------------------------------------------------------------------------------- --------------------------------------------------------------------------------------------------------------------------------
Ġb aking
Ġ1 75
ound ing
16 4
t ain
A h
Que ue
Ġactiv ists
Ġsup ers
ĠStud io
h ou
s ol
Ġy ard
ex pr
Ġearn ings
av age
g p
ĠO ak
Ġprem ises
Ġ1 39
Ġamong st
ĠA mb
Ġv as
Ġc rop
Ġlegisl ature
Ġinit iation
init ely
~ -
D im
ĠT reatment
Ġbo ards
usal em
U G
ĊĠĠĠĠĠĠĠĠĠĠĠĠĠĠĠĠ ĠĠĠĠĠĠĠĠĠĠĠĠĠ
Ġthrow ing
Ġp and
Ġprogn osis
Ġdownt own
33 33
} )$.
ĠD ark
exp ression
à ´
ĠSum mer
ĠV ery
FT WARE
ĠEm ploy
m ia
Ġhe s
Arg ument
requ ired
B LE
Ġtherap ies
ĠN i
Ġann oy
Ġinsert ion
Ġsh ops
j et
11 11
T ry
Ġref rig
D ouble
ĠSen ator
EN CE
ĠN K
ĠJ am
arsh all
Ġult ra
igen ous
C OL
Ġ ]{}
Ġh ire
17 6
is ite
Ġindust ries
ĠW orks
_ -
Ġre pository
Ġ2 40
H H
ft en
m el
Ġjust ified
Ġcho pped
Cont act
ĠS EC
ch lor
at isf
Un c
b id
Ġspeak s
Ġsoph istic
Ġdist ribute
Ġ" ",
ĠF act
Ġmy st
ĠEx pl
Rep ort
ur ches
B re
Ġunivers ities
she ll
Ġf erm
Ġbas al
\ )
Ġred irect
m ys
Ġpass enger
Ġmanufacture rs
ĠWalk er
Ġ0 4
Ġre active
ĠS ep
Ġre cre
hand ler
he art
AN K
m k
ĠMor gan
ĠP ear
Ġdis cre
F i
ir ts
ĠĠĠĠĠĠĠĠĠĠĠĠĠĠĠĠĠĠĠĠĠĠĠĠĠĠĠĠĠĠĠĠ ĠĠĠĠĠĠĠĠĠĠĠ
[ :
Ù Ĭ
)) ?
Ġc DNA
P ay
Ġantib iotics
M ember
Ġc ats
Ġoblig ations
Ġt ent
(" #
oll ary
ĊĊ ĠĠĠĠĠĠĠĠĠĠĠĠĠĠĠĠĠĠĠ
Ġem ails
Ġback up
ĠPARTIC ULAR
2 64
Ġdisappe ar
Ġaver aged
Ġempir ical
CHANT ABILITY
Ġhydro ph
20 9
, [
ick ed
if ndef
Ġprof ound
ĠTr ade
Ġavoid ed
M us
Ġf ought
Sub ject
Ġfru its
ĠT yp
ĠÐ ´
Ġveter an
Ġpack aging
respon s
cl ock
x sl
19 83
ann on
Ġa qu
Ġmain stream
Ġdist ress
Ġar ts
ĠCO VID
Ġdes erve
Ġrat ings
Ġdu ct
d frac
ETH OD
Ġb reat
Ġhold er
ĠT am
Ġch ips
ĠEl izabeth
bs ite
v irtual
ig hed
Ġpres erved
Ġexperien cing
Ġgen otype
s ince
ut ors
Ġaltern atives
Ġmay or
ãģ ª
Ġ19 50
ĠKe ep
J ob
ĠS quare
Ġblock chain
ãĥ ³
car bon
od ot
âĢ¦ âĢ¦
z ens
å ¯
Ġgrant ing
ud ge
ĠL yn
r ator
Ð¾Ð »
Ġadv ances
le e
ĠA SS
ĠW ales
os er
Ġse arched
ĠU r
Bl ack
Ġapproxim ate
ĠM oon
18 4
U ES
Ġref use
m ag
19 82
Pars er
ud a
Ġvolunt ary
oid al
å į
Ġhapp iness
Ġp ole
ĠâĢľ [
ĠDis ney
al ine
L IB
ĠInt eger
Ġadhes ion
ĠB esides
mer cial
Ġup stream
L in
Sum mary
Ġun law
m us
om on
t ry
he ne
Ġeas tern
ĠE ar
og ra
]- [@
ĠFIT NESS
P ers
Ġint ensive
Ġresid ue
es ters
ĠL ater
ĠC redit
ĠM ember
17 4
Ġ$ |\
Ġrev ised
