{"[UNK]":0,"[CLS]":1,"[SEP]":2,"[PAD]":3,"[MASK]":4,"!":5,"\"":6,"#":7,"$":8,"%":9,"&":10,"'":11,"(":12,")":13,"*":14,"+":15,",":16,"-":17,".":18,"/":19,"0":20,"1":21,"2":22,"3":23,"4":24,"5":25,"6":26,"7":27,"8":28,"9":29,":":30,";":31,"<":32,"=":33,">":34,"?":35,"@":36,"A":37,"B":38,"C":39,"D":40,"E":41,"F":42,"G":43,"H":44,"I":45,"J":46,"K":47,"L":48,"M":49,"N":50,"O":51,"P":52,"Q":53,"R":54,"S":55,"T":56,"U":57,"V":58,"W":59,"X":60,"Y":61,"Z":62,"[":63,"\\":64,"]":65,"^":66,"_":67,"`":68,"a":69,"b":70,"c":71,"d":72,"e":73,"f":74,"g":75,"h":76,"i":77,"j":78,"k":79,"l":80,"m":81,"n":82,"o":83,"p":84,"q":85,"r":86,"s":87,"t":88,"u":89,"v":90,"w":91,"x":92,"y":93,"z":94,"{":95,"|":96,"}":97,"~":98,"¡":99,"¢":100,"£":101,"¤":102,"¥":103,"¦":104,"§":105,"¨":106,"©":107,"ª":108,"«":109,"¬":110,"®":111,"¯":112,"°":113,"±":114,"²":115,"³":116,"´":117,"µ":118,"¶":119,"·":120,"¸":121,"¹":122,"º":123,"»":124,"¼":125,"½":126,"¾":127,"¿":128,"Â":129,"Ã":130,"Ä":131,"Å":132,"Æ":133,"Ç":134,"È":135,"É":136,"Ê":137,"Ë":138,"Ì":139,"Í":140,"Î":141,"Ï":142,"Ð":143,"Ñ":144,"Ò":145,"Ó":146,"Ô":147,"Õ":148,"Ö":149,"×":150,"Ø":151,"Ù":152,"Ú":153,"Û":154,"Ü":155,"Ý":156,"Þ":157,"ß":158,"à":159,"á":160,"â":161,"ã":162,"ä":163,"å":164,"æ":165,"ç":166,"è":167,"é":168,"ê":169,"ë":170,"ì":171,"í":172,"î":173,"ï":174,"ð":175,"ñ":176,"ó":177,"ô":178,"Ā":179,"ā":180,"Ă":181,"ă":182,"Ą":183,"ą":184,"Ć":185,"ć":186,"Ĉ":187,"ĉ":188,"Ċ":189,"ċ":190,"Č":191,"č":192,"Ď":193,"ď":194,"Đ":195,"đ":196,"Ē":197,"ē":198,"Ĕ":199,"ĕ":200,"Ė":201,"ė":202,"Ę":203,"ę":204,"Ě":205,"ě":206,"Ĝ":207,"ĝ":208,"Ğ":209,"ğ":210,"Ġ":211,"ġ":212,"Ģ":213,"ģ":214,"Ĥ":215,"ĥ":216,"Ħ":217,"ħ":218,"Ĩ":219,"ĩ":220,"Ī":221,"ī":222,"Ĭ":223,"ĭ":224,"Į":225,"į":226,"İ":227,"ı":228,"Ĳ":229,"ĳ":230,"Ĵ":231,"ĵ":232,"Ķ":233,"ķ":234,"ĸ":235,"Ĺ":236,"ĺ":237,"Ļ":238,"ļ":239,"Ľ":240,"ľ":241,"Ŀ":242,"ŀ":243,"Ł":244,"ł":245,"Ń":246,"ĠĠĠĠĠĠĠĠĠĠĠĠĠĠĠĠĠĠĠĠĠĠĠĠĠĠĠĠĠĠĠĠĠĠĠĠĠĠĠĠĠĠĠĠĠĠĠĠ":247,"ĠĠĠĠĠĠĠĠĠĠ":248,"---------------------------------------------":249,"Ġthe":250,"Ġa":251,"in":252,"ĠĠĠĠ":253,"er":254,"-------------":255,"tion":256,"Ġt":257,"re":258,"Ġof":259,"Ġs":260,"en":261,"Ġand":262,"at":263,"on":264,"or":265,"Ġc":266,"===========================":267,"Ġw":268,"is":269,"ed":270,"es":271,"it":272,"al":273,"an":274,"Ġp":275,"Ġf":276,"Ġb":277,"ou":278,"ing":279,"Ġin":280,"ar":281,"Ġm":282,"Ġd":283,"ic":284,"*************************************":285,"Ġh":286,"Ġto":287,"le":288,"as":289,"ro":290,"Ġth":291,"ent":292,"ĠĠ":293,"et":294,"el":295,"Ġre":296,"Ġn":297,"om":298,"Ġwith":299,"st":300,"ac":301,"il":302,"ec":303,"ĠTh":304,"Ġl":305,"Ġe":306,"ot":307,"id":308,"im":309,"ig":310,"Ġis":311,"=========":312,"Ġg":313,"ve":314,"ol":315,"Ġ(":316,"am":317,"ĠI":318,"Ġyou":319,"ation":320,"us":321,"ly":322,"ow":323,"âĢ":324,"Ġfor":325,"ĠS":326,"Ġthat":327,"ad":328,"Ġon":329,"ur":330,"ver":331,"ĠA":332,"ĠC":333,"ut":334,"un":335,"Ġst":336,"Ġbe":337,"/////////////////////////////////////////":338,"Ġwh":339,"ay":340,"ul":341,"Ġ1":342,"if":343,"ce":344,"ter":345,"-----":346,"Ġcon":347,"Ġfrom":348,"ight":349,"ĠĠĠ":350,"ch":351,"os":352,"em":353,"ir":354,"Ġan":355,"Ġas":356,"od":357,"op":358,"Ġhave":359,"th":360,"00":361,"Ġpro":362,"Ġ\"":363,"Ġ$":364,"ab":365,"ould":366,"Ġit":367,"ag":368,"um":369,"ate":370,"ĠM":371,"Ġal":372,"ri":373,"Ġv":374,"Ġ2":375,"ĠP":376,"res":377,"pp":378,"qu":379,"ts":380,"Ġcomp":381,"ain":382,"#####################################":383,"Ġr":384,"ere":385,"Ġex":386,"oc":387,"ers":388,"Ġwas":389,"ĠB":390,"Ġor":391,"Ġ\\":392,"ct":393,"ion":394,"est":395,"Ġ=":396,"se":397,"Ġare":398,"Ġat":399,"ĊĠĠĠĠĠĠĠ":400,"iv":401,"ist":402,"Ġsu":403,"ess":404,"ound":405,"ity":406,"Ġ-":407,"ĠH":408,"ĠF":409,"Ġby":410,"ĠD":411,"ill":412,"Ġwhich":413,"Ġsh":414,"ment":415,"ore":416,"_____________________":417,"out":418,"our":419,"and":420,"ĠW":421,"ĠThe":422,"ant":423,"ect":424,"ke":425,"ĠT":426,"Ġde":427,"end":428,"Ġnot":429,"her":430,"ĠR":431,"ough":432,"ive":433,"The":434,"ĠL":435,"ap":436,"Ġch":437,"Ġthis":438,"ĠN":439,"ew":440,"Ġ*":441,"âĢĻ":442,"Ġwe":443,"clud":444,"ell":445,"Ġus":446,"ĊĠĠĠ":447,"ure":448,"art":449,"ial":450,"ies":451,"Ġhe":452,"Ġbetween":453,"ort":454,"ype":455,"Ġse":456,"ĠG":457,"Ġup":458,"Ġun":459,"ated":460,"ĠE":461,"form":462,"pl":463,"Ġo":464,"ĊĠĠĠĠĠĠĠĠĠĠ":465,"Ġtr":466,"'s":467,"all":468,"ĠĠĠĠĠ":469,"Ġknow":470,"Ġyear":471,"{\\":472,"ine":473,"Ġle":474,"**":475,"Ġ0":476,"ff":477,"og":478,"ext":479,"Ġbecause":480,"ge":481,"ust":482,"ical":483,"der":484,"Ġcan":485,"Ġdiffer":486,").":487,"ue":488,"ome":489,"iz":490,"ack":491,"math":492,"ĠO":493,"age":494,"ame":495,"Ġalso":496,"Ġimp":497,"nt":498,"Ġsp":499,"ction":500,"lass":501,"Ġ3":502,"able":503,"ib":504,"are":505,"Ġres":506,"Ġother":507,"Ġabout":508,"ard":509,"act":510,"ase":511,");":512,"ublic":513,"ook":514,"Ġj":515,"Ġtime":516,"ence":517,"ep":518,"Ġ{":519,"ost":520,"Ġcont":521,"...":522,"ans":523,"01":524,"Ġpl":525,"ĠâĢľ":526,"av":527,"Ġad":528,"ĠIn":529,"ĊĠ":530,"ast":531,"ud":532,"=\"":533,"ip":534,"Ġwork":535,"Ġwere":536,"ak":537,"Ġall":538,"ign":539,".\"":540,"per":541,"ĠJ":542,"ÂłÂłÂłÂłÂłÂłÂłÂłÂłÂłÂłÂłÂłÂłÂłÂłÂłÂłÂłÂłÂłÂłÂłÂł":543,"Ġpeople":544,"Ġint":545,"ĠU":546,"Ġ[":547,"Ġacc":548,"ĉĉĉ":549,"ide":550,"Ġfollow":551,"Ġcomm":552,"ition":553,"ind":554,"ach":555,"ire":556,"Ġsystem":557,"Ġhas":558,"Ġne":559,"Ġme":560,"ens":561,"ous":562,"ice":563,"Ġ+":564,"Ġdo":565,"ary":566,"one":567,"Ġtwo":568,"ult":569,"Ġbut":570,"Ġreturn":571,"Ġsaid":572,"Ġapp":573,"Ġlike":574,"_{":575,"Ġdis":576,"ong":577,"ress":578,"du":579,"ations":580,"Ġ4":581,"Ġar":582,"Ġgroup":583,"Ġwill":584,"--":585,"ents":586,"ile":587,"pt":588,"ru":589,"Ġgo":590,"),":591,"Ġ<":592,"Ġfirst":593,"ber":594,"ose":595,"ance":596,"}}":597,"//":598,"Ġif":599,"ace":600,"Ġper":601,"Ġafter":602,"Ġen":603,"ally":604,"ph":605,"Ġ5":606,"ely":607,"ef":608,"Ġhis":609,"Âł":610,"Ġpre":611,"Ġone":612,"int":613,"Ġcl":614,"ord":615,"own":616,"ia":617,"ra":618,"Ġout":619,"Ġthey":620,"ory":621,"ang":622,"Ġev":623,"Ġop":624,"Ġso":625,"ail":626,"ry":627,"âĶĢâĶĢâĶĢâĶĢâĶĢâĶĢâĶĢâĶĢâĶĢâĶĢâĶĢâĶĢâĶĢâĶĢâĶĢâĶ":628,"Ġqu":629,"ĠSt":630,"âĢĿ":631,"Ġtheir":632,"Ġdata":633,"Ġmore":634,"ors":635,"ft":636,"ĠK":637,"Ġsignificant":638,"ys":639,"ond":640,"Ġthere":641,"Ġ\\[[@":642,"ite":643,"Ġag":644,"Ġinter":645,"ĠĠĠĠĠĠĠĠĠĠĠĠĠĠĠĠĠĠĠĠ":646,"ake":647,"Ġhigh":648,"Ġdevelop":649,"very":650,"Ġ}":651,"Ġpart":652,"Ġyour":653,"Ġ$\\":654,"Ġhad":655,"Ġfunction":656,"ield":657,"bs":658,"Ġk":659,"Ġpatients":660,"Ġbeen":661,"Ġmethod":662,"ree":663,"ll":664,"Ġman":665,"ĊĊ":666,"ish":667,"Ġthrough":668,"Ġgener":669,"Ġwho":670,"erv":671,"te":672,"erm":673,"Ġany":674,"ates":675,"Ġno":676,"Ġwould":677,"000000000000000000000000000000000000000000000000000000000000000000000000000000000000000000000000":678,"ĠV":679,"Ġconsider":680,"ont":681,"enc":682,"Ġwhen":683,"Ġass":684,"reat":685,"In":686,"ount":687,"Ġrec":688,"bject":689,"Ġmy":690,"ric":691,"Ġproblem":692,"Ġ'":693,"Ġ&":694,"\\]":695,"eg":696,"old":697,"Ġindividual":698,"Ġthan":699,"Ġover":700,"'t":701,"Ġrep":702,"ath":703,"Ġ6":704,"Ġincre":705,"Ġsc":706,"Ċĉ":707,"10":708,"row":709,"Ġits":710,"}$":711,"ild":712,"Ġexp":713,"ring":714,"frac":715,"Ġ19":716,"ub":717,"ks":718,"Ġsomething":719,"li":720,"Ġdef":721,"oth":722,"ex":723,"rib":724,"ays":725,"</":726,"get":727,"Ġvari":728,"ass":729,"Ġnew":730,"owever":731,"](#":732,"Ġpossib":733,"tions":734,"Ġoff":735,"ĊĠĠĠĠĠĠĠĠĠĠĠ":736,"====":737,"Ġam":738,"lect":739,"Ġsome":740,"^{":741,"ons":742,"hat":743,"lo":744,"]{}":745,"ttp":746,"ref":747,"vers":748,"ie":749,"ample":750,"Ġpr":751,"ater":752,"Ġget":753,"ode":754,"ĠCh":755,"19":756,"Ġher":757,"ĠY":758,"Ġbefore":759,"ĠâĢ":760,"Ġnumber":761,"Ġro":762,"###":763,"Ġinto":764,"Ġunder":765,"Ġour":766,"com":767,"iss":768,"Ġworld":769,"ink":770,"ings":771,"ov":772,"Ġdes":773,"ified":774,"ick":775,"Ġmay":776,"uc":777,"Ġact":778,"12":779,"gr":780,"Ġonly":781,"nd":782,"ative":783,"aw":784,"Ġcurrent":785,"ĠIt":786,"Ġsec":787,"Ġprocess":788,"Ġph":789,"Ġthem":790,"vi":791,"Ġval":792,"Ġemploy":793,"Ġmodel":794,"Ġmade":795,"Ġstud":796,"ma":797,"ove":798,"Ġwhat":799,"ular":800,"Ġab":801,"Ġadd":802,"Ġ7":803,"Ġlevel":804,"Ġpresent":805,"ark":806,"ian":807,"Ġdec":808,"Ġreg":809,"Ġco":810,"Ġtrans":811,"Ġcharacter":812,"Ġhelp":813,"elf":814,"Ġim":815,"Ġinv":816,"Ġmuch":817,"ĠAmeric":818,"ĠThis":819,"ear":820,"ert":821,"Th":822,"ock":823,"itt":824,"sp":825,"Ġind":826,"Ġsuch":827,"tr":828,"ased":829,"Ġjust":830,"Ġ201":831,"ating":832,"Ġgr":833,"Ġcourt":834,"Ġeff":835,"ne":836,"lambda":837,"Ġ8":838,"Ġduring":839,"app":840,"Ġanalysis":841,"anc":842,"Ġform":843,"Ġrel":844,"Ġthese":845,"Ġcells":846,"ĠWe":847,"\",":848,"Ġprovid":849,"Ġtechn":850,"he":851,"Ġwhere":852,"Ġsupport":853,"ility":854,"Ġcol":855,"11":856,"up":857,"ty":858,"ific":859,"les":860,"Ġresp":861,"Ġobtain":862,"ss":863,"Ġdet":864,"ize":865,"ith":866,"Ġpo":867,"Ġpol":868,"ident":869,"Ġ10":870,"}\\":871,"ĊĠĠĠĠ":872,"Ġneed":873,"olog":874,"ix":875,"ym":876,"Ġset":877,"%%%%%%%%%%%%%%%%%%%%%%%%%%%%%%%%%%%%%":878,"Ġuse":879,"Ġthen":880,"type":881,"ug":882,"Ġcould":883,"ution":884,"Ġclass":885,"Ġac":886,"Ġagainst":887,"ient":888,"ĊĠĠĠĠĠĠĠĠĠĠĠĠĠĠĠ":889,"Ġrequire":890,"Ġ9":891,"fer":892,"Ġsmall":893,"()":894,"Ġcom":895,"fig":896,"St":897,"Ġgovernment":898,"Ġrem":899,"000":900,"ĊĠĠĠĠĠ":901,"als":902,"ues":903,"Ġcontrol":904,"right":905,"Ġsub":906,"Ġperson":907,"20":908,"[@":909,"Ġshe":910,"ions":911,"Ġfe":912,"ange":913,"ev":914,"Ġinformation":915,"lement":916,"cl":917,"Ġbl":918,"Ġ|":919,"Ġsimilar":920,"ise":921,"Ġinclud":922,"Ġused":923,".,":924,"ning":925,"ax":926,"ob":927,"duc":928,"Ġdirect":929,"Ġy":930,"ime":931,"Ġfl":932,"ER":933,"Ġdid":934,"ual":935,"Ġshow":936,"ĠHe":937,"to":938,"mathcal":939,"Ġresults":940,"io":941,"){":942,"Ġcaus":943,"Ġfurther":944,"Ġatt":945,"\">":946,"________":947,"red":948,"ull":949,"tern":950,"Ġshould":951,"Ġerr":952,"ection":953,"Ġcor":954,"Ġhim":955,"Ġpotential":956,"Ġsur":957,"Ġspec":958,"its":959,"ĠUniversity":960,"ower":961,"Ġ.":962,"Ġschool":963,"Ġusing":964,"Ġdist":965,"Ġresearch":966,"Ġestablish":967,"inal":968,"Ġavailable":969,"ĠUnited":970,"Ġfamily":971,"Ġcondition":972,"ren":973,"Ġsee":974,"rop":975,"Category":976,"Ġback":977,"orm":978,"ood":979,"Ġlife":980,"Ġconst":981,"ruct":982,"ics":983,"ities":984,"->":985,"Ġi":986,"ption":987,"Ġmost":988,")$":989,"Ġmajor":990,"Ġinst":991,"IN":992,"15":993,"Ġsince":994,"alpha":995,"Ġem":996,"rit":997,"Ġhealth":998,"ement":999,"13":1000,"usepackage":1001,"Ġanother":1002,"Ġend":1003,"oun":1004,"ox":1005,"ures":1006,"Ġenvironment":1007,"Ġwell":1008,"lic":1009,"Ġfact":1010,"16":1011,"urn":1012,"\"}":1013,"atch":1014,"(\\":1015,"Ġright":1016,"ected":1017,"Ġ[@":1018,"Ġ_":1019,"Ġpar":1020,"Ġenergy":1021,"Ġbusiness":1022,"pos":1023,"put":1024,"ven":1025,"arg":1026,"]\\].":1027,"14":1028,"Ġhow":1029,"eta":1030,"Ġocc":1031,"port":1032,"rom":1033,"Ġalready":1034,"aintiff":1035,"Ġclaim":1036,"Ġgiven":1037,"Ġcons":1038,"Ġdiscuss":1039,"Ġstat":1040,"ograph":1041,"Ġmechanism":1042,"Ġassociated":1043,"Ġeach":1044,"Ġdifferent":1045,"ized":1046,"Ġdemonstr":1047,"ational":1048,"ined":1049,"Ġcase":1050,"Ġprogram":1051,"Ġdoes":1052,"imes":1053,"ength":1054,"Ġent":1055,"Ġinf":1056,"ically":1057,"ator":1058,"Ġespecially":1059,"elta":1060,"ants":1061,"Ġ$$\\":1062,"],":1063,"par":1064,"25":1065,"air":1066,"Ġauth":1067,"ON":1068,"sh":1069,"ĠWh":1070,"alcul":1071,"ata":1072,"Ġte":1073,"Ġmonth":1074,"Ġdi":1075,"und":1076,"Ġeven":1077,"Ġmin":1078,"etwork":1079,"ee":1080,"Ġ200":1081,"Ġmake":1082,"Ġdifficult":1083,"ocument":1084,"yn":1085,"ting":1086,"Ġtreatment":1087,"Ġsuccess":1088,"Ġsuggest":1089,"Ġ@":1090,"Ġobserv":1091,"ĠĠĠĠĠĠĠĠĠĠĠĠĠĠ":1092,"ects":1093,"Ġ:":1094,"over":1095,"Ġtest":1096,"Ġimportant":1097,"Ġwant":1098,"Ġevery":1099,"_{\\":1100,"ins":1101,"Ġevidence":1102,"18":1103,"))":1104,"con":1105,"Ġke":1106,"Ġwhether":1107,"ute":1108,"Ġsame":1109,"Ġcall":1110,"cri":1111,"Ġpos":1112,"Ġway":1113,"ret":1114,"ash":1115,"Ġnow":1116,"val":1117,"ful":1118,"Ġlimit":1119,"Ġview":1120,"\":":1121,"Ġ/":1122,"label":1123,"Ġfind":1124,"Ġdon":1125,"upp":1126,"Ġparticular":1127,"Ġloc":1128,"Ġlook":1129,"ave":1130,"../../":1131,"17":1132,"Ġthose":1133,"Ġtri":1134,"yp":1135,"Ġlong":1136,"Ġyears":1137,"Ġvery":1138,"Ġbu":1139,"rm":1140,"ward":1141,"Ġboth":1142,"ason":1143,"ature":1144,"Ġdescrib":1145,"Ġbetter":1146,"oid":1147,"cent":1148,"ense":1149,"html":1150,"ases":1151,"Ġstr":1152,"pr":1153,"Ġlarge":1154,"ict":1155,"ines":1156,"mathbb":1157,"AT":1158,"Ġhere":1159,"Ġfound":1160,"Ġmultiple":1161,"ages":1162,"Ġsimp":1163,"Ġbel":1164,"ared":1165,"Ġbeing":1166,"Ġ//":1167,"Ġcar":1168,"pro":1169,"ok":1170,"Ġcirc":1171,"Ġclear":1172,"Ġmed":1173,"Ġexper":1174,"led":1175,"Ġmeasure":1176,"ved":1177,"?\"":1178,"ich":1179,"::":1180,"Ġmany":1181,"Ġplay":1182,"Ġet":1183,"32":1184,"the":1185,"Ġlittle":1186,"ale":1187,"ĠCom":1188,"Ġfil":1189,"Ġser":1190,"let":1191,"âĢī":1192,"ĠQ":1193,"ments":1194,"Ġmem":1195,"Ġeconom":1196,"It":1197,"ng":1198,"Ġrepresent":1199,"50":1200,"Ġprivate":1201,"Ġx":1202,"30":1203,"ern":1204,"sqrt":1205,"Ġel":1206,"ĊĠĠĠĠĠĠĠĠĠĠĠĠĠĠĠĠĠĠĠ":1207,"aking":1208,"ik":1209,"Ġpublic":1210,"ES":1211,"AR":1212,"line":1213,"---|---|---|---":1214,"Ġhuman":1215,"Ġquestion":1216,"}{":1217,"of":1218,"left":1219,"igned":1220,"ole":1221,"yl":1222,"Ġhaving":1223,"Ġ**":1224,"Ġthink":1225,"ner":1226,"not":1227,"Ġins":1228,"ible":1229,"Ġorgan":1230,"ms":1231,"begin":1232,"duct":1233,"Ġgood":1234,"ression":1235,"min":1236,"ĊĊĠĠĠ":1237,"Ġ12":1238,"Ġcorrespond":1239,"Ġext":1240,"set":1241,"Ġdown":1242,"Ġbehavi":1243,"ĠFor":1244,"Ġweek":1245,"ody":1246,"âĪĴ":1247,"cept":1248,"Ġprevious":1249,"Ġvalue":1250,"ank":1251,"Ġgu":1252,"day":1253,"ĠâĢĵ":1254,"ively":1255,"ps":1256,"Ġorder":1257,"Ġbr":1258,"We":1259,"ices":1260,"ually":1261,"Ġsol":1262,"~~~~~~~~~~~~~~~~~~~~~~~~~":1263,"Ġprovide":1264,"view":1265,"ness":1266,"Ġwhile":1267,"Ġalways":1268,"****************":1269,"Ġstudy":1270,"://":1271,"Ġfr":1272,"NA":1273,"Ġeither":1274,",\\":1275,"24":1276,"ld":1277,"Ġgen":1278,"ĠJohn":1279,"ĠLet":1280,"201":1281,"ĠThese":1282,"Ġuntil":1283,"',":1284,"OR":1285,"Ġsecond":1286,"Ġsingle":1287,"Ġown":1288,"CR":1289,"$,":1290,"Ġequ":1291,"oy":1292,"way":1293,"ĠÂ":1294,"Ġmod":1295,".âĢĿ":1296,"Ġdep":1297,"ĠCourt":1298,"ision":1299,"Ġhand":1300,"af":1301,"Ġstate":1302,"Ġrelationship":1303,"Ġserv":1304,"Ġterm":1305,"(\"":1306,"Ġchildren":1307,"man":1308,"ization":1309,"Ġthree":1310,"Ġread":1311,"ĠIf":1312,"Ġseveral":1313,"Ġmaterial":1314,"ĠAl":1315,"Ġmet":1316,"ray":1317,"Ġunderstand":1318,"$.":1319,"Ġhigher":1320,"ality":1321,"br":1322,"ton":1323,"amp":1324,"Ġwithout":1325,"ead":1326,"Ġant":1327,"Ġnon":1328,"ious":1329,"ah":1330,"Ġtarget":1331,"ystem":1332,"ency":1333,"eck":1334,"Ġperiod":1335,"Ġapproach":1336,",\"":1337,"Ġreceived":1338,"Ġresult":1339,"Ġtotal":1340,"Ġname":1341,"any":1342,"Ġstandard":1343,"Ġsign":1344,"Ġgreat":1345,"Ċĉĉĉ":1346,"What":1347,"ather":1348,"80":1349,"Ġstart":1350,"Ġcount":1351,"med":1352,"Ġeffect":1353,"Ġ20":1354,"Ġcre":1355,"ĠAnd":1356,"000000":1357,"Ġactiv":1358,"ource":1359,"ences":1360,"mission":1361,"ains":1362,"aining":1363,"EN":1364,"ists":1365,"Ġinvestig":1366,"ify":1367,"Ġline":1368,"ĠPro":1369,"Ġsl":1370,"Ġproper":1371,"Ġreported":1372,"ters":1373,"Ġperform":1374,"ĠAs":1375,"ST":1376,"22":1377,"str":1378,"ĠĠĠĠĠĠĠĠĠĠĠĠĠĠĠĠĠĠĠĠĠĠĠĠĠĠĠĠĠĠĠĠĠĠĠĠĠĠĠĠĠĠĠĠĠĠĠĠĠĠĠĠĠĠĠĠĠĠĠĠĠĠĠĠĠĠĠĠĠĠĠĠĠĠĠĠĠĠĠĠĠĠĠĠĠĠĠĠĠĠĠĠĠĠĠĠĠĠĠĠĠĠĠĠĠĠĠĠĠĠĠĠĠĠĠĠĠĠĠĠĠĠĠĠĠĠĠĠĠĠĠĠĠĠĠĠĠĠĠĠĠĠĠĠĠĠĠĠĠĠĠĠĠĠĠĠĠĠĠĠĠĠĠĠĠĠĠĠĠĠĠĠĠĠĠĠĠĠĠĠĠĠĠĠĠĠĠĠĠĠĠĠĠĠĠĠĠĠĠĠĠĠĠĠĠĠĠĠĠĠĠĠĠĠĠĠĠĠĠĠĠĠĠĠĠĠĠĠĠĠĠĠĠĠĠĠĠĠĠĠĠĠĠĠĠĠĠĠĠĠĠĠĠĠĠĠĠĠĠĠĠĠĠĠĠĠĠĠĠĠĠĠĠĠĠĠĠĠĠĠĠĠĠĠĠĠĠĠĠĠĠĠĠĠĠĠĠĠĠĠĠĠĠĠĠĠĠĠĠĠĠĠĠĠĠĠĠĠĠĠĠĠĠĠĠĠĠĠĠĠĠĠĠĠĠĠ":1379,"ulation":1380,"IT":1381,"Ġcertain":1382,"Ġresponse":1383,"Ex":1384,"ives":1385,"ability":1386,"Ġpres":1387,"Ġparamet":1388,"use":1389,"ĠTr":1390,"Ġear":1391,"40":1392,"alk":1393,"Ġlead":1394,"ouse":1395,"Ġwomen":1396,"Ġsay":1397,"Ġrun":1398,"Ċĉĉ":1399,"ism":1400,"mathbf":1401,"Ġlast":1402,"ention":1403,"Ġz":1404,"ĠBut":1405,"Ġissue":1406,"atic":1407,"ww":1408,"99":1409,"ross":1410,"Wh":1411,"Ġoper":1412,"arch":1413,"Ġoften":1414,"Ġthough":1415,"ames":1416,"(-":1417,"FFFFFFFFFFFFFFFF":1418,"ane":1419,"iqu":1420,"Ġmust":1421,"23":1422,"bl":1423,"augh":1424,"selves":1425,"amples":1426,"Ġtake":1427,"ependent":1428,"\\[":1429,"Ġwr":1430,"Ġstill":1431,"ams":1432,"ann":1433,"ery":1434,"Ġcap":1435,"Ġtype":1436,"ron":1437,"Ġlaw":1438,"Ġconf":1439,"Ġfriend":1440,"Ġpoint":1441,"name":1442,"ork":1443,"au":1444,"Ġmarket":1445,"itive":1446,"Ġpur":1447,"action":1448,"Ġlet":1449,"Ġbec":1450,"Ġmain":1451,"Ġcourse":1452,"ots":1453,"ration":1454,"ĠThere":1455,"Ġrisk":1456,"ech":1457,"ule":1458,"Ġexpl":1459,"por":1460,"ources":1461,"Let":1462,"Ġ15":1463,"sigma":1464,"Ġnecessary":1465,"be":1466,"sc":1467,"();":1468,"Ġ,":1469,"we":1470,"Ġday":1471,"ium":1472,"wh":1473,"ier":1474,"ral":1475,"Ġaccording":1476,"ced":1477,"Ġcent":1478,"Ġanswer":1479,"dd":1480,"ospital":1481,"Ġfin":1482,"33":1483,"Fig":1484,"ination":1485,"AL":1486,"ÃĲ":1487,"âĢľ":1488,"Ġmicro":1489,"ĠAn":1490,"ade":1491,"Ġprobably":1492,"AN":1493,"Ġed":1494,"az":1495,"Ch":1496,"ouble":1497,"arm":1498,"Ġpublished":1499,"lection":1500,"eth":1501,"].":1502,"64":1503,"Ġpat":1504,"ology":1505,"ained":1506,"Ġpost":1507,"varepsilon":1508,"land":1509,"ccording":1510,"60":1511,"Ġcr":1512,"200":1513,"Ġchanges":1514,"eral":1515,"ĠEurope":1516,"Ġtemperature":1517,"Ġstructure":1518,"Ġident":1519,"hibit":1520,"ĠYou":1521,"ĊĠĠ":1522,")\\":1523,"Ġbo":1524,"Ġcontinu":1525,"Ġcell":1526,"Ġbenef":1527,"Ġtogether":1528,"ĠĠĠĠĠĠ":1529,"els":1530,"Ġelect":1531,"co":1532,"Ġprotein":1533,"Ġmoney":1534,"Ġref":1535,"Ġaff":1536,"ience":1537,"for":1538,"Ġfollowing":1539,"This":1540,"lex":1541,"agn":1542,"ily":1543,"read":1544,"def":1545,"Ġinc":1546,"Ġprot":1547,"Ġderiv":1548,"Ġ18":1549,"ĠNew":1550,"Ġoutside":1551,"Ġdeterm":1552,"Ġparticip":1553,"duction":1554,"Ġthird":1555,"ately":1556,"Ġgoing":1557,"Ġsatisf":1558,"text":1559,"Ġallow":1560,"Ġlanguage":1561,"Ġsupp":1562,"http":1563,"ote":1564,"Ġdisease":1565,"27":1566,"ĠSh":1567,"ets":1568,"Ġmat":1569,"Ġsocial":1570,"Ġestim":1571,"}(":1572,"View":1573,"ied":1574,"Ġwithin":1575,"Ġ*/":1576,"Ġnormal":1577,"CT":1578,"ars":1579,"Ġfrequ":1580,"ural":1581,"Ġcare":1582,"Ġjudgment":1583,"Ġdefendant":1584,"Ġsumm":1585,"Ġprior":1586,"Ġreal":1587,"Ġaround":1588,"âĢĵ":1589,"Ġ#":1590,"ott":1591,"oup":1592,"Ġviol":1593,"'m":1594,"oci":1595,"Ġdrug":1596,"Ġpoints":1597,"Ġversion":1598,"ject":1599,"ump":1600,"Ã©":1601,"35":1602,"Ġapproxim":1603,"ĠX":1604,"28":1605,"Ġhappen":1606,"akes":1607,"ĠCalifornia":1608,"Ġaddition":1609,"bers":1610,"Pro":1611,"$$":1612,"ĠAr":1613,"Ġothers":1614,"ID":1615,"oot":1616,"less":1617,"SE":1618,"Ġsurface":1619,"Ġfocus":1620,"Ġbreak":1621,"gamma":1622,"oss":1623,"Ġpass":1624,"Ġinitial":1625,"su":1626,",âĢĿ":1627,"34":1628,"Ġpower":1629,"Ġ14":1630,"Ġadv":1631,"Ġlikely":1632,"Ġrecommend":1633,"Ġopen":1634,"igh":1635,"duced":1636,"Ġmillion":1637,"Ġrest":1638,"Ġarg":1639,"Ġ</":1640,"âĢĶ":1641,"Ġself":1642,"Ġfield":1643,"gen":1644,"Ġtry":1645,"rho":1646,"Ġcommun":1647,"Ġlist":1648,"Ġexample":1649,"Ġbas":1650,"Ġfalse":1651,"orth":1652,"Ġincluding":1653,"eb":1654,"cont":1655,"ently":1656,"ĠSp":1657,"37":1658,"ĠZ":1659,"ember":1660,"ush":1661,"ĊĊĠ":1662,"LE":1663,"---":1664,"Ġapplication":1665,"You":1666,"Ġtoo":1667,"Ġcancer":1668,"Ġmean":1669,"son":1670,"Ġevalu":1671,"Ġmight":1672,"inc":1673,"ury":1674,"Ġhead":1675,"Ġart":1676,"Ġtaken":1677,"05":1678,"Ġvehic":1679,"fficient":1680,"sec":1681,"ĠIs":1682,"Ġfuture":1683,"Ġdel":1684,"26":1685,"eed":1686,"by":1687,"Ġreally":1688,"^{\\":1689,"lobal":1690,"AAAAAAAAAAAAAAAAAAAAAAAAAAAAAAAAAAAAAAAAAAAAAAAA":1691,"part":1692,"oint":1693,"29":1694,"ger":1695,"lease":1696,"rel":1697,"Ġ16":1698,"reen":1699,"ĠHowever":1700,"Ġless":1701,"Ġsoftware":1702,"org":1703,"ĠEx":1704,"ĠThey":1705,"Ġbelieve":1706,"Ġ{#":1707,"ĠĠĠĠĠĠĠ":1708,"Ġlo":1709,"equ":1710,"RE":1711,"Ġfile":1712,"Ġcontr":1713,"Ġpop":1714,"Ġ\\[":1715,"38":1716,"Ġfac":1717,"roll":1718,"Ġblood":1719,"Ġanaly":1720,"Ġbased":1721,"Ġdev":1722,"ĠAfter":1723,"rem":1724,"Ġminutes":1725,"Ġvis":1726,"ety":1727,"Ġaction":1728,"Ġtop":1729,"Ġrespect":1730,"ãģ":1731,"36":1732,"Ġrequ":1733,"ĠChrist":1734,"Ġdisc":1735,"vert":1736,"'re":1737,"var":1738,"att":1739,"To":1740,"//////////////////":1741,"Ġfew":1742,"==":1743,"lev":1744,"Ġgrow":1745,"Ġhome":1746,"ests":1747,"ror":1748,"thing":1749,"Ġlow":1750,"Ġsitu":1751,"Ġimmun":1752,"reg":1753,"osed":1754,"omega":1755,"Ġplace":1756,"self":1757,"etic":1758,"rap":1759,"21":1760,"('":1761,"Ġindic":1762,"vent":1763,"Ġhalf":1764,"ĠUn":1765,"Ġbest":1766,"ĠNo":1767,"rict":1768,"IC":1769,"ĠPh":1770,"Ġnext":1771,"ĠâĢĶ":1772,"Ġpath":1773,"Ġcustom":1774,"leg":1775,"div":1776,"fore":1777,"75":1778,"add":1779,"ised":1780,"AS":1781,"riv":1782,"Ġchallen":1783,"ĠOn":1784,"Ġleft":1785,"boldsymbol":1786,"ope":1787,"45":1788,"Ġfour":1789,"Con":1790,"Ġessential":1791,"ems":1792,"Ġhydro":1793,"Ġcommon":1794,"Ġinterest":1795,"oll":1796,"Ġchange":1797,"Ġasked":1798,"90":1799,"Ġleg":1800,"ĠApp":1801,"Ġput":1802,"ĠCon":1803,"Ġret":1804,"iver":1805,"orts":1806,"ey":1807,"Ġconn":1808,"čĊč":1809,"Ġhistory":1810,"95":1811,"epsilon":1812,"ification":1813,"ited":1814,"Ġpsych":1815,"Ġfail":1816,"iving":1817,"Ġimprove":1818,"ĠWhat":1819,"Ġ30":1820,"Cont":1821,"ĠDepartment":1822,"ault":1823,"AC":1824,"mu":1825,"include":1826,"Ġrecord":1827,")/":1828,"Ġnever":1829,"lu":1830,"Omega":1831,"Ġprof":1832,"itch":1833,"Ġlight":1834,"opy":1835,"70":1836,"Ġpaper":1837,"eter":1838,"Ġob":1839,"Ġbeg":1840,"},":1841,"Com":1842,"Ġissues":1843,"Ġinvolved":1844,"infty":1845,"Ġalmost":1846,"ired":1847,"ĠSo":1848,"function":1849,"Ġnothing":1850,"Ġhours":1851,"cess":1852,"raw":1853,"Ġcorrect":1854,"Ġabove":1855,"Ġu":1856,"ĠAt":1857,"ister":1858,"Ġcampaign":1859,"ateg":1860,"Ġeas":1861,"Ġheld":1862,"ene":1863,"Ġ11":1864,"ension":1865,"Value":1866,"Ġachie":1867,"Ġofficial":1868,"cript":1869,"Ġwater":1870,"eal":1871,"Ġsk":1872,"Ġreason":1873,"Ġtrue":1874,"Ġstrength":1875,"ending":1876,"new":1877,"uth":1878,"Ġ{\\":1879,"ĠInd":1880,"ĠTo":1881,"ĠPl":1882,"IS":1883,"Name":1884,"Ġleast":1885,"Ġconcern":1886,"Ġidea":1887,"ession":1888,"Ġsize":1889,"ED":1890,"Ġpossible":1891,"Ġmotion":1892,"ĠAll":1893,"Ġsm":1894,"Ġlocal":1895,"}_":1896,"48":1897,"ask":1898,"ĠĠĠĠĠĠĠĠĠĠĠĠĠ":1899,"ream":1900,"Ġposition":1901,"Ġcome":1902,"Ġthings":1903,"Ġdr":1904,"}^{":1905,"Ġcy":1906,"!\"":1907,"ĠCl":1908,"arn":1909,"pi":1910,"Ġtyp":1911,"=\\":1912,"urs":1913,"Ġdisplay":1914,"Ġdue":1915,"aps":1916,"Ġmov":1917,"Ġpay":1918,"ats":1919,"ĠTHE":1920,"erg":1921,"Ġdivided":1922,"Ġrefer":1923,"ances":1924,"uck":1925,"ĠUS":1926,"Ġbi":1927,"Ġsymptoms":1928,"back":1929,"Ġdistribution":1930,"Ġpolicy":1931,"urrent":1932,"ĠJanuary":1933,"39":1934,"As":1935,"ĠSc":1936,"Ġrecogn":1937,"Ġappropriate":1938,"outh":1939,"Ġmanufact":1940,"):":1941,"Ġ17":1942,"data":1943,"Ġgot":1944,"Ġnucle":1945,"Ġelse":1946,"acy":1947,"Ġaverage":1948,"Tr":1949,"ules":1950,"Ġbig":1951,"ĠFurthermore":1952,"Ġfree":1953,"idth":1954,"Ġdays":1955,"Id":1956,"Ġshown":1957,"Ġoriginal":1958,"Ġgive":1959,"__":1960,"Ġbuild":1961,"Ġclinical":1962,"ological":1963,"ina":1964,"Ġmoment":1965,"ool":1966,"imal":1967,"omet":1968,"ĊĠĠĠĠĠĠĠĠĠ":1969,"}$$":1970,"Ġbro":1971,"mitted":1972,"Ġgame":1973,"];":1974,"Ġtrial":1975,"col":1976,"Ġproducts":1977,"}_{":1978,"though":1979,"bar":1980,"Ġprom":1981,"Ġ25":1982,"ributed":1983,"Ġturn":1984,"Ġexperiment":1985,"ecause":1986,"Ġsw":1987,"Ġwords":1988,".................................":1989,"Ġkeep":1990,"Ġsequence":1991,"Ġden":1992,"clusion":1993,"atory":1994,"Ġproperties":1995,"emocr":1996,"ffer":1997,"nal":1998,"Ġelement":1999,"ector":2000,"44":2001,"Ġ!=":2002,"Ġreplac":2003,"If":2004,"65":2005,"mod":2006,"ĠĠĠĠĠĠĠĠ":2007,"gg":2008,"Ġcomplete":2009,"Ġpressure":2010,"Ġexpression":2011,"Ġfeel":2012,"ior":2013,"ides":2014,"iddle":2015,"Ġcost":2016,"88":2017,"](":2018,"Ġ--":2019,"Type":2020,"Ġagain":2021,"AP":2022,"Ġ)":2023,"operatorname":2024,"ÃĹÂ":2025,"Ġpolitical":2026,"Ġmon":2027,"sum":2028,"Ġcounsel":2029,"ĠFr":2030,"Ġcode":2031,"cle":2032,"Ġknown":2033,"ĠShe":2034,"ended":2035,"Ġaut":2036,"Ġcalled":2037,"RO":2038,"Ġrad":2039,"ception":2040,"But":2041,"Ġprimary":2042,"angle":2043,"yle":2044,"Ġalgorith":2045,"erc":2046,"uss":2047,"100":2048,"duce":2049,"Ġcomb":2050,"ĠState":2051,"Ġmolec":2052,"arent":2053,"Ġwon":2054,"Ġmot":2055,"Ġphysical":2056,"Ġfeatures":2057,"Ġgeneral":2058,"Ġcur":2059,"phi":2060,"Ġsubstantial":2061,"Ġdirection":2062,"ayer":2063,"Ġvol":2064,"ital":2065,"itle":2066,"aff":2067,"Ġparents":2068,"Ġpred":2069,"LL":2070,"Ġmilitary":2071,"Ġteam":2072,"aligned":2073,"Ġsusp":2074,"ĊĊĠĠĠĠĠĠĠ":2075,"Ġmeans":2076,"Ġadminist":2077,"ait":2078,"ĠRes":2079,"Ġincreasing":2080,"Ġ==":2081,"And":2082,"Ġrandom":2083,"hip":2084,"Ġspecific":2085,"Ġ100":2086,"Ġobject":2087,"Ġ13":2088,"ĠOctober":2089,"66":2090,"ĠGr":2091,"ape":2092,"ari":2093,"Ġvalues":2094,"Ġplan":2095,"Lambda":2096,"Ġ%":2097,"cription":2098,"For":2099,"Ġcases":2100,"ruction":2101,"Ġable":2102,"ries":2103,"ison":2104,"Ġbeautiful":2105,"ĠSeptember":2106,"Ġtimes":2107,"ET":2108,"so":2109,"98":2110,"class":2111,"import":2112,"pon":2113,"ser":2114,"pone":2115,"mon":2116,"itude":2117,"ther":2118,"String":2119,"ĠLicense":2120,"Ġsuper":2121,"Ġweeks":2122,"Ġinj":2123,"Ġabs":2124,"``````````````````````````````":2125,"key":2126,"ressed":2127,"Ġmaximum":2128,"ured":2129,"77":2130,"Ġarea":2131,"Ġpe":2132,"aring":2133,"Ġstudies":2134,"essage":2135,"Ġquestions":2136,"Ġside":2137,"Ġhard":2138,"Ġkey":2139,"Ġ>":2140,"indow":2141,"ĠThat":2142,"ands":2143,"fr":2144,"'ve":2145,"Ġbody":2146,"He":2147,"ored":2148,"Ġfull":2149,"Ġmove":2150,"this":2151,"^{-":2152,"Ġnatural":2153,"void":2154,"94":2155,"Ġ24":2156,"ĊĠĠĠĠĠĠĠĠĠĠĠĠĠĠĠĠĠĠĠĠĠĠĠĠĠĠĠĠĠĠ":2157,"Ġrevealed":2158,"ION":2159,"Ġcho":2160,"><":2161,"lected":2162,"Ġrate":2163,"span":2164,"jects":2165,"Ġwhy":2166,"pm":2167,"Ġerror":2168,"96":2169,"_\\":2170,"ĠNovember":2171,"Ġappear":2172,"Ġjurisdiction":2173,"chem":2174,"})":2175,"Res":2176,"Ġimmediately":2177,"Ġknowledge":2178,"log":2179,"Ġopportun":2180,"uring":2181,"Ġcontinue":2182,"ney":2183,"ume":2184,"04":2185,"tilde":2186,"}^":2187,"ĠĠĠĠĠĠĠĠĠ":2188,"ĠWashington":2189,"fl":2190,"97":2191,"Ġbehind":2192,"Ġneg":2193,"ising":2194,"Ġexist":2195,"aces":2196,"Ġlater":2197,"ince":2198,"Ġnum":2199,"ites":2200,"icle":2201,"ici":2202,"Ġapplied":2203,"ids":2204,"plic":2205,"ĠStates":2206,"Ġvideo":2207,"time":2208,"Ġreview":2209,"ling":2210,"Ġmen":2211,"{{\\":2212,"Ġsure":2213,"orn":2214,"ĠPresident":2215,"ift":2216,"ĠSuppose":2217,"string":2218,"Ġhold":2219,"ables":2220,"Ġlot":2221,"Ġ`":2222,"ler":2223,"Ġfar":2224,"Ġfinal":2225,"oph":2226,"Ġdidn":2227,"AD":2228,"AM":2229,"Ġnear":2230,"cdot":2231,"enn":2232,"Ġinteg":2233,"55":2234,"Ġcrit":2235,"Ġaccess":2236,"olution":2237,"Ġla":2238,"ends":2239,"mit":2240,"de":2241,"Ġamong":2242,"ĠWhen":2243,"Ġmass":2244,"Ġlevels":2245,"ounds":2246,"OU":2247,"Ġstrong":2248,"Ġfavor":2249,"------------------":2250,"Ġdri":2251,"itor":2252,"Ġdatabase":2253,"Ġattempt":2254,"Ġpract":2255,"Ġsent":2256,"ĠObama":2257,"Ġspace":2258,"Ġalong":2259,"irst":2260,"Ġshort":2261,"Ġcolumn":2262,"Ġchar":2263,"order":2264,"ators":2265,"Ġtre":2266,"Ar":2267,"table":2268,"ivity":2269,"ĠRe":2270,"Ġlab":2271,"Ġwritten":2272,"ava":2273,"td":2274,"31":2275,"Ġrequired":2276,"fo":2277,"Ġdone":2278,"ĠCounty":2279,"'ll":2280,"Ġaway":2281,"Ġsays":2282,"Ġpercent":2283,"Ġsecurity":2284,"List":2285,"Ġ${\\":2286,"sequ":2287,"Ġdom":2288,"Ġlower":2289,"oin":2290,"Ġclean":2291,"Ġfamil":2292,"Ġid":2293,"return":2294,"widetilde":2295,"85":2296,"Ġdesign":2297,"II":2298,"Un":2299,"aster":2300,"load":2301,"Ġgirl":2302,"Ġstep":2303,"Ġgraph":2304,"Ġlog":2305,"ĠCol":2306,"]\\]":2307,"oogle":2308,"Ġterms":2309,"On":2310,"Ġactivity":2311,"ĠFebruary":2312,"IG":2313,"Ġmanag":2314,"Ġreport":2315,"Ġ=>":2316,"Ġair":2317,"Cl":2318,"Ġ50":2319,"67":2320,"ĠOr":2321,"Ġdevelopment":2322,"Ġgl":2323,"Ġtell":2324,"Ġdynam":2325,"osis":2326,"ĠWorld":2327,"ique":2328,"\")":2329,"Ġgroups":2330,"Ġhowever":2331,"Ġargument":2332,"emplate":2333,"Ġage":2334,"Ġold":2335,"Ġthing":2336,"eq":2337,"Ġwar":2338,"Ġevent":2339,"Ġcheck":2340,"ung":2341,"bo":2342,"Ġsens":2343,"Ġenc":2344,"ĠCo":2345,"ley":2346,"eople":2347,"-\\":2348,"Ð¾Ð":2349,"Ġvir":2350,"Ġcover":2351,"amm":2352,"Ġsal":2353,"beta":2354,"Suppose":2355,"ered":2356,"Ġenough":2357,"utions":2358,"stit":2359,"ĠAd":2360,"Ġproposed":2361,"ought":2362,"Ġagreement":2363,"ĠĠĠĠĠĠĠĠĠĠĠ":2364,"aint":2365,"Ġtold":2366,"An":2367,"arrow":2368,"iff":2369,"Ġpast":2370,"></":2371,"68":2372,"Ġdensity":2373,"Ġcompared":2374,"Ġstring":2375,"ories":2376,"Ġpiec":2377,"box":2378,"Ġfund":2379,"ably":2380,"Error":2381,"Ġkind":2382,"Is":2383,"date":2384,"ING":2385,"ĠSch":2386,"Sh":2387,"DE":2388,"ĠRep":2389,"Ġprovided":2390,"OT":2391,"Ġopt":2392,"ony":2393,"Ġsim":2394,"Ġeng":2395,"Ġfore":2396,"CH":2397,"figuration":2398,"Ġmaking":2399,"ml":2400,"Ġpurpose":2401,"Ġfederal":2402,"Ġinclude":2403,"Ġrece":2404,"Ġexc":2405,"Ġnetworks":2406,"ores":2407,"..":2408,"ves":2409,"\\_":2410,"Ġworking":2411,"Ġvoid":2412,"Ġupon":2413,"Ġpretty":2414,"Ġconditions":2415,"ai":2416,"ival":2417,"âĢ¦":2418,"Ġfinancial":2419,"Ġ([":2420,"Ġrole":2421,"Ġfood":2422,"Ġann":2423,"AG":2424,"umber":2425,"Ġauthor":2426,"yt":2427,"Ġsection":2428,"ĠEnglish":2429,"ĠÃ":2430,"Ġstop":2431,"]).":2432,"oddsidemargin":2433,"Al":2434,"Ġincrease":2435,"Ġrange":2436,"Ġeffects":2437,"atter":2438,"Ġwoman":2439,"ibr":2440,"47":2441,"Ġseen":2442,"Gamma":2443,"ails":2444,"olve":2445,"bu":2446,"off":2447,"vention":2448,"mm":2449,"Ġdoesn":2450,"Ġdegree":2451,"Ġrespons":2452,"Ġcomput":2453,"Ġcomponent":2454,"Ġflu":2455,"Ġlarger":2456,"Ġtradition":2457,"ife":2458,"Ġ([@":2459,"Ġtax":2460,"02":2461,"ĠAss":2462,"ĠâĢĺ":2463,"Ġperfect":2464,"rec":2465,"ĠÎ":2466,"ĠGeneral":2467,"Ġbase":2468,"Ġproperty":2469,"ges":2470,"Ġincreased":2471,"Ġbecome":2472,"Ġtalk":2473,"Ġbackground":2474,"Ġproteins":2475,"Ġsource":2476,"ental":2477,"Ġfactors":2478,"At":2479,"App":2480,"ĠMar":2481,"unch":2482,"ĠJune":2483,"ĠJapan":2484,"Ġmor":2485,"ymmet":2486,"Ġphot":2487,"There":2488,"Ġpack":2489,"Ġcomponents":2490,"www":2491,"Ġcannot":2492,"Ġservice":2493,"69":2494,"Ġbit":2495,"Ġmult":2496,"Ġobserved":2497,"Ġacknowled":2498,"Ġcomplex":2499,"Ġeyes":2500,"08":2501,"Ġimage":2502,"Ġhyper":2503,"Ġtext":2504,"ware":2505,"Ph":2506,"Ġsepar":2507,"Ġred":2508,"isc":2509,"Ġmatrix":2510,"Ġcountry":2511,"Ġrequires":2512,"Ġlove":2513,"Col":2514,"ij":2515,"istic":2516,"\"}).":2517,"Ġuseful":2518,"Ġbook":2519,"unt":2520,"Ġfixed":2521,"Ġproceed":2522,"Ġcircumstances":2523,"value":2524,"ering":2525,"Ġcompanies":2526,"CC":2527,"roid":2528,"Ġmonths":2529,"Ġmiss":2530,"Ġregard":2531,"Ġuser":2532,"ĠHealth":2533,"cc":2534,"ÂłÂłÂłÂłÂłÂł":2535,"Ġconduct":2536,"head":2537,"Ġthought":2538,"mp":2539,"Ġearly":2540,"Ġdoing":2541,"Ġorigin":2542,"Ġcult":2543,"ĠSee":2544,"ĠFlorida":2545,"Ġcreate":2546,"Data":2547,"reed":2548,"Ġregion":2549,"inter":2550,"ĠCanad":2551,"Ġmeet":2552,"Ġeducation":2553,"iles":2554,"Ġcandid":2555,"78":2556,"Ġratio":2557,"Ġcalcul":2558,"upplementary":2559,"Ġep":2560,"ĠWednesday":2561,"file":2562,"Ġspecial":2563,"Ġdescribed":2564,"ished":2565,"Ġcompletely":2566,"Ġdeath":2567,"mathrm":2568,"No":2569,"%)":2570,"Ġprob":2571,"ipp":2572,"ese":2573,"ensive":2574,"olic":2575,"esc":2576,"Ġactually":2577,"Ġpositive":2578,"Ġexecut":2579,"Ġindustry":2580,"lim":2581,"Ġcompany":2582,"ĠApril":2583,"Ġenjoy":2584,"known":2585,"Ġseason":2586,"Ġearlier":2587,"Ġneighb":2588,"irm":2589,"inary":2590,"Ġcontent":2591,"Ġsignal":2592,"ĠJuly":2593,"Ġacross":2594,"Ġspe":2595,")*":2596,"bit":2597,"Ġdefinition":2598,"ĠÐ":2599,"ried":2600,"Ġquant":2601,"Ġfootball":2602,"Ġamount":2603,"ĠLe":2604,"ĠBl":2605,"ĠCircuit":2606,"Ġrather":2607,"\");":2608,"Ġonce":2609,"Ġreasons":2610,"Ġtown":2611,"ĠMr":2612,"Ġq":2613,"\"/>":2614,"Ġcut":2615,"ĠPr":2616,"bib":2617,"ĠAN":2618,"ĠFig":2619,"}{\\":2620,"ĠBr":2621,"Ġmatter":2622,"ogen":2623,"Ġchild":2624,"AB":2625,"+\\":2626,"Ġfive":2627,"Ġpick":2628,"OM":2629,"Ġshows":2630,"OS":2631,"Ġtumor":2632,"amework":2633,"Ġsaf":2634,"Ġperformed":2635,"ivers":2636,"Ġshowed":2637,"Ġdam":2638,"Ġbelow":2639,"ĠIsrael":2640,"Ġweight":2641,"ĠAmerican":2642,"icrosoft":2643,"Ġrelevant":2644,"ĠIN":2645,"eration":2646,"delta":2647,"Ġroom":2648,"Ġmembers":2649,"ĠSec":2650,"Ġbar":2651,"Ġfactor":2652,"big":2653,"Ġproject":2654,"Ġreach":2655,"ective":2656,"Ġdeb":2657,"Ġfelt":2658,"Ġmar":2659,"Ġcame":2660,"Ġsystems":2661,"Ġopinion":2662,"ĠSupreme":2663,"apt":2664,"Ġproduct":2665,"Ġhouse":2666,"ĠGod":2667,"Ġhttp":2668,"Ġmus":2669,"resh":2670,"Ġadjust":2671,"rew":2672,"ple":2673,"ache":2674,"Ġspect":2675,"den":2676,".)":2677,"ĠĠĠĠĠĠĠĠĠĠĠĠĠĠĠĠĠ":2678,"ĠMay":2679,"001":2680,"Ġwriting":2681,"Ġliter":2682,"09":2683,"Ġver":2684,"Ġobtained":2685,"Ġcause":2686,"Ġdem":2687,"ols":2688,"Ġcounter":2689,"no":2690,"Ġwebsite":2691,"Ġtook":2692,"Ġsite":2693,"Ġmakes":2694,"Ġaccount":2695,"ously":2696,"Ġchanged":2697,"year":2698,"Ġcoupl":2699,"Ġ(*":2700,"Ġ...":2701,")(":2702,"86":2703,"07":2704,"Ġdiv":2705,"ibility":2706,"$\\":2707,"Ġnight":2708,"Ġexperiments":2709,"test":2710,"ĠSu":2711,"Ġlearning":2712,"So":2713,"Ġever":2714,"ones":2715,"onal":2716,"Ġnecessarily":2717,"Ġdoubt":2718,"Ġhom":2719,"ouncil":2720,"IM":2721,"Ġexperience":2722,"Ġbeyond":2723,"03":2724,"Ġcontrib":2725,"Ġdeal":2726,"Ġvarious":2727,"Ġbuilt":2728,"FF":2729,"'d":2730,"Ġwhole":2731,"Ġra":2732,"Ġutil":2733,"ino":2734,"irect":2735,"ender":2736,"ving":2737,"Ġdecre":2738,"Ġconsidered":2739,"ĠAm":2740,"Ġadded":2741,"Ġ$(":2742,"+++++++++++++++++++++":2743,"Ġrelated":2744,"anch":2745,"Ġclos":2746,"Ġtowards":2747,"theta":2748,"ĠOne":2749,"la":2750,"Ġoccur":2751,"code":2752,"Ġyet":2753,"Ġdoc":2754,"Ġanalyses":2755,"Ġyoung":2756,"Ġconcentrations":2757,"Ġtouch":2758,"Ġtem":2759,"exp":2760,"Ġbinding":2761,"^\\":2762,"illed":2763,"Ġdecided":2764,"yd":2765,"Ġdefined":2766,"Ġaddress":2767,"ero":2768,"Ġinterpret":2769,"Ġbirth":2770,"Ġtherapy":2771,"49":2772,"Ġprincip":2773,"Figure":2774,"Ġloss":2775,"After":2776,"Ġfully":2777,"see":2778,"*,":2779,"Ġconcentration":2780,"Ġblock":2781,"Ġtissue":2782,"Ġsynth":2783,"ĠAugust":2784,"Â°":2785,"verse":2786,"OP":2787,"material":2788,"87":2789,"ĠBe":2790,"Ġprogress":2791,"Ġillustr":2792,"Ġmut":2793,"ĠWith":2794,"ĠĠĠĠĠĠĠĠĠĠĠĠĠĠĠĠĠĠĠĠĠĠĠĠĠĠĠĠĠĠĠĠĠĠĠĠĠĠĠĠĠĠĠĠĠĠĠĠĠĠĠĠĠĠĠĠĠĠĠĠĠĠĠĠĠĠĠĠĠĠĠĠĠĠĠĠĠĠĠĠĠĠĠĠĠĠĠĠĠĠĠĠĠĠĠĠ":2795,"Ġnull":2796,"Ġexactly":2797,"aaaaaaaaaaaaaaaaaaa":2798,"Ġconsist":2799,"ĠDistrict":2800,"Ġcouple":2801,"46":2802,"ĠThen":2803,"ulated":2804,"Ġsex":2805,"rc":2806,"partial":2807,"Ġsolution":2808,"ocal":2809,"Ġwrote":2810,"Ġcommunity":2811,"Ġstruct":2812,"ĠCar":2813,"Ġcross":2814,"$-":2815,"57":2816,"Ġsearch":2817,"atus":2818,"xi":2819,"Ġstates":2820,"Ġwent":2821,"param":2822,"esis":2823,"ĠCent":2824,"ĠĠĠĠĠĠĠĠĠĠĠĠ":2825,"42":2826,"nbsp":2827,"face":2828,"ĠDecember":2829,"![":2830,"me":2831,"Ġdecision":2832,"ĠAfric":2833,"ged":2834,"Sp":2835,"Ċĉĉĉĉ":2836,"leq":2837,"')":2838,"Manager":2839,"uff":2840,"iation":2841,"Ġassess":2842,"Ġsubject":2843,"Ġmix":2844,"Ġbill":2845,"Ġtravel":2846,"Ġmind":2847,"ĠĊ":2848,"Ġland":2849,"Ġseem":2850,"Ġapplications":2851,"Ġur":2852,"Ġmaint":2853,"Ġarrest":2854,"Ġdevice":2855,"rol":2856,"Ġtrying":2857,"Ġincluded":2858,"âķĲâķĲâķĲâķĲâķĲâķĲâķĲâķĲâķĲâķĲâķĲâķĲâķĲâķĲâķĲâķĲ":2859,"Ġrequest":2860,"Ġsleep":2861,"UT":2862,"atrix":2863,"Ãĥ":2864,"Ġpers":2865,"ĠPat":2866,"ining":2867,"ãĤ":2868,"iate":2869,"Ġexam":2870,"Ġcard":2871,"Ġextr":2872,"Ġbecomes":2873,"SS":2874,"body":2875,"go":2876,"89":2877,"Ġtoday":2878,"Ġrespectively":2879,"iction":2880,"Ġmatch":2881,"IR":2882,"aid":2883,"Ġinternational":2884,"ÂĤ":2885,"raft":2886,"Ġimplement":2887,"izing":2888,"Ġclose":2889,"evelop":2890,"Ġface":2891,"used":2892,"older":2893,"Ġmagn":2894,"ĠFacebook":2895,"],[@":2896,"aging":2897,"ĠSe":2898,"Ġotherwise":2899,"size":2900,"Ġ},":2901,"/*":2902,"itting":2903,"ĠMore":2904,"ike":2905,"IL":2906,"Ġadditional":2907,"ĠAct":2908,"Ġentire":2909,"oh":2910,"Ġsix":2911,"ternal":2912,"Ġtable":2913,"Ġcity":2914,"lying":2915,"Ġsignificantly":2916,"Ġanything":2917,"CL":2918,"}}\\":2919,"emb":2920,"ĠMichael":2921,"Ġflo":2922,"Ġpatient":2923,"odes":2924,"etition":2925,"Ġnetwork":2926,"Ġvictim":2927,"Ġreleased":2928,"ĠÂ§":2929,"Ġbound":2930,"ips":2931,"Ġdig":2932,"06":2933,"ĠMy":2934,"Ġhusband":2935,"Ġflow":2936,"ck":2937,"Ġbring":2938,"43":2939,"Ġinfluence":2940,"Ġlink":2941,"Ġir":2942,"Ġgrowth":2943,"actions":2944,"Ġlength":2945,"ises":2946,"ief":2947,"istance":2948,"Ġneeds":2949,"---------------------------------------------------------------------------------------------------------------------------------------------------------------------------------------------------------------------------------------------------------------------------------------------------------------------------":2950,"Ġfigure":2951,"aged":2952,"Ġvar":2953,"ĠMed":2954,"struct":2955,"ervice":2956,"IP":2957,"Ġtw":2958,"Ġrelatively":2959,"Ġmitochondri":2960,"other":2961,"ops":2962,"asc":2963,"Ġcelebr":2964,"93":2965,"mathfrak":2966,"cy":2967,"Ġgetting":2968,"na":2969,"Ġsometimes":2970,"Ġensure":2971,"Ġphosph":2972,"times":2973,"Ġâ":2974,"Ġsubs":2975,"False":2976,"mer":2977,"Refer":2978,"Ġbottom":2979,"Ġ\\\\":2980,"Ġalcohol":2981,"Ġsimple":2982,"my":2983,"Ġquickly":2984,"ĠCommittee":2985,"bf":2986,"Ġwin":2987,"position":2988,"Ġalleged":2989,"Ġlooking":2990,"Table":2991,"Ġmyself":2992,"])":2993,"Ġprocedure":2994,"tau":2995,"Ġintro":2996,"ults":2997,"Ġanti":2998,"Ġattack":2999,"EC":3000,"Ġdifference":3001,"Get":3002,"ĠCont":3003,"Ġhref":3004,"EM":3005,"Ġmethods":3006,"Ġportion":3007,"UR":3008,"Ġseries":3009,"Ġparty":3010,"nu":3011,"Ġperformance":3012,"ication":3013,"ENT":3014,"based":3015,"ider":3016,"Ġproblems":3017,"Ġvia":3018,"Ġlegisl":3019,"Ġbrief":3020,"ĠAustral":3021,"Ġplaintiff":3022,"Ġchannel":3023,"Ġinput":3024,"Ġhundred":3025,"tor":3026,"do":3027,"Ġthus":3028,"Ġdaily":3029,"84":3030,"opt":3031,"Ġcircuit":3032,"Im":3033,"ĠInc":3034,"ram":3035,"Ġmark":3036,"92":3037,"Ġ21":3038,"IV":3039,"Index":3040,"Ġanimals":3041,"Â±":3042,")}":3043,"ĠBy":3044,"Ġdestroy":3045,"Ðµ":3046,"All":3047,"US":3048,"Ġbacter":3049,"56":3050,"Ġhapp":3051,"à¤":3052,"Ġservices":3053,"Ġaccept":3054,"~~~":3055,"Ġtherefore":3056,"comp":3057,"Ġnearest":3058,"net":3059,"âĶĢâĶĢâĶĢâĶĢâĶĢâĶĢâĶ":3060,"OL":3061,"Ġneeded":3062,"Ġexpected":3063,"ilities":3064,"Ãĳ":3065,"atal":3066,"ĠMc":3067,"ference":3068,"Ð°":3069,"ging":3070,"ĠResearch":3071,"uments":3072,"path":3073,"ĠNULL":3074,"anks":3075,"rim":3076,"Ġpattern":3077,"Ġreli":3078,"Ġpopulation":3079,"Ġcapacity":3080,"ĠGovernment":3081,"Ġinstead":3082,"ĠDef":3083,"Ġexpect":3084,"dimensional":3085,"Ġfilm":3086,"miss":3087,"With":3088,"anding":3089,"Ġblack":3090,"Ġremoved":3091,"How":3092,"rown":3093,"Ġplaced":3094,"Ġhost":3095,"Ġang":3096,"Ġshall":3097,"Ġfun":3098,"list":3099,"oud":3100,"Ġcivil":3101,"Ġwitness":3102,"En":3103,"Ġbegin":3104,"When":3105,"https":3106,"Ġrecent":3107,"idence":3108,"Ġproduction":3109,"Ġ$$":3110,"init":3111,"Ġlines":3112,"Ġseems":3113,"umb":3114,"Gr":3115,"Ġwor":3116,"Set":3117,"Ġfall":3118,"with":3119,"--------------------------":3120,"ived":3121,"like":3122,"76":3123,"trans":3124,"Ġter":3125,"ales":3126,"ener":3127,"ĠCor":3128,"Ġmachine":3129,"41":3130,"ethod":3131,"Ġupper":3132,"Ġjob":3133,"ĠBoard":3134,"ĠPaul":3135,"AA":3136,"Ġnamed":3137,"Ġstory":3138,"Ġpolice":3139,"Ġstar":3140,"TR":3141,"That":3142,"Ġask":3143,"ĠRo":3144,"Ġcomparison":3145,"Ġsyndrome":3146,"By":3147,"\\\\":3148,"));":3149,"Ġsched":3150,"Ġcomes":3151,"Ġstudents":3152,"pts":3153,"Ġplatform":3154,"}$,":3155,"Ġ(-":3156,"ĠNot":3157,"document":3158,"Ġcolor":3159,"Ġgene":3160,"Ġ40":3161,"\";":3162,"Ġbad":3163,"Ġexposure":3164,"Ġquality":3165,"91":3166,"xy":3167,"field":3168,"ĊĠĠĠĠĠĠĠĠĠĠĠĠĠĠĠĠĠĠĠĠĠĠĠ":3169,"ĠMin":3170,"Ġoutput":3171,"Ġsomeone":3172,"Ġ/*":3173,"Ġmeasures":3174,"anced":3175,"Ġmodels":3176,"uk":3177,"Ġcredit":3178,"TH":3179,"Ġlearn":3180,"Ġtaking":3181,"Ġstarted":3182,"px":3183,"Ġcharacteristics":3184,"Ġpage":3185,"Ġdocument":3186,"lin":3187,"word":3188,"Ġpain":3189,"ĠYork":3190,"Ġinsurance":3191,"Ġmedia":3192,"Ġprovides":3193,"light":3194,"top":3195,"Ġload":3196,"icles":3197,"iting":3198,"Ġitself":3199,"ii":3200,"Ġ22":3201,"Ġstraight":3202,"RNA":3203,"ĠEn":3204,"ĠThus":3205,"ulations":3206,"fort":3207,"}$.":3208,"pre":3209,"ĠĠĠĠĠĠĠĠĠĠĠĠĠĠĠ":3210,"Pl":3211,"down":3212,"ially":3213,"++":3214,"Ġpanel":3215,"53":3216,"ĠMan":3217,"normal":3218,"come":3219,"Ġ28":3220,"Ġtestimony":3221,"aj":3222,"Ġheart":3223,"wo":3224,"urch":3225,"cal":3226,"isplay":3227,"Ġindependent":3228,"ĠDr":3229,"astic":3230,"ython":3231,"sl":3232,"osition":3233,"^*":3234,"Ġide":3235,"Ġlive":3236,"erve":3237,"Ġwatch":3238,"Ġjud":3239,"Ġrights":3240,"Ġcitizens":3241,"Ġcontract":3242,"Ġcoll":3243,"Ġconv":3244,"width":3245,"Ġ||":3246,"54":3247,"reate":3248,"ĠTrump":3249,"Ġchemical":3250,"ĠNational":3251,"ĠSaturday":3252,"Ġdiagn":3253,"define":3254,"Ġexperienced":3255,"Add":3256,"ĠDavid":3257,"sub":3258,"Ġtherapeutic":3259,"ounts":3260,"Ġconc":3261,"Override":3262,"Ġhypoth":3263,"Delta":3264,"ĊĠĠĠĠĠĠ":3265,"ĠSouth":3266,"Ġrapid":3267,"Ġexercise":3268,"ux":3269,"mathrsfs":3270,"Ġprinciples":3271,"Mod":3272,"Ġparallel":3273,"eff":3274,"ester":3275,"but":3276,"Ġ27":3277,"Ġfunctions":3278,"Ġsimply":3279,"state":3280,"Ġspecifically":3281,"Ġphenomen":3282,"ĠWilli":3283,"Ġimport":3284,"ĠOF":3285,"Ġsurgery":3286,"vis":3287,"ĠGeorge":3288,"Ġphase":3289,"acc":3290,"Ġcorrel":3291,"Ġcal":3292,"ĠCongress":3293,"Ġwalk":3294,"Ġliquid":3295,"Ġstrategy":3296,"Ġdim":3297,"XXXXXXXXXXXXXXXXXXX":3298,"Ġindex":3299,"Ġalternative":3300,"ying":3301,"|\\":3302,"PS":3303,"ĠInternational":3304,"Ġfront":3305,"Ġsample":3306,"Ġmentioned":3307,"Ġvelocity":3308,"83":3309,"ãĥ":3310,"Ġdepend":3311,"Ġsil":3312,"Simplify":3313,"Ġinstall":3314,"oke":3315,"Ġformer":3316,"Ġvalid":3317,"vel":3318,"Ġprepared":3319,"Ġpersonal":3320,"Ġneuro":3321,"Sec":3322,"Ġdraw":3323,"Ġcontact":3324,"Ġdespite":3325,"aving":3326,"oes":3327,"Ġcoordin":3328,"circ":3329,"Ġfemale":3330,"ĠAg":3331,"Text":3332,"ird":3333,"ĠCity":3334,"Int":3335,"Ġworks":3336,"+-+-+-+-+-+-+-+-+-+-+-+-+-+-+-+":3337,"ĠNorth":3338,"Ġdetermined":3339,"Ġpresence":3340,"çļĦ":3341,"ĠSimilar":3342,"Ġprec":3343,"Ġimproved":3344,"($":3345,"Ġcopy":3346,"Ġmedical":3347,"perty":3348,"bed":3349,"dom":3350,"Ġsqu":3351,"ĠAdd":3352,"Ġ26":3353,"ians":3354,"Request":3355,"Ġeye":3356,"Ġconsum":3357,"Ġground":3358,"Ġstatic":3359,"Ġbur":3360,"Ġevents":3361,"char":3362,"ĠPennsylvania":3363,"array":3364,"Ġinvest":3365,"PE":3366,"Ġ23":3367,"Ġminimum":3368,"ards":3369,"\\*":3370,"Ġsurvival":3371,"ana":3372,"čĊĠĠĠ":3373,"Calculate":3374,"Ġconfirmed":3375,"where":3376,"Ġdanger":3377,"Ġarray":3378,"Ġsense":3379,"iated":3380,"reet":3381,"aves":3382,"ĠInt":3383,"Ġdate":3384,"ements":3385,"Ġeffective":3386,"Ġtypes":3387,"ĠCD":3388,"Ġsemiconductor":3389,"Ġlack":3390,"Ġsociety":3391,"ĠTwitter":3392,"Ġperhaps":3393,"Ġassum":3394,"Ġgenes":3395,"ĠString":3396,"52":3397,"My":3398,"OD":3399,"Ġanalyzed":3400,"oper":3401,"ags":3402,"github":3403,"Ġprofessional":3404,"Ġcreat":3405,"Ġcharg":3406,"fully":3407,"Ġlinks":3408,"Ġeverything":3409,"Ġ&&":3410,"File":3411,"Ġwrong":3412,"Ġremain":3413,"Ġassociation":3414,"MS":3415,"Ġemployees":3416,"Ġdecl":3417,"Ġofficer":3418,"formation":3419,"58":3420,"EL":3421,"ĠĠĠĠĠĠĠĠĠĠĠĠĠĠĠĠĠĠĠĠĠĠĠĠĠĠĠĠĠĠĠĠĠĠĠĠĠĠĠĠ":3422,"ĠÂ±":3423,"eat":3424,"Ġlonger":3425,"ĠWARRANT":3426,"utes":3427,"hibition":3428,"]{},":3429,"Ġinside":3430,"cm":3431,"Ġdetermine":3432,"Ġnews":3433,"ĠPar":3434,"Ġconstit":3435,"Par":3436,"Ġpresented":3437,"Ġdegrees":3438,"Ġeasy":3439,"const":3440,"Re":3441,"Ġefficient":3442,"Ed":3443,"place":3444,"ean":3445,"Ġquite":3446,"Ġhuge":3447,"Ġidentified":3448,"Ġcreated":3449,"ymb":3450,"Bu":3451,"Ġprevent":3452,"Ġacid":3453,"public":3454,"Ġrunning":3455,"Ġfaith":3456,"59":3457,"Ġsamples":3458,"Ġrender":3459,"Ġcamera":3460,"Ġsuggests":3461,"sim":3462,"Ġstatus":3463,"ze":3464,"usion":3465,"Ġbasis":3466,"ĠGu":3467,"Ġbre":3468,"subset":3469,"Ġenzym":3470,"ronic":3471,"acts":3472,"Âĥ":3473,"Ġtechniques":3474,"Ġstorage":3475,"ĠLondon":3476,"Ġstay":3477,"Ġhistor":3478,"Ġparameters":3479,"ĠComp":3480,"roph":3481,"Ġwanted":3482,"ening":3483,"74":3484,"write":3485,"Object":3486,"Ġmember":3487,"Ġfollows":3488,"Ġcontext":3489,"Ġadvantage":3490,"Ġcontroll":3491,"Ġappellant":3492,"Ġstatement":3493,"aven":3494,"ients":3495,"ills":3496,"Ġinflamm":3497,"72":3498,"Sigma":3499,"Ġforces":3500,"Ġprint":3501,"Ġcriminal":3502,"active":3503,"arr":3504,"ÑĤ":3505,"Ps":3506,"81":3507,"ections":3508,"Ġareas":3509,"Ġfire":3510,"Ġbiggest":3511,"}(\\":3512,"Sc":3513,"82":3514,"Ġvoice":3515,"Ġwhite":3516,"now":3517,"Ġphys":3518,"Ġisn":3519,"ĊĊĊ":3520,"79":3521,"Ġelements":3522,"aut":3523,"imate":3524,"Ġoil":3525,"51":3526,"Ġselect":3527,"Ġdirectly":3528,"Ġpicture":3529,"erson":3530,"Ġ?":3531,"Ġpair":3532,"que":3533,"Ġconstant":3534,"ades":3535,"âĢĲ":3536,"ever":3537,"Ġrespond":3538,"ept":3539,"Ġdeep":3540,"Ġago":3541,"ken":3542,"ission":3543,"amespace":3544,"Ġsurround":3545,"Ġsomew":3546,"Ġsqrt":3547,"Not":3548,"ĠTexas":3549,"vironment":3550,"Ġpurposes":3551,"63":3552,"omorph":3553,"iet":3554,"Ġmemory":3555,"Ġtransfer":3556,"specific":3557,"dev":3558,"Ġimpact":3559,"Ġforce":3560,"unc":3561,"OC":3562,"Ġcry":3563,"Ġgames":3564,"ĠVirginia":3565,"Ġtheory":3566,"UN":3567,"Ġstri":3568,"ague":3569,"Ġsmooth":3570,"Ġtraining":3571,"ĠĠĠĠĠĠĠĠĠĠĠĠĠĠĠĠ":3572,"Ġrepresents":3573,"ĠIm":3574,"itation":3575,"sk":3576,"induced":3577,"gl":3578,"ĠBritish":3579,"Ã¡":3580,"msg":3581,"ster":3582,"rum":3583,"Ġlayer":3584,"ĠPart":3585,"Ġavoid":3586,"Ġsett":3587,"sw":3588,"ĊĠĠĠĠĠĠĠĠ":3589,"Ġ(\\[":3590,"Ġunit":3591,"Key":3592,"rangle":3593,"nonumber":3594,"oma":3595,"Ġgas":3596,"elling":3597,"Ġlargest":3598,"Ġarchitect":3599,"Ġple":3600,"ĠDNA":3601,"Ġdistinct":3602,"Ġattorney":3603,"otion":3604,"Ġmer":3605,"Ġbuilding":3606,"ĠHis":3607,"term":3608,"max":3609,"ĠSystem":3610,"73":3611,"ners":3612,"ĠHow":3613,"ensuremath":3614,"Ġmembrane":3615,")$.":3616,"Ġofficers":3617,"Ġgreater":3618,"rows":3619,"Ġscreen":3620,"clus":3621,"Ġcontain":3622,"Ġslightly":3623,"BC":3624,"\\])":3625,"Ġshare":3626,"ĠId":3627,"from":3628,"Ġlimited":3629,"Or":3630,"gn":3631,"Ġautomatically":3632,"Ġmice":3633,"PL":3634,"mun":3635,"Ġrelease":3636,"Ġstrugg":3637,"lege":3638,"Ġmap":3639,"Ġpreviously":3640,"Ġdiabetes":3641,"ML":3642,"Ġbehavior":3643,"Ġdistrict":3644,"Ġsaw":3645,"\".":3646,"Ġwait":3647,"Ġtitle":3648,"Ġincludes":3649,"Ġreduced":3650,"Ġmechan":3651,"Ġlatest":3652,"ros":3653,"unction":3654,"ĠTherefore":3655,"hood":3656,"SD":3657,"pen":3658,"ĠChinese":3659,"ae":3660,"ribute":3661,"js":3662,"Ġability":3663,"Ġconventional":3664,"Ġnational":3665,"Ġoption":3666,"err":3667,"ĠOur":3668,"alt":3669,"Ġannounced":3670,"Ġword":3671,"Ġsevere":3672,"Ġmis":3673,"Ġexpress":3674,"71":3675,"Ġscript":3676,"ĠAb":3677,"ĠFoundation":3678,"Ġer":3679,"Ġexchange":3680,"Ġforward":3681,"Ġmessage":3682,"version":3683,"ÃĤ":3684,"Ġstyle":3685,"Ġ60":3686,"Ġclaims":3687,"Ġdeveloped":3688,"ĠChicago":3689,"Ġarticle":3690,"Ġalgebra":3691,"requ":3692,"ĠFriday":3693,":**":3694,"Ġmurder":3695,"apter":3696,"item":3697,"ploy":3698,"ped":3699,"Ġsequ":3700,"Ġquarter":3701,"Ġantibodies":3702,"quad":3703,"ĠEd":3704,"ha":3705,"cell":3706,"oring":3707,"Ġaccom":3708,"().":3709,"Ġarrang":3710,"length":3711,"map":3712,"ĠCalculate":3713,".'":3714,"Ġimpl":3715,"Ġrepeated":3716,"CD":3717,"Ġpresident":3718,"atives":3719,"Ġinvention":3720,"Ġhot":3721,"ĠAP":3722,"summary":3723,"des":3724,"otic":3725,"Ġreceptor":3726,"ament":3727,"ayout":3728,"Ġcommercial":3729,"Ġwrite":3730,"Ġdriving":3731,"Def":3732,"Ġcompleted":3733,"Ð¸":3734,"Ġ-----":3735,"Ġnumbers":3736,"Ġplayers":3737,"itted":3738,"pty":3739,"SP":3740,"0000":3741,"Ġwhatever":3742,"Ġresid":3743,"Ġstimul":3744,"Ġreference":3745,"Ġ2012":3746,"]^":3747,"Ġheavy":3748,"62":3749,"Ġfollowed":3750,"ĠJust":3751,"ĠRuss":3752,"Ġcoming":3753,"EX":3754,"Ġparticularly":3755,"Ġdiseases":3756,"Ġinhibit":3757,"âĢĶâĢĶâĢĶâĢĶâĢĶâĢĶâĢĶâĢĶâĢĶâĢĶâĢĶâĢĶâĢĶ":3758,"Ġprimarily":3759,"oon":3760,"Ġgrad":3761,"ocation":3762,"Ġequivalent":3763,"Ġappeared":3764,")=":3765,"pped":3766,"IF":3767,"Ġequipment":3768,"ential":3769,"Ġleave":3770,"ĠSince":3771,"ĠReg":3772,"ĠMonday":3773,"Ġactive":3774,"ĠWhile":3775,"omic":3776,"eless":3777,"ĠPol":3778,"Ġ;":3779,"Ġmobile":3780,"kappa":3781,"Ġcarbon":3782,"Ġnegative":3783,"iven":3784,"nabla":3785,"Ġdefault":3786,"idge":3787,"bi":3788,"Ġincorpor":3789,"Ġap":3790,"ĠST":3791,"ĠWestern":3792,"]{":3793,"Ġrout":3794,"Ġcorresponding":3795,"Ġ[*":3796,"ett":3797,"Ġwindow":3798,"group":3799,"Ġdouble":3800,"Ġproportion":3801,"ĠOR":3802,"room":3803,"Ġnature":3804,"oo":3805,"Ġdefendants":3806,"ailed":3807,"Ġspecies":3808,"Ġlate":3809,"Ġusually":3810,"Ġinfrastructure":3811,"ula":3812,"ĠPer":3813,"Qu":3814,"Ġtrack":3815,"ened":3816,"link":3817,"Ġvot":3818,"ï¼Į":3819,"ä¸":3820,"Ġrule":3821,"Ġrates":3822,"Ġdifferences":3823,"sm":3824,"ĠHere":3825,"encies":3826,"Ġillegal":3827,"Ġliving":3828,"Ġsurvey":3829,"Ġprop":3830,"Ġoffice":3831,"Ġetc":3832,"61":3833,"Ġorg":3834,"Ġalthough":3835,"ptions":3836,"Ġ2013":3837,"ville":3838,"bert":3839,"Ġwhose":3840,"ĠInstitute":3841,"Ġnote":3842,"eline":3843,"Ġglobal":3844,"Ġbox":3845,"ĠAfghanistan":3846,"Ġpurch":3847,"Ġoffer":3848,"Ġpractice":3849,"Ġbrain":3850,"Ġtried":3851,"ils":3852,"Ġregular":3853,"ĠVal":3854,"Ġest":3855,"urg":3856,"Ġonline":3857,"Ġlibrary":3858,"false":3859,"Ġgrant":3860,"Ġhar":3861,"Ġinstance":3862,"Ġ2016":3863,"ĠFin":3864,"Ġcompet":3865,"Ġspirit":3866,"ĠSmith":3867,"anging":3868,"Ġgenerally":3869,"ĠTechn":3870,"orizontal":3871,"Ġlost":3872,"Ġappeal":3873,"sing":3874,"ĠQu":3875,"MA":3876,"Ġrecently":3877,"Ġabsolutely":3878,"Ġbroad":3879,"Ġbalance":3880,"Ġconclud":3881,"Ġjobs":3882,"ĠRec":3883,"Ġpredict":3884,"Ġ[**":3885,"aries":3886,"print":3887,"Ġaccur":3888,"Ġwall":3889,"Ġapproved":3890,"psi":3891,"CA":3892,"ours":3893,"Ġ2014":3894,"Ġthemselves":3895,"user":3896,"ns":3897,"stance":3898,"ĠDe":3899,"oding":3900,"Ġcompl":3901,"ĠPhys":3902,"Ġanyone":3903,"Ġhope":3904,"Ġissued":3905,"Ġphilosoph":3906,"Ġtakes":3907,"lient":3908,"Ġcountries":3909,"ĠDes":3910,"Ġextremely":3911,"Ġuncertain":3912,"ĠMarch":3913,"Ġport":3914,"cd":3915,"Ġwarrant":3916,"ĠSunday":3917,"ducing":3918,"Ġcommittee":3919,"lation":3920,"ĠâĪĴ":3921,"Ġsaying":3922,"Ġexplicit":3923,"Ġstatist":3924,"Ġste":3925,"Ġball":3926,"Ġstress":3927,"bin":3928,"alysis":3929,"Ġ/>":3930,"ham":3931,"oe":3932,"Exception":3933,"----":3934,"ĠSome":3935,"}}$":3936,"Ġtreated":3937,"lib":3938,"Ġprefer":3939,"*~":3940,"Ġrev":3941,"osc":3942,"Item":3943,"stein":3944,"ĠII":3945,"ĠBar":3946,"chi":3947,"}=":3948,"ĠFirst":3949,"omy":3950,"Ġhimself":3951,"čĊ":3952,"Ġlegal":3953,"``":3954,"target":3955,"wide":3956,"Ġ!":3957,"ĠTheorem":3958,"Ġplasma":3959,"ĠMERCHANTABILITY":3960,"Ġsituation":3961,"Ġdelivery":3962,"ĠHouse":3963,"Ġdecisions":3964,"ĠIS":3965,"Ġguidelines":3966,"point":3967,"ĊĠĠĠĠĠĠĠĠĠĠĠĠĠ":3968,"^[@":3969,"Ġenh":3970,"((":3971,"ĠInter":3972,"Ġfreedom":3973,"Ġche":3974,"index":3975,"Ġcenter":3976,"\"><":3977,"ĠFrench":3978,"Ġ29":3979,"ball":3980,"Ġultimately":3981,"Ġbecame":3982,"ĠCir":3983,"Ġlymph":3984,"ĠChina":3985,"Ġ2015":3986,"Ġrelative":3987,"Ġoutcomes":3988,"ĠAmerica":3989,"Ġfeed":3990,"Ġspeed":3991,"âĢĥ":3992,"Ad":3993,"Ġsubsequent":3994,"Ġthousands":3995,"Ġways":3996,"igen":3997,"ĠOff":3998,"Test":3999,"One":4000,"ĠĠĠĠĠĠĠĠĠĠĠĠĠĠĠĠĠĠĠ":4001,"Ġguarant":4002,"lock":4003,"Ġfailed":4004,"Ġasp":4005,"Ġserious":4006,"Time":4007,"Ġefficiency":4008,"ĠTuesday":4009,"Ġge":4010,"rupt":4011,"ran":4012,"eng":4013,"Ġvers":4014,"break":4015,"amsfonts":4016,"Ġfast":4017,"Ġcateg":4018,"abor":4019,"Ġintegr":4020,"illing":4021,"Ġcriteria":4022,"upgreek":4023,"Ġpoor":4024,"lor":4025,"Ġuniform":4026,"Ġ);":4027,"wasysym":4028,"Ġapparatus":4029,"...\"":4030,"Ġhighly":4031,"\\].":4032,"rep":4033,"plit":4034,"Ġfib":4035,"['":4036,"Ġbudget":4037,"Ġisol":4038,"Ġfindings":4039,"Ġprice":4040,"003":4041,"ĠAc":4042,"rightarrow":4043,"Ġmax":4044,"Ġallowed":4045,"author":4046,"Ġderivative":4047,"Ġsufficient":4048,"Ġselected":4049,"Ġcharge":4050,"She":4051,"Ġill":4052,"Ġrestaur":4053,"CE":4054,"ĠĊĠĠĠĠĠĠĠĠĠĠĠĠĠĠĠ":4055,"ĠEm":4056,"Ġconstruct":4057,"ÃĲÂµ":4058,"Ġnode":4059,"Ġoperation":4060,"Ġcomment":4061,"izes":4062,"Ġlicense":4063,"Ġfit":4064,")$,":4065,"Ġscheme":4066,"ournal":4067,"===":4068,"Ġcognitive":4069,"that":4070,"uel":4071,"Ġteach":4072,"ĠGermany":4073,"Ġdesigned":4074,"Ġmeasured":4075,"rial":4076,"Ġvoltage":4077,"Ġgave":4078,"fil":4079,"Ġthreshold":4080,"base":4081,"Ġjury":4082,"Ġstage":4083,"Ġdetails":4084,"ancy":4085,"ĠSer":4086,"ãĢĤ":4087,"GF":4088,"Ġenforcement":4089,"PR":4090,"Ġindividuals":4091,"Ġsoon":4092,"Ġrot":4093,"ĠJudge":4094,"Ġassert":4095,"Ġidentify":4096,"Ġpolicies":4097,"icon":4098,"Ġimages":4099,"Ġeveryone":4100,"fn":4101,"Ġprocedures":4102,"Ġcurrently":4103,"Ġmetabol":4104,"Ġcaused":4105,"iness":4106,"Ġslow":4107,"Ġrecovery":4108,"Class":4109,"Ġalone":4110,"ocol":4111,"Ġapplicable":4112,"ĠAssociation":4113,"^^^^^^^^^^^^^^^^":4114,"PA":4115,"uses":4116,"######":4117,"Ġfriends":4118,"Ġlocation":4119,"Ġfeature":4120,"Ġque":4121,"asing":4122,"Ġwasn":4123,"Ġ2011":4124,"Ġaud":4125,"Ġvisit":4126,"ĠNow":4127,"};":4128,"Of":4129,"Ġgives":4130,"Ġintelligence":4131,"ublish":4132,"ĠTe":4133,"ĠAlthough":4134,"ris":4135,"Ġbank":4136,"Ġ2010":4137,"Ġinit":4138,"Ġfiles":4139,"BS":4140,"Ġcommand":4141,"TT":4142,"Ġsubstrate":4143,"ĠRepublic":4144,"Ġchoice":4145,"Ġproliferation":4146,"Ġround":4147,"Ġscale":4148,"Fr":4149,"Ġtraffic":4150,"ble":4151,"Ġord":4152,"Ġ:=":4153,"Ġobvious":4154,"molecules":4155,"Ġswitch":4156,"Ġattention":4157,"Ġroad":4158,"Ġchosen":4159,"NS":4160,"New":4161,"Ġbaby":4162,"Ġclust":4163,"ĠWar":4164,"Ġentitled":4165,"ersion":4166,"FL":4167,"itable":4168,"Ġfight":4169,"Ġsem":4170,"ued":4171,"Ġknew":4172,"ĠHamilton":4173,"Ġbegan":4174,"ius":4175,"Ġbreath":4176,"cast":4177,"urb":4178,"inated":4179,"Ġodd":4180,"Ġpull":4181,"ĠCons":4182,"Ġdaughter":4183,"zz":4184,"Ġduty":4185,"Ġleading":4186,"Ġoptions":4187,"Ġled":4188,"hold":4189,"ĠEngland":4190,"Ġ2017":4191,"ocytes":4192,"Ġwonder":4193,"Ġcrucial":4194,"call":4195,"Ġ///":4196,"Ġfailure":4197,"Ġgalax":4198,"Ġmother":4199,"Ġhear":4200,"(),":4201,"Ġprices":4202,"ocks":4203,"istry":4204,"df":4205,"king":4206,"Ġreligious":4207,"Ġnotice":4208,"ulate":4209,"Ġmanagement":4210,"Ġcook":4211,"Ġfrequency":4212,"Ġusers":4213,"Ġmarijuana":4214,"Ġthreat":4215,"ether":4216,"Ġbed":4217,"ture":4218,"Ġ->":4219,"Ġten":4220,"tt":4221,"ography":4222,"iding":4223,"Ġ\"\"":4224,"style":4225,"čĊĠ":4226,"Ġoxid":4227,"iring":4228,"ĠThursday":4229,"Ġunique":4230,"ĠCopyright":4231,"Path":4232,"Ġconflict":4233,"ellow":4234,"aker":4235,"Ġtechnology":4236,"encing":4237,"}_{\\":4238,"ĠSen":4239,"Ġcontains":4240,"ĠĠĠĠĠĠĠĠĠĠĠĠĠĠĠĠĠĠ":4241,"Ġvirtual":4242,"Ġemerg":4243,".*":4244,".\\":4245,"Ġson":4246,"ecting":4247,"ading":4248,"using":4249,"ani":4250,"Ġacqu":4251,"Ġbelieved":4252,"Ġcosts":4253,"ĠTH":4254,"Ġconnection":4255,"Ġsn":4256,"Ġpush":4257,"Ġprime":4258,"Ġfair":4259,"ifier":4260,"Ġexcellent":4261,"!!":4262,"Ġlib":4263,"ilit":4264,"Ġparts":4265,"Ġneither":4266,".[":4267,"Now":4268,"Ġapply":4269,"Ġbuy":4270,"aph":4271,"ĠMexico":4272,"Ġparties":4273,"Ġcentral":4274,"Ġserver":4275,"True":4276,"Ġhit":4277,"static":4278,"');":4279,"dis":4280,"Ġatmosphere":4281,"UL":4282,"Ġmulti":4283,"Rec":4284,"ĠWITHOUT":4285,"Ġoblig":4286,"Ġsort":4287,"Exp":4288,"Se":4289,"rad":4290,"Ġeth":4291,"());":4292,"Ġtim":4293,"pack":4294,"Ġfine":4295,"Ġexpressed":4296,"Ġequal":4297,"ama":4298,"ĠHar":4299,"Ġoverall":4300,"Ġ\\<":4301,"Ġtrigger":4302,"efore":4303,"Ġdistance":4304,"Ġgoal":4305,"Ġelection":4306,"ĠWindows":4307,"ube":4308,"adem":4309,"mand":4310,"Ġpen":4311,"Ġaim":4312,"otherapy":4313,"Ġsupported":4314,"Ġgovern":4315,"Ġheat":4316,"rain":4317,"Ġdead":4318,"Ġgenerated":4319,"Ġdog":4320,"varphi":4321,"SC":4322,"]--[@":4323,"^+":4324,"Ġestablished":4325,"Ġstated":4326,"Ġ31":4327,"Ġhousing":4328,"Ġallows":4329,"ĠTrans":4330,"Form":4331,"Ġwidth":4332,"Ġdevices":4333,"Ġsensitivity":4334,"OW":4335,"Ġlinear":4336,"American":4337,"ubuntu":4338,"ĠCal":4339,"Ġpolymer":4340,"Ġhospital":4341,"Ġengine":4342,"osing":4343,"Ġ($":4344,"ĠWest":4345,"Ġtemperatures":4346,"Ġguilty":4347,"Ġeasily":4348,"čĊĠĠĠĠĠĠĠ":4349,"Ġheight":4350,"Controller":4351,"From":4352,"They":4353,"ĠEl":4354,"Ġ<<":4355,"Ġboard":4356,"Ġdatas":4357,"Ġinvolving":4358,"Ġanalog":4359,"Ġsites":4360,"ĠIslam":4361,"Ġcontaining":4362,"abled":4363,"Ġexpansion":4364,"ground":4365,"State":4366,"Ġfinding":4367,"elle":4368,"Ġintr":4369,"enses":4370,"Ġremember":4371,"ĠJesus":4372,"Ġscenario":4373,"Ġdiss":4374,"MP":4375,"Ġimm":4376,"Ġcontinues":4377,"Ġ(\\":4378,"Ġhighest":4379,"Ġcritical":4380,"Ġlocated":4381,"urity":4382,"Ġfix":4383,"ĠFederal":4384,"='":4385,"Ġhop":4386,".$$":4387,"Ġ32":4388,"Ġdepartment":4389,"Ġparameter":4390,"Ġintensity":4391,"Ġproduced":4392,"Ġactivities":4393,"ĠInternet":4394,"Ġdiscl":4395,"Ġleaders":4396,"Ġeconomic":4397,"uration":4398,"ĠRed":4399,"Ġcollection":4400,"Ġfiled":4401,"._":4402,"Ġtrust":4403,"ĠSw":4404,"Ġexcept":4405,"Ġweb":4406,")-":4407,"Ġworth":4408,"Ġreduce":4409,"Des":4410,"ĠStud":4411,"Ġones":4412,"Ġpress":4413,"Ġclearly":4414,"eph":4415,"Ġlikelihood":4416,"Ġecho":4417,"ĠMod":4418,"Ġactual":4419,"){#":4420,"DA":4421,"Ġauthors":4422,"Ġmeaning":4423,"Ġinform":4424,"Ġprov":4425,"Ġmode":4426,"Ġemb":4427,"ÑĢ":4428,"title":4429,"}^{\\":4430,"vec":4431,"raz":4432,"ares":4433,"Ġvariable":4434,"Ġhumans":4435,"unk":4436,"hand":4437,"Ġhospitals":4438,"Ġstore":4439,"Ġarbitrary":4440,"Ġoppos":4441,"ĠAND":4442,"Ġax":4443,"Ġemphas":4444,"erate":4445,"Ab":4446,"Ġcourts":4447,"Ġles":4448,"Ġplant":4449,"ponse":4450,"Ġri":4451,"ĠDefendant":4452,"Ġstaff":4453,"anguage":4454,"Ġvs":4455,"*-":4456,"Ġqual":4457,"ĠNe":4458,"SA":4459,"Ġsound":4460,"Size":4461,"Ġinjury":4462,"Ġproof":4463,"ls":4464,"Ġbrought":4465,"Ġhands":4466,"onic":4467,"Ġstand":4468,"';":4469,"Ġdistinguish":4470,"ulf":4471,"Ġextra":4472,"Ġnutri":4473,"overline":4474,"Ġreduction":4475,"Ġshowing":4476,"here":4477,"Ġdiscovered":4478,"Ġsmaller":4479,"Ġreceive":4480,"related":4481,"Ġmid":4482,"Ġgoes":4483,"Ġadjacent":4484,"Ġnor":4485,"Ġdoor":4486,"Ġuses":4487,"ĠFurther":4488,"mark":4489,"Ġ2008":4490,"Ġve":4491,"Ġdark":4492,"Context":4493,"002":4494,"ĠChar":4495,"Ġtransition":4496,"Ġappears":4497,"attle":4498,"umn":4499,"Ġlimits":4500,"Ġrules":4501,"Ġhybrid":4502,"erved":4503,"Ġaw":4504,"Ġitems":4505,"------":4506,"Ġhon":4507,"langle":4508,"Ġcoefficients":4509,"Ġ35":4510,"Ġvector":4511,"Ġlooks":4512,"Ġheard":4513,"Ġremains":4514,"':":4515,"Ġculture":4516,"Ġcomputer":4517,"ATE":4518,"ĊĊĉ":4519,"color":4520,"Ġ__":4521,"enu":4522,"*.":4523,"Ġassembly":4524,"ĠGet":4525,"oses":4526,"ĠRev":4527,"ĠFrom":4528,"Ġsuffer":4529,"fortunately":4530,"Ġunderstanding":4531,"Ġhearing":4532,"Ġwidely":4533,"Ġnumer":4534,"icial":4535,"Ġpolynomial":4536,"ĠDemocr":4537,"Ġantibody":4538,"Ġinn":4539,"Filter":4540,"\\'":4541,"Ġdefinitely":4542,"py":4543,"Ġlooked":4544,"rier":4545,"Ġroot":4546,"Ġturned":4547,"Ġfat":4548,"Ġpossess":4549,"omb":4550,"Ġcarry":4551,"Ġsucceed":4552,"Ġworked":4553,"Ġconstruction":4554,"Ġli":4555,"Ġinsp":4556,"ĠGerman":4557,"Ð½":4558,"irt":4559,"Ġsurpr":4560,"Ġmajority":4561,"Ġskin":4562,"ĠPublic":4563,"ĠAngel":4564,"Ġlov":4565,"ĠĠĠĠĠĠĠĠĠĠĠĠĠĠĠĠĠĠĠĠĠĠĠĠĠĠĠĠĠĠĠĠĠĠĠĠĠĠĠĠĠĠĠĠĠĠĠĠĠĠĠĠĠĠĠĠĠĠĠĠĠĠĠĠĠĠĠĠ":4566,"Ġtransport":4567,"Ġmargin":4568,"Ġfundamental":4569,"half":4570,"Ġrob":4571,"pat":4572,"Ġplease":4573,"och":4574,"Ġregarding":4575,"Ġvariables":4576,"Ġinternal":4577,"Info":4578,"Ġproduce":4579,"Ñģ":4580,"Ġwrit":4581,"ĠÃĲ":4582,"Ġmortality":4583,"Ġinstructions":4584,"input":4585,")).":4586,"Ġexists":4587,"Ġtruly":4588,"Ġabsolute":4589,"ĠSyri":4590,"conn":4591,"Ġgonna":4592,"Ġbenefits":4593,"raph":4594,"Ġdrive":4595,"Ġdu":4596,"\":\"":4597,"Ġeight":4598,"ford":4599,"athemat":4600,"Ġsudden":4601,"ĠMon":4602,"RA":4603,"olar":4604,"ĠIraq":4605,"ights":4606,"Ġreports":4607,"Ġtask":4608,"ĠArizona":4609,"Ġresulting":4610,"Ġ2009":4611,"ĠCH":4612,"Ġpolit":4613,"gu":4614,")^":4615,"eah":4616,"Ġbecoming":4617,"ĠSchool":4618,"Ġ^":4619,"^{(":4620,"Ġgun":4621,"Ġdedicated":4622,"Ġfather":4623,"cap":4624,"Ġattached":4625,"Ġoccasion":4626,"Ġyield":4627,"stream":4628,"Ġelectro":4629,"ĠDo":4630,"Ġinterview":4631,"Ġcontrast":4632,"Ġindicated":4633,"amin":4634,"ecutive":4635,"ĠAccording":4636,")**":4637,"Ġinfection":4638,"Ġ/**":4639,"Ġsetting":4640,"Ġmedium":4641,"bm":4642,"Ġvitro":4643,"}}(":4644,"rate":4645,"Ġandroid":4646,"Ġinteresting":4647,"Ġmorning":4648,"lication":4649,"Ġdest":4650,"ĊĊĠĠĠĠĠĠĠĠĠĠĠ":4651,"Ġtheoretical":4652,"Ġcool":4653,"side":4654,"PC":4655,"ways":4656,"java":4657,"geq":4658,"ĠMassachusetts":4659,"Ġweak":4660,"Ġmaterials":4661,"node":4662,"Ġdrop":4663,"Ġreading":4664,"Ġvehicle":4665,"Ġsat":4666,"Ġconsequ":4667,"Ġplayed":4668,"free":4669,"Ġunderstood":4670,"Handler":4671,"\\<":4672,"ming":4673,"book":4674,"ĠInstead":4675,"error":4676,"imer":4677,"Ġsolid":4678,"}}_":4679,"%%%%%%%%%%%%%%":4680,"acing":4681,"Ġgets":4682,"Ġmeeting":4683,"ios":4684,"Ġtreat":4685,"icip":4686,"Ġreasonable":4687,"Ġseparate":4688,"Ġdefine":4689,"upport":4690,"true":4691,"Ġmal":4692,">>":4693,"Ġreaction":4694,"Ġ2018":4695,"Ġunivers":4696,"Ġplayer":4697,"Ġcorrection":4698,"Ġfields":4699,"Ġmessages":4700,"Event":4701,"Ġdeliver":4702,"ĠThomas":4703,"Ġstarting":4704,"Ġaward":4705,"Ġcop":4706,"db":4707,"Ġoxygen":4708,"Ġzero":4709,"Ġsyn":4710,"perties":4711,"Ġhol":4712,"enced":4713,"unn":4714,"ĠMe":4715,"Ġthroughout":4716,"Ġtoxic":4717,"Ġsenior":4718,"under":4719,"Ġparticipants":4720,"alth":4721,"ding":4722,"Ġpul":4723,"arc":4724,"ql":4725,"Ġnoted":4726,"Ġvolume":4727,"ĸĪâĸĪâĸĪâĸĪâĸĪâĸĪâĸĪâĸĪâĸĪâĸĪâĸĪâĸĪâĸĪâĸĪâĸĪâĸĪ":4728,"Ġdamage":4729,"Ġprocesses":4730,"rich":4731,"resent":4732,"ĠData":4733,"Ġregions":4734,"ĠEarth":4735,"Ġdomain":4736,"oad":4737,"Ġformation":4738,"Ġagree":4739,"iences":4740,"Ġconnected":4741,"Ġstrategies":4742,"Ġconfig":4743,"Ġkn":4744,"Ġmount":4745,"Ġclosed":4746,"Ġsafety":4747,"ĠLa":4748,"Ġlives":4749,"Ġcomprehensive":4750,"Ġitem":4751,"Ġinstit":4752,"\\,":4753,"Ġformed":4754,"gs":4755,"ĠBecause":4756,"Ct":4757,"omin":4758,"Ġsweet":4759,"Ġsources":4760,"asm":4761,"Ġadministration":4762,"Out":4763,"##":4764,"Ġfilter":4765,"actor":4766,"iant":4767,"Ġtests":4768,"Ġinteraction":4769,"len":4770,"Ġtissues":4771,"private":4772,"Ġsampling":4773,"ollow":4774,"ĠSection":4775,"Ġstd":4776,"Ġamazing":4777,"]:":4778,"float":4779,"Ġsimultaneously":4780,"VER":4781,"lete":4782,"Ġtransform":4783,"Ġou":4784,"ME":4785,"Ġbasic":4786,"otal":4787,"Ġneurons":4788,"ky":4789,"ESS":4790,"Ġscientific":4791,"ica":4792,"duces":4793,"Ġmarriage":4794,"ĠHigh":4795,"ĠDet":4796,"acted":4797,"gy":4798,"Ġpoly":4799,"CS":4800,"|---|---":4801,"ponent":4802,"Ġcardiovascular":4803,"Ġparent":4804,"Ġequilibrium":4805,"HT":4806,"Ġequation":4807,"Ġsum":4808,"BA":4809,"ĠMoreover":4810,"Ġpopular":4811,"Ġscore":4812,"RT":4813,"enty":4814,"ĠCenter":4815,"Ġlabel":4816,"which":4817,"Ġingredients":4818,"ĠIL":4819,"Ġign":4820,"ĠMuslim":4821,"Ġactions":4822,"ĠLouis":4823,"Ġ80":4824,"info":4825,"urt":4826,"Ġexceed":4827,"cons":4828,"Ġsold":4829,"ĠUSA":4830,"Ġuns":4831,"Ġobs":4832,"Ġdiscretion":4833,"aling":4834,"Ġopportunity":4835,"Ġtelevision":4836,"Ġtoward":4837,"Ġchannels":4838,"ĠID":4839,"Ġpaid":4840,"Ġroll":4841,"Ġgiving":4842,"Ġtool":4843,"image":4844,"EST":4845,"']":4846,"=============":4847,"pc":4848,"Ġcrisis":4849,"start":4850,"Ġsegment":4851,"ĠIllinois":4852,"Ġwide":4853,"Ġ90":4854,"CP":4855,"Ġlargely":4856,"pan":4857,"Ġgreen":4858,"Ġimpossible":4859,"Ġcombination":4860,"Ġconsistent":4861,"bb":4862,"ĠOf":4863,"Ġcomposite":4864,"Ġtesting":4865,"ĠPark":4866,"ĠMark":4867,"Ġ~":4868,"Big":4869,"Ġ]":4870,"Ġspeak":4871,"long":4872,"Ġlay":4873,"ĠCommission":4874,"run":4875,"airs":4876,"ĠSOFTWARE":4877,"php":4878,"Ġcollect":4879,"Ġresources":4880,"Ġnaturally":4881,"CO":4882,"Ġforms":4883,"Ġresistance":4884,"case":4885,"Ġcapital":4886,"ĠMichigan":4887,"ĠSoftware":4888,"Ġphone":4889,"Ġattr":4890,"apping":4891,"board":4892,"Label":4893,"Ġfunctional":4894,"Ġclient":4895,"Ġaware":4896,"ĠAD":4897,"Ġmiddle":4898,"inn":4899,"Ġperipheral":4900,"Ġthinking":4901,"VVVVVVVVVVVVVVVVVVVVVVVVVVVVVVVVVVVVVVVV":4902,"umin":4903,"oz":4904,"Ġ(**":4905,"Ġ-------------":4906,"Ġjoined":4907,"friend":4908,"RI":4909,"ĠPM":4910,"Ġspin":4911,"Ġconcerning":4912,"ĠLemma":4913,"Ġchance":4914,"ĠView":4915,"ĊĊĠĠĠĠĠ":4916,"ĠAmazon":4917,"Ġneut":4918,"Node":4919,"url":4920,"work":4921,"nother":4922,"Ġselection":4923,"ĠGe":4924,"count":4925,"Ġherself":4926,"Ġstretch":4927,"Ġplaying":4928,"[]":4929,"Ġhor":4930,"ĠTable":4931,"Ġnearly":4932,"Ġchoose":4933,"Ġremove":4934,"ĠPhiladelphia":4935,"EE":4936,"Ġenter":4937,"Ġproviding":4938,"Ġmovement":4939,"Ġsugar":4940,"Ġmoved":4941,"Ġdetected":4942,"ensions":4943,"PD":4944,"Ġborder":4945,"Ġhappened":4946,"Here":4947,"ĠClinton":4948,"Ġconducted":4949,"Ġachieve":4950,"Ġfabric":4951,"Ġblog":4952,"Ġinvolves":4953,"oul":4954,"Ġmoving":4955,"Ġexisting":4956,"Ġobjects":4957,"Ġstation":4958,"Ġcore":4959,"ipe":4960,"ustom":4961,"Ġpot":4962,"[^":4963,"Ġready":4964,"Ġdefense":4965,"approx":4966,"ause":4967,"Ass":4968,"Map":4969,"Ġperspective":4970,"ĠList":4971,"Ġlif":4972,"500":4973,"Ġphenot":4974,"met":4975,"Ġcalculated":4976,"jection":4977,"Ġfacts":4978,"ĠHuman":4979,"Oh":4980,"Ġneglig":4981,"atin":4982,"FA":4983,"oto":4984,"Ġfinally":4985,"Ġsteps":4986,"Ġafraid":4987,"Ġsupra":4988,"Ġcrowd":4989,"ano":4990,"ĊĠĊĠĊĠĊĠĊĠĊĠĊĠĊĠĊĠĊĠĊĠĊĠĊĠĊĠĊĠĊĠĊĠĊĠĊĠĊĠĊĠĊĠĊĠĊĠĊĠĊĠĊĠĊĠĊĠĊĠĊĠĊĠĊĠĊĠĊĠĊĠĊĠĊĠĊĠĊĠĊĠĊĠĊĠĊĠĊĠĊĠĊĠĊĠ":4991,"\\],":4992,"config":4993,"Ġindicate":4994,"ping":4995,"Ġyourself":4996,"enz":4997,"inding":4998,"check":4999,"Field":5000,"Ġdemonstrated":5001,"Ġmanuscript":5002,"pers":5003,"wise":5004,"ampionship":5005,"Ġconversation":5006,"ĠHol":5007,"Ġfamiliar":5008,"ĠFl":5009,"Ġpromot":5010,"Ġmilk":5011,"Read":5012,"Ġunits":5013,"())":5014,"%,":5015,"Ġmonitoring":5016,"ĠAlso":5017,"Ġlabor":5018,"\"},":5019,"Ġsignificance":5020,"Ġcomments":5021,"},\\":5022,"iter":5023,"Ġlaunch":5024,"Ġprove":5025,"acter":5026,"INT":5027,"Ġjoin":5028,"ĠSocial":5029,"ĠAM":5030,"Ġvivo":5031,"Ġregul":5032,"Up":5033,"Ġprem":5034,"berg":5035,"Equ":5036,"Ġimag":5037,"Ġtrade":5038,"crib":5039,"Ġdollars":5040,"Ġinjuries":5041,"Ġoptim":5042,"orrect":5043,"Ġcarried":5044,"Ġtra":5045,"Ġpetition":5046,"ĊĠĠĠĠĠĠĠĠĠĠĠĠĠĠĠĠĠĠĠĠĠĠĠĠĠĠĠ":5047,"Ġwavelength":5048,"igation":5049,"ĠKing":5050,"Ġdisorders":5051,"Element":5052,"Ġwave":5053,"Ġwild":5054,"Ġseven":5055,"Ġsend":5056,"Ġprocessing":5057,"CON":5058,"ĠLaw":5059,"treated":5060,"ocket":5061,"Trans":5062,"ĠBu":5063,"xxxxxxxxxxxxxxxxxxxx":5064,"Ġfear":5065,"Ġharm":5066,"Ġstuff":5067,"Ġaccordance":5068,"Ġvariety":5069,"md":5070,"hes":5071,"iers":5072,"Ġ37":5073,"script":5074,"pe":5075,"Ġmg":5076,"Ġsets":5077,"Ġblue":5078,"Ġfluorescence":5079,"ĠCO":5080,"acellular":5081,"Ġ45":5082,"jpg":5083,"ÃŃ":5084,"Ġwife":5085,"Ġwish":5086,"GL":5087,"Ġbodies":5088,"stitution":5089,"IB":5090,"Ġband":5091,"Ġoperator":5092,"Ġdistributed":5093,"Ġbenefit":5094,"Ġlaser":5095,"Ġsafe":5096,"Ġmethyl":5097,"ĠAT":5098,"Ġcaught":5099,"pper":5100,"Ġfoot":5101,"Ġorganizations":5102,"mediate":5103,"ĠMinnesota":5104,"Ġpackage":5105,"Ċĉĉĉĉĉĉ":5106,"Ġunlikely":5107,"Ser":5108,"Ġ2007":5109,"olved":5110,"llllllllllllllllllllllllllllllllllllllllllllllllllllllllllllllllllllllllllllllllllllllllllllllll":5111,"NU":5112,"inger":5113,"Ġshape":5114,"*(":5115,"Ġsorry":5116,"Ã³":5117,"hydro":5118,"level":5119,"Ġelectrical":5120,"ĠArt":5121,"Ġfraud":5122,"Val":5123,"ĠDi":5124,"Ġtruth":5125,"Ġhair":5126,"Ġsuggested":5127,"Ġrow":5128,"ĠSan":5129,"ĠEven":5130,"Act":5131,"Ġpeak":5132,"Ġfigures":5133,"Ġmaintenance":5134,"Ġonto":5135,"Ġarrived":5136,"ĠHer":5137,"inate":5138,"ĠFrancis":5139,"ided":5140,"Ġthermal":5141,"ĠFigure":5142,"Ġemail":5143,",-":5144,"\",\"":5145,"]\\],":5146,"Ġprevalence":5147,"Ġapparent":5148,"Ġprograms":5149,"DS":5150,"Inter":5151,"Ġfresh":5152,"utor":5153,"Ġcert":5154,"vest":5155,"Array":5156,"ires":5157,"Ġworkers":5158,"Color":5159,"ĠPal":5160,"ara":5161,"Ġremoval":5162,"LA":5163,"abs":5164,"Ġhealthy":5165,"Log":5166,"/(-":5167,"Ġnation":5168,"Ġincreases":5169,"Ġmagnetic":5170,"Ġfruit":5171,"opl":5172,"Ġtend":5173,"ĠEuropean":5174,"ifferent":5175,"well":5176,"tx":5177,"stall":5178,"block":5179,"Ġupdated":5180,"Ġframe":5181,"ĠRichard":5182,"Ġpassed":5183,"Ġmaybe":5184,"Ġletters":5185,"Ġcatch":5186,"IA":5187,"cos":5188,"Ġnorm":5189,"Ġavailability":5190,"Ġplaces":5191,"Date":5192,"pass":5193,"post":5194,"Ġresponsible":5195,"Ġ\\,":5196,"ĠIndia":5197,"actory":5198,"Ġdiscussed":5199,"Ġletter":5200,"ĠBro":5201,"Ġreplacement":5202,"PT":5203,"Em":5204,"Ġmag":5205,"ynamic":5206,"Ġpriv":5207,"atively":5208,"Ġsave":5209,"open":5210,"Ġmanner":5211,"Ġcorpor":5212,"Ġapproximately":5213,"Ġmusic":5214,"ĠPakistan":5215,"Ġ95":5216,"ifying":5217,"kay":5218,"Ġpicked":5219,"Ġemotional":5220,"content":5221,"ĠCON":5222,"uted":5223,"Ġincome":5224,"Î±":5225,"Ġbul":5226,"Ġadopted":5227,".........":5228,"ĠAppellant":5229,"Ġneighborhood":5230,"host":5231,"sensors":5232,"Ġ70":5233,"/(":5234,"iatric":5235,"di":5236,"ui":5237,"Ġupdate":5238,"Ġthin":5239,"itis":5240,"Ġmanifest":5241,"[\\":5242,"Reg":5243,"amb":5244,"Ġbus":5245,"SH":5246,"Ġdrugs":5247,"Ġstructures":5248,"Ġpictures":5249,"ilder":5250,"De":5251,"Ġvacuum":5252,"Ġrace":5253,"Ġprovisions":5254,"Ġtalking":5255,"Ġbeginning":5256,"Ġepisode":5257,"ĠUK":5258,"Ġhour":5259,"Ġcontinued":5260,"Ġregister":5261,"Ġmodern":5262,"Ġsecret":5263,"rick":5264,"Ġshot":5265,"Ġbond":5266,"ado":5267,"dep":5268,"Ġtasks":5269,"Ġtotally":5270,"api":5271,"source":5272,"Ġexplanation":5273,"SIZE":5274,"Ġ36":5275,"Ġspread":5276,"ĠWhite":5277,"Ġspatial":5278,"Ġeffort":5279,"Ġassume":5280,"Ġactivation":5281,"izer":5282,"Ġreturned":5283,")/(-":5284,"Ġtelephone":5285,"*]{}":5286,"Ġtour":5287,"gress":5288,"dot":5289,"Ġhappy":5290,"ync":5291,"Ġcompr":5292,"Ġut":5293,"Ġcolleagues":5294,"*)":5295,"Ġdie":5296,"ĠRNA":5297,"Ġapproval":5298,"Ġdetection":5299,"Ġalter":5300,"''":5301,"Ġfashion":5302,"pol":5303,"Ġtomorrow":5304,"Ġstock":5305,"core":5306,"Ġforeign":5307,"CF":5308,"Ġconscious":5309,"MO":5310,"Ġvisual":5311,"Ġdegradation":5312,"Be":5313,"Ġedge":5314,"Ġ});":5315,"Ġbillion":5316,"Ġesc":5317,"Ġnice":5318,"PO":5319,"Ġinvestigation":5320,"ĠServices":5321,"Ġkid":5322,"flow":5323,"Comp":5324,"Ġmale":5325,"Ġtree":5326,"Ġdelay":5327,"Ġinflu":5328,"idden":5329,"Ġrat":5330,"dec":5331,"004":5332,"orter":5333,"Ġadministered":5334,"Ġthrow":5335,"Ġkids":5336,"Î²":5337,"Ġpreparation":5338,"ĠSpec":5339,"ishing":5340,"Ġ48":5341,"istant":5342,"Code":5343,"Ġdescription":5344,"ART":5345,"Ġcoach":5346,"cin":5347,"amssymb":5348,"EG":5349,"ĠDevelopment":5350,"Ġapart":5351,"ÂŃ":5352,"ĠSim":5353,"Ġ((":5354,"Ġcoffee":5355,"Ġwithdraw":5356,"Attribute":5357,"Style":5358,"Ġobviously":5359,"ptr":5360,"amsbsy":5361,"Ġampl":5362,"Ġexception":5363,"Ġ-->":5364,"Ġsurgical":5365,"Image":5366,"Ġdiscovery":5367,"Ġcomplic":5368,"Ġmac":5369,"Ġinterface":5370,"Ġshift":5371,"ĠDis":5372,"ĠTO":5373,"Ġspent":5374,"Ġsexual":5375,"object":5376,"Dec":5377,"Ġdenied":5378,"Su":5379,"Ġtumors":5380,"Ġchallenge":5381,"Ġplans":5382,"section":5383,"ager":5384,"ĠDonald":5385,"space":5386,"Ġsell":5387,"Ġfamilies":5388,"Ġarm":5389,"ĠSecretary":5390,"Ġkin":5391,"Ġult":5392,"Ġhem":5393,"Ġsolutions":5394,"avascript":5395,"asis":5396,"parent":5397,"Ġserve":5398,"ĠAdditionally":5399,"fe":5400,"Ġshoot":5401,"Ġtested":5402,"Rep":5403,"Ã£o":5404,"ffffffffffffffffffffffffffffffffffffffffffffff":5405,"Ġconcept":5406,"Ġcontrovers":5407,"Ġmill":5408,"Ġ2000":5409,":\"":5410,"Ġrul":5411,"sch":5412,"Ġofficials":5413,"Model":5414,"going":5415,"ĠCan":5416,"Ġcareer":5417,"Ġaggreg":5418,"Ġcouldn":5419,"Ġsummary":5420,"Ġdemand":5421,"range":5422,"Ġwants":5423,"icks":5424,"Ġcompliance":5425,"Ġautom":5426,"âĢ¢":5427,"ALL":5428,"ainer":5429,"rest":5430,"prop":5431,"ldots":5432,"ingly":5433,"lem":5434,"Ġencounter":5435,"Ġ2006":5436,"ignment":5437,"Token":5438,"ĠGen":5439,"Ġbuffer":5440,"aper":5441,"itz":5442,"Ġpark":5443,"inf":5444,"hy":5445,"Ġkitchen":5446,"agement":5447,"Ġsustain":5448,"Ġaffect":5449,"Â¾":5450,"Ġnil":5451,"Ġ(!":5452,"iment":5453,"Ġclick":5454,"PP":5455,"Ġnames":5456,"ĠSociety":5457,"doc":5458,"ĠPost":5459,"Ġleads":5460,"Pr":5461,"Ġthick":5462,"mar":5463,"Ð¾":5464,"Ġlip":5465,"Ġstudent":5466,"Ġmo":5467,"Ġunless":5468,"Count":5469,"igration":5470,"Ġagent":5471,"Ġglucose":5472,"une":5473,"Ġpossession":5474,"olean":5475,"Ġcycle":5476,"Ġstudied":5477,"iled":5478,"Ġkill":5479,"Ġmodule":5480,"ĠDon":5481,"Ġplate":5482,"Ġbranch":5483,"Ġnuclear":5484,"Ġmotor":5485,"igr":5486,"bottom":5487,"Ġdiet":5488,"Ġtypically":5489,"AV":5490,"Ġunnecessary":5491,"Ġcombined":5492,"QL":5493,"ĠDirector":5494,"Ġmetal":5495,"Ġchrom":5496,"âĢ²":5497,"({\\":5498,"dir":5499,"ĠYour":5500,"Ġchem":5501,"Ġdomestic":5502,"Ġexplain":5503,"Ġexperimental":5504,"Phi":5505,"pping":5506,"det":5507,"Ġgrowing":5508,"option":5509,"Ġcontrols":5510,"Ġcommit":5511,"Ġcompar":5512,"asp":5513,"Ġplus":5514,"gram":5515,"Ġpowers":5516,"Ġentry":5517,"Ġnoticed":5518,"Yes":5519,"Ġweapons":5520,"Ġcommunication":5521,"Ġsuccessful":5522,"ĠAdminist":5523,"Ġnone":5524,"Ġ(\"":5525,"Ġvote":5526,"Ġwa":5527,"Ġnorth":5528,"ameter":5529,"Ġtaste":5530,"Ġdro":5531,"ĠEr":5532,"Ġsugges":5533,"Ġvertical":5534,"create":5535,"icians":5536,"asts":5537,"ĠIndian":5538,"Ġkilled":5539,"Ġpan":5540,"ĠMartin":5541,"à¸":5542,"ĠÎ¼":5543,"ĠSub":5544,"ypes":5545,"ethyl":5546,"arp":5547,"yr":5548,"**)":5549,"atabase":5550,"Ġattempts":5551,"iot":5552,"Ġmolecular":5553,"Ġguy":5554,"005":5555,"Well":5556,"ĠEducation":5557,"aly":5558,"Fl":5559,"Ġinduced":5560,"ĠNevertheless":5561,"Ġhttps":5562,"Ġrare":5563,"Ġagreed":5564,"ka":5565,"SU":5566,"Ġdismiss":5567,"Ġencour":5568,"Ġ33":5569,"Ġraised":5570,"kg":5571,"Ġoperations":5572,"arb":5573,"Ġmi":5574,"Ġseed":5575,"anned":5576,"&\\":5577,"Ġreached":5578,"Ġjudge":5579,"ĠTV":5580,"Ġwhereas":5581,"Ġcalls":5582,"Ġaffected":5583,"src":5584,"Ġdied":5585,"ĠBank":5586,"Ġfeet":5587,"Ġtools":5588,"otimes":5589,"Ġdrink":5590,"Ġclasses":5591,"Ġhandle":5592,"Ġmm":5593,"Ġmedicine":5594,"\"></":5595,"Ġminor":5596,"-------":5597,"ĠMost":5598,"ĠRel":5599,"ĠAttorney":5600,"Ġcauses":5601,"Ġevolution":5602,"hibits":5603,"Ġsentence":5604,"more":5605,"aud":5606,"Ġwouldn":5607,"ĠKorea":5608,"ymptom":5609,"ĠOther":5610,";;;;;;;;;;;;;;;;;;;;;;;;;;;;;;":5611,"after":5612,"RS":5613,"Ġprobability":5614,"abil":5615,"Ġprotect":5616,"Ġsrc":5617,"Ġtransl":5618,"Group":5619,"Ġdisadvant":5620,".](":5621,"Ġkept":5622,"cer":5623,"ĠNote":5624,"Ġimpro":5625,"ĠAnt":5626,"^âĪĴ":5627,"itional":5628,"Ġ34":5629,"Ġconstitutional":5630,"Ġcrystal":5631,"Ġmental":5632,"Ġefforts":5633,"/**":5634,"Ġcollected":5635,"Ġadapt":5636,"ialog":5637,"TYPE":5638,"Ġdiff":5639,"Ġsouth":5640,"Ġtraditional":5641,"Ġoccurred":5642,"Ġchurch":5643,"BL":5644,"Ġreligion":5645,"ĠDec":5646,"local":5647,"Ġconver":5648,"aved":5649,"prime":5650,"Ġalpha":5651,"Ġintroduced":5652,"mathsf":5653,"Service":5654,"Ġrelation":5655,"ench":5656,"qqqqqqqqqqqqqqqqqqqqqqqqqqqqqqqqqqqqqqqq":5657,"ĠPlaintiff":5658,"ĠSuper":5659,"Ġdiscussion":5660,"wards":5661,"Why":5662,"ĠNOT":5663,"Ġcamp":5664,"Do":5665,"Ġfarm":5666,"Ġanswers":5667,"Cs":5668,"Ġestimated":5669,"Ġcertainly":5670,"ĠRef":5671,"organ":5672,"ĠDivision":5673,"Ġsymbol":5674,"Ġexplained":5675,"ĠGroup":5676,"Ġcast":5677,"Ac":5678,"types":5679,"eps":5680,"Ġlock":5681,"ĠSet":5682,"Ġcorrelation":5683,"ĠNews":5684,"Ġelectric":5685,"Ġdiagnosis":5686,"ĠTest":5687,"Ġbrowser":5688,"ĠReturn":5689,"mic":5690,"Ġstatute":5691,"Ġimplic":5692,"ometry":5693,"inity":5694,"Ġremaining":5695,"Ġprotection":5696,"Ġtheorem":5697,"Per":5698,"Ġgone":5699,"aren":5700,"page":5701,"resp":5702,"Ent":5703,"CM":5704,"Ġdiscipl":5705,"hel":5706,"ĠCode":5707,"KE":5708,"Ġbattery":5709,"Ġrisks":5710,"eters":5711,"earch":5712,"lear":5713,"Ġmist":5714,"ographic":5715,"Ġcup":5716,"Ġprosec":5717,"Ġnovel":5718,"ĠNS":5719,"Ġrequirements":5720,"Ġpiece":5721,"ĠAir":5722,"Ġ2005":5723,"{{":5724,"Ġoscill":5725,"Ġoccup":5726,"Ġmovie":5727,"Ġchain":5728,"Ġlit":5729,"Ġsurveillance":5730,"User":5731,"Ġlanguages":5732,"}}_{":5733,"inner":5734,"rough":5735,"BI":5736,"can":5737,"orks":5738,"xx":5739,"Message":5740,"opic":5741,"Ġformat":5742,"Ġprejud":5743,"cel":5744,"While":5745,"ications":5746,"Our":5747,"ship":5748,"Ġabsence":5749,"Ġrecords":5750,"Ġguess":5751,"Ġcompensation":5752,"\\|":5753,"build":5754,"umer":5755,"Ġjava":5756,"ows":5757,"Ġindustrial":5758,"lects":5759,"ectors":5760,"yst":5761,"isation":5762,"Ġgeneration":5763,"ĠGreen":5764,"Ġtal":5765,"Ġec":5766,"}}}":5767,"sequently":5768,"inflammatory":5769,"Ġolder":5770,"Ġembedded":5771,"stract":5772,"ĠURL":5773,"icensed":5774,"Ġorganization":5775,"ilt":5776,"Ġpursuant":5777,"Ġresponses":5778,"Ġmissing":5779,"Target":5780,"Ġserved":5781,"Ġtempor":5782,"Ġwhom":5783,"Method":5784,"DR":5785,"Ġlaws":5786,"Ġsun":5787,"ĠEach":5788,"Ġcomfortable":5789,"Ġadding":5790,"aim":5791,"BU":5792,"Ġoffers":5793,"Ġoptical":5794,"wood":5795,"Ġsurfaces":5796,"model":5797,"Ġquantum":5798,"ato":5799,"ds":5800,"rite":5801,")?":5802,"Ġderived":5803,"Ġeat":5804,"ĠOhio":5805,"amed":5806,"Ġcreating":5807,"Ġsoft":5808,"čĊĉ":5809,"mem":5810,"Ġcholesterol":5811,"Ġscience":5812,"Ġsubjects":5813,"Conn":5814,"Ġ42":5815,"ĠEast":5816,"anged":5817,"yntax":5818,"Ġ()":5819,"John":5820,"Ġrepro":5821,"Ġstream":5822,"ĠOver":5823,"Ġalgorithm":5824,"Ġreflect":5825,"Ġeconomy":5826,"Ġvan":5827,"$(":5828,"ĠAppeals":5829,"Ġexternal":5830,"Ġturning":5831,"ya":5832,"Can":5833,"Ġanimal":5834,"ĠBlack":5835,"Ġoverride":5836,"Ġideas":5837,"ologies":5838,"ĠOklahoma":5839,"Ġintended":5840,"Ġschools":5841,"tes":5842,"ĠArm":5843,"oub":5844,"iscussion":5845,"struction":5846,"ĠPre":5847,"Ġfamous":5848,"Ġsmoking":5849,"AND":5850,"agon":5851,"Ġradio":5852,"Ġproperly":5853,"assert":5854,"Ġproposal":5855,"amer":5856,"ebug":5857,"Ġresolution":5858,"ĠJewish":5859,"Ġsurv":5860,"Ġapoptosis":5861,"Ġdisapp":5862,"First":5863,"imb":5864,"Ġdischarge":5865,"Ġextent":5866,"omething":5867,"Ġglass":5868,"Ġdecreased":5869,"Ġdirector":5870,"Ġthank":5871,"0001":5872,"See":5873,"Ġsymmet":5874,"mbox":5875,"Ġcred":5876,"tex":5877,"cs":5878,"ĠSte":5879,"Ġauto":5880,"Ġ38":5881,"Ġthread":5882,"uate":5883,"Ġbelong":5884,"Ġauthority":5885,"Ġfirm":5886,"Ġsummer":5887,"Ġreceptors":5888,"NT":5889,"Ġmechanisms":5890,"Ġprotected":5891,"Ġvillage":5892,"rence":5893,"Ġvirus":5894,"Ġextreme":5895,"Ġprogression":5896,"Â»":5897,"ston":5898,"ca":5899,"Ġchamber":5900,"result":5901,"Ġfeeling":5902,"Ġalleg":5903,"Ġgrand":5904,"Ġes":5905,"while":5906,"Ġteacher":5907,"Ġsing":5908,"Ġinterests":5909,"Ġinvolvement":5910,"ĠBitcoin":5911,"ĠEv":5912,"(&":5913,"Ġteams":5914,"Ġcoefficient":5915,"ĠOrgan":5916,"Ġabsor":5917,"Ġtechnique":5918,"/\\":5919,"ORT":5920,"Ġspokes":5921,"ĠCarolina":5922,"Ġstimulation":5923,"ĠJack":5924,"ĠGoogle":5925,"FI":5926,"However":5927,"Ġcontained":5928,"iny":5929,"}-":5930,"Ġheterogene":5931,"Ġcrime":5932,"Ġapplies":5933,"Ġexec":5934,"Ġgold":5935,"MT":5936,"Ġdry":5937,"Ġcapt":5938,"Ġvulner":5939,"_.":5940,"Ġdimension":5941,"Ġdiversity":5942,"ĠAny":5943,"Ġloop":5944,"kin":5945,"hi":5946,"Ġpregnancy":5947,"Ġvolunte":5948,"Ġsales":5949,"Box":5950,"Ġdriver":5951,"Ġshared":5952,"Ġvent":5953,"func":5954,"Ġguys":5955,"FT":5956,"Ġcharged":5957,"aa":5958,"ugin":5959,"CG":5960,"force":5961,"valid":5962,"Ġopening":5963,"MR":5964,"Ġcharacters":5965,"Ġbool":5966,"Ġpermanent":5967,"Header":5968,"ĠAL":5969,"Ġerrors":5970,"Ġprepare":5971,"Ġpun":5972,"999999999999999999999999999999999999":5973,"aced":5974,"Ġprojects":5975,"ĠAmendment":5976,"Ġrise":5977,"arian":5978,"Ġexcluded":5979,"Ġfloor":5980,"Ġoffered":5981,"Ġhabit":5982,"ny":5983,"Ġprison":5984,".[@":5985,"Â·":5986,"Ġholding":5987,"ĠRem":5988,"**]{},":5989,"Ġcoverage":5990,"ells":5991,"ĠAuthor":5992,"iling":5993,"ĠMor":5994,"ĠStreet":5995,"ĠCanada":5996,"Ġefficacy":5997,"âĢĿ.":5998,"Ġanxiety":5999,"Ġvictory":6000,"Line":6001,"ĠEq":6002,"******":6003,"mathscr":6004,"Ġdescribe":6005,"prot":6006,"ĠCouncil":6007,"Ġentered":6008,"Ġconserv":6009,"win":6010,"lob":6011,"ĠTwo":6012,"ouch":6013,"Property":6014,"ada":6015,"Ġinteractions":6016,"Ġagents":6017,"Ġinstrument":6018,"Ġadequate":6019,"Ġring":6020,"spec":6021,"UE":6022,"Ġfrag":6023,"just":6024,"points":6025,"ATION":6026,"Ġpor":6027,"Ġgain":6028,"Ġsupply":6029,"IO":6030,"}}{":6031,"illa":6032,"Ġsuscept":6033,"Ġuniverse":6034,"oted":6035,"Ġrank":6036,"Ġspeech":6037,"Ġdecrease":6038,"Ġhyp":6039,"lands":6040,"Ġcold":6041,"Ġreve":6042,"armaceutical":6043,"yg":6044,"idget":6045,"ĠClass":6046,"System":6047,"Ġexpert":6048,"lt":6049,"Ġmel":6050,"Ġagency":6051,"Ġconspiracy":6052,"-------------------------------":6053,"Ġdiagnostic":6054,"ĠDE":6055,"Ġdose":6056,"Ġprofile":6057,"ello":6058,"Ġnet":6059,"Ġcomposition":6060,"xml":6061,"({":6062,"_\\_\\_\\_\\_\\_\\_\\_\\_\\_\\_\\_\\_\\_\\_\\_\\_\\_\\_\\_\\_\\_\\_\\_\\_\\_\\_\\_\\_\\_\\_\\_\\_\\":6063,"refer":6064,"else":6065,"ĠCommun":6066,"\").":6067,"ĠPeople":6068,"Ġoutcome":6069,"rete":6070,"Ġcytok":6071,"ensor":6072,"onymous":6073,"Ġwind":6074,"ĠJames":6075,"ĠBoston":6076,"âĢĬ":6077,"Â½":6078,"Ġowners":6079,"Ġviews":6080,"Ġmoments":6081,"Ġannounce":6082,"čĊĠĠĠĠĠĠĠĠĠĠĠ":6083,"ĠSuch":6084,"ename":6085,"XX":6086,"ĠRE":6087,"dots":6088,"ĠCa":6089,"Ġgenetic":6090,"amine":6091,"ĠWH":6092,"anges":6093,"bor":6094,"how":6095,"Ġexistence":6096,"default":6097,"Ġpossibility":6098,"care":6099,"query":6100,"Call":6101,"Ġplants":6102,"ĠFROM":6103,"Ġ\"[":6104,"ears":6105,"Ġelim":6106,"Ġoperating":6107,"Ġkernel":6108,"Source":6109,"etween":6110,"Ġ+=":6111,"ĠDespite":6112,"cles":6113,"Ġelectron":6114,"Ġtrend":6115,"Ġreturns":6116,"Ġaren":6117,"oman":6118,"Ġpatterns":6119,"edge":6120,"Ġinteger":6121,"Ġsignals":6122,"Ġepithelial":6123,"Ġcardiac":6124,"OG":6125,"ĠFOR":6126,"Ġ2004":6127,"ĠUnder":6128,"Ġidentity":6129,"aded":6130,"including":6131,"Ġchicken":6132,"ĠCA":6133,"Ġshop":6134,"ĉĉ":6135,"PH":6136,"ĠProfessor":6137,"ĠStat":6138,"Ġearn":6139,"Ġinterested":6140,"rey":6141,"Ġgenerate":6142,"ancing":6143,"Ġmortgage":6144,"event":6145,"Ġrevenue":6146,"Ġdistributions":6147,"ports":6148,"Ġstable":6149,"Ġfinite":6150,"Î¼":6151,"Ġ${":6152,"ÃĹ":6153,"Ġbutton":6154,"Ġmeant":6155,"Ġquery":6156,"Ġstars":6157,"aterials":6158,"Ġ};":6159,"Ġindicates":6160,"Ġwel":6161,"ĠCommonwealth":6162,"ĠChristmas":6163,"isms":6164,"Ġimportance":6165,"Ġconfirm":6166,"../":6167,"ĠService":6168,"Ġrecover":6169,"Ġboy":6170,"apped":6171,"inder":6172,"Ġspectrum":6173,"Ġvaluable":6174,"ini":6175,"ili":6176,"match":6177,"Ġcontrolled":6178,"Some":6179,"Ġpeace":6180,"ĠBoth":6181,"Ġmetabolic":6182,"Ġholds":6183,"Ġacademic":6184,"Ġhel":6185,"ĠPC":6186,"Ġconclusion":6187,"property":6188,"Ġsequences":6189,"fs":6190,"Ġlattice":6191,"Ġruns":6192,"Ġincubated":6193,"main":6194,"Ġconvert":6195,"othing":6196,"amily":6197,"Ġnan":6198,"Ġconfiguration":6199,"ĠPD":6200,"Ġhappens":6201,"Ġstatutory":6202,"ki":6203,"Ġparticles":6204,"Ġpolymorph":6205,"Ġ2019":6206,"Ġgauge":6207,"Ġsupplement":6208,"Ġdiagram":6209,"olt":6210,"ested":6211,"Ġafternoon":6212,".</":6213,"Ġens":6214,"Ġbreast":6215,"ĠAS":6216,"Ġpseud":6217,"ĠGaussian":6218,"Ġinquiry":6219,"dt":6220,"Ġsecondary":6221,"Ġreality":6222,"})$":6223,"Ġthousand":6224,"Any":6225,"ĠOut":6226,"Ġeducational":6227,"]),":6228,"Ġyesterday":6229,"Ġverdict":6230,"Ġmouse":6231,"iveness":6232,"Click":6233,"Ġmaintain":6234,"Ġcatal":6235,"TO":6236,"Ġinsulin":6237,"Ġreferred":6238,"Ġapprec":6239,"Ġmeasurements":6240,"Ġdigital":6241,"Ġrestric":6242,"itrogen":6243,"Ġurban":6244,"current":6245,"Ġsession":6246,"Ġcontinuous":6247,"][":6248,"Ġflex":6249,"Ð°Ð":6250,"Ċĉĉĉĉĉ":6251,"Ġseemed":6252,"osp":6253,"ĠPARTICULAR":6254,"rs":6255,"Ġdeveloping":6256,"han":6257,"ND":6258,"ĠWomen":6259,"âĢ¦âĢ¦âĢ¦âĢ¦âĢ¦âĢ¦âĢ¦âĢ¦âĢ¦âĢ¦âĢ¦âĢ¦âĢ¦âĢ¦âĢ¦âĢ¦âĢ¦âĢ¦":6260,"Ġom":6261,"aine":6262,"istent":6263,"Ġstatements":6264,"Ġbelieves":6265,"ĠToronto":6266,"Ġfavour":6267,"util":6268,"Ġstroke":6269,"Ġnoise":6270,"Ġund":6271,"ĠDay":6272,"Ġjourney":6273,"icate":6274,"ĠDel":6275,"Ġconstraints":6276,"ĠCR":6277,"Ġlung":6278,"Ġrecon":6279,"Ġ500":6280,"Url":6281,"Ġclin":6282,"rot":6283,"ERT":6284,"ady":6285,"ĠSecond":6286,"Ġendothelial":6287,"stant":6288,"ĠBritain":6289,"NE":6290,"101":6291,"Ġremainder":6292,"2015":6293,"ĠKe":6294,"select":6295,"Ġexpand":6296,"!--":6297,"Ġdownload":6298,"ĠCorporation":6299,"Ob":6300,"Ġquick":6301,"last":6302,"abilities":6303,"look":6304,"ĊĊĠĠĠĠĠĠ":6305,"Ġdiscrimination":6306,"Ġrepresentation":6307,"Ġexcess":6308,"Ġpure":6309,"lang":6310,"Ġenvironmental":6311,"ln":6312,"mail":6313,"ĠCompany":6314,"Ġcollege":6315,"rd":6316,"ker":6317,"Ġ------------------":6318,"uation":6319,"ĠBusiness":6320,"anes":6321,"}+":6322,"clude":6323,"ĠAre":6324,"IST":6325,"Co":6326,"ĠCambridge":6327,"Ref":6328,"ĠEvery":6329,"Ġliver":6330,"ository":6331,"Ġlatter":6332,"Ġwheel":6333,"Ġwarm":6334,"Ġbow":6335,"ocyte":6336,"ĠOlymp":6337,"Finally":6338,"Ġhighlight":6339,"Ġborn":6340,"ura":6341,"Ġclub":6342,"Ġsquare":6343,"elled":6344,"Ġdenominator":6345,"ĠToday":6346,"otype":6347,"ummary":6348,"Ġabandon":6349,"Ġknows":6350,"eger":6351,"iable":6352,"Ġempty":6353,"Ġspot":6354,"itions":6355,"....":6356,"Ġestimate":6357,"Ġexamples":6358,"Ġpartners":6359,"aneous":6360,"Ġleader":6361,"End":6362,"Ġabuse":6363,"Ġcovered":6364,"ĠSm":6365,"height":6366,"Ġcharges":6367,"Ġtransmission":6368,"Ġchronic":6369,"ĠPress":6370,")/(":6371,"Ġbasketball":6372,"Ġserum":6373,"ba":6374,"Ġconce":6375,"rated":6376,"ĠBig":6377,"Ġahead":6378,"------------------------------------------------------------------------------------------":6379,"Ġregulation":6380,"Ġliterature":6381,"Ġpenalty":6382,"}.":6383,"da":6384,"dependent":6385,"olf":6386,")[":6387,"web":6388,"Ġappoint":6389,"Ġsigned":6390,"Ġopened":6391,"num":6392,"Ġcohort":6393,"icity":6394,"ĠHTML":6395,"Ġelevated":6396,"oms":6397,"Ġimplementation":6398,"ĠDetermine":6399,"fold":6400,"Ġterror":6401,"ĠMal":6402,"omes":6403,"ĠWhy":6404,"Ġnamely":6405,"ĠBrazil":6406,"Ġfluid":6407,"Ġscene":6408,"Config":6409,"ĠMet":6410,"Ġcustomers":6411,"aped":6412,"Ġpowder":6413,"ĠRead":6414,"Ġpapers":6415,"Ġoccurs":6416,"nutrients":6417,"ĠER":6418,"Ġrejected":6419,"Don":6420,"ĠLeg":6421,"Ġextension":6422,"Sub":6423,"ĠChristian":6424,"Ġwood":6425,"Ġrecorded":6426,"ias":6427,"ICENSE":6428,"Ġprecisely":6429,"oney":6430,"Ġcompounds":6431,"icted":6432,"Ġfifth":6433,"apache":6434,"Bl":6435,"Ġinequality":6436,"ĠMac":6437,"ĠCivil":6438,"MI":6439,"Ġfish":6440,"eek":6441,"ette":6442,"ĠMiss":6443,"Ġmachines":6444,"Ġexhibit":6445,"etch":6446,"Off":6447,"Ġreceiving":6448,"Ġevaluated":6449,"andard":6450,"Ġassay":6451,"Ġprim":6452,"Ġscientists":6453,"Ġinner":6454,"Ġfrozen":6455,"Ġallowing":6456,"Button":6457,"Ġcalling":6458,"Ġfemales":6459,"you":6460,"Ġextended":6461,"annel":6462,"Ġleaves":6463,"ĠAmericans":6464,"night":6465,"format":6466,"AY":6467,"Ġviolence":6468,"Ġrich":6469,"even":6470,"ĠEnergy":6471,"Ġjoint":6472,"Ġdoctors":6473,"Ġsuit":6474,"Ġ75":6475,"Us":6476,"Ġbleeding":6477,"Ġhaven":6478,"ĠDep":6479,"Ġpercentage":6480,"Ġdigit":6481,"ĠUnion":6482,"child":6483,"vey":6484,"ĠAtlant":6485,"Ġadministrative":6486,"ĠExp":6487,"According":6488,"âĸĶâĸĶâĸĶâĸĶâĸĶâĸĶâĸĶâĸĶâĸĶâĸĶâĸĶâĸĶâĸĶ":6489,"first":6490,"Ġpool":6491,"Ġconcerns":6492,"erry":6493,"standing":6494,"Ġassessment":6495,"**(-":6496,"avity":6497,"endif":6498,"Ġleaving":6499,"Ġcat":6500,"Ġmeasuring":6501,"ella":6502,"Ġ2003":6503,"Ġrestricted":6504,"ĠYes":6505,"Ġtestified":6506,"Ġhelped":6507,"message":6508,"Ġmostly":6509,"åı":6510,"Ġexact":6511,"\\{":6512,"Ġunderlying":6513,"Ġowner":6514,"ĠCatholic":6515,"Ġimmune":6516,"ĠLeague":6517,"ĠInsurance":6518,"Ġarguments":6519,"ĠFinally":6520,"Ġsale":6521,"Ġhist":6522,"Ġscheduled":6523,"ĠDuring":6524,"ads":6525,"ributes":6526,"Ġder":6527,"ĠMo":6528,"ifications":6529,"Ġwire":6530,"ĠJerusalem":6531,"Ġmuscle":6532,"ĠWisconsin":6533,"ude":6534,"ulating":6535,"Ġrepresented":6536,"lets":6537,"play":6538,"ĠUsing":6539,"ăăăăăăăăăăăăăăăăăăăăăăăăăăă":6540,"Ġintellectual":6541,"std":6542,"Ġcentury":6543,"antly":6544,"ih":6545,"Ġdebt":6546,"Ġraise":6547,")=\\":6548,"null":6549,"Ġpharmac":6550,"ek":6551,"Ġgreatest":6552,"ico":6553,"Ġexamined":6554,"Ġdetect":6555,"ĠCEO":6556,"2013":6557,"zeta":6558,"UM":6559,"Ġvacc":6560,"Ġtrain":6561,"ĠĊĠ":6562,"ĠCT":6563,"SM":6564,"house":6565,"Ġspecified":6566,"Ġlearned":6567,"oded":6568,"Window":6569,"Ġathlet":6570,"Ġstre":6571,"arily":6572,"Ġadult":6573,"cor":6574,"Ġeventually":6575,"ĠDavis":6576,"itative":6577,"**]{}":6578,")\"":6579,"Ġwidespread":6580,"olicy":6581,"Ġ39":6582,"Ġpowerful":6583,"Ġshut":6584,"Provider":6585,"ien":6586,"Ġopinions":6587,"Ġcandidate":6588,"mt":6589,"Ġdetail":6590,"letion":6591,"Ġbio":6592,"Ġcurve":6593,"men":6594,"Ġindependence":6595,"Ġdisp":6596,"Ġdepends":6597,"2014":6598,"Ġlimitations":6599,"Return":6600,"2016":6601,"Ġincident":6602,"ĠMany":6603,"ĠChurch":6604,"Ġpositions":6605,":\\":6606,"rog":6607,"ĠWil":6608,"**,":6609,"ĠIran":6610,"ĠBo":6611,"Ġconnect":6612,"ORD":6613,"Ġsupposed":6614,"Ġplane":6615,"ĠForm":6616,"Ġgarden":6617,"Level":6618,"Ġ64":6619,"Ġmorph":6620,"ĠBel":6621,"Ġwash":6622,"Query":6623,"coming":6624,"operative":6625,"cp":6626,"ĠâĢ¦":6627,"Ġinvestigated":6628,"Ġvary":6629,")*(":6630,"Ġmaster":6631,"ĠSH":6632,"sin":6633,"Ġhouses":6634,"Ġcrazy":6635,"bal":6636,"'.":6637,"ublisher":6638,"ERROR":6639,"Ġachieved":6640,"edu":6641,"world":6642,"Ġaircraft":6643,"$$\\":6644,"yan":6645,"Ġattorneys":6646,"ĠScience":6647,"ĠSP":6648,"ĠBrown":6649,"ĠWeb":6650,"Ġtypical":6651,"Ġtaught":6652,"?âĢĿ":6653,"SON":6654,"ĠAR":6655,"oprotein":6656,"ĠIII":6657,"Ġpathway":6658,"Ġgoals":6659,"ĊĠĠĠĠĠĠĠĠĠĠĠĠ":6660,"Ġpurchase":6661,"FC":6662,"Ġ${{\\":6663,"\\!\\":6664,"Ġmixed":6665,"otes":6666,"Ġ00":6667,"ĠYoung":6668,"ĠAp":6669,"ĠUp":6670,"ĠTom":6671,"Ġchanging":6672,"Ġbooks":6673,"ĠNone":6674,"has":6675,"ĠCollege":6676,"ĠSur":6677,"Ġweapon":6678,"Ġdominant":6679,"Ġjournal":6680,"Ġ44":6681,"ĠEngine":6682,"ĠProposition":6683,"Ġfraction":6684,"Ġupdates":6685,"Ġspring":6686,"Ġstandards":6687,"sg":6688,"akers":6689,"ĠFe":6690,"supplementary":6691,"âĶģâĶģâĶģâĶģâĶģâĶģâĶģâĶģâĶģâĶģâĶģâĶģâĶģâĶģâĶģâĶģ":6692,"Ġwestern":6693,"These":6694,"Ġagricult":6695,"ĠEgypt":6696,"Ġgranted":6697,"Ġcomplaint":6698,"law":6699,"inite":6700,"Ġspend":6701,"Ġfilms":6702,"Ġplurality":6703,"ASS":6704,"à¥":6705,"Le":6706,"Ġyes":6707,"Ġ2001":6708,"Ġbelief":6709,"font":6710,"Ġorientation":6711,"DB":6712,"Then":6713,"Ġinvalid":6714,"ĠPort":6715,"star":6716,"Ġpert":6717,"udd":6718,"tem":6719,"Ġantioxid":6720,"Ġflav":6721,"CTION":6722,"ĠBay":6723,"Ġacts":6724,"Ġisolated":6725,"PRO":6726,"Number":6727,"ĠLib":6728,"Ġpolar":6729,"FS":6730,"Ġdesired":6731,"${":6732,"UD":6733,"weight":6734,"Ġformula":6735,"gt":6736,"isted":6737,"Ġevaluation":6738,"Ġseeing":6739,"ĠBre":6740,"Ġcryptocurren":6741,",'":6742,"Just":6743,"ĠTR":6744,"Ġeasier":6745,"aming":6746,"ĠCr":6747,"Ġvascular":6748,"Ġmanager":6749,"Are":6750,"Ġlawyer":6751,"dim":6752,"Ġindeed":6753,"Ġsections":6754,"Ġarch":6755,"Ġstrongly":6756,"Ġrelief":6757,"Ġflat":6758,"FP":6759,"Ġdivisor":6760,"Ġdetailed":6761,"Ġsch":6762,"Ġfunds":6763,"ilateral":6764,"ĠCONDITIONS":6765,"ĠUkraine":6766,"Ġinvestment":6767,"cr":6768,"Ġenthusi":6769,"Ġtransplant":6770,"iller":6771,"Ġgoverning":6772,"Ġfuel":6773,"Bar":6774,"Ġvideos":6775,"Ġfourth":6776,"Ġmanufacturer":6777,"Ġfol":6778,"Ġ55":6779,"ĠSal":6780,"json":6781,"za":6782,"Ġ{{\\":6783,"Ġweren":6784,"Ġpersonnel":6785,"button":6786,"Action":6787,"Stream":6788,"Ã¶":6789,"Ġrespiratory":6790,"cf":6791,"Ġearth":6792,"Ġrac":6793,"2012":6794,"Ã¨":6795,"uls":6796,"Input":6797,"Ġreplic":6798,"Ġroughly":6799,"Ġsimpl":6800,"burg":6801,"Ġcategory":6802,"Ġstored":6803,"Ġassoci":6804,"img":6805,"asure":6806,"ĊĊĊĊ":6807,"Ġgly":6808,";\\":6809,"Ġcluster":6810,"Client":6811,"Ġcommitted":6812,"war":6813,"Ġexhaust":6814,"ipped":6815,"Ġchecks":6816,"}=\\":6817,"Ġrevers":6818,"most":6819,"Dis":6820,"Ġconclude":6821,"Ġconsidering":6822,"Ġ65":6823,"ĠWhich":6824,"change":6825,"Ġdirected":6826,"Ġafford":6827,"Ġdeviation":6828,"ï¼":6829,"ĠMem":6830,"DL":6831,"Ġpayment":6832,"Ġthanks":6833,"Ġsodium":6834,"process":6835,"Ġforced":6836,"Ġdocuments":6837,"Ġconven":6838,"TS":6839,"status":6840,"ĠParty":6841,"uting":6842,"small":6843,"ĠHill":6844,"Ġlik":6845,"Ġseasons":6846,"2017":6847,"Ġintervention":6848,"Ġrefuge":6849,"300":6850,"Ġlisted":6851,"Ġconclusions":6852,"Ã¼":6853,"QU":6854,">(":6855,"Ġaccident":6856,"ashed":6857,"Am":6858,"Ġpneumonia":6859,"del":6860,"ĠPsych":6861,"ĠGo":6862,"ĠGold":6863,"Ġcond":6864,"Ġnav":6865,"Ġconsult":6866,"esh":6867,"Ġpeptide":6868,"Ġdetermination":6869,"ĊĠĠĠĠĠĠĠĠĠĠĠĠĠĠĠĠĠ":6870,"Ġfluctuations":6871,"Ġstories":6872,"Ġequations":6873,"Ġrock":6874,"Ġskills":6875,"efully":6876,"NO":6877,"Ġfocused":6878,"ĠMS":6879,"Ġdepending":6880,"Ġforth":6881,"rive":6882,"Ġ300":6883,"ĠPhil":6884,"osh":6885,"ÂłÂłÂł":6886,"Ġwaiting":6887,"roc":6888,"Ġlose":6889,"Gen":6890,"ĠBen":6891,"ĠPR":6892,"Ġdispute":6893,"only":6894,"Ġplays":6895,"Ġgastrointestinal":6896,"uns":6897,"_{{\\":6898,"ĠSE":6899,"}}^":6900,"Ġcontemporary":6901,"Ġcoronavirus":6902,"Ġresulted":6903,"Ġ2002":6904,"Ġminim":6905,"ĠOpen":6906,"Ġfans":6907,"Ġcyt":6908,"Ġaccum":6909,"ertain":6910,"Ġmeasurement":6911,"Ġuint":6912,"AGE":6913,"ĠĠĠĠĠĠĠĠĠĠĠĠĠĠĠĠĠĠĠĠĠ":6914,"Ġobservations":6915,"Ġpossibly":6916,"omer":6917,"Ġversus":6918,"Ġmodified":6919,"çĶ¨":6920,"ĠItalian":6921,"cdots":6922,"ĠRussia":6923,"ĠSN":6924,"BO":6925,"Ġadvantages":6926,"***":6927,"ĠHIV":6928,"ĠOfficer":6929,"\"}.":6930,"ĠPe":6931,"./":6932,"oles":6933,"Ġprotocol":6934,"Content":6935,"ĠWell":6936,"undle":6937,"bound":6938,"Ġdysfunction":6939,"Ġassuming":6940,"Ġtag":6941,"output":6942,"clusive":6943,"Ġscattering":6944,"ĠMA":6945,"ĊĠĠĠĠĠĠĠĠĠĠĠĠĠĠĠĠĠĠĠĠĠĠĠĠĠĠĠĠĠĠĠĠĠĠĠĠĠĠĠĠĠĠĠĠĠĠĠĠ":6946,"Ġsanctions":6947,"Result":6948,"inations":6949,"Ġnodes":6950,"Ġangle":6951,"Ġfees":6952,"Ġol":6953,"Ġoffense":6954,"Ġfloat":6955,"TA":6956,"Ġinsert":6957,"Ġtobacco":6958,"Ġtwice":6959,"ĠLord":6960,"Ġemployed":6961,"Ġcash":6962,"Ġapproaches":6963,"appropriate":6964,"Ġcommunities":6965,"ancer":6966,"negative":6967,"Ġdamages":6968,"ĠTime":6969,"context":6970,"Â¶":6971,"rior":6972,"ĠEX":6973,"ĠNor":6974,"ĠCP":6975,"ted":6976,"Back":6977,"ĠCI":6978,"GE":6979,"Ġstreet":6980,"Ġplanning":6981,"ACK":6982,"Ġ41":6983,"ĠHenry":6984,"ĊĠĠĠĠĠĠĠĠĠĠĠĠĠĠĠĠĠĠĠĠĠĠĠĠĠĠĠĠĠĠĠ":6985,"Me":6986,"Ġantimicrobial":6987,"Ġtrip":6988,"Start":6989,"Ġresource":6990,"Ġinvestigate":6991,"Ġprofessor":6992,"Ġlongitudinal":6993,"Ġscan":6994,"Ġstanding":6995,"Ġenhance":6996,"ĠSpanish":6997,"Ġsustained":6998,"Ġscenarios":6999,"ĠUbuntu":7000,"GB":7001,"Ġscores":7002,"Ġtranscription":7003,"Ut":7004,"ä»":7005,"Ġcompare":7006,"Ġconfidence":7007,"po":7008,"Ġthorough":7009,"mut":7010,"Ġaccuracy":7011,"Ġ120":7012,"Ġshock":7013,"Ġfunding":7014,"128":7015,"ĠIP":7016,"Ġinterventions":7017,"ĠMiami":7018,"Since":7019,"Ġhelps":7020,"Ġwilling":7021,"Ġconcerned":7022,"ĠFile":7023,"Ġremoving":7024,"ander":7025,"ĠMatthew":7026,"dr":7027,"Ġtrials":7028,"Ġinher":7029,"ictions":7030,"ĠMary":7031,"ometric":7032,"ĠUN":7033,"iral":7034,"real":7035,"Run":7036,"ician":7037,"Ġnervous":7038,"cup":7039,"Ġ_{":7040,"rypt":7041,"Ġpal":7042,"Ġinvasion":7043,"Ġegg":7044,"Ġmainly":7045,"ĠGl":7046,"Ġdepth":7047,"istory":7048,"Ø§":7049,"Ġboundary":7050,"Ġasking":7051,"Ġelectronic":7052,"Ġadults":7053,"Ġrelationships":7054,"nav":7055,"uous":7056,"Ġmetric":7057,"Ġnegoti":7058,"ĠJersey":7059,"ritten":7060,"Ġanalysed":7061,"INE":7062,"ibrary":7063,"ĠJapanese":7064,"android":7065,"ĠEnd":7066,"%.":7067,"Left":7068,"Ġindividually":7069,"acle":7070,"Ġprosp":7071,"Ġcos":7072,"Ġburden":7073,"ĠRoyal":7074,"^+^":7075,"Ġfinished":7076,"Ġevaluate":7077,"ĠDefendants":7078,"Ġ&=":7079,"Ġexposed":7080,"ĠTur":7081,"Ġrecip":7082,"acting":7083,"Ã¤":7084,"ĠJavaScript":7085,"Over":7086,"Ġcontribution":7087,"Which":7088,"Ġsignaling":7089,"edy":7090,"Ġextends":7091,"ces":7092,"Ġancient":7093,"ĠAlex":7094,"ĠFree":7095,"Rem":7096,"Ġdraft":7097,"ĠCL":7098,"Ġsynchron":7099,"vo":7100,"Ġadvice":7101,"Ġworse":7102,"TER":7103,"ĠSolve":7104,"Ġscal":7105,"âĶĢâĶĢ":7106,"Ġseek":7107,"More":7108,",,,,,,,,,,,,,,,,,,,,,,,,,,,,,,,,,,,,,,,,,,,,,,,,":7109,"Ġframework":7110,"Ġnecess":7111,"2000":7112,"Ġemployee":7113,"\"),":7114,"Ġintervals":7115,"ĠÃĹ":7116,"Ġcapable":7117,"Ġcle":7118,"Ġcitizen":7119,"ĠSam":7120,"2010":7121,"adding":7122,"fix":7123,"007":7124,"Ġadvert":7125,"ĠRob":7126,"čĊĠĠĠĠĠ":7127,"Ġcycl":7128,"2011":7129,"Base":7130,"Ġsettings":7131,"Ġpilot":7132,"Ġideal":7133,"ita":7134,"Ġdil":7135,"associated":7136,"ĠPalestin":7137,"TC":7138,"Ġassessed":7139,"Ġaforementioned":7140,"ĠAustralia":7141,"ĠGeorgia":7142,"Ġplot":7143,"Ġion":7144,"ĠSD":7145,"Ġcritic":7146,"springframework":7147,"ortion":7148,"Ġbug":7149,"GC":7150,"FIG":7151,"Ġprofessionals":7152,")^{":7153,"layout":7154,"iger":7155,"itudes":7156,"Ñĥ":7157,"SL":7158,"Rev":7159,"iler":7160,"/-":7161,"Auth":7162,"006":7163,"client":7164,"ivation":7165,"ĠOffice":7166,"complete":7167,"Ġcompetition":7168,"END":7169,"Ġordered":7170,"Ġadvance":7171,"Ġadvanced":7172,"Ġdemonstrate":7173,"Ġbiological":7174,"itter":7175,"Ġpartner":7176,"Ġplaintiffs":7177,"Ġappeals":7178,"osph":7179,"Ġstack":7180,"Ġrelates":7181,"Pre":7182,"Note":7183,"ĠAnn":7184,"Ġheavily":7185,"ena":7186,"Ġparagraph":7187,"entry":7188,"NF":7189,"etime":7190,"setminus":7191,";&":7192,"Ð»":7193,"Ġseverity":7194,"ece":7195,"scale":7196,"ĠField":7197,"Ġmanifold":7198,"Ġpersons":7199,"?????????????????":7200,"Ġinsufficient":7201,"oster":7202,"ĠCap":7203,"Ġfinish":7204,"Ġship":7205,"Ġsalt":7206,"Br":7207,"ĠVictor":7208,"MD":7209,"ĠGood":7210,"Ġscope":7211,"ao":7212,"display":7213,"Ġchallenges":7214,"Ġ49":7215,"Ġpotentially":7216,"Ġbrother":7217,"Ġbath":7218,"Ġsuitable":7219,"ĠHall":7220,"HE":7221,"Ġ47":7222,"Ġimaging":7223,"mid":7224,"OK":7225,"Ġsolely":7226,"Ġ46":7227,"Settings":7228,"ĠFIG":7229,"ĠPlease":7230,"Ġlaugh":7231,"module":7232,"Ġfill":7233,"Ġinterval":7234,"Ġconsent":7235,"Ġrecru":7236,"Ġconference":7237,"Ġrats":7238,"Ġstopped":7239,"Ġdecide":7240,"bling":7241,"Ġchief":7242,"Ġstatistical":7243,"uint":7244,"Ġbeauty":7245,"Ġimprovement":7246,"Ġarter":7247,"âĢĿ,":7248,"Version":7249,"Ġrid":7250,"ĠJoseph":7251,"Last":7252,"Ġrecall":7253,"Ġincredibly":7254,"cut":7255,"Ġtight":7256,"ci":7257,"ikipedia":7258,"ĠGreat":7259,"ĠAcademy":7260,"Sim":7261,"gorithm":7262,"Ġclaimed":7263,"Ġremained":7264,"ĠNa":7265,"Ġsupplied":7266,"Vert":7267,"Ġ43":7268,"uro":7269,"Ġstrict":7270,"Ġasthma":7271,"ãĢģ":7272,"ĠNO":7273,"ĠTaylor":7274,"Ġban":7275,"ĠMajor":7276,"Spec":7277,"tag":7278,"MC":7279,"Ġended":7280,"Sch":7281,"cur":7282,"Man":7283,"Ġstupid":7284,"ifies":7285,"Ġsides":7286,"ĠMath":7287,"Ġunknown":7288,"Ġpartial":7289,"cripts":7290,"chema":7291,"Ġduration":7292,"rip":7293,"Ġjump":7294,"ijerph":7295,"ĠUse":7296,"Ġcytoplasm":7297,"Ġmand":7298,"riter":7299,"Ġpixel":7300,"Ġsuggesting":7301,"emia":7302,"ĠRussian":7303,"clear":7304,"==========":7305,"ultiple":7306,"ĠType":7307,"arks":7308,"Ġfrequently":7309,"Part":7310,".**":7311,"rist":7312,"Ġhence":7313,"Ġcarcinoma":7314,"120":7315,"Ġclothes":7316,"ĠÂ£":7317,"Ġdoctor":7318,"Ġconfront":7319,"Âº":7320,"Ġran":7321,"ogn":7322,"Device":7323,"SELECT":7324,"Ġbag":7325,"Ġacquisition":7326,"ĠRepublican":7327,"ĠWork":7328,"Ġstrain":7329,"ĠFollowing":7330,"unit":7331,"ĠMedic":7332,"Ġguide":7333,"urthermore":7334,"Ġreverse":7335,"Ġargues":7336,"ĠRule":7337,"Check":7338,"ĠIF":7339,")}\\":7340,"Ġsit":7341,"Ġmention":7342,"Ġbright":7343,"Ġtit":7344,"Ġnine":7345,"args":7346,"Ġcalcium":7347,"conf":7348,"rian":7349,"osure":7350,"mg":7351,"Ġabundance":7352,"Ġ150":7353,"ste":7354,"Ġcolon":7355,"Ġsauce":7356,"Ġreplace":7357,"Ġarms":7358,"Ġton":7359,"ĠBi":7360,"ideo":7361,"omal":7362,"Ġconjug":7363,"ifer":7364,"ĠANY":7365,"Char":7366,"Ġmarked":7367,"ployment":7368,"ĠLinux":7369,")]":7370,"Create":7371,"2018":7372,"Ġseconds":7373,"Ġâī¥":7374,"Ġ56":7375,"non":7376,"Ġradiation":7377,"istribution":7378,"Ġaxis":7379,"Ġvariation":7380,"Ġformal":7381,"\"]":7382,"ument":7383,"Ġstability":7384,"Ġsacr":7385,"Ġintent":7386,"GA":7387,"Ġpitch":7388,"ublished":7389,"Ġvitamin":7390,"ĠMinister":7391,"ola":7392,"ĠHence":7393,"Ġannual":7394,"Ġcannabis":7395,"fit":7396,"Ġtick":7397,"Ġdesirable":7398,"ĠBer":7399,"icious":7400,"tab":7401,"Ext":7402,"Ġstick":7403,"Ġacute":7404,"ERS":7405,"Ġthereby":7406,"aired":7407,"roduction":7408,"sd":7409,"high":7410,"ĠLike":7411,"Ġhomogeneous":7412,"Ġunusual":7413,"Ġoral":7414,"gent":7415,"Ġtables":7416,"Ġprovision":7417,"deg":7418,"dagger":7419,"Ġeligible":7420,"outs":7421,"empt":7422,"Ġdisorder":7423,"Ġpreliminary":7424,"ĠLog":7425,"eting":7426,"Ġlinked":7427,"Ġstruck":7428,"Ġmir":7429,"Ġaspects":7430,"ĠJohnson":7431,"HS":7432,"ĠmRNA":7433,"ĠGovernor":7434,"Ġce":7435,"Ġhum":7436,"Ġstarts":7437,"Ġcort":7438,"Ġsessions":7439,"Ġattacks":7440,"Ġkeeping":7441,"Ġimplies":7442,"Ġnumerous":7443,"Ġmatrices":7444,"month":7445,"Ġoverwhelming":7446,"Ġpopulations":7447,"References":7448,"ĠFrance":7449,"Status":7450,"method":7451,"Ġguidance":7452,"Ġindicating":7453,"ABLE":7454,"Ġepidem":7455,"Ġrelations":7456,"ĠBill":7457,"Ġfacilitate":7458,"Page":7459,"IE":7460,"Ġmixture":7461,"Ġperceived":7462,"ĠColorado":7463,"ĠJustice":7464,"ĠOnce":7465,"Ġidentification":7466,"iciency":7467,"Ġpoll":7468,"asy":7469,"Ġdispl":7470,"Ġopposite":7471,"NN":7472,"Ġaccepted":7473,"graph":7474,"Ind":7475,"Ġfre":7476,"Ġhierarch":7477,"ua":7478,"ĠOnly":7479,"Ġice":7480,"Ġinterpretation":7481,"ivariate":7482,"Ġattend":7483,"Ġunable":7484,"ĠSand":7485,"Ġbal":7486,"Ġentirely":7487,"Ġviolation":7488,"ĠĊĠĠĠ":7489,"Ġmission":7490,"Ġgather":7491,"Ġbeat":7492,"Ġmouth":7493,"Response":7494,"Ġcentrifug":7495,"Ġrecognized":7496,"Psi":7497,"([":7498,"LC":7499,"May":7500,"Ġcellular":7501,"LS":7502,"\\/":7503,"Ġbone":7504,"power":7505,"ĠĠĠĠĠĠĠĠĠĠĠĠĠĠĠĠĠĠĠĠĠĠ":7506,"msgid":7507,"oration":7508,"ĠIreland":7509,"Ġpractices":7510,"ala":7511,"Med":7512,"Ġgirls":7513,"Ġmunicipal":7514,"\"})":7515,"gener":7516,"Ġtuberculosis":7517,"lines":7518,"ĠJews":7519,"Ġdramatically":7520,"Ġnotes":7521,"Ġcontribute":7522,"rie":7523,"anda":7524,"isting":7525,"Ġends":7526,"find":7527,"Ġnarrow":7528,"ĠSingapore":7529,"ĠPRO":7530,"Ġspl":7531,"============":7532,"ĠTennessee":7533,"Ġrelax":7534,"Ġmassive":7535,"Ġsupporting":7536,"msgstr":7537,"Ġoxide":7538,"Ge":7539,"Ġpregnant":7540,"MB":7541,"TE":7542,"ĠSenate":7543,"Ġbirds":7544,"mat":7545,"=\"../../../../":7546,"ĠPA":7547,"Ġsteady":7548,"png":7549,"obs":7550,"aked":7551,"Ġresponsibility":7552,"110":7553,"tw":7554,"})\\":7555,"Ġsigns":7556,"$)":7557,"Ġmiles":7558,"ĠIll":7559,"Ġemployment":7560,"ĠSeveral":7561,"apse":7562,"missions":7563,"request":7564,"Ġappearance":7565,"ytic":7566,"ITY":7567,"(\\[":7568,"ĠON":7569,"Ġtechnical":7570,"afe":7571,"Post":7572,"Ġgap":7573,"\\^":7574,"next":7575,"CI":7576,"Ġaccompl":7577,"linear":7578,"owski":7579,"Ġ[[":7580,"Ġdisk":7581,"Solve":7582,"Ġphoto":7583,"search":7584,"400":7585,"ipping":7586,"Ġcompound":7587,"Ġhole":7588,"Ġmanaged":7589,"Ġresidents":7590,"ĠGive":7591,"Ġdependent":7592,"Ġoffset":7593,"groups":7594,"ERE":7595,"Ġroute":7596,"Ġdoctrine":7597,"Ġsmart":7598,"append":7599,"ycl":7600,"Ġminute":7601,"osa":7602,"Ġmolecules":7603,"widehat":7604,"Ġconcluded":7605,"Ġenable":7606,"Ġdynamic":7607,"æķ°":7608,"gers":7609,"\\]).":7610,"Ġcurrency":7611,"ĠPURPOSE":7612,"aus":7613,"MOESM":7614,"defined":7615,"Cons":7616,"Ġamounts":7617,"Ġcommonly":7618,"opath":7619,"Ġnewspaper":7620,"\\[[@":7621,"Ġaltern":7622,"Ġrent":7623,"equiv":7624,"ĠDaniel":7625,"Ġassigned":7626,"Ġconsideration":7627,"ĠPH":7628,"sup":7629,"BD":7630,"Ġcommission":7631,"posed":7632,"Ġaccompanied":7633,"Ġenemy":7634,"ressive":7635,"Ġbankruptcy":7636,"Ġarticles":7637,"kins":7638,"Ġdynamics":7639,"ĠTheir":7640,"FO":7641,"Ġsought":7642,"Ġrequirement":7643,"road":7644,"ĠBur":7645,"xe":7646,"Ġpulmonary":7647,"Ġeffectively":7648,"Ġvessel":7649,"media":7650,"orters":7651,"Ġaccurate":7652,"Ġdatabases":7653,"Point":7654,"Ġsin":7655,"owed":7656,"{\"":7657,"ees":7658,"Ġvac":7659,"cing":7660,"Ġuncertainties":7661,"Ġestimates":7662,"adata":7663,"Ġsensitive":7664,"Ġacceler":7665,"Ġmicrosc":7666,"VA":7667,"ysis":7668,"aver":7669,"Ġspaces":7670,"Ġtemplate":7671,"Ġsplit":7672,"Ġfilled":7673,"Ġ52":7674,"irty":7675,"ĠAfrica":7676,"ither":7677,"Ġdowntown":7678,"}}{\\":7679,"grade":7680,"ora":7681,"istor":7682,"quot":7683,"ĠEastern":7684,"number":7685,"obj":7686,"Ġdecades":7687,"Ġusual":7688,"ijms":7689,"ĠJud":7690,"BP":7691,"Ġbinary":7692,"00000":7693,"Ġ51":7694,"stat":7695,"Ġestate":7696,"oral":7697,"ĠElizabeth":7698,"Ġjustice":7699,"UI":7700,"thers":7701,"Ġspending":7702,"Your":7703,"#:":7704,"uccess":7705,"Ġju":7706,"ĠPCR":7707,"ĠMethods":7708,"Ġseeking":7709,"ĠConn":7710,"Ġwww":7711,"ĠTimes":7712,"åĪ":7713,"fa":7714,"ĠAPI":7715,"ader":7716,"control":7717,"Ġadmitted":7718,"Ġstellar":7719,"ĠSun":7720,"Ġantibiotics":7721,"Ġtroops":7722,"hr":7723,"Ġbottle":7724,"ĠRiver":7725,"life":7726,"obile":7727,"aints":7728,"Ġfavorite":7729,"Ġempirical":7730,"frame":7731,"ĠChildren":7732,"ĠMag":7733,"Ġcm":7734,"*^":7735,"was":7736,"Please":7737,"Ġduties":7738,"ogenic":7739,"ĠWill":7740,"Ġprominent":7741,"ĠĠĠĠĠĠĠĠĠĠĠĠĠĠĠĠĠĠĠĠĠĠĠ":7742,"strong":7743,"Ġretriev":7744,"Ġsecure":7745,"values":7746,"uster":7747,"mo":7748,"Ġobjective":7749,"Ġconsumption":7750,"Web":7751,"++)":7752,"olid":7753,"COM":7754,"vas":7755,"Ġ72":7756,"mL":7757,"]]":7758,"Ġbroken":7759,"ye":7760,"Ġassistance":7761,"Dep":7762,"napshot":7763,"Ġalt":7764,"Ġcorner":7765,"ĠRobert":7766,"Ġcharacterized":7767,"}/":7768,"///":7769,"aul":7770,"ĠMad":7771,"ĠWARRANTIES":7772,"Ġbrand":7773,"ĠIT":7774,"Ġgender":7775,"Ġdistinction":7776,"Ġplastic":7777,"Ġcourses":7778,"itors":7779,"Ġpet":7780,"Ġintention":7781,"Yeah":7782,"Det":7783,"Ġsmallest":7784,"ĠFITNESS":7785,"uch":7786,"uf":7787,"andom":7788,"Ġpredicted":7789,"Ġbattle":7790,"ĠNE":7791,"Ġemission":7792,"2008":7793,"ĠIndeed":7794,"Ġknee":7795,"ĠFore":7796,"[\"":7797,"Â¸":7798,"Äģ":7799,"Ġsuicide":7800,"Ġped":7801,"Ġorders":7802,"Ġ[]":7803,"ĠPacific":7804,"oder":7805,"*/":7806,"rid":7807,"Ġchair":7808,"category":7809,"Ġregistration":7810,"Ġsubstit":7811,"cat":7812,"ursor":7813,"urd":7814,"Ġfan":7815,"ĠVietnam":7816,"Ġresonance":7817,"Ġprinciple":7818,"Ġgar":7819,"ĠRad":7820,"Ġpages":7821,"Ġexpensive":7822,"Two":7823,"Ġinvariant":7824,"Ġembarrass":7825,"aken":7826,"Ġrecommended":7827,"Rel":7828,"Ġzone":7829,"ĠMedical":7830,"Control":7831,"').":7832,"lar":7833,"Ġsupports":7834,"tic":7835,"Ġhtml":7836,"rr":7837,"ords":7838,"Ġfell":7839,"ĠAgreement":7840,"^-":7841,"Ġpredetermined":7842,"Ġ54":7843,"Ġcustomer":7844,"Ġparticle":7845,"Ġpieces":7846,"Ġforg":7847,"imation":7848,"ĠSil":7849,"iance":7850,"000000000000000000000000":7851,"æľ":7852,"Ġembodiment":7853,"split":7854,"Ġaffidavit":7855,"Layout":7856,"ez":7857,"low":7858,"Ġfold":7859,"Ġhippocamp":7860,"Ġinfer":7861,"Ġinhibition":7862,"element":7863,"FR":7864,"2009":7865,"Ġwatching":7866,"ĠInformation":7867,"Ġfurniture":7868,"SR":7869,"Ġpip":7870,"DC":7871,"ĠScott":7872,"Ġphosphorylation":7873,"Ġcausing":7874,"Ġinfo":7875,"Ġtransf":7876,"ĠArab":7877,"Ġsuccessfully":7878,"Ġobesity":7879,"ĠIV":7880,"Ġtoler":7881,"expected":7882,"ĠFrank":7883,"Ġamendment":7884,"iki":7885,"La":7886,"olecular":7887,"uto":7888,"Ġ1999":7889,"ĠStr":7890,"Ġbaseline":7891,"Ġtargets":7892,"Ġassumptions":7893,"Ġepisodes":7894,"ĠZealand":7895,"ĠpH":7896,"Ġpoverty":7897,"Ġreducing":7898,"OB":7899,"ais":7900,"ĠHospital":7901,"anger":7902,"stylesheet":7903,"vail":7904,"Ġwarn":7905,"Ġamb":7906,"ĠEU":7907,"ĠPerhaps":7908,"Ġunion":7909,"}},":7910,"bel":7911,"ĠMont":7912,"ogenesis":7913,"UP":7914,"ums":7915,"Ġwear":7916,"ĠUs":7917,"ĠWITH":7918,"rief":7919,"Ġsitting":7920,"Ġgenuine":7921,"Ġinstalled":7922,"Ġinformed":7923,"iÃ³n":7924,"MM":7925,"ĠIts":7926,"Ġcompatible":7927,"Ġauthorities":7928,"Ġpromote":7929,"Ġresearchers":7930,"ĠTokyo":7931,"Ġcloud":7932,"ĠHel":7933,"\"\"":7934,"EXT":7935,"GR":7936,"iological":7937,"sign":7938,"Ġtrail":7939,"Ġstructural":7940,"VE":7941,"Ġworry":7942,"ĠObject":7943,"acement":7944,"Ġ---":7945,"Ġexamination":7946,"Ġmarried":7947,"Ġorganic":7948,"otted":7949,"Ġsector":7950,"Ġentreprene":7951,"Ġgotten":7952,"ĠDen":7953,"ĠCentral":7954,"Ġforget":7955,"css":7956,"dat":7957,"human":7958,"Ġborrow":7959,"ĠSpecifically":7960,"Ġrepresentative":7961,"Ġknock":7962,"show":7963,"ĠGL":7964,"Ġawesome":7965,"Ġ\"âĻª":7966,"google":7967,"ĠQue":7968,"Ġappropri":7969,"Ġstrains":7970,"thm":7971,"Ġil":7972,"enter":7973,"Ġmess":7974,"floor":7975,"Ġweekend":7976,"ract":7977,"Ġseat":7978,"Ġputting":7979,"Next":7980,"options":7981,"ĠIowa":7982,"Ġdemocracy":7983,"Ġvisible":7984,"Ġcerebral":7985,"```":7986,"tn":7987,"Ġfaster":7988,"root":7989,"Mr":7990,"Ġunderwent":7991,"Ġguard":7992,"ĠBack":7993,"Ġadm":7994,"ĠFed":7995,"server":7996,"Ġveget":7997,"Gu":7998,"Ġcabin":7999,"Ġeditor":8000,"Ġreplaced":8001,"OH":8002,"Ġfacilities":8003,"Ġobservation":8004,"ĊĠĠĠĠĠĠĠĠĠĠĠĠĠĠ":8005,"ĠAfrican":8006,"Ġsolve":8007,"Where":8008,"Ġdebate":8009,"Thanks":8010,"Ġdream":8011,"Ġburn":8012,"energy":8013,"}|":8014,"abb":8015,"Ġreform":8016,"Ã§":8017,"Ġacting":8018,"fast":8019,"Ġ101":8020,"lectric":8021,"Ġbehaviour":8022,"Ġsegments":8023,"Ġurl":8024,"Although":8025,"Ġlayers":8026,"ĠFalse":8027,"Ġdesc":8028,"bid":8029,"Ġdistinguished":8030,"ĠAnother":8031,"car":8032,"&=":8033,"ĠOntario":8034,"Ġassumed":8035,"Ġdangerous":8036,"Ġoverl":8037,"Ġturns":8038,"ĠEqu":8039,"Ġcandidates":8040,"Ġhomes":8041,"exec":8042,"NAME":8043,"va":8044,"ĠJordan":8045,"Buffer":8046,"Ġxmlns":8047,"Ġrepair":8048,"Ġmerely":8049,"Ġmatters":8050,"common":8051,"Ġsand":8052,"Another":8053,"Ġhypertension":8054,"ups":8055,"artifactId":8056,"ICE":8057,"Ġemergency":8058,"150":8059,"Ġpropag":8060,"ĠLong":8061,"ĠThompson":8062,")|":8063,"TD":8064,"Ġcart":8065,"ĠSecurity":8066,"ĊĊĠĠ":8067,"loc":8068,"ĠGal":8069,"Ġsi":8070,"Ġ1990":8071,"Ġcontainer":8072,"ented":8073,"Ġdifferential":8074,"Ġalle":8075,"acks":8076,"Ġpp":8077,"Ġvertices":8078,"Ġmic":8079,"Ġexperiences":8080,"ĠLab":8081,"Ġhundreds":8082,"Ġflag":8083,"Instance":8084,"Ġ2020":8085,"Ġlie":8086,"Ġ*)":8087,"Ġluck":8088,"Ġpassing":8089,"uh":8090,"Ġlowest":8091,"Cell":8092,"Ġpairs":8093,"Ġexecutive":8094,"ĠGreek":8095,"Ġdetermining":8096,"âĦ¢":8097,"Ġnom":8098,"Ġmyocardial":8099,"Ġlived":8100,">,":8101,"Operation":8102,"Ġmit":8103,"Ġaspect":8104,"Ġclosely":8105,"Ġbias":8106,"ĠSanta":8107,"Ġaid":8108,"Default":8109,"Ġperpendicular":8110,"born":8111,"\\*\\*":8112,"Ġterrible":8113,"erves":8114,"ĠÃł":8115,"]);":8116,"Ġproved":8117,"GG":8118,"Ġdirectory":8119,"ĠColumbia":8120,"Ġattach":8121,"Ġouter":8122,"earing":8123,"Ġrecombinant":8124,"Ġwrt":8125,"Ġretirement":8126,"ĠPittsburgh":8127,"ĠWhere":8128,"ivated":8129,"ATA":8130,"Ġposted":8131,"Ġubiquit":8132,"Ġnative":8133,"Ġiron":8134,"ĠFour":8135,"Ġwalking":8136,"Ġmenu":8137,"Ġpolitics":8138,"Ġmagazine":8139,"Ġclar":8140,"ohistochem":8141,"erts":8142,"ota":8143,"Ġprincipal":8144,"jo":8145,"Ġpump":8146,"Ġgravitational":8147,"Ġliability":8148,"Hz":8149,"Ġcoc":8150,"Right":8151,"Ĥ¬":8152,"Handle":8153,"Ġgate":8154,"008":8155,"simeq":8156,"Ġconsensus":8157,"Ġfingers":8158,".-":8159,"Ġtrees":8160,"ĠSk":8161,"ras":8162,"uma":8163,"Look":8164,"Ġinstant":8165,"DNA":8166,"Ġlawsuit":8167,"romagnetic":8168,"agen":8169,"ĠTre":8170,"Ġtelling":8171,"adow":8172,"DP":8173,"ĠPet":8174,"Ġinnov":8175,"ĠMexican":8176,"Ġdollar":8177,"Hel":8178,"Ġreservoir":8179,"ĠArch":8180,"Ġblocks":8181,"Ġcompact":8182,"Ġinitially":8183,"Mar":8184,"URL":8185,"Ġloved":8186,"Ġholiday":8187,"Ġdepos":8188,"Ġsupplies":8189,"Ġargue":8190,"Ġcities":8191,"Ġoperators":8192,"Ġdisagree":8193,"ĠYOU":8194,"ĠCounsel":8195,"Ġhonest":8196,"Ne":8197,"Ġlots":8198,"Ġ53":8199,"Ġsports":8200,"description":8201,"apes":8202,"enth":8203,"ĠMcC":8204,"ressing":8205,"ayers":8206,"Ġeating":8207,"Ġvision":8208,"Ġinstitution":8209,"Ġaggressive":8210,"Ġmaps":8211,"Ġrational":8212,"ached":8213,"Ġdelivered":8214,"Ġimplemented":8215,"imp":8216,"Ġrein":8217,"Ġpri":8218,"160":8219,"documentclass":8220,"Ġgrown":8221,"ĠMicro":8222,"Stat":8223,"Ġbusinesses":8224,"Ġrail":8225,"Panel":8226,"Ġ\\{":8227,"ĠLi":8228,"Ġtub":8229,"ubs":8230,"Despite":8231,"Ġcontributions":8232,"Ġconsists":8233,"Ġ99":8234,"ĠControl":8235,"Ġbind":8236,"Ġinjection":8237,"Ġwaste":8238,"ĠPlan":8239,"CU":8240,"minimal":8241,"Ġsensor":8242,"Ġphotos":8243,"ema":8244,"ta":8245,"onds":8246,"ĠĠĠĠĠĠĠĠĠĠĠĠĠĠĠĠĠĠĠĠĠĠĠĠ":8247,"band":8248,"ko":8249,"Ġbigger":8250,"ĠJones":8251,"Ġenhanced":8252,"---|---|---|---|---|---|---":8253,"Ġ1998":8254,"Ġoptimal":8255,"Ġcloser":8256,"Ġfont":8257,"Ġleadership":8258,"Ġantibiotic":8259,"ĠAssembly":8260,"ĠÎ²":8261,"Ġren":8262,"idential":8263,"čĊčĊčĊčĊčĊčĊčĊčĊčĊčĊčĊčĊčĊčĊčĊčĊčĊčĊčĊčĊčĊčĊčĊčĊčĊčĊčĊčĊčĊčĊčĊčĊčĊčĊčĊčĊčĊčĊčĊčĊčĊčĊčĊčĊčĊčĊčĊčĊ":8264,"Select":8265,"Today":8266,"ĠParliament":8267,"parallel":8268,"si":8269,"Ġtor":8270,"æĺ¯":8271,"Ġterritory":8272,"Te":8273,"ĠHarris":8274,"CIT":8275,"Ġaccounts":8276,"Ġvessels":8277,"weet":8278,"inating":8279,"reatment":8280,"ĠProject":8281,"called":8282,"IND":8283,"Ġterminal":8284,"Ġpig":8285,"eness":8286,"ĠLife":8287,"Ġvirt":8288,"BR":8289,"Ġlocations":8290,"Ġextend":8291,"Output":8292,"Ġagreements":8293,"Ġleague":8294,"Ġremark":8295,"Max":8296,"Ġconsequences":8297,"Ġpancreatic":8298,"Function":8299,"attr":8300,"Ġopportunities":8301,"Ġstomach":8302,"Ġminimal":8303,"ĠFisher":8304,"Vis":8305,"Ġgenome":8306,"ĠPan":8307,"ĠDaily":8308,"Ġ---------------------------------------------":8309,"Ġven":8310,"ĠGO":8311,"ondition":8312,"Ġcorrectly":8313,"buffer":8314,"======================":8315,"**(":8316,"home":8317,"Pat":8318,"Ġrig":8319,"Ġluminosity":8320,"ynth":8321,"Ġdenote":8322,")+":8323,"Param":8324,"Ġcertificate":8325,"bre":8326,"ĠAng":8327,"Ġwedding":8328,"Ġfacility":8329,"Ġunf":8330,"Ġphrase":8331,"zer":8332,"Mode":8333,"Ġdeemed":8334,"ĠPut":8335,"]$":8336,"STR":8337,"Ġthoughts":8338,"leted":8339,"Ġclosest":8340,"ĠÃĳ":8341,"Ġpathways":8342,"ĠKorean":8343,"atform":8344,"ruption":8345,"ĠLittle":8346,"ifts":8347,"Ġcovari":8348,"Ġextract":8349,"ĠMax":8350,"ĠTaiwan":8351,"template":8352,"2006":8353,"Ġcomparisons":8354,"Ġelectrons":8355,"raf":8356,"Before":8357,"foot":8358,"Ġsea":8359,"Ġelderly":8360,"oked":8361,"Ġinternet":8362,"Ġproximity":8363,"Ġartificial":8364,"idents":8365,"VD":8366,"Ġtrouble":8367,"Ġenergies":8368,"Ġflux":8369,"Ġpointed":8370,"Ġdisplayed":8371,"ertion":8372,"Ġsurrounding":8373,"Format":8374,"ĠHouston":8375,"Ġyeast":8376,"Ġcumulative":8377,"Ġmutations":8378,"ĠStar":8379,"ÂĢ":8380,"Ġlifestyle":8381,"\\]),":8382,"acket":8383,"Ġpractical":8384,"ĠBas":8385,"Ġinstruction":8386,"ĠSpirit":8387,"ĠDemocratic":8388,"]^.":8389,"Ġposterior":8390,"pose":8391,"Ġcreation":8392,"ĠName":8393,"contin":8394,"Ġapparently":8395,"1000":8396,"Ġintegrated":8397,"Ġbacteria":8398,"Ġpronounced":8399,"ĠCup":8400,"Arg":8401,"ĠMil":8402,"Ġclients":8403,"Ġmetast":8404,"Ġstages":8405,"ĠSpring":8406,"hyd":8407,"ulture":8408,"ĠNon":8409,"mann":8410,"Ġlibraries":8411,"/>":8412,"ĠSaudi":8413,"ĠReview":8414,"??":8415,"filter":8416,"2007":8417,"Ġrub":8418,"Ġpunishment":8419,"Ġ1997":8420,"PI":8421,"MENT":8422,"align":8423,"Ġceremony":8424,"Ġpin":8425,"Ġpreced":8426,"Ġhelping":8427,"LR":8428,"ĠLewis":8429,"2019":8430,"Ġchocolate":8431,"Ġdepression":8432,"txt":8433,"Ġcas":8434,"Dr":8435,"Ġdual":8436,"Ġ400":8437,"Ġdepart":8438,"Ġuptake":8439,"Ġirrelevant":8440,"Ġmedian":8441,"Phys":8442,"Ġevening":8443,"Ġspectra":8444,"ĠOS":8445,"---------------------------------------":8446,"Ġcoupling":8447,"Ġconviction":8448,"pdf":8449,"Ġscreening":8450,"Fe":8451,"Ġimplied":8452,"pet":8453,"Ġsounds":8454,"Ġ1000":8455,"});":8456,"Ġtail":8457,"ĠVis":8458,"Ġregression":8459,"Supp":8460,"License":8461,"oxy":8462,"Ġsubmitted":8463,"ĠSign":8464,"urop":8465,"Ġ58":8466,"ĠInterestingly":8467,"III":8468,"Ġtopic":8469,"Ġsong":8470,"Ġorth":8471,"Ġ96":8472,"ĠJan":8473,"Ġneck":8474,"Ġinadequate":8475,"Ġsynthesis":8476,"Ġconstructed":8477,"Ġ110":8478,"Ġpreparing":8479,"Ġargued":8480,"Ġhousehold":8481,"Ġfaculty":8482,"ĠPolice":8483,"Ġdescribes":8484,"Ġsolar":8485,"Load":8486,"čĊĉĉ":8487,"Str":8488,"WH":8489,"Ġclassical":8490,"Ġamino":8491,"ä½":8492,"=\"#":8493,"Ġdogs":8494,"ĠVer":8495,"Ġsophisticated":8496,"Ġrh":8497,"ĠWilliams":8498,"ĠNov":8499,"####":8500,"Ġ\"(":8501,"Ġbeam":8502,"250":8503,"margin":8504,"Ġcollabor":8505,"otropic":8506,"rin":8507,"Open":8508,"orage":8509,"ona":8510,"avel":8511,"Identifier":8512,"ĠVol":8513,"Ġcounts":8514,"Ġcharacteristic":8515,"original":8516,"aled":8517,"Ġessentially":8518,"rb":8519,"Ġwelfare":8520,"Ġ57":8521,"Ġsheet":8522,"Ġkick":8523,"Ġconstraint":8524,"ĠEth":8525,"ĠÃĹÂ":8526,"Ġcopyright":8527,"ĠCall":8528,"Ġske":8529,"ĠCamp":8530,"Factory":8531,"Ġmanage":8532,"uing":8533,"Ġcoronary":8534,"Ġobj":8535,"Ġaccompanying":8536,"}{-":8537,"Ġwaters":8538,"Ġ\\>":8539,"}^\\":8540,"-(":8541,"PCR":8542,"riers":8543,"Ġpaint":8544,"Ġmeat":8545,"Net":8546,"ĠRT":8547,"Ġmine":8548,"Ġmarkets":8549,"reasonable":8550,"rh":8551,"125":8552,"Ġprotocols":8553,"Ġcategories":8554,"Ġremote":8555,"odd":8556,"Ġexplore":8557,"Ġquadr":8558,"English":8559,"ques":8560,"Ġadvoc":8561,"Ġlig":8562,"ĠFil":8563,"ĠDev":8564,"Ġaffirmed":8565,"Ġtaxes":8566,"Ġfeedback":8567,"center":8568,"UC":8569,"Ġagenda":8570,"ĠIgG":8571,"Ġretro":8572,"\\\"":8573,"Command":8574,"Ġhypothesis":8575,"setlength":8576,"Ġdecomposition":8577,"Builder":8578,"ĠCOPYRIGHT":8579,"eller":8580,"Ġspeaking":8581,"ĠWal":8582,"BM":8583,"Ġmaintained":8584,"chain":8585,"Ġraw":8586,"ORE":8587,"Ġdesire":8588,"ĠIR":8589,"stack":8590,"Ġchapter":8591,"Ġspectrosc":8592,"ĠÃ©":8593,"Ġ1996":8594,"World":8595,"Ġsoil":8596,"Ġdeclared":8597,"ACE":8598,"ĠChief":8599,"Ġregime":8600,"Ġrecording":8601,"atural":8602,"Ġlisten":8603,"010":8604,"Ġwealth":8605,"Ġ\"\"\"":8606,"isters":8607,"Ġ85":8608,"}\\,":8609,"package":8610,"ĠFire":8611,"ĠCorp":8612,"Ġimmediate":8613,"={":8614,"È±":8615,"Ġoffering":8616,"ĠWall":8617,"gathered":8618,"Ðº":8619,"Ġlen":8620,"amsmath":8621,"ĠKentucky":8622,"ĠHaw":8623,"bool":8624,"Ġ59":8625,"esth":8626,"Ġreputation":8627,"Ġiniti":8628,"Ġeigen":8629,"||":8630,"ponents":8631,"Ġposts":8632,"Ġtells":8633,"Ġcustody":8634,".âĢĻ":8635,"rolled":8636,"Acknowledg":8637,"-_-_-_-_-_-_-_-_-_-_-_-_-_-_-_-_-_-_-":8638,"Pol":8639,"Link":8640,"have":8641,"Ġfellow":8642,"Ġbiom":8643,"Ke":8644,"Ġquiet":8645,"Ġreporting":8646,"Ġcigarette":8647,"Ġcancers":8648,"Ġidentical":8649,"Ġtreatments":8650,"Ġmothers":8651,"Ġinstruments":8652,"Ġcircuits":8653,"Ġassign":8654,"Ġconsole":8655,"Every":8656,"Options":8657,"Definition":8658,"ĠNetflix":8659,"DM":8660,"FONT":8661,"buf":8662,"å®":8663,"hhhhhhhhhhhhhhhhhhhhhhhhhhhhhhhhhhhhhhhhhhhhhhhh":8664,"ione":8665,"Mon":8666,"Ġclassification":8667,"Ġimprisonment":8668,"Ġintelligent":8669,"Resource":8670,"Ġking":8671,"ĠPower":8672,"Ġpatch":8673,"Ġrealize":8674,"uts":8675,"][@":8676,"Ġtransformation":8677,"Ġnurs":8678,"Ġneutral":8679,"Ġmodify":8680,"Ġregulations":8681,"Min":8682,"ĠCare":8683,"Ġexamine":8684,"Ġrescue":8685,"Ġencoding":8686,"Ġrecognition":8687,"Ġserving":8688,"Ġinches":8689,"Results":8690,"Ġrespective":8691,"Ġcurves":8692,"Ġrequested":8693,"header":8694,"ourse":8695,"ceptions":8696,"2005":8697,"ĠCheck":8698,"iana":8699,"Ġspoke":8700,"Ġincidence":8701,"amps":8702,"Length":8703,"Ġ$(\\":8704,"Ġsatellite":8705,"Ġfinds":8706,"ĠHE":8707,"Ġbars":8708,"Ġsituations":8709,"Block":8710,"Init":8711,"Ġpeculiar":8712,"Listener":8713,"Ġillness":8714,"Component":8715,"LD":8716,"TP":8717,"qquad":8718,"ĠSometimes":8719,"Ġexclusively":8720,"ĠLo":8721,"ĠMicrosoft":8722,"ĠCount":8723,"Ag":8724,"Ġhal":8725,"ytes":8726,"ĠSl":8727,"Ġplanet":8728,"(*":8729,"Ġassault":8730,"Ġimpairment":8731,"owing":8732,"ĠTim":8733,"vector":8734,"ĠKelly":8735,"iod":8736,"ĠIsland":8737,"ĠDO":8738,"Ġconvergence":8739,"Ġplain":8740,"Because":8741,"åĲ":8742,"Ġworst":8743,"&&":8744,"ĠMel":8745,"settings":8746,"SO":8747,"Ġswe":8748,"dx":8749,"teen":8750,"ĠSoviet":8751,"Ġschizophrenia":8752,"Ġlies":8753,"Ġrotation":8754,"^,":8755,"Ġradi":8756,"Ġshooting":8757,"ĠApple":8758,"Ġreplied":8759,"ĠLabor":8760,":(":8761,"ria":8762,"Ġsick":8763,"Ġbarely":8764,"Ġng":8765,"close":8766,"ĠÎ±":8767,"Ġyouth":8768,"Ġsymbols":8769,"ĠKansas":8770,"Ġscenes":8771,"Ġthr":8772,"Ġok":8773,"Ġloan":8774,"Ġguests":8775,"Ġclimate":8776,"zing":8777,"ĠDemocrats":8778,"Ġhelpful":8779,"Ġbought":8780,"ĠĠĠĠĠĠĠĠĠĠĠĠĠĠĠĠĠĠĠĠĠĠĠĠĠ":8781,"Ġalloc":8782,"Ġgam":8783,"Ġstem":8784,"Find":8785,"push":8786,"Ġquestionnaire":8787,"cb":8788,"Ġtrivial":8789,"Ġassets":8790,"Ġpulled":8791,"Ġaffirm":8792,"Ġprescribed":8793,"äº":8794,"Met":8795,"2001":8796,"Ġincredible":8797,"equal":8798,"Ġsomewhat":8799,"Ġrequests":8800,"Ġtransaction":8801,"ĠNav":8802,"Ġdischarged":8803,"Update":8804,"Ġfiscal":8805,"Ġadolescents":8806,"auth":8807,"Ġalign":8808,"Ġarrested":8809,"ĠPeter":8810,"Ġcontents":8811,"Ġrect":8812,">&":8813,"Gener":8814,"flu":8815,"etics":8816,"Ġmask":8817,"Ġhurt":8818,"rug":8819,"256":8820,"Ġruling":8821,"Ġanterior":8822,"ĠIr":8823,"Ġnanoparticles":8824,"Supplementary":8825,"Sm":8826,"neq":8827,"Ġess":8828,"iary":8829,"Ġstyles":8830,"Ġlegitimate":8831,"Ġdrawn":8832,"ĠBaltimore":8833,"Ġ66":8834,"Ġteaching":8835,"Other":8836,"Ġemissions":8837,"ĠDC":8838,"âĢĺ":8839,"ĠHome":8840,"Ġpeptides":8841,"Current":8842,"Ġdramatic":8843,"Ġpreferred":8844,"FE":8845,"Ġos":8846,"aria":8847,"Ġcentre":8848,"Ġ],":8849,"åħ":8850,"]\\":8851,"DI":8852,"Tab":8853,"Ġmail":8854,"Ġlob":8855,"Ġnm":8856,"ĠClinical":8857,"Ġhidden":8858,"Ġ\\*":8859,"Ġinfected":8860,"ĠLincoln":8861,"mode":8862,"Ġsavings":8863,"Ġtube":8864,"Ġmanip":8865,"empl":8866,"Ġhate":8867,"utch":8868,"Ġdeaths":8869,"Ġmaternal":8870,"lie":8871,"Ġfelony":8872,"ĠKevin":8873,"Ġdriven":8874,"ulti":8875,"Ġgrid":8876,"Ġoc":8877,"ĠFund":8878,"ãģĹãģ":8879,"Ġlandscape":8880,"Work":8881,"available":8882,"iner":8883,"Ġtow":8884,"ĠProt":8885,"ĠCS":8886,"conscious":8887,"Ġdiplom":8888,"oids":8889,"Ġenzyme":8890,"ĠOb":8891,"Ġfighting":8892,"Ġbet":8893,"ĠBE":8894,"ĠLegislature":8895,"oggle":8896,"ĠThose":8897,"Ġapplying":8898,"Ġpicking":8899,"Ġweather":8900,"Ġnormally":8901,"Tex":8902,"env":8903,"%),":8904,"ATH":8905,"Ġvoters":8906,"erman":8907,"ĠMississippi":8908,"ĠJournal":8909,"Ġlogic":8910,"Ġtunnel":8911,"desc":8912,"ĠText":8913,"ĠScotland":8914,"}^{(":8915,"Ġquasi":8916,"Ġmembranes":8917,"ĠMa":8918,"Ġcarrying":8919,")))":8920,"Ġrealized":8921,"GET":8922,"Ġrehabilitation":8923,"Ġcounty":8924,"dist":8925,"ĠLee":8926,"Ġdivision":8927,"Ġ&\\":8928,"Ġpermission":8929,"Ġroles":8930,"Ġemotions":8931,"Ġassumption":8932,"Ġgrade":8933,"ĠCHECK":8934,"Ġmechanical":8935,"click":8936,"water":8937,"Ġbureaucr":8938,"Ġcontroller":8939,"Ġcoal":8940,"Ġspectral":8941,"zen":8942,"Ġcooperation":8943,"Ġsy":8944,"Ġasc":8945,"ĠIMPLIED":8946,"Ġfiber":8947,"WS":8948,"quare":8949,"Ġtip":8950,"Ġreads":8951,"Ġhall":8952,"update":8953,"}+\\":8954,"Ñı":8955,"sts":8956,"Ġtough":8957,"esides":8958,"eclipse":8959,"Ġourselves":8960,"Ġcultural":8961,"Ġasympt":8962,"ĠPo":8963,"ĠJonathan":8964,"Ġregistered":8965,"ĠModel":8966,"None":8967,"Ġacids":8968,"mi":8969,"DD":8970,"Ġsubstantially":8971,"Ġ62":8972,"Ġinfections":8973,"reens":8974,"Ġpresum":8975,"Ġpixels":8976,"=======":8977,"Go":8978,"Build":8979,"Ġhappening":8980,"Row":8981,"ĠValue":8982,"Ġintestinal":8983,"Ġsharp":8984,"ĠWilliam":8985,"NOT":8986,"istics":8987,"Ġaccused":8988,"FORM":8989,"Michael":8990,"NC":8991,"hab":8992,"OST":8993,"Ġprivilege":8994,"iser":8995,"Ġmillions":8996,"che":8997,"Child":8998,"Ġexcited":8999,"vents":9000,"Ġimagine":9001,"Ġrain":9002,"ĠThanks":9003,"iration":9004,"Ġfranchise":9005,"Ġpublish":9006,"Ġseparated":9007,"Ġancest":9008,"Ġpermit":9009,"Ġpositively":9010,"âĪ":9011,"ĠMs":9012,"mapsto":9013,"âĢĭ":9014,"she":9015,"Ġintrinsic":9016,"Ġprognostic":9017,"Ġcru":9018,"Ġconversion":9019,"Ġexperts":9020,"Ġtherm":9021,"2004":9022,"Ġdiameter":9023,"Ġparliament":9024,"Ġà¤":9025,"pace":9026,"Ġpaying":9027,"âĸĪâĸĪâĸĪâĸĪ":9028,"Ġdropped":9029,"Ġscratch":9030,"Ġpatent":9031,"ĠLev":9032,"ĠWho":9033,"response":9034,"ULT":9035,"Ġuniversity":9036,"ĠProgram":9037,"antic":9038,"Ġcorrelated":9039,"Ġpermits":9040,"pop":9041,"ĠDate":9042,"Ġlat":9043,"aks":9044,"gebra":9045,"People":9046,"prefix":9047,"Â¼":9048,"Ġconsumer":9049,"Ġopposition":9050,"Ġplanned":9051,"Ġfirms":9052,"Ġridiculous":9053,"Ġlegislation":9054,"Ġradius":9055,"Ġarrival":9056,"ĠAcc":9057,"ĠAff":9058,"Ġfo":9059,"ĠMount":9060,"Ġ63":9061,"Ġconflicts":9062,"Ġsuperior":9063,"Ġadj":9064,"Equal":9065,"ĠSU":9066,"Width":9067,"overnment":9068,"Ġsister":9069,"Ġfantastic":9070,"ÑĤÑĮ":9071,"Ġconvinced":9072,"Ġboolean":9073,"Ġinstitutions":9074,"ictionary":9075,"ĠDeb":9076,"retion":9077,"acking":9078,"them":9079,"blog":9080,"Ġ>=":9081,"ĠMur":9082,"Ġpursue":9083,"ĠAvenue":9084,"VAL":9085,"Ġpurchased":9086,"ĠMuseum":9087,"ned":9088,"Ġsizes":9089,"Ġknowing":9090,"direct":9091,"Ġwebsites":9092,"system":9093,"uke":9094,"Ġsimulation":9095,"Mem":9096,"Ġreactions":9097,"pa":9098,"Ġdocumentation":9099,"Ġfeels":9100,"ĠOregon":9101,"Ġgrateful":9102,"AK":9103,"Ġcanonical":9104,"Configuration":9105,",\\,\\,\\,\\,\\,\\,\\,\\,\\,\\,\\,\\,\\,\\":9106,"HC":9107,"ĠSum":9108,"notation":9109,"ja":9110,"Ġcomplement":9111,"Ġfle":9112,"ĠWood":9113,"ropolitan":9114,"ga":9115,"Ġav":9116,"ĠProv":9117,"Ġintroduce":9118,"ctx":9119,"Ġfer":9120,"river":9121,"Ġcars":9122,"Ġreliable":9123,"service":9124,"Ġdrives":9125,"Ġ68":9126,"Ġincreasingly":9127,"ampl":9128,"ĠStephen":9129,"Ġatheroscler":9130,"Ġrecurrence":9131,"Ġsharing":9132,"Ġpromise":9133,"è¿":9134,"Ġviral":9135,"Ġowned":9136,"Ġokay":9137,"Ġchromosome":9138,"draw":9139,"ervation":9140,"ĠHTTP":9141,"ĠReal":9142,"Ġtransferred":9143,"Ġkinds":9144,"bell":9145,"ĠExper":9146,"Ġcomplicated":9147,"scriptscriptstyle":9148,"Ġentity":9149,"BB":9150,"Direct":9151,"ĠSwitzerland":9152,"ĠGNU":9153,"Ġsubstance":9154,"Ġstrategic":9155,"Ġmacrophages":9156,"Ġvictims":9157,"Ġrapidly":9158,"Ġsympath":9159,"Ġrecognize":9160,"fessional":9161,"Ġoriginally":9162,"Ġforming":9163,"Ġbear":9164,"=(":9165,"Ġprompt":9166,"~,":9167,"ĠIns":9168,"Ġtrafficking":9169,")*(-":9170,"Ġsetup":9171,"}}^{":9172,"Ġinduction":9173,"Ġradical":9174,"Ġslowly":9175,"ĠmM":9176,"ĠFind":9177,"ilar":9178,"Ġwine":9179,"atur":9180,"ĠFre":9181,"Ġcorporate":9182,"endar":9183,"Who":9184,"axis":9185,"{-":9186,"El":9187,"nic":9188,"Ġextensive":9189,"ĠRoad":9190,"Ġacquired":9191,"255":9192,"Also":9193,"Ġanyway":9194,"card":9195,"-=-=-=-=-=-=-=-=-=-=-=-=-=-=-=":9196,"Ġbrown":9197,"ori":9198,"Ġclock":9199,"uzz":9200,"Ġ1995":9201,"Ġdefic":9202,"files":9203,"Ġsubstances":9204,"Ġdust":9205,"Ġintegral":9206,"ĠRodriguez":9207,"ĊĊĠĠĠĠĠĠĠĠĠĠĠĠĠĠĠ":9208,"======================================================":9209,"Ġexpon":9210,"inson":9211,")}{":9212,"front":9213,"ĠGrand":9214,"'$":9215,"actic":9216,"ĠÂµ":9217,"Ġrestaurant":9218,"Â®":9219,"atisf":9220,"ucle":9221,"(_":9222,"ĠmiR":9223,"Ġaddressed":9224,"\"}),":9225,"Process":9226,"ima":9227,"Thank":9228,"ĠTrust":9229,"Ġregulatory":9230,"conduct":9231,"Thread":9232,"iber":9233,"ĠImmun":9234,"Ġsuff":9235,"ĠScientific":9236,"Ġentrance":9237,"Ġboost":9238,"Ġaver":9239,"Ġpayments":9240,"Ġpassword":9241,"Ġfails":9242,"Ġreviewed":9243,"PAR":9244,"ructs":9245,"Ġwinning":9246,"Âģ":9247,"GS":9248,"ĠHollywood":9249,"ĠMean":9250,"âĢ¬âĢ¬âĢ¬âĢ¬âĢ¬âĢ¬âĢ¬âĢ¬âĢ¬âĢ¬âĢ¬âĢ¬âĢ¬âĢ¬âĢ¬âĢ¬âĢ¬âĢ¬âĢ¬âĢ¬âĢ¬âĢ¬âĢ¬âĢ¬":9251,"Ġdreams":9252,"Ġcolumns":9253,"Ġstatistics":9254,"kt":9255,"Hey":9256,"ologic":9257,"column":9258,"Ġheader":9259,"Ġintegration":9260,"Ġarthritis":9261,"Ġpresentation":9262,"Ġalk":9263,"Ġentropy":9264,"Ġfairly":9265,"ĠKey":9266,"VERSION":9267,"VID":9268,"Ġaggrav":9269,"Ġinflammatory":9270,"west":9271,"reated":9272,"rome":9273,"Ġaudience":9274,"Ġ67":9275,"Ġsettlement":9276,"600":9277,"rays":9278,"ococcus":9279,"Ġentertainment":9280,"ynchron":9281,"vm":9282,"Ġparticipate":9283,"offset":9284,"Ġevident":9285,"Ġgastric":9286,"Ġ$-":9287,"Frame":9288,"Ġgift":9289,"ho":9290,"ĠNY":9291,"Ġclusters":9292,"Ġretail":9293,"iders":9294,"Ġiter":9295,"Ġmomentum":9296,"Ġbeta":9297,"Ġschemes":9298,"Bo":9299,"Ġshaft":9300,"Ġgoods":9301,"Ġstraightforward":9302,"Ġhotel":9303,"vol":9304,"Ġtab":9305,"ĠAlabama":9306,"bro":9307,"etal":9308,"..\\..\\":9309,"Ġwindows":9310,"Ġwound":9311,"Ġhydraulic":9312,"GP":9313,"vubuntor":9314,"step":9315,"Ġha":9316,"hol":9317,"Ġprobe":9318,"ĠCOM":9319,"activity":9320,"ĊČ":9321,"Ġauthent":9322,"Ġregardless":9323,"court":9324,"chemical":9325,"Ġlift":9326,"emon":9327,"Ġ\"\\":9328,"Ġlawyers":9329,"pool":9330,"oute":9331,"Ġhazard":9332,"HL":9333,"ĠTop":9334,"Ġwarning":9335,"Ġchoices":9336,"Donald":9337,"Cal":9338,"anted":9339,"Ġengaged":9340,"Ġincubation":9341,"Ġtwenty":9342,"ĠPT":9343,"Ġ1980":9344,"Ġhydrogen":9345,"Ġvehicles":9346,"ãģ®":9347,"Ġneuronal":9348,"Ġsimulations":9349,"Ġ:)":9350,"Ġfee":9351,"Ġtort":9352,"uture":9353,"Ġserial":9354,"Ġpublication":9355,"ĠDouglas":9356,"ĠMaybe":9357,"inals":9358,"ĠIntelligence":9359,"Ġadverse":9360,"ĠConstitution":9361,"Server":9362,"Ġethanol":9363,"Ġstolen":9364,"Ġfuck":9365,"ĠDoes":9366,"Ġyounger":9367,"nn":9368,"Ġ}}":9369,"Ġedges":9370,"Ġmes":9371,"Ġkilling":9372,"ĠLake":9373,"Appellant":9374,"GT":9375,"idel":9376,"SY":9377,"ĠĠĠĠĠĠĠĠĠĠĠĠĠĠĠĠĠĠĠĠĠĠĠĠĠĠ":9378,"HA":9379,"Ġlaboratory":9380,"Ġcoupled":9381,"ĠDiego":9382,"ĠMrs":9383,"Ġoperate":9384,"Ñĭ":9385,"Ġsuffered":9386,"Ġcapture":9387,"Ġspecimens":9388,"luorescence":9389,"Ġsocioeconomic":9390,"Ġ61":9391,"Ġinfiltr":9392,"Ġseparation":9393,"pin":9394,"Ġwonderful":9395,"then":9396,"ĠLeft":9397,"Ġstores":9398,"Ġcrash":9399,"ername":9400,"ĠOper":9401,"havior":9402,"AF":9403,"Ġaside":9404,"ĠBook":9405,"Ġsubsequently":9406,"product":9407,"Ġbanks":9408,"tra":9409,"Ġcalculate":9410,"empty":9411,"Ġvast":9412,"Ġheadquarters":9413,"BE":9414,")}$":9415,"ĠVersion":9416,"amination":9417,"NET":9418,"Ġrefused":9419,"ĠLos":9420,"Ġsad":9421,"ĠFootball":9422,"Ġdependence":9423,"}_\\":9424,"Ġtremendous":9425,"Ġremind":9426,"Ġdiagrams":9427,"Ġbuildings":9428,"Ġmob":9429,"á»":9430,"Ġattempted":9431,"Ġproducing":9432,"$_":9433,"example":9434,"ĠSC":9435,"Ġwriter":9436,"Ġcolors":9437,"HR":9438,"Null":9439,"jango":9440,"Ġinhibitor":9441,"ĠCanadian":9442,"Ġsuffering":9443,"bul":9444,"Ġfort":9445,"iology":9446,"isk":9447,"Ġveter":9448,"ĠFort":9449,"foo":9450,"Engine":9451,"ĠThree":9452,"Ġflight":9453,"Many":9454,"Ġwalls":9455,"Ġcalculation":9456,"Ġstood":9457,"ĠMer":9458,"Ġdecade":9459,"sv":9460,"Ġdiscover":9461,"Ġ-\\":9462,"Ġcorresponds":9463,"Â´":9464,"Ġrenew":9465,"Ġescape":9466,"Ġemployer":9467,"Ġschedule":9468,"009":9469,"kes":9470,"Att":9471,"enyl":9472,"Ġboys":9473,"aching":9474,"Ġaccommod":9475,"Ð¼":9476,"Ġstrike":9477,"Ġversions":9478,"grad":9479,"double":9480,"Ġcontributed":9481,"support":9482,"Ġrepresenting":9483,"Ġgrounds":9484,"æĸ":9485,"Reference":9486,"About":9487,"ĠMI":9488,"ĠCard":9489,"Ġminister":9490,"Ġplenty":9491,"Ġproceedings":9492,"Ġbeer":9493,"Ġhell":9494,"Ġbasically":9495,"Ġfacing":9496,"Ġindictment":9497,"ĠLIABILITY":9498,"ĠSol":9499,"regulated":9500,"Ġexit":9501,"bscribe":9502,"ĠReport":9503,"Even":9504,"Ver":9505,"icated":9506,"ĠBush":9507,"leep":9508,"ĠEff":9509,"ĠAmong":9510,"ĠRepublicans":9511,"ĊĠĠĠĠĠĠĠĠĠĠĠĠĠĠĠĠ":9512,"Ġlens":9513,"Ġ250":9514,"uri":9515,"%;":9516,"Ġdistricts":9517,"Ġmapping":9518,"getElementById":9519,"Ġcircum":9520,"Ġtransparency":9521,"irection":9522,"Ġmonitored":9523,"čĊĠĠĠĠĠĠĠĠĠĠĠĠĠĠĠ":9524,"Ġtournament":9525,"isa":9526,"ji":9527,"Ġinconsistent":9528,"positive":9529,"Ġvolumes":9530,"Ġattribute":9531,"Ġheter":9532,"Ġyellow":9533,"Ġmodes":9534,"ĠFood":9535,"Ġwalked":9536,"ĠLine":9537,"Ġ1994":9538,"Ġarbit":9539,"Ġequally":9540,"API":9541,"Ġinflammation":9542,"ĠRam":9543,"2003":9544,"Ġfemin":9545,"ida":9546,"ĠLast":9547,"ĠTw":9548,"imum":9549,"Ġthickness":9550,"Ġconsumers":9551,"Ġisland":9552,"Ġmathematical":9553,"Ġopposed":9554,"ĠBureau":9555,"zero":9556,"Ġthrows":9557,"ucks":9558,"Write":9559,"ĠMus":9560,"Ġcircle":9561,"Ġwinter":9562,"Ġflash":9563,"Ġperforming":9564,"Ġconversations":9565,"Ġsen":9566,"ĠOxford":9567,"Ġregional":9568,"ĠFA":9569,"Ġkeys":9570,"Ġmoves":9571,"Ġdeclaration":9572,"Description":9573,"åľ¨":9574,"Ġobserve":9575,"make":9576,"ĠCell":9577,"illion":9578,"dl":9579,"ĠAccordingly":9580,"Ġelectrode":9581,"alloc":9582,"Ġagencies":9583,"Ġfly":9584,"ĠĠĠĠĠĠĠĠĠĠĠĠĠĠĠĠĠĠĠĠĠĠĠĠĠĠĠ":9585,"Ġbeach":9586,"Ġster":9587,"Ġsuprem":9588,"Ġspoken":9589,"Address":9590,"Ġcigarettes":9591,".$":9592,";</":9593,"Ġdinner":9594,"Ġcontrary":9595,"ĠOrder":9596,"window":9597,"Ġconcent":9598,"disc":9599,"project":9600,"Ġbacterial":9601,"Ġing":9602,"Ġperiods":9603,"ĠBal":9604,"105":9605,"Case":9606,"Ġsatisfied":9607,"ĠJackson":9608,"Ġbench":9609,"Ġstronger":9610,"aser":9611,"ĠOh":9612,"Ġmoral":9613,"Ġmissed":9614,"Ġatmospheric":9615,"before":9616,"Ġrows":9617,"ĠGiven":9618,"ĠMissouri":9619,"),\\":9620,"Ġcreates":9621,"uv":9622,"Ġdecline":9623,"person":9624,"ĠÐ¿":9625,"Ġwherein":9626,"Ġdimensions":9627,"ĠNetwork":9628,"214":9629,"lier":9630,"Ġmagnitude":9631,"Ġsaved":9632,"Ġuncomfortable":9633,"Ġmutant":9634,"Ġstatistically":9635,"ĠGame":9636,"Ġ===":9637,"ĠHotel":9638,"Ġanalytical":9639,"ĠConnecticut":9640,"Ġconform":9641,"DEBUG":9642,"Ġbegins":9643,"Ġshares":9644,"Ġportfolio":9645,"Ġprofiles":9646,"Ġongoing":9647,"Ġthereof":9648,"Ġfed":9649,"Ġmoderate":9650,"ĠYet":9651,"Evaluate":9652,"Ġmarkers":9653,"Ġdecreasing":9654,"Ġshell":9655,"015":9656,"aws":9657,"cho":9658,"ito":9659,"Ġstands":9660,"Ġbringing":9661,"ĠSupp":9662,"ĠLand":9663,"LO":9664,"Ġbin":9665,"iced":9666,"Ġconnections":9667,"Ġnewly":9668,"ĠRespondent":9669,"Use":9670,"ĠJeff":9671,"Ġcath":9672,"some":9673,"lot":9674,"Ġsymmetry":9675,"cpp":9676,"Good":9677,"Ġsovereignty":9678,"Ġmigration":9679,"Ġnarrative":9680,"Ġteachers":9681,"aze":9682,"Ġvo":9683,"Ġwal":9684,"Ġenemies":9685,"Ġrepeat":9686,"Ãħ":9687,"Ġinstruct":9688,"Did":9689,"report":9690,"vision":9691,"Ġ$|":9692,"Ġconsequence":9693,"ĠAction":9694,"Ġinnocent":9695,"Ġrequiring":9696,"Ġna":9697,"Ġreader":9698,"Ġlosing":9699,"Ġ\\-":9700,"Ġexplo":9701,"gment":9702,"Ġpret":9703,"Down":9704,"ĠJul":9705,"Ġsubset":9706,"Ġherein":9707,"Ġcards":9708,"Ġmanufacturing":9709,"Ġselling":9710,"ĠBlo":9711,"tree":9712,"ANT":9713,"igin":9714,"copy":9715,"unct":9716,"Â§":9717,"OCK":9718,"Ġcomplications":9719,"ĠDoc":9720,"emic":9721,"two":9722,"especially":9723,"Ġextracted":9724,"Ġtargeted":9725,"Location":9726,"echn":9727,"ĠNext":9728,"ĠUt":9729,"Ġcurvature":9730,"Ġintermediate":9731,"Ġhormone":9732,"ormal":9733,"ĠRapids":9734,"nm":9735,"\"}](":9736,"Ġoutdoor":9737,"Ġda":9738,"Ġlesions":9739,"Ġinjured":9740,"sa":9741,"ĠBob":9742,"there":9743,"Ġfoods":9744,"Top":9745,"Ġrecruitment":9746,"Ġdealing":9747,"Ġcongressional":9748,"ĠSimilarly":9749,"ĠRun":9750,"Ġalgebras":9751,"Ġnurse":9752,"Ġdelete":9753,"utable":9754,"PM":9755,"Ġrobust":9756,"Ġocean":9757,"ĠAnalysis":9758,"ht":9759,"Ġtrained":9760,"Ġcylindrical":9761,"ĠEntertainment":9762,"Ġloyal":9763,"1999":9764,"áĢ":9765,"Local":9766,"His":9767,"ĠJim":9768,"Ġmammalian":9769,"note":9770,"]{}]{}":9771,"ĠDallas":9772,"thread":9773,"NR":9774,"ints":9775,"render":9776,"Ġ{}":9777,"Ġ),":9778,"Ġmutation":9779,"ĠTarget":9780,"{(":9781,"Ġsemi":9782,"Ġ77":9783,"ynamics":9784,"Ġca":9785,"Ġusage":9786,"Ġappellate":9787,"Ġnecrosis":9788,"2002":9789,"ĠInit":9790,"Ġcomputed":9791,"Ġsurprising":9792,"Ġsocieties":9793,"ducer":9794,"ounter":9795,"ĠCOURT":9796,"Ġmachinery":9797,"ellee":9798,"cover":9799,"Ġinstances":9800,"Ġbrings":9801,"á¹":9802,"ffffff":9803,"Ġwearing":9804,"dy":9805,"Ġshouldn":9806,"180":9807,"ĠArray":9808,"ĠSi":9809,"ĠLagrangian":9810,"ĠArmy":9811,"Ġsubstrates":9812,"Ġ***":9813,"ĠAlzheimer":9814,"Ġgentle":9815,"Ġfragment":9816,"Ġreserved":9817,"Ġimmigrants":9818,"awa":9819,"Ġsummar":9820,"ilation":9821,"Ġenrich":9822,"Ġboot":9823,"ARD":9824,"Ġconfigurations":9825,"Â²":9826,"Ġfaces":9827,"Ġast":9828,"ighter":9829,"Ġcalculations":9830,"Ġparadigm":9831,"SQL":9832,"Expand":9833,"Ġactivated":9834,"ĠRoberts":9835,"800":9836,"Ġassist":9837,"Change":9838,"Ġtruck":9839,"External":9840,"Ġtechnologies":9841,"Pi":9842,"omas":9843,"Ġapartment":9844,"Ġreviews":9845,"vin":9846,"Ġrely":9847,"112":9848,"103":9849,"claim":9850,"ĠFinancial":9851,"Most":9852,"ĠWater":9853,"Ġsight":9854,"ONE":9855,"internal":9856,"ÙĦ":9857,"access":9858,"Ġdecay":9859,"Ġrobbery":9860,"ĠME":9861,"sur":9862,"JECT":9863,"Ġ<=":9864,"Ġacet":9865,"ĠBlue":9866,"Ġwisdom":9867,"ĠAtt":9868,"020":9869,"Ġdifferentiation":9870,"Ġpour":9871,"Like":9872,"eman":9873,"Ġ::":9874,"fi":9875,"Ġallegations":9876,"Ġ1993":9877,"Ġunsigned":9878,"Ġsuspect":9879,"FLAGS":9880,"Ġelected":9881,"HD":9882,"Ġ69":9883,"ila":9884,"Ġfluorescent":9885,"ĠUser":9886,"ĠBased":9887,"ĠMike":9888,"Ġconvex":9889,"Ġchecked":9890,"Ġ1992":9891,"sn":9892,"Ġintroduction":9893,"lections":9894,"estroy":9895,"Ġje":9896,"Ġembry":9897,"Ġclassified":9898,"limits":9899,"Ġsatisfy":9900,"Ġchose":9901,"Column":9902,"Ġchlor":9903,"menu":9904,"Ġseriously":9905,"Ġordinary":9906,"Ġrenal":9907,"Ġsurprise":9908,"FD":9909,"Ġprojected":9910,"hal":9911,"Ġinvasive":9912,"utors":9913,"Ġinvolve":9914,"Ġbits":9915,"Ġadenocarcinoma":9916,"Ġ<-":9917,"Ġsan":9918,".^[@":9919,"ĠTrue":9920,"Ġgalaxies":9921,"Ġaged":9922,"typedef":9923,"ARY":9924,"Ġhistorical":9925,"Ġanywhere":9926,"PV":9927,"Ġsnow":9928,"plus":9929,"ĠYouTube":9930,"acity":9931,"Ġprote":9932,"establ":9933,"endant":9934,"when":9935,"Application":9936,"David":9937,"Ġcoast":9938,"Ġunw":9939,"Ġcutting":9940,"Ġpresents":9941,"RNAs":9942,"itations":9943,"Ġmatches":9944,"orted":9945,"ĠVALUES":9946,"Ġcameras":9947,"Ġpy":9948,"Ġdeterior":9949,"ĠRight":9950,"Ġglut":9951,"ĠSarah":9952,",$":9953,"rt":9954,"Ġperfectly":9955,"Ġdensities":9956,"Ġhun":9957,"Ġcomfort":9958,"ĠLook":9959,"Ġcrew":9960,"otox":9961,"ĠTeam":9962,"address":9963,"ĠAgain":9964,"har":9965,"Ġdiagnosed":9966,"Ġoccasions":9967,"Pointer":9968,"Ġtoken":9969,"Ġprediction":9970,"Will":9971,"phone":9972,"ĠTown":9973,"Float":9974,"Ġlaunched":9975,"}\\\\":9976,"Ġbra":9977,"Car":9978,"Ġdialog":9979,"namespace":9980,"Ġtheme":9981,"Ġdataset":9982,"bas":9983,"Ġdress":9984,"omorphism":9985,"ĠVancouver":9986,"Project":9987,"Ġbytes":9988,"command":9989,"Ġsa":9990,"Ġcarefully":9991,"ĠMake":9992,"ĠRock":9993,"Ġtranslation":9994,"Ġ84":9995,"ĠELISA":9996,"Ġdiagonal":9997,"tein":9998,"Ġ78":9999,"ĠED":10000,"]\"":10001,"ĠColl":10002,"Ġexecution":10003,"irtual":10004,"}-\\":10005,"Ġtens":10006,"mes":10007,"Ġthromb":10008,"Ġbridge":10009,"Ġadsor":10010,"Ġenormous":10011,"ĠSing":10012,"Ġstaining":10013,"formed":10014,"Queue":10015,"ĠParis":10016,"å¤":10017,"enger":10018,"ĠImage":10019,"Core":10020,"izations":10021,"uan":10022,"ĠCharles":10023,"ĠAngeles":10024,"WR":10025,"Ġbreaking":10026,"}.$$":10027,"Ġwelcome":10028,"Ġ74":10029,"ĠVenezuel":10030,"Ġrounded":10031,"Ġexpendit":10032,"device":10033,"Ġprognosis":10034,"Ã©s":10035,"ĠBow":10036,"Ġhardware":10037,"ĠSpecial":10038,"yes":10039,"Ġcream":10040,"Ġmonitor":10041,"ĠError":10042,"Ġtherapies":10043,"Mark":10044,"full":10045,"Ġmetabolism":10046,"Ġdomains":10047,"uality":10048,"Cor":10049,"Ġfinger":10050,"Ġlic":10051,"During":10052,"Ġride":10053,"Ġloaded":10054,"Ġdrinking":10055,"Ġ180":10056,").$$":10057,"Ġreferences":10058,"irus":10059,"Ġsufficiently":10060,"Ġ88":10061,"Ġindustries":10062,"Ġcarrier":10063,"Ġcontends":10064,"âķĲâķĲâķĲâķĲâķ":10065,"remove":10066,"ĠBefore":10067,"Sign":10068,"van":10069,"Ġ98":10070,"ĊĊĠĠĠĠĠĠĠĠĠĠĠĠĠĠĠĠĠĠĠĠĠĠĠĠĠĠĠĠĠĠ":10071,"Ġintake":10072,"Ġroutine":10073,"Ġcomplexity":10074,"Ġchopped":10075,"Ġpartially":10076,"Ġsky":10077,"Wednesday":10078,"Ġbutter":10079,"Ġimposed":10080,"Access":10081,"ĠPhoenix":10082,"Ġabnormal":10083,"Ġfault":10084,"ĠWalker":10085,"ĠRom":10086,"Ġexacerb":10087,"Ġmanufacturers":10088,"102":10089,"CV":10090,"Ġdisclosed":10091,"umps":10092,"expression":10093,"Ġ97":10094,"Ġsomewhere":10095,"Ġconservative":10096,"rat":10097,"Ġyields":10098,"location":10099,"Ġtele":10100,"ĠBuild":10101,"ducts":10102,"nc":10103,"tmp":10104,"orship":10105,"Ġcontrolling":10106,"ĠPS":10107,"each":10108,"ifndef":10109,"123":10110,"inks":10111,"ogether":10112,"Ġcontrad":10113,"ille":10114,"Ġfruits":10115,"Ġhash":10116,"Ġnumerical":10117,"Parser":10118,"greg":10119,"Ġpursu":10120,"Ġspan":10121,"Ġstabil":10122,"Ġcomparable":10123,"Ġmonoclonal":10124,"Ġreveal":10125,"Ġinduce":10126,"replace":10127,"mediated":10128,"Ġresolve":10129,"bits":10130,"ĠPlay":10131,"ETHOD":10132,"rapper":10133,"Ġexperiencing":10134,"asty":10135,"Ġgall":10136,"Ġbehalf":10137,"Ġadhes":10138,"oped":10139,"leton":10140,"ĠSher":10141,"}[":10142,"Ġadmission":10143,"supp":10144,"Ġbread":10145,"THE":10146,"Ġmarketing":10147,"Ġvoluntary":10148,"Ġbrilliant":10149,"Ġnic":10150,"0002":10151,"Ġserves":10152,"}({\\":10153,"ĠĠĠĠĠĠĠĠĠĠĠĠĠĠĠĠĠĠĠĠĠĠĠĠĠĠĠĠĠ":10154,"Sw":10155,"Tree":10156,"Ġgel":10157,"ĠNC":10158,"Ġwest":10159,"GO":10160,"Account":10161,"Ġtack":10162,"'),":10163,"]-[@":10164,"Ġmild":10165,"LY":10166,"Ġspac":10167,"Ġuniversal":10168,"Ġinclusion":10169,"ĠCredit":10170,"Ġblind":10171,"meta":10172,"Connection":10173,"Ġphotograph":10174,"Ġanticip":10175,"Ġhandling":10176,"stop":10177,"ĠCruz":10178,"Ġbuttons":10179,"ĠMediterranean":10180,"Ġfig":10181,"Ġdivide":10182,"Ġchallenging":10183,"Range":10184,"Ġexplicitly":10185,"âĹ¦âĹ¦âĹ¦âĹ¦âĹ¦âĹ¦âĹ¦âĹ¦âĹ¦âĹ¦âĹ¦âĹ¦âĹ¦âĹ¦âĹ¦âĹ¦":10186,"idal":10187,"hom":10188,"Ġeduc":10189,"textbf":10190,"Ġtumour":10191,"Ġshelter":10192,"verage":10193,"ĠCase":10194,"Task":10195,"fin":10196,"Ġevil":10197,"vious":10198,"Ġgrew":10199,"Ġdivorce":10200,"ĠRos":10201,"Ġcited":10202,"ĠDan":10203,"ĠInstagram":10204,"Ġtrib":10205,"second":10206,"URE":10207,"ĠAustralian":10208,"Ġsteel":10209,"ĠCast":10210,"iro":10211,"Ġviability":10212,"Ġinfluenza":10213,"such":10214,")$$":10215,"Ġsport":10216,"Ġdict":10217,"ĠFox":10218,"ĠCaptain":10219,"130":10220,"Ġalive":10221,"params":10222,"Ġprofit":10223,"ĠInvest":10224,"Ġrelevance":10225,"ipl":10226,"Ġmales":10227,"Ġneural":10228,"Health":10229,"Ġchest":10230,"ĠRet":10231,"should":10232,"Ġclassic":10233,"Ġlunch":10234,"Ġvariations":10235,"they":10236,"anth":10237,"Ġhealthcare":10238,"Ġgreatly":10239,"erver":10240,"ĠTechnology":10241,"Ġappellants":10242,"}]":10243,"ĠGener":10244,"Ġplug":10245,"Ġirreducible":10246,"zo":10247,"through":10248,"Ġproven":10249,"Ġresponded":10250,"Ġexerc":10251,"Ġprovider":10252,"ĠHR":10253,"Ġcenturies":10254,"Ġamplitude":10255,"Valid":10256,"Ġcopies":10257,"ibly":10258,"Ġimproving":10259,"mean":10260,"romise":10261,"opes":10262,"Ġcouncil":10263,"Ġquantity":10264,"Ġdioxide":10265,"addr":10266,"ĠEll":10267,"014":10268,"%).":10269,"Ġprolonged":10270,"377":10271,"DIR":10272,"Ġfewer":10273,"Ġeast":10274,"Ġproud":10275,"Further":10276,"store":10277,"Ġmeta":10278,"ĠNASA":10279,"Ġmarker":10280,"years":10281,"ĠMiddle":10282,"OUT":10283,"ĠOK":10284,"Ġapproximation":10285,"Ġinfectious":10286,"ĠChem":10287,"adium":10288,"ĠComput":10289,"Ġconjunction":10290,"aka":10291,"Ġ76":10292,"ĠPage":10293,"Ġtrav":10294,"Ġpulse":10295,"Ġsending":10296,"Ġmovies":10297,"Ġfract":10298,"ĠJr":10299,"Ġdrivers":10300,"Ġventricular":10301,"ĠClub":10302,"ĠMot":10303,"uit":10304,"prod":10305,"Ġcurriculum":10306,"Menu":10307,"holder":10308,"Ġcodes":10309,"mov":10310,"ĠBern":10311,"keep":10312,"ĠMD":10313,"Ġomitted":10314,"Ġrooms":10315,"ĠGR":10316,"Ġ**(":10317,")),":10318,"ĠSQL":10319,"Ġnearby":10320,"eto":10321,"Ġdish":10322,"Ġinterf":10323,"Ġjur":10324,"ĠLuc":10325,"Ġicon":10326,"ĠDown":10327,"Ġcomparing":10328,"Ġsignature":10329,"emp":10330,"Ġdifficulty":10331,"zy":10332,"carbon":10333,"ĊĠĠĠĠĠĠĠĠĠĠĠĠĠĠĠĠĠĠĠĠĠ":10334,"ĠNetherlands":10335,"<\\":10336,"iol":10337,"controller":10338,"Ġsle":10339,"icular":10340,"arXiv":10341,"ĠJava":10342,"Ġvariance":10343,"Exec":10344,"rees":10345,"ĠBest":10346,"PG":10347,"Script":10348,"will":10349,"fall":10350,"Does":10351,"Ġtom":10352,"Ġcommitment":10353,"patch":10354,"è¯":10355,"iously":10356,"Ġleaf":10357,"Ġmarginal":10358,"Ġcod":10359,"ĠLocal":10360,"Ġorbital":10361,"Ġtwelve":10362,"CHECK":10363,"final":10364,"ĠØ":10365,"Ġamplitudes":10366,"IVE":10367,"ĠAust":10368,"ĠMedia":10369,"Ġnit":10370,"ĠJoe":10371,"Ġsubtle":10372,"iest":10373,"ĠEar":10374,"ĠBase":10375,"Ġment":10376,"ĠNA":10377,"ĠGa":10378,"Ġpod":10379,"Ġtongue":10380,"VM":10381,"January":10382,"Ġfeasible":10383,"Ġrush":10384,"Ġ71":10385,"ĠMat":10386,"Ġinvestors":10387,"ĠValley":10388,"VC":10389,"ĠItaly":10390,"Ġâī¤":10391,"Ptr":10392,"hen":10393,"Ġhasn":10394,"Ġatoms":10395,"ĠJac":10396,"Ãł":10397,"Ġnotion":10398,"hash":10399,"Ġmatching":10400,"Ġfrust":10401,"ĠAppendix":10402,"isions":10403,"Ġbuying":10404,"Ġfa":10405,"Ġcylinder":10406,"parse":10407,"nowledge":10408,"ensity":10409,"Ġreward":10410,"Ġcolorectal":10411,"|^":10412,"Ġgod":10413,"layer":10414,"ĠForce":10415,"enders":10416,"reference":10417,"ĠÏ":10418,"ĠYear":10419,"Ġdesk":10420,"ĠPers":10421,"admin":10422,"Ġspontaneous":10423,"Ġabdominal":10424,"dehyde":10425,"Ġaudio":10426,"prov":10427,"ĠAsia":10428,"IZ":10429,"Ġnewspapers":10430,"Ġswimming":10431,"ixed":10432,"Ġunprecedented":10433,"Ġ111":10434,"!âĢĿ":10435,"Red":10436,"Ġ73":10437,"ĠEp":10438,"Ġsulf":10439,"Ġbid":10440,"Ġlemma":10441,"Ġunemployment":10442,"Ġ$\\{":10443,"Ġ++":10444,"ĠOTHER":10445,",$$":10446,"Once":10447,"email":10448,"ĠJo":10449,"orial":10450,"Ġscored":10451,"Ġelections":10452,"018":10453,"Ġ130":10454,"Ġargs":10455,"ĠResults":10456,"Ġcoordinates":10457,"104":10458,"ĠDM":10459,"ĠMaterial":10460,"caps":10461,"ĠBY":10462,"Ġcareful":10463,"Ġenabled":10464,"IME":10465,"Ġsurprised":10466,"background":10467,"ĠKn":10468,"Ġriver":10469,"Ġprivacy":10470,"Ġbabies":10471,"Ġreduces":10472,"Search":10473,"Ġmodification":10474,"Ġbusy":10475,"Each":10476,"Ġadjusted":10477,"Ġengage":10478,"mercial":10479,"ati":10480,"ĠHand":10481,"NP":10482,"ĠDisease":10483,"ulin":10484,"ĠSafety":10485,"ĠArkansas":10486,"Ġparticipation":10487,"Ġcache":10488,"CRIPT":10489,"eling":10490,"Ġdiverse":10491,"ĠMass":10492,"Offset":10493,"Ġ94":10494,"Ġbulk":10495,"about":10496,"Ġcomposed":10497,"blue":10498,"Ġabsorption":10499,"Ġfeelings":10500,"Ġindependently":10501,"ĠFourier":10502,"}^{-":10503,"Ġaqueous":10504,"Non":10505,"Ġproposals":10506,"usp":10507,"WE":10508,"Dir":10509,"Ġextraordinary":10510,"Ġcapac":10511,"Ġprotest":10512,"}})":10513,"what":10514,"fire":10515,"emphasis":10516,"October":10517,"Ġera":10518,"Ġmistake":10519,"eh":10520,"ĠFunction":10521,"ĠDetroit":10522,"Ġanymore":10523,"Ġcovering":10524,"Ġbeneath":10525,"Ġarmy":10526,"master":10527,"Package":10528,"Ġcontinuing":10529,"Ġrefr":10530,"ĠDescription":10531,"Ġdemocratic":10532,"ĠRiemann":10533,"Ġkinase":10534,"Ġpresidential":10535,"Ġtiming":10536,"Ġcable":10537,"ĠKim":10538,"\\_[":10539,"Ġdeploy":10540,"Ġrevolution":10541,"ycle":10542,"erty":10543,"Ġtrace":10544,"ĠAdv":10545,"Ġcheap":10546,"Ġsuppress":10547,"ĉĉĉĉĉĉ":10548,"anna":10549,"emble":10550,"ĠHy":10551,"Ġlipid":10552,"Ġendogenous":10553,"Ġheads":10554,"Ġloading":10555,"Following":10556,"ĠBangladesh":10557,"een":10558,"fd":10559,"Come":10560,"etry":10561,"Ġadds":10562,"Height":10563,"Ġlists":10564,"Ġineffective":10565,"ologist":10566,"Ġwrapped":10567,"ĠNumber":10568,"ĠCurrent":10569,"ootstrap":10570,"install":10571,"legate":10572,"materials":10573,"Ġqueries":10574,"Ġsynthesized":10575,"Ġundert":10576,"Ġelev":10577,"Ġteeth":10578,"Ġprogramming":10579,"Ġcrimes":10580,"Position":10581,"gar":10582,"Entry":10583,"Ġtalked":10584,"lam":10585,"Ġcommunications":10586,">\\":10587,"Equals":10588,"ibration":10589,"Ġsurveys":10590,"Ġdrag":10591,"Ġclosing":10592,"eld":10593,"usr":10594,"bon":10595,"Ãª":10596,"ĠSweden":10597,"byte":10598,"ĠRest":10599,"ĠâĨĴ":10600,"ĠCreate":10601,"Ġpassion":10602,"sen":10603,"Ġgenerating":10604,"Ġproducers":10605,"Only":10606,"Ġbroke":10607,"vs":10608,"ĠChapter":10609,"agent":10610,"Ġfulf":10611,"Ġhepatic":10612,"ĠSource":10613,".;":10614,"Ġcriterion":10615,"Ġyards":10616,"ĠEcon":10617,"Ġreceiver":10618,"ĠManagement":10619,"UST":10620,"Ġexecuted":10621,"Ġreleases":10622,"Ġwhilst":10623,"ĠAnthony":10624,"stone":10625,"ĠKar":10626,"Ġprecise":10627,"Ġpartnership":10628,"Ġcervical":10629,"ĠTra":10630,"Ġpriority":10631,"Ġpetitioner":10632,"mond":10633,"lean":10634,"Ġpartition":10635,"Ġtun":10636,"Ġenterprise":10637,"Ġvectors":10638,"ĠSyria":10639,"ocial":10640,"$]{}":10641,"fg":10642,"Ġlocally":10643,"Ġwaves":10644,"ĠChris":10645,"ĠLight":10646,"Ġbiopsy":10647,"ĠRequ":10648,"ĠStart":10649,"IX":10650,"Ġweigh":10651,"Ġadvent":10652,"Ġlegs":10653,"Lo":10654,"istence":10655,"','":10656,"outer":10657,"ĠIC":10658,"SET":10659,"kit":10660,"Ġhur":10661,"Ġfailing":10662,"Ġrefers":10663,"Ġru":10664,"gi":10665,"ĠCross":10666,"Ġnutrition":10667,"site":10668,"Ġmom":10669,"Ġwhenever":10670,"Ġdeclare":10671,"Ġunstable":10672,"Ġ{{":10673,"pay":10674,"Ġsuddenly":10675,"era":10676,"ĠHal":10677,"ĠĠĠĠĠĠĠĠĠĠĠĠĠĠĠĠĠĠĠĠĠĠĠĠĠĠĠĠĠĠĠĠĠĠĠĠĠĠĠĠĠĠĠĠĠĠĠĠĠĠĠĠĠĠĠĠĠĠĠĠĠĠĠĠĠĠĠĠĠĠĠĠĠĠĠĠĠĠĠĠĠĠĠĠĠĠĠĠĠĠĠĠĠĠĠĠĠĠĠĠĠĠĠĠĠĠĠĠĠĠĠĠĠĠĠĠĠĠĠĠĠĠĠĠĠĠĠĠĠĠĠĠĠĠĠĠĠĠĠĠĠĠĠĠĠĠĠĠĠĠĠĠĠĠĠĠĠĠĠĠĠĠĠĠĠĠĠĠĠĠĠĠĠĠĠĠĠĠĠĠĠĠĠĠĠĠĠĠĠĠĠĠ":10678,",{\\":10679,"Ġcuts":10680,"sys":10681,"pres":10682,"ĠPrime":10683,"Ġfrequent":10684,"Ġhabits":10685,"017":10686,"\\}$":10687,"Ġaimed":10688,"ĠĠĠĠĠĠĠĠĠĠĠĠĠĠĠĠĠĠĠĠĠĠĠĠĠĠĠĠ":10689,"driven":10690,"onom":10691,"ional":10692,"ĠSO":10693,"Ġ1991":10694,"ĠOld":10695,"Ġapplic":10696,"Ġcrack":10697,"Ġinhibitors":10698,"iform":10699,"ĠLar":10700,"join":10701,"Ã¢":10702,"Ġforum":10703,"Ġbreed":10704,"Ġtemporary":10705,"found":10706,"Ġhook":10707,"ĠApplication":10708,"IGHT":10709,"Ġexpenses":10710,"oured":10711,"Ġcultures":10712,"Entity":10713,"DOCTYPE":10714,"ĠCur":10715,"Using":10716,"inance":10717,"ologically":10718,"Ġaluminum":10719,"Ġenabling":10720,"Module":10721,"Ġsuppose":10722,"Ġproduces":10723,"ova":10724,"Ġ79":10725,"upload":10726,"Ġstrange":10727,"matrix":10728,"Prop":10729,"shift":10730,"Debug":10731,"Ġ}\\":10732,"mac":10733,"Ġcoinc":10734,"jjjjjjjjjjjjjjjjjjjjjjjjjjjjjjjjjjjjjjjjjjjjjjjj":10735,"ĠNintendo":10736,"PORT":10737,"æĪ":10738,"Ġalert":10739,"dp":10740,"Ġwatched":10741,"bus":10742,"Ð²":10743,"Ġencourage":10744,"=>":10745,"Ġquot":10746,"Ġellip":10747,"Descriptor":10748,"Okay":10749,"awn":10750,"119":10751,"Ġgran":10752,"Ġattributes":10753,"Ġaer":10754,"ĠRights":10755,"Ġproviders":10756,"Ġreasonably":10757,"ĠPa":10758,"ĠSM":10759,"Ġ83":10760,"ĠObserv":10761,"ĠThank":10762,"Ġshoulder":10763,"Doc":10764,"Ġacoustic":10765,"rine":10766,"Ġfrequencies":10767,"Ġ>>":10768,"Tag":10769,"ä¸Ģä¸ª":10770,"icing":10771,"Ġstreets":10772,"Ġvertex":10773,"ĠPolicy":10774,"ĠEmpire":10775,"OUR":10776,"istical":10777,"Ġprocessed":10778,"Ġtrading":10779,"Ġ125":10780,"Ġignore":10781,"cher":10782,"<!--":10783,"Ġ\\\"":10784,"ograms":10785,"Ġsilver":10786,"entially":10787,"Ġnerve":10788,"Ġawareness":10789,"ĠDeputy":10790,"():":10791,"Ġcrop":10792,"Ġlosses":10793,"ĠEuclidean":10794,"Stud":10795,"Ġblank":10796,"Ġ87":10797,"enna":10798,"rob":10799,"kind":10800,"Ġtiny":10801,"Ġdiscrimin":10802,"Ġembodiments":10803,"Mintage":10804,"ĠManchester":10805,"Under":10806,"ĠSupport":10807,"apolis":10808,"Ġwitnesses":10809,"Ġroyal":10810,"dem":10811,"Ġsovereign":10812,"press":10813,"Ġvalve":10814,"Ġimprovements":10815,"Parameter":10816,"Ġduplic":10817,"debug":10818,"Ġspons":10819,"Ġtranscript":10820,"lan":10821,"white":10822,"uals":10823,"Ġteen":10824,"ĠGreece":10825,"Ġplates":10826,"ĠMoscow":10827,"ĠUV":10828,"107":10829,"Ġsomehow":10830,"entity":10831,"bc":10832,"ĠPrinc":10833,"ĠMap":10834,"ĠElect":10835,"ocus":10836,"Ġdivergence":10837,"ali":10838,"late":10839,"ĠGlobal":10840,"Ġgeneric":10841,"Ġ82":10842,"Ġmarks":10843,"Ġdoub":10844,"TV":10845,"fill":10846,"Ġtel":10847,"Ġcolour":10848,"127":10849,"Collect":10850,"angers":10851,"Order":10852,"Section":10853,"illy":10854,"Ġtalks":10855,"Ġtank":10856,"Ġflesh":10857,"Ġexplains":10858,"EA":10859,"imated":10860,"Ġ93":10861,"ĠMich":10862,"keys":10863,"ĠMid":10864,"Ġtea":10865,"Ġdisappoint":10866,"Ġholes":10867,"Ġdiabetic":10868,"Ġ89":10869,"Ġthroat":10870,"Ġsimplicity":10871,"Ġ($\\":10872,"Ġantigen":10873,"ĠPen":10874,"inv":10875,"dc":10876,"Ġorganized":10877,"ACT":10878,"Ġstruggle":10879,"Ġpassengers":10880,"231":10881,"Ġtutorial":10882,"Ġreturning":10883,"handle":10884,"Ġborders":10885,"rator":10886,"PER":10887,"ugg":10888,"Ġperspectives":10889,"Â¿":10890,"ĠSat":10891,"Ġadequately":10892,"Ġgoogle":10893,"Ġtrick":10894,"Ġoutlined":10895,"'_":10896,"viously":10897,"Activity":10898,"ĠOl":10899,"ĠWilson":10900,"Ġlarvae":10901,"Ġfibroblasts":10902,"IAL":10903,"Ġ})":10904,"RES":10905,"EV":10906,"Ġgang":10907,"217":10908,"ertificate":10909,"echo":10910,"ĊĠĠĠĠĠĠĠĠĠĠĠĠĠĠĠĠĠĠĠĠĠĠĠĠĠĠĠĠĠĠĠĠĠĠĠ":10911,"ami":10912,"Ġvelocities":10913,"111":10914,"Num":10915,"Ġpermitted":10916,"016":10917,"Ġarchitecture":10918,"Ġdirections":10919,"dig":10920,"232":10921,"Port":10922,"Ġmalignant":10923,"Ġgrab":10924,"Theta":10925,"Ġ115":10926,"}\"":10927,"Ġmodules":10928,"ni":10929,"Ġcooking":10930,"Ġuncertainty":10931,"Ġrecipe":10932,"ĠHampshire":10933,"Second":10934,"Ġ92":10935,"Ġscrutiny":10936,"Ġelsewhere":10937,"Ġbomb":10938,"ĠRoman":10939,"117":10940,"ela":10941,"ĠLow":10942,"iph":10943,"Ġcovers":10944,"Ġsubmit":10945,"Custom":10946,"Ġsandwich":10947,"Ġrestriction":10948,"Ġgeometry":10949,"names":10950,"Ġ86":10951,"Ġparking":10952,"Ġovercome":10953,"rystal":10954,"Ġ\"/":10955,"Ġbounded":10956,"utrition":10957,"Ġsoul":10958,"typename":10959,"ĠEvent":10960,"?'":10961,"Ġspr":10962,"ĠWay":10963,"Ġfunc":10964,"Ġfolder":10965,"ĠIsraeli":10966,"Ġwet":10967,"Ġconsisting":10968,"family":10969,"ĠHD":10970,"Ġcompute":10971,"super":10972,"}}}}":10973,"sf":10974,"who":10975,"Ġcycles":10976,"Option":10977,"ĠBASIS":10978,"total":10979,"Ġcourage":10980,"Ġplea":10981,"urable":10982,"Ġextraction":10983,"erk":10984,"Ġkeeps":10985,"140":10986,"Ġutility":10987,"Ġboat":10988,"Ġpaths":10989,"req":10990,"Ġhorses":10991,"week":10992,"ĠMiller":10993,"Ġ1970":10994,"Ġphylogenetic":10995,"Ġmodul":10996,"Ġcurrents":10997,"diff":10998,"Ġcontracts":10999,"1998":11000,"Ġdisability":11001,"inking":11002,"Ġacceleration":11003,"ĠDR":11004,"Ġbreach":11005,"ILL":11006,"Rad":11007,"Ġsingular":11008,"oline":11009,"Ġunconstitutional":11010,"Ġalgorithms":11011,"Title":11012,"Ġaffects":11013,"Ġsed":11014,"drop":11015,"backs":11016,"ira":11017,"ĠHAVE":11018,"Î³":11019,"utter":11020,"Ġgiant":11021,"oned":11022,"))/(":11023,"Ġharassment":11024,"ĠPres":11025,"Di":11026,"oplus":11027,"Copy":11028,"Ġ119":11029,"km":11030,"ador":11031,"Ġcleaning":11032,"uler":11033,"ĠDigital":11034,"Ġchampion":11035,"Ġtheories":11036,"opol":11037,"ĠMAP":11038,"frequency":11039,"Ms":11040,"Ġmedication":11041,"ĠDirect":11042,"Ġconverted":11043,"ĠCommunity":11044,"ched":11045,"Sorry":11046,"jwatson":11047,"âĤ¬âĤ¬âĤ¬âĤ¬âĤ¬âĤ¬âĤ¬âĤ¬âĤ¬âĤ¬âĤ¬âĤ¬âĤ¬âĤ¬âĤ¬âĤ¬âĤ¬âĤ¬âĤ¬âĤ¬âĤ¬âĤ¬âĤ¬âĤ¬":11048,"Ro":11049,"Ġmeal":11050,"Ġconsiderable":11051,"ĠPremier":11052,"rooms":11053,"Ġdefeated":11054,"Ġhepat":11055,"Ġreaders":11056,"ĠÑģ":11057,"pert":11058,"Ġgay":11059,"ĠCook":11060,"Ġonset":11061,"Ġinvent":11062,"Ġ$[":11063,"Ġ91":11064,"ĠSouthern":11065,"ĠiPhone":11066,"Ġextensively":11067,"textrm":11068,"ÎºB":11069,"FFFF":11070,"108":11071,"export":11072,"send":11073,"ĠPuerto":11074,"Ġparas":11075,"Ġresolved":11076,"ĠLIMITED":11077,"ĊĠĠĠĠĊĠĠĠ":11078,"docs":11079,"eeeeeeeeeeeeeeeeeeeeeeeeeeeeeeeeeeeeeeeeeeeeeeeeeeeeeeeeeeeeeeeeeeeeeeeeeeeeeeeeeeeeeeeeeeeeeeee":11080,"Ġviewed":11081,"Ġmagnet":11082,"eds":11083,"connect":11084,"aping":11085,"Ġmaintaining":11086,"feed":11087,"ĠUI":11088,"Ġbowl":11089,"Ġpushed":11090,"Sl":11091,"Fs":11092,"yy":11093,"ĠBO":11094,"Ġpersonally":11095,"ĠStan":11096,"imately":11097,"Ġprevention":11098,"etary":11099,"IGN":11100,"Ġanchor":11101,"Ġcompletion":11102,"ITE":11103,"Ġentries":11104,"AME":11105,"Ð´":11106,"ĠWin":11107,"Ġstrings":11108,"ĠMain":11109,"Ġfatigue":11110,"Ġ((-":11111,"Ġconvicted":11112,"Ġupload":11113,"ĠManhattan":11114,"Ġappreciate":11115,"Document":11116,"ĠKen":11117,"Ġrural":11118,"ĠEV":11119,"Ġbatch":11120,"MAX":11121,"Put":11122,"Types":11123,"Ġguarantee":11124,"tim":11125,"Ġfired":11126,"ĠCustom":11127,"'\\":11128,"Ġabundant":11129,"urer":11130,"ĠÐ²":11131,"ĠANOVA":11132,"Ġbarrier":11133,"Ġfeaturing":11134,"ĠWT":11135,"Ġconvenient":11136,"ergic":11137,"Unit":11138,"Pass":11139,"Ġindirect":11140,"Http":11141,"ĠEnt":11142,"thal":11143,"Ġdiscussions":11144,"Ġownership":11145,"Meanwhile":11146,"Ġsequencing":11147,"Ġrib":11148,"Ġreact":11149,"abe":11150,"Ġcompens":11151,"ĠLie":11152,"ĠNet":11153,"Â·Â·Â·Â·Â·Â·Â·Â·Â·Â·Â·Â·Â·Â·Â·Â·Â·Â·Â·Â·Â·Â·Â·Â·Â·Â·Â·":11154,"Ġphenomenon":11155,"Ġlin":11156,"ĠMelbourne":11157,"Ġfiling":11158,"Impl":11159,"Ġ\\|":11160,"Ġforgotten":11161,"Op":11162,"Ġ(âĢľ":11163,"ĠVan":11164,"Ġmuc":11165,"Ġregularly":11166,"Ġdeputy":11167,"Step":11168,"Ġrabbit":11169,"Ġcompeting":11170,"Ġencompass":11171,"ĠFestival":11172,"Ġì":11173,"Ġoperated":11174,"High":11175,"ĠFifth":11176,"ĠProcedure":11177,"reh":11178,"INS":11179,"Ġrice":11180,"Several":11181,"ĠHam":11182,"ĠSix":11183,"Ġcomprising":11184,"fc":11185,"ĊĊĠĠĠĠ":11186,"comment":11187,"Ġexplos":11188,"ĠPL":11189,"Total":11190,"Ġquantitative":11191,"Ġcenters":11192,"ĠRay":11193,"Ġthinks":11194,"ĠBeijing":11195,"sy":11196,"Ġbiosynthesis":11197,"Ġvill":11198,"uis":11199,"ĠGar":11200,"sql":11201,"Ġdb":11202,"Ġprohibited":11203,"ĠAut":11204,"Ġentering":11205,"ĠShow":11206,"ĠÂ¶":11207,"mitting":11208,"ĠCentre":11209,"Ġsystematic":11210,"^{-\\":11211,"Ġverify":11212,"lat":11213,"unsigned":11214,"ĠLA":11215,"Ġgorgeous":11216,"ington":11217,"Ġmaxim":11218,"orph":11219,"ĠDar":11220,"ĠArthur":11221,"Ġassembled":11222,"herence":11223,"+^":11224,"Ġnamespace":11225,"Ġworker":11226,"Long":11227,"Ġgovernments":11228,"Ġsatisfies":11229,"Ġaccumulation":11230,"spect":11231,"Ġfalling":11232,"may":11233,"Ġcaptured":11234,"}}$.":11235,"ĠDid":11236,"cache":11237,"}}}\\":11238,"ĠĠĠĠĠĠĠĠĠĠĠĠĠĠĠĠĠĠĠĠĠĠĠĠĠĠĠĠĠĠ":11239,"EP":11240,"ĠPur":11241,"wedge":11242,"ĠWhether":11243,"ensitive":11244,"erving":11245,"Ġpredominantly":11246,"Template":11247,"adder":11248,"Ġreaching":11249,"Ġexpanded":11250,"Ġdemands":11251,"Ġteaspoon":11252,"Ġglo":11253,"Ġnucleotide":11254,"Ġhorizontal":11255,"Ġdismissed":11256,"Ġrevenues":11257,"Ġirregular":11258,"ĠStandard":11259,"Ġaugment":11260,"Make":11261,"Ġstorm":11262,"Ġrecommendations":11263,"Single":11264,"Ġsoccer":11265,"STAT":11266,"Ġreb":11267,"iva":11268,"Ġqualified":11269,"ĠReference":11270,"ĠÂ°":11271,"subseteq":11272,"Ġportions":11273,"ĠServer":11274,"<?":11275,"Ġfalls":11276,"November":11277,"custom":11278,"Ġincorporated":11279,"Ġexclusive":11280,"Graph":11281,"bp":11282,"ĠLead":11283,"Ġchart":11284,"Ġbundle":11285,"Ġcoding":11286,"ĠCommerce":11287,"CB":11288,"Ġstimulated":11289,"Ġseverely":11290,"xc":11291,"Ġ81":11292,"zed":11293,"Ġpsychological":11294,"Ġhide":11295,"Ġ140":11296,"ĠInf":11297,"task":11298,"Ġbubble":11299,"ĠNFL":11300,"Ġau":11301,"ĠFrancisco":11302,"inent":11303,"Ġworldwide":11304,"ĠEXPECT":11305,"being":11306,"Ġpackages":11307,"Ġ1989":11308,"Ġalb":11309,"Ġmigr":11310,"Ġkidney":11311,"iley":11312,"Ġmasses":11313,"making":11314,"Ġdestination":11315,"Ġorthogonal":11316,"Ġgradient":11317,"imm":11318,"Ġstations":11319,"TL":11320,"Ġjavax":11321,"Ġcompetitive":11322,"Ġhorizon":11323,"Ġreproductive":11324,"angular":11325,"Ġplasmid":11326,"Ġsizeof":11327,"Ġfaced":11328,"Ġhonor":11329,"Ġ\\;":11330,"holders":11331,"Ġassays":11332,"sex":11333,"Ġ113":11334,"Vari":11335,"container":11336,"instance":11337,"Ġscales":11338,"Ġcotton":11339,"Ġfriction":11340,"Ġsoluble":11341,"Container":11342,"Ġseparately":11343,"Ġvarieties":11344,"ĠApache":11345,"Ġinterference":11346,"Ġeggs":11347,"áĥ":11348,"images":11349,"Ġfolks":11350,"Ġgro":11351,"green":11352,"Ġdecreases":11353,"Ġconcrete":11354,"Ġ[âĢ¦]":11355,"ourn":11356,"pred":11357,"ĠTurkish":11358,"osomes":11359,"Ġ112":11360,"Iterator":11361,"Ġphysics":11362,"Ġstuck":11363,"Ġdedu":11364,"Ġawait":11365,"ĠFL":11366,"Ġ1988":11367,"ĠPath":11368,"variant":11369,"\"))":11370,"ĠKennedy":11371,"ĠStudies":11372,"Ġvotes":11373,"Ġmounted":11374,"ounce":11375,"Ġfriendly":11376,"Ġmedi":11377,"days":11378,"printf":11379,"ĠMart":11380,"Ġecosystem":11381,"ĠHarvard":11382,"Ñĩ":11383,"ĠGP":11384,"ĠOw":11385,"REF":11386,"ĠAsian":11387,"Ġorbit":11388,"oning":11389,"Ġ114":11390,"_{(":11391,"Ġtargeting":11392,"riving":11393,".]":11394,"RR":11395,"Ġaddresses":11396,"eli":11397,"Ġbunch":11398,"token":11399,"ĠTri":11400,"Ġequivalence":11401,"ĠMP":11402,"ĠPay":11403,"ĠTor":11404,"pu":11405,"rect":11406,"ĠBa":11407,"Ġanisotropy":11408,"ĠLearning":11409,"Ġdozens":11410,"ĠConference":11411,"Ġinterior":11412,"Ġcreative":11413,"anded":11414,"Ġ(%)":11415,"Ġroof":11416,"Ġscrew":11417,"Ġroots":11418,"Ġunfortunate":11419,"Ġstir":11420,"åĬ":11421,"*]{},":11422,"depend":11423,"tri":11424,"ĠAssoci":11425,"Ġvariants":11426,"Ġpromoter":11427,"ĠSpace":11428,"106":11429,"ĠWat":11430,"KEY":11431,"ĠPetitioner":11432,"ĠCreek":11433,"dict":11434,"ĠAbout":11435,"===========":11436,"ialize":11437,"Ġappointed":11438,"SI":11439,"Ġrising":11440,">.":11441,"Ġanalyze":11442,"CLUDING":11443,"AAAAAA":11444,"ĠGraham":11445,"ĠProcess":11446,"ãģĦãģ":11447,"Ġflexible":11448,"Ġbeside":11449,"Ġultrasound":11450,"ĠTotal":11451,"Ġconstitute":11452,"ÐµÐ½":11453,"Draw":11454,"Ġpasses":11455,"Ġexpressions":11456,"Ġdrawing":11457,"Ġprotective":11458,"Ġreflected":11459,"ĠGordon":11460,")_":11461,"Ġbyte":11462,"Ġexpectations":11463,"Ġpuls":11464,"icts":11465,"forms":11466,"ĠRepresentative":11467,"ĠMilwaukee":11468,"uber":11469,"enant":11470,"urities":11471,"Ġconsecutive":11472,"Store":11473,"ĠMO":11474,"ĠQuestion":11475,"cmd":11476,"ĠAsh":11477,"Ġtensor":11478,"essed":11479,"Ġalignment":11480,"lers":11481,"pad":11482,"changed":11483,"session":11484,"elt":11485,"ĠĠĠĠĠĠĠĠĠĠĠĠĠĠĠĠĠĠĠĠĠĠĠĠĠĠĠĠĠĠĠ":11486,"Ġratios":11487,"Ġenvelope":11488,"Enc":11489,"Ġlimitation":11490,"Ġpara":11491,"ĠNelson":11492,"ĠTaliban":11493,"Ġyeah":11494,"Ġinfinite":11495,"Ġmovements":11496,"ĠPatients":11497,"Ġsoldiers":11498,"achine":11499,"black":11500,"Ġpassage":11501,"Ġsignatures":11502,"Ġretrieve":11503,"Ġsimilarly":11504,"Ġchip":11505,"Ġouts":11506,"works":11507,"ĠSydney":11508,"Ġvaccine":11509,"Ġadvertising":11510,"Ġrelating":11511,"viruses":11512,"ĠPBX":11513,"Ġconstantly":11514,"Ġlys":11515,"ĠThough":11516,"hard":11517,"Ġbands":11518,"Ġseeds":11519,"ĠLett":11520,"Ġadmit":11521,"his":11522,"Ġcarbohyd":11523,"ĠALL":11524,"Ġenzymes":11525,"loop":11526,"ĠBeach":11527,"aska":11528,"Ġbroadcast":11529,"ĠRich":11530,"ĠNorthern":11531,"Ġhydrophobic":11532,"Ġawarded":11533,"Ġfoundation":11534,"Ġsees":11535,"Ġfasc":11536,"Ġanswered":11537,"Ġoffensive":11538,"ologists":11539,"Ġglad":11540,"Ġrestrictions":11541,"ando":11542,"AMP":11543,"ĠAndrew":11544,"Ġengineering":11545,"cit":11546,"ĠEst":11547,"ensitivity":11548,"Ġ('":11549,"Ġsubjected":11550,"igate":11551,"Ġmicrobial":11552,"Ġjudicial":11553,"Ġbike":11554,"Ġmeetings":11555,"Ġ104":11556,"elect":11557,"Ġabsent":11558,"ĊĊĉĉ":11559,"Ġjunior":11560,"norm":11561,"Ġcomprises":11562,"global":11563,"ADVERTISEMENT":11564,"ĠAndroid":11565,"Ġtemporal":11566,"hour":11567,"ĠIM":11568,"domain":11569,"Ġ160":11570,"versely":11571,"ded":11572,"Ġrefusal":11573,"ĠLebanon":11574,"hot":11575,"ĠHig":11576,"Ġassemblies":11577,"Ġvarying":11578,"248":11579,"Ġhoping":11580,"Ġsuspicion":11581,"Ġprojection":11582,"yard":11583,"Ġelucid":11584,"168":11585,"uated":11586,"ĠJeremy":11587,"Ġproceeding":11588,"ĠTake":11589,"Ġperf":11590,"Ġenjoyed":11591,"Ġnations":11592,"pot":11593,"Grid":11594,"bold":11595,"Ġimmunity":11596,"ĠEnvironmental":11597,"Ġgest":11598,"Ġimplications":11599,"`,":11600,"Ġphysician":11601,"Ġfif":11602,"Ġmas":11603,"member":11604,"Ġfibrosis":11605,"Ġaccessible":11606,"Ġcoordinate":11607,"Ġlayout":11608,"Ġvalidation":11609,"aste":11610,"ĠPlaintiffs":11611,"Ġexecute":11612,"aki":11613,"Ġ['":11614,"ĠTax":11615,"ĠAge":11616,"ĠGard":11617,"Ġvice":11618,"Rearrange":11619,"Ġauxiliary":11620,"Ġadvis":11621,"bind":11622,"Ġstone":11623,"application":11624,"ĠDesign":11625,"Ġmsg":11626,"ĠIslamic":11627,"Cache":11628,"Pos":11629,"}}$,":11630,"binding":11631,"Ġages":11632,"}}}$":11633,"Main":11634,"Ġhockey":11635,"ĠCriminal":11636,"mons":11637,"Ġdump":11638,"Edit":11639,"ĠStewart":11640,"ĠPoint":11641,"Ġslight":11642,"ĠBrooklyn":11643,"cond":11644,"ĠFBI":11645,"Ġnevertheless":11646,"Ġintra":11647,"Ġpra":11648,"ĠSA":11649,"Ġ\"$":11650,"Ġlaid":11651,"Ġlights":11652,"Ġunlawful":11653,"outheast":11654,"ĠMen":11655,"Nav":11656,"Ġdetermin":11657,"ĠTer":11658,"Ġchromatography":11659,"vy":11660,"âĢħ":11661,"gex":11662,"olly":11663,"Ġinteract":11664,"regulation":11665,"Ġdefines":11666,"ãĥ¼":11667,"Ġanesthesia":11668,"Ġfeeding":11669,"Private":11670,"Ġheating":11671,"\\}":11672,"Ġbeneficial":11673,"ĠChairman":11674,"012":11675,"round":11676,"Sort":11677,"Ġovarian":11678,"Ġmath":11679,"represent":11680,"ĠBruce":11681,"Ġtyrosine":11682,"Ġfusion":11683,"Ġconstrued":11684,"Ġbull":11685,"etter":11686,"Ġdisappeared":11687,"Ġbonds":11688,"Ġcoordination":11689,"Ġkm":11690,"Ġcorporation":11691,"Ġoligonucleot":11692,"Ġ102":11693,"Ġartery":11694,"è¡Į":11695,"aur":11696,"Ġslices":11697,"Ġepithelium":11698,"Mc":11699,"Ġdisregard":11700,"Ġ117":11701,"Ġdestroyed":11702,"Ġranging":11703,"ĠâĢ¢":11704,"Ġspecify":11705,"ĠIndex":11706,"register":11707,"Ġmuseum":11708,"Ġobstacles":11709,"Ġdat":11710,"acon":11711,"ĠâĻª\"":11712,"Ġcheese":11713,"Ġinstallation":11714,"ĠAntonio":11715,"Ġautophagy":11716,"lied":11717,"Ġturb":11718,"ĠHon":11719,"ðŁ":11720,"Ġassignment":11721,"ĠMatt":11722,"SV":11723,"wrap":11724,"February":11725,"čĊčĊ":11726,"\\>":11727,"Ġimmigration":11728,"Ġexport":11729,"Ġdevelopers":11730,"Ġpm":11731,"ĠRyan":11732,"Ġcaps":11733,"Ġ![":11734,"}}(\\":11735,"olving":11736,"ĠAG":11737,"Ġhat":11738,"]{.":11739,"Ġretrospective":11740,"ĠPass":11741,"ĠTHIS":11742,"Ġcombustion":11743,"isp":11744,"Ġdys":11745,"criptions":11746,"Ġpadding":11747,"Ġbonus":11748,"Ġerred":11749,"Ġarmed":11750,"Ġgrass":11751,"Ġinsight":11752,"Ġsidew":11753,"rose":11754,"Ġaltered":11755,"ĠAdministration":11756,"develop":11757,"Ġacceptable":11758,"Ġperturb":11759,"Ġeffectiveness":11760,"Ġautoimmune":11761,"Â¤Â¤Â¤Â¤Â¤Â¤Â¤Â¤Â¤Â¤Â¤Â¤Â¤Â¤Â¤Â¤Â¤Â¤Â¤Â¤Â¤Â¤Â¤Â¤":11762,"Ġearned":11763,"BT":11764,"310":11765,"ĠLtd":11766,"Ġtrajectory":11767,"Ġautomatic":11768,"orous":11769,"Ġproximal":11770,"Ġoriented":11771,"Ġthyroid":11772,"formance":11773,"Ġconsistently":11774,"ĠMaster":11775,"artment":11776,"Ġcompanion":11777,"sey":11778,"dated":11779,"@@@@@@@@@@@@@@@@@@@@@@@@@@@@":11780,"underline":11781,"ĠPatent":11782,"widget":11783,"cells":11784,"mb":11785,"}}_{\\":11786,"Ġoccurrence":11787,"Ġunclear":11788,"Ġtips":11789,"uming":11790,"Ġvisited":11791,"Ġtall":11792,"Ġdisturb":11793,".),":11794,"Ġvoting":11795,"irk":11796,"Ġinevitably":11797,"fact":11798,"115":11799,"Interface":11800,"Ġfantasy":11801,"ĠCleveland":11802,"ĠRub":11803,"Ġmirror":11804,"Ġintern":11805,"Ġlaptop":11806,"Ġdiffraction":11807,"commun":11808,"Ġnormalized":11809,"Ġtet":11810,"ĊĉĠĠĠ":11811,"Ġluxury":11812,"Ġinline":11813,"OF":11814,"icker":11815,"Ġending":11816,"Ġfestival":11817,"Vector":11818,"Ġsmile":11819,"Ġforest":11820,"Ġtracking":11821,"Ġtract":11822,"Ġpacket":11823,"eatures":11824,"uz":11825,"Ġmolecule":11826,"ĠCC":11827,"Ġwake":11828,"Ġarrangement":11829,"Ġeverybody":11830,"ANG":11831,"away":11832,"ĠÂłĠÂłĠÂłĠÂłĠÂłĠÂłĠÂłĠÂłĠÂłĠÂłĠÂł":11833,"ĠMR":11834,"ĠPython":11835,"Ġscripts":11836,"Ġ\\#":11837,"Ġangular":11838,"President":11839,"Ġliberal":11840,"ĠSteve":11841,"Ġviolent":11842,"'}":11843,"ĠIndivid":11844,"Prot":11845,"!!!!!!!!!!!!!!!!!!!!!!!!!!!!!!!!":11846,"ometer":11847,"rying":11848,"ĠTem":11849,"aza":11850,"Ġatom":11851,"Ġ600":11852,"izable":11853,"Ġstochastic":11854,"Ġskill":11855,"Ġhadn":11856,"Ġshopping":11857,"otypes":11858,"ĠHard":11859,"closure":11860,"ĠUkrainian":11861,"western":11862,"Bit":11863,"Ġsurge":11864,"Ġspiritual":11865,"leqslant":11866,"Ġidentifying":11867,"Ġcomplexes":11868,"Ġimper":11869,"ymers":11870,"enum":11871,"-*":11872,"Ġrarely":11873,"Ġruled":11874,"Ġrandomly":11875,"ĠConf":11876,"Ġtreating":11877,"ĠUnfortunately":11878,"Ġattended":11879,"ĠĊĠĠĠĠĠĠĠ":11880,"ĠFamily":11881,"Ġtur":11882,"worth":11883,"brace":11884,"ĠFar":11885,"âī":11886,"116":11887,"Ġpromising":11888,"::::::::::::::::::::::::::::::::":11889,"ĠOct":11890,"Ġprecision":11891,"Ġvital":11892,"uid":11893,"Ġchildhood":11894,"Ġpoliticians":11895,"Ġshorter":11896,"Ġdesigns":11897,"Ġrhetoric":11898,"agger":11899,"Ġechocardi":11900,"Ġaging":11901,"ennis":11902,"Domain":11903,"rell":11904,"Ġdecent":11905,"ĠFlo":11906,"appy":11907,"Ġ109":11908,"Ġintegrity":11909,"ENABLE":11910,"Ġtransportation":11911,"019":11912,"Ġpathogens":11913,"Ġsupernat":11914,"Conf":11915,"ateral":11916,"Effect":11917,"Ġ=\\":11918,"Ġpointer":11919,"Ġchemotherapy":11920,"Ġspher":11921,"Ġultimate":11922,"ulator":11923,"ĠBL":11924,"Ġdeposition":11925,"Ġ105":11926,"1996":11927,"Ġwashed":11928,"Ġsole":11929,"methyl":11930,"Ġdeeply":11931,"wall":11932,"Ġclause":11933,"ipher":11934,"Ġ+/-":11935,"Ġlifetime":11936,"Perhaps":11937,"plot":11938,"interface":11939,"Ġcollective":11940,"Ġconcepts":11941,"alg":11942,"Dialog":11943,"ĠExt":11944,"orandum":11945,"Ġresponsibilities":11946,"ĠJSON":11947,"Ġdenial":11948,"Ġsentencing":11949,"Ġharder":11950,"<<<<<<<<<<<<<":11951,"rating":11952,"olds":11953,"Ġeryth":11954,"rent":11955,"Ġprocedural":11956,"primary":11957,"Ġcere":11958,"acet":11959,"atile":11960,"ĠMedicine":11961,"integ":11962,"ï»¿":11963,"ĠIntroduction":11964,"ascular":11965,"ĠHead":11966,"Ca":11967,"Ġkit":11968,"Ġ<!--":11969,"Ġeverywhere":11970,"Ġsurvive":11971,"ĠFreedom":11972,"Ġul":11973,"Ġlabels":11974,"channel":11975,"Ġforever":11976,"Ġresidues":11977,"ĠIndust":11978,"^âĪĴ/âĪĴ^":11979,"role":11980,"Ġlongevity":11981,"ĠAccess":11982,"ĠDist":11983,"ĠTerm":11984,"Tool":11985,"Ġ118":11986,"Ġamended":11987,"Ġlean":11988,"Utils":11989,"ĠHa":11990,"Ġallegedly":11991,"eval":11992,"ĠChampionship":11993,"Ġ[\"":11994,"Ġphases":11995,"ĠBon":11996,"Instead":11997,"gov":11998,"čĊĉĉĉ":11999,"ifiers":12000,"Ġdisabled":12001,"Ġdecor":12002,"Ġ128":12003,"ĠHor":12004,"compatible":12005,"ervices":12006,"ĠWild":12007,"Ġblot":12008,"ĠBrexit":12009,"Ġ1983":12010,"ĠQuant":12011,"ç»":12012,"Ġblow":12013,"Ġune":12014,"Ġlawmakers":12015,"game":12016,"ĠMargaret":12017,"izz":12018,"Ġdebug":12019,"Ġsimultaneous":12020,"Ġleuk":12021,"gan":12022,"1997":12023,"git":12024,"Ġjson":12025,"omp":12026,"Ġcampus":12027,"Ġcomputing":12028,"ogram":12029,"scope":12030,"don":12031,"ĠAC":12032,"Ġjoy":12033,"University":12034,"MODULE":12035,"ĠPop":12036,"ĠSeries":12037,"Ġhang":12038,"Three":12039,"Ġmetall":12040,"ĠHistory":12041,"Ġhematopoietic":12042,"FB":12043,"inet":12044,"Ġfunny":12045,"analysis":12046,"flags":12047,"Ġjail":12048,"Ġ106":12049,"Ġrose":12050,"Ġmonthly":12051,"Ġmacro":12052,"avor":12053,"auto":12054,"Ġharvest":12055,"=-":12056,"Ġdoors":12057,"Ġ116":12058,"Ġsymmetric":12059,"Support":12060,"ĠCancer":12061,"Ġstrip":12062,"Ġutilized":12063,"Ġrepeatedly":12064,"ÂĹ":12065,"berry":12066,"hspace":12067,"asant":12068,"none":12069,"gin":12070,"Body":12071,"Ġwrites":12072,"Ġtaxpayer":12073,"azz":12074,"Ġreceipt":12075,"Ġflavor":12076,"good":12077,"exts":12078,"ĠSTAT":12079,"Ġtape":12080,"straint":12081,"Ġelectrophoresis":12082,"Ġmixing":12083,"missible":12084,"iy":12085,"rup":12086,"Empty":12087,"Ġexhibited":12088,"omorphic":12089,"Ġhorse":12090,"Ġerroneous":12091,"bd":12092,"Ġble":12093,"Ġreporter":12094,"Ġviolated":12095,"Ġlying":12096,"Ġarranged":12097,"subs":12098,"arse":12099,"Ġmoisture":12100,"ĠRog":12101,"DU":12102,"Ġsmoke":12103,"ymbol":12104,"Ġaccomplish":12105,"Ġscalar":12106,"HER":12107,"tk":12108,"Ġseventh":12109,"Ġchecking":12110,"Ġenvironments":12111,"andy":12112,"REG":12113,"screen":12114,"Ġcommerce":12115,"pton":12116,"Ġresidence":12117,"Ġ(@":12118,"ĠSpain":12119,"è®":12120,"Ġreject":12121,"enable":12122,"FILE":12123,"Ġmere":12124,"/.":12125,"Ġoccurring":12126,"Ġmitochondrial":12127,"Ġwheels":12128,"ĠStudy":12129,"border":12130,"ĠÐ½":12131,"Ġcoherent":12132,"blem":12133,"had":12134,"Ġmanual":12135,"Ġreveals":12136,"ĠPot":12137,"oved":12138,"å¦Ĥæŀľ":12139,"Match":12140,"Ġsacrifice":12141,"Ġstudying":12142,"Ġtopics":12143,"Ġbitcoin":12144,"ĠÙ":12145,"ocker":12146,"WARN":12147,":=":12148,"allenge":12149,"irl":12150,"Ġphilosophy":12151,"à¬":12152,"fields":12153,"Ġreadily":12154,"Ġvoted":12155,"USE":12156,"Ġdad":12157,"edit":12158,"Ġjet":12159,"Ġdeclined":12160,"ĠPE":12161,"Ġma":12162,"Ġpa":12163,"Ġ×":12164,"Ġrecovered":12165,"Ġvapor":12166,"ructure":12167,"zone":12168,"Ġperception":12169,"Have":12170,"ÎĶ":12171,"Ġ1986":12172,"atically":12173,"Ġsupporters":12174,"ĠCarl":12175,"Ġanniversary":12176,"arter":12177,"okes":12178,"Ġpanels":12179,"024":12180,"Ġreversed":12181,"oves":12182,"135":12183,"cancers":12184,"ĠML":12185,"illary":12186,"Ġderivatives":12187,"anim":12188,"Ġcompassion":12189,"ĠKingdom":12190,"Ġbuck":12191,"ĠWeek":12192,"ĠMah":12193,"words":12194,"Expression":12195,"component":12196,"ĠCONTRIBUTORS":12197,"Record":12198,"Ġdefects":12199,"Ġfertil":12200,"Ġdoses":12201,"Ġlegislative":12202,"Bas":12203,"Ġsubsid":12204,"Ġinterpreted":12205,"Ġtransactions":12206,"Ġease":12207,"etric":12208,"Ġcorrelations":12209,"April":12210,"insert":12211,"ĠBell":12212,"9999":12213,"tbl":12214,"offs":12215,"ĠDam":12216,"ĠGuard":12217,"Ġsouthern":12218,"ĠHun":12219,"ĠTurn":12220,"agan":12221,"ĠDue":12222,"language":12223,"ĠSon":12224,"endor":12225,"LEASE":12226,"spring":12227,"Ġputs":12228,"PRE":12229,"Ġenlarg":12230,"Ġtransgenic":12231,"ĠÂĹ":12232,"Ġliked":12233,"rove":12234,"amic":12235,"Ġtokens":12236,"emptyset":12237,"Ġunlike":12238,"Ġfibers":12239,"ĠVillage":12240,",\\,":12241,"Ġresist":12242,"ĠLim":12243,"ĠBR":12244,"Ġdrain":12245,"Ġwireless":12246,"Ġappend":12247,"Ġprinted":12248,"00000000":12249,"NG":12250,"Ġsystemic":12251,"help":12252,"ĠImp":12253,"'>":12254,"Ġmock":12255,"Ġloud":12256,"ĠAlternatively":12257,"Ġprosecutor":12258,"onomy":12259,"Ġromantic":12260,"Ġ1987":12261,"Ġadopt":12262,"Ġneurological":12263,"Ġlabeled":12264,"Ġrating":12265,"Ġarise":12266,"1995":12267,"Ġcooling":12268,"Hello":12269,"bec":12270,"ea":12271,"Ġexciting":12272,"ASH":12273,"ĊĠĠĠĠĠĠĠĠĠĠĠĠĠĠĠĠĠĠĠĠ":12274,"Ġauthorized":12275,"Ġpropose":12276,"Ġnorthern":12277,"Ġarc":12278,"Ġprojections":12279,"Ġactor":12280,"Ġparse":12281,"Ġexpressing":12282,"Ġscandal":12283,"Ġinfluenced":12284,"rogen":12285,"ĠCM":12286,"Ġillustrated":12287,"Ġhorrible":12288,"ĠContin":12289,"&#":12290,"Var":12291,"Ġassociations":12292,"connection":12293,"Ġdial":12294,"Ġsurvivors":12295,"stand":12296,"Ġgotta":12297,"Ġmountain":12298,"Ġseizure":12299,"bur":12300,"Ġgained":12301,"\"));":12302,"Ġprinting":12303,"Ġpenalties":12304,"kl":12305,"amond":12306,"(){":12307,"Ġkil":12308,"Ġtone":12309,"Ġpending":12310,"[[":12311,"Ġraising":12312,"Ġattitude":12313,"Ġrear":12314,"Ġdiscrete":12315,"Ġtension":12316,"Ġloans":12317,"impl":12318,"Ġhy":12319,"ĠImages":12320,"ĠCu":12321,"Windows":12322,"Ġconnecting":12323,"Ġinspired":12324,"Ġbrush":12325,"Ġvalidity":12326,"aware":12327,"ĠThird":12328,"season":12329,"Ġrough":12330,"ĠFair":12331,"ifting":12332,"Ġprotesters":12333,"ĠSir":12334,"marinedrugs":12335,"Ġsampled":12336,"~*":12337,".*]{}":12338,"Ġgalaxy":12339,"BV":12340,"rah":12341,"Ġhesit":12342,"ĠVegas":12343,"ugs":12344,"Ġmorbidity":12345,"Ġhopes":12346,"124":12347,"rupted":12348,"dest":12349,"Ġfacilit":12350,"Ġprosecution":12351,"ĠThrough":12352,"109":12353,"Ġsomebody":12354,"Ġignored":12355,"ĠRegister":12356,"Rect":12357,"Ġphenotype":12358,"Ġcontacts":12359,"013":12360,"Ġdiffusion":12361,"Ġemerge":12362,"cases":12363,"ĠBuffalo":12364,"nl":12365,"Ġunacceptable":12366,"349":12367,"Ġpotatoes":12368,"ĠFarm":12369,"ĠVEGF":12370,"Hi":12371,"Ġisolation":12372,"Ġpricing":12373,"Ġbatteries":12374,"amil":12375,"ĠWithout":12376,"Ġtang":12377,"Ġdenotes":12378,"ĠFermi":12379,"aron":12380,"ĠPack":12381,"because":12382,"Ġbiomarkers":12383,"plugin":12384,"ĠSn":12385,"Ġfung":12386,"Integer":12387,"Ġpreventing":12388,"llegalArgumentException":12389,"perp":12390,"Ġgross":12391,"clusions":12392,"mal":12393,"ĠAgency":12394,"Host":12395,"ĠPrimary":12396,"Ġcrypt":12397,"Ġtransmitted":12398,"wait":12399,"figure":12400,"Ġliterally":12401,"licenses":12402,"Ġinterfer":12403,"Ġ--------------------------":12404,"Ġ\"#":12405,"Ġinfrared":12406,"overs":12407,"à®":12408,"ĠâĪ":12409,"ago":12410,"pur":12411,"rus":12412,"Ġexcessive":12413,"echan":12414,"!)":12415,"Ġcomputation":12416,"ĠCommand":12417,"osomal":12418,"United":12419,"Ġpounds":12420,"Ġprospective":12421,"Ġextrem":12422,"Ġeliminate":12423,"ĠCho":12424,"ĠHave":12425,"Ġhypothes":12426,"Ġoste":12427,"Ġfurn":12428,"Ġfactory":12429,"*~*":12430,"oglobin":12431,"ĠRh":12432,"idine":12433,"ĠTODO":12434,"áº":12435,"Ġswitching":12436,"Ġblo":12437,"Ġoverseas":12438,"Hash":12439,"Ġpublicly":12440,"Ġgravity":12441,"ĠGames":12442,"Ġdestruction":12443,"Ġshit":12444,"Ġdefensive":12445,"profile":12446,"Ġimproper":12447,"Ġflour":12448,"Ġelectricity":12449,"Ġreluct":12450,"javascript":12451,"Ġregulated":12452,"Ġworried":12453,"Mac":12454,"Ġnod":12455,"Ġtonight":12456,"Ġphysically":12457,"ĠAnderson":12458,"Ġconstrained":12459,"Ġsom":12460,"Ġdifficulties":12461,".(":12462,"Ġboxes":12463,"Ġdelayed":12464,"ĠWord":12465,"Ġspecificity":12466,"Ġcombine":12467,"hu":12468,"short":12469,"åŃ":12470,"ĠOP":12471,"Ġattractive":12472,"Ġinevitable":12473,"ĠĠĠĠĠĠĠĠĠĠĠĠĠĠĠĠĠĠĠĠĠĠĠĠĠĠĠĠĠĠĠĠĠĠ":12474,"Ġunexpected":12475,"save":12476,"Ġscattered":12477,"oking":12478,"Ġcoli":12479,"SW":12480,"Ġovernight":12481,"ĠHawaii":12482,"Args":12483,"126":12484,"ĠĠĠĠĠĠĠĠĠĠĠĠĠĠĠĠĠĠĠĠĠĠĠĠĠĠĠĠĠĠĠĠĠ":12485,"Ġedit":12486,"Ġfounded":12487,"conv":12488,"enny":12489,"Ġglobally":12490,"Ġ..":12491,"ĠConsequently":12492,"nan":12493,"Ġpray":12494,"pret":12495,"ãģĻ":12496,"Ġsearching":12497,"ctrl":12498,"Ġattributed":12499,"bot":12500,"Ġredistribute":12501,"Show":12502,"Ġtill":12503,"JS":12504,"Ġugly":12505,"Ġmystery":12506,"Reader":12507,"icul":12508,"Ġhardly":12509,"ĠShanghai":12510,"ĠMitchell":12511,"Bs":12512,"anny":12513,"Ġemploys":12514,"Ġdisplays":12515,"MASK":12516,"æĹ¶":12517,"VI":12518,"inct":12519,"shall":12520,"Found":12521,"ecess":12522,"READ":12523,"_{-":12524,"queue":12525,"Ġblocked":12526,"Ġabortion":12527,"anti":12528,"Ġhits":12529,"ĠFALSE":12530,"Ġultraviolet":12531,"ĠRA":12532,"}'":12533,"je":12534,"Ġflags":12535,"114":12536,"ERR":12537,"ĠPriv":12538,"}$$\\":12539,"Ġstunning":12540,"hang":12541,"ĠCong":12542,"Ġdementia":12543,"ĠClearly":12544,"Ġframes":12545,"Ġip":12546,"ĠDisc":12547,"Ġ1985":12548,"Convert":12549,"Ġbeliefs":12550,"Ġ\"<":12551,"itical":12552,"iden":12553,"Ġoven":12554,"Ġincorrect":12555,"aque":12556,"čĊĠĠĠĠ":12557,"ensing":12558,"Ġpermissions":12559,"Ġdefend":12560,"riting":12561,"Ġ103":12562,"aults":12563,"ĠCost":12564,"ĠVladimir":12565,"phy":12566,"plan":12567,"ishes":12568,"ĠAh":12569,"Ġboss":12570,"Ġml":12571,"Ġenables":12572,"Ġvisits":12573,"iel":12574,"Ġaffecting":12575,"Session":12576,"ikes":12577,"ĠĠĠĠĠĠĠĠĠĠĠĠĠĠĠĠĠĠĠĠĠĠĠĠĠĠĠĠĠĠĠĠ":12578,"Ġobtaining":12579,"agic":12580,"Ġretain":12581,"ĠLove":12582,"âĸ":12583,"jar":12584,"Ġgenerator":12585,"011":12586,"Ġ108":12587,"ĠAdditional":12588,"Ġ{@":12589,"Ġtemplates":12590,"Anal":12591,"Ġguns":12592,"EF":12593,"ĠBuddh":12594,"Ġsiblings":12595,"Ġmagic":12596,"Values":12597,"Ġprosper":12598,"022":12599,"opher":12600,"Ġdifferently":12601,"uity":12602,"Ġcompleting":12603,"mask":12604,"Ġmultiplic":12605,"Ġtroubles":12606,"ĠOcean":12607,"Ġmaximal":12608,"Ġweights":12609,"Ġepilepsy":12610,"Ġdescribing":12611,"Ġbehaviors":12612,"ĠTitle":12613,"Ġreflects":12614,"ĠHo":12615,"schemas":12616,"ĠMontgomery":12617,"Ġfits":12618,"**.":12619,"also":12620,"ĠFri":12621,"izers":12622,"shape":12623,"Items":12624,"ĠMinistry":12625,"Maybe":12626,"Ġasks":12627,"Ġcontest":12628,"Ġfunctionality":12629,"Ġgarbage":12630,"Ġ01":12631,"Ġink":12632,"ĠBrad":12633,"rule":12634,"Ġbearing":12635,"Ġfilling":12636,"Ġdesignated":12637,"Ġsnap":12638,"Ġrod":12639,"Ġdeals":12640,"Ġcommands":12641,"Ġcounterparts":12642,"Ġpromotion":12643,"estamp":12644,"iii":12645,"ativistic":12646,"Widget":12647,"ĠRen":12648,"Ġcallback":12649,"ĠUnivers":12650,"Sk":12651,"ĠFord":12652,"delete":12653,"Ġclinic":12654,"Ġirradiation":12655,"ĠFall":12656,"ĠProgramm":12657,"1994":12658,"Ġembedding":12659,"Ġtrends":12660,"Ġroutinely":12661,"Ġpredictions":12662,"Ġkiss":12663,"bad":12664,"Ġinvestigations":12665,"Ġdop":12666,"ĠMethod":12667,"Ġequality":12668,"Ã©e":12669,"apsed":12670,"Ġselective":12671,"Ġinterviews":12672,"Ġreleasing":12673,"coll":12674,"Ġcord":12675,"ĠRather":12676,"Ġbelie":12677,"Ġshoes":12678,"Ear":12679,"Ġundesirable":12680,"mate":12681,"argo":12682,"Additional":12683,"192":12684,"ĠHop":12685,"cluding":12686,"Ġbottles":12687,"Ġabstract":12688,"Has":12689,"\\.":12690,"_,":12691,"Product":12692,"Ġtexture":12693,"aux":12694,"////////":12695,"ĠCas":12696,"iffer":12697,"ĠCore":12698,"Ġbreaks":12699,"imen":12700,"Free":12701,"resource":12702,"Ġhungry":12703,"Ġprogressive":12704,"Ġfitness":12705,"Ġknees":12706,"ĠAward":12707,"uclear":12708,"023":12709,"Ġconvey":12710,"$^{-":12711,"Ġprogramme":12712,"emat":12713,"wa":12714,"Cr":12715,"Ġhero":12716,"HTML":12717,"Ġincurred":12718,"++;":12719,"July":12720,"ois":12721,"ishop":12722,"Ġlistening":12723,"Ġgear":12724,"plete":12725,"CN":12726,"Ġweekly":12727,"asted":12728,"aughter":12729,"ummy":12730,"ĠMir":12731,"isen":12732,"ti":12733,"^)":12734,"ĠPrior":12735,"Ġproph":12736,"--------------------":12737,"Ġprevalent":12738,"Ġmold":12739,"Ġvariant":12740,"Ġfarmers":12741,"Ġdetector":12742,"700":12743,"parison":12744,"Collection":12745,"translation":12746,"ĠdÃ©":12747,"TF":12748,"âĢ¯":12749,"ĠORDER":12750,"Ġpremium":12751,"igger":12752,"Ġchaos":12753,"ĠArticle":12754,"Ġconsciousness":12755,"Ġdehydrogenase":12756,"oming":12757,"Ġfocusing":12758,"ographer":12759,"rophy":12760,"Ġmad":12761,"random":12762,"Ġsynthetic":12763,"Ġinserted":12764,"Ġcombat":12765,"Ġboundaries":12766,"Ġpython":12767,"phosph":12768,"area":12769,"Ġanger":12770,"Ġcosm":12771,"Ġguest":12772,"ĠStill":12773,"æķ°æį®":12774,"Ġattempting":12775,"Ġexterior":12776,"ĠSciences":12777,"LP":12778,"Ġcrystals":12779,"Ġrocks":12780,"mates":12781,"Her":12782,"Ġangry":12783,"Ġcocktail":12784,"ĠNick":12785,"Ġ1984":12786,"bigg":12787,"GH":12788,"Ġblame":12789,"Ġfavorable":12790,"oga":12791,"Ġcomputers":12792,"Ġindices":12793,"kernel":12794,"è¦ģ":12795,"ulent":12796,"ĠUniverse":12797,"ĠLGBT":12798,"Ġbubbles":12799,"Ġinhabitants":12800,"^{*":12801,"ãĢ":12802,"Ġ135":12803,"Ġcraft":12804,"Author":12805,"ĠLorentz":12806,"Court":12807,"Ġadapted":12808,"Ġconfident":12809,"oug":12810,"Ġundoubtedly":12811,"rical":12812,"Ġrendered":12813,"derived":12814,"HTTP":12815,"children":12816,"Cap":12817,"Ġphysicians":12818,"Ġapps":12819,"Ġregulate":12820,"Ġvaried":12821,".:":12822,"113":12823,"ymmetric":12824,"Ġfitting":12825,"oriented":12826,"Ġfatty":12827,"Ġcombinations":12828,"Ġaims":12829,"Ġintracellular":12830,"Ġdeeper":12831,"watch":12832,"Ġ$.":12833,"icillin":12834,"Ġreflection":12835,"Ġedition":12836,"ĠSR":12837,"modules":12838,"etc":12839,"Ġsettled":12840,"ĠCPU":12841,"iam":12842,"rench":12843,"Ġmethamphetamine":12844,"igma":12845,"itoneal":12846,"ILE":12847,"OLD":12848,"clinical":12849,"Ġinverse":12850,"ĠBio":12851,"Ġfunded":12852,"Ġlateral":12853,"Ġ132":12854,"ĠBC":12855,"Ġnegligence":12856,"ĠCF":12857,"Ġdates":12858,"Ġmicrowave":12859,"âĢ²-":12860,"Ġrestaurants":12861,"Ġquestionnaires":12862,"Ġpredicting":12863,"forall":12864,"Ġweird":12865,"Ġnodded":12866,"Ġintense":12867,"Ġpeaks":12868,"*(-":12869,"Ste":12870,"Ġleak":12871,"Params":12872,"Ġsuspension":12873,"Ġmatched":12874,"Ġlimiting":12875,"Ġdisclosure":12876,"Ġmood":12877,"Ġtablespoons":12878,"Ġcollapse":12879,"Ġquantities":12880,"Ġmature":12881,"Ġsatisfying":12882,"Ġms":12883,"Ġ+\\":12884,"ĠParticipants":12885,"Ġmerc":12886,"ĠĠĠĠĠĠĠĠĠĠĠĠĠĠĠĠĠĠĠĠĠĠĠĠĠĠĠĠĠĠĠĠĠĠĠ":12887,"Ġantigens":12888,"xs":12889,"Ġdans":12890,"Ġcatalyst":12891,"arding":12892,"Ġmilit":12893,"ĠRound":12894,"ket":12895,"ĠFull":12896,"Ġtransparent":12897,"Ġlogarith":12898,"ĠPBS":12899,"priv":12900,"Ġcategor":12901,"Ġrum":12902,"your":12903,"ĠGall":12904,"Ġdesperate":12905,"Ġsir":12906,"Aut":12907,"Ġscoring":12908,"))/":12909,"Ġpeer":12910,"unnumbered":12911,"()->":12912,"Ġproposition":12913,"ĠJun":12914,"ISCUSSION":12915,"kn":12916,"achel":12917,"Ġjuice":12918,"1990":12919,"ĠPUBLIC":12920,"Ġpotent":12921,"dog":12922,"Ġchoosing":12923,"ĠSpe":12924,"Ġmunicipality":12925,"Ġvulnerable":12926,"Art":12927,"Ġscaling":12928,"éĢ":12929,"Ġnons":12930,"Ġpepper":12931,"Ġchains":12932,"udio":12933,"Ġmanually":12934,"cheme":12935,"Ġpipe":12936,"Ang":12937,"Del":12938,"Ġpreferably":12939,"Ġdamaged":12940,"1993":12941,"Ġpizza":12942,"Ġterr":12943,".).":12944,"party":12945,"ĠAB":12946,"[**":12947,"Ġqui":12948,"itage":12949,"Ġlikes":12950,"Ġstrictly":12951,"Ġrepresentations":12952,"Ġhomosex":12953,"čĊĠĠ":12954,"Ġtied":12955,"rates":12956,"Begin":12957,"adi":12958,"Font":12959,"âĢ¾âĢ¾âĢ¾âĢ¾âĢ¾âĢ¾âĢ¾âĢ¾âĢ¾âĢ¾âĢ¾âĢ¾âĢ¾âĢ¾âĢ¾âĢ¾âĢ¾âĢ¾âĢ¾âĢ¾âĢ¾âĢ¾âĢ¾âĢ¾":12960,"Ġsymptom":12961,"ĠOrleans":12962,"ĠarXiv":12963,"Ġphysiological":12964,"Ġexcit":12965,"una":12966,"Ġstake":12967,"puted":12968,"Ġgenuinely":12969,"Ġscholars":12970,"Ġcleavage":12971,"Ġdeveloper":12972,"ready":12973,"Ġwondering":12974,"ĊĠĠĠĠĠĠĠĠĠĠĠĠĠĠĠĠĠĠĠĠĠĠĠĠĠĠĠĠĠĠĠĠĠĠĠĠĠĠĠ":12975,"ĠProperty":12976,"ws":12977,"bibr":12978,"Ġshots":12979,"Ġisolates":12980,"Ġbounds":12981,"Ġtolerance":12982,"lit":12983,"Warning":12984,"Ġbizarre":12985,"Ġdefect":12986,"quis":12987,"-$":12988,"âĢĻ.":12989,"ĊĠĠĠĠĠĠĠĠĠĠĠĠĠĠĠĠĠĠĠĠĠĠĠĠĠ":12990,"Japan":12991,"Ġconstitution":12992,"Head":12993,"_+":12994,"terminal":12995,"Ġpushing":12996,"ĠAdam":12997,"ĠSullivan":12998,"Ġupdating":12999,"Ġvisitors":13000,"Ġions":13001,"Ġentities":13002,"Ġcancel":13003,"Ġdimin":13004,"Ġtemp":13005,"ĠLy":13006,"ĠNF":13007,"Ġdip":13008,"REE":13009,"Ġlogical":13010,"Ġobjection":13011,"ĠTurkey":13012,"Ġfool":13013,"220":13014,"oton":13015,"Ġpermanently":13016,"sis":13017,"password":13018,"Ġviruses":13019,"Ġlos":13020,"ĠEnter":13021,"items":13022,"Ġbills":13023,";\">":13024,"emption":13025,"Ġparam":13026,"~)":13027,"Html":13028,"ĠPI":13029,"Ġquote":13030,"ims":13031,"CODE":13032,"Stack":13033,"ĠVari":13034,"Ġresidual":13035,"Ġscientist":13036,"hep":13037,"ĠReuters":13038,"\\,\\":13039,"Ø±":13040,"Ġassistant":13041,"ĠCaribbean":13042,"verted":13043,"jackson":13044,"Ġbrew":13045,"aryngeal":13046,"ogene":13047,"Points":13048,"TEST":13049,"ĠBible":13050,"NULL":13051,"Sequence":13052,"acher":13053,"Ġcorpus":13054,"UPDATE":13055,"inth":13056,"Ġcoat":13057,"Ġmini":13058,"users":13059,"Ġbaseball":13060,"Welcome":13061,"Ġexchanges":13062,"ĠOs":13063,"Ġdiarrhea":13064,"Ġnucleus":13065,"Ġemerging":13066,"ãĤĴ":13067,"Ġjuvenile":13068,"Ġreferring":13069,"ĠAz":13070,"Ġequipped":13071,"=\"@":13072,"Ġarithmetic":13073,"Mo":13074,"Ġhelicopter":13075,")âĢĵ(":13076,"Ġlaparoscopic":13077,"fect":13078,"idx":13079,"gly":13080,"Ġclimb":13081,"aire":13082,"ectomy":13083,"rowser":13084,"Ġaneurys":13085,"Ġuniquely":13086,"åº":13087,"_>":13088,"ĠSW":13089,"irth":13090,"try":13091,"âĢĶâĢĶâĢĶâĢĶ":13092,"145":13093,"Â³":13094,"Ġmembership":13095,"Ġcavity":13096,"Ġbatt":13097,"ĠUnless":13098,"Ġdeficiency":13099,"Ġpocket":13100,"Ġsensors":13101,">();":13102,"}}}_":13103,"Ġtoxicity":13104,"obacter":13105,"connected":13106,"ĠCraig":13107,"bing":13108,"ARE":13109,"Ġplatforms":13110,"ĠYeah":13111,"Ġdeviations":13112,"FROM":13113,"phys":13114,"Ġinvited":13115,"ĠØ§ÙĦ":13116,"made":13117,"article":13118,"held":13119,"cha":13120,"VVVVVVVVVVVVVVVVVVV":13121,"Ġsubscrib":13122,"Ġbirths":13123,"ĠĠĠĠĠĠĠĠĠĠĠĠĠĠĠĠĠĠĠĠĠĠĠĠĠĠĠĠĠĠĠĠĠĠĠĠĠĠĠĠĠ":13124,"Ġsymplectic":13125,"Ġpromised":13126,"Json":13127,"ĠâĢĭ":13128,"Ġmosqu":13129,"move":13130,"Ġsaving":13131,"Ġtransmit":13132,"Ġextending":13133,"Ġtired":13134,"encephal":13135,"Ġmuscles":13136,"Ġdefining":13137,"Ġpreparations":13138,"Ġdeny":13139,"utils":13140,"Ġhealing":13141,"ĠCoast":13142,"Ġpipeline":13143,"Ġparticipated":13144,"Ġmodeling":13145,"eme":13146,"129":13147,"Ġdaughters":13148,"acker":13149,"Ġ|\\":13150,"Ġmellitus":13151,"plugins":13152,"ĠLind":13153,"news":13154,"Ġpill":13155,"Ġobligation":13156,"ĠHamiltonian":13157,"Ġdance":13158,"$^{":13159,"ĠIndiana":13160,"doi":13161,"pg":13162,"Ġinjected":13163,"seq":13164,"IRE":13165,"Ġaccurately":13166,"Ġestimation":13167,"Ġlazy":13168,"Ġgut":13169,"lated":13170,"Ġsaturated":13171,"Ġbehavioral":13172,"Ġreson":13173,"DH":13174,"Ġbic":13175,"Ġpenet":13176,"Chapter":13177,"iaz":13178,"Ġsuspected":13179,"Ġodds":13180,"ĠMathematics":13181,"Ġinflation":13182,"Ġnobody":13183,"Ġpreserve":13184,"ĠLiverpool":13185,"Ġemotion":13186,"Ġestablishment":13187,"Question":13188,"DF":13189,"Ġmeaningful":13190,"Ġregarded":13191,"ancies":13192,"Ġcortex":13193,"ĠCincinnati":13194,"Ġcub":13195,"Ġimpressive":13196,"Ġdebris":13197,"Ġbird":13198,"ĠUntil":13199,"Ġoutrage":13200,"Ġrestrict":13201,"Ġtalent":13202,"ozygous":13203,"!\\":13204,"Ġlease":13205,"Ġplugin":13206,"tools":13207,"ĠKEY":13208,"ĠProp":13209,"gal":13210,"hh":13211,"Ġadmin":13212,"Ġarrive":13213,"region":13214,"Ġsuspended":13215,"Ġcondem":13216,"ĠPHP":13217,"ĠTNF":13218,"ĠAv":13219,"ĠĠĠĠĠĠĠĠĠĠĠĠĠĠĠĠĠĠĠĠĠĠĠĠĠĠĠĠĠĠĠĠĠĠĠĠĠĠĠ":13220,"å¼":13221,"Ġresistant":13222,"oxide":13223,"Assembly":13224,"ĠYankees":13225,"Ġstayed":13226,"Ġoxidative":13227,"Ġbat":13228,"angel":13229,"colon":13230,"ÃĹÂĻÃĹÂ":13231,"ĠOrthodox":13232,"Ġresident":13233,"mult":13234,"Ġ''":13235,"icture":13236,"Ġreliability":13237,"ĠWE":13238,"ĠmL":13239,"ĠQueen":13240,"åĽ":13241,"Ġpromoting":13242,"Ġ-------":13243,"Ġarising":13244,"Ġladies":13245,"nie":13246,"plane":13247,"Ġdendritic":13248,"century":13249,"240":13250,"Ġtactics":13251,"Ġexpense":13252,"280":13253,"TM":13254,"Ġindication":13255,"Ġvag":13256,"grid":13257,"ĠMill":13258,"Ġmicroscopy":13259,"ĠLibrary":13260,"Ġelegant":13261,"Ġlect":13262,"otyp":13263,"Inv":13264,"ĠÂł":13265,"ked":13266,"Ġadjustment":13267,"rank":13268,")</":13269,"olver":13270,"ultural":13271,"AE":13272,"ĠPractice":13273,"ĠSports":13274,"Ġconstitu":13275,"Ġpersonality":13276,"Ġdispos":13277,"turn":13278,"Ġdemonstrates":13279,"Round":13280,"phase":13281,"ĠBat":13282,"Ġconcomitant":13283,"amel":13284,"Ġbranches":13285,"ificant":13286,"CHAR":13287,"ÃĲÂµÃĲ":13288,"Ġum":13289,"Ġspots":13290,"Ġsteal":13291,"recated":13292,"ĠSystems":13293,"2020":13294,"Ġexisted":13295,"urance":13296,"175":13297,"mass":13298,"Ġdistances":13299,"omics":13300,"Ġinputs":13301,"Ġthreats":13302,"Fragment":13303,"Ġ107":13304,"ĠOp":13305,"Ġdefinitions":13306,"Ġsuppression":13307,"Ġengagement":13308,"Ġjunction":13309,"Ġpotassium":13310,"Ġpersu":13311,"Ġinhibited":13312,"Gl":13313,"asia":13314,"ĠBab":13315,"VF":13316,"âĤ¬":13317,"ãģ«":13318,"Ġmelanoma":13319,"Ġvariability":13320,"Ġdefeat":13321,"Ġsynaptic":13322,"Rule":13323,"Ġpointing":13324,"ĠEric":13325,"Ġvisiting":13326,"ĠBenjamin":13327,"Ġ1981":13328,"views":13329,"Ġdocumented":13330,"wt":13331,"Ġgenomic":13332,"ĠResp":13333,"hs":13334,"Ġ&=&":13335,"ĠEinstein":13336,"python":13337,")_{":13338,"Ġgri":13339,"ĠIdaho":13340,"bow":13341,"Ġreply":13342,"ĠIFN":13343,"Ġtends":13344,"Ġranges":13345,"Ġtrauma":13346,"Ġdairy":13347,"Ġnegot":13348,"Ġenum":13349,"people":13350,"åı¯ä»¥":13351,"Ġele":13352,"ĠGonzalez":13353,"Ġwarranty":13354,"Ġhandler":13355,"inates":13356,"Ġminority":13357,"Ġcro":13358,"ĠTreasury":13359,"avi":13360,"sters":13361,"Ġclosure":13362,"Ġbreakfast":13363,"Ġenergetic":13364,"Discussion":13365,"Ġcomplaints":13366,"ĠDefense":13367,"itarian":13368,"136":13369,"165":13370,"Ġcapabilities":13371,"dk":13372,"Ġheaded":13373,"ĠMoore":13374,"132":13375,"Ġps":13376,"Ġcow":13377,"nes":13378,"Ġmisleading":13379,"Ġmerchandise":13380,"ĠDem":13381,"},$$":13382,"esteem":13383,"GM":13384,"Ġ1960":13385,"Ġintimid":13386,"?)":13387,"Ġplausible":13388,"å°":13389,"repository":13390,"Ġscroll":13391,"Ġcaspase":13392,")}(":13393,"Root":13394,"Ġmerg":13395,"Ġfinance":13396,"Ġalongside":13397,"Ġtheoretically":13398,"ĠNigeria":13399,"ĠChristians":13400,"CONFIG":13401,"Ġpneum":13402,"Ġopens":13403,"Ġey":13404,"Ġemerged":13405,"ĠSwedish":13406,"Ġincl":13407,":@\"":13408,"Ġdenying":13409,"Ġsuggestions":13410,"ĠBirmingham":13411,"vc":13412,"ĠLatin":13413,"Ġwing":13414,"Ġsatisfaction":13415,"omen":13416,"Ġspray":13417,"Ġtoilet":13418,"Ġ255":13419,"umble":13420,"1992":13421,"Ġbenign":13422,"sky":13423,"Ġhemorrh":13424,"INK":13425,"erals":13426,"Ġupset":13427,"Ġintentions":13428,"118":13429,"Â£":13430,"Ġbovine":13431,"health":13432,"Ġdental":13433,"Ġnitrogen":13434,"Active":13435,"Ġcompatibility":13436,"Ġspectacular":13437,"Ġthirty":13438,"Ġparticipant":13439,"'],":13440,"oa":13441,"753":13442,"Ġwhisper":13443,"Ġimplicit":13444,"Ġscholar":13445,"iat":13446,"ĠDakota":13447,"Ġskeletal":13448,"`.":13449,"Abstract":13450,"Ġsubstantive":13451,"[$":13452,"ĠShould":13453,"ĠHz":13454,"Ġinduces":13455,"ĠNode":13456,"General":13457,"ĠSELECT":13458,"Ġviscosity":13459,"ĠNations":13460,"Ġnose":13461,"OUNT":13462,"Ġdense":13463,"ĊĠĠĠĠĠĠĠĠĠĠĠĠĠĠĠĠĠĠ":13464,"Ġxe":13465,"ĠStandards":13466,"Ġtransformed":13467,"Ġwinner":13468,"ilibrium":13469,"usc":13470,"entials":13471,"Ġingredient":13472,"æĸ¹æ³ķ":13473,"LINE":13474,"ĠĠĠĠĠĠĠĠĠĠĠĠĠĠĠĠĠĠĠĠĠĠĠĠĠĠĠĠĠĠĠĠĠĠĠĠĠ":13475,"Ġheading":13476,"ĠNi":13477,"Ġjudgments":13478,"Ġconvincing":13479,"Supreme":13480,"Ġvirtually":13481,"Material":13482,"ĠWatch":13483,"147":13484,"Sur":13485,"Ġbases":13486,"Ġhosts":13487,"|-":13488,"Ġvibr":13489,"iano":13490,"third":13491,"stage":13492,"ONG":13493,"Introduction":13494,"Ġantagon":13495,"agg":13496,"1991":13497,"ĠGC":13498,"ĠSacramento":13499,"Ġclaiming":13500,"POST":13501,"Ġconfusion":13502,"yme":13503,"á¹Ľá¹£á¹ĩa":13504,"xt":13505,"ĠAst":13506,"selected":13507,"946":13508,"record":13509,"Based":13510,"lower":13511,"Ġasset":13512,"Ġmargins":13513,"ĠCitizens":13514,"Full":13515,"Ġreceives":13516,"jud":13517,"hw":13518,"Ġvit":13519,"Ġblocking":13520,"ĠThailand":13521,"Ġrespondents":13522,"lay":13523,"rave":13524,"Ġoverruled":13525,"Ġprobable":13526,"Properties":13527,"Ġlocked":13528,"Ġgrocery":13529,"btn":13530,"Ġintens":13531,"ĠPlace":13532,"Ġticket":13533,"Ġorigins":13534,"Ġ).":13535,"degree":13536,"xf":13537,"Ġnp":13538,"ĠSilver":13539,"mentioned":13540,"four":13541,"rant":13542,"employ":13543,"Ġfake":13544,"ĠPK":13545,"ĠHilbert":13546,"security":13547,"nam":13548,"Ġgovernor":13549,"circle":13550,"oups":13551,"Ġcommunicate":13552,"Ġchances":13553,"Ant":13554,"Ġ133":13555,"Ġearliest":13556,"Ġoptimization":13557,"Ġconstants":13558,"ĠCommissioner":13559,"Ġlim":13560,"Ġconfer":13561,"Ġho":13562,"ĠHu":13563,"Ġtrig":13564,"ĠÎĶ":13565,"aches":13566,"Ġreset":13567,"Take":13568,"Ġsubgroup":13569,"Ġcultured":13570,"Ġaffil":13571,"Ġspark":13572,"Ġeq":13573,"mM":13574,"0005":13575,"Ġnonlinear":13576,"imental":13577,"Ġframeworks":13578,"Ġparams":13579,"Ġshortly":13580,"Ġneuron":13581,"ĠSoc":13582,"ĠMas":13583,"idase":13584,"Advertisement":13585,"ĠSS":13586,"ĠBoy":13587,"Ġappreciated":13588,"Ġpleasure":13589,"Ġmort":13590,"ĠĠĠĠĠĠĠĠĠĠĠĠĠĠĠĠĠĠĠĠĠĠĠĠĠĠĠĠĠĠĠĠĠĠĠĠ":13591,"Ġfiltration":13592,"Ġdetermines":13593,"Ġtimely":13594,"Ġcircular":13595,"144":13596,"Sometimes":13597,"Ġtomatoes":13598,"atom":13599,"Ġgrain":13600,"ĠÂ»":13601,"Ġjustify":13602,"release":13603,"Ġdonor":13604,"Ġsolved":13605,"-----------------------------------------------------------------------":13606,"forming":13607,"closed":13608,"Ġappointment":13609,"ĠCNN":13610,"Ġsilicon":13611,"ĠPakistani":13612,"Requ":13613,"rowth":13614,")\\,":13615,"Ġacknowledge":13616,"ĊĊĊĊĊ":13617,"Ġorange":13618,"ĠTHAT":13619,"Ġcookies":13620,"onomic":13621,"Ġefficiently":13622,"Ġincent":13623,"Ġmutants":13624,"Ġtwe":13625,"Ġ134":13626,"Ġsecured":13627,"Serial":13628,"ĠChild":13629,"Ġthrown":13630,"Ġexclusion":13631,"Ġlocalization":13632,"204":13633,"Ġcriticism":13634,"Both":13635,"patient":13636,"sort":13637,"ĠASSERT":13638,"Ġdiaphragm":13639,"Ġtags":13640,"134":13641,"ĠCameron":13642,"Ġquarters":13643,"825":13644,"ACKGROUND":13645,"sem":13646,"Bottom":13647,"Ġcommercially":13648,"Ġnavigation":13649,"GFP":13650,"Ġthreatened":13651,"Ġpace":13652,"cludes":13653,"Ġmemories":13654,"ĠOpt":13655,"ĠOUT":13656,"ĠHim":13657,"ĠDAMAGES":13658,"Ġjewelry":13659,"uple":13660,"Ġstimulus":13661,"ĠPhilippines":13662,"Ġsilent":13663,"Ġdent":13664,"Ġ{\"":13665,"Ġstriking":13666,"Ä±":13667,"ritical":13668,"uminescence":13669,"Ġreplication":13670,"Ġoptional":13671,"atre":13672,"MAP":13673,"Ġfluor":13674,"Ġanybody":13675,"ĠFeb":13676,"Ġcolleges":13677,"ĠSort":13678,"ĠMu":13679,"ĠHoly":13680,"Ġwins":13681,"apl":13682,"Ġprejudice":13683,"Fil":13684,"BF":13685,"Ġflying":13686,"Christ":13687,"bn":13688,"Ġtap":13689,"Ġod":13690,"Ġtech":13691,"Div":13692,"Ġ1982":13693,"Ġhistoric":13694,"Display":13695,"Ġpandemic":13696,"AX":13697,"usive":13698,"rength":13699,"Ġliable":13700,"Ġchallenged":13701,"Thus":13702,"oli":13703,"oni":13704,"Ġcer":13705,"ĠSea":13706,"Ġtraits":13707,"Ġsupervised":13708,"Ġconcur":13709,"Ġ800":13710,"Ġmultipl":13711,"oor":13712,"ĠFR":13713,"ortic":13714,"Ġtries":13715,"Ġfiduciary":13716,"anner":13717,"athy":13718,"Ġconserved":13719,"inch":13720,"Ġeveryday":13721,"Ġtracks":13722,"models":13723,"Ġfactual":13724,"Ġdecimal":13725,"require":13726,"Ġpockets":13727,"ĠLat":13728,"Ġacted":13729,"Ġcalm":13730,"$).":13731,"ĠException":13732,"onder":13733,"Ġgray":13734,"Ġbelongs":13735,"Ġdried":13736,"1986":13737,"Ġvegetables":13738,"Ġdescript":13739,"Ġcul":13740,"ante":13741,"____":13742,"FALSE":13743,"Ġstained":13744,"Parameters":13745,"ĠDocument":13746,"ãĤĭ":13747,"Ġresidential":13748,"ÃĦ":13749,"spe":13750,"ysql":13751,"Ġlitigation":13752,"ribe":13753,"ĠMun":13754,"Ġmining":13755,"zip":13756,"Ġconvention":13757,"Ġqueue":13758,"ĠBlock":13759,"rig":13760,"ĠWel":13761,".\\[[@":13762,"ĠSusan":13763,"170":13764,"Ġlivestock":13765,"čĊčĊĠĠĠ":13766,"ĠReturns":13767,"temp":13768,",_":13769,"allow":13770,"Ġfilters":13771,"Ġgraphs":13772,"ĠÎ¼g":13773,"Ġsecrets":13774,"hbar":13775,"anal":13776,"Ġseats":13777,"155":13778,"Ġreconstruction":13779,")^{\\":13780,"atever":13781,"bury":13782,"Ġgradually":13783,"Ġflows":13784,"ĠKeep":13785,"atar":13786,"ĠâĤ¬":13787,"Ġbedroom":13788,"Ġiso":13789,"Ġprevented":13790,"Ġperpet":13791,"Ġattenu":13792,"medscimonit":13793,"Ġtweet":13794,"engine":13795,"Enabled":13796,"ĠEM":13797,"Ġsentenced":13798,"ĠHay":13799,"ÙĨ":13800,"Ġflowers":13801,"Ġ<?":13802,"attribute":13803,"Ġproportions":13804,"ĠPri":13805,"Ġestablishing":13806,"Ġgeneralized":13807,"Ġrespondent":13808,"Ġsimilarity":13809,"ÑģÑĤ":13810,"ĠMarket":13811,"profit":13812,"ĠLC":13813,"Ġconfused":13814,"etically":13815,"Ġactors":13816,"lab":13817,"ĠPy":13818,"olves":13819,"letter":13820,"Ġresin":13821,"Ġartist":13822,"ĠGreg":13823,"Ġstating":13824,"August":13825,"Ġnotation":13826,"rett":13827,"best":13828,"ophageal":13829,"Ġ^{":13830,"Ġxml":13831,"ĠXML":13832,"ĠSearch":13833,"Ġroads":13834,"owers":13835,"Render":13836,"Ġremedies":13837,"Ġpel":13838,"ĠSa":13839,"Ġcompression":13840,"Ġdescending":13841,"BIT":13842,"Ġformulas":13843,"Ġexplanations":13844,"conjugated":13845,"Ġintersection":13846,"Ġminds":13847,"ĠDu":13848,"brack":13849,"September":13850,"Ġjoining":13851,"Background":13852,"Ġutter":13853,"ÃĲÂºÃĲ":13854,"Ġbother":13855,"standard":13856,"Callback":13857,"'(":13858,"Ġatomic":13859,"ĠABC":13860,"Ġseeks":13861,";;":13862,"SF":13863,"Ġunderneath":13864,"sample":13865,"ĠGraph":13866,"ermal":13867,"ĠSERVICES":13868,"Ġpolarization":13869,"Bytes":13870,"Ġmethylation":13871,"Ġmotions":13872,"Ġwage":13873,"Ġlady":13874,"pntd":13875,"Ġorganisations":13876,"Ġ\\_":13877,"Ġrecombination":13878,"ÃĹÂķÃĹÂ":13879,"Ġ'\\":13880,"Ġimplant":13881,"Ġviewing":13882,"Ġsalary":13883,"ĠAug":13884,"Ġsac":13885,"Ġbold":13886,"ĠLO":13887,"Async":13888,"wp":13889,"Ġpreference":13890,"ifdef":13891,"rust":13892,"Ã±":13893,"shot":13894,"IDS":13895,"Ġdeliberately":13896,"Ġprocessor":13897,"122":13898,"arity":13899,"Ġenhancement":13900,"Ġ136":13901,"Ġcapability":13902,"cod":13903,"ĠRadio":13904,"Ġawkward":13905,"Ġairport":13906,"gb":13907,"Day":13908,"riage":13909,"ĠGM":13910,"Ġaromatic":13911,"Ġsoci":13912,"ĠLink":13913,"Ġamend":13914,"ĠĠĠĠĠĠĠĠĠĠĠĠĠĠĠĠĠĠĠĠĠĠĠĠĠĠĠĠĠĠĠĠĠĠĠĠĠĠĠĠĠĠ":13915,"Ġbodily":13916,"\"};":13917,"ĠCG":13918,"ĠOliver":13919,"nolimits":13920,"icide":13921,"filename":13922,"Ġdating":13923,"ï¿½":13924,"Ġmanaging":13925,"Ġunfair":13926,"è¡¨":13927,"Ġacceptance":13928,"205":13929,"Names":13930,"linux":13931,"ĠINT":13932,"Ġbriefly":13933,"ĠEclipse":13934,"Ġrestore":13935,"eqn":13936,"à¥į":13937,"TX":13938,"omers":13939,"idity":13940,"Ġneutrino":13941,"ĠPoisson":13942,"ĠScale":13943,"ĠUpdate":13944,"ĠNature":13945,"Ġattachment":13946,"\\^[":13947,"Ġcomorbid":13948,"Ġcocaine":13949,"ĠAF":13950,"Ġacknowledged":13951,"Ġmyth":13952,"Ġviolations":13953,"VP":13954,"ĠLess":13955,"Ġholidays":13956,"$_{":13957,"ĠDirac":13958,"Wait":13959,"Ð¾Ð²":13960,"etheless":13961,"Ġpartly":13962,"FFIRMED":13963,"Miss":13964,"Ġcatastroph":13965,",...,":13966,"Ġsurely":13967,"Ġcontention":13968,"adadadadadadadadadadadadadadadad":13969,"Ġcharacterization":13970,"Ġmotif":13971,"Ġoffices":13972,"agreement":13973,"ĠFerguson":13974,"Ġoh":13975,"Ġdietary":13976,"ĠNevada":13977,"ĠConservative":13978,"ĠHug":13979,"acked":13980,"Ġtaxpayers":13981,"DATA":13982,"Ġprotecting":13983,"Ġstere":13984,"Ġmultip":13985,
[...]
