#version: 0.2
Ġ Ġ
Ġ t
Ġ a
i n
h e
r e
o n
ĠĠ ĠĠ
Ġt he
a t
e r
Ġ s
e n
Ġ o
Ġ c
Ġ w
i s
o r
i t
e s
a l
e d
a n
Ġ p
Ġ f
Ġ b
Ġa n
in g
Ġ in
Ġo f
a r
i on
o u
Ġ m
Ġ d
i c
l e
Ġt o
- -
a s
Ġan d
r o
ĠĠĠĠ ĠĠĠĠ
en t
Ġt h
c t
Ġ h
Ġ re
e t
Ġ n
e l
s t
o m
i l
Ġ e
Ġ l
i d
i g
i m
o t
v e
Ġ is
u t
Ġ g
Ġ (
Ġ T
o l
a m
Ġ I
at ion
-- --
s e
â Ģ
c e
l y
Ġf or
= =
u r
Ġ S
Ġb e
o w
Ġth at
Ġ u
ĠĠ Ġ
r a
Ġ on
Ġ A
Ġ C
v er
Ġs t
c h
Ġ 1
u l
it h
i f
a d
a y
Ġc on
Ġw ith
Ġ y
Ġa s
i r
o d
Ġ $
Ġp ro
t er
at e
ĠĠĠĠĠĠĠĠ ĠĠĠĠĠĠĠĠ
u m
Ġ it
Ġ M
a b
Ġw e
he r
0 0
p p
Ġa l
r i
Ġ "
Ġ v
g e
n d
Ġ 2
Ġd e
Ġ P
Ġw h
re s
e ct
q u
o s
m ent
h t
Ġy ou
Ġe x
es t
is t
a c
ĠT he
Ġw as
u s
an t
Ġ B
Ġc om
Ġo r
Ġ \
o p
Ġa re
Ġ he
e m
Ġs u
* *
i v
---- ----
t h
it y
Ġa t
o c
n t
== ==
Ġ F
er s
Ġ =
a in
es s
Ġ H
o re
Ġb y
Ġ D
il l
l d
ro m
Ġ -
an d
Ġ W
u n
Ġ r
Ġn ot
ig ht
en d
i ve
Ġs e
Ġh a
Ġ R
k e
or t
Ġ L
p e
Ġ N
Ġn e
Ġth is
p t
ar t
âĢ Ļ
Ġf rom
u d
Ċ ĠĠĠĠ
re d
i al
{ \
p l
i es
Ġs h
Ċ ĠĠĠ
Ġ G
ct ion
Ġ E
el l
at ed
Ġc h
Ġha ve
in e
ou r
u re
al l
Ġ 0
ou ld
a g
t e
Ġ le
' s
p er
o g
f f
Ġ *
ic al
) .
Ġc an
am e
Ġ O
u st
Ġ 3
u e
r ou
a ge
i b
c l
i z
ic h
as e
ar d
ab le
Ġre s
Ġu s
ou t
Ġ j
om e
i e
Ġw he
Ġa b
a ct
Ġc l
) ;
Ġ {
_ {
. .
o st
Ġcom p
as t
ul t
as s
Ġ U
an s
Ġa d
t her
Ġwe re
Ġcon t
Ġp l
Ġ J
p h
ac k
Ġ k
Ġm e
0 1
= "
id e
at h
. "
Ġ im
Ċ ĠĠĠĠĠĠĠĠ
or m
ig n
T he
Ġal l
Ġ âĢ
u b
Ġ [
Ċ Ġ
it ion
i p
Ġ +
Ġd o
a p
a k
in d
Ġh as
ĊĠĠĠĠ ĠĠĠ
f t
ar y
ic e
en s
Ġ 4
im e
on e
Ġwh ich
ĉ ĉ
c c
d u
ĠI n
ou s
==== ====
Ġa pp
Ġb ut
Ġt r
Ġd is
Ġin t
ent s
res s
ation s
in t
Ġw or
c on
en ce
a re
Ġw ill
r u
e ar
on g
e re
) ,
Ġg o
i le
-------- --------
Ġ &
o k
Ġ 5
/ /
o se
Ġ <
d e
} }
ion s
Ġ en
Ġo ut
b er
an ce
Ġ if
i a
Ġu n
Ġp er
a u
ĠT h
a v
p ort
ĠĠĠĠĠĠĠĠĠĠĠĠĠĠĠĠ ĠĠĠĠĠĠĠĠĠĠĠĠĠĠĠĠ
g h
al ly
s o
el y
x t
or y
Ġon e
a ce
t y
an g
Ġ qu
a ch
Ġh is
or d
i re
Ġe v
Ġthe y
if f
r y
âĢ Ŀ
Â ł
Ġs o
re e
f orm
Ġp art
Ġa r
l ic
Ġm ore
a il
Ġthe ir
y s
or s
Ġu p
c re
Ġ K
Ġthe re
Ġp re
Ġ$ \
Ġs p
a ke
Ġa g
it e
e p
Ġo ther
l l
ĠS t
ver y
ou nd
Ġl i
j ect
v el
c om
n e
} \
ou nt
ow n
Ġs a
Ġyou r
Ċ Ċ
at a
at es
Ġbe en
Ġh ad
r ight
Ġan y
ur n
Ġm an
Ġal so
Ġ }
Ġwh o
Ġn o
k s
er v
w e
Ġ '
Ġ V
Ġw ould
r ic
nd er
et h
Ġ 6
if ic
Ġwhe n
er m
Ġab out
l ow
Ġas s
[ @
Ġo b
} $
p le
Ġt ime
ĠâĢ ľ
\ ]
at er
o ok
^ {
o b
Ġth an
ra c
Ġm y
w o
Ġde f
Ġo ver
< /
Ġex p
ri b
ĠĠĠĠ ĠĠĠ
Ġs c
Ġb et
ro w
Ġ1 9
Ġit s
cl ud
Ġd iff
' t
re f
Ġs ome
f ter
Ġt e
m ath
1 0
le ct
Ġs y
ver s
Ġg en
Ġ _
g et
ol d
od e
c es
Ġsu b
Ġne w
I n
h at
o ve
Ġin ter
i ed
p s
Ġof f
ir st
Ġa m
r ing
pe c
ay s
Ġre c
Ġ Y
re at
Ġf e
Ġa cc
Ġcom m
Ġp at
1 9
c ed
au se
Ġa ct
Ġk n
Ġu nder
Ġo ur
Ġre l
Ġv al
Ġcon s
Ġg et
in k
o v
Ġd es
Ġp e
il d
Ġ 7
at ive
ĊĠĠĠĠĠĠĠĠ ĠĠĠ
Ġint o
le ft
e f
ar i
ing s
is s
ĠI t
Ġon ly
Ġst ud
u al
er t
Ġt wo
Ġm ay
Ġy ear
Ġsa id
m a
â Ķ
Ġbe c
on s
Ġwor k
# #
ul ar
p ro
Ġp os
ie w
Ġin v
1 2
Ġ ro
Ġ her
Ġre g
Ġad d
Ġ 8
ĠC h
Ġu se
un ction
Ġtr ans
Ġthe m
ig h
Ġm od
Ġre t
i an
e x
Ġli ke
ar k
Ġwh at
ĠTh is
he d
ic k
o int
Ġe m
c k
as ed
âĶ Ģ
Ġsu ch
Ġp res
Ġb l
Ġfor m
on d
ol og
at ing
Ġp h
Ġ2 01
Ġe ff
c ess
ĠW e
Ġc o
Ġc ol
Ġdiff ere
Ġf irst
it t
Ġthe se
oc k
i ent
Ġres p
il ity
Ġ 9
ment s
Ġj ust
âĶĢ âĶĢ
st em
on t
el f
Ġpro v
Ġ1 0
o x
is h
Ġa fter
Ċ ĉĉ
Ġwhe re
we en
ot h
Ġd et
Ġs ign
ĊĠĠĠĠ Ġ
1 1
Ġthe n
a w
id ent
s s
Ġne ed
Ġs et
e c
Ġp ol
Ġin d
an ge
ic t
o od
ut ion
Ġh ow
Ġbet ween
t he
op le
Ġcl ass
ub lic
Ġc ould
is e
======== ========
Ġres ult
Ġre m
s p
Ġg rou
iz e
y pe
ol low
ce pt
i x
e g
l es
( )
Ġat t
Ġt ra
i ents
u p
" ,
Ġ ra
ou gh
Ġin clud
Ġsu pp
Ġp r
Ġus ed
i ous
el d
S t
our t
Ġd ata
ib le
Ġn um
2 0
ter n
Ġc ell
c y
Ġs he
b le
Ċ ĉ
Ġsh ow
in al
o y
Ġa c
Ġf act
Ġs ur
Ġ\ [
E R
Ġc or
Ġs im
Ġd id
Ġsh ould
u es
a x
ty pe
Ġkn ow
" >
Ġf ollow
ĠU n
Ġs pec
Ġ end
ĠH e
Ġpe ople
f ig
ul l
Ġf unction
Ġd ist
p os
00 0
r am
it s
d er
. ,
Ġf l
n ing
re n
] (
he n
rou gh
f ore
Ġbec ause
O N
in ed
al s
_ _
Ġre qu
it ed
Ġus ing
i eld
it ies
ad e
ic s
e ver
1 5
ru ct
m s
Ġse e
ra ct
I N
Ċ ĠĠĠĠĠĠĠĠĠĠĠĠĠĠĠĠ
r it
Ġm ost
Ġin f
Ġs m
ect ion
Ġ i
Ġcon st
) {
Ġin st
Ġb ack
) $
1 3
Ġgen er
f ul
Ġ .
ur ing
1 6
Ġw ell
Ġt est
Ġex t
] {
Ġsy stem
du ct
Ġ :
Ġth rough
f rac
u res
ation al
- >
Ġh im
Ġdiffere nt
_ {\
Ġr ight
---------------- ----------------
Ġc ase
t o
Ġe ach
Ġag ain
l i
Ġch ar
Ġret urn
ut e
Ġb u
ow er
m er
at or
1 4
âĢ ī
Ġre f
e w
s c
Ġw ant
Ġpat ients
ĠĠĠĠ Ġ
ĊĠĠĠĠĠĠĠĠ ĠĠĠĠĠĠĠ
ical ly
Ġh igh
iz ed
Ġdo es
Ġeff ect
he s
im es
( \
Ġ ent
) )
in s
Ġ[ @
T h
i o
u ch
con d
p r
Ġst ate
} ,
te xt
rou nd
v al
il y
n ce
Ġm in
er r
Ġin cre
Ġm ake
Ġan al
p ut
.. .
Ġs ame
Ġc ur
o ol
** **
eth od
$ \
ri pt
u c
p ar
v ent
w n
g er
le t
Ġp ar
Ġ2 00
Ġe very
t a
c ent
] ,
Ġev en
ot her
s et
Ġin te
Ġyear s
ain t
a red
E S
or k
Ġd i
Ġm on
Ġf ind
ro l
oc i
c er
as es
1 8
Ġp oint
y m
at ic
Ġt ri
ar ch
u g
Ġc all
ant s
Ġth ose
a pp
Ġ x
Ġm ed
in ce
Ġpart ic
Ġ |
ĠS e
vel op
Ġb oth
Ġw ay
c al
v en
Ġn ow
Ġd on
am ple
Ġ1 2
Ġ very
en se
Ġv ari
Ġ @
ect ed
re ad
Ġm at
re nt
Ġs er
d ition
as on
Ġapp ro
Ġl ong
u nd
ire ct
A T
y l
Ġde c
ĠC om
ag es
Ġ ke
w ard
Ġnum ber
Ġex per
Ġhe re
Ġf ound
l ed
5 0
Ġb el
et a
r m
Ġa ut
Ġbe ing
} {
Ġc ar
Ġl ook
Ġpl ay
t r
Ġl oc
ress ion
Ġbe fore
v ed
y p
" }
in es
o id
al th
o ver
if e
1 7
Ġp ublic
Ġp ers
Ġ el
Ġman y
Ġ Q
Ġ /
Ġval ue
s h
ate g
re st
if ied
iv ely
Ġc ourt
3 0
at ure
ak ing
Ġo p
? "
Ġstud y
' ,
I t
Ġg u
er g
Ġmod el
Ġf il
3 2
Ġre p
u pp
t ing
Ġth ink
a ir
Ġe qu
2 01
Ġre port
p end
Ġ Â
Ġc he
Ġm em
an k
Ġ //
od y
c ul
l ine
" :
]( #
al e
ra y
Ġpres ent
Ġhe l
o f
n g
Ġs ol
Ġ est
ĠF or
as h
Ġg iv
m in
Ġpro g
i red
Ġgo od
v iew
Ġwh ile
ic es
a ve
ĠR e
is m
Ġm ade
Ġdis c
: :
Ġpro cess
. âĢĿ
] \]
form ation
Ġt erm
d ay
ign ed
Ġl ar
n ess
Ġle vel
W e
2 5
g g
Ġde velop
Ġn on
o le
v ing
Ġn ame
Ċ ĊĠĠĠ
en g
Ġst art
Ġsupp ort
is ion
Ġd own
an n
Ġc ount
ĠL et
ab el
Ġs erv
al ity
ain ed
Ġpos s
: //
ĠĠĠĠ ĠĠ
ĠI f
Ġm uch
A R
Ġin s
ĠP ro
id er
am b
ĠâĢ ĵ
Ġre ad
E N
Ġm ethod
ent ial
m on
$ ,
our ce
ph a
ĠA l
Ġth ree
u ally
Ġse cond
$ .
Ġh and
le ment
m ed
re t
Ġor der
b b
Ġcon f
2 4
ction s
Ġwith out
Ġo wn
us s
O R
Ġst r
^ {\
an y
g ht
Ġd uring
p art
Ġgrou p
Ġp ri
st r
Ġl ine
\ [
N A
( -
w ay
S T
, \
am p
ar ly
iz ation
ion al
ĠH ow
id ence
if y
n s
]{ }
Ġan t
ĠA nd
8 0
ĠA s
Ġ\[ [@
Ġ2 0
n er
Ġim port
Ġact iv
ĠĠĠĠĠĠĠĠĠĠĠĠĠĠĠĠĠĠĠĠĠĠĠĠĠĠĠĠĠĠĠĠ ĠĠĠĠĠĠĠĠĠĠĠĠĠĠĠĠĠĠĠĠĠĠĠĠĠĠĠĠĠĠĠĠ
olog y
, "
o ad
Ġsign ific
Ġper form
C R
en cy
( "
ab ility
c ript
ist s
W hat
Ġhel p
ra ph
g an
Ġt ype
âĶĢâĶĢ âĶĢâĶĢ
2 2
t t
ĠB ut
Ġc re
Ġpro per
Ġo per
t on
Ġm et
m b
ir c
Ġpro ble
r on
al pha
um ent
id ed
Ġc le
Ġcell s
r ation
Ġsm all
ul ation
Ġl ast
4 0
n ame
Ġle ad
a h
it al
at her
C T
Ġagain st
Ġp ur
I T
Ġm ust
Ġs ay
Ġ et
Ġl aw
Ġa v
âĢ ľ
act er
m an
a im
Ġt reat
ĠY ou
r al
Ġt ake
r an
it ive
Ġis s
ric t
ys is
i vers
Ġ **
f or
Ġ1 5
e red
d d
L et
l ess
Ġle t
h ip
Ġin c
ĠA n
Ġsignific ant
d a
Ġpers on
3 3
al k
Ġqu est
Ġch ild
Ġst ill
Ġc ou
Ġf in
Ġr un
ou se
ter s
Ġo pt
Ġcont rol
n ot
ur ther
ag n
Ġf am
ch n
Ġs om
in ation
Ġ --
ro ss
Ġe lect
r t
w w
ater ial
Ġl im
Ġex pl
m l
Ġc ent
Ġresult s
o ot
ĠN ew
Ġme as
Ġd irect
] .
pl oy
A L
qu e
ar s
s erv
6 0
i er
Ġin formation
E x
Ġst and
Ġ ident
Ġ z
Ġp ost
o h
2 7
v ious
Ġg l
Ġdet erm
âĢ ĵ
( );
Ġcont in
6 4
A N
y n
e ad
ent ion
Ġd ay
Ġ1 8
e k
2 00
Ġst at
Ġfollow ing
id es
at ch
9 9
le ase
Ġa ff
ord ing
mer ic
i or
ot s
at ely
Th is
Ġall ow
Ġ ed
a j
Ġpro du
w ork
m e
2 3
Ġd el
Ġgo ing
0 5
i ence
âĢ Ķ
de f
er al
res ent
am es
ot e
Ġm ult
Ġre al
â Ī
Ġb re
Ċ ĠĠ
Ġcon dition
Ġ ,
Ġc a
iss ion
c ur
et s
iv ed
u red
Ġwith in
Ġcur rent
) \
Ġpro t
i um
v es
Ġs ince
ur al
2 8
Ġre du
ent ly
P ro
4 5
u le
Ġre ce
am et
} (
Ġme an
is hed
Ġinte rest
l and
Ġc are
b f
I D
, âĢĿ
Ġgo ver
le x
r id
Ġinv est
Ġde v
b e
ak es
Ġst ruct
ver t
Ġre st
Ġhe alth
Ġf ield
C on
a z
Ġ err
Ġ X
Ġwor ld
Ġw r
3 5
Ġadd ition
c rib
Ġl ife
ain s
ã ģ
F ig
math cal
Ġp ass
um p
Ġb as
amb da
Ġresp ect
Ġa round
p i
Ġex ample
ĠT r
ar m
Ġ1 4
Ġcl aim
Ġ$ $\
ch ool
iv es
ĠD e
Ġop en
b ers
Ġm ark
ial ly
00 00
Ġ ve
Ġass oci
ĠS h
g en
Ġan other
are nt
Ġin de
u se
ĠHow ever
S E
Ġar g
Ġ1 6
Ġcomm un
s on
ĠC l
an e
Ã ©
2 6
re l
ht t
Ġinclud ing
Ġar t
Ġim p
Ġh um
3 6
ĠW h
an c
Ġl ow
Ġgiv en
Ġo cc
Ġh ig
it her
= \
Ġmon th
Ġl ist
n ment
e e
rib ut
ar g
2 9
Ġprog ram
Ġp ower
Ġch ang
Ġ Z
' m
re g
ra p
## ##
Ġt em
Ġp ot
Ġg reat
he re
in ess
f ace
3 7
w ays
in ing
Ġad v
Ġto p
Ġtr y
l abel
Ġbe h
ot t
} ^{
s elf
Ġc al
ĠI nd
Ġre ally
ĠN o
Ġ* /
ff ic
Ġm ight
Ġob ject
ĠA meric
y t
Ġanal ysis
Ġc r
Ġs l
Ġc ap
I C
Ġl ess
3 8
Ġhe ad
Ġ< /
ĠP h
( '
ain ing
ur y
) /
eth ing
ab ly
h or
b l
Ġ es
Ġha pp
Y ou
Ġfe w
================ ================
Ġb ased
op y
ang le
Ġto o
Ġpl ace
al se
on se
st and
} _
ĠA pp
Ġs elf
ateg ory
Ġapp lic
R E
Ġ #
ro ll
ar n
Ġimport ant
et y
ir d
ĠThe y
2 1
I ON
Ġind ic
th ing
^ ,
ic ro
Ġch ange
iv id
m u
Ġte chn
Ġev idence
Ġpro duct
Ġs ing
ere nce
Ġob t
se c
3 4
Ġpro b
C h
is ed
Ġb i
Ġte am
t s
Ġf our
v ar
-- -
le g
Ġre se
Ġu nt
Ġm ot
Ġ1 1
Ġsu gg
3 9
]\] .
Ġsugg est
Ġb us
Ġtreat ment
Ġwhe ther
Ġ{ #
s er
Ġg ra
pl es
Ġ3 0
b y
ar get
Ġv is
le ction
pl ic
L E
Ġh ome
el s
os ed
Ġf ile
ou ght
Ġp op
ab l
ĠW hat
el ta
7 0
l u
Ġle g
eng th
ĠThe re
Ġcomm on
Ġf ail
erg y
ĠI s
Ġne xt
f er
u nt
Ġob serv
a ult
Ġw om
m un
er y
Ġdef end
Ġd ri
ĠE x
Ġp ath
il ar
Ċ ĊĠ
Ġpro te
Ġb est
Ġg r
orm al
am ma
Ġlar ge
Ġsom ething
ro p
Ġle ft
Ġp ut
re qu
os s
us ed
a ction
ert ain
Ġdes crib
R e
C l
ĠS o
cc ess
Ġinv ol
Ġbet ter
Ġg row
Ġcon n
s um
âĪ Ĵ
N ame
Ġbel ie
} _{
7 5
Ġproble m
p or
ph i
math bb
Ġpartic ular
Ġab ove
4 4
Ġpro f
Ġrep resent
w are
con t
Ġb o
itt le
' re
Ġtr ue
d iv
Ġto t
Ġim pro
A S
9 0
ĠC on
9 5
Ġcons ider
T o
h ib
Ġf r
is k
Ġre ason
at t
Ġrec ord
C om
Ġas k
ific ation
Ġl a
ĠA ll
$ $
c ol
Ġs it
Ġle ast
Ġposs ible
Ġn et
Ġse em
Ġne ver
Ġe as
vers ion
Ġchar acter
ĠU S
e xt
ĠĠĠĠĠĠĠĠĠĠĠĠĠĠĠĠ ĠĠĠĠĠĠĠĠ
Ġpro ject
: **
en e
E D
ivers ity
us h
ĠP l
in a
R O
Ġw ater
Ġs k
os p
ad d
Ġm ov
I S
c he
Ġquest ion
re am
**** ****
ĠUn ited
Ġpos ition
ĠSt ate
at s
H e
olog ical
Ġ ==
al igned
Ġh ist
Ġt urn
aj or
Ġd ue
Ġv iew
Ġp ay
ne w
Ġexp ression
Ġoff ic
Ġin it
op e
E T
} ^
ĠâĢ Ķ
ivid ual
A s
Ġem ploy
Ġtri al
] ;
Ġav ail
h o
i k
m at
eg in
Ġs pe
Ġd ays
Ġo pp
ĠT o
Ġg ive
Ġs ize
Ġse ver
I f
res p
in c
ĠO n
Ġ %
A C
y d
Ġcom e
Ġc ost
Ġl ight
Ġ ide
Ġs um
Ġf ree
Ġ {\
Ġc ode
Ġ2 5
Ġt yp
our s
n al
4 8
ir on
Ġunt il
Ġd en
Ġth ings
b s
Ġgover nment
Ġloc al
Ġb en
Ġ1 7
Ġha ving
Ġb ig
pl ay
- \
i od
Ġc ases
end s
Ġpro m
Ġg ot
Ġ )
en c
Ġsim ilar
Ġf urther
ep s
Ġl ittle
Ġpot ential
ar row
ĊĠĠĠĠĠĠĠĠ Ġ
d ata
Ġsh own
Ġdis e
us ion
u ck
ap s
Ġd er
ig ma
b egin
ack age
Ġp red
or g
__ __
or n
.. ..
et ic
Ġj ud
Ġpre vious
ill ion
ĠSt ates
Ġel se
ri es
Ġhum an
end ed
Ġind ividual
Ġph ys
Ġv ol
our se
rou p
H E
Ġbu ild
T ype
ic le
an ces
as k
c o
Ġe ither
Ġch o
Ġal ways
ĠA d
č Ċ
id th
ab les
Ġprov ide
6 6
Ġfam ily
Ġp a
Ġ1 3
ĠR es
Ġgener al
Ġsu per
ne y
Ġhig her
oc ument
it or
Ġg re
Ġor gan
}$ $
I d
Ġwe ek
ĠThe se
Ġsp ace
er ing
9 8
ĊĠĠĠĠĠĠĠĠĠĠĠĠĠĠĠĠ ĠĠĠ
Ġm aterial
Ġcom b
Ġg ame
op t
one y
C ont
Ġkn own
Ġspec ific
Ġo ld
Ġcall ed
th ough
Ġr ate
Ġpri v
ĠS he
u ro
ct or
F or
Ġfe el
u ff
) :
Ġm ain
Ġm ajor
b eta
le v
l ambda
Ġavail able
B ut
b ack
ĠL e
op er
c d
Ġh ard
ĠC ol
Ġb ro
Ċĉĉ ĉ
a ut
6 8
Ġra d
> </
Ġ !
ĠC ourt
ar ing
im al
\ _
is on
U L
ra in
Ġsing le
0 4
e y
Ġ2 4
Ġstand ard
Ġs w
Ġwor d
Ġh old
ent al
Ġs chool
9 7
Ġtot al
Ġor ig
read y
e q
o or
Ġt re
m od
6 7
pt ion
aint iff
Ġval ues
itt ed
C ategory
Ġab le
{ {\
Ġen ergy
Ġm ass
t en
Ġchild ren
Ġc irc
Ġpl an
os is
Ġstud ies
at ors
Ġme ans
A n
Ġli k
Ġassoci ated
Ġsever al
Ġ >
Ġab s
ra w
ess age
Ġunder stand
b ar
ip le
Ġinvest ig
Ġf ac
pp ed
ĠS p
Ġbus iness
Ġare a
Ġne g
g ment
i ol
ra d
em ber
Ġd iv
ĠTh at
as ing
th is
Ġs ide
m m
ĠC al
} )
Ġm ove
6 5
ress ed
Ġa ction
Ġapp ear
Ġf ull
Ġre view
Ġse qu
Ġc rit
Ġl ater
Ġ id
Ġpar amet
l er
ĠS c
m it
A P
im port
T r
ut es
lect ed
Ġwh y
en ces
id d
ust om
con om
f o
_ \
er n
upp ose
Ġt imes
Ġde pend
oc ial
A M
Ġs ens
u ed
Ġper iod
Ġb ody
Ġreport ed
g o
A nd
t d
ib ility
rac k
c le
y stem
ore d
Ġa ge
Ġgrou ps
Ġd om
it ing
8 8
Ġsh ort
Ċ ĊĠĠĠĠĠĠĠ
il de
it le
ac y
s q
am ples
ĠA r
ĠA t
um e
ru g
p ri
Ġf ar
I I
Ġt arget
f l
Ġl ot
ens ion
is ing
ur s
Ġw ar
ĠUn iversity
ou n
Ġex ist
Ġacc ess
clud e
cept ion
Ġerr or
e b
Ġal ready
Ġdisc uss
Ġ1 00
cl ass
3 1
a f
Ġam ount
st it
v iron
Ġke ep
> <
U T
if t
iv ity
Ġ= >
ĠW hen
l ing
al f
St ring
am s
^{ -
O D
ind ow
Ċĉĉ ĉĉ
Ġrequ ired
Ġresp onse
Ġam ong
e qu
Ġpr im
Ġf inal
Ġs ent
rib ution
p one
Ġc ertain
Ġd one
Ġstr ong
op h
Ġc ourse
Ġlevel s
g ed
A D
Ġp ract
n ces
6 9
Ġcomp ared
Ġte xt
Ġterm s
Ġl ower
Ġdid n
ver se
I s
pos ed
R es
ak en
ou th
' ve
ver age
em pt
Ġr isk
Ġke y
4 7
og raph
% )
~ ~
A G
5 5
.. /
Ġsu re
i que
Ġsu ccess
Ġal ong
u ation
Ġsub ject
ĊĠĠĠĠ ĠĠ
Ġrequ ire
Ġ5 0
Ġper cent
! "
ch an
om et
a pe
Ġiss ue
or ies
y le
t able
m ission
ic y
Ġp ress
Ġexper im
end ing
s ide
ã ĥ
Ġdevelop ment
Ġof ten
ol ution
Ġactiv ity
re ct
iv ing
Ġ$ {\
er c
ã Ĥ
Ġp ort
U S
ay er
Ġhow ever
r ist
iv al
Ġdes ign
Ġcomp on
Ġpol it
1 00
Ġincre ased
ĠĠĠĠĠĠĠĠ ĠĠĠ
Ġcont ent
pl ace
u it
Ġde cl
o res
s ub
ĠC o
s igma
le te
m and
Ġf ore
} {\
Ġag ree
Ġs al
Ġt um
Ġrel ations
Ġf und
Ġacc ount
il on
ĠB l
A l
s w
Ġk ind
htt p
Ġpartic ip
Ġth ought
Ġf ri
Ġs ays
Ġrese arch
W h
ri x
Ġj ob
Ġen g
Ġev ent
Ġwom en
Ġacc ording
at ory
Ġben ef
Ġdise ase
i ation
Ġm en
og n
Ġro le
Ġche ck
Ġne cess
Ġest im
8 5
Ġm aking
Ġdefend ant
Ġm icro
Ġwork ing
cript ion
Ġincre ase
Ġmonth s
Ġev al
7 7
Ġa way
Ġaut hor
Ġm il
is ter
id s
Ġcl in
g es
ar c
med i
Ġcan cer
b ig
Ġbec ome
Ġchang es
viron ment
Ġs at
or th
-------------------------------- --------------------------------
ret urn
ib r
9 6
Ġfact ors
Ġl o
a i
st ring
Ġf ood
V iew
' ll
ĠI N
Ġqu ant
Ġinclud e
Ġcan not
Ġprov ided
Ġto ld
}} \
Ġr ange
Ġth ing
L ist
Ġresp ons
A pp
g round
9 4
ub l
I M
t est
Ġcomp ut
âĶĢâĶĢâĶĢâĶĢ âĶĢâĶĢâĶĢâĶĢ
pp er
Ġn ormal
Ġb ase
ĠO r
0 8
O T
cre t
g in
Ġ `
ht ml
as ter
d ate
Ġeffect s
get her
U R
Ġto gether
se qu
ĠC an
our ces
av a
ĠM ed
ut ure
ke y
ĠI nt
Ġcomp let
Ġup on
le y
Ġt ell
I G
Ġst ring
Ġobserv ed
ĠG en
ist ic
ang u
Ġdet ail
Ġen ough
min ist
Ġse en
um ber
Ġen c
H ow
O n
resp ond
Ġserv ice
Ġcon duct
Ġs ection
Ġcal cul
ac es
C ol
ro du
Ġdoes n
Ġth ird
ĠâĢ ĺ
in ary
Ġreg ard
V al
Ġproper ty
O M
Ġl og
Ġmeas ure
Ġpos itive
Ġcondition s
ic ense
un g
Ġcomp lex
ru ction
g amma
Ġ Î
en n
m ost
Ġf oc
Ġh tt
p re
ess ion
" )
Ġm or
Ġth ough
Ġin j
i ans
ac he
m p
ict ion
0 2
Ġde cre
part ial
at ures
IN G
on y
Ġus er
Ġme chan
O b
le q
e al
) *
Ġse par
i j
Ġt ax
t ies
en ing
Ġan n
] ).
Ġ( [@
Ġcount ry
Ġd ou
Ġl ove
Ġprote in
Ġest abl
ir m
Ġt alk
Ġm om
Ġpri or
Ġinte g
ort un
. )
p ect
Ġm us
x i
Ġsur face
Ġd rug
Ġv iol
Ġde ath
Ġperform ed
w h
0 7
âĢ ¦
Ġb ook
t ime
Ġe p
Ġstruct ure
Ġm oney
g a
f ile
ab or
Ġex c
0 9
uc le
f e
m ber
Ġp ast
Ġe conom
Ġc ut
ww w
A B
N o
Ġcre ate
Ġcle ar
Ġr ather
en ed
Ġc ult
ĠSe e
Ġdo ing
ĠĠĠĠĠĠĠĠ Ġ
Ġdef ined
ix ed
C L
Ġv ir
ur ation
sp an
Ġpoint s
x im
Ġdescrib ed
c ular
ĠA N
Ġb it
Ġf requ
ord er
Ġse ason
Ġim age
Ġlim it
5 7
Ġcon cer
o ff
Ġe arly
O P
u f
Ġbeh av
Ġph ot
Ġrequ est
sq rt
Ġp an
se e
Ġde g
Ġde b
Ġfl u
Ġs cre
he ad
ffic ient
+ \
in ter
ro id
Ġde mon
om s
The re
Ġpat ient
Ġtem per
ound s
r im
com p
Ġcomp any
un c
S h
re m
ĠM ay
im um
Ġass ess
Ġl and
Ġshow ed
ap an
b o
Ġn ull
Ġac ross
Ġspec ial
ul es
S o
Ġac cept
Ġmem bers
ce ed
Ġ q
A r
I L
Ġ( [
Ġ& &
con st
Ġ version
Ġwe ight
Ġm ax
O S
y ear
Ġobt ained
Ġpriv ate
Ġappro ach
Ġme et
osp ital
ic ult
ide red
it er
Ġ$ (
ĠAmeric an
a ff
8 4
Ġact ually
Ġcor respond
Ġf ive
C C
p m
Ġe le
Ġf alse
on es
Ġp ick
Ġv ar
b ox
l im
ĠC ent
Ġother s
Ġwho le
et ition
os ure
Ġbel ow
ĠP at
Ġa ir
Ġv oid
O L
Ġcons idered
ud e
op s
um n
ĠO b
ri ed
ĠF ig
r ho
0 3
P E
Ġm ar
^ \
Ġm akes
og en
Ġbl ood
ens ity
Ġvari ous
Ġs ource
Ġbre ak
a it
Ġrel ated
Ġshow s
Ġon ce
Ġst ates
in o
c ode
Ġlik ely
Ġc y
ĠA ss
on al
Ċ ĠĠĠĠĠĠĠĠĠĠĠĠĠĠĠĠĠĠĠĠĠĠĠĠĠĠĠĠĠĠĠĠ
Ġs ocial
00 3
Ġrespect ively
Ġmult iple
Ġinclud ed
Ġadd ed
e v
Ġb ar
Ġmat ter
er o
res h
ob al
l oad
Ġd am
Ġ ver
Ġc ard
it ch
Ġso ft
Ġsol ution
l og
Ġocc ur
"} ).
Ġf uture
n u
Ġex am
Ġcon cent
) (
Ġdemon str
Ġmark et
4 2
m y
Ġde al
Ġexper ience
Ġt aken
a pt
p ly
ĠJ oh
Ġsignificant ly
Ġapplic ation
Ġe ar
val ue
and om
ĠC ar
ĠO F
ra ft
Ġfact or
Ġm illion
Ġ Ċ
4 9
l or
EN T
angu age
8 7
ch ie
ĠB e
he l
n et
Ġdef in
8 6
ĠO ne
l t
00 1
Ġm aint
Ġrelations hip
ill ed
Ġrece ived
Ġdiff icult
ĠÂ §
Ġsign al
Ġmin utes
Ġsystem s
Ġant i
Ġnet work
Ġse x
Ġser ies
/ *
at ter
Ġs us
Ġto ok
r r
the ta
Ġs ite
' )
' d
od es
Ġh ours
U n
rap y
Fig ure
Ġy et
Ġcons ist
ĠE n
Ġw rit
Ġe ver
p ackage
ĠW ith
Ġpl aintiff
Ġinde pend
S S
led ge
l ation
Ġc ame
ple ment
tern al
pp ing
Ġsp ect
end er
s l
ĠM r
Ġdev ice
Ġw on
t au
Ġcommun ity
Ġh ouse
Ġl oss
n o
Ġc ause
" );
Ġbelie ve
Ġdec ision
ĠJ apan
Ġit em
C H
h ing
ft y
math bf
Ġh ref
u ild
ag er
b all
ut il
Ġdi agn
Ġadd ress
Ġh alf
p ose
ĠT e
Ġf ra
Ġr at
w here
ĠA fter
P h
Ġp arent
Ġh om
Ġbl ock
ol ve
d elta
av or
T R
oc al
Ġimpro ve
Ġc amp
Ġ2 1
Ġreg ion
ĠThe n
/ >
) }
Ġim mun
D ata
Ġn ight
and s
b ody
Ġf low
Ġc ustom
ag ed
Ġm agn
8 3
I m
Ġl ink
4 6
n ow
o ber
ip s
t imes
r angle
Ġin du
com m
s ize
ul ated
Ġb ound
is es
es e
Ġd at
Ġcont ract
Ġany thing
in fty
Ġto ward
Ġ2 7
8 9
-------- ----
id ing
Ġm ind
d is
Ġhist ory
S e
Ġmethod s
m ary
i i
ag ing
Ġsim ple
Ġ( *
Ġask ed
D E
Ġgrou nd
Ġatt ack
ĠM ore
ac hed
Ġd im
Ġserv ices
b it
ĠM ar
Ġaddition al
Ġthere fore
pos ition
Ġch all
ĠG od
iz ing
ĠA ct
Ġapp l
Ġt able
m itted
i res
Ġin hib
ly ing
\ \
or ld
Ġe y
ĠD ef
w ise
Ġdiffere nce
Ġto day
ens ive
tr ans
Ġent ire
ĠD ep
Ġpred ict
ĠTh us
l am
Ġn at
Ġa chie
re ed
ect or
rib ute
ĠÂ ±
Ġtry ing
Ġcl ose
Ġen vironment
Ġth us
Ġneed ed
Ġexp ect
// //
Ġv ide
ĠR ep
^ *
ĠĠĠĠĠĠĠĠ ĠĠ
st ate
com es
ĠCh rist
Ġm i
Ġcom pl
b ol
n a
age ment
at us
b r
f ra
am a
f ield
Ġs ix
Ġv ia
ex p
U N
Ġclin ical
def ine
ac ed
Ġre d
Ġgen e
Ġpa per
os c
Ġl ength
Ġpat tern
Ġ( -
Ġcont act
Ġad minist
Âł Âł
Ġneed s
Ġad j
c ing
il es
Ġcor rect
ĠC ity
itt ing
9 3
0 6
yd ro
al es
un e
Ġ( \[
ed eral
Ġan g
K ey
Ġ ^
Ġqu ality
at ively
Ġinvol ved
Ġ â
i ke
Ġd ig
Ġh y
u ly
Ġass um
Ġpre vent
Ġb ring
Ġe lement
Ġstud ents
9 2
Ġrem ov
m iss
Ġ ill
Ġpart y
Ġc ross
ve c
il ities
ĠM c
pec ially
4 1
ist ance
Ġeval u
Ġm iss
], [@
S et
is f
Ġmodel s
] )
Ġpro ced
Ġne ar
5 6
math rm
Ġinf lu
Ġf ace
Ġpop ulation
b ased
ĠM y
E L
Ġperform ance
c hed
Ġw ent
| \
Ġm ut
c ome
y z
i ver
ie f
Ġsub st
ic ation
Ġmot ion
Ġatt empt
Ġf ib
Ġhe ld
Ġget ting
Ġrec ent
ind ing
Ġint rodu
ome ga
Ġqu e
Ġexp ected
Ġgrow th
Ġder iv
art ment
4 3
ol l
Ġ2 6
Ġ4 0
Ġcomp ar
I V
uro pe
I R
right arrow
Ġex ec
Ġpol ice
Ġeff ic
Ġpol icy
Ġlook ing
Ġan sw
us ing
m ore
Ġiss ues
he m
c hes
Ġcor rel
Ġfunction s
itt en
Ġtemper ature
Ġw in
Ġproble ms
Ġright s
\] )
* ,
b ib
Ġmed ia
Ġ ...
Ġcom es
Ġ\ \
9 1
ĠI m
Ġal most
old s
Ġinit ial
Ġro om
Ġnot hing
yn am
Ġb r
il t
u k
t ilde
Ġ2 8
Ġ ur
ol s
Ġc ity
ĠS te
Ġide a
ist ics
M S
us es
ill s
Ġbe gin
pl it
Ġdist ribution
Ġseem s
g est
T hat
s el
ĠM in
Ġim plement
ect ions
W hen
Ġ Ã
Ġ2 2
ĠC D
Ġed uc
ĠC ount
Ġin put
ic on
Ġem b
w idth
ĠE ng
cd ot
Ġt w
Ġst ory
ĠN ot
Ġprov ides
Ġ$ $
u ous
D elta
R NA
Ġass ert
d es
Ġd r
Ġhe art
l ist
Ġwor ks
Ġp ubl
ĠB y
Ġh ost
ir l
Ġcol l
Ġinst ead
T able
Ġde p
Ġt aking
Ġsim ply
o es
ps i
Ġche m
Ob ject
+ +
Â ±
Ġse arch
an ced
Ġprodu ction
W ith
G et
Ġdis play
ĊĊ Ċ
an ks
Ġ Ð
ĠTr ump
ĠJ an
s im
f unction
r c
ĠT HE
Ġrec ogn
Ġbl ack
Ã ³
Ġthe ory
p o
am ent
Ġnecess ary
P S
ĠP res
il i
ect ive
Ġimp act
og le
Ġincre asing
" ;
um ents
b ook
ĠĠĠĠĠĠĠĠ ĠĠĠĠĠĠĠ
F L
ĠC ont
cc ording
Ġev ents
Ġind ust
Ġsome one
\ *
Ġst ep
Ġmom ent
Ġstart ed
A ll
it ary
g l
c m
Ġp age
om a
ĠA m
e ks
Ġword s
ĠC or
p oint
ĠN ational
Ġf all
re c
Ġcol or
Ġd ire
Ġt iss
htt ps
Ġa verage
ĠP ol
B y
Ġdist rict
Ġval id
Ġstr ateg
Ġl oad
Ġs amples
5 9
ribut ed
Ġre ve
C D
Ġpre t
7 4
b or
Ġex act
Ġal leg
ref ore
Ġp ain
Ġorig inal
cl usion
Ġm ole
Ġ2 3
Ġle arn
y ing
5 8
s y
in clude
b ut
ch ar
Ġn ucle
Ġ! =
ĠM an
Ġbas is
Ġproduct s
w ith
Ġcl os
Ġl ines
Ġ} ,
g ing
ĊĠĠĠĠĠĠĠĠĠĠĠĠĠĠĠĠ ĠĠĠĠĠĠĠ
l ight
Ġf oot
Ġf ig
Ġeff ort
ast ic
ut ions
Ġpresent ed
Ġfollow s
) );
Ġparamet ers
Ġ ess
Ġc red
eth yl
! [
st er
Ġproper ties
Ġphys ical
ut h
Ġs ample
Ġb ad
ĠB o
7 6
Ġdeterm ined
in ally
Ġappro xim
P C
ol es
Ġqu ick
}$ ,
Ġdeterm ine
Ġprob ably
ĠF r
Ġl ack
Ġp ack
Ġst atic
d own
Ġc ry
li ke
ĠIn c
E n
M y
Ġl ive
Ġsh all
I nt
Ġmed ical
Ġinde x
m et
Ġeffect ive
ec ause
a ctions
ron ic
sel ves
Ġm ap
Ġtum or
Ġcomp lete
Ġoffic ial
Ġd ate
Ġsur v
Ġpolit ical
Ġform er
Ġcon fig
ar ily
Ġnew s
$ -
m pt
Ġperson al
er ation
Ġpres ence
d om
s u
}$ .
Ġfor ce
Ġident ified
Ġcon v
row n
oc r
ove red
Ġu nd
A t
I nd
Ġgen es
Ġ âĪĴ
S D
ad a
Val ue
t op
ĠIn tern
Ġpr int
el t
Ġsat isf
P I
Ġits elf
Ġes pecially
Ġpress ure
Ġout side
Ġjud gment
ful ly
} =
6 2
i qu
Ġfil m
w ord
ĠE urope
6 3
Ġd ocument
Ġr andom
A d
o o
Ġl anguage
Ġph ase
F F
Ġext ra
in ks
Ġyou ng
cur ity
5 4
cul ate
ol ic
ĠY ork
Ġcon text
Ġs il
Ġlong er
Ġfr ont
ens ure
Ġo x
f ect
at al
8 2
} ^{\
Ġc opy
Ġconst ant
um b
Ġtyp es
E M
use package
un ch
ĠA g
err or
ĠP r
Ġstate ment
her s
ĠĠĠĠĠĠĠĠ ĠĠĠĠ
7 2
ĠSt ring
Ġevery thing
Ġpol y
et er
Ġs ense
Ġh yp
an a
Ġd est
ĠP ar
Ġele ments
7 9
Ġsequ ence
M od
ard s
p at
5 3
Ġwr ong
Ġstat us
am ed
ul ations
) =
Ġcons um
******** ********
p x
Ġtrans fer
eps ilon
ult s
E d
]{ },
r ast
P A
č ĊĠĠĠ
Ġre comm
de v
Ġrem ain
Ġrun ning
idd le
Ġresp ond
g roup
Ġout put
it es
r s
Ã ¡
Ġprim ary
F ile
Ġconst it
Ġs em
r ange
al ed
P l
n on
Ã Ń
Ġcre ated
mb ox
Ġac id
p ath
" />
ul a
Ġ201 2
7 8
it ation
ĠI I
ĠM e
var phi
eg a
Ġn ode
ear ch
m ail
ĠCom p
Ġar ray
ĠĠĠĠĠĠĠĠ ĠĠĠĠĠ
Ġst ri
Ġqu ite
Ġtra ining
Ġfe atures
Ġmem ber
5 2
Ġf un
Ġw alk
Ġp ie
anc ial
Ġinst all
Ġo il
Ġv s
5 1
Ġeas y
Ġare as
Ġn ational
Ġins ide
ĠP art
Ġknow ledge
Ġp le
qu ad
Ġr ates
au gh
Ġse lect
erv ice
Ġwe eks
Ġv ac
D is
ul ly
ms g
Ġpre c
ro s
o ke
par am
Ġquest ions
ĠThe refore
ef ore
T S
or ph
Ġc reat
ĠS uppose
"> <
ann el
ĠL icense
Ġcontin ue
os ition
ĊĠĠĠĠĠĠĠĠ ĠĠĠĠĠ
Ġg as
Ġre lease
ell ant
Ġm is
T ext
ĠQ u
Ġf em
Ġpr inc
r ant
P s
pr int
Ġve ctor
Ġhtt p
Ġopp ortun
ĠG e
Ġclaim s
le ge
as ons
ĠG erm
Ġwant ed
u x
N ot
Ġcont roll
ar ning
is ions
ĠO ur
us er
Ġnat ural
h ood
Ġdirect ly
unt u
ch i
( $
7 3
ers on
Ġag o
ĠPh ys
P ar
li er
Ġ201 3
ĠPres ident
st ruct
Ġf avor
Ġlim ited
f rom
ve re
ĉĉ ĉĉ
C A
Ġm ach
Ġcont ain
p ublic
Ġis n
7 1
Ġ/ >
l ink
pl ate
Ġav oid
Ġst ay
os ph
Ġab ility
ĠF urther
at ives
ĠĠĠĠĠĠĠĠĠĠĠĠĠĠĠĠĠĠĠĠĠĠĠĠĠĠĠĠĠĠĠĠĠĠĠĠĠĠĠĠĠĠĠĠĠĠĠĠĠĠĠĠĠĠĠĠĠĠĠĠĠĠĠĠ ĠĠĠĠĠĠĠĠĠĠĠĠĠĠĠĠĠĠĠĠĠĠĠĠĠĠĠĠĠĠĠĠĠĠĠĠĠĠĠĠĠĠĠĠĠĠĠĠĠĠĠĠĠĠĠĠĠĠĠĠĠĠĠĠ
pr ime
Ġindepend ent
h a
ĠJoh n
Ġnum bers
Ġl ayer
N S
rr or
Ġst op
Ġredu ced
Ġart icle
Ġdevelop ed
l angle
Ġvide o
he t
cl us
l o
../ ../
av ing
Ġ ?
ĠS im
( (
Ġc ook
Ġpre p
i et
Ġappl ied
8 1
k n
Ġagree ment
en ced
Ġfr ame
p ite
ĠS outh
Ġex cept
ag ue
Ġop in
Ġv ict
Ġim medi
Ġneg ative
ar ray
or ks
f r
per ty
Ġprevious ly
O C
Ġacc ur
sc ript
b ra
Ġgre ater
Ġwh ite
ac hes
Ġr ule
ell ing
Ġfor ward
n ed
ic les
Ġinclud es
Ġset t
Ġobt ain
.. ."
ĠD ist
ĠR uss
S uppose
ere nces
ĠA dd
____ ____
ach ing
E X
p en
Ġ ;
oc ation
Ġsh are
ro ph
ore m
Ġexp ress
Ġappro pri
ï ¼
ĠG u
Ġbehav ior
Ġst ra
ym bol
Ġh ot
R ef
b t
Ġf ire
Ġim pl
Ġre place
Ð ¾
iv en
Ġref er
c ount
M L
im ate
Ġbeh ind
Ġm ention
ĠH ere
Ġsu ff
d en
ri al
l ig
Ġacc om
row s
Ġinst ance
ott om
j s
ag s
p ret
Ġwr itten
u ary
} (\
G F
Ġdef ault
w ide
Ġal tern
n ers
Ġmem ory
port s
Ġ2 9
er a
ĠW orld
Ġm ice
Ġp air
ish ing
Ġg ames
v oid
ĠD em
Ġ ir
lement ary
Ġb all
Ġcomp et
)$ .
Ġ );
Ġg e
ĠJ ust
Ġcompon ent
ĠS ystem
Ġcou n
ur ch
Q u
Ġfind ings
\ <
6 1
l ib
Â °
ĠD o
Ġgener ally
Ġa p
Ġ6 0
Ġl ost
Ġfollow ed
Ġgr ant
Ġt itle
Ġsa f
Ġapp eal
Ġun it
Ġus ually
Ġtre ated
e es
Ġa im
ĠH is
Ġpres ident
ri ef
Ġref erence
oc ol
om y
Ġse curity
I P
Ġmat rix
n b
Ġre pe
Ġcorrespond ing
ĠN orth
Ġinter n
Ġ3 2
Ġre v
ĠS ince
it em
Ġpur pose
in ate
ro te
Ġb ur
Ġet c
ĠD is
Ġcomp an
IN T
Ġgl obal
r ated
ĠCount y
Ġparticular ly
Ġj o
ter m
ĠP er
ĠA f
Ġ[ **
m ega
s m
ĠĠĠĠĠĠĠĠ ĠĠĠĠĠĠ
Ġ[ *
Ġplay ers
ru it
en er
Ġsoft ware
b re
dition al
ĠS T
Ġcom ing
Ġdiffere nces
ĠS m
================================ ================================
in ated
Ġinv ention
Ġst e
čĊ č
av es
Ġaut om
ash ing
A dd
it ness
er ve
ĠCh ina
Ġnot e
Ġbuild ing
ab ase
" .
ĠWh ile
Ġansw er
g or
lev ant
Ġderiv ative
ur b
O r
s k
Ġact ive
M A
vent ion
ru pt
ĠI d
he st
p an
ĠD es
a ign
S he
ot ic
Ġon line
ĠD r
Ġc and
s ing
ĠG o
Ġreg ular
Ġ201 4
C ON
[ '
l in
es tern
Ġm essage
ist ry
( ).
ĠR eg
Ġmat ch
ma x
ĠH ar
Ġcle an
is ms
Ġres id
Ġfail ed
ger y
Ġoff ice
r is
se mb
Ġwh ose
el ine
ns el
ĠM arch
Ġconst ruct
ĠF irst
Ġwr ite
ĠB ar
Ġpro posed
Ġthe rapy
Ġhe at
Ġl ate
d f
Ġc e
Ġst yle
m ar
Ġsa w
Ġfri end
Ġle ave
D ef
Ġd ynam
Ġcost s
Ġpur ch
Ġal though
or ney
Ġanal yz
ill ing
Ġarg ument
ob ile
Ġess ential
ĠP e
Ġchar ge
Ġpract ice
Ġsit uation
Ġsay ing
Ġcount ries
Ġoff er
Ġt akes
Ġf at
O W
Ġrel ative
Ġleg al
pr il
ĠO R
ĠH ouse
ĠD NA
Cl ass
L e
UL L
Ð µ
Ġsy mpt
âĢ Ĳ
Ġw all
ill i
Ġrec ently
ĠGen eral
Ġde ep
} _{\
e ed
l ock
r ate
ra z
Ġsu fficient
P ath
ĠP a
Ġco ver
B C
ĠDep artment
ĠS ome
Ġdou ble
f il
âĢ ¢
ch ange
Ġaff ect
d o
Ġg irl
Ġs low
r ite
j oy
Ġw a
s ource
w id
Ġg raph
Ġv ot
Ġd ensity
Ġcompon ents
ve y
O mega
Ġgiv es
| |
s pec
Ġcent er
Ġh ospital
ĠD av
ir th
Ġ201 6
Ġser ious
Ġst age
our nal
fra k
Ġn ature
Ġpr ime
ĠAmeric a
ĠI S
Ġspec ies
' ;
gor ith
iv il
Ġident ify
re et
Ġ-- >
Ġen h
Ġ3 1
ig en
Ġtri ed
Ġp hen
\] .
Ġor g
Ġve h
Ġdeg ree
id a
Ġany one
ren g
d b
Ġback ground
Ġprom ot
ch o
Ġim ages
Ð °
Ġevery one
Ġfe ed
it ter
Ġre cept
ĠO ct
Ġ201 5
m ap
Ġw atch
Ġp ict
D e
Ġre le
yt es
Ġj ury
Ġl iving
Ġun ique
Ġcomm it
^ [@
g ra
Ġline ar
O ne
Ġro t
u el
ul ate
B S
T H
Ġh ar
Ġwe bs
}} $
ou d
Ġl es
Ġne igh
Ġsu it
Ġh ope
an o
ĠA ust
act ive
Ġuse ful
Ġindividual s
Ġ/ *
Ġbro ad
ĠC ir
Ġlar ger
Ġpret ty
) -
Ġse lected
or age
Ġper fect
Ġopt ion
b on
Ġdire ction
l a
Ġsc ale
Ġcho ice
er ate
Ġf ederal
ang er
Ġcap ac
ay out
c ell
Ġ vers
iz es
Ġ ri
ĠA ug
ĠJ une
C E
Ġw ays
Ġh ydro
Ġmeas ured
Ġ// /
uf act
Ġs qu
Ġdes igned
P L
C al
re me
Ġoper ation
T ime
\ '
Ġallow ed
A A
Ġpro ceed
T est
] ^
oc ks
č ĊĠ
ren ce
ĠS u
ir ing
as is
Ġhigh ly
ĠAl though
Ġthem selves
Ġexper i
i ated
Ġpart ies
ĠW ar
Ġde mand
It em
te e
math frak
Ġspe ed
Ġdetail s
Ġrest rict
Ġdefin ition
st e
Ġp o
oci ety
Ġprof ess
% %
enc ies
Ġor d
Ġpubl ished
Ġcompan ies
h and
Ġp oor
Ġan im
Ġfoc us
ĠS en
Ġbec ame
Ġsubst ant
ar ies
L ambda
Ġfail ure
p y
ail y
Ġf ixed
ĠN ow
an cy
Ġgo al
Ġ201 0
it is
Ġis ol
Ġb ox
at form
op ic
Ġsc ore
l ength
Ġcom ment
O f
O ver
Ġcomm and
ir med
c ap
in fo
Ġm other
ur ance
I F
Ġex erc
ens es
Com p
Ġhy per
b i
ind ex
d im
ap ter
Ġhe av
if ically
kn own
)$ ,
Ġant ib
ou ch
Ġ: =
c ast
n ode
Ġ201 1
ä ¸
Ġb ank
s upp
Ġh or
Ġl iter
St ate
Ġpr ice
h aps
Ġvis it
ĠC ons
Ġst ress
Ġexp ressed
Ġs le
Ġr ound
ĠE d
Ġcent ral
## #
Ġtechn ology
Ġs ort
ab led
Ġnot ice
Ġwom an
' );
Ġcurrent ly
} .
Ġsc he
Ġlead ing
in ity
S im
^ +
os ing
g ar
v is
ub e
Ġ3 5
ĠA M
ograph y
Ġde m
Ġtrans ition
Ġf ast
ĠHe alth
Ġequ ation
ic a
Ġequ al
Ġcamp aign
D es
c irc
Ġcirc um
w ed
se ction
Ġl ed
Ġopt ions
b ase
ĠAN D
ĠM ich
Ġtiss ue
Ġw indow
Ġf ight
ĠS er
Ġeas ily
() );
Ġca used
z e
os ite
Ġem erg
ĠJan uary
Ġover all
Ġd raw
Ġso on
Ġfin ancial
ĠSt ud
Ġrat io
Ġ\ <
Ġinj ury
il s
th at
com ing
Ġg ave
Ġsy nt
hes is
ĠF eb
Ġmean ing
Ġappropri ate
u ge
ĠA pril
ous ly
i us
Ġman agement
Ġelect ro
Ġpro of
S c
Ġhim self
u i
Ġfil ed
ĠRep ublic
Ġconn ection
rou ght
ES T
ĠL a
Ġrequ ires
ĠG l
Ġb al
h old
ĠN one
C P
Ġt en
m ark
Ġp ull
Ex ception
ĠJ es
Ġth reat
Ġindust ry
Ġaut h
Ġcomplet ely
Ġl abel
b and
Ġallow s
rid ge
Ġb rain
Ġa w
or ing
Ġf air
Ġparamet er
ce mber
nb sp
ĠS ch
âĢ ĥ
Ġst reng
ĠJ uly
Ġloc ation
ĠSe pt
Ġopin ion
al ign
S upp
Ġal one
ibr ary
p a
Ġmil itary
in f
Ġac qu
Ã ¿
Ġapp ly
Ġst ated
Ġcle arly
ĠA b
Ġear lier
Ġcrit ical
Ġfri ends
Ġdist ance
st ream
Ġbu y
Ġeduc ation
} ;
T P
Ġ 00
Ġen joy
E C
Ñ Ĥ
Ġvari able
Ġcand id
Ġl ib
ak er
k en
Ġ( $
oper ator
Ġredu ce
âĢ Ĭ
on ent
Ġhe ight
clud ed
% ,
r ide
Ġmult i
Ġ201 7
Ġcontin uous
e ff
Ġst im
Ġpro p
ib ly
ĠTr ans
ers ion
N ew
o ch
}, \
ĠV al
ul f
st atic
Ġinter pret
ens ional
Ġlead ers
for ce
Ġre asons
ri er
! !
Ġestabl ished
f n
( ),
\ !
Ġs n
N ow
Ġon es
Ġprot ect
C S
Ġin form
op l
) ).
n es
M an
ere st
c il
Ġbo ard
end ant
k ing
ã Ģ
Ġre levant
ĠM at
Ġchall eng
G amma
om en
Ġman ufact
qu est
Ġ200 8
Ġ ----------------
Ġcom plic
ad es
Ġbenef its
d ing
Ġparticip ants
* ]{}
m aterial
Ġfield s
č ĊĠĠĠĠĠ
ĠB rit
m ing
Ġc yt
her n
The y
. _
d ocument
it ude
Ġus ers
Ġregard ing
Ġact ual
ic o
Ġm ort
Ġeng ine
Ġk new
E rror
ĠJ ud
Ġpart s
Ġhig hest
Ġadj ust
CT ION
B A
Ġwe b
Ġdis cl
R ES
l s
Ġl at
Ġfil es
Ex p
Ġrem ains
g ram
Ġle arning
Ġloc ated
Ġcont aining
stit ute
over line
Ġfrequ ency
f a
w orks
.... ....
Ġp en
o very
Tr ue
Ġadv ant
Ġh it
Ġcont ains
Ġser ver
Ġsupport ed
Ġgener ated
cul es
t em
ut ed
Ġchang ed
Ġw ond
ove mber
Ġrece ive
Ġunderstand ing
Ġappear s
a e
Ġprote ins
i ate
Ġs on
Ġwrit ing
Ġse c
Ġm er
Ġa x
Ġactiv ities
) **
Ġm id
H O
Ġsol id
Ġintern ational
S P
Ġcont ribut
Ġfind ing
Ġp sy
Ġd og
ub untu
Ġca pt
Ġf ine
Ġli qu
' ]
ge q
F rom
Ġbe gan
ut ive
AT E
ĠI L
Ġ200 9
Ġatt ention
et t
Ġwor th
ĠW est
y ond
ashing ton
Ġeconom ic
al t
Ġsit es
Ġa ud
Ġbu ilt
in it
re w
ĠDist rict
Ġdev ices
ra el
Ġdecl ared
ĠCent er
==== ==
ĠA D
ĠS chool
Ġtr ust
ast ro
Ġsur gery
ĠAug ust
Ġvari ables
an i
Ġwas n
Ġqu al
ĠA ccording
C t
Ġcont rast
Ġt rack
Ġst ar
ĠJes us
de red
* -
Ġw idth
Ġal gorith
Ġre action
ra g
Ġconcent ration
Ġd u
ic it
Ġgo es
ob ject
Ġar rest
enc ing
ĠD et
c all
im age
Ġp lease
Ġcult ure
Ġauth ors
Ġsub sequ
Ġf a
as te
ĠD ata
ĠInd ia
ad em
Ġr ules
Ġst ore
Ġem ail
ĠB r
o e
Ġnum er
Ġproced ure
od ing
ru ary
Ġt im
Ġf ully
im ony
. \
Ġh on
ĠG re
arg in
i os
col or
Ġrel ig
Ġra p
p ol
un k
Ġey es
pl ing
Ġus es
Ġprog ress
h am
ut r
Ġapplic ations
Ġreport s
Ġcou nsel
Ġbe yond
in ct
ĠE l
Ġhe aring
Ġsur pr
Ġ ]
Ġre pl
Ġdef ense
S C
p ace
Ġoper ator
b ran
Ġin sp
Ġinterest ing
rel ated
Ġbe comes
ps ilon
Ġset ting
Ġin ject
ĠO f
Ġst aff
ell ow
ĠR ec
Ġhand s
Ġde ad
B D
Ġtrans form
Ġshow ing
ĠUS A
[ ]
ot al
i able
ĠDe cember
Ġitem s
Ġtra vel
ĠN e
Ġsmall er
Ġbe aut
u ced
Ġy ield
we et
Ġco ord
ic ip
Ġe ight
Ġresult ing
Ġp ow
#### ####
Ġmajor ity
Ġin n
Ġcl ust
Ġent er
Ġtoward s
con n
Ġob vious
Ġwebs ite
Ġ util
ĠT w
i ency
ĠM ark
Ġdom ain
Ġb ed
Ġreg ions
il ies
Ġ< <
Ġprodu ce
* .
g n
Ġsom et
F orm
ĠS ub
o oth
Ġvol ume
Ġequ ival
f s
ens ions
amet er
Ġcon sequ
Ġ| |
if orn
Ġreason able
Ġprodu ced
il le
Ġ4 5
Ġmed ium
Ġinst it
ric es
Ġindic ated
Ġturn ed
c i
Ġn ames
al ing
Ġrel atively
Ġimmedi ately
Ġcol on
Ġcar ry
o ice
Ġsk in
Ġsaf ety
ĠM on
Ġexact ly
Ġlook s
Ġstart ing
Ġsl ight
Ġdiv ided
Ġs old
ĠP ublic
Ġread ing
ic ine
Ġpre fer
od ies
r um
con fig
Ġcou ple
Ġdec ided
Ġs ound
Ġform s
en ge
Ġp etition
Ġadminist ration
z z
Ġim m
Ġget s
Ġexperim ents
ad o
Ġc up
Ġ8 0
Ġar ri
Ġb rought
o at
ou ra
ĠF rom
ĠMore over
Ġex ists
Ġb irth
Ġde part
ang ed
Ġwork ed
= '
Ġsy n
ĠC O
Ġredu ction
f ort
Î ²
f ree
c or
Ġdef ine
){ #
Ġm ys
Ġd ark
Ġinflu ence
* (
Ġcoun ter
Ġu pper
ĠB ecause
Ġmaterial s
' :
att le
ĠT able
Ġinter action
Ġlaw s
E G
Ġro ad
Ġanal ys
Ġmet ab
ĠOct ober
Ġh ous
Ġst d
Ġabs ol
Ġtrans port
operator name
Ġg un
Ġmax imum
ĠR ed
B ig
\ |
Ġf ather
Ġf elt
Ġconst ruction
Ġm g
Ġro ot
c in
Ġn orm
/ (
Ġinter view
Ġcomput er
} -
Ġext ract
Ġfact s
che ck
om in
Ġparent s
Ġ9 5
T Y
os es
Ġz ero
Ġsepar ate
Ġ er
er ia
ight s
Ġopportun ity
ĠN ovember
iforn ia
et ilde
Ġnot ed
wid etilde
Ġh op
ĠW ashington
_ .
Ġd ro
Ġvir t
if orm
Ġ- >
Ġvict im
Ġb inding
Ġn or
Ġl abor
ĠSept ember
ĠT H
Ġph osph
Ġcirc uit
Ġdri ve
o on
Ġplay ed
Ġdo or
ĠC ong
Ġconn ect
uff er
Ġinter nal
Ġthrough out
c os
Ġbas ic
Ġreve aled
Ġcol umn
it ro
Ġprocess es
Ġrele ased
ĠM od
ĠOb ama
ĠCh ar
ĊĠĠĠĠĠĠĠĠĠĠĠĠĠĠĠĠ ĠĠĠĠĠĠĠĠĠĠĠ
Ġachie ve
b m
Ġalleg ed
a res
Ġl ov
Ġse cret
Ġs ources
---- --
Ġapp e
b olds
Ġ ensure
Ġmus ic
bolds ymbol
ĠS ection
ĠDem ocr
Ġf it
M R
Ġhealth y
Ġw rote
ric k
Ġform ation
ĠIs rael
i ance
Ġc it
f erence
ra int
N ode
Ġmechan ism
Ġmagn etic
Ġ rac
Ġcol lect
om as
A fter
H and
S ub
S ec
In fo
Ġcon cept
Ġto ol
Ġm ode
Ġstat ist
Ġto wn
if ier
Ġtest s
00 4
` `
ent er
Ġplay er
Ġhe ard
Ġc am
Ġcr im
Ġman if
Ġfunction al
om ic
Ġsympt oms
Ġ9 0
roll er
E vent
z eta
Ġhapp en
Ġconn ected
Ġa ctions
at ur
Ġas pect
Ġconduct ed
Ġform ed
Ġbu ff
Ġres istance
; \
Ġ} );
Ġrem ove
Ġinc or
Ġother wise
ĠO ther
Ġb ow
Ġref lect
A b
In st
Ġra ce
Ġread y
Ġcomb ination
mm et
Ġa ward
pro t
V ert
as ion
Ġdiagn osis
Ġport ion
ĠAf ric
Ġquick ly
um in
Ġco ol
Ġl ives
Ġcl osed
Ã³ n
Ġmach ine
B e
Ġset s
Ġcompar ison
Ġ4 8
Ġsy mmet
Ġw ide
Ġm ount
cl es
Ġu lt
pos es
ro om
con s
sp ace
wh ich
Ġ" "
Ġa ware
ĠT ra
Ġincre ases
erv ed
Ġph one
S A
oun ced
ig ation
Ġ3 7
Con text
non umber
Ġqu ar
Ġ3 3
Ġ/ **
t itle
z a
Ġplay ing
) ^
Ġse ven
Ġpl as
. [
Ġres ources
F A
P D
v are
Ġl if
ĠĠĠĠĠĠĠĠĠĠĠĠĠĠĠĠ ĠĠĠ
Ġinf lam
l ish
ĠI D
Ġcalcul ated
S U
is ation
p arent
Ġy es
}} _
Ġdes cription
Ġst eps
Ġrem ember
Ġdemonstr ated
Ġquant um
de pend
Ġpa id
Ġremov ed
ol ved
Ġlook ed
Ġar ch
Ġf resh
Ġmov ed
Ġcho ose
Ġ eth
Ġsp in
ĠIn st
c ar
Ġm ur
Ġmeet ing
H ere
S M
Î ±
Ġ ign
Ġl as
ot o
Ġp ackage
ir t
ĠRe v
Ġhapp ened
Ġdat abase
Ġsh ape
und red
v est
Ġpro ve
Ġprov iding
Ġcap ital
iqu es
âĶĢâĶĢâĶĢâĶĢâĶĢâĶĢâĶĢâĶĢ âĶĢâĶĢâĶĢâĶĢâĶĢâĶĢâĶĢâĶĢ
ĠFeb ruary
Ġmor ning
ĠIntern ational
Ġpl ant
Ġm ess
Ind ex
Ġcircum st
ĠA rt
ĠL aw
Ġleg is
Ġmov ing
Ġsomet imes
ur rent
Ġexp osure
Ġfe ature
Ġconsist ent
it ivity
P O
. '
Ġthink ing
Ġdel ay
in put
sh ip
Ġre ach
Ġcapac ity
Ġ( \
Ġtest imony
)/ (-
ĠG et
a ur
Ġst ru
ct ors
um an
Ġ\ ,
Ġestabl ish
O ut
stit ution
ou l
Ġwe ak
ĠN et
he ck
\] ,
Ġgiv ing
ĠAust ral
Ġhtt ps
Ġcrim inal
Ġdam age
Ġt ask
Ġcharacter istics
Ġse vere
ĠE q
ĠL ist
Ġp ul
Ġpe ak
( {
F alse
ĠĠĠĠĠĠĠĠĠĠĠĠĠĠĠĠ Ġ
r ations
H T
y th
st art
Ġâ ī
Ġdis p
un n
Ġdet ected
vent ional
ĠCal ifornia
Ġw itness
ot he
ĠC R
st yle
00 2
Ġfam ilies
as cular
ot ype
Ġb ul
^{ (
à ¤
a el
Ġne arly
Ġindic ate
L og
ĠA tt
c ase
Ġb ottom
ur g
ĠInd ian
re es
semb ly
ĠS an
ok en
Ġrecomm end
Ġm iddle
ĊĊ ĉ
Ġfig ure
Ġcard i
Ġbl og
ĠT est
ĠS ec
ĠA ng
ber g
Ġ201 8
Ġs en
Ġb and
//// ////
ĠRes earch
Ġth ous
ock et
A ss
te red
Ġm ac
ĠA L
/ (-
b ot
vare psilon
Ġmet al
Ġdist ributed
Ġch annel
lic k
u nder
ĠK ing
es h
0000 0000
Ġt er
}} (
Ġwork ers
} =\
m en
č ĊĠĠĠĠĠĠĠ
Ġr ul
Ġj ur
tr ue
Ġl ay
Ġne ur
Ġspe ak
ĠG r
Ġc ert
ran ch
Ġveh icle
e ch
im ent
ic ity
ate ver
Ġsc ient
ĠInt erest
I A
Ġn il
U p
it ors
ym ph
Ġexist ing
Ġscre en
Ġpop ular
Ġcom ments
cur rent
Ġl ip
ĠBo ard
i pe
f ord
ĠH ol
Ġbenef it
ĠFig ure
ĠP ost
Ġsuggest ed
Ġdiscuss ed
go ing
() )
Ġf ix
ut y
Ġch ance
I B
P R
au ght
Ġno vel
"> </
ir it
A V
e ah
am in
en ame
Ġstreng th
ĠN ULL
ic ial
Ġ( (
over nment
Ġro ll
Ġhe ar
Ġcor por
Ġfin ally
] :
b uild
Ġm ag
Ġm m
Ġpl aced
Ġsw itch
Ġcry st
ĠF l
ĠAl so
\ ,
Ġ il
âĢĶ âĢĶ
Ġliqu id
Ġb rief
b in
ĠH igh
Ġapp arent
Ġ3 4
Ġmys elf
U M
Ġc at
Ġsa fe
d ed
Ġd aily
\ /
ĠFurther more
Ġreg ul
Ġ7 0
Col or
bo ard
ĠI R
Ġdis s
Ġfore ign
ĠS y
c her
ab s
ĠWh ite
h ost
Ġinf ection
Ġactiv ation
x x
Ġext rem
Ġtest ing
Ġlet ter
Ġc ivil
al le
lic t
ld ots
V ER
ph p
s f
Ð ¸
Ġsh oot
Ġn ation
Ġinc ome
Ġgre en
ĠF ound
Ġun its
ĠCom mission
Ġbre ast
Ġjud ge
ar r
Tr ans
Ġexp and
Ġins ert
Ġpre m
ĠU K
Ġman ner
B ox
ĠM us
Ġmeas ures
Ġsum mary
E E
Ġs end
Ġn amed
Ġaltern ative
in st
Ġdrug s
Ġw id
Ċ ĊĠĠĠĠĠĠĠĠĠĠĠ
l ong
Ġstud ied
Ġm ale
Ġfin ite
Ġemploy ees
m essage
Ġt ree
Ġad opt
Ġd oc
ĠA nt
O h
ent y
Ġoffic er
Ġsu p
ĠE ven
ur t
j ava
d et
Ġyour self
Ġrespons ible
Ġprob ability
M e
Ġtra de
so ft
ra b
Ġf ear
ĠR NA
Ġ3 6
ĠA c
i pp
Ġdet ect
ĠJapan ese
Ġr out
ari o
ĠC ode
ĊĊ ĊĊ
C re
ĠT ex
Ġstrateg y
Ġapproxim ately
ĠT O
ĠB ank
Ġsex ual
Ġobject s
Ġsurv ival
m ic
Ġexerc ise
Ġsh ot
om b
[ \
Ġm ix
Ġinvestig ation
Ar ray
Ġst ation
Ġprogram s
Ġden ied
Ġmin imum
Ġthe rm
Ġmove ment
Ġex hib
ĠO ff
rac y
C M
at ically
ge bra
Ġ2 000
ind uced
k a
Ġw ild
ĠP M
ĠR el
** ]{},
g s
z ym
Con fig
Ġ4 2
Ġpan el
Y es
Ġw ave
Ġrecord s
Ġb ill
Ġspec ifically
Ġh undred
Ġvari ety
ere nt
U ser
Ġw ife
rom e
Ġcontin ued
Ġstruct ures
Ġrap id
[ ^
Ġ= \
âĢ ²
ĠS pec
Ġcomp r
ĠH am
Ġpass ed
Ġpl atform
Ġmention ed
ĠAss oci
r ig
Ġsus p
Ġbegin ning
S ize
Ġsa ve
app ing
ines e
ĠH er
ol ar
Ġcar ried
indow s
) ?
pri v
* ~
Ġass ume
ell ig
Ġst ock
ĠN ote
Ġli ver
Ġexperim ental
Ġse ed
Ġprep ared
ĠS up
Ġpre par
" },
P P
Ġconf irmed
n ormal
Ġth ick
Ġad apt
ĠP ark
C O
C ode
Ġdes pite
Ġprocess ing
R ead
r ary
Ġ ut
Ġst ream
es is
ĠR ef
Ġtalk ing
Ġstra ight
ĠA ut
Ġst uff
Ġstat ute
ET H
Ġpro sec
Ġdet ection
Ġcol lection
Ġhapp y
i ers
Ġsub str
ing u
Ġc op
ing ly
ol id
Ġindu ced
Ġsuccess ful
ot imes
Ġv an
ĠC ON
Ġcorrel ation
Ġc ore
ĠD i
Ġag g
Ġexperim ent
el le
Ġcl ub
A Y
Ġd ry
ag ram
Ġrem aining
Ġb acter
Ġprofess ional
Ġs ell
Ġtest ed
Ġk illed
T T
g u
op en
Ġsle ep
ĠT R
if ul
C all
d s
ĠIn ter
Ġb ond
Ġsh ift
le vel
Ġmin or
air s
Ġre ached
Ġst orage
Ġup d
o z
Ġt end
Ġcomm erc
Ġcomb ined
ĠI ll
d ot
Ġreturn ed
Ġup date
Ġelect ric
ĠM or
& &
Ġe lection
ĠS w
ag o
Ġcircumst ances
Ġclass es
ĠH ospital
Ġimpro ved
ĠC H
Ġtr uth
idd en
Ġa part
Ġwant s
Ġser ve
Ġsol utions
: \
ic ed
Ġon to
Ġim ag
Ġth row
d ict
Ġsuggest s
Ġcare er
ic ians
cre ate
Ġmay be
ic ks
Ġanalyz ed
id ers
Ġchall enge
Ġsc en
Ġre ject
Ġcl ick
Ġ200 6
os en
k y
Ġrel ation
Ġh our
Ġreplace ment
Ġpro port
Ġofficial s
Ġcontrol s
Ġexpl ain
** ^
Ġsent ence
Ġc ru
Ġun less
AT ION
Ġ$ {
ac ing
Ġlead s
Ġtyp ically
et urn
Ġwhere as
Ġb order
est s
Ġag reed
ify ing
u ps
yn c
x y
ig ration
are st
Ġs ociety
pt ions
Ġ200 7
ĠĠĠĠĠĠĠĠĠĠĠĠĠĠĠĠ ĠĠ
' '
r un
lic ation
P er
Ġim plic
ail s
Ġder ived
ĠPa ul
Ġd ied
Ġra ised
Ġassoci ation
om orph
Ġoccur red
}} {
z on
ic ations
Ġdecre ased
Ġpick ed
Ġfem ale
c oh
n um
Ġt ouch
id el
Ġun f
Ġsh ip
Ġtechn iques
Ġd ed
Ġp ush
d i
S p
ab il
Ġt al
Ġsp read
Ġvis ual
k g
ĠN OT
Ġdis miss
ren ch
Ġf irm
Ġaff ected
u ing
â ĸ
Ġb illion
Ġem ot
Ġvol t
Ġed ge
Ġatt orney
M ethod
Ġt ables
Ġd ie
Ġnucle ar
ph one
ond on
Ġgrow ing
Ġ row
ĠCal culate
Mod el
ar a
st ract
ĠDav id
g t
ist ant
Ġapp ellant
Ġto ols
Ġpl ans
C ount
it z
Ġb ud
Ġgener ation
Ġchem ical
Ġadvant age
ĠG roup
Ġmon itor
Ġcl ient
ap i
Ġsp ent
Ġco e
Ġbehav i
( {\
Ġun c
ann ed
Ġrepresent ation
rid ay
Ġcred it
re ly
AN T
Ġmole cular
ĠEurope an
ĠW illi
Ġill ust
S ervice
Ġdeb t
5 00
Ġoffic ers
r ich
ra pe
ĠE ast
m ain
ur ity
Ġcall s
#### ##
Ġfe et
p ass
il ing
Ġn one
Ġun s
Im age
ĠM ost
Ġsubject s
č Ċĉ
Ġestim ated
. *
ĠP re
Ġper haps
Ċ ĊĠĠĠĠĠ
k ay
ĠT V
ari an
Ġlo op
F ield
Q L
Ġsc ript
An y
f low
pro du
Ġpl aces
Ġwond er
Ġ_ _
Wh y
D o
Ġsu st
Ġse lection
al y
ograph ic
ÂłÂł ÂłÂł
Ã¿ Ã¿
c ore
re lease
ign ment
omet ry
Ġintrodu ced
B l
ĠP al
i ra
act ory
Ġtr ig
Ġeffort s
Ñ Ģ
Ġhand le
Ġelect r
Ġdiscuss ion
Ġc ir
ĠS upp
sp ect
T C
at in
pt r
Ġbl ue
Ġmem bran
Ġn ice
ĠN S
Ġanim als
F r
ress ive
Ġand roid
ole an
Ġf ruit
il ed
Ġhyp ot
ĠB ro
act or
O U
Ġv ent
Ġ& \
Ġdi et
Ġlet ters
D U
E P
Ġv ote
ace book
Ġprot ection
mat ory
Ġbig gest
ĠY our
j o
ro y
il arly
ri e
Ġk in
Ġdescrib e
d em
Ġcould n
ĠPl aintiff
Ð¾ Ð
ing er
ĠD on
ĠE R
in ner
Ġ3 8
Ġ200 5
ĠCong ress
N F
Ġd oll
Ġout come
Ġmod ern
Ġser um
** (-
que ue
Ġpur poses
n am
Ġcol lected
ond ay
Ġevalu ated
Ġneigh bor
t ra
Ġm ental
Ġpl ate
B I
iz ations
Ġpl us
]\] ,
Ġmov ie
ĠS ur
ĠJ ew
In ter
Ġtechn ique
opy right
Ġb ab
p g
Ġst o
AR T
Ġd anger
Ġsm ooth
r l
augh ter
Ġ( **
or b
Ġstud ent
Ġmiss ing
Ġh uge
D R
w ell
app a
ĠNew s
Ġcertain ly
Ġfoot ball
Ġ( )
Ġwould n
ĠSu per
Ġl inks
res ents
Ġw ait
res ult
Ġar m
Ġcon ver
R ec
Ġgra du
i very
ĠP C
Ġcommun ication
Ġexpl ained
ain er
p c
ĠE nd
Ġ( !
ri a
Ġalgorith m
Ġtem por
x ml
Ġcon vert
Ġem pt
Ġproject s
* )
Ġint ent
Ġins urance
xt ure
Ġeffic ient
cl osure
Ġoper ations
il er
Ġenc oura
Ġcompl aint
G C
Ġabs ence
Ġeconom y
ĠC oun
Ġm obile
w hat
Ġcon ventional
Ġopt im
P r
Ġtrans l
Ġex ternal
Ġfor ces
h ow
Wh ile
a ud
ur l
Ġex change
Ġke pt
Ġnet works
IT Y
Ġaccept ed
Ġslight ly
ar ant
Ġsupp ly
fr ame
l ocal
ĠSup reme
us band
Ġdecre ase
Ġc m
Ġpsy ch
p ack
ic ated
as c
D A
ĠCom mun
Ġend osc
201 5
g r
ĠEng lish
Ġbuff er
Ġk ids
so le
mod el
Ġjob s
it led
ith ub
S ee
Ġm ist
Ġelect ron
f alse
Ġsc ience
ĊĠĠĠĠĠĠĠĠĠĠĠĠĠĠĠĠ Ġ
mat rix
ial og
Ġrespons es
ck now
Ġsit u
am ily
Ġc atch
Ġauthor ity
ĠO h
Ġmot or
cont ent
R eg
ĠGo ogle
F T
Ġsur round
mit tee
M E
Ġg al
Ġdis app
ip ment
ri ent
D ep
b efore
Ġpie ce
Ġar bit
Cal culate
Ñ ģ
E lement
ĠF in
ost ic
Ġint ended
Ġequival ent
pl ify
S er
Ġf lex
ĠIn stitute
ĠĠĠĠĠĠĠĠĠĠĠĠĠĠĠĠ ĠĠĠĠ
S I
ol f
Ġk ill
Ġreg ist
Ġrequire ments
ĠF lor
' .
im b
Ġocc up
} +
ĠCl ass
oc ytes
ĠE m
Ġadd ing
Ġch ronic
Ġserv ed
Ġag ent
Ġhist or
Ġide as
y st
Ġch ain
Ġent ry
Ġgu y
. [@
Ġt our
Ġtra ditional
Ġbel ong
O ur
Ġ ing
Ġm ill
ill a
Ġpol ic
Ġp ark
in y
Ġext ent
âĢĿ .
Ġj ava
pos s
ou te
Ġcon vers
Ġexper t
Ġcreat ing
/ **
Ġne arest
Ġj oint
Ġsy mb
Ġhold s
ĠF OR
ot ed
ĠA rm
Ġep is
. $$
or ter
Ġrep resents
sub set
Ġcit iz
A ut
n y
Ġinvol ve
ĠB i
Ġinterest s
Ġteam s
Ġha ir
Ġwh om
, -
ĠO ver
Ġdisc rim
Ġtre nd
M P
old er
Ġgu ess
Ġfa ith
Ġinter val
ĠCh inese
ser ver
M ap
c a
con text
F irst
ot a
Ġfeel ing
Ġ ~
ĠW ell
bl ock
il ty
A tt
Ġequ ations
reed om
ĠU p
Ġk id
Ġcy cle
^ âĪĴ
Ġdirect or
Ġev olution
ĠGerm any
Ġcur ve
. ](
Ġinter face
p ost
w rite
ĠW estern
ĠAn y
\! \!
c an
$ (
yp es
Ġc ast
)/ (
Ġinteg r
ĠBrit ish
} |
E qu
Ġd rop
ĠE ach
======== ==
Ġgr and
i Ã³n
Ġw ind
v ille
act ers
Ġassess ment
ĠM art
- (
D L
Ġinter actions
Ġent ered
Ġanalys es
A ct
c s
M C
b ound
Ġl ymph
val id
Ġdo se
ru ctions
w as
Ġe at
Ġel im
Ġgu ys
iven ess
S ystem
Ġconcent rations
Ġpict ure
Ġlat est
Ġca uses
\ {
S ome
d oc
ues day
olog ies
ĠCan ada
ĠM icro
AL L
n av
Ġmod ule
ĠR em
Ġcrit eria
spec ific
ans ion
Ġdist inct
C an
ist ent
ang es
ward s
wo od
B uild
ĠA R
ĠFound ation
Ġcommerc ial
or ge
Ġl icense
ir al
Ġe arn
Ġl ock
ĠC L
How ever
W ell
c are
Ġ vert
on ic
! --
i as
Pro perty
ĠT wo
Ġfil ter
Ġproper ly
Ġrad io
Ġpattern s
B L
ĠF e
ch ild
Ġfl oor
Ġestim ate
ĠO N
Ġmechan isms
d t
ĠC P
Re quest
ĠS uch
Ġinte ger
AB LE
as ks
wh ile
Ġevalu ate
Ġincor por
Ġ} ;
Ġc ateg
ĠÎ ¼
ĠĠĠĠĠĠĠĠĠĠĠĠĠĠĠĠ ĠĠĠĠĠ
rape ut
ri v
Ġ( "
Ġ{ {\
Ġchar ges
ens or
Ġen zym
Ġcr ime
Ð ½
ĠB oth
00 01
ist an
Ġj u
j ust
Ġex ception
ĠL ondon
T O
f ont
l en
ut or
Ġv oice
d raw
ur ies
Ġdou bt
a fter
ĠC A
clud ing
Ġstate ments
om es
Ġt rou
Ġform ula
in i
U E
ari ant
Ġlar gest
Ġindic ates
Ġann ounced
b ug
le m
Ġ" [
Ġcont ained
Ġorgan ization
ĠF riday
Ġrecord ed
Ġrepe ated
ang ing
abl a
ĠCom mittee
Ġcon clusion
Ġvolt age
Ġinterest ed
Ġcontroll ed
D ate
Ġ+ +
Ġoff ered
l ast
Ġposs ibility
or ry
def ault
Ġres olution
ip al
Ġro b
Ġexist ence
= &
Ġn odes
Ġjur is
G roup
S ource
Ġg one
Ġflu id
Ġ4 4
ĠK ore
C K
ition s
Ġcons erv
Ġare n
Ġgo als
Ġvol unt
Ġs ch
ĠU nder
and roid
Ġrefer red
it ory
Ġg ain
Ġg old
F l
Ġwh atever
> >
Ġdri ver
D S
ic ate
Ġsum mer
ĠT ime
} )$
Ġcomp ens
Ġch rom
Ġp un
Ġey e
Ġst ars
ĠE v
Ġconf irm
)* (
Ġ --------
ĠA T
iz er
Ġorig in
qu ery
f irst
Ġrec ip
pl ed
Ġhold ing
ĠR ober
Ġs ale
und ay
Ġcom fort
Ġcar bon
ST R
Ġliter ature
Ġag ents
Ġcol lege
wide hat
Ġoff ers
Con n
Ġold er
il it
Ġrecept or
Ã ¶
l n
ĠM al
Ġgener ate
ven ue
Ġcomplet ed
ri an
Ġ5 00
st on
ĠFlor ida
Ġw ire
Ġ4 3
C N
urs day
se ct
Ġimport ance
Ġdevelop ing
Ġv el
ed ing
Ġconfig uration
ĠC irc
Ġout comes
we ight
n abla
ri age
Ġbeaut iful
Ġ3 9
Ġident ity
Ġab use
app ro
Ġext ended
Ġsal t
Ġex amples
Ġform at
hel ial
Ġempt y
Ġhapp ens
Ġdel ivery
ra ction
Ġpr ison
het ic
ĠTex as
Ġsu n
Ġr ise
Ġstru gg
ĠĠĠĠĠĠĠĠĠĠĠĠĠĠĠĠĠĠĠĠĠĠĠĠĠĠĠĠĠĠĠĠ ĠĠĠĠĠĠĠĠĠĠĠĠĠĠĠĠĠĠĠĠĠĠĠĠ
Ġthan k
Ġgover n
Ġexam ined
ĠA P
ĠBl ack
dim ensional
g ithub
Ġerr ors
Ġgu ilty
E nt
ĠB en
ĠS olve
ĠPe ople
K E
im g
" ).
b an
ĠW ed
Ġne ut
Ġchar acters
t es
Ġsu gar
b a
Ġcomp ounds
Ġb inary
ar th
Ġplas ma
Ġs q
ĠF ran
ĠM onday
M T
Ġchar ged
Ġpartic les
Ġspect rum
L O
Ġh usband
Ġschool s
Ġsqu are
Ġinst r
Ġsal es
Ċ ĊĠĠĠĠĠĠ
âĸ Ķ
ĠCoun cil
ĠD iv
Ġco verage
Ġdise ases
i en
n ight
onal d
ĠF acebook
ree k
Ġprof ile
i pped
Ġreturn s
D on
Ġin ner
Ġc ategory
se lect
ĠS et
Ġeval uation
ĠThe orem
anc ing
ĠMed ical
Ġc old
ĠD el
Ġmus cle
Ġpay ment
B ack
Ġpart ners
Ġequ ipment
k appa
Ġm it
Ġspec ified
al ysis
Ġdim ension
Ġpre val
Ġ ------------
Ġwe ap
Ġme ant
~~ ~~
Ġexpl icit
Ġce le
Ġ0 5
ict ed
Ġd ra
ĠW IT
Ġl it
Ġst able
** )
Ġal coh
oc y
Ġsequ ences
Ġinvestig ated
ab ilities
ĠE very
Ġw at
Ġhigh light
ĠTe chn
B ar
ĠDef endant
Ġdig it
Ġappe ared
ĠJ ack
cre te
Ġmet ast
Ġsens itivity
F il
ste in
end ment
en ance
Ġw ish
Ġsubstant ial
it ect
Ġpe ace
Ġp ure
Ġsh ared
Ġmeasure ment
c ks
y a
ĠH T
(\ [
ĠEx p
Ġ200 4
Ġconcer ns
T ER
os h
S te
Ġs av
st d
ĠS ervice
Ġcon clude
ant ly
Ġmeasure ments
P re
Ġre ality
ĠGerm an
00 5
\[ [@
Ġpercent age
Cont roller
ĠG overnment
Ġsign ed
Ġopt ical
sum mary
Ġrepresent ed
Ġ ĊĠĠĠĠĠĠĠĠĠĠĠĠĠĠĠ
Ġa head
Ġmort ality
ĠM et
-------------------------------- ----------------
is hes
ES S
OD E
Ġachie ved
ç ļ
Ġopen ing
Ġposition s
alle l
ĠUn ion
ĠWh y
U D
Ġr ank
201 7
ĠSe cond
Ġsche me
Ġ5 5
L C
Ġ$ {{\
ĠGre en
Ġs in
as p
ĠD irect
Ġknow s
201 0
Ġrece iving
Ġimplement ation
Ġheav y
c ss
est ed
** ]{}
Ġcomp osition
Ġmaint ain
Ġsubstr ate
c hen
Ġu l
oper ative
Ġmor ph
Ġdig ital
201 3
ĠFr ance
ĠCol lege
Ph i
E nd
Ġst rict
ĠRe ad
Ġrese arc
Ġoper ating
r d
Ġmi xture
ĠK e
Ġvac c
z en
Ġ4 6
Ġag ency
Ġte le
Ġfour th
ind er
Ġ7 5
Ġallow ing
çļ Ħ
---- ---
ĠR om
Ġpl ants
ĠĠĠĠĠĠĠĠĠĠĠĠĠĠĠĠ ĠĠĠĠĠĠĠ
Ġes c
Ġd raft
Ġf arm
ĠM ac
Ġdri ving
Ġcustom ers
U s
ĠI ran
Ġun iform
ail ed
Ġown ers
AS S
Ġbro ther
====== =
f aces
ĠU N
Ġviol ence
Ġk it
ĠR E
% .
Ġown er
Ġd ys
---- -
Ġqu ery
M essage
um ns
ĠP ort
Ġ4 1
ren cy
nes day
y gen
ĠF inally
u a
ĠĠĠĠĠĠĠĠĠĠĠĠĠĠĠĠ ĠĠĠĠĠĠ
ip her
Ġquar ter
Ġhelp ed
Ġhous ing
âĸĶ âĸĶ
( &
ĠAmeric ans
Ġb ra
Ġem ph
cent er
amp ions
om ial
ĠC ell
ĠF orm
ETH OD
P H
ok es
Ġ6 4
Ġdr ink
ĠO ut
Ġte ac
Ġatt ract
A ccording
Ġdes ired
Ġb le
Ġle aves
}} _{
str ong
resh old
Ġne uro
Ġsub set
C o
dition ally
ĠC I
oth ing
Ġdec isions
Ġal gebra
ty p
Ġj ournal
com ple
Ġext ension
Ġgrant ed
it ative
Ġe lev
Ġestim ates
ĠSt reet
Ġsubsequ ent
G A
---------------------------------------------------------------- ----------------------------------------------------------------
ĠI II
Ġact s
E O
t ag
utr ition
m em
Ġf ill
c ence
Ġc overed
Ġgu arant
Ġgl ass
ĠLe ague
it able
Ġdefend ants
Ġinvestig ate
Ġg ly
Ġeas ier
i ary
cre en
Ġpurch ase
Ġtest ified
Ġassess ed
Ġd ram
ĠA S
Ġunder lying
k in
p age
Ġm al
ro ke
Ġrun s
Ġh arm
ĠJ ames
Ġbal ance
r h
Ġ4 9
AN D
Ġs ections
Ġapp rec
Ġocc urs
cret ion
X X
ĠC a
Ġan imal
Â ·
am ine
ĠB ay
Ġaccur acy
l if
u int
Ġreg ulation
Ġexc ell
Ġl ibrary
ĠT uesday
ĠU se
ĠChrist ian
ĠU sing
est ic
ution al
a a
Ġsk ills
ab et
EN D
or row
ific ations
Ġemploy ee
Ġ4 7
id em
ĠO pen
Ġstrong ly
m t
ĠA ir
er ior
Ġb urn
Ġc oc
ar p
Ġto x
Ġinc ident
Ġsur vey
Ġint ra
Ġp ool
ĠY es
Ġover l
Ġlead er
B P
d ir
f unc
g ent
Ġbut ton
ber t
atur day
g ments
Ġ ĊĠ
Ġn av
ĠSm ith
Ġvel oc
Ġt ub
Ġres ource
ord ers
Ġpower ful
1 01
P e
T A
ĠM any
Ġst ories
it ely
ain e
Ġappro ved
Ġwar rant
. </
Ġal ter
âĢĿ ,
Ġextrem ely
s rc
Ġsp ring
Ġper t
Ġa cknow
Ġsp irit
Ġposs ibly
Ġpath way
iv o
Ġha ven
Ġtrans mission
Ġlimit ations
Ġproced ures
Ġappro aches
Ġiss ued
Ġch osen
The n
Ġra ise
: "
m id
Ġd uty
ĠD ay
RO DU
R el
c p
Ġth read
Ġdepend s
Ġ5 6
Ġfl at
Ġmost ly
ab ric
Ċĉĉĉĉ ĉ
omet ric
rapeut ic
=" ../../
ak ers
S H
ĠR ich
for all
Ġthous ands
Ġdeterm ination
ĠJud ge
^ -
ĠA re
ane ous
Ġspe ech
othe rapy
S olve
ploy ment
Ġb ag
S ince
at he
ĠIn s
Ġdetail ed
Ġint ellig
pro duct
Ġprot ected
aut hor
Ġremain der
leg al
L ine
Ġcomp are
Ġisol ated
$ ]{}
in ates
Ġs rc
Ġaut o
Ġp or
Ġ6 5
Ġmembran e
B M
~~ ~
i ences
Ġ _{
Ġm ixed
Ġbook s
RES UL
Ġlist ed
Ġdep th
Ġlearn ed
ou ble
ĠS H
Ġtra in
ym met
I O
en u
ĠG ra
el ess
and a
ortun ately
ĠS al
Ġacc ident
R L
ĠCh urch
Ġinvest ment
Ġcr is
am ental
ĠD uring
yt ic
Ġh ab
Ġl ung
Ġcomm itted
hen s
tem plate
Ġsecond ary
/ \
; &
ore t
Ġmetab ol
el se
ot es
og ene
ĠTh ursday
i h
Ġb orn
ost er
du c
Ġpolic ies
Ġpl ays
ĊĠĠĠĠĠĠĠĠ ĠĠĠĠĠĠ
Ġtri als
F C
Ġcomp osite
Ġview s
ï¼ ļ
Ġc atal
Ġp et
ow s
ĠComp any
Ġh ole
Ġimprove ment
Ġrel ief
Ġ+ =
Ġplan ning
Ġenvironment al
i ples
The se
Ġarg uments
Ġcommun ities
Ġd uration
ĠP et
Ġopen ed
stand ing
Ġapplic able
Ġl atter
Ġv ary
F R
ĠB er
ĠW il
Ġresult ed
Ġgreat est
C ell
o om
s d
M ed
y ou
ä »
: #
ne xt
Ġac ute
A IM
Ġint ensity
Ġun ivers
F I
y r
ĠB re
Ġun known
Ġ201 9
Ġfoc used
ĠF ree
let s
he ight
Ġ5 2
ann els
] [
Ġmet ric
ro ad
Ġgen etic
ug in
m ation
as ure
ĠSt at
ĠTw itter
pl oad
Ġconsider ing
ĠSc ience
P V
Ġbu nd
bre ak
is her
ĠF rench
\] ).
Ġth in
Ġexp ansion
ou nce
201 2
Ġassum ing
Over ride
yth on
E xt
ĠH ill
Qu ery
Ġexperi enced
ry pt
Ġtyp ical
Ġsp ot
ro t
ĠMich ael
re ated
Ġadv anced
Ġfund s
Ġf uel
Ġm ouse
Ġd ual
oc hem
St art
Ġdirect ed
Ġbe g
Ġad vert
Ġdepend ing
ĠM em
ĠS unday
Ġrec overy
2 000
mon th
Ġaff ord
Ġsett ings
Ġad equ
Ġsign als
C V
Ġe cho
k i
Ġchang ing
Ġcall ing
M ore
Ġw arm
Ġg ar
el ly
ell ed
Ġevent ually
ĠRuss ian
b ul
Ġplaintiff s
ĠIntern et
Ġsuit able
Ġ7 2
se ud
ri end
Ġad ult
Ġre act
Ġconf lict
j ud
ass ert
] ),
Ġacc ord
Ġapp oint
erv ices
it a
Ġtrans cript
Ġanal og
Ġvir us
In put
v an
Î ¼
Ġt error
Ġex cess
ut s
Ġle aving
Ġsens or
N O
Ġm aster
Ġbud get
Ġb oy
Ġfor ced
? âĢĿ
Ġl ab
ul in
G u
Ġsignal ing
ĠRuss ia
d iction
ĠP ress
Ġseem ed
Ġsm art
R S
Ġm argin
velop ment
Ġc ere
Ġo dd
st atus
land s
Ġsc ores
i ot
Ġst ored
Ġman ager
Ġcandid ate
Ġr ing
Ġfrequ ently
Ġ1 20
ell ular
ib er
ok ing
n ames
Ġent itled
ol t
Ġpl ot
P T
i am
Ġno ise
Ġsc al
ĠT om
Ġcomp etition
Ġstatist ical
ĠM o
char ge
p mb
Ġpre gn
Ġconcer n
Ġtw ice
**************** ****************
Ġlim its
$ {
4 00
h as
Ġ* )
ater al
Sim plify
ut ely
se y
US ION
c at
Ġgal ax
Ġd ream
ed y
clus ive
Ġinvol ving
Ġb ool
Ġre nt
ĠP D
ĠL eg
ri p
ĠR ule
Ġcont ribution
Ġ5 1
}\ ,
Ġpro pos
C I
c is
Ġv ess
p onse
Ġmot iv
Ġrad iation
Ġpl ane
Ġbelie ved
Ġn an
ist ory
Ġad ults
Ġexam ination
c ial
Ġs ides
ĠM S
ĠS O
Ġim aging
Ġmole cules
Man ager
y g
et te
Ġu int
ribut es
ro g
Ġre vers
od ay
Ġwill ing
RO M
Ġles ions
p ir
Ġcent ury
Ġstandard s
te x
ĊĠĠĠĠĠĠĠĠ ĠĠĠĠ
idel ines
Ġre plic
ĠA p
am ing
======== ====
Ġ200 2
Ġfin ished
Ġmanufact ure
Ġsp aces
Ġinter vention
Ġinde ed
at o
Ġre verse
Ġr an
ER S
ruct ure
Ġsee ing
ĠG ood
Ġoper ators
cd ots
c ard
e vent
s or
Ġp rices
ĠC opyright
Ġacc um
c f
j son
al ty
Ġcon ven
Ġ5 4
Ġmin im
med ia
w in
ic ian
est inal
Ġor dered
Ġmi R
ĠWed nesday
at ric
00 7
ĠSe cret
Ġr ich
ear s
Ġsur g
Ġrelationship s
Ġimmun e
poss ible
c up
ĠM il
ĠJ er
Ġcons ult
Ġsupp osed
Ġ200 3
) =\
. **
ĠD ec
Ġthan ks
}^ \
A meric
Ġs ession
depend ent
J ust
Ġext ends
but ton
Ġalcoh ol
G L
ĠT or
Ġindic ating
i pping
Ġam az
Ġprot ocol
s ur
st ood
ĠM A
Ġj ump
ribut ions
Ġdemonstr ate
Ġf reedom
et ch
Ġl ose
200 9
F S
201 6
Ġjo in
ĠSen ate
Ġb an
Ġn ine
Ġcons ent
Res ult
ĠAssoci ation
Ġm ission
Ġnecess arily
Ġbur den
ce ived
Ġrec all
Ġrel ates
Ġform al
Ġphen omen
Ġrelig ious
d ots
ĠB el
Ġconcer ned
Ġco ach
Ġmain ly
Ġpie ces
k er
** ,
end if
AG E
Ġfra ction
Ġattack s
raz il
p ref
Ġm o
form at
Ġar ter
Ġdepart ment
et ime
Ġconst raint
CL USION
Ġw ood
om al
F O
in te
Ġbound ary
h al
\ )
Ġvirt ual
N et
R em
k ins
Ġ ion
Ġfund ing
dis play
on ly
Ġhe ter
Ġm and
he mat
ist ed
ĠPart y
ĠOff ice
Ġf if
Ġin equ
con f
r ine
ur a
g y
reat ment
Ġbab y
Ġne ither
ĠS ing
Ġp ix
ĠM er
uc os
ĠOn ly
Ġen force
Ġox id
I ST
i verse
Ġ ens
Ġsc ene
ex ec
sp ective
Ġask ing
Ġinterpret ation
v as
_{ {\
Ġsp end
Ġfe es
s plit
pro cess
Ġf ans
3 00
Ġt on
Ġarg ues
ogen esis
v t
ĠS N
ul s
us hed
ĠR ob
Ġenh ance
Ġvers us
Ġchalleng es
Ġm RNA
Ġob lig
Ġs am
Ġd il
ard en
ili ar
Ġfavor ite
Ġconf erence
Ġadv ice
} +\
Ġpol ar
200 8
Ġcy cl
Ġang le
ĠEng land
] --
Ġfor th
Ġframe work
ĠCirc uit
l aw
iff erent
Ġstim ul
Ġt ight
Ġass ay
c uss
Ġs ector
ĠF ederal
Ġp aint
int on
Ġmed ian
": "
gen er
Ġbi as
Ġmur der
RODU CTION
ĠS um
ĠH all
if ies
Ġ200 1
201 4
in ations
Ġclaim ed
Ġpotential ly
h ouse
Ġconf idence
ĠPl an
Ġst ick
ĠF ield
ns on
Ġexcell ent
L abel
row ser
Ġhel ps
ĠIs lam
O K
ap ers
Ġest ate
Ġfund amental
Ġrecogn ized
w er
Ġdat as
Ġcap able
Ġemploy ed
ĠP en
", "
Ġcomp act
sc rib
Ġadv ance
But ton
a per
r or
im ately
ij ms
Ġre produ
b al
Ġhe nce
au ge
Ġr ough
Ġbre ath
lev ision
Ġg rid
Ġman us
T e
U G
F e
E W
w s
ic ious
um er
ĠAustral ia
ect s
op ath
Ġcourt s
Cl ient
supp lementary
Ġ1 01
ar atus
Ġl ig
ĠW indows
{ {
ĠS aturday
on na
Ġdi agram
Ġfil ms
Ġmark ed
Ġimpl ies
ig an
ĠD C
p df
Ġb atter
201 8
el come
ĠAdd ress
T D
Ġc os
ĠP lease
Ġus ual
Ġrel ax
Ġrespons ibility
Ġdam ages
ĠB rown
Ġwid ely
W ord
Ġm aps
Ġtum ors
Ġscre ening
ĠPro gram
Ġbi ological
Ġadminist r
d el
s he
Ġe gg
ĠL ou
ap ache
Ġac adem
Ġsmall est
Ġaccur ate
]-- [@
in ite
ill er
Ġg ast
Ġoff ense
Cont act
C lick
Ġt rac
Ġg ap
ĠD E
ym pt
ĠPh il
Ġr ats
Ġcont ribute
pro posed
ensure math
" ),
) ]
d ist
Ġp al
}} {\
ash ion
Ġdown load
Ġposs ession
Ġv ill
out put
Ġ5 3
Ġdec ide
Ġsh ut
Ġme at
Ġart icles
d x
ĠM ETHOD
ĠW ork
ĠL in
ic ago
âĶ Ĥ
he nt
Ġsh ock
Ġre ct
ĠM ary
Ġexp osed
Ġwa iting
V ersion
Ġcele br
Ġm ethyl
astro enter
d y
us iness
Ġsee k
queue bot
Ġpart ial
ne g
Ġco h
Ġstand ing
Ġcrit ic
it ud
us al
ĠH ence
> &
P ol
b ed
ĠH D
out hern
ne ver
ĠT ype
Ġdeg rees
M O
on ents
Ġc ash
Ġ3 00
H S
el i
ĠF ed
201 1
Ġdisc overed
Ġveloc ity
Ġann ual
Ref erences
G o
t arget
å ı
Ġ1 50
Ġvari ation
Ġdom in
ĊĠĠĠĠĠĠĠĠ ĠĠ
Ġtrans f
Ġprov ision
opt ion
B O
ĠS l
ĠL em
ĠC he
j pg
Ġl ens
UR L
Ġmaint enance
L ast
h box
ult ure
Ġcitiz ens
ĠG ive
Ġelect ronic
Ġrem ained
Ġst rain
ĠF IG
pro ject
Ġposs ess
s in
Ã ¼
Ġlegis l
Ġsen ior
Ġ ice
Ġs plit
Ġf abric
Ġve get
Ġneg ot
Ġeffic iency
$ )
Ġsp ending
Wh ich
ĠI P
Ġdist ingu
R ep
Ġgu ide
"} .
app ed
Ġox ygen
d at
%% %%
Ġg ender
ĠO nce
Ġtra ffic
Ġst ability
Ġ5 8
ĠWe b
ĠInd eed
C heck
Ġn arrow
** (
Ġterm inal
ĠPro ject
h i
ä ½
ag on
Ġinst ructions
Ġtechn ical
Cont ent
ĠC T
& \
Ġs weet
ĠM iss
Ġdynam ics
ĠW H
S pec
d r
i ant
Ġcor re
Ġpers pect
Ġfac ilit
U I
y er
ĠM ass
Ġpre f
Ġpreval ence
c r
Ġs an
Ġm el
Ġbe coming
Ġch urch
Ġcomm ission
ĠRober t
) ^{
ant ic
Ġapp aratus
Ġthere by
line ar
A F
c el
Ġcustom er
CON CLUSION
Cre ate
Hand ler
ĠW al
Ġsim pl
Ġend s
IN E
cle ar
Ġax is
æ ľ
Ġd aughter
ĠP RO
ĠD en
ont al
Ġl ic
Ġopp osite
R ight
Ġdo ctor
Ġpur su
Ġemploy ment
Ġst em
Ġcon cluded
Ġinc ub
sc ale
ĠAn n
Ġconsider ation
Ġaccom pl
Ġjuris diction
l ang
ĠP H
ak ed
Ġwor se
ĊĊ ĉĉ
Ġbas eline
ĠCar ol
Ġstart s
Ġdoc uments
f ind
eg er
Cont rol
j u
re al
ĠS E
ĠB razil
Ġor al
he ther
ĠM ot
Ġra re
OR T
Ġnumer ous
Ġaspect s
B R
ĠE X
________ ________
S L
requ est
M I
N umber
Ġro ck
Ġstrateg ies
Ġmod ified
Ġsuggest ing
m L
Ġpro lif
Ġsup ra
en ess
ell o
Ġrest aur
Ġcommon ly
D B
S cript
Ġdifferent ial
\* \*
RESUL TS
D C
m g
Ġthe orem
Ġar range
Ġpers ons
cont in
Ġcl ar
app end
Ġrequire ment
Ġm eta
ra q
.. \
Ġsecond s
Ġsto pped
ĠMETHOD S
G G
p hen
Ġunder w
P art
Ġsee king
Ġsurg ical
ĠM ad
ĠB ur
Ġnot es
Ġmicro sc
Ġneur ons
cont rol
M in
C OM
Ġexpl an
Ġrecomm ended
Ġsupport ing
Ġpop ulations
m ethod
Ġsuccess fully
Ġarch itect
Ġmanus cript
S O
Ġs i
Ġdi vers
trans lation
% ),
ens ed
ĠAfric a
à ®
Ġre nder
el es
Ġdel iver
Ġinj uries
Ġtiss ues
ĠRepublic an
Ġsymmet ry
ĠâĢ ¦
ER R
Dis closure
Ġc as
n ull
Ġch ief
Ġpre v
12 0
ĠAN Y
Y our
Ġdefin itely
ust er
Ġinc idence
clus ions
Ġen able
Ġsc hed
Ġsign s
Ġf ol
ir ty
Ġab und
}} }
equ iv
Ġfib er
> (
Ġthe rapeutic
Ġdepend ent
Ġc row
Ġph arm
cal e
Ġpract ices
Ġemerg ency
S R
Ġide al
Ġinteg ral
1 10
N ote
U P
h yd
ag ger
Ġper m
ĠThe ir
ort ed
ĠG old
Ã Ĺ
Ġrepl aced
ĠS and
Ġhe m
ĠMed icine
Ġear th
sm all
Ġc ort
Ġto ler
miss ions
Ġcam era
q l
Ġoff set
Ġend ed
Ġdest roy
arg s
ĠJust ice
AIM S
Ġbe at
Ġconsum ption
b rid
Ġcon j
Ġcontin ues
ern el
act iv
Ġso le
201 9
Ġmil es
red ients
ĠV ir
Ġcell ular
Ġdes c
il ton
ad s
Ġv itro
Ġwas te
Ġ5 7
Ġinter act
y e
Ġ ì
se arch
ĠGe orge
H ead
y an
| {\
Ġviol ation
Ġphot o
v als
Ġo rient
Ġret ro
S ON
m as
t xt
Ġsol ve
ri ers
Ġgirl s
v ant
om er
pl ant
Ġt aste
Ġdis cretion
Ġcar cin
Ġhor iz
Ġc art
Ġentire ly
B ase
ĠF our
ap se
ĠS ant
od ed
Ġappear ance
/ -
Ġamount s
ĠInst ead
ĠB ill
Ġbr and
Ġb ird
ĠH uman
m i
as y
ĠL ike
Ġprom ote
Ġfra ud
Fr ame
Ġs outh
st ar
ft ware
' ).
G B
ĠP ak
ĠF ile
ĠL ie
Ġeffect ively
Ġt ag
ĠE qu
\] ),
Ġreport ing
AR R
L A
Ġad mitted
ĠMin ister
e z
ĠI V
ort ion
Ġte aching
] $
Ġf ont
ĠG al
Ġsc ope
Ġl os
Ġst ack
ad ian
A re
Ġun ion
TY PE
Ð »
Ġpart ner
Ġorgan ic
$ _
č Ċĉĉĉ
ĠS am
++ )
Ġbehavi our
m atch
ĠT ur
** *
INT RODUCTION
T wo
Ġgra v
Ġunder stood
sc he
go ogle
p ush
ĠT imes
ĠCent ral
Ġst reet
M ay
Ġassum ed
ĠN av
Ġun able
Ġinf o
ĠN or
Ġsp at
ĠOb ject
Ġreg ression
rodu ction
Ġass istance
Ġjust ice
Ġkeep ing
Ġp ump
Ġcomp ound
dd en
# :
Ġconcer ning
ĠA PI
Ġdec ades
Ġobserv ations
n ap
Ġal t
Ġli ability
or ters
Ġ5 9
Ġatt ached
Ġabsol ute
Ġ iron
Ġun a
Ġpartic le
ole cules
call ed
i ological
Ġpan cre
Ġcharacter ized
g ers
Ġs ought
Ġf av
Ġcou pling
P lease
re p
Ġm es
am m
ĠA cc
ĠA lex
ive red
ĠCh icago
Ġpl astic
Ġn om
val u
Ġtri p
Ġmass ive
E CT
Ġper man
Ġprop ag
ĠI raq
,\ *
Ġid x
Ġresearc hers
Ġre form
ĠN a
Ġap opt
Ġb one
Ġn orth
Ġdis k
h igh
add ing
Ġgra de
ĠÎ ²
ĠR ad
Ġ{ }
Ġass igned
Ġsupp l
Ġobject ive
H R
Ĩ Ĵ
Ġam plit
pro perty
Ġneighbor hood
Ġcontain er
Ġresid ents
G R
ĠS D
ul ed
Ġch annels
Ġact ing
Ġtot ally
Ġ[ [
RE F
or al
Ġr ig
ollow ing
Ġep it
t w
ĠW ill
Ġme rely
Ġstruct ural
Ġcontribut ions
x p
ĠM ex
Ġ9 9
ĠCh ild
N U
and er
ĠN O
um s
Ġim possible
Ġman aged
Ġph il
] ]
Al though
Ġtr uly
Ġinject ion
Ġsq rt
as hed
ĠSt ar
Ġgu ard
Ġfin ish
ĠJoh nson
Ġord ers
h ydro
ul ating
ĠL ife
Ġlink ed
Ġmess ages
c ers
ĠJ ones
ook ing
ampions hip
N D
Ġmar riage
Ġproport ion
n orm
Ġf re
Ġpar allel
Se lect
Ġclust er
Ġth reshold
Ġinv ent
Ġlar g
che m
Ġrecept ors
Ġprepar ation
l ocation
Ġas sembly
ER T
Ġmin ute
m d
Ġed itor
Ġprinc ipal
abet es
G E
Ġ\ >
v a
ĠG reat
Ġsc an
Ġbro ken
Ġcomplic ations
) }\
medi ate
Ġpredict ed
Ġb attle
du le
Ġcons c
t ings
he rent
Ġcol le
p ng
Ġinform ed
priv ate
lect ric
Pro v
ĠL ord
rou ps
Ġauthor ities
Ġprinc iple
wed ge
un s
{ (
} )\
Ġb ranch
Ġ_ ,
Ġcor on
P ost
r b
ens us
ident ial
Ġcoh ort
Ġident ification
G en
Ġscient ific
a o
ch ron
. -
G O
ogen ic
ag en
ty le
M D
ĠA rab
A m
f ast
Ġan c
Ġsens itive
Ġinhib ition
Ġpict ures
Ġlow est
T ra
W here
Ġa id
Ġcomp re
Ġsupp lement
F P
li k
athe red
Ġf an
Ġsu dden
Ġsec ure
Ġcris is
M at
Ġmil k
Ġ19 99
Ġf aster
ar ks
Ġdi ameter
Ġconv iction
Ġcon sole
K P
Ġar ms
ott ed
Ġprog ression
Ġneigh b
Ġsupport s
Ġcandid ates
Ġinn ov
Ġlarg ely
Ġf ell
ro ot
Ġfl oat
Ġredu cing
fl oat
N N
Ġc ogn
Ġhum ans
D ec
t x
Ġp ed
Ġf ish
Ġad en
Ġun iversity
Ġclass ical
Ġlas er
ä º
ĠM s
av as
St atus
An other
pro p
