{"[UNK]":0,"[CLS]":1,"[SEP]":2,"[PAD]":3,"[MASK]":4,"!":5,"\"":6,"#":7,"$":8,"%":9,"&":10,"'":11,"(":12,")":13,"*":14,"+":15,",":16,"-":17,".":18,"/":19,"0":20,"1":21,"2":22,"3":23,"4":24,"5":25,"6":26,"7":27,"8":28,"9":29,":":30,";":31,"<":32,"=":33,">":34,"?":35,"@":36,"A":37,"B":38,"C":39,"D":40,"E":41,"F":42,"G":43,"H":44,"I":45,"J":46,"K":47,"L":48,"M":49,"N":50,"O":51,"P":52,"Q":53,"R":54,"S":55,"T":56,"U":57,"V":58,"W":59,"X":60,"Y":61,"Z":62,"[":63,"\\":64,"]":65,"^":66,"_":67,"`":68,"a":69,"b":70,"c":71,"d":72,"e":73,"f":74,"g":75,"h":76,"i":77,"j":78,"k":79,"l":80,"m":81,"n":82,"o":83,"p":84,"q":85,"r":86,"s":87,"t":88,"u":89,"v":90,"w":91,"x":92,"y":93,"z":94,"{":95,"|":96,"}":97,"~":98,"¡":99,"¢":100,"£":101,"¤":102,"¥":103,"¦":104,"§":105,"¨":106,"©":107,"ª":108,"«":109,"¬":110,"®":111,"¯":112,"°":113,"±":114,"²":115,"³":116,"´":117,"µ":118,"¶":119,"·":120,"¸":121,"¹":122,"º":123,"»":124,"¼":125,"½":126,"¾":127,"¿":128,"Â":129,"Ã":130,"Ä":131,"Å":132,"Æ":133,"Ç":134,"È":135,"É":136,"Ê":137,"Ë":138,"Ì":139,"Í":140,"Î":141,"Ï":142,"Ð":143,"Ñ":144,"Ò":145,"Ó":146,"Ô":147,"Õ":148,"Ö":149,"×":150,"Ø":151,"Ù":152,"Ú":153,"Û":154,"Ü":155,"Þ":156,"ß":157,"à":158,"á":159,"â":160,"ã":161,"ä":162,"å":163,"æ":164,"ç":165,"è":166,"é":167,"ê":168,"ë":169,"ì":170,"í":171,"î":172,"ï":173,"ð":174,"Ā":175,"ā":176,"Ă":177,"ĉ":178,"Ċ":179,"ċ":180,"Č":181,"č":182,"ě":183,"Ġ":184,"ġ":185,"Ģ":186,"ģ":187,"Ĥ":188,"ĥ":189,"Ħ":190,"ħ":191,"Ĩ":192,"ĩ":193,"Ī":194,"ī":195,"Ĭ":196,"ĭ":197,"Į":198,"į":199,"İ":200,"ı":201,"Ĳ":202,"ĳ":203,"Ĵ":204,"ĵ":205,"Ķ":206,"ķ":207,"ĸ":208,"Ĺ":209,"ĺ":210,"Ļ":211,"ļ":212,"Ľ":213,"ľ":214,"Ŀ":215,"ŀ":216,"Ł":217,"ł":218,"Ń":219,"ĠĠ":220,"Ġt":221,"Ġa":222,"in":223,"he":224,"re":225,"on":226,"ĠĠĠĠ":227,"Ġthe":228,"at":229,"er":230,"Ġs":231,"en":232,"Ġo":233,"Ġc":234,"Ġw":235,"is":236,"or":237,"it":238,"es":239,"al":240,"ed":241,"an":242,"Ġp":243,"Ġf":244,"Ġb":245,"Ġan":246,"ing":247,"Ġin":248,"Ġof":249,"ar":250,"ion":251,"ou":252,"Ġm":253,"Ġd":254,"ic":255,"le":256,"Ġto":257,"--":258,"as":259,"Ġand":260,"ro":261,"ĠĠĠĠĠĠĠĠ":262,"ent":263,"Ġth":264,"ct":265,"Ġh":266,"Ġre":267,"et":268,"Ġn":269,"el":270,"st":271,"om":272,"il":273,"Ġe":274,"Ġl":275,"id":276,"ig":277,"im":278,"ot":279,"ve":280,"Ġis":281,"ut":282,"Ġg":283,"Ġ(":284,"ĠT":285,"ol":286,"am":287,"ĠI":288,"ation":289,"----":290,"se":291,"âĢ":292,"ce":293,"ly":294,"Ġfor":295,"==":296,"ur":297,"ĠS":298,"Ġbe":299,"ow":300,"Ġthat":301,"Ġu":302,"ĠĠĠ":303,"ra":304,"Ġon":305,"ĠA":306,"ĠC":307,"ver":308,"Ġst":309,"ch":310,"Ġ1":311,"ul":312,"ith":313,"if":314,"ad":315,"ay":316,"Ġcon":317,"Ġwith":318,"Ġy":319,"Ġas":320,"ir":321,"od":322,"Ġ$":323,"Ġpro":324,"ter":325,"ate":326,"ĠĠĠĠĠĠĠĠĠĠĠĠĠĠĠĠ":327,"um":328,"Ġit":329,"ĠM":330,"ab":331,"Ġwe":332,"her":333,"00":334,"pp":335,"Ġal":336,"ri":337,"Ġ\"":338,"Ġv":339,"ge":340,"nd":341,"Ġ2":342,"Ġde":343,"ĠP":344,"Ġwh":345,"res":346,"ect":347,"qu":348,"os":349,"ment":350,"ht":351,"Ġyou":352,"Ġex":353,"est":354,"ist":355,"ac":356,"ĠThe":357,"Ġwas":358,"us":359,"ant":360,"ĠB":361,"Ġcom":362,"Ġor":363,"Ġ\\":364,"op":365,"Ġare":366,"Ġhe":367,"em":368,"Ġsu":369,"**":370,"iv":371,"--------":372,"th":373,"ity":374,"Ġat":375,"oc":376,"nt":377,"====":378,"ĠF":379,"ers":380,"Ġ=":381,"ain":382,"ess":383,"ĠH":384,"ore":385,"Ġby":386,"ĠD":387,"ill":388,"ld":389,"rom":390,"Ġ-":391,"and":392,"ĠW":393,"un":394,"Ġr":395,"Ġnot":396,"ight":397,"end":398,"ive":399,"Ġse":400,"Ġha":401,"ĠR":402,"ke":403,"ort":404,"ĠL":405,"pe":406,"ĠN":407,"Ġne":408,"Ġthis":409,"pt":410,"art":411,"âĢĻ":412,"Ġfrom":413,"ud":414,"ĊĠĠĠĠ":415,"red":416,"ial":417,"{\\":418,"pl":419,"ies":420,"Ġsh":421,"ĊĠĠĠ":422,"ĠG":423,"ction":424,"ĠE":425,"ell":426,"ated":427,"Ġch":428,"Ġhave":429,"ine":430,"our":431,"ure":432,"all":433,"Ġ0":434,"ould":435,"ag":436,"te":437,"Ġle":438,"'s":439,"per":440,"og":441,"ff":442,"Ġ*":443,"ical":444,").":445,"Ġcan":446,"ame":447,"ĠO":448,"ust":449,"Ġ3":450,"ue":451,"rou":452,"age":453,"ib":454,"cl":455,"iz":456,"ich":457,"ase":458,"ard":459,"able":460,"Ġres":461,"Ġus":462,"out":463,"Ġj":464,"ome":465,"ie":466,"Ġwhe":467,"Ġab":468,"act":469,"Ġcl":470,");":471,"Ġ{":472,"_{":473,"..":474,"ost":475,"Ġcomp":476,"ast":477,"ult":478,"ass":479,"ĠU":480,"ans":481,"Ġad":482,"ther":483,"Ġwere":484,"Ġcont":485,"Ġpl":486,"ĠJ":487,"ph":488,"ack":489,"Ġk":490,"Ġme":491,"01":492,"=\"":493,"ide":494,"ath":495,".\"":496,"Ġim":497,"ĊĠĠĠĠĠĠĠĠ":498,"orm":499,"ign":500,"The":501,"Ġall":502,"ĠâĢ":503,"ub":504,"Ġ[":505,"ĊĠ":506,"ition":507,"ip":508,"Ġ+":509,"Ġdo":510,"ap":511,"ak":512,"ind":513,"Ġhas":514,"ĊĠĠĠĠĠĠĠ":515,"ft":516,"ary":517,"ice":518,"ens":519,"Ġ4":520,"ime":521,"one":522,"Ġwhich":523,"ĉĉ":524,"cc":525,"du":526,"ĠIn":527,"ous":528,"========":529,"Ġapp":530,"Ġbut":531,"Ġtr":532,"Ġdis":533,"Ġint":534,"ents":535,"ress":536,"ations":537,"int":538,"Ġwor":539,"con":540,"ence":541,"are":542,"Ġwill":543,"ru":544,"ear":545,"ong":546,"ere":547,"),":548,"Ġgo":549,"ile":550,"----------------":551,"Ġ&":552,"ok":553,"Ġ5":554,"//":555,"ose":556,"Ġ<":557,"de":558,"}}":559,"ions":560,"Ġen":561,"Ġout":562,"ber":563,"ance":564,"Ġif":565,"ia":566,"Ġun":567,"Ġper":568,"au":569,"ĠTh":570,"av":571,"port":572,"ĠĠĠĠĠĠĠĠĠĠĠĠĠĠĠĠĠĠĠĠĠĠĠĠĠĠĠĠĠĠĠĠ":573,"gh":574,"ally":575,"so":576,"ely":577,"xt":578,"ory":579,"Ġone":580,"ace":581,"ty":582,"ang":583,"Ġqu":584,"ach":585,"Ġhis":586,"ord":587,"ire":588,"Ġev":589,"Ġthey":590,"iff":591,"ry":592,"âĢĿ":593,"Âł":594,"Ġso":595,"ree":596,"form":597,"Ġpart":598,"Ġar":599,"lic":600,"Ġmore":601,"ail":602,"Ġtheir":603,"ys":604,"ors":605,"Ġup":606,"cre":607,"ĠK":608,"Ġthere":609,"Ġpre":610,"Ġ$\\":611,"Ġsp":612,"ake":613,"Ġag":614,"ite":615,"ep":616,"Ġother":617,"ll":618,"ĠSt":619,"very":620,"ound":621,"Ġli":622,"ject":623,"vel":624,"com":625,"ne":626,"}\\":627,"ount":628,"own":629,"Ġsa":630,"Ġyour":631,"ĊĊ":632,"ata":633,"ates":634,"Ġbeen":635,"Ġhad":636,"right":637,"Ġany":638,"urn":639,"Ġman":640,"Ġalso":641,"Ġ}":642,"Ġwho":643,"Ġno":644,"ks":645,"erv":646,"we":647,"Ġ'":648,"ĠV":649,"Ġwould":650,"ric":651,"nder":652,"eth":653,"Ġ6":654,"ific":655,"Ġwhen":656,"erm":657,"Ġabout":658,"low":659,"Ġass":660,"[@":661,"Ġob":662,"}$":663,"ple":664,"Ġtime":665,"ĠâĢľ":666,"\\]":667,"ater":668,"ook":669,"^{":670,"ob":671,"Ġthan":672,"rac":673,"Ġmy":674,"wo":675,"Ġdef":676,"Ġover":677,"</":678,"Ġexp":679,"rib":680,"ĠĠĠĠĠĠĠ":681,"Ġsc":682,"Ġbet":683,"row":684,"Ġ19":685,"Ġits":686,"clud":687,"Ġdiff":688,"'t":689,"ref":690,"Ġsome":691,"fter":692,"Ġte":693,"math":694,"10":695,"lect":696,"Ġsy":697,"vers":698,"Ġgen":699,"Ġ_":700,"get":701,"old":702,"ode":703,"ces":704,"Ġsub":705,"Ġnew":706,"In":707,"hat":708,"ove":709,"Ġinter":710,"ied":711,"ps":712,"Ġoff":713,"irst":714,"Ġam":715,"ring":716,"pec":717,"ays":718,"Ġrec":719,"ĠY":720,"reat":721,"Ġfe":722,"Ġacc":723,"Ġcomm":724,"Ġpat":725,"19":726,"ced":727,"ause":728,"Ġact":729,"Ġkn":730,"Ġunder":731,"Ġour":732,"Ġrel":733,"Ġval":734,"Ġcons":735,"Ġget":736,"ink":737,"ov":738,"Ġdes":739,"Ġpe":740,"ild":741,"Ġ7":742,"ative":743,"ĊĠĠĠĠĠĠĠĠĠĠĠ":744,"Ġinto":745,"left":746,"ef":747,"ari":748,"ings":749,"iss":750,"ĠIt":751,"Ġonly":752,"Ġstud":753,"ual":754,"ert":755,"Ġtwo":756,"Ġmay":757,"Ġyear":758,"Ġsaid":759,"ma":760,"âĶ":761,"Ġbec":762,"ons":763,"Ġwork":764,"##":765,"ular":766,"pro":767,"Ġpos":768,"iew":769,"Ġinv":770,"12":771,"Ġro":772,"Ġher":773,"Ġreg":774,"Ġadd":775,"Ġ8":776,"ĠCh":777,"Ġuse":778,"unction":779,"Ġtrans":780,"Ġthem":781,"igh":782,"Ġmod":783,"Ġret":784,"ian":785,"ex":786,"Ġlike":787,"ark":788,"Ġwhat":789,"ĠThis":790,"hed":791,"ick":792,"oint":793,"Ġem":794,"ck":795,"ased":796,"âĶĢ":797,"Ġsuch":798,"Ġpres":799,"Ġbl":800,"Ġform":801,"ond":802,"olog":803,"ating":804,"Ġph":805,"Ġ201":806,"Ġeff":807,"cess":808,"ĠWe":809,"Ġco":810,"Ġcol":811,"Ġdiffere":812,"Ġfirst":813,"itt":814,"Ġthese":815,"ock":816,"ient":817,"Ġresp":818,"ility":819,"Ġ9":820,"ments":821,"Ġjust":822,"âĶĢâĶĢ":823,"stem":824,"ont":825,"elf":826,"Ġprov":827,"Ġ10":828,"ox":829,"ish":830,"Ġafter":831,"Ċĉĉ":832,"Ġwhere":833,"ween":834,"oth":835,"Ġdet":836,"Ġsign":837,"ĊĠĠĠĠĠ":838,"11":839,"Ġthen":840,"aw":841,"ident":842,"ss":843,"Ġneed":844,"Ġset":845,"ec":846,"Ġpol":847,"Ġind":848,"ange":849,"ict":850,"ood":851,"ution":852,"Ġhow":853,"Ġbetween":854,"the":855,"ople":856,"Ġclass":857,"ublic":858,"Ġcould":859,"ise":860,"================":861,"Ġresult":862,"Ġrem":863,"sp":864,"Ġgrou":865,"ize":866,"ype":867,"ollow":868,"cept":869,"ix":870,"eg":871,"les":872,"()":873,"Ġatt":874,"Ġtra":875,"ients":876,"up":877,"\",":878,"Ġra":879,"ough":880,"Ġinclud":881,"Ġsupp":882,"Ġpr":883,"Ġused":884,"ious":885,"eld":886,"St":887,"ourt":888,"Ġdata":889,"ible":890,"Ġnum":891,"20":892,"tern":893,"Ġcell":894,"cy":895,"Ġshe":896,"ble":897,"Ċĉ":898,"Ġshow":899,"inal":900,"oy":901,"Ġac":902,"Ġfact":903,"Ġsur":904,"Ġ\\[":905,"ER":906,"Ġcor":907,"Ġsim":908,"Ġdid":909,"Ġshould":910,"ues":911,"ax":912,"type":913,"Ġknow":914,"\">":915,"Ġfollow":916,"ĠUn":917,"Ġspec":918,"Ġend":919,"ĠHe":920,"Ġpeople":921,"fig":922,"ull":923,"Ġfunction":924,"Ġdist":925,"pos":926,"000":927,"ram":928,"its":929,"der":930,".,":931,"Ġfl":932,"ning":933,"ren":934,"](":935,"hen":936,"rough":937,"fore":938,"Ġbecause":939,"ON":940,"ined":941,"als":942,"__":943,"Ġrequ":944,"ited":945,"Ġusing":946,"ield":947,"ities":948,"ade":949,"ics":950,"ever":951,"15":952,"ruct":953,"ms":954,"Ġsee":955,"ract":956,"IN":957,"ĊĠĠĠĠĠĠĠĠĠĠĠĠĠĠĠĠ":958,"rit":959,"Ġmost":960,"Ġinf":961,"Ġsm":962,"ection":963,"Ġi":964,"Ġconst":965,"){":966,"Ġinst":967,"Ġback":968,")$":969,"13":970,"Ġgener":971,"ful":972,"Ġ.":973,"uring":974,"16":975,"Ġwell":976,"Ġtest":977,"Ġext":978,"]{":979,"Ġsystem":980,"duct":981,"Ġ:":982,"Ġthrough":983,"frac":984,"ures":985,"ational":986,"->":987,"Ġhim":988,"Ġdifferent":989,"_{\\":990,"Ġright":991,"--------------------------------":992,"Ġcase":993,"to":994,"Ġeach":995,"Ġagain":996,"li":997,"Ġchar":998,"Ġreturn":999,"ute":1000,"Ġbu":1001,"ower":1002,"mer":1003,"ator":1004,"14":1005,"âĢī":1006,"Ġref":1007,"ew":1008,"sc":1009,"Ġwant":1010,"Ġpatients":1011,"ĠĠĠĠĠ":1012,"ĊĠĠĠĠĠĠĠĠĠĠĠĠĠĠĠ":1013,"ically":1014,"Ġhigh":1015,"ized":1016,"Ġdoes":1017,"Ġeffect":1018,"hes":1019,"imes":1020,"(\\":1021,"Ġent":1022,"))":1023,"ins":1024,"Ġ[@":1025,"Th":1026,"io":1027,"uch":1028,"cond":1029,"pr":1030,"Ġstate":1031,"},":1032,"text":1033,"round":1034,"val":1035,"ily":1036,"nce":1037,"Ġmin":1038,"err":1039,"Ġincre":1040,"Ġmake":1041,"Ġanal":1042,"put":1043,"...":1044,"Ġsame":1045,"Ġcur":1046,"ool":1047,"****":1048,"ethod":1049,"$\\":1050,"ript":1051,"uc":1052,"par":1053,"vent":1054,"wn":1055,"ger":1056,"let":1057,"Ġpar":1058,"Ġ200":1059,"Ġevery":1060,"ta":1061,"cent":1062,"],":1063,"Ġeven":1064,"other":1065,"set":1066,"Ġinte":1067,"Ġyears":1068,"aint":1069,"ared":1070,"ES":1071,"ork":1072,"Ġdi":1073,"Ġmon":1074,"Ġfind":1075,"rol":1076,"oci":1077,"cer":1078,"ases":1079,"18":1080,"Ġpoint":1081,"ym":1082,"atic":1083,"Ġtri":1084,"arch":1085,"ug":1086,"Ġcall":1087,"ants":1088,"Ġthose":1089,"app":1090,"Ġx":1091,"Ġmed":1092,"ince":1093,"Ġpartic":1094,"Ġ|":1095,"ĠSe":1096,"velop":1097,"Ġboth":1098,"Ġway":1099,"cal":1100,"ven":1101,"Ġnow":1102,"Ġdon":1103,"ample":1104,"Ġ12":1105,"Ġvery":1106,"ense":1107,"Ġvari":1108,"Ġ@":1109,"ected":1110,"read":1111,"Ġmat":1112,"rent":1113,"Ġser":1114,"dition":1115,"ason":1116,"Ġappro":1117,"Ġlong":1118,"und":1119,"irect":1120,"AT":1121,"yl":1122,"Ġdec":1123,"ĠCom":1124,"ages":1125,"Ġke":1126,"ward":1127,"Ġnumber":1128,"Ġexper":1129,"Ġhere":1130,"Ġfound":1131,"led":1132,"50":1133,"Ġbel":1134,"eta":1135,"rm":1136,"Ġaut":1137,"Ġbeing":1138,"}{":1139,"Ġcar":1140,"Ġlook":1141,"Ġplay":1142,"tr":1143,"Ġloc":1144,"ression":1145,"Ġbefore":1146,"ved":1147,"yp":1148,"\"}":1149,"ines":1150,"oid":1151,"alth":1152,"over":1153,"ife":1154,"17":1155,"Ġpublic":1156,"Ġpers":1157,"Ġel":1158,"Ġmany":1159,"ĠQ":1160,"Ġ/":1161,"Ġvalue":1162,"sh":1163,"ateg":1164,"rest":1165,"ified":1166,"ively":1167,"Ġcourt":1168,"30":1169,"ature":1170,"aking":1171,"Ġop":1172,"?\"":1173,"Ġstudy":1174,"',":1175,"It":1176,"Ġgu":1177,"erg":1178,"Ġmodel":1179,"Ġfil":1180,"32":1181,"Ġrep":1182,"upp":1183,"ting":1184,"Ġthink":1185,"air":1186,"Ġequ":1187,"201":1188,"Ġreport":1189,"pend":1190,"ĠÂ":1191,"Ġche":1192,"Ġmem":1193,"ank":1194,"Ġ//":1195,"ody":1196,"cul":1197,"line":1198,"\":":1199,"](#":1200,"ale":1201,"ray":1202,"Ġpresent":1203,"Ġhel":1204,"of":1205,"ng":1206,"Ġsol":1207,"Ġest":1208,"ĠFor":1209,"ash":1210,"Ġgiv":1211,"min":1212,"Ġprog":1213,"ired":1214,"Ġgood":1215,"view":1216,"Ġwhile":1217,"ices":1218,"ave":1219,"ĠRe":1220,"ism":1221,"Ġmade":1222,"Ġdisc":1223,"::":1224,"Ġprocess":1225,".âĢĿ":1226,"]\\]":1227,"formation":1228,"Ġterm":1229,"day":1230,"igned":1231,"Ġlar":1232,"ness":1233,"Ġlevel":1234,"We":1235,"25":1236,"gg":1237,"Ġdevelop":1238,"Ġnon":1239,"ole":1240,"ving":1241,"Ġname":1242,"ĊĊĠĠĠ":1243,"eng":1244,"Ġstart":1245,"Ġsupport":1246,"ision":1247,"Ġdown":1248,"ann":1249,"Ġcount":1250,"ĠLet":1251,"abel":1252,"Ġserv":1253,"ality":1254,"ained":1255,"Ġposs":1256,"://":1257,"ĠĠĠĠĠĠ":1258,"ĠIf":1259,"Ġmuch":1260,"AR":1261,"Ġins":1262,"ĠPro":1263,"ider":1264,"amb":1265,"ĠâĢĵ":1266,"Ġread":1267,"EN":1268,"Ġmethod":1269,"ential":1270,"mon":1271,"$,":1272,"ource":1273,"pha":1274,"ĠAl":1275,"Ġthree":1276,"ually":1277,"Ġsecond":1278,"$.":1279,"Ġhand":1280,"lement":1281,"med":1282,"ret":1283,"Ġorder":1284,"bb":1285,"Ġconf":1286,"24":1287,"ctions":1288,"Ġwithout":1289,"Ġown":1290,"uss":1291,"OR":1292,"Ġstr":1293,"^{\\":1294,"any":1295,"ght":1296,"Ġduring":1297,"part":1298,"Ġgroup":1299,"Ġpri":1300,"str":1301,"Ġline":1302,"\\[":1303,"NA":1304,"(-":1305,"way":1306,"ST":1307,",\\":1308,"amp":1309,"arly":1310,"ization":1311,"ional":1312,"ĠHow":1313,"idence":1314,"ify":1315,"ns":1316,"]{}":1317,"Ġant":1318,"ĠAnd":1319,"80":1320,"ĠAs":1321,"Ġ\\[[@":1322,"Ġ20":1323,"ner":1324,"Ġimport":1325,"Ġactiv":1326,"ĠĠĠĠĠĠĠĠĠĠĠĠĠĠĠĠĠĠĠĠĠĠĠĠĠĠĠĠĠĠĠĠĠĠĠĠĠĠĠĠĠĠĠĠĠĠĠĠĠĠĠĠĠĠĠĠĠĠĠĠĠĠĠĠ":1327,"ology":1328,",\"":1329,"oad":1330,"Ġsignific":1331,"Ġperform":1332,"CR":1333,"ency":1334,"(\"":1335,"ability":1336,"cript":1337,"ists":1338,"What":1339,"Ġhelp":1340,"raph":1341,"gan":1342,"Ġtype":1343,"âĶĢâĶĢâĶĢâĶĢ":1344,"22":1345,"tt":1346,"ĠBut":1347,"Ġcre":1348,"Ġproper":1349,"Ġoper":1350,"ton":1351,"Ġmet":1352,"mb":1353,"irc":1354,"Ġproble":1355,"ron":1356,"alpha":1357,"ument":1358,"ided":1359,"Ġcle":1360,"Ġcells":1361,"ration":1362,"Ġsmall":1363,"ulation":1364,"Ġlast":1365,"40":1366,"name":1367,"Ġlead":1368,"ah":1369,"ital":1370,"ather":1371,"CT":1372,"Ġagainst":1373,"Ġpur":1374,"IT":1375,"Ġmust":1376,"Ġsay":1377,"Ġet":1378,"Ġlaw":1379,"Ġav":1380,"âĢľ":1381,"acter":1382,"man":1383,"aim":1384,"Ġtreat":1385,"ĠYou":1386,"ral":1387,"Ġtake":1388,"ran":1389,"itive":1390,"Ġiss":1391,"rict":1392,"ysis":1393,"ivers":1394,"Ġ**":1395,"for":1396,"Ġ15":1397,"ered":1398,"dd":1399,"Let":1400,"less":1401,"Ġlet":1402,"hip":1403,"Ġinc":1404,"ĠAn":1405,"Ġsignificant":1406,"da":1407,"Ġperson":1408,"33":1409,"alk":1410,"Ġquest":1411,"Ġchild":1412,"Ġstill":1413,"Ġcou":1414,"Ġfin":1415,"Ġrun":1416,"ouse":1417,"ters":1418,"Ġopt":1419,"Ġcontrol":1420,"not":1421,"urther":1422,"agn":1423,"Ġfam":1424,"chn":1425,"Ġsom":1426,"ination":1427,"Ġ--":1428,"ross":1429,"Ġelect":1430,"rt":1431,"ww":1432,"aterial":1433,"Ġlim":1434,"Ġexpl":1435,"ml":1436,"Ġcent":1437,"Ġresults":1438,"oot":1439,"ĠNew":1440,"Ġmeas":1441,"Ġdirect":1442,"].":1443,"ploy":1444,"AL":1445,"que":1446,"ars":1447,"serv":1448,"60":1449,"ier":1450,"Ġinformation":1451,"Ex":1452,"Ġstand":1453,"Ġident":1454,"Ġz":1455,"Ġpost":1456,"oh":1457,"27":1458,"vious":1459,"Ġgl":1460,"Ġdeterm":1461,"âĢĵ":1462,"();":1463,"Ġcontin":1464,"64":1465,"AN":1466,"yn":1467,"ead":1468,"ention":1469,"Ġday":1470,"Ġ18":1471,"ek":1472,"200":1473,"Ġstat":1474,"Ġfollowing":1475,"ides":1476,"atch":1477,"99":1478,"lease":1479,"Ġaff":1480,"ording":1481,"meric":1482,"ior":1483,"ots":1484,"ately":1485,"This":1486,"Ġallow":1487,"Ġed":1488,"aj":1489,"Ġprodu":1490,"work":1491,"me":1492,"23":1493,"Ġdel":1494,"Ġgoing":1495,"05":1496,"ience":1497,"âĢĶ":1498,"def":1499,"eral":1500,"resent":1501,"ames":1502,"ote":1503,"Ġmult":1504,"Ġreal":1505,"âĪ":1506,"Ġbre":1507,"ĊĠĠ":1508,"Ġcondition":1509,"Ġ,":1510,"Ġca":1511,"ission":1512,"cur":1513,"ets":1514,"ived":1515,"ured":1516,"Ġwithin":1517,"Ġcurrent":1518,")\\":1519,"Ġprot":1520,"ium":1521,"ves":1522,"Ġsince":1523,"ural":1524,"28":1525,"Ġredu":1526,"ently":1527,"Pro":1528,"45":1529,"ule":1530,"Ġrece":1531,"amet":1532,"}(":1533,"Ġmean":1534,"ished":1535,"Ġinterest":1536,"land":1537,"Ġcare":1538,"bf":1539,"ID":1540,",âĢĿ":1541,"Ġgover":1542,"lex":1543,"rid":1544,"Ġinvest":1545,"Ġdev":1546,"be":1547,"akes":1548,"Ġstruct":1549,"vert":1550,"Ġrest":1551,"Ġhealth":1552,"Ġfield":1553,"Con":1554,"az":1555,"Ġerr":1556,"ĠX":1557,"Ġworld":1558,"Ġwr":1559,"35":1560,"Ġaddition":1561,"crib":1562,"Ġlife":1563,"ains":1564,"ãģ":1565,"Fig":1566,"mathcal":1567,"Ġpass":1568,"ump":1569,"Ġbas":1570,"ambda":1571,"Ġrespect":1572,"Ġaround":1573,"pi":1574,"Ġexample":1575,"ĠTr":1576,"arm":1577,"Ġ14":1578,"Ġclaim":1579,"Ġ$$\\":1580,"chool":1581,"ives":1582,"ĠDe":1583,"Ġopen":1584,"bers":1585,"Ġmark":1586,"ially":1587,"0000":1588,"Ġve":1589,"Ġassoci":1590,"ĠSh":1591,"gen":1592,"Ġanother":1593,"arent":1594,"Ġinde":1595,"use":1596,"ĠHowever":1597,"SE":1598,"Ġarg":1599,"Ġ16":1600,"Ġcommun":1601,"son":1602,"ĠCl":1603,"ane":1604,"Ã©":1605,"26":1606,"rel":1607,"htt":1608,"Ġincluding":1609,"Ġart":1610,"Ġimp":1611,"Ġhum":1612,"36":1613,"ĠWh":1614,"anc":1615,"Ġlow":1616,"Ġgiven":1617,"Ġocc":1618,"Ġhig":1619,"ither":1620,"=\\":1621,"Ġmonth":1622,"Ġlist":1623,"nment":1624,"ee":1625,"ribut":1626,"arg":1627,"29":1628,"Ġprogram":1629,"Ġpower":1630,"Ġchang":1631,"ĠZ":1632,"'m":1633,"reg":1634,"rap":1635,"####":1636,"Ġtem":1637,"Ġpot":1638,"Ġgreat":1639,"here":1640,"iness":1641,"face":1642,"37":1643,"ways":1644,"ining":1645,"Ġadv":1646,"Ġtop":1647,"Ġtry":1648,"label":1649,"Ġbeh":1650,"ott":1651,"}^{":1652,"self":1653,"Ġcal":1654,"ĠInd":1655,"Ġreally":1656,"ĠNo":1657,"Ġ*/":1658,"ffic":1659,"Ġmight":1660,"Ġobject":1661,"ĠAmeric":1662,"yt":1663,"Ġanalysis":1664,"Ġcr":1665,"Ġsl":1666,"Ġcap":1667,"IC":1668,"Ġless":1669,"38":1670,"Ġhead":1671,"Ġ</":1672,"ĠPh":1673,"('":1674,"aining":1675,"ury":1676,")/":1677,"ething":1678,"ably":1679,"hor":1680,"bl":1681,"Ġes":1682,"Ġhapp":1683,"You":1684,"Ġfew":1685,"================================":1686,"Ġbased":1687,"opy":1688,"angle":1689,"Ġtoo":1690,"Ġplace":1691,"alse":1692,"onse":1693,"stand":1694,"}_":1695,"ĠApp":1696,"Ġself":1697,"ategory":1698,"Ġapplic":1699,"RE":1700,"Ġ#":1701,"roll":1702,"arn":1703,"Ġimportant":1704,"ety":1705,"ird":1706,"ĠThey":1707,"21":1708,"ION":1709,"Ġindic":1710,"thing":1711,"^,":1712,"icro":1713,"Ġchange":1714,"ivid":1715,"mu":1716,"Ġtechn":1717,"Ġevidence":1718,"Ġproduct":1719,"Ġsing":1720,"erence":1721,"Ġobt":1722,"sec":1723,"34":1724,"Ġprob":1725,"Ch":1726,"ised":1727,"Ġbi":1728,"Ġteam":1729,"ts":1730,"Ġfour":1731,"var":1732,"---":1733,"leg":1734,"Ġrese":1735,"Ġunt":1736,"Ġmot":1737,"Ġ11":1738,"Ġsugg":1739,"39":1740,"]\\].":1741,"Ġsuggest":1742,"Ġbus":1743,"Ġtreatment":1744,"Ġwhether":1745,"Ġ{#":1746,"ser":1747,"Ġgra":1748,"ples":1749,"Ġ30":1750,"by":1751,"arget":1752,"Ġvis":1753,"lection":1754,"plic":1755,"LE":1756,"Ġhome":1757,"els":1758,"osed":1759,"Ġfile":1760,"ought":1761,"Ġpop":1762,"abl":1763,"ĠWhat":1764,"elta":1765,"70":1766,"lu":1767,"Ġleg":1768,"ength":1769,"ĠThere":1770,"Ġcommon":1771,"Ġfail":1772,"ergy":1773,"ĠIs":1774,"Ġnext":1775,"fer":1776,"unt":1777,"Ġobserv":1778,"ault":1779,"Ġwom":1780,"mun":1781,"ery":1782,"Ġdefend":1783,"Ġdri":1784,"ĠEx":1785,"Ġpath":1786,"ilar":1787,"ĊĊĠ":1788,"Ġprote":1789,"Ġbest":1790,"Ġgr":1791,"ormal":1792,"amma":1793,"Ġlarge":1794,"Ġsomething":1795,"rop":1796,"Ġleft":1797,"Ġput":1798,"requ":1799,"oss":1800,"used":1801,"action":1802,"ertain":1803,"Ġdescrib":1804,"Re":1805,"Cl":1806,"ĠSo":1807,"ccess":1808,"Ġinvol":1809,"Ġbetter":1810,"Ġgrow":1811,"Ġconn":1812,"sum":1813,"âĪĴ":1814,"Name":1815,"Ġbelie":1816,"}_{":1817,"75":1818,"Ġproblem":1819,"por":1820,"phi":1821,"mathbb":1822,"Ġparticular":1823,"Ġabove":1824,"44":1825,"Ġprof":1826,"Ġrepresent":1827,"ware":1828,"cont":1829,"Ġbo":1830,"ittle":1831,"'re":1832,"Ġtrue":1833,"div":1834,"Ġtot":1835,"Ġimpro":1836,"AS":1837,"90":1838,"ĠCon":1839,"95":1840,"Ġconsider":1841,"To":1842,"hib":1843,"Ġfr":1844,"isk":1845,"Ġreason":1846,"att":1847,"Ġrecord":1848,"Com":1849,"Ġask":1850,"ification":1851,"Ġla":1852,"ĠAll":1853,"$$":1854,"col":1855,"Ġsit":1856,"Ġleast":1857,"Ġpossible":1858,"Ġnet":1859,"Ġseem":1860,"Ġnever":1861,"Ġeas":1862,"version":1863,"Ġcharacter":1864,"ĠUS":1865,"ext":1866,"ĠĠĠĠĠĠĠĠĠĠĠĠĠĠĠĠĠĠĠĠĠĠĠĠ":1867,"Ġproject":1868,":**":1869,"ene":1870,"ED":1871,"iversity":1872,"ush":1873,"ĠPl":1874,"ina":1875,"RO":1876,"Ġwater":1877,"Ġsk":1878,"osp":1879,"add":1880,"Ġmov":1881,"IS":1882,"che":1883,"Ġquestion":1884,"ream":1885,"********":1886,"ĠUnited":1887,"Ġposition":1888,"ĠState":1889,"ats":1890,"He":1891,"ological":1892,"Ġ==":1893,"aligned":1894,"Ġhist":1895,"Ġturn":1896,"ajor":1897,"Ġdue":1898,"Ġview":1899,"Ġpay":1900,"new":1901,"Ġexpression":1902,"Ġoffic":1903,"Ġinit":1904,"ope":1905,"ET":1906,"}^":1907,"ĠâĢĶ":1908,"ividual":1909,"As":1910,"Ġemploy":1911,"Ġtrial":1912,"];":1913,"Ġavail":1914,"ho":1915,"ik":1916,"mat":1917,"egin":1918,"Ġspe":1919,"Ġdays":1920,"Ġopp":1921,"ĠTo":1922,"Ġgive":1923,"Ġsize":1924,"Ġsever":1925,"If":1926,"resp":1927,"inc":1928,"ĠOn":1929,"Ġ%":1930,"AC":1931,"yd":1932,"Ġcome":1933,"Ġcost":1934,"Ġlight":1935,"Ġide":1936,"Ġsum":1937,"Ġfree":1938,"Ġ{\\":1939,"Ġcode":1940,"Ġ25":1941,"Ġtyp":1942,"ours":1943,"nal":1944,"48":1945,"iron":1946,"Ġuntil":1947,"Ġden":1948,"Ġthings":1949,"bs":1950,"Ġgovernment":1951,"Ġlocal":1952,"Ġben":1953,"Ġ17":1954,"Ġhaving":1955,"Ġbig":1956,"play":1957,"-\\":1958,"iod":1959,"Ġcases":1960,"ends":1961,"Ġprom":1962,"Ġgot":1963,"Ġ)":1964,"enc":1965,"Ġsimilar":1966,"Ġfurther":1967,"eps":1968,"Ġlittle":1969,"Ġpotential":1970,"arrow":1971,"ĊĠĠĠĠĠĠĠĠĠ":1972,"data":1973,"Ġshown":1974,"Ġdise":1975,"usion":1976,"uck":1977,"aps":1978,"Ġder":1979,"igma":1980,"begin":1981,"ackage":1982,"Ġpred":1983,"org":1984,"____":1985,"orn":1986,"....":1987,"etic":1988,"Ġjud":1989,"Ġprevious":1990,"illion":1991,"ĠStates":1992,"Ġelse":1993,"ries":1994,"Ġhuman":1995,"ended":1996,"Ġindividual":1997,"Ġphys":1998,"Ġvol":1999,"ourse":2000,"roup":2001,"HE":2002,"Ġbuild":2003,"Type":2004,"icle":2005,"ances":2006,"ask":2007,"co":2008,"Ġeither":2009,"Ġcho":2010,"Ġalways":2011,"ĠAd":2012,"čĊ":2013,"idth":2014,"ables":2015,"Ġprovide":2016,"66":2017,"Ġfamily":2018,"Ġpa":2019,"Ġ13":2020,"ĠRes":2021,"Ġgeneral":2022,"Ġsuper":2023,"ney":2024,"Ġhigher":2025,"ocument":2026,"itor":2027,"Ġgre":2028,"Ġorgan":2029,"}$$":2030,"Id":2031,"Ġweek":2032,"ĠThese":2033,"Ġspace":2034,"ering":2035,"98":2036,"ĊĠĠĠĠĠĠĠĠĠĠĠĠĠĠĠĠĠĠĠ":2037,"Ġmaterial":2038,"Ġcomb":2039,"Ġgame":2040,"opt":2041,"oney":2042,"Cont":2043,"Ġknown":2044,"Ġspecific":2045,"Ġold":2046,"Ġcalled":2047,"though":2048,"Ġrate":2049,"Ġpriv":2050,"ĠShe":2051,"uro":2052,"ctor":2053,"For":2054,"Ġfeel":2055,"uff":2056,"):":2057,"Ġmain":2058,"Ġmajor":2059,"beta":2060,"lev":2061,"lambda":2062,"Ġavailable":2063,"But":2064,"back":2065,"ĠLe":2066,"oper":2067,"cd":2068,"Ġhard":2069,"ĠCol":2070,"Ġbro":2071,"Ċĉĉĉ":2072,"aut":2073,"68":2074,"Ġrad":2075,"></":2076,"Ġ!":2077,"ĠCourt":2078,"aring":2079,"imal":2080,"\\_":2081,"ison":2082,"UL":2083,"rain":2084,"Ġsingle":2085,"04":2086,"ey":2087,"Ġ24":2088,"Ġstandard":2089,"Ġsw":2090,"Ġword":2091,"Ġhold":2092,"ental":2093,"Ġschool":2094,"97":2095,"Ġtotal":2096,"Ġorig":2097,"ready":2098,"eq":2099,"oor":2100,"Ġtre":2101,"mod":2102,"67":2103,"ption":2104,"aintiff":2105,"Ġvalues":2106,"itted":2107,"Category":2108,"Ġable":2109,"{{\\":2110,"Ġenergy":2111,"Ġmass":2112,"ten":2113,"Ġchildren":2114,"Ġcirc":2115,"Ġplan":2116,"osis":2117,"Ġstudies":2118,"ators":2119,"Ġmeans":2120,"An":2121,"Ġlik":2122,"Ġassociated":2123,"Ġseveral":2124,"Ġ>":2125,"Ġabs":2126,"raw":2127,"essage":2128,"Ġunderstand":2129,"bar":2130,"iple":2131,"Ġinvestig":2132,"Ġfac":2133,"pped":2134,"ĠSp":2135,"Ġbusiness":2136,"Ġarea":2137,"Ġneg":2138,"gment":2139,"iol":2140,"rad":2141,"ember":2142,"Ġdiv":2143,"ĠThat":2144,"asing":2145,"this":2146,"Ġside":2147,"mm":2148,"ĠCal":2149,"})":2150,"Ġmove":2151,"65":2152,"ressed":2153,"Ġaction":2154,"Ġappear":2155,"Ġfull":2156,"Ġreview":2157,"Ġsequ":2158,"Ġcrit":2159,"Ġlater":2160,"Ġid":2161,"Ġparamet":2162,"ler":2163,"ĠSc":2164,"mit":2165,"AP":2166,"import":2167,"Tr":2168,"utes":2169,"lected":2170,"Ġwhy":2171,"ences":2172,"idd":2173,"ustom":2174,"conom":2175,"fo":2176,"_\\":2177,"ern":2178,"uppose":2179,"Ġtimes":2180,"Ġdepend":2181,"ocial":2182,"AM":2183,"Ġsens":2184,"ued":2185,"Ġperiod":2186,"Ġbody":2187,"Ġreported":2188,"go":2189,"And":2190,"td":2191,"ibility":2192,"rack":2193,"cle":2194,"ystem":2195,"ored":2196,"Ġage":2197,"Ġgroups":2198,"Ġdom":2199,"iting":2200,"88":2201,"Ġshort":2202,"ĊĊĠĠĠĠĠĠĠ":2203,"ilde":2204,"itle":2205,"acy":2206,"sq":2207,"amples":2208,"ĠAr":2209,"ĠAt":2210,"ume":2211,"rug":2212,"pri":2213,"Ġfar":2214,"II":2215,"Ġtarget":2216,"fl":2217,"Ġlot":2218,"ension":2219,"ising":2220,"urs":2221,"Ġwar":2222,"ĠUniversity":2223,"oun":2224,"Ġexist":2225,"Ġaccess":2226,"clude":2227,"ception":2228,"Ġerror":2229,"eb":2230,"Ġalready":2231,"Ġdiscuss":2232,"Ġ100":2233,"class":2234,"31":2235,"af":2236,"Ġamount":2237,"stit":2238,"viron":2239,"Ġkeep":2240,"><":2241,"UT":2242,"ift":2243,"ivity":2244,"Ġ=>":2245,"ĠWhen":2246,"ling":2247,"alf":2248,"String":2249,"ams":2250,"^{-":2251,"OD":2252,"indow":2253,"Ċĉĉĉĉ":2254,"Ġrequired":2255,"Ġresponse":2256,"Ġamong":2257,"equ":2258,"Ġprim":2259,"Ġfinal":2260,"Ġsent":2261,"ribution":2262,"pone":2263,"Ġcertain":2264,"Ġdone":2265,"Ġstrong":2266,"oph":2267,"Ġcourse":2268,"Ġlevels":2269,"ged":2270,"AD":2271,"Ġpract":2272,"nces":2273,"69":2274,"Ġcompared":2275,"Ġtext":2276,"Ġterms":2277,"Ġlower":2278,"Ġdidn":2279,"verse":2280,"Is":2281,"posed":2282,"Res":2283,"aken":2284,"outh":2285,"'ve":2286,"verage":2287,"empt":2288,"Ġrisk":2289,"Ġkey":2290,"47":2291,"ograph":2292,"%)":2293,"~~":2294,"AG":2295,"55":2296,"../":2297,"Ġsure":2298,"ique":2299,"Ġsuccess":2300,"Ġalong":2301,"uation":2302,"Ġsubject":2303,"ĊĠĠĠĠĠĠ":2304,"Ġrequire":2305,"Ġ50":2306,"Ġpercent":2307,"!\"":2308,"chan":2309,"omet":2310,"ape":2311,"Ġissue":2312,"ories":2313,"yle":2314,"table":2315,"mission":2316,"icy":2317,"Ġpress":2318,"Ġexperim":2319,"ending":2320,"side":2321,"ãĥ":2322,"Ġdevelopment":2323,"Ġoften":2324,"olution":2325,"Ġactivity":2326,"rect":2327,"iving":2328,"Ġ${\\":2329,"erc":2330,"ãĤ":2331,"Ġport":2332,"US":2333,"ayer":2334,"Ġhowever":2335,"rist":2336,"ival":2337,"Ġdesign":2338,"Ġcompon":2339,"Ġpolit":2340,"100":2341,"Ġincreased":2342,"ĠĠĠĠĠĠĠĠĠĠĠ":2343,"Ġcontent":2344,"place":2345,"uit":2346,"Ġdecl":2347,"ores":2348,"sub":2349,"ĠCo":2350,"sigma":2351,"lete":2352,"mand":2353,"Ġfore":2354,"}{\\":2355,"Ġagree":2356,"Ġsal":2357,"Ġtum":2358,"Ġrelations":2359,"Ġfund":2360,"Ġaccount":2361,"ilon":2362,"ĠBl":2363,"Al":2364,"sw":2365,"Ġkind":2366,"http":2367,"Ġparticip":2368,"Ġthought":2369,"Ġfri":2370,"Ġsays":2371,"Ġresearch":2372,"Wh":2373,"rix":2374,"Ġjob":2375,"Ġeng":2376,"Ġevent":2377,"Ġwomen":2378,"Ġaccording":2379,"atory":2380,"Ġbenef":2381,"Ġdisease":2382,"iation":2383,"Ġmen":2384,"ogn":2385,"Ġrole":2386,"Ġcheck":2387,"Ġnecess":2388,"Ġestim":2389,"85":2390,"Ġmaking":2391,"Ġdefendant":2392,"Ġmicro":2393,"Ġworking":2394,"cription":2395,"Ġincrease":2396,"Ġmonths":2397,"Ġeval":2398,"77":2399,"Ġaway":2400,"Ġauthor":2401,"Ġmil":2402,"ister":2403,"ids":2404,"Ġclin":2405,"ges":2406,"arc":2407,"medi":2408,"Ġcancer":2409,"big":2410,"Ġbecome":2411,"Ġchanges":2412,"vironment":2413,"Ġsat":2414,"orth":2415,"----------------------------------------------------------------":2416,"return":2417,"ibr":2418,"96":2419,"Ġfactors":2420,"Ġlo":2421,"ai":2422,"string":2423,"Ġfood":2424,"View":2425,"'ll":2426,"ĠIN":2427,"Ġquant":2428,"Ġinclude":2429,"Ġcannot":2430,"Ġprovided":2431,"Ġtold":2432,"}}\\":2433,"Ġrange":2434,"Ġthing":2435,"List":2436,"Ġrespons":2437,"App":2438,"ground":2439,"94":2440,"ubl":2441,"IM":2442,"test":2443,"Ġcomput":2444,"âĶĢâĶĢâĶĢâĶĢâĶĢâĶĢâĶĢâĶĢ":2445,"pper":2446,"Ġnormal":2447,"Ġbase":2448,"ĠOr":2449,"08":2450,"OT":2451,"cret":2452,"gin":2453,"Ġ`":2454,"html":2455,"aster":2456,"date":2457,"Ġeffects":2458,"gether":2459,"UR":2460,"Ġtogether":2461,"sequ":2462,"ĠCan":2463,"ources":2464,"ava":2465,"ĠMed":2466,"uture":2467,"key":2468,"ĠInt":2469,"Ġcomplet":2470,"Ġupon":2471,"ley":2472,"Ġtell":2473,"IG":2474,"Ġstring":2475,"Ġobserved":2476,"ĠGen":2477,"istic":2478,"angu":2479,"Ġdetail":2480,"Ġenough":2481,"minist":2482,"Ġseen":2483,"umber":2484,"Ġenc":2485,"How":2486,"On":2487,"respond":2488,"Ġservice":2489,"Ġconduct":2490,"Ġsection":2491,"Ġcalcul":2492,"aces":2493,"Col":2494,"rodu":2495,"Ġdoesn":2496,"Ġthird":2497,"ĠâĢĺ":2498,"inary":2499,"Ġregard":2500,"Val":2501,"Ġproperty":2502,"OM":2503,"Ġlog":2504,"Ġmeasure":2505,"Ġpositive":2506,"Ġconditions":2507,"icense":2508,"ung":2509,"Ġcomplex":2510,"ruction":2511,"gamma":2512,"ĠÎ":2513,"enn":2514,"most":2515,"Ġfoc":2516,"Ġhtt":2517,"pre":2518,"ession":2519,"\")":2520,"Ġmor":2521,"Ġthough":2522,"Ġinj":2523,"ians":2524,"ache":2525,"mp":2526,"iction":2527,"02":2528,"Ġdecre":2529,"partial":2530,"atures":2531,"ING":2532,"ony":2533,"Ġuser":2534,"Ġmechan":2535,"Ob":2536,"leq":2537,"eal":2538,")*":2539,"Ġsepar":2540,"ij":2541,"Ġtax":2542,"ties":2543,"ening":2544,"Ġann":2545,"]).":2546,"Ġ([@":2547,"Ġcountry":2548,"Ġdou":2549,"Ġlove":2550,"Ġprotein":2551,"Ġestabl":2552,"irm":2553,"Ġtalk":2554,"Ġmom":2555,"Ġprior":2556,"Ġinteg":2557,"ortun":2558,".)":2559,"pect":2560,"Ġmus":2561,"xi":2562,"Ġsurface":2563,"Ġdrug":2564,"Ġviol":2565,"Ġdeath":2566,"Ġperformed":2567,"wh":2568,"07":2569,"âĢ¦":2570,"Ġbook":2571,"time":2572,"Ġep":2573,"Ġstructure":2574,"Ġmoney":2575,"ga":2576,"file":2577,"abor":2578,"Ġexc":2579,"09":2580,"ucle":2581,"fe":2582,"mber":2583,"Ġpast":2584,"Ġeconom":2585,"Ġcut":2586,"www":2587,"AB":2588,"No":2589,"Ġcreate":2590,"Ġclear":2591,"Ġrather":2592,"ened":2593,"Ġcult":2594,"ĠSee":2595,"Ġdoing":2596,"ĠĠĠĠĠĠĠĠĠ":2597,"Ġdefined":2598,"ixed":2599,"CL":2600,"Ġvir":2601,"uration":2602,"span":2603,"Ġpoints":2604,"xim":2605,"Ġdescribed":2606,"cular":2607,"ĠAN":2608,"Ġbit":2609,"Ġfrequ":2610,"order":2611,"Ġseason":2612,"Ġimage":2613,"Ġlimit":2614,"57":2615,"Ġconcer":2616,"off":2617,"Ġearly":2618,"OP":2619,"uf":2620,"Ġbehav":2621,"Ġphot":2622,"Ġrequest":2623,"sqrt":2624,"Ġpan":2625,"see":2626,"Ġdeg":2627,"Ġdeb":2628,"Ġflu":2629,"Ġscre":2630,"head":2631,"fficient":2632,"+\\":2633,"inter":2634,"roid":2635,"Ġdemon":2636,"oms":2637,"There":2638,"Ġpatient":2639,"Ġtemper":2640,"ounds":2641,"rim":2642,"comp":2643,"Ġcompany":2644,"unc":2645,"Sh":2646,"rem":2647,"ĠMay":2648,"imum":2649,"Ġassess":2650,"Ġland":2651,"Ġshowed":2652,"apan":2653,"bo":2654,"Ġnull":2655,"Ġacross":2656,"Ġspecial":2657,"ules":2658,"So":2659,"Ġaccept":2660,"Ġmembers":2661,"ceed":2662,"Ġq":2663,"Ar":2664,"IL":2665,"Ġ([":2666,"Ġ&&":2667,"const":2668,"Ġversion":2669,"Ġweight":2670,"Ġmax":2671,"OS":2672,"year":2673,"Ġobtained":2674,"Ġprivate":2675,"Ġapproach":2676,"Ġmeet":2677,"ospital":2678,"icult":2679,"idered":2680,"iter":2681,"Ġ$(":2682,"ĠAmerican":2683,"aff":2684,"84":2685,"Ġactually":2686,"Ġcorrespond":2687,"Ġfive":2688,"CC":2689,"pm":2690,"Ġele":2691,"Ġfalse":2692,"ones":2693,"Ġpick":2694,"Ġvar":2695,"box":2696,"lim":2697,"ĠCent":2698,"Ġothers":2699,"Ġwhole":2700,"etition":2701,"osure":2702,"Ġbelow":2703,"ĠPat":2704,"Ġair":2705,"Ġvoid":2706,"OL":2707,"Ġconsidered":2708,"ude":2709,"ops":2710,"umn":2711,"ĠOb":2712,"ried":2713,"ĠFig":2714,"rho":2715,"03":2716,"PE":2717,"Ġmar":2718,"^\\":2719,"Ġmakes":2720,"ogen":2721,"Ġblood":2722,"ensity":2723,"Ġvarious":2724,"Ġsource":2725,"Ġbreak":2726,"ait":2727,"Ġrelated":2728,"Ġshows":2729,"Ġonce":2730,"Ġstates":2731,"ino":2732,"code":2733,"Ġlikely":2734,"Ġcy":2735,"ĠAss":2736,"onal":2737,"ĊĠĠĠĠĠĠĠĠĠĠĠĠĠĠĠĠĠĠĠĠĠĠĠĠĠĠĠĠĠĠĠĠ":2738,"Ġsocial":2739,"003":2740,"Ġrespectively":2741,"Ġmultiple":2742,"Ġincluded":2743,"Ġadded":2744,"ev":2745,"Ġbar":2746,"Ġmatter":2747,"ero":2748,"resh":2749,"obal":2750,"load":2751,"Ġdam":2752,"Ġver":2753,"Ġcard":2754,"itch":2755,"Ġsoft":2756,"Ġsolution":2757,"log":2758,"Ġoccur":2759,"\"}).":2760,"Ġfuture":2761,"nu":2762,"Ġexam":2763,"Ġconcent":2764,")(":2765,"Ġdemonstr":2766,"Ġmarket":2767,"42":2768,"my":2769,"Ġdeal":2770,"Ġexperience":2771,"Ġtaken":2772,"apt":2773,"ply":2774,"ĠJoh":2775,"Ġsignificantly":2776,"Ġapplication":2777,"Ġear":2778,"value":2779,"andom":2780,"ĠCar":2781,"ĠOF":2782,"raft":2783,"Ġfactor":2784,"Ġmillion":2785,"ĠĊ":2786,"49":2787,"lor":2788,"ENT":2789,"anguage":2790,"87":2791,"chie":2792,"ĠBe":2793,"hel":2794,"net":2795,"Ġdefin":2796,"86":2797,"ĠOne":2798,"lt":2799,"001":2800,"Ġmaint":2801,"Ġrelationship":2802,"illed":2803,"Ġreceived":2804,"Ġdifficult":2805,"ĠÂ§":2806,"Ġsignal":2807,"Ġminutes":2808,"Ġsystems":2809,"Ġanti":2810,"Ġnetwork":2811,"Ġsex":2812,"Ġseries":2813,"/*":2814,"atter":2815,"Ġsus":2816,"Ġtook":2817,"rr":2818,"theta":2819,"Ġsite":2820,"')":2821,"'d":2822,"odes":2823,"Ġhours":2824,"Un":2825,"rapy":2826,"Figure":2827,"Ġyet":2828,"Ġconsist":2829,"ĠEn":2830,"Ġwrit":2831,"Ġever":2832,"package":2833,"ĠWith":2834,"Ġplaintiff":2835,"Ġindepend":2836,"SS":2837,"ledge":2838,"lation":2839,"Ġcame":2840,"plement":2841,"ternal":2842,"pping":2843,"Ġspect":2844,"ender":2845,"sl":2846,"ĠMr":2847,"Ġdevice":2848,"Ġwon":2849,"tau":2850,"Ġcommunity":2851,"Ġhouse":2852,"Ġloss":2853,"no":2854,"Ġcause":2855,"\");":2856,"Ġbelieve":2857,"Ġdecision":2858,"ĠJapan":2859,"Ġitem":2860,"CH":2861,"hing":2862,"fty":2863,"mathbf":2864,"Ġhref":2865,"uild":2866,"ager":2867,"ball":2868,"util":2869,"Ġdiagn":2870,"Ġaddress":2871,"Ġhalf":2872,"pose":2873,"ĠTe":2874,"Ġfra":2875,"Ġrat":2876,"where":2877,"ĠAfter":2878,"Ph":2879,"Ġparent":2880,"Ġhom":2881,"Ġblock":2882,"olve":2883,"delta":2884,"avor":2885,"TR":2886,"ocal":2887,"Ġimprove":2888,"Ġcamp":2889,"Ġ21":2890,"Ġregion":2891,"ĠThen":2892,"/>":2893,")}":2894,"Ġimmun":2895,"Data":2896,"Ġnight":2897,"ands":2898,"body":2899,"Ġflow":2900,"Ġcustom":2901,"aged":2902,"Ġmagn":2903,"83":2904,"Im":2905,"Ġlink":2906,"46":2907,"now":2908,"ober":2909,"ips":2910,"times":2911,"rangle":2912,"Ġindu":2913,"comm":2914,"size":2915,"ulated":2916,"Ġbound":2917,"ises":2918,"ese":2919,"Ġdat":2920,"Ġcontract":2921,"Ġanything":2922,"infty":2923,"Ġtoward":2924,"Ġ27":2925,"89":2926,"------------":2927,"iding":2928,"Ġmind":2929,"dis":2930,"Ġhistory":2931,"Se":2932,"Ġmethods":2933,"mary":2934,"ii":2935,"aging":2936,"Ġsimple":2937,"Ġ(*":2938,"Ġasked":2939,"DE":2940,"Ġground":2941,"Ġattack":2942,"ĠMore":2943,"ached":2944,"Ġdim":2945,"Ġservices":2946,"bit":2947,"ĠMar":2948,"Ġadditional":2949,"Ġtherefore":2950,"position":2951,"Ġchall":2952,"ĠGod":2953,"izing":2954,"ĠAct":2955,"Ġappl":2956,"Ġtable":2957,"mitted":2958,"ires":2959,"Ġinhib":2960,"lying":2961,"\\\\":2962,"orld":2963,"Ġey":2964,"ĠDef":2965,"wise":2966,"Ġdifference":2967,"Ġtoday":2968,"ensive":2969,"trans":2970,"Ġentire":2971,"ĠDep":2972,"Ġpredict":2973,"ĠThus":2974,"lam":2975,"Ġnat":2976,"Ġachie":2977,"reed":2978,"ector":2979,"ribute":2980,"ĠÂ±":2981,"Ġtrying":2982,"Ġclose":2983,"Ġenvironment":2984,"Ġthus":2985,"Ġneeded":2986,"Ġexpect":2987,"////":2988,"Ġvide":2989,"ĠRep":2990,"^*":2991,"ĠĠĠĠĠĠĠĠĠĠ":2992,"state":2993,"comes":2994,"ĠChrist":2995,"Ġmi":2996,"Ġcompl":2997,"bol":2998,"na":2999,"agement":3000,"atus":3001,"br":3002,"fra":3003,"ama":3004,"field":3005,"Ġsix":3006,"Ġvia":3007,"exp":3008,"UN":3009,"Ġclinical":3010,"define":3011,"aced":3012,"Ġred":3013,"Ġgene":3014,"Ġpaper":3015,"osc":3016,"Ġlength":3017,"Ġpattern":3018,"Ġ(-":3019,"Ġcontact":3020,"Ġadminist":3021,"ÂłÂł":3022,"Ġneeds":3023,"Ġadj":3024,"cing":3025,"iles":3026,"Ġcorrect":3027,"ĠCity":3028,"itting":3029,"93":3030,"06":3031,"ydro":3032,"ales":3033,"une":3034,"Ġ(\\[":3035,"ederal":3036,"Ġang":3037,"Key":3038,"Ġ^":3039,"Ġquality":3040,"atively":3041,"Ġinvolved":3042,"Ġâ":3043,"ike":3044,"Ġdig":3045,"Ġhy":3046,"uly":3047,"Ġassum":3048,"Ġprevent":3049,"Ġbring":3050,"Ġelement":3051,"Ġstudents":3052,"92":3053,"Ġremov":3054,"miss":3055,"Ġill":3056,"Ġparty":3057,"Ġcross":3058,"vec":3059,"ilities":3060,"ĠMc":3061,"pecially":3062,"41":3063,"istance":3064,"Ġevalu":3065,"Ġmiss":3066,"],[@":3067,"Set":3068,"isf":3069,"Ġmodels":3070,"])":3071,"Ġproced":3072,"Ġnear":3073,"56":3074,"mathrm":3075,"Ġinflu":3076,"Ġface":3077,"Ġpopulation":3078,"based":3079,"ĠMy":3080,"EL":3081,"Ġperformance":3082,"ched":3083,"Ġwent":3084,"|\\":3085,"Ġmut":3086,"come":3087,"yz":3088,"iver":3089,"ief":3090,"Ġsubst":3091,"ication":3092,"Ġmotion":3093,"Ġattempt":3094,"Ġfib":3095,"Ġheld":3096,"Ġgetting":3097,"Ġrecent":3098,"inding":3099,"Ġintrodu":3100,"omega":3101,"Ġque":3102,"Ġexpected":3103,"Ġgrowth":3104,"Ġderiv":3105,"artment":3106,"43":3107,"oll":3108,"Ġ26":3109,"Ġ40":3110,"Ġcompar":3111,"IV":3112,"urope":3113,"IR":3114,"rightarrow":3115,"Ġexec":3116,"Ġpolice":3117,"Ġeffic":3118,"Ġpolicy":3119,"Ġlooking":3120,"Ġansw":3121,"using":3122,"more":3123,"Ġissues":3124,"hem":3125,"ches":3126,"Ġcorrel":3127,"Ġfunctions":3128,"itten":3129,"Ġtemperature":3130,"Ġwin":3131,"Ġproblems":3132,"Ġrights":3133,"\\])":3134,"*,":3135,"bib":3136,"Ġmedia":3137,"Ġ...":3138,"Ġcomes":3139,"Ġ\\\\":3140,"91":3141,"ĠIm":3142,"Ġalmost":3143,"olds":3144,"Ġinitial":3145,"Ġroom":3146,"Ġnothing":3147,"ynam":3148,"Ġbr":3149,"ilt":3150,"uk":3151,"tilde":3152,"Ġ28":3153,"Ġur":3154,"ols":3155,"Ġcity":3156,"ĠSte":3157,"Ġidea":3158,"istics":3159,"MS":3160,"uses":3161,"ills":3162,"Ġbegin":3163,"plit":3164,"Ġdistribution":3165,"Ġseems":3166,"gest":3167,"That":3168,"sel":3169,"ĠMin":3170,"Ġimplement":3171,"ections":3172,"When":3173,"ĠÃ":3174,"Ġ22":3175,"ĠCD":3176,"Ġeduc":3177,"ĠCount":3178,"Ġinput":3179,"icon":3180,"Ġemb":3181,"width":3182,"ĠEng":3183,"cdot":3184,"Ġtw":3185,"Ġstory":3186,"ĠNot":3187,"Ġprovides":3188,"Ġ$$":3189,"uous":3190,"Delta":3191,"RNA":3192,"Ġassert":3193,"des":3194,"Ġdr":3195,"Ġheart":3196,"list":3197,"Ġworks":3198,"Ġpubl":3199,"ĠBy":3200,"Ġhost":3201,"irl":3202,"Ġcoll":3203,"Ġinstead":3204,"Table":3205,"Ġdep":3206,"Ġtaking":3207,"Ġsimply":3208,"oes":3209,"psi":3210,"Ġchem":3211,"Object":3212,"++":3213,"Â±":3214,"Ġsearch":3215,"anced":3216,"Ġproduction":3217,"With":3218,"Get":3219,"Ġdisplay":3220,"ĊĊĊ":3221,"anks":3222,"ĠÐ":3223,"ĠTrump":3224,"ĠJan":3225,"sim":3226,"function":3227,"rc":3228,"ĠTHE":3229,"Ġrecogn":3230,"Ġblack":3231,"Ã³":3232,"Ġtheory":3233,"po":3234,"ament":3235,"Ġnecessary":3236,"PS":3237,"ĠPres":3238,"ili":3239,"ective":3240,"Ġimpact":3241,"ogle":3242,"Ġincreasing":3243,"\";":3244,"uments":3245,"book":3246,"ĠĠĠĠĠĠĠĠĠĠĠĠĠĠĠ":3247,"FL":3248,"ĠCont":3249,"ccording":3250,"Ġevents":3251,"Ġindust":3252,"Ġsomeone":3253,"\\*":3254,"Ġstep":3255,"Ġmoment":3256,"Ġstarted":3257,"All":3258,"itary":3259,"gl":3260,"cm":3261,"Ġpage":3262,"oma":3263,"ĠAm":3264,"eks":3265,"Ġwords":3266,"ĠCor":3267,"point":3268,"ĠNational":3269,"Ġfall":3270,"rec":3271,"Ġcolor":3272,"Ġdire":3273,"Ġtiss":3274,"https":3275,"Ġaverage":3276,"ĠPol":3277,"By":3278,"Ġdistrict":3279,"Ġvalid":3280,"Ġstrateg":3281,"Ġload":3282,"Ġsamples":3283,"59":3284,"ributed":3285,"Ġreve":3286,"CD":3287,"Ġpret":3288,"74":3289,"bor":3290,"Ġexact":3291,"Ġalleg":3292,"refore":3293,"Ġpain":3294,"Ġoriginal":3295,"clusion":3296,"Ġmole":3297,"Ġ23":3298,"Ġlearn":3299,"ying":3300,"58":3301,"sy":3302,"include":3303,"but":3304,"char":3305,"Ġnucle":3306,"Ġ!=":3307,"ĠMan":3308,"Ġbasis":3309,"Ġproducts":3310,"with":3311,"Ġclos":3312,"Ġlines":3313,"Ġ},":3314,"ging":3315,"ĊĠĠĠĠĠĠĠĠĠĠĠĠĠĠĠĠĠĠĠĠĠĠĠ":3316,"light":3317,"Ġfoot":3318,"Ġfig":3319,"Ġeffort":3320,"astic":3321,"utions":3322,"Ġpresented":3323,"Ġfollows":3324,"));":3325,"Ġparameters":3326,"Ġess":3327,"Ġcred":3328,"ethyl":3329,"![":3330,"ster":3331,"Ġproperties":3332,"Ġphysical":3333,"uth":3334,"Ġsample":3335,"Ġbad":3336,"ĠBo":3337,"76":3338,"Ġdetermined":3339,"inally":3340,"Ġapproxim":3341,"PC":3342,"oles":3343,"Ġquick":3344,"}$,":3345,"Ġdetermine":3346,"Ġprobably":3347,"ĠFr":3348,"Ġlack":3349,"Ġpack":3350,"Ġstatic":3351,"down":3352,"Ġcry":3353,"like":3354,"ĠInc":3355,"En":3356,"My":3357,"Ġlive":3358,"Ġshall":3359,"Int":3360,"Ġmedical":3361,"Ġindex":3362,"met":3363,"Ġeffective":3364,"ecause":3365,"actions":3366,"ronic":3367,"selves":3368,"Ġmap":3369,"Ġtumor":3370,"Ġcomplete":3371,"Ġofficial":3372,"Ġdate":3373,"Ġsurv":3374,"Ġpolitical":3375,"Ġformer":3376,"Ġconfig":3377,"arily":3378,"Ġnews":3379,"$-":3380,"mpt":3381,"Ġpersonal":3382,"eration":3383,"Ġpresence":3384,"dom":3385,"su":3386,"}$.":3387,"Ġforce":3388,"Ġidentified":3389,"Ġconv":3390,"rown":3391,"ocr":3392,"overed":3393,"Ġund":3394,"At":3395,"Ind":3396,"Ġgenes":3397,"ĠâĪĴ":3398,"SD":3399,"ada":3400,"Value":3401,"top":3402,"ĠIntern":3403,"Ġprint":3404,"elt":3405,"Ġsatisf":3406,"PI":3407,"Ġitself":3408,"Ġespecially":3409,"Ġpressure":3410,"Ġoutside":3411,"Ġjudgment":3412,"fully":3413,"}=":3414,"62":3415,"iqu":3416,"Ġfilm":3417,"word":3418,"ĠEurope":3419,"63":3420,"Ġdocument":3421,"Ġrandom":3422,"Ad":3423,"oo":3424,"Ġlanguage":3425,"Ġphase":3426,"FF":3427,"Ġextra":3428,"inks":3429,"Ġyoung":3430,"curity":3431,"54":3432,"culate":3433,"olic":3434,"ĠYork":3435,"Ġcontext":3436,"Ġsil":3437,"Ġlonger":3438,"Ġfront":3439,"ensure":3440,"Ġox":3441,"fect":3442,"atal":3443,"82":3444,"}^{\\":3445,"Ġcopy":3446,"Ġconstant":3447,"umb":3448,"Ġtypes":3449,"EM":3450,"usepackage":3451,"unch":3452,"ĠAg":3453,"error":3454,"ĠPr":3455,"Ġstatement":3456,"hers":3457,"ĠĠĠĠĠĠĠĠĠĠĠĠ":3458,"72":3459,"ĠString":3460,"Ġeverything":3461,"Ġpoly":3462,"eter":3463,"Ġsense":3464,"Ġhyp":3465,"ana":3466,"Ġdest":3467,"ĠPar":3468,"Ġelements":3469,"79":3470,"Ġsequence":3471,"Mod":3472,"ards":3473,"pat":3474,"53":3475,"Ġwrong":3476,"Ġstatus":3477,"amed":3478,"ulations":3479,")=":3480,"Ġconsum":3481,"****************":3482,"px":3483,"Ġtransfer":3484,"epsilon":3485,"ults":3486,"Ed":3487,"]{},":3488,"rast":3489,"PA":3490,"čĊĠĠĠ":3491,"Ġrecomm":3492,"dev":3493,"Ġremain":3494,"Ġrunning":3495,"iddle":3496,"Ġrespond":3497,"group":3498,"Ġoutput":3499,"ites":3500,"rs":3501,"Ã¡":3502,"Ġprimary":3503,"File":3504,"Ġconstit":3505,"Ġsem":3506,"range":3507,"aled":3508,"Pl":3509,"non":3510,"ÃŃ":3511,"Ġcreated":3512,"mbox":3513,"Ġacid":3514,"path":3515,"\"/>":3516,"ula":3517,"Ġ2012":3518,"78":3519,"itation":3520,"ĠII":3521,"ĠMe":3522,"varphi":3523,"ega":3524,"Ġnode":3525,"earch":3526,"mail":3527,"ĠComp":3528,"Ġarray":3529,"ĠĠĠĠĠĠĠĠĠĠĠĠĠ":3530,"Ġstri":3531,"Ġquite":3532,"Ġtraining":3533,"Ġfeatures":3534,"Ġmember":3535,"52":3536,"Ġfun":3537,"Ġwalk":3538,"Ġpie":3539,"ancial":3540,"Ġinstall":3541,"Ġoil":3542,"Ġvs":3543,"51":3544,"Ġeasy":3545,"Ġareas":3546,"Ġnational":3547,"Ġinside":3548,"ĠPart":3549,"Ġknowledge":3550,"Ġple":3551,"quad":3552,"Ġrates":3553,"augh":3554,"Ġselect":3555,"ervice":3556,"Ġweeks":3557,"Ġvac":3558,"Dis":3559,"ully":3560,"msg":3561,"Ġprec":3562,"ros":3563,"oke":3564,"param":3565,"Ġquestions":3566,"ĠTherefore":3567,"efore":3568,"TS":3569,"orph":3570,"Ġcreat":3571,"ĠSuppose":3572,"\"><":3573,"annel":3574,"ĠLicense":3575,"Ġcontinue":3576,"osition":3577,"ĊĠĠĠĠĠĠĠĠĠĠĠĠĠ":3578,"Ġgas":3579,"Ġrelease":3580,"ellant":3581,"Ġmis":3582,"Text":3583,"ĠQu":3584,"Ġfem":3585,"Ġprinc":3586,"rant":3587,"Ps":3588,"print":3589,"Ġvector":3590,"Ġhttp":3591,"Ġopportun":3592,"ĠGe":3593,"Ġclaims":3594,"lege":3595,"asons":3596,"ĠGerm":3597,"Ġwanted":3598,"ux":3599,"Not":3600,"Ġcontroll":3601,"arning":3602,"isions":3603,"ĠOur":3604,"user":3605,"Ġnatural":3606,"hood":3607,"Ġdirectly":3608,"untu":3609,"chi":3610,"($":3611,"73":3612,"erson":3613,"Ġago":3614,"ĠPhys":3615,"Par":3616,"lier":3617,"Ġ2013":3618,"ĠPresident":3619,"struct":3620,"Ġfavor":3621,"Ġlimited":3622,"from":3623,"vere":3624,"ĉĉĉĉ":3625,"CA":3626,"Ġmach":3627,"Ġcontain":3628,"public":3629,"Ġisn":3630,"71":3631,"Ġ/>":3632,"link":3633,"plate":3634,"Ġavoid":3635,"Ġstay":3636,"osph":3637,"Ġability":3638,"ĠFurther":3639,"atives":3640,"ĠĠĠĠĠĠĠĠĠĠĠĠĠĠĠĠĠĠĠĠĠĠĠĠĠĠĠĠĠĠĠĠĠĠĠĠĠĠĠĠĠĠĠĠĠĠĠĠĠĠĠĠĠĠĠĠĠĠĠĠĠĠĠĠĠĠĠĠĠĠĠĠĠĠĠĠĠĠĠĠĠĠĠĠĠĠĠĠĠĠĠĠĠĠĠĠĠĠĠĠĠĠĠĠĠĠĠĠĠĠĠĠĠĠĠĠĠĠĠĠĠĠĠĠĠĠĠĠ":3641,"prime":3642,"Ġindependent":3643,"ha":3644,"ĠJohn":3645,"Ġnumbers":3646,"Ġlayer":3647,"NS":3648,"rror":3649,"Ġstop":3650,"Ġreduced":3651,"Ġarticle":3652,"Ġdeveloped":3653,"langle":3654,"Ġvideo":3655,"het":3656,"clus":3657,"lo":3658,"../../":3659,"aving":3660,"Ġ?":3661,"ĠSim":3662,"((":3663,"Ġcook":3664,"Ġprep":3665,"iet":3666,"Ġapplied":3667,"81":3668,"kn":3669,"Ġagreement":3670,"enced":3671,"Ġframe":3672,"pite":3673,"ĠSouth":3674,"Ġexcept":3675,"ague":3676,"Ġopin":3677,"Ġvict":3678,"Ġimmedi":3679,"Ġnegative":3680,"array":3681,"orks":3682,"fr":3683,"perty":3684,"Ġpreviously":3685,"OC":3686,"Ġaccur":3687,"script":3688,"bra":3689,"Ġgreater":3690,"Ġwhite":3691,"aches":3692,"Ġrule":3693,"elling":3694,"Ġforward":3695,"ned":3696,"icles":3697,"Ġincludes":3698,"Ġsett":3699,"Ġobtain":3700,"...\"":3701,"ĠDist":3702,"ĠRuss":3703,"Suppose":3704,"erences":3705,"ĠAdd":3706,"________":3707,"aching":3708,"EX":3709,"pen":3710,"Ġ;":3711,"ocation":3712,"Ġshare":3713,"roph":3714,"orem":3715,"Ġexpress":3716,"Ġappropri":3717,"ï¼":3718,"ĠGu":3719,"Ġbehavior":3720,"Ġstra":3721,"ymbol":3722,"Ġhot":3723,"Ref":3724,"bt":3725,"Ġfire":3726,"Ġimpl":3727,"Ġreplace":3728,"Ð¾":3729,"iven":3730,"Ġrefer":3731,"count":3732,"ML":3733,"imate":3734,"Ġbehind":3735,"Ġmention":3736,"ĠHere":3737,"Ġsuff":3738,"den":3739,"rial":3740,"lig":3741,"Ġaccom":3742,"rows":3743,"Ġinstance":3744,"ottom":3745,"js":3746,"ags":3747,"pret":3748,"Ġwritten":3749,"uary":3750,"}(\\":3751,"GF":3752,"Ġdefault":3753,"wide":3754,"Ġaltern":3755,"ners":3756,"Ġmemory":3757,"ports":3758,"Ġ29":3759,"era":3760,"ĠWorld":3761,"Ġmice":3762,"Ġpair":3763,"ishing":3764,"Ġgames":3765,"void":3766,"ĠDem":3767,"Ġir":3768,"lementary":3769,"Ġball":3770,"Ġcompet":3771,")$.":3772,"Ġ);":3773,"Ġge":3774,"ĠJust":3775,"Ġcomponent":3776,"ĠSystem":3777,"Ġcoun":3778,"urch":3779,"Qu":3780,"Ġfindings":3781,"\\<":3782,"61":3783,"lib":3784,"Â°":3785,"ĠDo":3786,"Ġgenerally":3787,"Ġap":3788,"Ġ60":3789,"Ġlost":3790,"Ġfollowed":3791,"Ġgrant":3792,"Ġtitle":3793,"Ġsaf":3794,"Ġappeal":3795,"Ġunit":3796,"Ġusually":3797,"Ġtreated":3798,"ees":3799,"Ġaim":3800,"ĠHis":3801,"Ġpresident":3802,"rief":3803,"Ġreference":3804,"ocol":3805,"omy":3806,"Ġsecurity":3807,"IP":3808,"Ġmatrix":3809,"nb":3810,"Ġrepe":3811,"Ġcorresponding":3812,"ĠNorth":3813,"Ġintern":3814,"Ġ32":3815,"Ġrev":3816,"ĠSince":3817,"item":3818,"Ġpurpose":3819,"inate":3820,"rote":3821,"Ġbur":3822,"Ġetc":3823,"ĠDis":3824,"Ġcompan":3825,"INT":3826,"Ġglobal":3827,"rated":3828,"ĠCounty":3829,"Ġparticularly":3830,"Ġjo":3831,"term":3832,"ĠPer":3833,"ĠAf":3834,"Ġ[**":3835,"mega":3836,"sm":3837,"ĠĠĠĠĠĠĠĠĠĠĠĠĠĠ":3838,"Ġ[*":3839,"Ġplayers":3840,"ruit":3841,"ener":3842,"Ġsoftware":3843,"bre":3844,"ditional":3845,"ĠST":3846,"Ġcoming":3847,"Ġdifferences":3848,"ĠSm":3849,"================================================================":3850,"inated":3851,"Ġinvention":3852,"Ġste":3853,"čĊč":3854,"aves":3855,"Ġautom":3856,"ashing":3857,"Add":3858,"itness":3859,"erve":3860,"ĠChina":3861,"Ġnote":3862,"Ġbuilding":3863,"abase":3864,"\".":3865,"ĠWhile":3866,"Ġanswer":3867,"gor":3868,"levant":3869,"Ġderivative":3870,"urb":3871,"Or":3872,"sk":3873,"Ġactive":3874,"MA":3875,"vention":3876,"rupt":3877,"ĠId":3878,"hest":3879,"pan":3880,"ĠDes":3881,"aign":3882,"She":3883,"otic":3884,"Ġonline":3885,"ĠDr":3886,"Ġcand":3887,"sing":3888,"ĠGo":3889,"Ġregular":3890,"Ġ2014":3891,"CON":3892,"['":3893,"lin":3894,"estern":3895,"Ġmessage":3896,"istry":3897,"().":3898,"ĠReg":3899,"Ġmatch":3900,"max":3901,"ĠHar":3902,"Ġclean":3903,"isms":3904,"Ġresid":3905,"Ġfailed":3906,"gery":3907,"Ġoffice":3908,"ris":3909,"semb":3910,"Ġwhose":3911,"eline":3912,"nsel":3913,"ĠMarch":3914,"Ġconstruct":3915,"ĠFirst":3916,"Ġwrite":3917,"ĠBar":3918,"Ġproposed":3919,"Ġtherapy":3920,"Ġheat":3921,"Ġlate":3922,"df":3923,"Ġce":3924,"Ġstyle":3925,"mar":3926,"Ġsaw":3927,"Ġfriend":3928,"Ġleave":3929,"Def":3930,"Ġdynam":3931,"Ġcosts":3932,"Ġpurch":3933,"Ġalthough":3934,"orney":3935,"Ġanalyz":3936,"illing":3937,"Ġargument":3938,"obile":3939,"Ġessential":3940,"ĠPe":3941,"Ġcharge":3942,"Ġpractice":3943,"Ġsituation":3944,"Ġsaying":3945,"Ġcountries":3946,"Ġoffer":3947,"Ġtakes":3948,"Ġfat":3949,"OW":3950,"Ġrelative":3951,"Ġlegal":3952,"pril":3953,"ĠOR":3954,"ĠHouse":3955,"ĠDNA":3956,"Class":3957,"Le":3958,"ULL":3959,"Ðµ":3960,"Ġsympt":3961,"âĢĲ":3962,"Ġwall":3963,"illi":3964,"Ġrecently":3965,"ĠGeneral":3966,"Ġdeep":3967,"}_{\\":3968,"eed":3969,"lock":3970,"rate":3971,"raz":3972,"Ġsufficient":3973,"Path":3974,"ĠPa":3975,"Ġcover":3976,"BC":3977,"ĠDepartment":3978,"ĠSome":3979,"Ġdouble":3980,"fil":3981,"âĢ¢":3982,"change":3983,"Ġaffect":3984,"do":3985,"Ġgirl":3986,"Ġslow":3987,"rite":3988,"joy":3989,"Ġwa":3990,"source":3991,"wid":3992,"Ġgraph":3993,"Ġvot":3994,"Ġdensity":3995,"Ġcomponents":3996,"vey":3997,"Omega":3998,"Ġgives":3999,"||":4000,"spec":4001,"Ġcenter":4002,"Ġhospital":4003,"ĠDav":4004,"irth":4005,"Ġ2016":4006,"Ġserious":4007,"Ġstage":4008,"ournal":4009,"frak":4010,"Ġnature":4011,"Ġprime":4012,"ĠAmerica":4013,"ĠIS":4014,"Ġspecies":4015,"';":4016,"gorith":4017,"ivil":4018,"Ġidentify":4019,"reet":4020,"Ġ-->":4021,"Ġenh":4022,"Ġ31":4023,"igen":4024,"Ġtried":4025,"Ġphen":4026,"\\].":4027,"Ġorg":4028,"Ġveh":4029,"Ġdegree":4030,"ida":4031,"Ġanyone":4032,"reng":4033,"db":4034,"Ġbackground":4035,"Ġpromot":4036,"cho":4037,"Ġimages":4038,"Ð°":4039,"Ġeveryone":4040,"Ġfeed":4041,"itter":4042,"Ġrecept":4043,"ĠOct":4044,"Ġ2015":4045,"map":4046,"Ġwatch":4047,"Ġpict":4048,"De":4049,"Ġrele":4050,"ytes":4051,"Ġjury":4052,"Ġliving":4053,"Ġunique":4054,"Ġcommit":4055,"^[@":4056,"gra":4057,"Ġlinear":4058,"One":4059,"Ġrot":4060,"uel":4061,"ulate":4062,"BS":4063,"TH":4064,"Ġhar":4065,"Ġwebs":4066,"}}$":4067,"oud":4068,"Ġles":4069,"Ġneigh":4070,"Ġsuit":4071,"Ġhope":4072,"ano":4073,"ĠAust":4074,"active":4075,"Ġuseful":4076,"Ġindividuals":4077,"Ġ/*":4078,"Ġbroad":4079,"ĠCir":4080,"Ġlarger":4081,"Ġpretty":4082,")-":4083,"Ġselected":4084,"orage":4085,"Ġperfect":4086,"Ġoption":4087,"bon":4088,"Ġdirection":4089,"la":4090,"Ġscale":4091,"Ġchoice":4092,"erate":4093,"Ġfederal":4094,"anger":4095,"Ġcapac":4096,"ayout":4097,"cell":4098,"Ġvers":4099,"izes":4100,"Ġri":4101,"ĠAug":4102,"ĠJune":4103,"CE":4104,"Ġways":4105,"Ġhydro":4106,"Ġmeasured":4107,"Ġ///":4108,"ufact":4109,"Ġsqu":4110,"Ġdesigned":4111,"PL":4112,"Cal":4113,"reme":4114,"Ġoperation":4115,"Time":4116,"\\'":4117,"Ġallowed":4118,"AA":4119,"Ġproceed":4120,"Test":4121,"]^":4122,"ocks":4123,"čĊĠ":4124,"rence":4125,"ĠSu":4126,"iring":4127,"asis":4128,"Ġhighly":4129,"ĠAlthough":4130,"Ġthemselves":4131,"Ġexperi":4132,"iated":4133,"Ġparties":4134,"ĠWar":4135,"Ġdemand":4136,"Item":4137,"tee":4138,"mathfrak":4139,"Ġspeed":4140,"Ġdetails":4141,"Ġrestrict":4142,"Ġdefinition":4143,"ste":4144,"Ġpo":4145,"ociety":4146,"Ġprofess":4147,"%%":4148,"encies":4149,"Ġord":4150,"Ġpublished":4151,"Ġcompanies":4152,"hand":4153,"Ġpoor":4154,"Ġanim":4155,"Ġfocus":4156,"ĠSen":4157,"Ġbecame":4158,"Ġsubstant":4159,"aries":4160,"Lambda":4161,"Ġfailure":4162,"py":4163,"aily":4164,"Ġfixed":4165,"ĠNow":4166,"ancy":4167,"Ġgoal":4168,"Ġ2010":4169,"itis":4170,"Ġisol":4171,"Ġbox":4172,"atform":4173,"opic":4174,"Ġscore":4175,"length":4176,"Ġcomment":4177,"Of":4178,"Over":4179,"Ġcommand":4180,"irmed":4181,"cap":4182,"info":4183,"Ġmother":4184,"urance":4185,"IF":4186,"Ġexerc":4187,"enses":4188,"Comp":4189,"Ġhyper":4190,"bi":4191,"index":4192,"dim":4193,"apter":4194,"Ġheav":4195,"ifically":4196,"known":4197,")$,":4198,"Ġantib":4199,"ouch":4200,"Ġ:=":4201,"cast":4202,"node":4203,"Ġ2011":4204,"ä¸":4205,"Ġbank":4206,"supp":4207,"Ġhor":4208,"Ġliter":4209,"State":4210,"Ġprice":4211,"haps":4212,"Ġvisit":4213,"ĠCons":4214,"Ġstress":4215,"Ġexpressed":4216,"Ġsle":4217,"Ġround":4218,"ĠEd":4219,"Ġcentral":4220,"###":4221,"Ġtechnology":4222,"Ġsort":4223,"abled":4224,"Ġnotice":4225,"Ġwoman":4226,"');":4227,"Ġcurrently":4228,"}.":4229,"Ġsche":4230,"Ġleading":4231,"inity":4232,"Sim":4233,"^+":4234,"osing":4235,"gar":4236,"vis":4237,"ube":4238,"Ġ35":4239,"ĠAM":4240,"ography":4241,"Ġdem":4242,"Ġtransition":4243,"Ġfast":4244,"ĠHealth":4245,"Ġequation":4246,"ica":4247,"Ġequal":4248,"Ġcampaign":4249,"Des":4250,"circ":4251,"Ġcircum":4252,"wed":4253,"section":4254,"Ġled":4255,"Ġoptions":4256,"base":4257,"ĠAND":4258,"ĠMich":4259,"Ġtissue":4260,"Ġwindow":4261,"Ġfight":4262,"ĠSer":4263,"Ġeasily":4264,"());":4265,"Ġcaused":4266,"ze":4267,"osite":4268,"Ġemerg":4269,"ĠJanuary":4270,"Ġoverall":4271,"Ġdraw":4272,"Ġsoon":4273,"Ġfinancial":4274,"ĠStud":4275,"Ġratio":4276,"Ġ\\<":4277,"Ġinjury":4278,"ils":4279,"that":4280,"coming":4281,"Ġgave":4282,"Ġsynt":4283,"hesis":4284,"ĠFeb":4285,"Ġmeaning":4286,"Ġappropriate":4287,"uge":4288,"ĠApril":4289,"ously":4290,"ius":4291,"Ġmanagement":4292,"Ġelectro":4293,"Ġproof":4294,"Sc":4295,"Ġhimself":4296,"ui":4297,"Ġfiled":4298,"ĠRepublic":4299,"Ġconnection":4300,"rought":4301,"EST":4302,"ĠLa":4303,"Ġrequires":4304,"ĠGl":4305,"Ġbal":4306,"hold":4307,"ĠNone":4308,"CP":4309,"Ġten":4310,"mark":4311,"Ġpull":4312,"Exception":4313,"ĠJes":4314,"Ġthreat":4315,"Ġindustry":4316,"Ġauth":4317,"Ġcompletely":4318,"Ġlabel":4319,"band":4320,"Ġallows":4321,"ridge":4322,"Ġbrain":4323,"Ġaw":4324,"oring":4325,"Ġfair":4326,"Ġparameter":4327,"cember":4328,"nbsp":4329,"ĠSch":4330,"âĢĥ":4331,"Ġstreng":4332,"ĠJuly":4333,"Ġlocation":4334,"ĠSept":4335,"Ġopinion":4336,"align":4337,"Supp":4338,"Ġalone":4339,"ibrary":4340,"pa":4341,"Ġmilitary":4342,"inf":4343,"Ġacqu":4344,"Ã¿":4345,"Ġapply":4346,"Ġstated":4347,"Ġclearly":4348,"ĠAb":4349,"Ġearlier":4350,"Ġcritical":4351,"Ġfriends":4352,"Ġdistance":4353,"stream":4354,"Ġbuy":4355,"Ġeducation":4356,"};":4357,"TP":4358,"Ġ00":4359,"Ġenjoy":4360,"EC":4361,"ÑĤ":4362,"Ġvariable":4363,"Ġcandid":4364,"Ġlib":4365,"aker":4366,"ken":4367,"Ġ($":4368,"operator":4369,"Ġreduce":4370,"âĢĬ":4371,"onent":4372,"Ġheight":4373,"cluded":4374,"%,":4375,"ride":4376,"Ġmulti":4377,"Ġ2017":4378,"Ġcontinuous":4379,"eff":4380,"Ġstim":4381,"Ġprop":4382,"ibly":4383,"ĠTrans":4384,"ersion":4385,"New":4386,"och":4387,"},\\":4388,"ĠVal":4389,"ulf":4390,"static":4391,"Ġinterpret":4392,"ensional":4393,"Ġleaders":4394,"force":4395,"Ġreasons":4396,"rier":4397,"!!":4398,"Ġestablished":4399,"fn":4400,"(),":4401,"\\!":4402,"Ġsn":4403,"Now":4404,"Ġones":4405,"Ġprotect":4406,"CS":4407,"Ġinform":4408,"opl":4409,")).":4410,"nes":4411,"Man":4412,"erest":4413,"cil":4414,"Ġboard":4415,"endant":4416,"king":4417,"ãĢ":4418,"Ġrelevant":4419,"ĠMat":4420,"Ġchalleng":4421,"Gamma":4422,"omen":4423,"Ġmanufact":4424,"quest":4425,"Ġ2008":4426,"Ġ----------------":4427,"Ġcomplic":4428,"ades":4429,"Ġbenefits":4430,"ding":4431,"Ġparticipants":4432,"*]{}":4433,"material":4434,"Ġfields":4435,"čĊĠĠĠĠĠ":4436,"ĠBrit":4437,"ming":4438,"Ġcyt":4439,"hern":4440,"They":4441,"._":4442,"document":4443,"itude":4444,"Ġusers":4445,"Ġregarding":4446,"Ġactual":4447,"ico":4448,"Ġmort":4449,"Ġengine":4450,"Ġknew":4451,"Error":4452,"ĠJud":4453,"Ġparts":4454,"Ġhighest":4455,"Ġadjust":4456,"CTION":4457,"BA":4458,"Ġweb":4459,"Ġdiscl":4460,"RES":4461,"ls":4462,"Ġlat":4463,"Ġfiles":4464,"Exp":4465,"Ġremains":4466,"gram":4467,"Ġlearning":4468,"Ġlocated":4469,"Ġcontaining":4470,"stitute":4471,"overline":4472,"Ġfrequency":4473,"fa":4474,"works":4475,"........":4476,"Ġpen":4477,"overy":4478,"True":4479,"Ġadvant":4480,"Ġhit":4481,"Ġcontains":4482,"Ġserver":4483,"Ġsupported":4484,"Ġgenerated":4485,"cules":4486,"tem":4487,"uted":4488,"Ġchanged":4489,"Ġwond":4490,"ovember":4491,"Ġreceive":4492,"Ġunderstanding":4493,"Ġappears":4494,"ae":4495,"Ġproteins":4496,"iate":4497,"Ġson":4498,"Ġwriting":4499,"Ġsec":4500,"Ġmer":4501,"Ġax":4502,"Ġactivities":4503,")**":4504,"Ġmid":4505,"HO":4506,"Ġsolid":4507,"Ġinternational":4508,"SP":4509,"Ġcontribut":4510,"Ġfinding":4511,"Ġpsy":4512,"Ġdog":4513,"ubuntu":4514,"Ġcapt":4515,"Ġfine":4516,"Ġliqu":4517,"']":4518,"geq":4519,"From":4520,"Ġbegan":4521,"utive":4522,"ATE":4523,"ĠIL":4524,"Ġ2009":4525,"Ġattention":4526,"ett":4527,"Ġworth":4528,"ĠWest":4529,"yond":4530,"ashington":4531,"Ġeconomic":4532,"alt":4533,"Ġsites":4534,"Ġaud":4535,"Ġbuilt":4536,"init":4537,"rew":4538,"ĠDistrict":4539,"Ġdevices":4540,"rael":4541,"Ġdeclared":4542,"ĠCenter":4543,"======":4544,"ĠAD":4545,"ĠSchool":4546,"Ġtrust":4547,"astro":4548,"Ġsurgery":4549,"ĠAugust":4550,"Ġvariables":4551,"ani":4552,"Ġwasn":4553,"Ġqual":4554,"ĠAccording":4555,"Ct":4556,"Ġcontrast":4557,"Ġtrack":4558,"Ġstar":4559,"ĠJesus":4560,"dered":4561,"*-":4562,"Ġwidth":4563,"Ġalgorith":4564,"Ġreaction":4565,"rag":4566,"Ġconcentration":4567,"Ġdu":4568,"icit":4569,"Ġgoes":4570,"object":4571,"Ġarrest":4572,"encing":4573,"ĠDet":4574,"call":4575,"image":4576,"Ġplease":4577,"Ġculture":4578,"Ġauthors":4579,"Ġsubsequ":4580,"Ġfa":4581,"aste":4582,"ĠData":4583,"ĠIndia":4584,"adem":4585,"Ġrules":4586,"Ġstore":4587,"Ġemail":4588,"ĠBr":4589,"oe":4590,"Ġnumer":4591,"Ġprocedure":4592,"oding":4593,"ruary":4594,"Ġtim":4595,"Ġfully":4596,"imony":4597,".\\":4598,"Ġhon":4599,"ĠGre":4600,"argin":4601,"ios":4602,"color":4603,"Ġrelig":4604,"Ġrap":4605,"pol":4606,"unk":4607,"Ġeyes":4608,"pling":4609,"Ġuses":4610,"Ġprogress":4611,"ham":4612,"utr":4613,"Ġapplications":4614,"Ġreports":4615,"Ġcounsel":4616,"Ġbeyond":4617,"inct":4618,"ĠEl":4619,"Ġhearing":4620,"Ġsurpr":4621,"Ġ]":4622,"Ġrepl":4623,"Ġdefense":4624,"SC":4625,"pace":4626,"Ġoperator":4627,"bran":4628,"Ġinsp":4629,"Ġinteresting":4630,"related":4631,"Ġbecomes":4632,"psilon":4633,"Ġsetting":4634,"Ġinject":4635,"ĠOf":4636,"Ġstaff":4637,"ellow":4638,"ĠRec":4639,"Ġhands":4640,"Ġdead":4641,"BD":4642,"Ġtransform":4643,"Ġshowing":4644,"ĠUSA":4645,"[]":4646,"otal":4647,"iable":4648,"ĠDecember":4649,"Ġitems":4650,"Ġtravel":4651,"ĠNe":4652,"Ġsmaller":4653,"Ġbeaut":4654,"uced":4655,"Ġyield":4656,"weet":4657,"Ġcoord":4658,"icip":4659,"Ġeight":4660,"Ġresulting":4661,"Ġpow":4662,"########":4663,"Ġmajority":4664,"Ġinn":4665,"Ġclust":4666,"Ġenter":4667,"Ġtowards":4668,"conn":4669,"Ġobvious":4670,"Ġwebsite":4671,"Ġutil":4672,"ĠTw":4673,"iency":4674,"ĠMark":4675,"Ġdomain":4676,"Ġbed":4677,"Ġregions":4678,"ilies":4679,"Ġ<<":4680,"Ġproduce":4681,"*.":4682,"gn":4683,"Ġsomet":4684,"Form":4685,"ĠSub":4686,"ooth":4687,"Ġvolume":4688,"Ġequival":4689,"fs":4690,"ensions":4691,"ameter":4692,"Ġconsequ":4693,"Ġ||":4694,"iforn":4695,"Ġreasonable":4696,"Ġproduced":4697,"ille":4698,"Ġ45":4699,"Ġmedium":4700,"Ġinstit":4701,"rices":4702,"Ġindicated":4703,"Ġturned":4704,"ci":4705,"Ġnames":4706,"aling":4707,"Ġrelatively":4708,"Ġimmediately":4709,"Ġcolon":4710,"Ġcarry":4711,"oice":4712,"Ġskin":4713,"Ġsafety":4714,"ĠMon":4715,"Ġexactly":4716,"Ġlooks":4717,"Ġstarting":4718,"Ġslight":4719,"Ġdivided":4720,"Ġsold":4721,"ĠPublic":4722,"Ġreading":4723,"icine":4724,"Ġprefer":4725,"odies":4726,"rum":4727,"config":4728,"Ġcouple":4729,"Ġdecided":4730,"Ġsound":4731,"Ġforms":4732,"enge":4733,"Ġpetition":4734,"Ġadministration":4735,"zz":4736,"Ġimm":4737,"Ġgets":4738,"Ġexperiments":4739,"ado":4740,"Ġcup":4741,"Ġ80":4742,"Ġarri":4743,"Ġbrought":4744,"oat":4745,"oura":4746,"ĠFrom":4747,"ĠMoreover":4748,"Ġexists":4749,"Ġbirth":4750,"Ġdepart":4751,"anged":4752,"Ġworked":4753,"='":4754,"Ġsyn":4755,"ĠCO":4756,"Ġreduction":4757,"fort":4758,"Î²":4759,"free":4760,"cor":4761,"Ġdefine":4762,"){#":4763,"Ġmys":4764,"Ġdark":4765,"Ġinfluence":4766,"*(":4767,"Ġcounter":4768,"Ġupper":4769,"ĠBecause":4770,"Ġmaterials":4771,"':":4772,"attle":4773,"ĠTable":4774,"Ġinteraction":4775,"Ġlaws":4776,"EG":4777,"Ġroad":4778,"Ġanalys":4779,"Ġmetab":4780,"ĠOctober":4781,"Ġhous":4782,"Ġstd":4783,"Ġabsol":4784,"Ġtransport":4785,"operatorname":4786,"Ġgun":4787,"Ġmaximum":4788,"ĠRed":4789,"Big":4790,"\\|":4791,"Ġfather":4792,"Ġfelt":4793,"Ġconstruction":4794,"Ġmg":4795,"Ġroot":4796,"cin":4797,"Ġnorm":4798,"/(":4799,"Ġinterview":4800,"Ġcomputer":4801,"}-":4802,"Ġextract":4803,"Ġfacts":4804,"check":4805,"omin":4806,"Ġparents":4807,"Ġ95":4808,"TY":4809,"oses":4810,"Ġzero":4811,"Ġseparate":4812,"Ġer":4813,"eria":4814,"ights":4815,"Ġopportunity":4816,"ĠNovember":4817,"ifornia":4818,"etilde":4819,"Ġnoted":4820,"widetilde":4821,"Ġhop":4822,"ĠWashington":4823,"_.":4824,"Ġdro":4825,"Ġvirt":4826,"iform":4827,"Ġ->":4828,"Ġvictim":4829,"Ġbinding":4830,"Ġnor":4831,"Ġlabor":4832,"ĠSeptember":4833,"ĠTH":4834,"Ġphosph":4835,"Ġcircuit":4836,"Ġdrive":4837,"oon":4838,"Ġplayed":4839,"Ġdoor":4840,"ĠCong":4841,"Ġconnect":4842,"uffer":4843,"Ġinternal":4844,"Ġthroughout":4845,"cos":4846,"Ġbasic":4847,"Ġrevealed":4848,"Ġcolumn":4849,"itro":4850,"Ġprocesses":4851,"Ġreleased":4852,"ĠMod":4853,"ĠObama":4854,"ĠChar":4855,"ĊĠĠĠĠĠĠĠĠĠĠĠĠĠĠĠĠĠĠĠĠĠĠĠĠĠĠĠ":4856,"Ġachieve":4857,"bm":4858,"Ġalleged":4859,"ares":4860,"Ġlov":4861,"Ġsecret":4862,"Ġsources":4863,"------":4864,"Ġappe":4865,"bolds":4866,"Ġensure":4867,"Ġmusic":4868,"boldsymbol":4869,"ĠSection":4870,"ĠDemocr":4871,"Ġfit":4872,"MR":4873,"Ġhealthy":4874,"Ġwrote":4875,"rick":4876,"Ġformation":4877,"ĠIsrael":4878,"iance":4879,"Ġcit":4880,"ference":4881,"raint":4882,"Node":4883,"Ġmechanism":4884,"Ġmagnetic":4885,"Ġrac":4886,"Ġcollect":4887,"omas":4888,"After":4889,"Hand":4890,"Sub":4891,"Sec":4892,"Info":4893,"Ġconcept":4894,"Ġtool":4895,"Ġmode":4896,"Ġstatist":4897,"Ġtown":4898,"ifier":4899,"Ġtests":4900,"004":4901,"``":4902,"enter":4903,"Ġplayer":4904,"Ġheard":4905,"Ġcam":4906,"Ġcrim":4907,"Ġmanif":4908,"Ġfunctional":4909,"omic":4910,"Ġsymptoms":4911,"Ġ90":4912,"roller":4913,"Event":4914,"zeta":4915,"Ġhappen":4916,"Ġconnected":4917,"Ġactions":4918,"atur":4919,"Ġaspect":4920,"Ġconducted":4921,"Ġformed":4922,"Ġbuff":4923,"Ġresistance":4924,";\\":4925,"Ġ});":4926,"Ġremove":4927,"Ġincor":4928,"Ġotherwise":4929,"ĠOther":4930,"Ġbow":4931,"Ġreflect":4932,"Ab":4933,"Inst":4934,"Ġrace":4935,"Ġready":4936,"Ġcombination":4937,"mmet":4938,"Ġaward":4939,"prot":4940,"Vert":4941,"asion":4942,"Ġdiagnosis":4943,"Ġportion":4944,"ĠAfric":4945,"Ġquickly":4946,"umin":4947,"Ġcool":4948,"Ġlives":4949,"Ġclosed":4950,"Ã³n":4951,"Ġmachine":4952,"Be":4953,"Ġsets":4954,"Ġcomparison":4955,"Ġ48":4956,"Ġsymmet":4957,"Ġwide":4958,"Ġmount":4959,"cles":4960,"Ġult":4961,"poses":4962,"room":4963,"cons":4964,"space":4965,"which":4966,"Ġ\"\"":4967,"Ġaware":4968,"ĠTra":4969,"Ġincreases":4970,"erved":4971,"Ġphone":4972,"SA":4973,"ounced":4974,"igation":4975,"Ġ37":4976,"Context":4977,"nonumber":4978,"Ġquar":4979,"Ġ33":4980,"Ġ/**":4981,"title":4982,"za":4983,"Ġplaying":4984,")^":4985,"Ġseven":4986,"Ġplas":4987,".[":4988,"Ġresources":4989,"FA":4990,"PD":4991,"vare":4992,"Ġlif":4993,"ĠĠĠĠĠĠĠĠĠĠĠĠĠĠĠĠĠĠĠ":4994,"Ġinflam":4995,"lish":4996,"ĠID":4997,"Ġcalculated":4998,"SU":4999,"isation":5000,"parent":5001,"Ġyes":5002,"}}_":5003,"Ġdescription":5004,"Ġsteps":5005,"Ġremember":5006,"Ġdemonstrated":5007,"Ġquantum":5008,"depend":5009,"Ġpaid":5010,"Ġremoved":5011,"olved":5012,"Ġlooked":5013,"Ġarch":5014,"Ġfresh":5015,"Ġmoved":5016,"Ġchoose":5017,"Ġeth":5018,"Ġspin":5019,"ĠInst":5020,"car":5021,"Ġmur":5022,"Ġmeeting":5023,"Here":5024,"SM":5025,"Î±":5026,"Ġign":5027,"Ġlas":5028,"oto":5029,"Ġpackage":5030,"irt":5031,"ĠRev":5032,"Ġhappened":5033,"Ġdatabase":5034,"Ġshape":5035,"undred":5036,"vest":5037,"Ġprove":5038,"Ġproviding":5039,"Ġcapital":5040,"iques":5041,"âĶĢâĶĢâĶĢâĶĢâĶĢâĶĢâĶĢâĶĢâĶĢâĶĢâĶĢâĶĢâĶĢâĶĢâĶĢâĶĢ":5042,"ĠFebruary":5043,"Ġmorning":5044,"ĠInternational":5045,"Ġplant":5046,"Ġmess":5047,"Index":5048,"Ġcircumst":5049,"ĠArt":5050,"ĠLaw":5051,"Ġlegis":5052,"Ġmoving":5053,"Ġsometimes":5054,"urrent":5055,"Ġexposure":5056,"Ġfeature":5057,"Ġconsistent":5058,"itivity":5059,"PO":5060,".'":5061,"Ġthinking":5062,"Ġdelay":5063,"input":5064,"ship":5065,"Ġreach":5066,"Ġcapacity":5067,"Ġ(\\":5068,"Ġtestimony":5069,")/(-":5070,"ĠGet":5071,"aur":5072,"Ġstru":5073,"ctors":5074,"uman":5075,"Ġ\\,":5076,"Ġestablish":5077,"Out":5078,"stitution":5079,"oul":5080,"Ġweak":5081,"ĠNet":5082,"heck":5083,"\\],":5084,"Ġgiving":5085,"ĠAustral":5086,"Ġhttps":5087,"Ġcriminal":5088,"Ġdamage":5089,"Ġtask":5090,"Ġcharacteristics":5091,"Ġsevere":5092,"ĠEq":5093,"ĠList":5094,"Ġpul":5095,"Ġpeak":5096,"({":5097,"False":5098,"ĠĠĠĠĠĠĠĠĠĠĠĠĠĠĠĠĠ":5099,"rations":5100,"HT":5101,"yth":5102,"start":5103,"Ġâī":5104,"Ġdisp":5105,"unn":5106,"Ġdetected":5107,"ventional":5108,"ĠCalifornia":5109,"Ġwitness":5110,"othe":5111,"ĠCR":5112,"style":5113,"002":5114,"Ġfamilies":5115,"ascular":5116,"otype":5117,"Ġbul":5118,"^{(":5119,"à¤":5120,"ael":5121,"Ġnearly":5122,"Ġindicate":5123,"Log":5124,"ĠAtt":5125,"case":5126,"Ġbottom":5127,"urg":5128,"ĠIndian":5129,"rees":5130,"sembly":5131,"ĠSan":5132,"oken":5133,"Ġrecommend":5134,"Ġmiddle":5135,"ĊĊĉ":5136,"Ġfigure":5137,"Ġcardi":5138,"Ġblog":5139,"ĠTest":5140,"ĠSec":5141,"ĠAng":5142,"berg":5143,"Ġ2018":5144,"Ġsen":5145,"Ġband":5146,"////////":5147,"ĠResearch":5148,"Ġthous":5149,"ocket":5150,"Ass":5151,"tered":5152,"Ġmac":5153,"ĠAL":5154,"/(-":5155,"bot":5156,"varepsilon":5157,"Ġmetal":5158,"Ġdistributed":5159,"Ġchannel":5160,"lick":5161,"under":5162,"ĠKing":5163,"esh":5164,"00000000":5165,"Ġter":5166,"}}(":5167,"Ġworkers":5168,"}=\\":5169,"men":5170,"čĊĠĠĠĠĠĠĠ":5171,"Ġrul":5172,"Ġjur":5173,"true":5174,"Ġlay":5175,"Ġneur":5176,"Ġspeak":5177,"ĠGr":5178,"Ġcert":5179,"ranch":5180,"Ġvehicle":5181,"ech":5182,"iment":5183,"icity":5184,"atever":5185,"Ġscient":5186,"ĠInterest":5187,"IA":5188,"Ġnil":5189,"Up":5190,"itors":5191,"ymph":5192,"Ġexisting":5193,"Ġscreen":5194,"Ġpopular":5195,"Ġcomments":5196,"current":5197,"Ġlip":5198,"ĠBoard":5199,"ipe":5200,"ford":5201,"ĠHol":5202,"Ġbenefit":5203,"ĠFigure":5204,"ĠPost":5205,"Ġsuggested":5206,"Ġdiscussed":5207,"going":5208,"())":5209,"Ġfix":5210,"uty":5211,"Ġchance":5212,"IB":5213,"PR":5214,"aught":5215,"Ġnovel":5216,"\"></":5217,"irit":5218,"AV":5219,"eah":5220,"amin":5221,"ename":5222,"Ġstrength":5223,"ĠNULL":5224,"icial":5225,"Ġ((":5226,"overnment":5227,"Ġroll":5228,"Ġhear":5229,"Ġcorpor":5230,"Ġfinally":5231,"]:":5232,"build":5233,"Ġmag":5234,"Ġmm":5235,"Ġplaced":5236,"Ġswitch":5237,"Ġcryst":5238,"ĠFl":5239,"ĠAlso":5240,"\\,":5241,"Ġil":5242,"âĢĶâĢĶ":5243,"Ġliquid":5244,"Ġbrief":5245,"bin":5246,"ĠHigh":5247,"Ġapparent":5248,"Ġ34":5249,"Ġmyself":5250,"UM":5251,"Ġcat":5252,"Ġsafe":5253,"ded":5254,"Ġdaily":5255,"\\/":5256,"ĠFurthermore":5257,"Ġregul":5258,"Ġ70":5259,"Color":5260,"board":5261,"ĠIR":5262,"Ġdiss":5263,"Ġforeign":5264,"ĠSy":5265,"cher":5266,"abs":5267,"ĠWhite":5268,"host":5269,"Ġinfection":5270,"Ġactivation":5271,"xx":5272,"Ġextrem":5273,"Ġtesting":5274,"Ġletter":5275,"Ġcivil":5276,"alle":5277,"lict":5278,"ldots":5279,"VER":5280,"php":5281,"sf":5282,"Ð¸":5283,"Ġshoot":5284,"Ġnation":5285,"Ġincome":5286,"Ġgreen":5287,"ĠFound":5288,"Ġunits":5289,"ĠCommission":5290,"Ġbreast":5291,"Ġjudge":5292,"arr":5293,"Trans":5294,"Ġexpand":5295,"Ġinsert":5296,"Ġprem":5297,"ĠUK":5298,"Ġmanner":5299,"Box":5300,"ĠMus":5301,"Ġmeasures":5302,"Ġsummary":5303,"EE":5304,"Ġsend":5305,"Ġnamed":5306,"Ġalternative":5307,"inst":5308,"Ġdrugs":5309,"Ġwid":5310,"ĊĊĠĠĠĠĠĠĠĠĠĠĠ":5311,"long":5312,"Ġstudied":5313,"Ġmale":5314,"Ġfinite":5315,"Ġemployees":5316,"message":5317,"Ġtree":5318,"Ġadopt":5319,"Ġdoc":5320,"ĠAnt":5321,"Oh":5322,"enty":5323,"Ġofficer":5324,"Ġsup":5325,"ĠEven":5326,"urt":5327,"java":5328,"det":5329,"Ġyourself":5330,"Ġresponsible":5331,"Ġprobability":5332,"Me":5333,"Ġtrade":5334,"soft":5335,"rab":5336,"Ġfear":5337,"ĠRNA":5338,"Ġ36":5339,"ĠAc":5340,"ipp":5341,"Ġdetect":5342,"ĠJapanese":5343,"Ġrout":5344,"ario":5345,"ĠCode":5346,"ĊĊĊĊ":5347,"Cre":5348,"ĠTex":5349,"Ġstrategy":5350,"Ġapproximately":5351,"ĠTO":5352,"ĠBank":5353,"Ġsexual":5354,"Ġobjects":5355,"Ġsurvival":5356,"mic":5357,"Ġexercise":5358,"Ġshot":5359,"omb":5360,"[\\":5361,"Ġmix":5362,"Ġinvestigation":5363,"Array":5364,"Ġstation":5365,"Ġprograms":5366,"Ġdenied":5367,"Ġminimum":5368,"Ġtherm":5369,"Ġmovement":5370,"Ġexhib":5371,"ĠOff":5372,"racy":5373,"CM":5374,"atically":5375,"gebra":5376,"Ġ2000":5377,"induced":5378,"ka":5379,"Ġwild":5380,"ĠPM":5381,"ĠRel":5382,"**]{},":5383,"gs":5384,"zym":5385,"Config":5386,"Ġ42":5387,"Ġpanel":5388,"Yes":5389,"Ġwave":5390,"Ġrecords":5391,"Ġbill":5392,"Ġspecifically":5393,"Ġhundred":5394,"Ġvariety":5395,"erent":5396,"User":5397,"Ġwife":5398,"rome":5399,"Ġcontinued":5400,"Ġstructures":5401,"Ġrapid":5402,"[^":5403,"Ġ=\\":5404,"âĢ²":5405,"ĠSpec":5406,"Ġcompr":5407,"ĠHam":5408,"Ġpassed":5409,"Ġplatform":5410,"Ġmentioned":5411,"ĠAssoci":5412,"rig":5413,"Ġsusp":5414,"Ġbeginning":5415,"Size":5416,"Ġsave":5417,"apping":5418,"inese":5419,"ĠHer":5420,"olar":5421,"Ġcarried":5422,"indows":5423,")?":5424,"priv":5425,"*~":5426,"Ġassume":5427,"ellig":5428,"Ġstock":5429,"ĠNote":5430,"Ġliver":5431,"Ġexperimental":5432,"Ġseed":5433,"Ġprepared":5434,"ĠSup":5435,"Ġprepar":5436,"\"},":5437,"PP":5438,"Ġconfirmed":5439,"normal":5440,"Ġthick":5441,"Ġadapt":5442,"ĠPark":5443,"CO":5444,"Code":5445,"Ġdespite":5446,"Ġprocessing":5447,"Read":5448,"rary":5449,"Ġut":5450,"Ġstream":5451,"esis":5452,"ĠRef":5453,"Ġtalking":5454,"Ġstraight":5455,"ĠAut":5456,"Ġstuff":5457,"Ġstatute":5458,"ETH":5459,"Ġprosec":5460,"Ġdetection":5461,"Ġcollection":5462,"Ġhappy":5463,"iers":5464,"Ġsubstr":5465,"ingu":5466,"Ġcop":5467,"ingly":5468,"olid":5469,"Ġinduced":5470,"Ġsuccessful":5471,"otimes":5472,"Ġvan":5473,"ĠCON":5474,"Ġcorrelation":5475,"Ġcore":5476,"ĠDi":5477,"Ġagg":5478,"Ġexperiment":5479,"elle":5480,"Ġclub":5481,"AY":5482,"Ġdry":5483,"agram":5484,"Ġremaining":5485,"Ġbacter":5486,"Ġprofessional":5487,"Ġsell":5488,"Ġtested":5489,"Ġkilled":5490,"TT":5491,"gu":5492,"open":5493,"Ġsleep":5494,"ĠTR":5495,"iful":5496,"Call":5497,"ds":5498,"ĠInter":5499,"Ġbond":5500,"Ġshift":5501,"level":5502,"Ġminor":5503,"airs":5504,"Ġreached":5505,"Ġstorage":5506,"Ġupd":5507,"oz":5508,"Ġtend":5509,"Ġcommerc":5510,"Ġcombined":5511,"ĠIll":5512,"dot":5513,"Ġreturned":5514,"Ġupdate":5515,"Ġelectric":5516,"ĠMor":5517,"&&":5518,"Ġelection":5519,"ĠSw":5520,"ago":5521,"Ġcircumstances":5522,"Ġclasses":5523,"ĠHospital":5524,"Ġimproved":5525,"ĠCH":5526,"Ġtruth":5527,"idden":5528,"Ġapart":5529,"Ġwants":5530,"Ġserve":5531,"Ġsolutions":5532,":\\":5533,"iced":5534,"Ġonto":5535,"Ġimag":5536,"Ġthrow":5537,"dict":5538,"Ġsuggests":5539,"Ġcareer":5540,"icians":5541,"create":5542,"Ġmaybe":5543,"icks":5544,"Ġanalyzed":5545,"iders":5546,"Ġchallenge":5547,"Ġscen":5548,"Ġreject":5549,"Ġclick":5550,"Ġ2006":5551,"osen":5552,"ky":5553,"Ġrelation":5554,"Ġhour":5555,"Ġreplacement":5556,"Ġproport":5557,"Ġofficials":5558,"Ġcontrols":5559,"Ġexplain":5560,"**^":5561,"Ġsentence":5562,"Ġcru":5563,"Ġunless":5564,"ATION":5565,"Ġ${":5566,"acing":5567,"Ġleads":5568,"Ġtypically":5569,"eturn":5570,"Ġwhereas":5571,"Ġborder":5572,"ests":5573,"Ġagreed":5574,"ifying":5575,"ups":5576,"ync":5577,"xy":5578,"igration":5579,"arest":5580,"Ġsociety":5581,"ptions":5582,"Ġ2007":5583,"ĠĠĠĠĠĠĠĠĠĠĠĠĠĠĠĠĠĠ":5584,"''":5585,"run":5586,"lication":5587,"Per":5588,"Ġimplic":5589,"ails":5590,"Ġderived":5591,"ĠPaul":5592,"Ġdied":5593,"Ġraised":5594,"Ġassociation":5595,"omorph":5596,"Ġoccurred":5597,"}}{":5598,"zon":5599,"ications":5600,"Ġdecreased":5601,"Ġpicked":5602,"Ġfemale":5603,"coh":5604,"num":5605,"Ġtouch":5606,"idel":5607,"Ġunf":5608,"Ġship":5609,"Ġtechniques":5610,"Ġded":5611,"Ġpush":5612,"di":5613,"Sp":5614,"abil":5615,"Ġtal":5616,"Ġspread":5617,"Ġvisual":5618,"kg":5619,"ĠNOT":5620,"Ġdismiss":5621,"rench":5622,"Ġfirm":5623,"Ġaffected":5624,"uing":5625,"âĸ":5626,"Ġbillion":5627,"Ġemot":5628,"Ġvolt":5629,"Ġedge":5630,"Ġattorney":5631,"Method":5632,"Ġtables":5633,"Ġdie":5634,"Ġnuclear":5635,"phone":5636,"ondon":5637,"Ġgrowing":5638,"Ġrow":5639,"ĠCalculate":5640,"Model":5641,"ara":5642,"stract":5643,"ĠDavid":5644,"gt":5645,"istant":5646,"Ġappellant":5647,"Ġtools":5648,"Ġplans":5649,"Count":5650,"itz":5651,"Ġbud":5652,"Ġgeneration":5653,"Ġchemical":5654,"Ġadvantage":5655,"ĠGroup":5656,"Ġmonitor":5657,"Ġclient":5658,"api":5659,"Ġspent":5660,"Ġcoe":5661,"Ġbehavi":5662,"({\\":5663,"Ġunc":5664,"anned":5665,"Ġrepresentation":5666,"riday":5667,"Ġcredit":5668,"rely":5669,"ANT":5670,"Ġmolecular":5671,"ĠEuropean":5672,"ĠWilli":5673,"Ġillust":5674,"Service":5675,"Ġdebt":5676,"500":5677,"Ġofficers":5678,"rich":5679,"rape":5680,"ĠEast":5681,"main":5682,"urity":5683,"Ġcalls":5684,"######":5685,"Ġfeet":5686,"pass":5687,"iling":5688,"Ġnone":5689,"Ġuns":5690,"Image":5691,"ĠMost":5692,"Ġsubjects":5693,"čĊĉ":5694,"Ġestimated":5695,".*":5696,"ĠPre":5697,"Ġperhaps":5698,"ĊĊĠĠĠĠĠ":5699,"kay":5700,"ĠTV":5701,"arian":5702,"Ġloop":5703,"Field":5704,"QL":5705,"Ġscript":5706,"Any":5707,"flow":5708,"produ":5709,"Ġplaces":5710,"Ġwonder":5711,"Ġ__":5712,"Why":5713,"Do":5714,"Ġsust":5715,"Ġselection":5716,"aly":5717,"ographic":5718,"ÂłÂłÂłÂł":5719,"Ã¿Ã¿":5720,"core":5721,"release":5722,"ignment":5723,"ometry":5724,"Ġintroduced":5725,"Bl":5726,"ĠPal":5727,"ira":5728,"actory":5729,"Ġtrig":5730,"Ġefforts":5731,"ÑĢ":5732,"Ġhandle":5733,"Ġelectr":5734,"Ġdiscussion":5735,"Ġcir":5736,"ĠSupp":5737,"spect":5738,"TC":5739,"atin":5740,"ptr":5741,"Ġblue":5742,"Ġmembran":5743,"Ġnice":5744,"ĠNS":5745,"Ġanimals":5746,"Fr":5747,"ressive":5748,"Ġandroid":5749,"olean":5750,"Ġfruit":5751,"iled":5752,"Ġhypot":5753,"ĠBro":5754,"actor":5755,"OU":5756,"Ġvent":5757,"Ġ&\\":5758,"Ġdiet":5759,"Ġletters":5760,"DU":5761,"EP":5762,"Ġvote":5763,"acebook":5764,"Ġprotection":5765,"matory":5766,"Ġbiggest":5767,"ĠYour":5768,"jo":5769,"roy":5770,"ilarly":5771,"rie":5772,"Ġkin":5773,"Ġdescribe":5774,"dem":5775,"Ġcouldn":5776,"ĠPlaintiff":5777,"Ð¾Ð":5778,"inger":5779,"ĠDon":5780,"ĠER":5781,"inner":5782,"Ġ38":5783,"Ġ2005":5784,"ĠCongress":5785,"NF":5786,"Ġdoll":5787,"Ġoutcome":5788,"Ġmodern":5789,"Ġserum":5790,"**(-":5791,"queue":5792,"Ġpurposes":5793,"nam":5794,"Ġcollected":5795,"onday":5796,"Ġevaluated":5797,"Ġneighbor":5798,"tra":5799,"Ġmental":5800,"Ġplate":5801,"BI":5802,"izations":5803,"Ġplus":5804,"]\\],":5805,"Ġmovie":5806,"ĠSur":5807,"ĠJew":5808,"Inter":5809,"Ġtechnique":5810,"opyright":5811,"Ġbab":5812,"pg":5813,"Ġsto":5814,"ART":5815,"Ġdanger":5816,"Ġsmooth":5817,"rl":5818,"aughter":5819,"Ġ(**":5820,"orb":5821,"Ġstudent":5822,"Ġmissing":5823,"Ġhuge":5824,"DR":5825,"well":5826,"appa":5827,"ĠNews":5828,"Ġcertainly":5829,"Ġfootball":5830,"Ġ()":5831,"Ġwouldn":5832,"ĠSuper":5833,"Ġlinks":5834,"resents":5835,"Ġwait":5836,"result":5837,"Ġarm":5838,"Ġconver":5839,"Rec":5840,"Ġgradu":5841,"ivery":5842,"ĠPC":5843,"Ġcommunication":5844,"Ġexplained":5845,"ainer":5846,"pc":5847,"ĠEnd":5848,"Ġ(!":5849,"ria":5850,"Ġalgorithm":5851,"Ġtempor":5852,"xml":5853,"Ġconvert":5854,"Ġempt":5855,"Ġprojects":5856,"*)":5857,"Ġintent":5858,"Ġinsurance":5859,"xture":5860,"Ġefficient":5861,"closure":5862,"Ġoperations":5863,"iler":5864,"Ġencoura":5865,"Ġcomplaint":5866,"GC":5867,"Ġabsence":5868,"Ġeconomy":5869,"ĠCoun":5870,"Ġmobile":5871,"what":5872,"Ġconventional":5873,"Ġoptim":5874,"Pr":5875,"Ġtransl":5876,"Ġexternal":5877,"Ġforces":5878,"how":5879,"While":5880,"aud":5881,"url":5882,"Ġexchange":5883,"Ġkept":5884,"Ġnetworks":5885,"ITY":5886,"Ġaccepted":5887,"Ġslightly":5888,"arant":5889,"Ġsupply":5890,"frame":5891,"local":5892,"ĠSupreme":5893,"usband":5894,"Ġdecrease":5895,"Ġcm":5896,"Ġpsych":5897,"pack":5898,"icated":5899,"asc":5900,"DA":5901,"ĠCommun":5902,"Ġendosc":5903,"2015":5904,"gr":5905,"ĠEnglish":5906,"Ġbuffer":5907,"Ġkids":5908,"sole":5909,"model":5910,"Ġjobs":5911,"itled":5912,"ithub":5913,"See":5914,"Ġmist":5915,"Ġelectron":5916,"false":5917,"Ġscience":5918,"ĊĠĠĠĠĠĠĠĠĠĠĠĠĠĠĠĠĠ":5919,"matrix":5920,"ialog":5921,"Ġresponses":5922,"cknow":5923,"Ġsitu":5924,"amily":5925,"Ġcatch":5926,"Ġauthority":5927,"ĠOh":5928,"Ġmotor":5929,"content":5930,"Reg":5931,"ĠGoogle":5932,"FT":5933,"Ġsurround":5934,"mittee":5935,"ME":5936,"Ġgal":5937,"Ġdisapp":5938,"ipment":5939,"rient":5940,"Dep":5941,"before":5942,"Ġpiece":5943,"Ġarbit":5944,"Calculate":5945,"Ñģ":5946,"Element":5947,"ĠFin":5948,"ostic":5949,"Ġintended":5950,"Ġequivalent":5951,"plify":5952,"Ser":5953,"Ġflex":5954,"ĠInstitute":5955,"ĠĠĠĠĠĠĠĠĠĠĠĠĠĠĠĠĠĠĠĠ":5956,"SI":5957,"olf":5958,"Ġkill":5959,"Ġregist":5960,"Ġrequirements":5961,"ĠFlor":5962,"'.":5963,"imb":5964,"Ġoccup":5965,"}+":5966,"ĠClass":5967,"ocytes":5968,"ĠEm":5969,"Ġadding":5970,"Ġchronic":5971,"Ġserved":5972,"Ġagent":5973,"Ġhistor":5974,"Ġideas":5975,"yst":5976,"Ġchain":5977,"Ġentry":5978,"Ġguy":5979,".[@":5980,"Ġtour":5981,"Ġtraditional":5982,"Ġbelong":5983,"Our":5984,"Ġing":5985,"Ġmill":5986,"illa":5987,"Ġpolic":5988,"Ġpark":5989,"iny":5990,"Ġextent":5991,"âĢĿ.":5992,"Ġjava":5993,"poss":5994,"oute":5995,"Ġconvers":5996,"Ġexpert":5997,"Ġcreating":5998,"/**":5999,"Ġnearest":6000,"Ġjoint":6001,"Ġsymb":6002,"Ġholds":6003,"ĠFOR":6004,"oted":6005,"ĠArm":6006,"Ġepis":6007,".$$":6008,"orter":6009,"Ġrepresents":6010,"subset":6011,"Ġcitiz":6012,"Aut":6013,"ny":6014,"Ġinvolve":6015,"ĠBi":6016,"Ġinterests":6017,"Ġteams":6018,"Ġhair":6019,"Ġwhom":6020,",-":6021,"ĠOver":6022,"Ġdiscrim":6023,"Ġtrend":6024,"MP":6025,"older":6026,"Ġguess":6027,"Ġfaith":6028,"Ġinterval":6029,"ĠChinese":6030,"server":6031,"Map":6032,"ca":6033,"context":6034,"First":6035,"ota":6036,"Ġfeeling":6037,"Ġ~":6038,"ĠWell":6039,"block":6040,"ilty":6041,"Att":6042,"Ġequations":6043,"reedom":6044,"ĠUp":6045,"Ġkid":6046,"Ġcycle":6047,"^âĪĴ":6048,"Ġdirector":6049,"Ġevolution":6050,"ĠGermany":6051,"Ġcurve":6052,".](":6053,"Ġinterface":6054,"post":6055,"write":6056,"ĠWestern":6057,"ĠAny":6058,"\\!\\!":6059,"can":6060,"$(":6061,"ypes":6062,"Ġcast":6063,")/(":6064,"Ġintegr":6065,"ĠBritish":6066,"}|":6067,"Equ":6068,"Ġdrop":6069,"ĠEach":6070,"==========":6071,"Ġgrand":6072,"iÃ³n":6073,"Ġwind":6074,"ville":6075,"acters":6076,"Ġassessment":6077,"ĠMart":6078,"-(":6079,"DL":6080,"Ġinteractions":6081,"Ġentered":6082,"Ġanalyses":6083,"Act":6084,"cs":6085,"MC":6086,"bound":6087,"Ġlymph":6088,"valid":6089,"Ġdose":6090,"ructions":6091,"was":6092,"Ġeat":6093,"Ġelim":6094,"Ġguys":6095,"iveness":6096,"System":6097,"Ġconcentrations":6098,"Ġpicture":6099,"Ġlatest":6100,"Ġcauses":6101,"\\{":6102,"Some":6103,"doc":6104,"uesday":6105,"ologies":6106,"ĠCanada":6107,"ĠMicro":6108,"ALL":6109,"nav":6110,"Ġmodule":6111,"ĠRem":6112,"Ġcriteria":6113,"specific":6114,"ansion":6115,"Ġdistinct":6116,"Can":6117,"istent":6118,"anges":6119,"wards":6120,"wood":6121,"Build":6122,"ĠAR":6123,"ĠFoundation":6124,"Ġcommercial":6125,"orge":6126,"Ġlicense":6127,"iral":6128,"Ġearn":6129,"Ġlock":6130,"ĠCL":6131,"However":6132,"Well":6133,"care":6134,"Ġvert":6135,"onic":6136,"!--":6137,"ias":6138,"Property":6139,"ĠTwo":6140,"Ġfilter":6141,"Ġproperly":6142,"Ġradio":6143,"Ġpatterns":6144,"BL":6145,"ĠFe":6146,"child":6147,"Ġfloor":6148,"Ġestimate":6149,"ĠON":6150,"Ġmechanisms":6151,"dt":6152,"ĠCP":6153,"Request":6154,"ĠSuch":6155,"Ġinteger":6156,"ABLE":6157,"asks":6158,"while":6159,"Ġevaluate":6160,"Ġincorpor":6161,"Ġ};":6162,"Ġcateg":6163,"ĠÎ¼":6164,"ĠĠĠĠĠĠĠĠĠĠĠĠĠĠĠĠĠĠĠĠĠ":6165,"rapeut":6166,"riv":6167,"Ġ(\"":6168,"Ġ{{\\":6169,"Ġcharges":6170,"ensor":6171,"Ġenzym":6172,"Ġcrime":6173,"Ð½":6174,"ĠBoth":6175,"0001":6176,"istan":6177,"Ġju":6178,"just":6179,"Ġexception":6180,"ĠLondon":6181,"TO":6182,"font":6183,"len":6184,"utor":6185,"Ġvoice":6186,"draw":6187,"uries":6188,"Ġdoubt":6189,"after":6190,"ĠCA":6191,"cluding":6192,"Ġstatements":6193,"omes":6194,"Ġtrou":6195,"Ġformula":6196,"ini":6197,"UE":6198,"ariant":6199,"Ġlargest":6200,"Ġindicates":6201,"Ġannounced":6202,"bug":6203,"lem":6204,"Ġ\"[":6205,"Ġcontained":6206,"Ġorganization":6207,"ĠFriday":6208,"Ġrecorded":6209,"Ġrepeated":6210,"anging":6211,"abla":6212,"ĠCommittee":6213,"Ġconclusion":6214,"Ġvoltage":6215,"Ġinterested":6216,"Ġcontrolled":6217,"Date":6218,"Ġ++":6219,"Ġoffered":6220,"last":6221,"Ġpossibility":6222,"orry":6223,"default":6224,"Ġresolution":6225,"ipal":6226,"Ġrob":6227,"Ġexistence":6228,"=&":6229,"Ġnodes":6230,"Ġjuris":6231,"Group":6232,"Source":6233,"Ġgone":6234,"Ġfluid":6235,"Ġ44":6236,"ĠKore":6237,"CK":6238,"itions":6239,"Ġconserv":6240,"Ġaren":6241,"Ġgoals":6242,"Ġvolunt":6243,"Ġsch":6244,"ĠUnder":6245,"android":6246,"Ġreferred":6247,"itory":6248,"Ġgain":6249,"Ġgold":6250,"Fl":6251,"Ġwhatever":6252,">>":6253,"Ġdriver":6254,"DS":6255,"icate":6256,"Ġsummer":6257,"ĠTime":6258,"})$":6259,"Ġcompens":6260,"Ġchrom":6261,"Ġpun":6262,"Ġeye":6263,"Ġstars":6264,"ĠEv":6265,"Ġconfirm":6266,")*(":6267,"Ġ--------":6268,"ĠAT":6269,"izer":6270,"Ġorigin":6271,"query":6272,"first":6273,"Ġrecip":6274,"pled":6275,"Ġholding":6276,"ĠRober":6277,"Ġsale":6278,"unday":6279,"Ġcomfort":6280,"Ġcarbon":6281,"STR":6282,"Ġliterature":6283,"Ġagents":6284,"Ġcollege":6285,"widehat":6286,"Ġoffers":6287,"Conn":6288,"Ġolder":6289,"ilit":6290,"Ġreceptor":6291,"Ã¶":6292,"ln":6293,"ĠMal":6294,"Ġgenerate":6295,"venue":6296,"Ġcompleted":6297,"rian":6298,"Ġ500":6299,"ston":6300,"ĠFlorida":6301,"Ġwire":6302,"Ġ43":6303,"CN":6304,"ursday":6305,"sect":6306,"Ġimportance":6307,"Ġdeveloping":6308,"Ġvel":6309,"eding":6310,"Ġconfiguration":6311,"ĠCirc":6312,"Ġoutcomes":6313,"weight":6314,"nabla":6315,"riage":6316,"Ġbeautiful":6317,"Ġ39":6318,"Ġidentity":6319,"Ġabuse":6320,"appro":6321,"Ġextended":6322,"Ġsalt":6323,"Ġexamples":6324,"Ġformat":6325,"helial":6326,"Ġempty":6327,"Ġhappens":6328,"Ġdelivery":6329,"raction":6330,"Ġprison":6331,"hetic":6332,"ĠTexas":6333,"Ġsun":6334,"Ġrise":6335,"Ġstrugg":6336,"ĠĠĠĠĠĠĠĠĠĠĠĠĠĠĠĠĠĠĠĠĠĠĠĠĠĠĠĠĠĠĠĠĠĠĠĠĠĠĠĠĠĠĠĠĠĠĠĠĠĠĠĠĠĠĠĠ":6337,"Ġthank":6338,"Ġgovern":6339,"Ġexamined":6340,"ĠAP":6341,"ĠBlack":6342,"dimensional":6343,"github":6344,"Ġerrors":6345,"Ġguilty":6346,"Ent":6347,"ĠBen":6348,"ĠSolve":6349,"ĠPeople":6350,"KE":6351,"img":6352,"\").":6353,"ban":6354,"ĠWed":6355,"Ġneut":6356,"Ġcharacters":6357,"tes":6358,"Ġsugar":6359,"ba":6360,"Ġcompounds":6361,"Ġbinary":6362,"arth":6363,"Ġplasma":6364,"Ġsq":6365,"ĠFran":6366,"ĠMonday":6367,"MT":6368,"Ġcharged":6369,"Ġparticles":6370,"Ġspectrum":6371,"LO":6372,"Ġhusband":6373,"Ġschools":6374,"Ġsquare":6375,"Ġinstr":6376,"Ġsales":6377,"ĊĊĠĠĠĠĠĠ":6378,"âĸĶ":6379,"ĠCouncil":6380,"ĠDiv":6381,"Ġcoverage":6382,"Ġdiseases":6383,"ien":6384,"night":6385,"onald":6386,"ĠFacebook":6387,"reek":6388,"Ġprofile":6389,"ipped":6390,"Ġreturns":6391,"Don":6392,"Ġinner":6393,"Ġcategory":6394,"select":6395,"ĠSet":6396,"Ġevaluation":6397,"ĠTheorem":6398,"ancing":6399,"ĠMedical":6400,"Ġcold":6401,"ĠDel":6402,"Ġmuscle":6403,"Ġpayment":6404,"Back":6405,"Ġpartners":6406,"Ġequipment":6407,"kappa":6408,"Ġmit":6409,"Ġspecified":6410,"alysis":6411,"Ġdimension":6412,"Ġpreval":6413,"Ġ------------":6414,"Ġweap":6415,"Ġmeant":6416,"~~~~":6417,"Ġexplicit":6418,"Ġcele":6419,"Ġ05":6420,"icted":6421,"Ġdra":6422,"ĠWIT":6423,"Ġlit":6424,"Ġstable":6425,"**)":6426,"Ġalcoh":6427,"ocy":6428,"Ġsequences":6429,"Ġinvestigated":6430,"abilities":6431,"ĠEvery":6432,"Ġwat":6433,"Ġhighlight":6434,"ĠTechn":6435,"Bar":6436,"ĠDefendant":6437,"Ġdigit":6438,"Ġappeared":6439,"ĠJack":6440,"crete":6441,"Ġmetast":6442,"Ġsensitivity":6443,"Fil":6444,"stein":6445,"endment":6446,"enance":6447,"Ġwish":6448,"Ġsubstantial":6449,"itect":6450,"Ġpeace":6451,"Ġpure":6452,"Ġshared":6453,"Ġmeasurement":6454,"cks":6455,"ya":6456,"ĠHT":6457,"(\\[":6458,"ĠExp":6459,"Ġ2004":6460,"Ġconcerns":6461,"TER":6462,"osh":6463,"Ste":6464,"Ġsav":6465,"std":6466,"ĠService":6467,"Ġconclude":6468,"antly":6469,"Ġmeasurements":6470,"Pre":6471,"Ġreality":6472,"ĠGerman":6473,"005":6474,"\\[[@":6475,"Ġpercentage":6476,"Controller":6477,"ĠGovernment":6478,"Ġsigned":6479,"Ġoptical":6480,"summary":6481,"Ġrepresented":6482,"ĠĊĠĠĠĠĠĠĠĠĠĠĠĠĠĠĠ":6483,"Ġahead":6484,"Ġmortality":6485,"ĠMet":6486,"------------------------------------------------":6487,"ishes":6488,"ESS":6489,"ODE":6490,"Ġachieved":6491,"çļ":6492,"Ġopening":6493,"Ġpositions":6494,"allel":6495,"ĠUnion":6496,"ĠWhy":6497,"UD":6498,"Ġrank":6499,"2017":6500,"ĠSecond":6501,"Ġscheme":6502,"Ġ55":6503,"LC":6504,"Ġ${{\\":6505,"ĠGreen":6506,"Ġsin":6507,"asp":6508,"ĠDirect":6509,"Ġknows":6510,"2010":6511,"Ġreceiving":6512,"Ġimplementation":6513,"Ġheavy":6514,"css":6515,"ested":6516,"**]{}":6517,"Ġcomposition":6518,"Ġmaintain":6519,"Ġsubstrate":6520,"chen":6521,"Ġul":6522,"operative":6523,"Ġmorph":6524,"Ġdigital":6525,"2013":6526,"ĠFrance":6527,"ĠCollege":6528,"Phi":6529,"End":6530,"Ġstrict":6531,"ĠRead":6532,"Ġresearc":6533,"Ġoperating":6534,"rd":6535,"Ġmixture":6536,"ĠKe":6537,"Ġvacc":6538,"zen":6539,"Ġ46":6540,"Ġagency":6541,"Ġtele":6542,"Ġfourth":6543,"inder":6544,"Ġ75":6545,"Ġallowing":6546,"çļĦ":6547,"-------":6548,"ĠRom":6549,"Ġplants":6550,"ĠĠĠĠĠĠĠĠĠĠĠĠĠĠĠĠĠĠĠĠĠĠĠ":6551,"Ġesc":6552,"Ġdraft":6553,"Ġfarm":6554,"ĠMac":6555,"Ġdriving":6556,"Ġcustomers":6557,"Us":6558,"ĠIran":6559,"Ġuniform":6560,"ailed":6561,"Ġowners":6562,"ASS":6563,"Ġbrother":6564,"=======":6565,"faces":6566,"ĠUN":6567,"Ġviolence":6568,"Ġkit":6569,"ĠRE":6570,"%.":6571,"Ġowner":6572,"Ġdys":6573,"-----":6574,"Ġquery":6575,"Message":6576,"umns":6577,"ĠPort":6578,"Ġ41":6579,"rency":6580,"nesday":6581,"ygen":6582,"ĠFinally":6583,"ua":6584,"ĠĠĠĠĠĠĠĠĠĠĠĠĠĠĠĠĠĠĠĠĠĠ":6585,"ipher":6586,"Ġquarter":6587,"Ġhelped":6588,"Ġhousing":6589,"âĸĶâĸĶ":6590,"(&":6591,"ĠAmericans":6592,"Ġbra":6593,"Ġemph":6594,"center":6595,"ampions":6596,"omial":6597,"ĠCell":6598,"ĠForm":6599,"ETHOD":6600,"PH":6601,"okes":6602,"Ġ64":6603,"Ġdrink":6604,"ĠOut":6605,"Ġteac":6606,"Ġattract":6607,"According":6608,"Ġdesired":6609,"Ġble":6610,"Ġleaves":6611,"}}_{":6612,"strong":6613,"reshold":6614,"Ġneuro":6615,"Ġsubset":6616,"Co":6617,"ditionally":6618,"ĠCI":6619,"othing":6620,"Ġdecisions":6621,"Ġalgebra":6622,"typ":6623,"Ġjournal":6624,"comple":6625,"Ġextension":6626,"Ġgranted":6627,"itative":6628,"Ġelev":6629,"Ġestimates":6630,"ĠStreet":6631,"Ġsubsequent":6632,"GA":6633,"--------------------------------------------------------------------------------------------------------------------------------":6634,"ĠIII":6635,"Ġacts":6636,"EO":6637,"tag":6638,"utrition":6639,"mem":6640,"Ġfill":6641,"cence":6642,"Ġcovered":6643,"Ġguarant":6644,"Ġglass":6645,"ĠLeague":6646,"itable":6647,"Ġdefendants":6648,"Ġinvestigate":6649,"Ġgly":6650,"Ġeasier":6651,"iary":6652,"creen":6653,"Ġpurchase":6654,"Ġtestified":6655,"Ġassessed":6656,"Ġdram":6657,"ĠAS":6658,"Ġunderlying":6659,"kin":6660,"page":6661,"Ġmal":6662,"roke":6663,"Ġruns":6664,"Ġharm":6665,"ĠJames":6666,"Ġbalance":6667,"rh":6668,"Ġ49":6669,"AND":6670,"Ġsections":6671,"Ġapprec":6672,"Ġoccurs":6673,"cretion":6674,"XX":6675,"ĠCa":6676,"Ġanimal":6677,"Â·":6678,"amine":6679,"ĠBay":6680,"Ġaccuracy":6681,"lif":6682,"uint":6683,"Ġregulation":6684,"Ġexcell":6685,"Ġlibrary":6686,"ĠTuesday":6687,"ĠUse":6688,"ĠChristian":6689,"ĠUsing":6690,"estic":6691,"utional":6692,"aa":6693,"Ġskills":6694,"abet":6695,"END":6696,"orrow":6697,"ifications":6698,"Ġemployee":6699,"Ġ47":6700,"idem":6701,"ĠOpen":6702,"Ġstrongly":6703,"mt":6704,"ĠAir":6705,"erior":6706,"Ġburn":6707,"Ġcoc":6708,"arp":6709,"Ġtox":6710,"Ġincident":6711,"Ġsurvey":6712,"Ġintra":6713,"Ġpool":6714,"ĠYes":6715,"Ġoverl":6716,"Ġleader":6717,"BP":6718,"dir":6719,"func":6720,"gent":6721,"Ġbutton":6722,"bert":6723,"aturday":6724,"gments":6725,"ĠĊĠ":6726,"Ġnav":6727,"ĠSmith":6728,"Ġveloc":6729,"Ġtub":6730,"Ġresource":6731,"orders":6732,"Ġpowerful":6733,"101":6734,"Pe":6735,"TA":6736,"ĠMany":6737,"Ġstories":6738,"itely":6739,"aine":6740,"Ġapproved":6741,"Ġwarrant":6742,".</":6743,"Ġalter":6744,"âĢĿ,":6745,"Ġextremely":6746,"src":6747,"Ġspring":6748,"Ġpert":6749,"Ġacknow":6750,"Ġspirit":6751,"Ġpossibly":6752,"Ġpathway":6753,"ivo":6754,"Ġhaven":6755,"Ġtransmission":6756,"Ġlimitations":6757,"Ġprocedures":6758,"Ġapproaches":6759,"Ġissued":6760,"Ġchosen":6761,"Then":6762,"Ġraise":6763,":\"":6764,"mid":6765,"Ġduty":6766,"ĠDay":6767,"RODU":6768,"Rel":6769,"cp":6770,"Ġthread":6771,"Ġdepends":6772,"Ġ56":6773,"Ġflat":6774,"Ġmostly":6775,"abric":6776,"Ċĉĉĉĉĉ":6777,"ometric":6778,"rapeutic":6779,"=\"../../":6780,"akers":6781,"SH":6782,"ĠRich":6783,"forall":6784,"Ġthousands":6785,"Ġdetermination":6786,"ĠJudge":6787,"^-":6788,"ĠAre":6789,"aneous":6790,"Ġspeech":6791,"otherapy":6792,"Solve":6793,"ployment":6794,"Ġbag":6795,"Since":6796,"athe":6797,"ĠIns":6798,"Ġdetailed":6799,"Ġintellig":6800,"product":6801,"Ġprotected":6802,"author":6803,"Ġremainder":6804,"legal":6805,"Line":6806,"Ġcompare":6807,"Ġisolated":6808,"$]{}":6809,"inates":6810,"Ġsrc":6811,"Ġauto":6812,"Ġpor":6813,"Ġ65":6814,"Ġmembrane":6815,"BM":6816,"~~~":6817,"iences":6818,"Ġ_{":6819,"Ġmixed":6820,"Ġbooks":6821,"RESUL":6822,"Ġlisted":6823,"Ġdepth":6824,"Ġlearned":6825,"ouble":6826,"ĠSH":6827,"Ġtrain":6828,"ymmet":6829,"IO":6830,"enu":6831,"ĠGra":6832,"eless":6833,"anda":6834,"ortunately":6835,"ĠSal":6836,"Ġaccident":6837,"RL":6838,"ĠChurch":6839,"Ġinvestment":6840,"Ġcris":6841,"amental":6842,"ĠDuring":6843,"ytic":6844,"Ġhab":6845,"Ġlung":6846,"Ġcommitted":6847,"hens":6848,"template":6849,"Ġsecondary":6850,"/\\":6851,";&":6852,"oret":6853,"Ġmetabol":6854,"else":6855,"otes":6856,"ogene":6857,"ĠThursday":6858,"ih":6859,"Ġborn":6860,"oster":6861,"duc":6862,"Ġpolicies":6863,"Ġplays":6864,"ĊĠĠĠĠĠĠĠĠĠĠĠĠĠĠ":6865,"Ġtrials":6866,"FC":6867,"Ġcomposite":6868,"Ġviews":6869,"ï¼ļ":6870,"Ġcatal":6871,"Ġpet":6872,"ows":6873,"ĠCompany":6874,"Ġhole":6875,"Ġimprovement":6876,"Ġrelief":6877,"Ġ+=":6878,"Ġplanning":6879,"Ġenvironmental":6880,"iples":6881,"These":6882,"Ġarguments":6883,"Ġcommunities":6884,"Ġduration":6885,"ĠPet":6886,"Ġopened":6887,"standing":6888,"Ġapplicable":6889,"Ġlatter":6890,"Ġvary":6891,"FR":6892,"ĠBer":6893,"ĠWil":6894,"Ġresulted":6895,"Ġgreatest":6896,"Cell":6897,"oom":6898,"sd":6899,"Med":6900,"you":6901,"ä»":6902,":#":6903,"next":6904,"Ġacute":6905,"AIM":6906,"Ġintensity":6907,"Ġunivers":6908,"FI":6909,"yr":6910,"ĠBre":6911,"Ġunknown":6912,"Ġ2019":6913,"Ġfocused":6914,"ĠFree":6915,"lets":6916,"height":6917,"Ġ52":6918,"annels":6919,"][":6920,"Ġmetric":6921,"road":6922,"Ġgenetic":6923,"ugin":6924,"mation":6925,"asure":6926,"ĠStat":6927,"ĠTwitter":6928,"pload":6929,"Ġconsidering":6930,"ĠScience":6931,"PV":6932,"Ġbund":6933,"break":6934,"isher":6935,"ĠFrench":6936,"\\]).":6937,"Ġthin":6938,"Ġexpansion":6939,"ounce":6940,"2012":6941,"Ġassuming":6942,"Override":6943,"ython":6944,"Ext":6945,"ĠHill":6946,"Query":6947,"Ġexperienced":6948,"rypt":6949,"Ġtypical":6950,"Ġspot":6951,"rot":6952,"ĠMichael":6953,"reated":6954,"Ġadvanced":6955,"Ġfunds":6956,"Ġfuel":6957,"Ġmouse":6958,"Ġdual":6959,"ochem":6960,"Start":6961,"Ġdirected":6962,"Ġbeg":6963,"Ġadvert":6964,"Ġdepending":6965,"ĠMem":6966,"ĠSunday":6967,"Ġrecovery":6968,"2000":6969,"month":6970,"Ġafford":6971,"Ġsettings":6972,"Ġadequ":6973,"Ġsignals":6974,"CV":6975,"Ġecho":6976,"ki":6977,"Ġchanging":6978,"Ġcalling":6979,"More":6980,"Ġwarm":6981,"Ġgar":6982,"elly":6983,"elled":6984,"Ġeventually":6985,"ĠRussian":6986,"bul":6987,"Ġplaintiffs":6988,"ĠInternet":6989,"Ġsuitable":6990,"Ġ72":6991,"seud":6992,"riend":6993,"Ġadult":6994,"Ġreact":6995,"Ġconflict":6996,"jud":6997,"assert":6998,"]),":6999,"Ġaccord":7000,"Ġappoint":7001,"ervices":7002,"ita":7003,"Ġtranscript":7004,"Ġanalog":7005,"Ġvirus":7006,"Input":7007,"van":7008,"Î¼":7009,"Ġterror":7010,"Ġexcess":7011,"uts":7012,"Ġleaving":7013,"Ġsensor":7014,"NO":7015,"Ġmaster":7016,"Ġbudget":7017,"Ġboy":7018,"Ġforced":7019,"?âĢĿ":7020,"Ġlab":7021,"ulin":7022,"Gu":7023,"Ġsignaling":7024,"ĠRussia":7025,"diction":7026,"ĠPress":7027,"Ġseemed":7028,"Ġsmart":7029,"RS":7030,"Ġmargin":7031,"velopment":7032,"Ġcere":7033,"Ġodd":7034,"status":7035,"lands":7036,"Ġscores":7037,"iot":7038,"Ġstored":7039,"Ġmanager":7040,"Ġcandidate":7041,"Ġring":7042,"Ġfrequently":7043,"Ġ120":7044,"ellular":7045,"iber":7046,"oking":7047,"names":7048,"Ġentitled":7049,"olt":7050,"Ġplot":7051,"PT":7052,"iam":7053,"Ġnoise":7054,"Ġscal":7055,"ĠTom":7056,"Ġcompetition":7057,"Ġstatistical":7058,"ĠMo":7059,"charge":7060,"pmb":7061,"Ġpregn":7062,"Ġconcern":7063,"Ġtwice":7064,"********************************":7065,"Ġlimits":7066,"${":7067,"400":7068,"has":7069,"Ġ*)":7070,"ateral":7071,"Simplify":7072,"utely":7073,"sey":7074,"USION":7075,"cat":7076,"Ġgalax":7077,"Ġdream":7078,"edy":7079,"clusive":7080,"Ġinvolving":7081,"Ġbool":7082,"Ġrent":7083,"ĠPD":7084,"ĠLeg":7085,"rip":7086,"ĠRule":7087,"Ġcontribution":7088,"Ġ51":7089,"}\\,":7090,"Ġpropos":7091,"CI":7092,"cis":7093,"Ġvess":7094,"ponse":7095,"Ġmotiv":7096,"Ġradiation":7097,"Ġplane":7098,"Ġbelieved":7099,"Ġnan":7100,"istory":7101,"Ġadults":7102,"Ġexamination":7103,"cial":7104,"Ġsides":7105,"ĠMS":7106,"ĠSO":7107,"Ġimaging":7108,"Ġmolecules":7109,"Manager":7110,"yg":7111,"ette":7112,"Ġuint":7113,"ributes":7114,"rog":7115,"Ġrevers":7116,"oday":7117,"Ġwilling":7118,"ROM":7119,"Ġlesions":7120,"pir":7121,"Ġcentury":7122,"Ġstandards":7123,"tex":7124,"ĊĠĠĠĠĠĠĠĠĠĠĠĠ":7125,"idelines":7126,"Ġreplic":7127,"ĠAp":7128,"aming":7129,"============":7130,"Ġ2002":7131,"Ġfinished":7132,"Ġmanufacture":7133,"Ġspaces":7134,"Ġintervention":7135,"Ġindeed":7136,"ato":7137,"Ġreverse":7138,"Ġran":7139,"ERS":7140,"ructure":7141,"Ġseeing":7142,"ĠGood":7143,"Ġoperators":7144,"cdots":7145,"card":7146,"event":7147,"sor":7148,"Ġprices":7149,"ĠCopyright":7150,"Ġaccum":7151,"cf":7152,"json":7153,"alty":7154,"Ġconven":7155,"Ġ54":7156,"Ġminim":7157,"media":7158,"win":7159,"ician":7160,"estinal":7161,"Ġordered":7162,"ĠmiR":7163,"ĠWednesday":7164,"atric":7165,"007":7166,"ĠSecret":7167,"Ġrich":7168,"ears":7169,"Ġsurg":7170,"Ġrelationships":7171,"Ġimmune":7172,"possible":7173,"cup":7174,"ĠMil":7175,"ĠJer":7176,"Ġconsult":7177,"Ġsupposed":7178,"Ġ2003":7179,")=\\":7180,".**":7181,"ĠDec":7182,"Ġthanks":7183,"}^\\":7184,"Americ":7185,"Ġsession":7186,"dependent":7187,"Just":7188,"Ġextends":7189,"button":7190,"Ġalcohol":7191,"GL":7192,"ĠTor":7193,"Ġindicating":7194,"ipping":7195,"Ġamaz":7196,"Ġprotocol":7197,"sur":7198,"stood":7199,"ĠMA":7200,"Ġjump":7201,"ributions":7202,"Ġdemonstrate":7203,"Ġfreedom":7204,"etch":7205,"Ġlose":7206,"2009":7207,"FS":7208,"2016":7209,"Ġjoin":7210,"ĠSenate":7211,"Ġban":7212,"Ġnine":7213,"Ġconsent":7214,"Result":7215,"ĠAssociation":7216,"Ġmission":7217,"Ġnecessarily":7218,"Ġburden":7219,"ceived":7220,"Ġrecall":7221,"Ġrelates":7222,"Ġformal":7223,"Ġphenomen":7224,"Ġreligious":7225,"dots":7226,"ĠBel":7227,"Ġconcerned":7228,"Ġcoach":7229,"Ġmainly":7230,"Ġpieces":7231,"ker":7232,"**,":7233,"endif":7234,"AGE":7235,"Ġfraction":7236,"Ġattacks":7237,"razil":7238,"pref":7239,"Ġmo":7240,"format":7241,"Ġarter":7242,"Ġdepartment":7243,"etime":7244,"Ġconstraint":7245,"CLUSION":7246,"Ġwood":7247,"omal":7248,"FO":7249,"inte":7250,"Ġboundary":7251,"hal":7252,"\\)":7253,"Ġvirtual":7254,"Net":7255,"Rem":7256,"kins":7257,"Ġion":7258,"Ġfunding":7259,"display":7260,"only":7261,"Ġheter":7262,"Ġmand":7263,"hemat":7264,"isted":7265,"ĠParty":7266,"ĠOffice":7267,"Ġfif":7268,"Ġinequ":7269,"conf":7270,"rine":7271,"ura":7272,"gy":7273,"reatment":7274,"Ġbaby":7275,"Ġneither":7276,"ĠSing":7277,"Ġpix":7278,"ĠMer":7279,"ucos":7280,"ĠOnly":7281,"Ġenforce":7282,"Ġoxid":7283,"IST":7284,"iverse":7285,"Ġens":7286,"Ġscene":7287,"exec":7288,"spective":7289,"Ġasking":7290,"Ġinterpretation":7291,"vas":7292,"_{{\\":7293,"Ġspend":7294,"Ġfees":7295,"split":7296,"process":7297,"Ġfans":7298,"300":7299,"Ġton":7300,"Ġargues":7301,"ogenesis":7302,"vt":7303,"ĠSN":7304,"uls":7305,"ushed":7306,"ĠRob":7307,"Ġenhance":7308,"Ġversus":7309,"Ġchallenges":7310,"ĠmRNA":7311,"Ġoblig":7312,"Ġsam":7313,"Ġdil":7314,"arden":7315,"iliar":7316,"Ġfavorite":7317,"Ġconference":7318,"Ġadvice":7319,"}+\\":7320,"Ġpolar":7321,"2008":7322,"Ġcycl":7323,"Ġangle":7324,"ĠEngland":7325,"]--":7326,"Ġforth":7327,"Ġframework":7328,"ĠCircuit":7329,"law":7330,"ifferent":7331,"Ġstimul":7332,"Ġtight":7333,"Ġassay":7334,"cuss":7335,"Ġsector":7336,"ĠFederal":7337,"Ġpaint":7338,"inton":7339,"Ġmedian":7340,"\":\"":7341,"gener":7342,"Ġbias":7343,"Ġmurder":7344,"RODUCTION":7345,"ĠSum":7346,"ĠHall":7347,"ifies":7348,"Ġ2001":7349,"2014":7350,"inations":7351,"Ġclaimed":7352,"Ġpotentially":7353,"house":7354,"Ġconfidence":7355,"ĠPlan":7356,"Ġstick":7357,"ĠField":7358,"nson":7359,"Ġexcellent":7360,"Label":7361,"rowser":7362,"Ġhelps":7363,"ĠIslam":7364,"OK":7365,"apers":7366,"Ġestate":7367,"Ġfundamental":7368,"Ġrecognized":7369,"wer":7370,"Ġdatas":7371,"Ġcapable":7372,"Ġemployed":7373,"ĠPen":7374,"\",\"":7375,"Ġcompact":7376,"scrib":7377,"Ġadvance":7378,"Button":7379,"aper":7380,"ror":7381,"imately":7382,"ijms":7383,"Ġreprodu":7384,"bal":7385,"Ġhence":7386,"auge":7387,"Ġrough":7388,"Ġbreath":7389,"levision":7390,"Ġgrid":7391,"Ġmanus":7392,"Te":7393,"UG":7394,"Fe":7395,"EW":7396,"ws":7397,"icious":7398,"umer":7399,"ĠAustralia":7400,"ects":7401,"opath":7402,"Ġcourts":7403,"Client":7404,"supplementary":7405,"Ġ101":7406,"aratus":7407,"Ġlig":7408,"ĠWindows":7409,"{{":7410,"ĠSaturday":7411,"onna":7412,"Ġdiagram":7413,"Ġfilms":7414,"Ġmarked":7415,"Ġimplies":7416,"igan":7417,"ĠDC":7418,"pdf":7419,"Ġbatter":7420,"2018":7421,"elcome":7422,"ĠAddress":7423,"TD":7424,"Ġcos":7425,"ĠPlease":7426,"Ġusual":7427,"Ġrelax":7428,"Ġresponsibility":7429,"Ġdamages":7430,"ĠBrown":7431,"Ġwidely":7432,"Word":7433,"Ġmaps":7434,"Ġtumors":7435,"Ġscreening":7436,"ĠProgram":7437,"Ġbiological":7438,"Ġadministr":7439,"del":7440,"she":7441,"Ġegg":7442,"ĠLou":7443,"apache":7444,"Ġacadem":7445,"Ġsmallest":7446,"Ġaccurate":7447,"]--[@":7448,"inite":7449,"iller":7450,"Ġgast":7451,"Ġoffense":7452,"Contact":7453,"Click":7454,"Ġtrac":7455,"Ġgap":7456,"ĠDE":7457,"ympt":7458,"ĠPhil":7459,"Ġrats":7460,"Ġcontribute":7461,"proposed":7462,"ensuremath":7463,"\"),":7464,")]":7465,"dist":7466,"Ġpal":7467,"}}{\\":7468,"ashion":7469,"Ġdownload":7470,"Ġpossession":7471,"Ġvill":7472,"output":7473,"Ġ53":7474,"Ġdecide":7475,"Ġshut":7476,"Ġmeat":7477,"Ġarticles":7478,"dx":7479,"ĠMETHOD":7480,"ĠWork":7481,"ĠLin":7482,"icago":7483,"âĶĤ":7484,"hent":7485,"Ġshock":7486,"Ġrect":7487,"ĠMary":7488,"Ġexposed":7489,"Ġwaiting":7490,"Version":7491,"Ġcelebr":7492,"Ġmethyl":7493,"astroenter":7494,"dy":7495,"usiness":7496,"Ġseek":7497,"queuebot":7498,"Ġpartial":7499,"neg":7500,"Ġcoh":7501,"Ġstanding":7502,"Ġcritic":7503,"itud":7504,"usal":7505,"ĠHence":7506,">&":7507,"Pol":7508,"bed":7509,"ĠHD":7510,"outhern":7511,"never":7512,"ĠType":7513,"Ġdegrees":7514,"MO":7515,"onents":7516,"Ġcash":7517,"Ġ300":7518,"HS":7519,"eli":7520,"ĠFed":7521,"2011":7522,"Ġdiscovered":7523,"Ġvelocity":7524,"Ġannual":7525,"References":7526,"Go":7527,"target":7528,"åı":7529,"Ġ150":7530,"Ġvariation":7531,"Ġdomin":7532,"ĊĠĠĠĠĠĠĠĠĠĠ":7533,"Ġtransf":7534,"Ġprovision":7535,"option":7536,"BO":7537,"ĠSl":7538,"ĠLem":7539,"ĠChe":7540,"jpg":7541,"Ġlens":7542,"URL":7543,"Ġmaintenance":7544,"Last":7545,"hbox":7546,"ulture":7547,"Ġcitizens":7548,"ĠGive":7549,"Ġelectronic":7550,"Ġremained":7551,"Ġstrain":7552,"ĠFIG":7553,"project":7554,"Ġpossess":7555,"sin":7556,"Ã¼":7557,"Ġlegisl":7558,"Ġsenior":7559,"Ġice":7560,"Ġsplit":7561,"Ġfabric":7562,"Ġveget":7563,"Ġnegot":7564,"Ġefficiency":7565,"$)":7566,"Ġspending":7567,"Which":7568,"ĠIP":7569,"Ġdistingu":7570,"Rep":7571,"Ġguide":7572,"\"}.":7573,"apped":7574,"Ġoxygen":7575,"dat":7576,"%%%%":7577,"Ġgender":7578,"ĠOnce":7579,"Ġtraffic":7580,"Ġstability":7581,"Ġ58":7582,"ĠWeb":7583,"ĠIndeed":7584,"Check":7585,"Ġnarrow":7586,"**(":7587,"Ġterminal":7588,"ĠProject":7589,"hi":7590,"ä½":7591,"agon":7592,"Ġinstructions":7593,"Ġtechnical":7594,"Content":7595,"ĠCT":7596,"&\\":7597,"Ġsweet":7598,"ĠMiss":7599,"Ġdynamics":7600,"ĠWH":7601,"Spec":7602,"dr":7603,"iant":7604,"Ġcorre":7605,"Ġperspect":7606,"Ġfacilit":7607,"UI":7608,"yer":7609,"ĠMass":7610,"Ġpref":7611,"Ġprevalence":7612,"cr":7613,"Ġsan":7614,"Ġmel":7615,"Ġbecoming":7616,"Ġchurch":7617,"Ġcommission":7618,"ĠRobert":7619,")^{":7620,"antic":7621,"Ġapparatus":7622,"Ġthereby":7623,"linear":7624,"AF":7625,"cel":7626,"Ġcustomer":7627,"CONCLUSION":7628,"Create":7629,"Handler":7630,"ĠWal":7631,"Ġsimpl":7632,"Ġends":7633,"INE":7634,"clear":7635,"Ġaxis":7636,"æľ":7637,"Ġdaughter":7638,"ĠPRO":7639,"ĠDen":7640,"ontal":7641,"Ġlic":7642,"Ġopposite":7643,"Right":7644,"Ġdoctor":7645,"Ġpursu":7646,"Ġemployment":7647,"Ġstem":7648,"Ġconcluded":7649,"Ġincub":7650,"scale":7651,"ĠAnn":7652,"Ġconsideration":7653,"Ġaccompl":7654,"Ġjurisdiction":7655,"lang":7656,"ĠPH":7657,"aked":7658,"Ġworse":7659,"ĊĊĉĉ":7660,"Ġbaseline":7661,"ĠCarol":7662,"Ġstarts":7663,"Ġdocuments":7664,"find":7665,"eger":7666,"Control":7667,"ju":7668,"real":7669,"ĠSE":7670,"ĠBrazil":7671,"Ġoral":7672,"hether":7673,"ĠMot":7674,"Ġrare":7675,"ORT":7676,"Ġnumerous":7677,"Ġaspects":7678,"BR":7679,"ĠEX":7680,"________________":7681,"SL":7682,"request":7683,"MI":7684,"Number":7685,"Ġrock":7686,"Ġstrategies":7687,"Ġmodified":7688,"Ġsuggesting":7689,"mL":7690,"Ġprolif":7691,"Ġsupra":7692,"eness":7693,"ello":7694,"Ġrestaur":7695,"Ġcommonly":7696,"DB":7697,"Script":7698,"Ġdifferential":7699,"\\*\\*":7700,"RESULTS":7701,"DC":7702,"mg":7703,"Ġtheorem":7704,"Ġarrange":7705,"Ġpersons":7706,"contin":7707,"Ġclar":7708,"append":7709,"Ġrequirement":7710,"Ġmeta":7711,"raq":7712,"..\\":7713,"Ġseconds":7714,"Ġstopped":7715,"ĠMETHODS":7716,"GG":7717,"phen":7718,"Ġunderw":7719,"Part":7720,"Ġseeking":7721,"Ġsurgical":7722,"ĠMad":7723,"ĠBur":7724,"Ġnotes":7725,"Ġmicrosc":7726,"Ġneurons":7727,"control":7728,"Min":7729,"COM":7730,"Ġexplan":7731,"Ġrecommended":7732,"Ġsupporting":7733,"Ġpopulations":7734,"method":7735,"Ġsuccessfully":7736,"Ġarchitect":7737,"Ġmanuscript":7738,"SO":7739,"Ġsi":7740,"Ġdivers":7741,"translation":7742,"%),":7743,"ensed":7744,"ĠAfrica":7745,"à®":7746,"Ġrender":7747,"eles":7748,"Ġdeliver":7749,"Ġinjuries":7750,"Ġtissues":7751,"ĠRepublican":7752,"Ġsymmetry":7753,"ĠâĢ¦":7754,"ERR":7755,"Disclosure":7756,"Ġcas":7757,"null":7758,"Ġchief":7759,"Ġprev":7760,"120":7761,"ĠANY":7762,"Your":7763,"Ġdefinitely":7764,"uster":7765,"Ġincidence":7766,"clusions":7767,"Ġenable":7768,"Ġsched":7769,"Ġsigns":7770,"Ġfol":7771,"irty":7772,"Ġabund":7773,"}}}":7774,"equiv":7775,"Ġfiber":7776,">(":7777,"Ġtherapeutic":7778,"Ġdependent":7779,"Ġcrow":7780,"Ġpharm":7781,"cale":7782,"Ġpractices":7783,"Ġemergency":7784,"SR":7785,"Ġideal":7786,"Ġintegral":7787,"110":7788,"Note":7789,"UP":7790,"hyd":7791,"agger":7792,"Ġperm":7793,"ĠTheir":7794,"orted":7795,"ĠGold":7796,"ÃĹ":7797,"Ġreplaced":7798,"ĠSand":7799,"Ġhem":7800,"ĠMedicine":7801,"Ġearth":7802,"small":7803,"Ġcort":7804,"Ġtoler":7805,"missions":7806,"Ġcamera":7807,"ql":7808,"Ġoffset":7809,"Ġended":7810,"Ġdestroy":7811,"args":7812,"ĠJustice":7813,"AIMS":7814,"Ġbeat":7815,"Ġconsumption":7816,"brid":7817,"Ġconj":7818,"Ġcontinues":7819,"ernel":7820,"activ":7821,"Ġsole":7822,"2019":7823,"Ġmiles":7824,"redients":7825,"ĠVir":7826,"Ġcellular":7827,"Ġdesc":7828,"ilton":7829,"ads":7830,"Ġvitro":7831,"Ġwaste":7832,"Ġ57":7833,"Ġinteract":7834,"ye":7835,"Ġì":7836,"search":7837,"ĠGeorge":7838,"Head":7839,"yan":7840,"|{\\":7841,"Ġviolation":7842,"Ġphoto":7843,"vals":7844,"Ġorient":7845,"Ġretro":7846,"SON":7847,"mas":7848,"txt":7849,"Ġsolve":7850,"riers":7851,"Ġgirls":7852,"vant":7853,"omer":7854,"plant":7855,"Ġtaste":7856,"Ġdiscretion":7857,"Ġcarcin":7858,"Ġhoriz":7859,"Ġcart":7860,"Ġentirely":7861,"Base":7862,"ĠFour":7863,"apse":7864,"ĠSant":7865,"oded":7866,"Ġappearance":7867,"/-":7868,"Ġamounts":7869,"ĠInstead":7870,"ĠBill":7871,"Ġbrand":7872,"Ġbird":7873,"ĠHuman":7874,"mi":7875,"asy":7876,"ĠLike":7877,"Ġpromote":7878,"Ġfraud":7879,"Frame":7880,"Ġsouth":7881,"star":7882,"ftware":7883,"').":7884,"GB":7885,"ĠPak":7886,"ĠFile":7887,"ĠLie":7888,"Ġeffectively":7889,"Ġtag":7890,"ĠEqu":7891,"\\]),":7892,"Ġreporting":7893,"ARR":7894,"LA":7895,"Ġadmitted":7896,"ĠMinister":7897,"ez":7898,"ĠIV":7899,"ortion":7900,"Ġteaching":7901,"]$":7902,"Ġfont":7903,"ĠGal":7904,"Ġscope":7905,"Ġlos":7906,"Ġstack":7907,"adian":7908,"Are":7909,"Ġunion":7910,"TYPE":7911,"Ð»":7912,"Ġpartner":7913,"Ġorganic":7914,"$_":7915,"čĊĉĉĉ":7916,"ĠSam":7917,"++)":7918,"Ġbehaviour":7919,"match":7920,"ĠTur":7921,"***":7922,"INTRODUCTION":7923,"Two":7924,"Ġgrav":7925,"Ġunderstood":7926,"sche":7927,"google":7928,"push":7929,"ĠTimes":7930,"ĠCentral":7931,"Ġstreet":7932,"May":7933,"Ġassumed":7934,"ĠNav":7935,"Ġunable":7936,"Ġinfo":7937,"ĠNor":7938,"Ġspat":7939,"ĠObject":7940,"Ġregression":7941,"roduction":7942,"Ġassistance":7943,"Ġjustice":7944,"Ġkeeping":7945,"Ġpump":7946,"Ġcompound":7947,"dden":7948,"#:":7949,"Ġconcerning":7950,"ĠAPI":7951,"Ġdecades":7952,"Ġobservations":7953,"nap":7954,"Ġalt":7955,"Ġliability":7956,"orters":7957,"Ġ59":7958,"Ġattached":7959,"Ġabsolute":7960,"Ġiron":7961,"Ġuna":7962,"Ġparticle":7963,"olecules":7964,"called":7965,"iological":7966,"Ġpancre":7967,"Ġcharacterized":7968,"gers":7969,"Ġsought":7970,"Ġfav":7971,"Ġcoupling":7972,"Please":7973,"rep":7974,"Ġmes":7975,"amm":7976,"ĠAcc":7977,"ĠAlex":7978,"ivered":7979,"ĠChicago":7980,"Ġplastic":7981,"Ġnom":7982,"valu":7983,"Ġtrip":7984,"Ġmassive":7985,"ECT":7986,"Ġperman":7987,"Ġpropag":7988,"ĠIraq":7989,",\\*":7990,"Ġidx":7991,"Ġresearchers":7992,"Ġreform":7993,"ĠNa":7994,"Ġapopt":7995,"Ġbone":7996,"Ġnorth":7997,"Ġdisk":7998,"high":7999,"adding":8000,"Ġgrade":8001,"ĠÎ²":8002,"ĠRad":8003,"Ġ{}":8004,"Ġassigned":8005,"Ġsuppl":8006,"Ġobjective":8007,"HR":8008,"ĨĴ":8009,"Ġamplit":8010,"property":8011,"Ġneighborhood":8012,"Ġcontainer":8013,"Ġresidents":8014,"GR":8015,"ĠSD":8016,"uled":8017,"Ġchannels":8018,"Ġacting":8019,"Ġtotally":8020,"Ġ[[":8021,"REF":8022,"oral":8023,"Ġrig":8024,"ollowing":8025,"Ġepit":8026,"tw":8027,"ĠWill":8028,"Ġmerely":8029,"Ġstructural":8030,"Ġcontributions":8031,"xp":8032,"ĠMex":8033,"Ġ99":8034,"ĠChild":8035,"NU":8036,"ander":8037,"ĠNO":8038,"ums":8039,"Ġimpossible":8040,"Ġmanaged":8041,"Ġphil":8042,"]]":8043,"Although":8044,"Ġtruly":8045,"Ġinjection":8046,"Ġsqrt":8047,"ashed":8048,"ĠStar":8049,"Ġguard":8050,"Ġfinish":8051,"ĠJohnson":8052,"Ġorders":8053,"hydro":8054,"ulating":8055,"ĠLife":8056,"Ġlinked":8057,"Ġmessages":8058,"cers":8059,"ĠJones":8060,"ooking":8061,"ampionship":8062,"ND":8063,"Ġmarriage":8064,"Ġproportion":8065,"norm":8066,"Ġfre":8067,"Ġparallel":8068,"Select":8069,"Ġcluster":8070,"Ġthreshold":8071,"Ġinvent":8072,"Ġlarg":8073,"chem":8074,"Ġreceptors":8075,"Ġpreparation":8076,"location":8077,"Ġassembly":8078,"ERT":8079,"Ġminute":8080,"md":8081,"Ġeditor":8082,"Ġprincipal":8083,"abetes":8084,"GE":8085,"Ġ\\>":8086,"va":8087,"ĠGreat":8088,"Ġscan":8089,"Ġbroken":8090,"Ġcomplications":8091,")}\\":8092,"mediate":8093,"Ġpredicted":8094,"Ġbattle":8095,"dule":8096,"Ġconsc":8097,"tings":8098,"herent":8099,"Ġcolle":8100,"png":8101,"Ġinformed":8102,"private":8103,"lectric":8104,"Prov":8105,"ĠLord":8106,"roups":8107,"Ġauthorities":8108,"Ġprinciple":8109,"wedge":8110,"uns":8111,"{(":8112,"})\\":8113,"Ġbranch":8114,"Ġ_,":8115,"Ġcoron":8116,"Post":8117,"rb":8118,"ensus":8119,"idential":8120,"Ġcohort":8121,"Ġidentification":8122,"Gen":8123,"Ġscientific":8124,"ao":8125,"chron":8126,".-":8127,"GO":8128,"ogenic":8129,"agen":8130,"tyle":8131,"MD":8132,"ĠArab":8133,"Am":8134,"fast":8135,"Ġanc":8136,"Ġsensitive":8137,"Ġinhibition":8138,"Ġpictures":8139,"Ġlowest":8140,"Tra":8141,"Where":8142,"Ġaid":8143,"Ġcompre":8144,"Ġsupplement":8145,"FP":8146,"lik":8147,"athered":8148,"Ġfan":8149,"Ġsudden":8150,"Ġsecure":8151,"Ġcrisis":8152,"Mat":8153,"Ġmilk":8154,"Ġ1999":8155,"Ġfaster":8156,"arks":8157,"Ġdiameter":8158,"Ġconviction":8159,"Ġconsole":8160,"KP":8161,"Ġarms":8162,"otted":8163,"Ġprogression":8164,"Ġneighb":8165,"Ġsupports":8166,"Ġcandidates":8167,"Ġinnov":8168,"Ġlargely":8169,"Ġfell":8170,"root":8171,"Ġfloat":8172,"Ġreducing":8173,"float":8174,"NN":8175,"Ġcogn":8176,"Ġhumans":8177,"Dec":8178,"tx":8179,"Ġped":8180,"Ġfish":8181,"Ġaden":8182,"Ġuniversity":8183,"Ġclassical":8184,"Ġlaser":8185,"äº":8186,"ĠMs":8187,"avas":8188,"Status":8189,"Another":8190,"prop":8191,"FIG":8192,"Ġinvolves":8193,"Ġfilled":8194,"web":8195,"ermine":8196,"ï¼Į":8197,"Ġmonitoring":8198,"icken":8199,"ĠScott":8200,"ĠCle":8201,"asm":8202,"Ġ\"\\":8203,"Ġsegment":8204,"orthern":8205,"]^.":8206,"Ġexpensive":8207,"Ġblocks":8208,"150":8209,"Load":8210,"MENT":8211,"friend":8212,"layout":8213,"Ġfacilities":8214,"Instance":8215,"Ġtick":8216,"Ġchair":8217,"Ġclosely":8218,"rat":8219,"Ġpp":8220,"ĠClinton":8221,"rolled":8222,"PECT":8223,"role":8224,"ĠVol":8225,"Ġfamiliar":8226,"Ġthermal":8227,"sign":8228,"Ġexceed":8229,"command":8230,"filter":8231,"Ġabsolutely":8232,"Ġenem":8233,"Ġenhanced":8234,"inical":8235,"ĠIT":8236,"Ġdetermining":8237,"Ġshap":8238,"Ġsac":8239,"Ġgauge":8240,"ĠMethod":8241,"ãĢĤ":8242,"([":8243,"ĠJava":8244,"Ġsignificance":8245,"hy":8246,"rants":8247,"sens":8248,"Ġcorner":8249,"Ġobst":8250,"ĠAttorney":8251,"Stream":8252,"Â¶":8253,"ĠApple":8254,"Ġmarried":8255,"Ġeating":8256,"ĠBu":8257,"ĠFund":8258,"Ġminimal":8259,"Component":8260,"Ġvivo":8261,"ORD":8262,"Ġcorrectly":8263,"Ġâī¥":8264,"Ġhundreds":8265,"tab":8266,"Ġreads":8267,"Ġzone":8268,"Ã¤":8269,"Ġsitting":8270,"Ġreb":8271,"Ġassets":8272,"Ġsynd":8273,"Ġmouth":8274,"asic":8275,"Ġris":8276,"ĠLabor":8277,"Ġassault":8278,"Ġmatters":8279,"Ġcardiac":8280,"cut":8281,"common":8282,"Ġprovisions":8283,"Ġdecreasing":8284,"Ġforg":8285,"Ġyouth":8286,"Ġcalc":8287,"serve":8288,"Ġremoval":8289,"Ġinstalled":8290,"Filter":8291,"iations":8292,"organ":8293,"ĠCap":8294,"Ġ110":8295,"ĠStand":8296,"Ġcounts":8297,"Ġgonna":8298,"ĠFib":8299,"Ġroute":8300,")))":8301,"Ġputting":8302,"ĠĊĠĠĠ":8303,"ĠUs":8304,"Ġcities":8305,"theless":8306,"fit":8307,"module":8308,"ounter":8309,"ĠBig":8310,"Ġrational":8311,"ĠKorea":8312,"ĠThomas":8313,"ĠÃĹ":8314,"adow":8315,"istor":8316,"Ġargued":8317,"]);":8318,"urally":8319,"Ġextend":8320,"Thanks":8321,"ala":8322,"ĠCre":8323,"Ġpackages":8324,"################":8325,")\"":8326,"Ġpages":8327,"ĠDI":8328,"Ġadm":8329,"grade":8330,"Ge":8331,"RD":8332,"Ġpray":8333,"*/":8334,"ipl":8335,"ĠMag":8336,"Ġdefic":8337,"Ġtelevision":8338,"Ġdynamic":8339,")}{":8340,"Find":8341,"ĠPut":8342,"ĠExt":8343,"Ġknock":8344,"Psi":8345,"Ġsand":8346,"Ġjour":8347,"Ġpassing":8348,"=(":8349,"ĠGa":8350,"Point":8351,"vol":8352,"Ġtor":8353,"rovers":8354,"ĠÎ±":8355,"Ġdollars":8356,"Ġinitially":8357,"Ġaccounts":8358,"avascript":8359,"Sigma":8360,"Ġ],":8361,"iki":8362,"Ġleague":8363,"Const":8364,"Ġjoined":8365,"Ġspl":8366,"ĠFind":8367,"endar":8368,"Ġpatent":8369,"Ġrequested":8370,"Ġcreation":8371,"Ġruling":8372,"amber":8373,"Ġpractical":8374,"Ġpin":8375,"claim":8376,"Ġinternet":8377,"Ċĉĉĉĉĉĉĉĉ":8378,"msgstr":8379,"Ġantibody":8380,"Ms":8381,"Ġtasks":8382,"Ġefficacy":8383,"Ġinstrument":8384,"life":8385,"Ġven":8386,"ĠFrank":8387,"msgid":8388,"ERE":8389,"Ġdelivered":8390,"Ġconversation":8391,"alian":8392,"entry":8393,"erves":8394,"čĊĉĉ":8395,"Ġreviewed":8396,"FLAG":8397,"Ġillegal":8398,"BB":8399,"ĠHaw":8400,"Resource":8401,"icular":8402,"Ġhal":8403,"ĠPCR":8404,"Ġcounty":8405,"EA":8406,"ĠOffic":8407,"ĊĊĠĠ":8408,"{\"":8409,"Ġtom":8410,"ĠSk":8411,"ĠSocial":8412,"ruption":8413,"Ġpreced":8414,"rolog":8415,"*^":8416,"Ġclients":8417,"aven":8418,"Ġgluc":8419,"addr":8420,"dri":8421,"Ġfold":8422,"Ġflav":8423,",\\*^,":8424,"Ġworry":8425,"Ġcollabor":8426,"Ġcoefficient":8427,"ĠAma":8428,"Ġprogn":8429,"ĠÂł":8430,"Ne":8431,"Ġwear":8432,"Ġseat":8433,"racellular":8434,"ameters":8435,"han":8436,"Ġpit":8437,"Ġfacility":8438,"ĠParis":8439,"oration":8440,"ading":8441,"čĊĠĠĠĠĠĠĠĠĠĠĠ":8442,"aren":8443,"then":8444,"Ġvisible":8445,"Ġcrystal":8446,"lements":8447,"ffff":8448,"Ġreson":8449,"Ġ1990":8450,"Ġwatching":8451,"Ġtablespo":8452,"DP":8453,"EV":8454,"Su":8455,"system":8456,"Ġcov":8457,"Ġadopted":8458,"fess":8459,"Ġbott":8460,"ĠServices":8461,"ĠFore":8462,"Ġinstant":8463,"Ġoptimal":8464,"Ġbutter":8465,"Ġconsists":8466,"Ġsuspect":8467,"]\\":8468,"oly":8469,"ĠBack":8470,"ĠHIV":8471,"unit":8472,"ooks":8473,"Ġmedicine":8474,"Ġserving":8475,"ĠWhich":8476,"Ġinflammatory":8477,"Buffer":8478,"Ġforget":8479,"kes":8480,"});":8481,"Ġmanage":8482,"oyal":8483,"Ġcausing":8484,"Ġfluores":8485,"Ġpig":8486,"obj":8487,"Ġargue":8488,"har":8489,"vo":8490,"xef":8491,"Ġvision":8492,"ĠEV":8493,"neq":8494,"Ġlaunch":8495,"grad":8496,"Ġast":8497,"Ġouter":8498,"ĠAppellant":8499,"................":8500,"Ġapparently":8501,"ĠDivision":8502,"ĠDevelopment":8503,"Ġprimarily":8504,"Ġexecutive":8505,"Ġautomatically":8506,"Ġobviously":8507,"Ġdangerous":8508,"Br":8509,"LS":8510,"wing":8511,"00000":8512,"Ġhell":8513,"Ġguidelines":8514,"Ġrepair":8515,"agnetic":8516,"DI":8517,"Ut":8518,"fold":8519,"Ġtail":8520,"ĠIF":8521,"thlet":8522,"Ġ85":8523,"Char":8524,"Ġbundle":8525,"Ġprohib":8526,"Other":8527,"pert":8528,"ACK":8529,"Ġleadership":8530,"La":8531,"çĶ":8532,"Ġbright":8533,"oked":8534,"chain":8535,"slant":8536,"Ġcommittee":8537,"Ġpetitioner":8538,"Ġlie":8539,"Ġsolar":8540,"Ġimplied":8541,"Ġboot":8542,"ĊĠĠĠĠĠĠĠĠĠĠĠĠĠĠĠĠĠĠĠĠĠĠĠĠĠĠĠĠĠĠĠ":8543,"Ġexperiences":8544,"Ġsynthesis":8545,"ĠMuslim":8546,"Action":8547,"Ġstre":8548,"ĠLog":8549,"ĠNon":8550,"\"})":8551,"Ġ---":8552,"column":8553,"Ġhomes":8554,"isc":8555,"Ġpil":8556,"eting":8557,"Ġtreatments":8558,"Ġposted":8559,"Ġembod":8560,"ACT":8561,"uum":8562,"Ġproved":8563,"Ġturns":8564,"aria":8565,"reement":8566,"Ġimplemented":8567,"Ġment":8568,"Ġrenal":8569,"perties":8570,"Ġ97":8571,"oxy":8572,"values":8573,"limits":8574,"Ġrh":8575,"Ġperspective":8576,"Hz":8577,"Ġsimult":8578,"ynomial":8579,"aneously":8580,"Ġtit":8581,"}},":8582,"Ġpept":8583,"update":8584,"Ġopportunities":8585,"ĠMur":8586,"empl":8587,"Ġ61":8588,"header":8589,"Ġsituations":8590,"ducation":8591,"attr":8592,"///":8593,"materials":8594,"Deb":8595,"estion":8596,"Ġlocations":8597,"otten":8598,"^+^":8599,"ĠSun":8600,"acent":8601,"ĠAdminist":8602,"Ġweekend":8603,"}/":8604,"Ġswe":8605,"oting":8606,"Ġpolymer":8607,"Ġpy":8608,"ĠMult":8609,"ideo":8610,"Ġsubmitted":8611,"Ġobservation":8612,"\\\"":8613,"cert":8614,"iability":8615,"ĠHel":8616,"Ġ68":8617,"Ġcooper":8618,"ĠMcC":8619,"Ġcooking":8620,"Ġorganizations":8621,"options":8622,"Ġneutral":8623,"ori":8624,"Ġbio":8625,"Default":8626,"sa":8627,"ĠCamp":8628,"endants":8629,"Ġamazing":8630,"IES":8631,"idity":8632,"Ġconform":8633,"Ġ1998":8634,"mann":8635,"Ġlived":8636,"ĠSoftware":8637,"Ġiniti":8638,"Ġcorrelated":8639,"Ġfashion":8640,"ivari":8641,"epend":8642,"ĠAnother":8643,"ĠColor":8644,"BE":8645,"Gl":8646,"Ġdiscovery":8647,"Ġhonest":8648,"nel":8649,"ĠpH":8650,"ĠCath":8651,"Ġthoughts":8652,"Ġinflammation":8653,"Ġwealth":8654,"client":8655,"ĠPR":8656,"ĠEarth":8657,"Ġexplore":8658,"Ġpathways":8659,"Ġpolitics":8660,"Ġconsequences":8661,"erred":8662,"Ġcategories":8663,"ĠIts":8664,"Ġshooting":8665,"ĠSecretary":8666,"Every":8667,"Ġsports":8668,"ĠCare":8669,"Ġrecover":8670,"olester":8671,"ĠSecurity":8672,"%).":8673,"ĠChief":8674,"Pat":8675,"ras":8676,"Ġwarn":8677,"Ġbodies":8678,"Ġpointed":8679,"aterials":8680,"Ġms":8681,"ospit":8682,"Ġpayments":8683,"Ġpairs":8684,"Before":8685,"Det":8686,"ĠPA":8687,"Ġchart":8688,"ĠConn":8689,"Ġwalking":8690,"imer":8691,"utory":8692,"Ġ66":8693,"Ġneglig":8694,"Ġcloser":8695,"Off":8696,"Ã¨":8697,"Ġdepos":8698,"ressing":8699,"Ġloved":8700,"LR":8701,"Ġwrt":8702,"ĠCup":8703,"Ġstret":8704,"Ġremark":8705,"Ġneck":8706,"Ġtranscription":8707,"UC":8708,"buffer":8709,"Ġ63":8710,"Ġdebate":8711,"ĠFrancis":8712,"El":8713,"ady":8714,"Ġpublication":8715,"service":8716,"Ġtransformation":8717,"Ġuncertain":8718,"Ġpod":8719,"Ġeigen":8720,"ĠSil":8721,"ĠLong":8722,"thew":8723,"Mr":8724,"rays":8725,"uting":8726,"Ġ96":8727,"ruptcy":8728,"Ġfeedback":8729,"ĠLouis":8730,"HL":8731,"Ġstages":8732,"Ġdomestic":8733,"Sm":8734,"2006":8735,"Ġessentially":8736,"Ġlayers":8737,":(":8738,"Ġgrad":8739,"[\"":8740,"Ġhelpful":8741,"gre":8742,"ket":8743,"mult":8744,"nic":8745,"Ġcaught":8746,"Ġ1997":8747,"Ġtheoret":8748,"Ġsea":8749,"Ġcrypt":8750,"Ġaccordance":8751,"Options":8752,"Page":8753,"omatic":8754,"Ġ2020":8755,"Ġbath":8756,"stack":8757,"ĠQue":8758,"Ġpurs":8759,"Ag":8760,"second":8761,"Ġrecording":8762,"Ġtrees":8763,"Ġjuice":8764,"Ġ62":8765,"åĪ":8766,"Ġlies":8767,"ĠJose":8768,"deg":8769,"astroenterology":8770,"Ġrid":8771,"Ġregime":8772,"scill":8773,"arge":8774,"ĠView":8775,"ĠArray":8776,"ĠOS":8777,"{-":8778,"006":8779,"ĠDO":8780,"ella":8781,"Ġcontrovers":8782,"Ġsomewhat":8783,"Ġintelligence":8784,"QU":8785,"nat":8786,"Ġsau":8787,"ĠWhere":8788,"Ġaccel":8789,"Layout":8790,"ĠÂµ":8791,"<\\":8792,"YS":8793,"Ġ67":8794,"Ġgastric":8795,"yles":8796,"oned":8797,"ĠLu":8798,"Ġmaintained":8799,"lines":8800,"Ġdescribes":8801,"ĠCancer":8802,"Ġspectra":8803,")+":8804,"number":8805,"Ġgift":8806,"axis":8807,"gence":8808,"ĠIC":8809,"Ġbeam":8810,"ching":8811,"plet":8812,"Ġattend":8813,"ĠReview":8814,"Ġpowers":8815,"ĠSign":8816,"osoph":8817,"Ġintr":8818,"liament":8819,"xiety":8820,"ĠCarolina":8821,"Ġje":8822,"Ġrecipe":8823,"Ġattempts":8824,"Ġsurrounding":8825,"Ġorth":8826,"Ġdischarge":8827,"Ġgenome":8828,"Ġ1996":8829,"Ġrecognition":8830,"Ġpulled":8831,"eals":8832,"ko":8833,"aration":8834,"ĠFire":8835,"Ġaccused":8836,"Ġidentical":8837,"American":8838,"ĠMel":8839,"debug":8840,"Supplementary":8841,"\\.":8842,"uable":8843,"Ġsurve":8844,"Ġsemi":8845,"ĠJewish":8846,"Ġthor":8847,"Ġlots":8848,"ĠRiver":8849,"Ġhelping":8850,"ohn":8851,"ĠMicrosoft":8852,")[":8853,"Next":8854,"mean":8855,"Ġbigger":8856,"ena":8857,"Ġmob":8858,"Ġelectrical":8859,"Ġpseud":8860,"idents":8861,"ĠCall":8862,"Ġdefe":8863,"ĠDemocratic":8864,"Ġemotional":8865,"Use":8866,"Ġfigures":8867,"rium":8868,"Ġapproval":8869,"112":8870,"Ġregister":8871,"Ġpicking":8872,"Mode":8873,"Ġ76":8874,"Ġtelling":8875,"Ġarrived":8876,"ATA":8877,"Ġcharacteristic":8878,"Ġpassword":8879,"Ġbiom":8880,"Ġsuperior":8881,"Ġprofession":8882,"ĠAfrican":8883,"Ġupdated":8884,"iology":8885,"Ġcontents":8886,"}}^{":8887,"Ġshell":8888,"Ġdifferentiation":8889,"Ġalloc":8890,"ĠKim":8891,"Ġdesire":8892,"equal":8893,"ĠJournal":8894,"ĠProt":8895,"Ġcompliance":8896,"Ġembry":8897,"cussion":8898,"kl":8899,"war":8900,"terior":8901,"ĠMath":8902,"udd":8903,"Tex":8904,"Ġrein":8905,"Ġluck":8906,"Ġgate":8907,"ĠDonald":8908,"anoate":8909,"Ġantibodies":8910,"ĠPeter":8911,"eller":8912,"ĠInformation":8913,"IND":8914,"Ġdirectory":8915,"direct":8916,"Ġsorry":8917,"ĊĠĠĠĠĠĠĠĠĠĠĠĠĠĠĠĠĠĠĠĠĠ":8918,"ductor":8919,"ĠDev":8920,"Open":8921,"mond":8922,"Ġpip":8923,"rior":8924,"isting":8925,"ktop":8926,"uma":8927,"Ġstatistics":8928,"Ġbusinesses":8929,"ĠPatients":8930,"ported":8931,"cribed":8932,"ĠOhio":8933,"Ġacids":8934,"ĠClub":8935,"Ġdisplayed":8936,"Ġrend":8937,"herm":8938,"Ġ79":8939,"Ġconstructed":8940,"None":8941,"ffee":8942,"Ġrapidly":8943,"PCR":8944,"RI":8945,"Ġmail":8946,"ĠPan":8947,"ĠReturn":8948,"Ġmodify":8949,"Ġsheet":8950,"Ġloan":8951,"Ġvictims":8952,"ĠLemma":8953,"ipt":8954,"Ġinduction":8955,"Ġdepression":8956,"Yeah":8957,"ighter":8958,"Ġcolumns":8959,"Ġsetup":8960,"Ġemployer":8961,"ĠPo":8962,"2001":8963,"Rev":8964,"Ġdiagnostic":8965,"Hel":8966,"Ġfilename":8967,"ĠProv":8968,"orption":8969,"}^*":8970,"Ġdenomin":8971,"bigg":8972,"ben":8973,"ĠAff":8974,"Ġdelet":8975,"III":8976,"ĠPolice":8977,"Ġhypothesis":8978,"ether":8979,"Ġ400":8980,"eren":8981,"Ġdimensions":8982,"ĠDemocrats":8983,"Ġsounds":8984,"Ġstroke":8985,"ifts":8986,"Ġexperts":8987,"ĠĠĠĠĠĠĠĠĠĠĠĠĠĠĠĠĠĠĠĠĠĠĠĠĠ":8988,"Ġtrouble":8989,"Ġbind":8990,"ĠHome":8991,"show":8992,"ICE":8993,"Ġconstitutional":8994,"Ġsymbol":8995,"Ġepisode":8996,"ĠMont":8997,"Ġrail":8998,"water":8999,"zo":9000,"ologic":9001,"Ġinstruction":9002,"Ġintegrated":9003,"Ġcopyright":9004,"About":9005,"Cons":9006,"GS":9007,"ais":9008,"Ġmarkets":9009,"ACE":9010,"////////////////":9011,"Ġproliferation":9012,"Ġbeta":9013,"Ġparticipate":9014,"Ġoscill":9015,"Ġconsec":9016,"Results":9017,"ĠWilliam":9018,"hensive":9019,"aus":9020,"Ġske":9021,"Ġpresum":9022,"Ġtemplate":9023,"TE":9024,"pet":9025,"inet":9026,"oston":9027,"Ġ69":9028,"erman":9029,"Phys":9030,"Ġ),":9031,"ritory":9032,"Ġexamine":9033,"Ġampl":9034,"Ġadvoc":9035,"Ġimmediate":9036,"PAR":9037,"dc":9038,"Ġnative":9039,"Ġultimately":9040,"Oper":9041,"loc":9042,"ĠThose":9043,"oxid":9044,")*(-":9045,"ĠAcadem":9046,"Ġstir":9047,"quare":9048,"Ġkne":9049,"Ġclassification":9050,"Ġendoscopic":9051,"DD":9052,"pie":9053,"power":9054,"Ġreactions":9055,"Ġassign":9056,"Function":9057,"eper":9058,"ĠFil":9059,"outs":9060,"Ġclock":9061,"Ġplain":9062,")}$":9063,"mes":9064,"aded":9065,"Ġ88":9066,"Ġraw":9067,"Ġmoves":9068,"Ġtells":9069,"Ġcompensation":9070,"buf":9071,"flu":9072,"idget":9073,"Ġ1000":9074,"Ġ84":9075,"Ġspeaking":9076,"unched":9077,"Ġprinciples":9078,"alloc":9079,"ĠÂ£":9080,"Ġpursuant":9081,"ĠCS":9082,"agraph":9083,"Ġpoll":9084,"Ġtopic":9085,"ĠĠĠĠĠĠĠĠĠĠĠĠĠĠĠĠĠĠĠĠĠĠĠĠĠĠĠ":9086,"Ġdeaths":9087,"expected":9088,"Ġdiversity":9089,"Mem":9090,"RT":9091,"bur":9092,"si":9093,"Ġdistributions":9094,"Ġinequality":9095,"VAL":9096,"Ġcups":9097,"Ġphotos":9098,"ĠMichigan":9099,"Ġxml":9100,"Ġfighting":9101,"types":9102,"terday":9103,"Ġvit":9104,"ĠCommon":9105,"sql":9106,"Ġlegislation":9107,"ocyte":9108,"ĠLos":9109,"ĠCorp":9110,"Ġtube":9111,"Command":9112,"Local":9113,"VA":9114,"Ġexcluded":9115,"Ġregional":9116,"Ġdiabetes":9117,"Ġengaged":9118,"ĠControl":9119,"Ġpowder":9120,"\"]":9121,"xf":9122,"Ġremote":9123,"Ġdenote":9124,"ĠMean":9125,"Vector":9126,"Ġrows":9127,"acc":9128,"Ġretail":9129,"Ġdiagnosed":9130,"ĠSimilarly":9131,"Ġfle":9132,"Ġhate":9133,"Ġrespective":9134,"Ġdivision":9135,"Ġassumption":9136,"Ġsubstantially":9137,"Ġdisorder":9138,"Ġcomplicated":9139,"Ġtrigger":9140,"PM":9141,"lymp":9142,"Ġadverse":9143,"Ġposts":9144,"Ġcalculation":9145,"Ġdogs":9146,"Ġol":9147,"2007":9148,"OH":9149,"VE":9150,"sup":9151,"Ġnormally":9152,"LL":9153,"ircraft":9154,"ĠAppeals":9155,"ĠAdditionally":9156,"Ġintroduce":9157,"Ġpreferred":9158,"Ġdiscrimination":9159,"ora":9160,"Ġhepat":9161,"positive":9162,"Ġtaxes":9163,"Ġmanifest":9164,"born":9165,"ĊĠĠĠĠĠĠĠĠĠĠĠĠĠĠĠĠĠĠĠĠĠĠĠĠĠĠĠĠĠĠĠĠĠĠĠĠĠĠĠĠĠĠĠĠĠĠĠĠĠĠĠĠĠĠĠĠĠĠĠĠĠĠĠĠ":9166,"Ġkick":9167,"]{}\\":9168,"Ġbought":9169,"Ġreconst":9170,"ĠNever":9171,"Ġincreasingly":9172,"Ġbleeding":9173,"$$\\":9174,"Ġdisag":9175,"avel":9176,"160":9177,"Ġrepresentative":9178,"Ġsustain":9179,"Ġnut":9180,"Ġrealize":9181,"Ġembed":9182,"Format":9183,"unnel":9184,"task":9185,"gi":9186,"ĠLo":9187,"Ġaffirm":9188,"Ident":9189,"People":9190,"Ġadequate":9191,".âĢĻ":9192,"Ġmic":9193,"Ġapplying":9194,"Ġspecim":9195,"Ġkitchen":9196,"\\}":9197,"his":9198,"home":9199,"Ġworst":9200,"foo":9201,"Return":9202,"yes":9203,"Ġtro":9204,"ĠAsia":9205,"varpi":9206,"Ġbars":9207,"Ġster":9208,"ĠLib":9209,"graph":9210,"Ġmales":9211,"Ġcultural":9212,"Ġrotation":9213,"approx":9214,"foot":9215,"rients":9216,"Ġ[]":9217,"Ġphosphory":9218,"ĠMartin":9219,"NOT":9220,"ĠAbb":9221,"Ġasympt":9222,"Ġoffering":9223,"Ġrealized":9224,"Ġarrested":9225,"Ġnm":9226,"Ġlen":9227,"Ġroles":9228,"ĠTrust":9229,"%;":9230,"Ġprobe":9231,"ords":9232,"afe":9233,"Ġregardless":9234,"Vis":9235,"Ġmine":9236,"Ġnurs":9237,"ĠName":9238,"Ġ['":9239,"Ġentity":9240,"ĠLee":9241,"180":9242,"Ġplea":9243,"Cor":9244,"ĊĊĠĠĠĠĠĠĠĠĠĠĠĠĠĠĠĠĠĠĠĠĠĠĠĠĠĠĠĠĠĠĠĠ":9245,"Ġurl":9246,"Pan":9247,"internal":9248,"Ġsick":9249,"ĠAv":9250,"ĠPower":9251,"Ġcontrary":9252,"points":9253,"elihood":9254,"Ke":9255,"ido":9256,"ĠMax":9257,"ĠDate":9258,"Ġking":9259,"Ġoriginally":9260,"Arg":9261,"Ġsuffered":9262,"Ġcrucial":9263,"nger":9264,"Ġfellow":9265,"Ġmigration":9266,"Ġnic":9267,"azine":9268,"ĠIDE":9269,"Ġvul":9270,"click":9271,"Ġinvasion":9272,"Ġmoderate":9273,"onym":9274,"Ġsoc":9275,"Ġherself":9276,"ishment":9277,"Ġcurves":9278,"KeyWord":9279,"ĠAmong":9280,"ĠRichard":9281,"Ġgro":9282,"aylor":9283,"Ġcoal":9284,"HECK":9285,"Ġtargets":9286,"Ġseparated":9287,"rif":9288,"ĠTre":9289,"Ġsuc":9290,"\\^":9291,"Ġhappening":9292,"coin":9293,"Ġdrawn":9294,"??":9295,"Current":9296,"Â»":9297,"Ġtens":9298,"Ġplanned":9299,"Ġoccasion":9300,"Ġbiops":9301,":**<":9302,"teen":9303,"Ġinval":9304,"\\|_{":9305,"ĠGame":9306,"Ġ78":9307,"Ġfairly":9308,"Ġforming":9309,"Ġwarning":9310,"ĠVirgin":9311,"isor":9312,"Ġfram":9313,"etal":9314,"ĠTim":9315,"adata":9316,"Ġweather":9317,"ĠWood":9318,"rule":9319,"ĠThanks":9320,"Ġfee":9321,"Ġ74":9322,"ttp":9323,"Output":9324,"Ñĥ":9325,"Ġnutrition":9326,"emia":9327,"Ġpolynomial":9328,"everal":9329,"help":9330,"Ġproceedings":9331,"Ġcytok":9332,"Department":9333,"xe":9334,"Ġ}}":9335,"ĠIM":9336,"Ġregulations":9337,"Ġmomentum":9338,"Ġexplanation":9339,"Ðº":9340,"blog":9341,"Mar":9342,"ĠCard":9343,"ogram":9344,"regulated":9345,"Ġapoptosis":9346,"pay":9347,"Ġmig":9348,"Ġconversion":9349,"Ġ-\\":9350,"Ġ71":9351,"Ġconnections":9352,"Response":9353,"Ġdegrad":9354,"Ġmutations":9355,"Ġsyndrome":9356,"files":9357,"isely":9358,"Many":9359,"Ġdrivers":9360,"Ġprompt":9361,"Ġsubt":9362,"Ġemission":9363,"Ġpassage":9364,"Because":9365,"Window":9366,"ãģ®":9367,"ĠArmy":9368,"Ġreliable":9369,"Ġgrounds":9370,"Ġunderwent":9371,"NC":9372,"ĠGO":9373,"Ġgrown":9374,"Ġkinds":9375,"Ġdropped":9376,"Ġstatistically":9377,"erry":9378,"ĠPac":9379,"ĠâĨĴ":9380,"ĠDirector":9381,"vs":9382,"romise":9383,"Ġnoticed":9384,"Ġ[$\\":9385,"105":9386,"ĠGeorg":9387,"Ġâī¤":9388,"Ġ--------------------------------":9389,"icide":9390,"Ġmetabolic":9391,"greg":9392,"hr":9393,"mode":9394,"Ġtip":9395,"Ġknowing":9396,"Ġregistered":9397,",'":9398,"Ġnod":9399,"Ġ77":9400,"Ġemphas":9401,"Ġbil":9402,"Ġaside":9403,"Ġflag":9404,"Ġprediction":9405,"Ġordinary":9406,"ĠDetermine":9407,"Ġč":9408,"Ġlisten":9409,"ĠAtl":9410,"prefix":9411,"Null":9412,"oder":9413,"Ġinfections":9414,"isters":9415,"ĠBet":9416,"Listener":9417,"IVE":9418,"buntu":9419,"=\"#":9420,"Ġschem":9421,"Process":9422,"Ġanswers":9423,"Ġtransferred":9424,"Ġweapons":9425,"Ġslic":9426,"ĠOld":9427,"Ġsoil":9428,"PRO":9429,"ean":9430,"ola":9431,"Ġcond":9432,"Ġextensive":9433,"ionic":9434,"store":9435,"allow":9436,"rates":9437,"Ġsizes":9438,"Ġ$(\\":9439,"Ġperipher":9440,"efined":9441,"Ġpara":9442,"oids":9443,"Ġmenu":9444,"ĠWilliams":9445,"Ġmillions":9446,"Builder":9447,"Ġfro":9448,"ĠWARR":9449,"ĠThree":9450,"Ġmanip":9451,"Ġhypert":9452,"odium":9453,"Ġalk":9454,"2002":9455,"Ġsuffering":9456,"iture":9457,"ĠCheck":9458,"Ġincred":9459,"Ġcircul":9460,"'$":9461,"(*":9462,"Ġdisorders":9463,"opping":9464,"Ġexcited":9465,"ĠModel":9466,"Ġacademic":9467,"Ã£":9468,"ĠSociety":9469,"**:":9470,"Ġsubstance":9471,"Ġcontroller":9472,"Ġacquired":9473,"$]{};":9474,"Max":9475,"Ġhotel":9476,"ĠAmazon":9477,"Ġmeth":9478,"Ġfeels":9479,"ovascular":9480,"ĠĠĠĠĠĠĠĠĠĠĠĠĠĠĠĠĠĠĠĠĠĠĠĠĠĠ":9481,"Ġboolean":9482,"Ġlogic":9483,"Ġvolunte":9484,"Ġdenominator":9485,"Ġlob":9486,"achment":9487,"Ġspoke":9488,"ova":9489,"Ġ89":9490,"fortunately":9491,"sem":9492,"ĠAri":9493,"Ġchest":9494,"connect":9495,"ĊČ":9496,"ĠPO":9497,"associ":9498,"Ġpermission":9499,"ĠVer":9500,"Project":9501,"ĠAccordingly":9502,"Debug":9503,"olesterol":9504,"some":9505,"vector":9506,"Ġcorporate":9507,"Ġvertical":9508,"Ġtort":9509,"ĠBuild":9510,"ĠRoad":9511,"Ġcompute":9512,"ĠWho":9513,"Ġverdict":9514,"Ġprepare":9515,"Ġinvolvement":9516,"rating":9517,"ĠTenn":9518,"rapper":9519,"Ġinstruct":9520,"Ġsummar":9521,"Ġmoments":9522,"IZ":9523,"Ġtough":9524,"Ġhybrid":9525,")_":9526,"iner":9527,"including":9528,"Ġcrack":9529,"125":9530,"ĠSpring":9531,"ibration":9532,"Ġagencies":9533,"Ġamb":9534,"Ġaddressed":9535,"140":9536,"ĠIsland":9537,"Ġmechanical":9538,"Ġreligion":9539,"][@":9540,"Ġdimensional":9541,"Even":9542,"_>":9543,"Ġcalculate":9544,"Ġlaboratory":9545,"urd":9546,"Ġvideos":9547,"mosp":9548,"rous":9549,"Ġopposition":9550,"oscopy":9551,"vin":9552,"eds":9553,"Ġfault":9554,"amely":9555,"irus":9556,"Ġyounger":9557,"Ġrub":9558,"Ġsurfaces":9559,"Ġcoupled":9560,"LECT":9561,"Ġcards":9562,"Ġstrains":9563,"cpp":9564,"rosc":9565,"Ġkilling":9566,"Ġrecur":9567,"Ġrefused":9568,"Ġexplo":9569,"ÃŃa":9570,"Ġcarrying":9571,"Ġdedicated":9572,"Style":9573,"sv":9574,"Ġaver":9575,"ctx":9576,"Ġ111":9577,"Ġcomputed":9578,"Ġsubsequently":9579,"HA":9580,"Ġmir":9581,"pin":9582,"yy":9583,"Ġrib":9584,"Child":9585,"Ġhidden":9586,"Ġ\\*":9587,"Ġfeat":9588,"Ġelig":9589,"Ġrepresenting":9590,"Ġpromise":9591,"Ġcalculations":9592,"gage":9593,"step":9594,"Ġtemperatures":9595,"Ġrecognize":9596,"Also":9597,"Ġdealing":9598,"Ġsatisfied":9599,"Ġenforcement":9600,"600":9601,"iro":9602,"Ġasc":9603,"Ġvast":9604,"essions":9605,"Ġdried":9606,"Ġacknowled":9607,".;":9608,"Who":9609,"ima":9610,"Ġintermediate":9611,"ĠShow":9612,"ĠCPU":9613,"pop":9614,"Ġdiffer":9615,"ĠReport":9616,"Ġsteel":9617,"Ġbacteria":9618,"Ġeld":9619,"ĠâĪ":9620,"ĠWall":9621,"Ġcutting":9622,"Ġrequests":9623,"Ġslowly":9624,"Ġhall":9625,"ĠUC":9626,"Ġfinds":9627,"Ġinjured":9628,"Ġcoordinates":9629,"'_":9630,"bel":9631,"ĠSU":9632,"ĠCanadian":9633,"Ġimagine":9634,"ĠBoston":9635,"Ġversions":9636,"Ġbrowser":9637,"âĢĺ":9638,"Ġintention":9639,"Ġbelief":9640,"Ġamplitude":9641,"DO":9642,"ruits":9643,"Ġstatutory":9644,"Ġillness":9645,"Ġconsequence":9646,"join":9647,"element":9648,"asts":9649,"Ġbreaking":9650,"Ġbasically":9651,"Ġattempted":9652,"ĠAuthor":9653,"GT":9654,"Length":9655,"pot":9656,"Ġrenew":9657,"Ġ(âĢľ":9658,"Ġongoing":9659,"Ġcentre":9660,"ĠCorpor":9661,"...\\":9662,"Ġfails":9663,"Ġdependence":9664,"Ġvoters":9665,"ĠHamilton":9666,"Ġholes":9667,"ĠSP":9668,"ĠOper":9669,"ĠYet":9670,"Ġflo":9671,"ĠText":9672,"osome":9673,"Ġchapter":9674,"Ġquas":9675,"Ġaimed":9676,"Ġaggreg":9677,"Ġgran":9678,"ARY":9679,"Â®":9680,"inition":9681,"ĠRo":9682,"Ġradical":9683,"}-\\":9684,"Ġmucos":9685,"Ġhurt":9686,"Ġprejud":9687,"Ġ73":9688,"irable":9689,"Acc":9690,"TL":9691,"ĠVan":9692,"Thank":9693,"response":9694,"Ġapplies":9695,"Ġglucose":9696,"VID":9697,"ester":9698,"ifact":9699,"Ġradi":9700,"ĠMedia":9701,"Ġstores":9702,"Ġamino":9703,"ATH":9704,"Ġstands":9705,"ĠColumb":9706,"zer":9707,"Ġclimate":9708,"}}^":9709,"Ġscatter":9710,"Ġinsu":9711,"ORE":9712,"region":9713,"Ġaudience":9714,"Ġingredients":9715,"Ġalert":9716,"usr":9717,"ĠEducation":9718,"Ġbacterial":9719,"Ġcab":9720,"ĠDu":9721,"aka":9722,"Ġpermit":9723,"Ġ:)":9724,"ometimes":9725,"ĠAmendment":9726,"bu":9727,"ĠHand":9728,"mathsf":9729,"107":9730,"Ġdriven":9731,"razy":9732,"Direct":9733,"astern":9734,"ĠGiven":9735,"Ġflux":9736,"Ġfemales":9737,"```":9738,"Ġfinger":9739,"unct":9740,"^{-\\":9741,"Ġ1995":9742,"Ġpresentation":9743,"conomic":9744,"ĠCOM":9745,"Ġusage":9746,"Ġ82":9747,"Ġrespir":9748,"TEST":9749,"Ġabnormal":9750,"Ġ1980":9751,"Ġpaying":9752,"Ġdifficulty":9753,"Ġfragment":9754,"aid":9755,"sen":9756,"Ġdict":9757,"Ġhospit":9758,"Ġ250":9759,"Ġ>=":9760,"Ġmoral":9761,"Ġinstitutions":9762,"ellee":9763,"Ġalpha":9764,"ĠLight":9765,"Ġevident":9766,"ĠItaly":9767,"Ġ98":9768,"Ġdecline":9769,"Ġconsumer":9770,"zero":9771,"Ġanxiety":9772,"Ġinqu":9773,"Ġren":9774,"ifer":9775,"---------":9776,"prod":9777,"Ġtransaction":9778,"Ġpermanent":9779,"Ġoven":9780,"ellants":9781,"agues":9782,"ibilities":9783,"Ġcontributed":9784,"ULT":9785,"Ġcomparable":9786,"aniel":9787,"Ġsauce":9788,"ï½":9789,"ĠSC":9790,"ĠBush":9791,"Ġhero":9792,"ĠPlay":9793,"Ġfoods":9794,"anish":9795,"ĠCam":9796,"Ġsharing":9797,"Ġspokes":9798,"ãĥ¼":9799,"device":9800,"Ġsemicon":9801,"vari":9802,"Ġmarg":9803,"ĠBase":9804,"Ġenabled":9805,"offset":9806,"Ġapproximation":9807,"Ġenzyme":9808,"Tag":9809,"ĠJeff":9810,"ĠVis":9811,"Ġevening":9812,"nut":9813,"asia":9814,"access":9815,"conduct":9816,"Ġoperate":9817,"Ġseverity":9818,"inois":9819,"Ã§":9820,"ican":9821,"osa":9822,"}^{(":9823,"Ġelevated":9824,"Url":9825,"Ġvectors":9826,"Ġchoices":9827,"ĠMaybe":9828,"ĠWITH":9829,".$":9830,"Ġretrie":9831,"textrm":9832,"ĠYoung":9833,"Ġproducing":9834,"Ġprivacy":9835,"Ġelections":9836,"Gener":9837,"gly":9838,"esides":9839,"umor":9840,"Ġourselves":9841,"Ġclassified":9842,"Block":9843,"Ġtrained":9844,"Ġtradition":9845,"Web":9846,"Ġintegration":9847,"ĠCr":9848,"Ġwithdraw":9849,"Ġtranslation":9850,"Ġretire":9851,"ucks":9852,"Factory":9853,"Red":9854,"rey":9855,"ĠSol":9856,"ĠSpe":9857,"awa":9858,"ventions":9859,"ĠAnalysis":9860,"rosis":9861,"CIT":9862,"Ġblow":9863,"ĠSar":9864,"Ġteach":9865,"Ġposit":9866,"Ġdecade":9867,"ĠArch":9868,"Update":9869,"orne":9870,"2003":9871,"Ċĉĉĉĉĉĉ":9872,"Ġfant":9873,"olars":9874,"ĠLast":9875,"ĠURL":9876,"ĠJul":9877,"Ġmodes":9878,"Ġwalked":9879,"Ġescape":9880,"raise":9881,"ĠMatthew":9882,"FLAGS":9883,"SION":9884,"Ġprospect":9885,"Ġprecise":9886,"Ġtalent":9887,"Down":9888,"Ġstead":9889,"Ġveter":9890,"Ġquiet":9891,"Ġmarkers":9892,"ocolate":9893,"Ġanywhere":9894,"ĠYOU":9895,"ussian":9896,"fficients":9897,"rastructure":9898,"Ġroutine":9899,"Ġaircraft":9900,"Ġsimulation":9901,"Ġsingular":9902,"Ġfrequent":9903,"haust":9904,"ĠGrand":9905,"Ġspatial":9906,"otypes":9907,"Ġimposed":9908,"Theta":9909,"Ġanyway":9910,"Ġnewly":9911,"Ġpolym":9912,"Ġrequiring":9913,"Range":9914,"wa":9915,"yo":9916,"å®":9917,"ĠEU":9918,"Ġtheme":9919,"prise":9920,"Ġfacing":9921,"Ġwinning":9922,"Ġrepeat":9923,"Ġduck":9924,"stat":9925,"Init":9926,"128":9927,"Ġglob":9928,"'),":9929,".]":9930,"lie":9931,"ĠSM":9932,"Ġvaluable":9933,"Ġcreates":9934,"GET":9935,"Ġabsorb":9936,"ĠRepublicans":9937,"Ġwonderful":9938,"Mult":9939,"Â§":9940,"atible":9941,"berry":9942,"Ġscenario":9943,"Ġproposal":9944,"meta":9945,"ĠâĶĤ":9946,"infl":9947,"ĠCM":9948,"----------":9949,"Ġcontends":9950,"ĠVersion":9951,"prov":9952,"ĠDespite":9953,"Ã£o":9954,"Sort":9955,"Ġplanet":9956,"Ġregulatory":9957,"Ġrejected":9958,"DNA":9959,"Ġdelete":9960,"astian":9961,"1999":9962,"Ġgoods":9963,"Like":9964,"Token":9965,"ocracy":9966,"ĠOK":9967,"Ġcloud":9968,"Ġtank":9969,"umps":9970,"Ġtruck":9971,"ĠConstitution":9972,"Ġsatisfy":9973,"Xiv":9974,"âģ":9975,"Ġsport":9976,"Ġbrown":9977,"about":9978,"ĠFood":9979,"ĠÂ«":9980,"Case":9981,"Ġ91":9982,"ĠKey":9983,"ĠStr":9984,"Ġmathemat":9985,"}^{-":9986,"Ġbegins":9987,"Ġprivile":9988,"rage":9989,"Ġ116":9990,"ĠLand":9991,"Ġvictory":9992,"Ġpurchased":9993,"Ġextracted":9994,"\"\"":9995,"å¤":9996,"amination":9997,"duction":9998,"AMP":9999,"Ġencoding":10000,"Ġdocumentation":10001,"Ġdisclosed":10002,"Ġmanifold":10003,"Finally":10004,"ji":10005,"Ġmissed":10006,"Em":10007,"Ġarr":10008,"Ġaged":10009,"attice":10010,"Ġradius":10011,"Ġconstraints":10012,"Put":10013,"uity":10014,"Ġgel":10015,"empor":10016,"ĠJo":10017,"Ġobserve":10018,"Ġowned":10019,"Ġcommunications":10020,"ĠExper":10021,"Ġengage":10022,"Ġannounce":10023,"Ġindependently":10024,"Ġrestricted":10025,"ochemical":10026,"Ġmask":10027,"close":10028,"Ġnewsp":10029,"uality":10030,"Ġlegs":10031,"UST":10032,"Ġedges":10033,".^[@":10034,"Met":10035,"Ġ\\{":10036,"Ġcarrier":10037,"2004":10038,"gress":10039,"ja":10040,"ĠKar":10041,"spring":10042,"bles":10043,"Ġdoct":10044,"Ġheader":10045,"Ġbowl":10046,"ivariate":10047,"Link":10048,"ĠInvest":10049,"Ġinhibitor":10050,"Ġperfectly":10051,"Connection":10052,"Ġmild":10053,"ĠFox":10054,"ĠGNU":10055,"Ġchose":10056,"Sl":10057,"Ġsong":10058,"Ġbare":10059,"ellect":10060,"ĠPath":10061,"Ġ1992":10062,"cludes":10063,"Ġstrike":10064,"valuate":10065,"Ġtheoretical":10066,"VD":10067,"ourses":10068,"Ġstronger":10069,"ĠSi":10070,"Ġ===":10071,"Ġcorresponds":10072,"Ġyields":10073,"Ġconscious":10074,"othelial":10075,"Ġ83":10076,"Ġdiscover":10077,"bial":10078,"Ġfo":10079,"obs":10080,"Ġ1994":10081,"ĠCatholic":10082,"Width":10083,"otox":10084,"Ġalle":10085,"ĠBased":10086,"ghan":10087,"Ġcars":10088,"Most":10089,"Ġatmosp":10090,"roud":10091,"Ġ94":10092,"Ġmanufacturing":10093,"Ġrisks":10094,"Mon":10095,"}:":10096,"Ġathlet":10097,"isons":10098,"Ġlaugh":10099,"ĠOrgan":10100,"ski":10101,"Ġschedule":10102,"Ġtemporary":10103,"cule":10104,"ione":10105,"oved":10106,"Ġshouldn":10107,"Ġcarefully":10108,"Ġrounded":10109,"Ġfunc":10110,"ĠPT":10111,"ĠBern":10112,"Ġdish":10113,"Ġsampling":10114,"Ĥ¬":10115,"Ver":10116,"Ġteas":10117,"Ġindustrial":10118,"burg":10119,"hex":10120,"Ġthr":10121,"Ġinvariant":10122,"riter":10123,"Ġimproving":10124,"Ġcomplexity":10125,"infinity":10126,"Ġbulk":10127,"ĠAngeles":10128,"Ġdiscipl":10129,"}_\\":10130,"Ġturning":10131,"Ġbench":10132,"Ġmagnitude":10133,"Ġselling":10134,"Ġ115":10135,"Ġcann":10136,"2005":10137,"Ġbehalf":10138,"oplus":10139,"dl":10140,"ogg":10141,"ĠEnter":10142,"Ġdataset":10143,"WS":10144,"Ġwed":10145,"ĠOlymp":10146,"shot":10147,"Ġperforming":10148,"Ġprofiles":10149,"Ġopposed":10150,"ĠJackson":10151,"Mark":10152,"Under":10153,"press":10154,"Ġcomfortable":10155,"ĠÃ©":10156,"ocard":10157,"Ġchicken":10158,"Ġseparation":10159,"ĠSpecial":10160,"Ġ\\;":10161,"ĠViet":10162,"should":10163,"NAME":10164,"cam":10165,"Îº":10166,"ĠHen":10167,"Ġcomparing":10168,"','":10169,"Ġseriously":10170,"Widget":10171,"make":10172,"ĠBE":10173,"Ġgenu":10174,"Ġbringing":10175,"Ġexplicitly":10176,"Ġcognitive":10177,"={":10178,"FD":10179,"ela":10180,"unicip":10181,"Ġdoctors":10182,"\"}),":10183,"Ġparticipation":10184,"Ġquantity":10185,"Left":10186,"Ġsurprising":10187,"Provider":10188,"Eng":10189,"Ġfurn":10190,"ĠSwed":10191,"008":10192,"ĠJac":10193,"Ġ87":10194,"Ġaccommod":10195,"Ġsufficiently":10196,"Ġcoefficients":10197,"Ġencourage":10198,"Ġmetall":10199,"ĠPakistan":10200,"WH":10201,"tml":10202,"ĠMike":10203,"rup":10204,"ailable":10205,"Ġequally":10206,"cache":10207,"Î³":10208,"Ġokay":10209,"Ġinstances":10210,"ymb":10211,"ropy":10212,"ĠMexico":10213,"BV":10214,"two":10215,"ĠIr":10216,"urse":10217,"ĠEst":10218,"Ġreader":10219,"Ġforest":10220,"Ġprecisely":10221,"Ġcapture":10222,"Configuration":10223,"(_":10224,"Work":10225,"æĺ":10226,"lections":10227,"ĠIg":10228,"ĠCase":10229,"Ġwherein":10230,"Ġdomains":10231,"--------------":10232,"Param":10233,"ĠBow":10234,"earing":10235,"Ġbug":10236,"EXT":10237,"Ġadjacent":10238,"wait":10239,"ilib":10240,"Ġassist":10241,"Ġdisturb":10242,"Ġperiods":10243,"YP":10244,"Ġphr":10245,"Ġwriter":10246,"Ġconsecutive":10247,";</":10248,"Ġresc":10249,"Ġwhenever":10250,"Ġquad":10251,")),":10252,"020":10253,"nc":10254,"person":10255,"Ġmapping":10256,"ctal":10257,"adi":10258,"Column":10259,"ĠPrime":10260,"NR":10261,"edia":10262,"Ġguid":10263,"Ġactivated":10264,"Ġmultip":10265,"Ġmutation":10266,"Does":10267,"Ġgod":10268,"ĠDoes":10269,"Once":10270,"Ġobj":10271,"example":10272,"Ġelected":10273,"Hey":10274,"Ġbattery":10275,"Ġrely":10276,"ĠCEO":10277,"Ġ112":10278,"ĠFROM":10279,">\\":10280,"mut":10281,"Ġbin":10282,"agan":10283,"Ġextreme":10284,"ĠReal":10285,"Ac":10286,"Dev":10287,"bottom":10288,"Ġneu":10289,"Ġreferences":10290,"Ġ**(":10291,"Ġawait":10292,"Ġstimulation":10293,"Did":10294,"Location":10295,"omething":10296,"idad":10297,"plan":10298,"Ġarmy":10299,"Ġsignature":10300,"Ġfamous":10301,"Ġcrimes":10302,"AME":10303,"Ġresolve":10304,"Ġvehicles":10305,"His":10306,"Ġ..":10307,"thread":10308,"such":10309,"ĠSource":10310,"ĠMake":10311,"ĠNFL":10312,"Ġshop":10313,"\"}](":10314,"ĠĠĠĠĠĠĠĠĠĠĠĠĠĠĠĠĠĠĠĠĠĠĠĠĠĠĠĠĠ":10315,"Ġtargeted":10316,"Ġyesterday":10317,"Ġcited":10318,"Ġgall":10319,"Ġ\"(":10320,"Ġscr":10321,"ENSE":10322,"000000":10323,"Ġsurprise":10324,"Good":10325,"Ġpel":10326,"Ġchecked":10327,"Ġintroduction":10328,"when":10329,"Ġabdom":10330,"ĠInit":10331,"Ġdispl":10332,"inson":10333,"Ġauthent":10334,"IGHT":10335,"anol":10336,"Ġthrows":10337,"ĠBusiness":10338,"ĠCommand":10339,"ĠStudies":10340,"Car":10341,"Ġinclusion":10342,"ĠCou":10343,"umes":10344,"ĠVari":10345,"isition":10346,"Ġprovider":10347,"condition":10348,"Ġpenalty":10349,"Nav":10350,"ali":10351,"ĠTop":10352,"rible":10353,"Ġsubs":10354,"Ġboost":10355,"Ġcircle":10356,"Ġcomprehensive":10357,"ellar":10358,"Ġbuying":10359,"Container":10360,"Ġdirections":10361,"Ġlipid":10362,"omorphic":10363,"ogeneous":10364,"Ġsister":10365,"Ġlegit":10366,"Ġmasses":10367,"ĠTechnology":10368,"ito":10369,"ansas":10370,"ĠBritain":10371,"Ġwound":10372,"obuf":10373,"description":10374,"gypt":10375,"west":10376,"actic":10377,"bling":10378,"Ġsuscept":10379,"Ġbread":10380,"Ġdrain":10381,"Ġ600":10382,"ĠĠĠĠĠĠĠĠĠĠĠĠĠĠĠĠĠĠĠĠĠĠĠĠĠĠĠĠĠĠĠĠĠĠĠĠĠĠĠĠĠĠĠĠĠĠĠĠĠĠĠĠĠĠĠĠĠĠĠĠĠĠĠĠĠĠĠĠĠĠĠĠĠĠĠĠĠĠĠĠĠĠĠĠĠĠĠĠĠĠĠĠĠĠĠĠĠĠĠĠĠĠĠĠĠĠĠĠĠĠĠĠĠĠĠĠĠĠĠĠĠĠĠĠĠĠĠĠĠĠĠĠĠĠĠĠĠĠĠĠĠĠĠĠĠĠĠĠĠĠĠĠĠĠĠĠĠĠĠĠĠĠĠĠĠĠĠĠĠĠĠĠĠĠĠĠĠĠĠĠĠĠĠĠĠĠĠĠĠĠĠĠĠĠĠĠĠĠĠĠĠĠĠĠĠĠĠĠĠĠĠĠĠĠĠĠĠĠĠĠĠĠĠĠĠĠĠĠĠĠĠĠĠĠĠĠĠĠĠĠĠĠĠĠĠĠĠĠĠĠĠĠĠĠĠĠ":10383,">,":10384,"Ġvariations":10385,"anner":10386,"anche":10387,"!âĢĿ":10388,"åĲ":10389,"Ġholid":10390,"aceut":10391,"ILITY":10392,"Ġverify":10393,"orse":10394,"ureau":10395,"ĠConf":10396,"Ġviral":10397,"Ġtwenty":10398,"Ġwine":10399,"ĠLink":10400,"Ġherein":10401,"Ġesoph":10402,"Ġresection":10403,"ĠNetwork":10404,"Ġmixing":10405,"Ġsulf":10406,"uten":10407,"âĢħ":10408,"Ġvascular":10409,"Ġinduce":10410,"Ġinvalid":10411,"Total":10412,"Ġng":10413,"Ġexit":10414,"Ġjson":10415,"Ġcream":10416,"note":10417,"remove":10418,"Ġimprovements":10419,"Ġnaturally":10420,"Ġpartnership":10421,"double":10422,"Ġok":10423,"ĠRights":10424,"Ġplenty":10425,"sof":10426,"External":10427,"Only":10428,"Ġconsumers":10429,"etts":10430,"Ġnamely":10431,"estin":10432,"plus":10433,"Ġ{{":10434,"Ġgoogle":10435,"Ġcorrection":10436,"final":10437,"Ġsad":10438,"Ġbridge":10439,"Ġiter":10440,"Ġaband":10441,"ĠManagement":10442,"Ġclusters":10443,"Attribute":10444,"scribe":10445,"world":10446,"inction":10447,"Ġ130":10448,"ellate":10449,"Ġmatrices":10450,"Screen":10451,"rical":10452,"ĠMD":10453,"Ġclassic":10454,"Ġfatty":10455,"Ġfifth":10456,"pers":10457,"onential":10458,"ila":10459,"Ġyellow":10460,"ĠNumber":10461,"ĠForce":10462,"Ġmeasuring":10463,"Ġtechnologies":10464,"Ġapartment":10465,"&=&":10466,"Ġ$-":10467,"Ġreserved":10468,"Ġ86":10469,"Ġtransplant":10470,"Ġ92":10471,"Ġentre":10472,"ITION":10473,"mediated":10474,"Ġcarcinoma":10475,"Ñĭ":10476,"esome":10477,"Ġ$[":10478,"Ġ$|":10479,"ĠRam":10480,"ĠEvent":10481,"Ġsmoking":10482,"))/(":10483,"Ġmalign":10484,"dec":10485,"Ġproven":10486,"regulation":10487,"Ã¡s":10488,"Ġarbitrary":10489,"Ġrobust":10490,"Ev":10491,"Ġtou":10492,"Ġwestern":10493,"iser":10494,"ĠBrad":10495,"ĠEnt":10496,"Ġunem":10497,"ergies":10498,"-------------":10499,"Ġresponded":10500,"Ġcommitment":10501,"Op":10502,"WAR":10503,"ador":10504,"aciÃ³n":10505,"Ġchamber":10506,"Ġtrace":10507,"monary":10508,"Ġcareful":10509,"Ġawareness":10510,"URE":10511,"nan":10512,"Ġtang":10513,"erly":10514,"ĠRight":10515,"Ġclot":10516,"Ġreduces":10517,";\\;\\":10518,"Ġdominant":10519,"Ġsoci":10520,"oli":10521,"ĠCu":10522,"Ġcoffee":10523,"ĠÃł":10524,"Ġrestaurant":10525,"CF":10526,"Ġpapers":10527,"Ġlift":10528,"Ġgarden":10529,"ĠEth":10530,"ĠUV":10531,"ificate":10532,"Ġheads":10533,"Integer":10534,"Ġextraction":10535,"Tab":10536,"aft":10537,"-----------":10538,"Ġ1993":10539,"Ġ93":10540,"Ġindirect":10541,"Ġhealthcare":10542,"Ġphysics":10543,"Ġloaded":10544,"Ġelectrode":10545,"Ġchallenging":10546,"Pref":10547,"xb":10548,"oman":10549,"Ġchlor":10550,"Ġdisability":10551,"Ġattribute":10552,"Ġbarrier":10553,"Section":10554,"Ġthereof":10555,"ĠVict":10556,"Ġgreatly":10557,"Ġsurprised":10558,"MM":10559,"cb":10560,"ilation":10561,"ologically":10562,"there":10563,"anna":10564,"Ġstaining":10565,"agers":10566,"Ġremind":10567,"Ġshel":10568,"Ã©s":10569,"Ġbuildings":10570,"ĠOrder":10571,"Ġcopies":10572,"spe":10573,"Ġtaught":10574,"ĠCapt":10575,"ĠLi":10576,"Ġhasn":10577,"127":10578,"Ġscalar":10579,"likely":10580,"Pa":10581,"overs":10582,"ASE":10583,"Sch":10584,"kt":10585,"Ġwal":10586,"ĠPS":10587,"Ġlaunched":10588,"ĠIllinois":10589,"Ġsucceed":10590,"Ġalive":10591,"Ġ\"#":10592,"ĠED":10593,"ĠStart":10594,"piracy":10595,"Ġpharmac":10596,"1000":10597,"800":10598,"req":10599,"oning":10600,"Ġplug":10601,"Ġcaps":10602,"Second":10603,"naire":10604,"Ġconvenient":10605,"<?":10606,"ĠMiddle":10607,"Ġintake":10608,"minus":10609,"ymmetric":10610,"Ġwelcome":10611,"Ġreward":10612,"Ġalb":10613,"}}}$":10614,"Ġblind":10615,"Ġminister":10616,"ĠResp":10617,"Ġlosing":10618,"ĠBit":10619,"ĠEll":10620,"Ġ81":10621,"ĠWilson":10622,",$$":10623,"Core":10624,"Draw":10625,"HC":10626,"lay":10627,"Ġhorm":10628,"ĠBefore":10629,"Ġ&=&":10630,"Ġhandling":10631,"Ġargs":10632,"ependent":10633,"qquad":10634,"Ġnerve":10635,"Ġstabil":10636,"osomes":10637,"Ġcolors":10638,"rink":10639,"Ġtack":10640,"ultural":10641,"Ġboys":10642,"Ġcuts":10643,"Ġteachers":10644,"Non":10645,"aks":10646,"Ġpresents":10647,"awn":10648,"Ġinsulin":10649,"Ġanticip":10650,"ĠAgain":10651,"ĠNat":10652,"Ġkernel":10653,"plex":10654,"130":10655,"Ġbrings":10656,"Ġcovering":10657,"Ġhydrogen":10658,"Ġsaved":10659,"Ġmetabolism":10660,"bro":10661,"tmp":10662,"ĠRT":10663,"aved":10664,"Ġgoverning":10665,"Ġreveal":10666,"Handle":10667,"Ġthickness":10668,"){\\":10669,"AST":10670,"Tool":10671,"family":10672,"Ġpour":10673,"Ġdecay":10674,"Ġreviews":10675,"Ġphilosoph":10676,":=":10677,"utch":10678,"ĠLine":10679,"tein":10680,"formed":10681,"neum":10682,"iii":10683,"Server":10684,"Custom":10685,"Ġcrazy":10686,"Ġeast":10687,"ĠLO":10688,"Ġvalve":10689,"empty":10690,"Ġhistorical":10691,"Ġsou":10692,"Ġstood":10693,"Ġexhaust":10694,"Ġ})":10695,"ĠAsian":10696,"master":10697,"uh":10698,"Ġwinter":10699,"Ġ180":10700,"ĠJim":10701,"ENC":10702,"Ġhardware":10703,"Ġdivide":10704,"ictionary":10705,"Ġcache":10706,"Ġlb":10707,"ĠBY":10708,"Ġrefers":10709,"ĠConst":10710,"Ġbanks":10711,"Ġdump":10712,"âĢ¯":10713,"Ġonset":10714,"Ġmeal":10715,"Ġunus":10716,"Ġfiling":10717,"ĠCurrent":10718,"Ġpartially":10719,"Ġscored":10720,"IGN":10721,"Ġtheories":10722,"Ġisland":10723,"ĠBook":10724,")$$":10725,"Ġmarketing":10726,"./":10727,"chor":10728,"exists":10729,"aired":10730,"diff":10731,"Ġ((-":10732,"ĠMiller":10733,"ando":10734,"Ġcontrad":10735,"Ġundert":10736,"Ġserial":10737,"Ġfewer":10738,"Ġadministrative":10739,"THE":10740,"Ġdinner":10741,"ĠFar":10742,"Ġsuppress":10743,"forward":10744,"Ġbankruptcy":10745,"ĠPL":10746,"Ġsomewhere":10747,"viously":10748,"Ġbasket":10749,"ĠBlue":10750,"noon":10751,"Ġcalcium":10752,"Ġvulner":10753,"ĠVirginia":10754,"fol":10755,"fire":10756,"Ġomitted":10757,"ethe":10758,"Ġnarr":10759,"Ġbytes":10760,"}\\\\":10761,"Ġoverride":10762,"Ġexecuted":10763,"holder":10764,"Ġwatched":10765,"Ġrevenue":10766,"minent":10767,"ĠSpace":10768,"loop":10769,"Ġsed":10770,"charg":10771,"Ġwearing":10772,"Ġflight":10773,"Change":10774,"ĠEnergy":10775,"bool":10776,"Ġfer":10777,"ĠCustom":10778,"Ġdeposition":10779,"ĠHig":10780,"011":10781,"Ġanymore":10782,"Ġprofit":10783,"ĠHTML":10784,"mo":10785,"ĠNY":10786,"Ġsimultaneously":10787,")|":10788,"stop":10789,"ĠSL":10790,"Ġbear":10791,"ĠCivil":10792,").$$":10793,"Ġexecution":10794,"ĠCommunity":10795,"Ġsemiconductor":10796,"216":10797,"Ð¼":10798,"ĠPage":10799,"Ġmatching":10800,"Ġnumerical":10801,"Ġfel":10802,"Ġorb":10803,"ĠFunction":10804,"014":10805,"ĊĉĠĠĠ":10806,"front":10807,"ĠGlobal":10808,"CG":10809,"High":10810,"Ġpriority":10811,"Tem":10812,"ycl":10813,"inv":10814,"ĠTown":10815,"ogether":10816,"Ġreceiver":10817,"Ġconservative":10818,"Ġteacher":10819,"aceutical":10820,"ĠUser":10821,"Ġaccompan":10822,"protobuf":10823,"Menu":10824,"ĠPetition":10825,"Ġfed":10826,"Ġimper":10827,"Ġexpanded":10828,"omorphism":10829,"Ġteaspo":10830,"nm":10831,"Ġbits":10832,"udio":10833,"container":10834,"Application":10835,"Ġbounded":10836,"Long":10837,"mate":10838,"ĠmM":10839,"ĠSyria":10840,"Ġseeds":10841,"@{":10842,"iatric":10843,"âĶĢâĶĢâĶĢâĶĢâĶĢâĶĢâĶĢâĶĢâĶĢâĶĢâĶĢâĶĢâĶĢâĶĢâĶĢâĶĢâĶĢâĶĢâĶĢâĶĢâĶĢâĶĢâĶĢâĶĢâĶĢâĶĢâĶĢâĶĢâĶĢâĶĢâĶĢâĶĢ":10844,".(":10845,"NP":10846,"uan":10847,"Ġintervals":10848,"Ġserves":10849,"Ġseparately":10850,"Ġperipheral":10851,"Ġec":10852,"Ġfort":10853,"ocus":10854,"012":10855,"Ġvariance":10856,"ald":10857,"istical":10858,"PK":10859,"UID":10860,"ni":10861,"}\"":10862,"ĠToday":10863,"cean":10864,"race":10865,"Ġ\\\"":10866,"ĠNext":10867,"Ġpassion":10868,"Ġfrust":10869,"Ġcomputation":10870,"ÂłÂłÂłÂłÂłÂłÂłÂł":10871,"ona":10872,"iments":10873,"emic":10874,"Ġpermitted":10875,"Ġpeer":10876,"insic":10877,"Ġdecreases":10878,"ĠmiRNA":10879,"Ġriver":10880,"Port":10881,"irms":10882,"Ġneutr":10883,"Ġdust":10884,"ĠSaud":10885,"Ġyards":10886,"ĠMount":10887,"Ġ<-":10888,"Ġlocally":10889,"âĶĢâĶĢâĶĢâĶĢâĶĢâĶĢ":10890,"Ġsuspend":10891,"Ġstrip":10892,"Expand":10893,"ĠAustralian":10894,"LY":10895,"ĠMajor":10896,"Ġneural":10897,"ritis":10898,"untime":10899,"ĠĠĠĠĠĠĠĠĠĠĠĠĠĠĠĠĠĠĠĠĠĠĠĠĠĠĠĠ":10900,"Ġwitnesses":10901,"Ġpitch":10902,"Ġplur":10903,"),\\":10904,"ĠTeam":10905,"Ġpresidential":10906,"ĠDavis":10907,"250":10908,"BU":10909,"fi":10910,"onut":10911,"Ġresolved":10912,"Ġsubstit":10913,"ONE":10914,"ĠProfess":10915,"âĶĢâĶĢâĶĢâĶĢâĶĢâĶĢâĶĢâĶĢâĶĢâĶĢâĶĢâĶĢâĶĢâĶĢ":10916,"Ġwindows":10917,"ilibrium":10918,".\\[[@":10919,"/_":10920,"window":10921,"åħ":10922,"Ġfulf":10923,"ĠRet":10924,"Ġadmission":10925,"pson":10926,"insert":10927,"Ġwalls":10928,"Ġproud":10929,"iana":10930,"ochond":10931,"Ġuniversal":10932,"Mart":10933,"look":10934,"ectors":10935,"ĠHR":10936,"Ġune":10937,"OCK":10938,"Ġinsufficient":10939,"uzz":10940,"onia":10941,"ĠCro":10942,"ĠBest":10943,"Ġ<!--":10944,"angular":10945,"Ġ102":10946,"Ġflour":10947,"Ġdeviation":10948,"INTER":10949,"atson":10950,"ĠRod":10951,"asty":10952,"Ġresidual":10953,"Ġrestrictions":10954,"HOUT":10955,"Bo":10956,"Row":10957,"Ġtab":10958,"Ġfake":10959,"Ġ105":10960,"Ġsuppose":10961,"ĠLett":10962,"Ġtablespoons":10963,"rator":10964,"ĠFre":10965,"aug":10966,"params":10967,"Ġmatches":10968,"ICENSE":10969,"Height":10970,"slc":10971,"lb":10972,"Ġjet":10973,"Ġdiver":10974,"overty":10975,"Ġcheese":10976,"Ġinhibitors":10977,"Ġkinase":10978,"swe":10979,"zy":10980,"016":10981,"Ġmovies":10982,"Ġportions":10983,"During":10984,"Ġicon":10985,"Ġlattice":10986,"Ġgay":10987,"ĠUk":10988,"Ġprelim":10989,"1998":10990,"\\_[":10991,"Ġoccurrence":10992,"Ġlifetime":10993,"Names":10994,"VP":10995,"enger":10996,"Ġpushed":10997,"changed":10998,"Ġprospective":10999,"ĠWomen":11000,"agonal":11001,"Ġsubgroup":11002,"Ġcheap":11003,"Ġcontinuing":11004,"Ġinvestors":11005,"âĸĶâĸĶâĸĶâĸĶ":11006,"Ġguarantee":11007,"Ġscheduled":11008,"Ġjourney":11009,"Graph":11010,"**.":11011,"Str":11012,"Ġsimulations":11013,"Ġcenters":11014,"Num":11015,"uri":11016,"ulty":11017,"123":11018,"ierarch":11019,"ĠSpain":11020,"ĠChristmas":11021,"ĠImage":11022,"Ġadjusted":11023,"lat":11024,"will":11025,"enth":11026,"Ġgather":11027,"necess":11028,"negative":11029,"CHECK":11030,"NULL":11031,"rin":11032,"ĠElect":11033,"Ġ04":11034,"Thread":11035,"Ġgalaxies":11036,"Ġphenomenon":11037,"xsd":11038,"Ġml":11039,"ĠFM":11040,"ĠJr":11041,"Ġintestinal":11042,"Ġpregnancy":11043,"ĠPay":11044,"ĠDig":11045,"Ġcomposed":11046,"cedent":11047,"Ġimpair":11048,"Ġbelieves":11049,"Ġlikelihood":11050,"complete":11051,"ĠGeorgia":11052,"Sw":11053,"Ġfired":11054,"Ġcomo":11055,"Ġtalked":11056,"'}":11057,"Further":11058,"Search":11059,"Ġforum":11060,"ĠBob":11061,"Ġblank":11062,"ĠEngine":11063,"Ġtelephone":11064,"ĠAdministration":11065,"vi":11066,"illance":11067,"ĠEs":11068,"aret":11069,"Ġembodiment":11070,"Ġuncertainty":11071,"Ġtrib":11072,"ĠChem":11073,"Ġ114":11074,"ĠRock":11075,"Ġshares":11076,"Ġinfinite":11077,"Ġgrew":11078,"Ġmistake":11079,"nl":11080,"stone":11081,"ĠLake":11082,"Ġunclear":11083,"Ġkeys":11084,"fraid":11085,"Ġupdates":11086,"Ġrespiratory":11087,"GD":11088,"NE":11089,"opp":11090,"ĠCur":11091,"iva":11092,"undle":11093,"Ġgeometry":11094,"æĪ":11095,"ĠKn":11096,"Ġvertex":11097,"Ġsuffer":11098,"DIR":11099,"Ġrecom":11100,"ĠLocal":11101,"Ġintellect":11102,"week":11103,"ĠÂĹ":11104,"ĠColl":11105,"Ġcompletion":11106,"Ġcrowd":11107,"Ġthorough":11108,"fd":11109,"Ġhol":11110,"Ġdescript":11111,"export":11112,"Ġdiverse":11113,"Ġeducational":11114,"Ġmetastasis":11115,"ĠCorporation":11116,"bled":11117,"Ġtherap":11118,"Ġthinks":11119,"endix":11120,"Ġcholesterol":11121,"rying":11122,"ryst":11123,"lower":11124,"102":11125,"108":11126,"Ġconspiracy":11127,"129":11128,"Ġprevention":11129,"ĠEgypt":11130,"Ġdb":11131,"Ġupload":11132,"plot":11133,"ĠJoe":11134,"angers":11135,"Ġcrew":11136,"Ġoccas":11137,"Ġcontracts":11138,"}.$$":11139,"urable":11140,"Ġdeclare":11141,"Ġallegations":11142,"Top":11143,"hspace":11144,"Ġcro":11145,"alities":11146,"Ġfing":11147,"Ġdeploy":11148,"Ġ&=":11149,"Ġexpectations":11150,"Ġtalks":11151,"Each":11152,"Using":11153,"Ġtiming":11154,"Sum":11155,"making":11156,"total":11157,"Ġinher":11158,"ials":11159,"ammatory":11160,"Ġafternoon":11161,"111":11162,"Ġelsewhere":11163,"Ġvalidity":11164,"late":11165,"ĠSQL":11166,"Ġadvent":11167,"Ġ1991":11168,"Ġmodul":11169,"ropri":11170,"Ġabsorption":11171,"Ġmachines":11172,"Ġflexible":11173,"dig":11174,"molecules":11175,"uce":11176,"wart":11177,"atabase":11178,"iously":11179,"Ġmarker":11180,"Ġhospitals":11181,"xff":11182,"ĠDam":11183,"Run":11184,"ted":11185,"Ġdialog":11186,"ĠTal":11187,"ĠMa":11188,"}})":11189,"Ġdefines":11190,"issions":11191,"ĠSeb":11192,"Ġspectral":11193,"Ġpacket":11194,"AE":11195,"Ġ^{":11196,"Ġos":11197,"Ġsomehow":11198,"they":11199,"Ġfailing":11200,"Ġspecificity":11201,"Ġsettlement":11202,"ĠConsider":11203,"ĠCharles":11204,"full":11205,"Ġsymmetric":11206,"Equal":11207,"reason":11208,"Ġbomb":11209,"etry":11210,"iginal":11211,"Ġ($\\":11212,"sex":11213,"ĠGM":11214,"ĠEff":11215,"Ġoverw":11216,"Ġcoli":11217,"Sign":11218,"Ġwest":11219,"ĠRest":11220,"ĠGar":11221,"Ġincorporated":11222,"Cache":11223,"uct":11224,"010":11225,"Ġinfrastructure":11226,"ĠResults":11227,"Ġorganized":11228,"ĠAfghan":11229,"Ġrecommendations":11230,"_+":11231,"ÑĮ":11232,"Ġ}\\":11233,"Ġfly":11234,"eties":11235,"Ġrevolution":11236,"uits":11237,"profile":11238,"aws":11239,"Ġacet":11240,"engine":11241,"Ġfaced":11242,"success":11243,"door":11244,"ÏĢ":11245,"inn":11246,"stra":11247,"ĠIBD":11248,"Ġpersonnel":11249,"Ġquantitative":11250,"leqslant":11251,"Ġmaintaining":11252,"Ġcollective":11253,"GP":11254,"John":11255,"found":11256,"uz":11257,"Ġbat":11258,"ĠDefendants":11259,"ĠRoman":11260,"Ġarchitecture":11261,"Ġafraid":11262,"icul":11263,"ĠHy":11264,"Ġrecruit":11265,"offs":11266,"---------------":11267,"Ġadministered":11268,"Ġsustained":11269,"pres":11270,"}]":11271,"ĠWater":11272,"Ġadhes":11273,"scape":11274,"Free":11275,"ĠConse":11276,"ĠPers":11277,"ĠAgreement":11278,"namespace":11279,"uction":11280,"Ġmodification":11281,"Ġirre":11282,"Ġperturb":11283,"vy":11284,"è¿":11285,"etary":11286,"acer":11287,"Ġproviders":11288,"Ġfeelings":11289,"Ġpromoter":11290,"Ġrestriction":11291,"Ġultr":11292,"Ġvessel":11293,"SV":11294,"ĠMic":11295,"ĠFamily":11296,"ĠEp":11297,"ageal":11298,"arding":11299,"Ġdiffusion":11300,"uclear":11301,"Ġnearby":11302,"Ġdispute":11303,"erk":11304,"ader":11305,"Ġphysicians":11306,"ĠSciences":11307,"ĠPacific":11308,"TM":11309,"eh":11310,"Ġ119":11311,"oprote":11312,"Ġinfected":11313,"Ġderivatives":11314,"OUR":11315,"copy":11316,"pad":11317,"Ġtape":11318,"plete":11319,"racle":11320,"Ġfluct":11321,"ãĢģ":11322,"Ġadvantages":11323,"Ġconclusions":11324,"istence":11325,"}}(\\":11326,"Ġpartition":11327,"Ġanalyt":11328,"years":11329,"Reference":11330,"canc":11331,"Ġtoken":11332,"ĠHE":11333,"ILL":11334,"Ġcontrolling":11335,"Ġ\"\"\"":11336,"Ġsight":11337,"Ġinfinity":11338,"Prot":11339,"ublished":11340,"Ġloading":11341,"Ġhonor":11342,"Ġthousand":11343,"Pi":11344,"dslc":11345,"mol":11346,"erated":11347,"Ġexpenses":11348,"ariju":11349,"Ġoperated":11350,"Ġlawyer":11351,"Ġtopological":11352,"irtual":11353,"Ġcodes":11354,"Ġhyd":11355,"ĠTaylor":11356,"ĠNov":11357,"ĠUnivers":11358,"putation":11359,"Ġconvicted":11360,"ĠDescription":11361,"Ġfeeding":11362,"arijuana":11363,"åŃ":11364,"Ġcoast":11365,"Ġremand":11366,"Ġ&&&&":11367,"æĸ":11368,"ĠTurn":11369,"Ġ113":11370,"ĠJon":11371,"Ġlosses":11372,"Ġscholars":11373,"fill":11374,"Ġshoulder":11375,"gathered":11376,"Ãº":11377,"ĠCross":11378,"Ġattributes":11379,"Ġgeneric":11380,"Ġpersonally":11381,"legate":11382,"ĠRepresent":11383,"avelength":11384,"SQL":11385,"herence":11386,"Stat":11387,"Ġgenerating":11388,"ĠWITHOUT":11389,"acity":11390,"Ġsharp":11391,"Ġwheel":11392,"Ġadds":11393,"Ġcoinc":11394,"oxide":11395,"Ġpreliminary":11396,"wall":11397,"Ġchip":11398,"icrosoft":11399,"Ġavailability":11400,"white":11401,"Ġurban":11402,"Ġignore":11403,"Ġpulse":11404,"Ġconverted":11405,"fact":11406,"Ñı":11407,"ergic":11408,"Ġreaders":11409,"Ġboat":11410,"ĠAcademy":11411,"HD":11412,"OB":11413,"~,":11414,"Ġrear":11415,"Ġbroke":11416,"prec":11417,"ĠCentre":11418,"Description":11419,"Ġpancreatic":11420,"Ã¢":11421,"Ġfruits":11422,"ĠError":11423,"Ġchecks":11424,"Ġcleaning":11425,"ĠSW":11426,"ĠCast":11427,"adel":11428,"Ġworker":11429,"Ġrose":11430,"Exec":11431,"Ġrepresentations":11432,"ĠPolicy":11433,"Ġruled":11434,"imation":11435,"ĠAC":11436,"Ġconce":11437,"ĠBan":11438,"Ġcurrency":11439,"ĠProposition":11440,"Ġdivisor":11441,"Ġcomprises":11442,"Ġutility":11443,"ĠJoseph":11444,"ront":11445,"ĠBas":11446,"Ġunlikely":11447,"ĠOfficer":11448,"sip":11449,"asive":11450,"amic":11451,"Ġuniverse":11452,"Ġpredictive":11453,"~~~~~~~~":11454,"Ġadvertising":11455,"TV":11456,"_[":11457,"oop":11458,"Ġbeer":11459,"owed":11460,"through":11461,"}}}\\":11462,"Store":11463,"Ġmedi":11464,"ylvan":11465,"ĠAndroid":11466,"ĠChapter":11467,"Ġendothelial":11468,"Ġparagraph":11469,"Ġreasonably":11470,"Ġstrings":11471,"Ġconsisting":11472,"ĠMrs":11473,"Ġduplic":11474,"Ġscientists":11475,"Ġgovernments":11476,"Types":11477,"images":11478,"ĠTem":11479,"Ġconflic":11480,"Ġremoving":11481,"Ġinstitution":11482,"KPX":11483,"tons":11484,"Ġseal":11485,"ĊĠĠĠĠĊĠĠĠ":11486,"Ġbusy":11487,"ĠFrancisco":11488,"iest":11489,"ĊĊĠĠĠĠĠĠĠĠĠĠĠĠĠĠĠ":11490,"heast":11491,"Ġatoms":11492,"ĠLI":11493,"Ġcontra":11494,"Ġentering":11495,"puted":11496,"dagger":11497,"Ġweren":11498,"oving":11499,"advant":11500,"Ġalign":11501,"athan":11502,"Ġprotest":11503,"Ġanalyze":11504,"Ġharmon":11505,"Ġroughly":11506,"Rad":11507,"Vari":11508,"Ġfibr":11509,"rocy":11510,"Ġgram":11511,"ulative":11512,"ĠRyan":11513,"Ġconsiderable":11514,"Ġmarks":11515,"Ġownership":11516,"Header":11517,"Ġseasons":11518,"Ġtrick":11519,"annot":11520,"Level":11521,"associated":11522,"]\"":11523,"otion":11524,"ĠBra":11525,"ĠHot":11526,"orectal":11527,"ynt":11528,"âĦ":11529,"ouston":11530,"auth":11531,"Ġswim":11532,"Ġbeneficial":11533,"Ġappeals":11534,"ĠKingdom":11535,"ĠStandard":11536,"VC":11537,"estyle":11538,"Ġ1970":11539,"ologist":11540,"Ġeverywhere":11541,"aze":11542,"Ġcomputing":11543,"Ġchemotherapy":11544,"Ġclosing":11545,"Ġbowel":11546,"ĠSebastian":11547,"nament":11548,"site":11549,"Ġbran":11550,"ĠSix":11551,"ema":11552,"ĠPharm":11553,"Ġqualified":11554,"Ã±":11555,"Ġtunnel":11556,"Ġcyl":11557,"Ġgut":11558,"iry":11559,"Ġrural":11560,"Ġclimb":11561,"parse":11562,"Ġfoundation":11563,"ĠAdv":11564,"Ġtomorrow":11565,"Ġbatch":11566,"Ġride":11567,"Ġovercome":11568,"Ġtraject":11569,"Ġsky":11570,"missible":11571,"Ġbroadcast":11572,"cus":11573,"Ġethyl":11574,"acle":11575,"ĠStan":11576,"116":11577,"0000000000000000":11578,"450":11579,"DM":11580,"inating":11581,"ĠCook":11582,"Ġ1988":11583,"Ġflavor":11584,"ibraries":11585,"Ġcontacts":11586,"Ġimmig":11587,"è¯":11588,"amond":11589,"ems":11590,"ĠWis":11591,"Ġsubmit":11592,"OO":11593,"RA":11594,"pred":11595,"Ġsending":11596,"Ġwaves":11597,"Ġincons":11598,"ĠValley":11599,"Ġcaptured":11600,"Ġsnow":11601,"ĠTotal":11602,"ownt":11603,"enda":11604,"Ġassignment":11605,"ĠApplication":11606,"Ġdiscussions":11607,"Ġcardiovascular":11608,"urations":11609,"Ġvice":11610,"Ġ104":11611,"Ġconstitute":11612,"Expression":11613,"Ġrom":11614,"Ġstorm":11615,"Ġrice":11616,"Ġteen":11617,"Ġjudicial":11618,"Valid":11619,"Ġregularly":11620,"Ġunsigned":11621,"NT":11622,"ensities":11623,"Ġevil":11624,"Ġfeas":11625,"Ġtriv":11626,"IME":11627,"Ġdisappoint":11628,"\\>":11629,"Ġ).":11630,"Ġcable":11631,"Ġlists":11632,"ĠCru":11633,"ĠMid":11634,"erving":11635,"Ġprocessed":11636,"ĠĠĠĠĠĠĠĠĠĠĠĠĠĠĠĠĠĠĠĠĠĠĠĠĠĠĠĠĠĠĠ":11637,"Ġlateral":11638,"Ġresidues":11639,"game":11640,"Ġtips":11641,"rell":11642,"iration":11643,"ĠOpt":11644,"}}^{\\":11645,"ãģĦ":11646,"Ġimplications":11647,"Ġincubated":11648,"hard":11649,"Ġwww":11650,"Ġfuck":11651,"ĠLab":11652,"ONT":11653,"Ġentries":11654,"Ġexplains":11655,"ĠSteve":11656,"Ġdrinking":11657,"Ġplurality":11658,"LP":11659,"Ġsearc":11660,"Ġuncon":11661,"Product":11662,"Ġsynthes":11663,"Ġbeauty":11664,"Ġvessels":11665,"oured":11666,"Ġhur":11667,"Ġreaching":11668,"imeq":11669,"wealth":11670,"super":11671,"ĠLinux":11672,"Ġ_,_":11673,";\">":11674,"Ġnerv":11675,"ĠChris":11676,"ĠConference":11677,"Ġprecision":11678,"Ġawarded":11679,"Ġweapon":11680,"Ġpilot":11681,"+^":11682,"LD":11683,"Pass":11684,"tn":11685,"Ġcav":11686,"Ġhat":11687,"ailing":11688,"scope":11689,"AK":11690,"Ġtiny":11691,"ĠUI":11692,"Ġpreserve":11693,"nsylvan":11694,"background":11695,"Ġtargeting":11696,"Ġdoctrine":11697,"RP":11698,"vision":11699,"Ġbon":11700,"009":11701,"ĠPK":11702,"ĠLtd":11703,"redit":11704,"Thus":11705,"Ġviewed":11706,"Ġsequencing":11707,"Ġhabit":11708,"Ġorientation":11709,"'],":11710,"FOR":11711,"^^":11712,"gmail":11713,"Ġunw":11714,"Ġagric":11715,"Ġconsistently":11716,"Ġprosecution":11717,"groups":11718,"uv":11719,"Ġexclusive":11720,"endor":11721,"ĠLow":11722,"uby":11723,"Ġarmed":11724,"Ġkeeps":11725,"Ġpasses":11726,"Ġopinions":11727,"install":11728,"Ġepisodes":11729,"Ġsuddenly":11730,"]-":11731,"who":11732,"Ġarc":11733,"ERROR":11734,"lan":11735,"Ġgastro":11736,"Ġrising":11737,"Ġassays":11738,"Ġpepper":11739,"Ġposterior":11740,"Ġcultures":11741,"loat":11742,"hav":11743,"ritten":11744,"Ġassemb":11745,"Ġru":11746,"104":11747,"Ġrefrig":11748,"Ġvariants":11749,"defined":11750,"ĠContin":11751,"category":11752,"âī":11753,"onical":11754,"Ġfolder":11755,"ĠTok":11756,"ĠWhether":11757,"Ġlemon":11758,"Ġmere":11759,"Ġphysician":11760,"Ġfaces":11761,"simeq":11762,"Ļª":11763,"ĠSher":11764,"ricular":11765,"Ġparad":11766,"support":11767,"Ġphosphorylation":11768,"lined":11769,"inos":11770,"essee":11771,"stic":11772,"Ġ117":11773,"Ġcompeting":11774,"*]{},":11775,"Ġtensor":11776,"otyp":11777,"season":11778,"Ġabortion":11779,"Ġ+/-":11780,"commun":11781,"Ġdenial":11782,"backs":11783,"floor":11784,"Ġexpressions":11785,"Ġinnoc":11786,"Ġartery":11787,"ocols":11788,"ĠDou":11789,"ĠNBA":11790,"izz":11791,"eping":11792,"Ġtrading":11793,"Ġmolecule":11794,"EXPECT":11795,"Ġcolleagues":11796,"roleum":11797,"FM":11798,"igm":11799,"rained":11800,"ante":11801,"ĠFollowing":11802,"Ġships":11803,"Ġinterventions":11804,"STAT":11805,"Ġsatisfies":11806,"underline":11807,"AVE":11808,"Ġeligible":11809,"ĠWalk":11810,"handle":11811,"Ġexhibit":11812,"ĠApache":11813,"nsylvania":11814,"Ġsessions":11815,"keys":11816,"onto":11817,"Ġsimilarly":11818,"leton":11819,"Ġviolent":11820,"ĠÐ¿":11821,"Address":11822,"Ġdemands":11823,"Ġacquisition":11824,"Ġhouses":11825,"Ġallegedly":11826,"Ġdismissed":11827,"Ġaccumulation":11828,"piece":11829,"Ġrecurrence":11830,"Ġreturning":11831,"Ġmovements":11832,"Ġmutant":11833,"ĠValue":11834,"Ġdegradation":11835,"Mo":11836,"Ġà¤":11837,"Ġmock":11838,"olver":11839,"Ġinterior":11840,"oves":11841,"Ġflood":11842,"apply":11843,"overn":11844,"Ġcompetitive":11845,"Ġalgorithms":11846,"ĠFinancial":11847,"Evaluate":11848,"env":11849,"orial":11850,"Ġreven":11851,"015":11852,"textbf":11853,"Ġmedication":11854,"enna":11855,"Ġnucleus":11856,"Ġvotes":11857,"Ġkidney":11858,"à¥":11859,"Ġ----------------------------------------------------------------":11860,"Ġfilling":11861,"imp":11862,"ĠSat":11863,"ĠSouthern":11864,"eman":11865,"Ġclause":11866,"Ġpron":11867,"ĠConsequ":11868,"ĠTri":11869,"ĠTake":11870,"Ġye":11871,"uble":11872,"103":11873,"Ġproduces":11874,"ĠTrue":11875,"Ġpredomin":11876,"Ġliterally":11877,"zona":11878,"Ġscattering":11879,"IAL":11880,"Ġdates":11881,"Ġ1989":11882,"ĠAndrew":11883,"Ġcrystall":11884,"Okay":11885,"Ġstup":11886,"Ġtract":11887,"Ġmonthly":11888,"Ġcombine":11889,"ĠMinistry":11890,"Ġgradient":11891,"Ġ160":11892,"clip":11893,"}}$,":11894,"Ġhoping":11895,"degree":11896,"Ġsoul":11897,"Ġcord":11898,"Ġlayout":11899,"idx":11900,"Ġgang":11901,"ĠCamb":11902,"Ġdecent":11903,"ĠGi":11904,"Ġpoliticians":11905,"Ġcomplexes":11906,"Ġsoldiers":11907,"Ġvillage":11908,"esity":11909,"uties":11910,"Ġheating":11911,"()->":11912,"ĠClinical":11913,"Settings":11914,"Ġsynchron":11915,"ucl":11916,"{$":11917,"Ġdress":11918,"Ġham":11919,"vex":11920,"adium":11921,"osity":11922,"Ġsystematic":11923,"ĠAnderson":11924,"docs":11925,"Ġgalaxy":11926,"npm":11927,"Ġwavelength":11928,"ĠDown":11929,"Ġchocolate":11930,"Ġspons":11931,"anguages":11932,"fields":11933,"<!--":11934,"sys":11935,"Ġfusion":11936,"ĠTer":11937,"anti":11938,"pton":11939,"Ġarise":11940,"))/":11941,"Ġvacuum":11942,"MB":11943,"Ġwet":11944,"ĠMap":11945,"Ġnotion":11946,"ĠRun":11947,"obic":11948,"106":11949,"Ġeverybody":11950,"WR":11951,"wan":11952,"ĠCond":11953,"thm":11954,"API":11955,"Ġspiritual":11956,"Ġabundance":11957,"Ġhorizontal":11958,"Cs":11959,"Doc":11960,"OUT":11961,"ioned":11962,"ĠMain":11963,"Ġjoy":11964,"Ġenables":11965,"ĠUnit":11966,"tool":11967,"Ġconfront":11968,"Ġmaxim":11969,"Ġvalidation":11970,"Ġimplant":11971,"Ġerred":11972,"Ġprosecutor":11973,"Ġwireless":11974,"ĠCreate":11975,"Ġpas":11976,"ocker":11977,"Ġstruggle":11978,"ĠNevertheless":11979,"Dialog":11980,"Json":11981,"enza":11982,"Ġcoding":11983,"Ġcolour":11984,"regular":11985,"Ġpaths":11986,"Ġlegislative":11987,"Ġsolely":11988,"\"))":11989,"Ġcust":11990,"ĠCrim":11991,"Ġdecom":11992,"endo":11993,"ĠRoyal":11994,"forms":11995,"STX":11996,"Ġvaccine":11997,"Ġdysfunction":11998,"Ġepithelial":11999,"âģĦ":12000,"ders":12001,"pool":12002,"hep":12003,"ilbert":12004,"anta":12005,"Ġhaz":12006,"Ġ<=":12007,"Ġrelating":12008,"Ġrain":12009,"Ġviolated":12010,"Ġaddresses":12011,"Ġratios":12012,"Ġultimate":12013,"Ġdelayed":12014,"Ġeggs":12015,"oi":12016,"treated":12017,"Ġera":12018,"emed":12019,"ĠFI":12020,"berries":12021,"black":12022,"Ġacceptable":12023,"ĠAbout":12024,"oria":12025,"otide":12026,"ictions":12027,"Ġtopics":12028,"Ġsensors":12029,"Ġconstantly":12030,"Ġinterpreted":12031,"Target":12032,"owa":12033,"Ġ135":12034,"Ġperceived":12035,"mpty":12036,"handler":12037,"TI":12038,"mons":12039,"Ġë":12040,"Ġaer":12041,"Ġinverse":12042,"ptic":12043,"Ġoffensive":12044,"ĠPatent":12045,"Ġidentifying":12046,"fonts":12047,"layer":12048,"rooms":12049,"Ġvine":12050,"Ġ1984":12051,"Ġeffectiveness":12052,"Ġcorporation":12053,"Ġwake":12054,"isl":12055,"Ġaltered":12056,"ango":12057,"====================":12058,"Ġparas":12059,"Ġworldwide":12060,"ĠExec":12061,"Ġfalling":12062,"Ġaffects":12063,"Ġintegrity":12064,"Ġcategor":12065,"Sche":12066,"mal":12067,"Ġstuck":12068,"ĠThank":12069,"formance":12070,"ĠYear":12071,"âĦ¢":12072,"Ġcarb":12073,"Ġstudying":12074,"Ġequality":12075,"}({\\":12076,"being":12077,"Ġbirds":12078,"ĠSaudi":12079,"'\\":12080,"bell":12081,"sis":12082,"Ġbounds":12083,"icing":12084,"channel":12085,"Ġsomebody":12086,"Ġinterference":12087,"utable":12088,"Ġstom":12089,"ĠĠĠĠĠĠĠĠĠĠĠĠĠĠĠĠĠĠĠĠĠĠĠĠĠĠĠĠĠĠĠĠĠĠĠĠĠĠĠĠĠĠĠĠĠĠĠĠĠĠĠĠĠĠĠĠĠĠĠĠĠĠĠĠĠĠĠĠĠĠĠĠĠĠĠĠĠĠĠĠĠĠĠĠĠĠĠĠĠĠĠĠĠĠĠĠ":12090,"Ġracial":12091,"Dist":12092,"bibr":12093,"een":12094,"elect":12095,"Ġ(@":12096,"raine":12097,"Ġ140":12098,"ĠKelly":12099,"Ġ108":12100,"ĠZeal":12101,"ABILITY":12102,"Ġmacroph":12103,"have":12104,"ÂĹ":12105,"ĠAh":12106,"olding":12107,"ĠIslamic":12108,"itudes":12109,"~\\":12110,"Ġstone":12111,"Ġrecru":12112,"Ġcampus":12113,"Ġclosest":12114,"PCSTX":12115,"Ġheavily":12116,"itrogen":12117,"Mean":12118,"Ġtrends":12119,"Ġdistinguish":12120,"Ca":12121,"lers":12122,"inic":12123,"Ġmarijuana":12124,"Ġlease":12125,"Ġbless":12126,"Ġfluorescence":12127,"Ġsodium":12128,"ĠLead":12129,"phosph":12130,"versely":12131,"Ġdetermin":12132,"Ġstreets":12133,"NET":12134,"oT":12135,"vm":12136,"ĠGrant":12137,"arios":12138,"Ġsmile":12139,"Ġaffili":12140,"Ġabsent":12141,"Ġarrangement":12142,"Ġancient":12143,"bold":12144,"pmatrix":12145,"erator":12146,"ĠMu":12147,"ĠFL":12148,"=\"../":12149,"Ġaccessible":12150,"Ġcrash":12151,"Ġimproper":12152,"Ġimmunity":12153,"iliary":12154,"Ġmounted":12155,"Ġcomprising":12156,"Ġparking":12157,"Ġstrictly":12158,"Ġpixel":12159,"Ġvegetables":12160,"Come":12161,"Ġupt":12162,"Ġbyte":12163,"ĠWild":12164,"Ġadoles":12165,"Ġexponential":12166,"Ġrape":12167,"scr":12168,"arcin":12169,"OX":12170,"Ġease":12171,"Ġhash":12172,"Ġmodules":12173,"Ġlabels":12174,"inflammatory":12175,"EXPECTED":12176,"Has":12177,"session":12178,"replace":12179,"Ġwra":12180,"Ġconcrete":12181,"ervation":12182,"ificial":12183,"Intern":12184,"ĠIndex":12185,"Enc":12186,"JS":12187,"bet":12188,"iscal":12189,"iah":12190,"Ġamendment":12191,"ĠYan":12192,"117":12193,"Ġsurge":12194,"Ġauthorized":12195,"ĠSeries":12196,"Ġengineering":12197,"Ġsuspected":12198,"ĠPennsylvania":12199,"Ġhypertension":12200,"Ġ-------":12201,"Ġnotation":12202,"Ġleaf":12203,"Ġdisadvant":12204,"derived":12205,"Ġaccompanied":12206,"315":12207,"FE":12208,"eries":12209,"environment":12210,"analysis":12211,"Ġprotective":12212,"Ġprogramming":12213,"Ġdebug":12214,"Ġmeetings":12215,"ĠTennessee":12216,"Mc":12217,"javascript":12218,"Ġtomat":12219,"ĠPE":12220,"ĠPoint":12221,"ĠBa":12222,"ĠHon":12223,"ĠDid":12224,"Ġdiscrete":12225,"riction":12226,"ĠCarl":12227,"ENTS":12228,"Ġangi":12229,"Ġenzymes":12230,"nutrients":12231,"enum":12232,"oscopic":12233,"rivate":12234,"Ġvarying":12235,"Look":12236,"PER":12237,"{}^*":12238,"Ġfranch":12239,"Ġbands":12240,"ĠCost":12241,"ĠBMI":12242,"Ġranging":12243,"comment":12244,"address":12245,"Ġenjoyed":12246,"SW":12247,"Ġturb":12248,"Ġcum":12249,"eto":12250,"Ġvital":12251,"Ġ106":12252,"Ġ125":12253,"Ġindication":12254,"prene":12255,"cmd":12256,"Ġautomatic":12257,"PG":12258,"hab":12259,"Ġconsensus":12260,"Ġdestruction":12261,"bullet":12262,"gp":12263,"Ġcourses":12264,"ĠAge":12265,"ĠAction":12266,"ĠRog":12267,"efully":12268,"Ġepidem":12269,"Params":12270,"fall":12271,"language":12272,"Ġnations":12273,"ĠNF":12274,"Ġchr":12275,"cli":12276,"ĠÐ²":12277,"Ġodds":12278,"Ġreversed":12279,"Ġfacilitate":12280,"Ġdestroyed":12281,"\\}$":12282,"yers":12283,"itations":12284,"igate":12285,"impl":12286,"Ġjail":12287,"ieve":12288,"Ġmanual":12289,"Ġfrequencies":12290,"Ġoxide":12291,"Ġproceeding":12292,"Ġcoordinate":12293,"Reader":12294,"USE":12295,"hot":12296,"ĠĊĠĠĠĠĠĠĠ":12297,"Ġhack":12298,"amps":12299,"osomal":12300,"ordan":12301,"genic":12302,"Ġprofessor":12303,"Ġappreciate":12304,"ĠChildren":12305,"Ġclothes":12306,"LT":12307,"emb":12308,"ĠChampionship":12309,"Ġlimitation":12310,"Ġmaximal":12311,"Ġdifficulties":12312,"Ġdrawing":12313,"Dir":12314,"[$":12315,"erer":12316,"Ġspan":12317,"Ġmitochond":12318,"ĠConsequently":12319,"Main":12320,"etics":12321,"Ġlin":12322,"ĠDan":12323,"Ġperf":12324,"Ġsubm":12325,"ARD":12326,"Ġinvestigations":12327,"Ġdamaged":12328,"represent":12329,"Ġknee":12330,"Ġretirement":12331,",$":12332,"snap":12333,"ĠPass":12334,"Ġending":12335,"Ġreflected":12336,"256":12337,"Ġangular":12338,"Ġfunny":12339,"Title":12340,"conv":12341,"Order":12342,"\\!\\!\\!\\!":12343,"ĠDise":12344,"ogens":12345,"ĠPlaintiffs":12346,"Ġearned":12347,"Ġsurveillance":12348,"SER":12349,"adder":12350,"ogl":12351,"Ġ$\\{":12352,"rett":12353,"ĠAnal":12354,"onymous":12355,"Ġgenuine":12356,"ĠZealand":12357,".).":12358,"CB":12359,"oir":12360,"aser":12361,"Ġ(%)":12362,"aternal":12363,"ĠfibM":12364,"amente":12365,"ĠDoctor":12366,"Ġappointed":12367,"119":12368,"gov":12369,"ĠME":12370,"email":12371,"ĠInf":12372,"ĊĠĠĠĠĠĠĠĠĠĠĠĠĠĠĠĠĠĠĠĠĠĠĠĠĠĠĠĠĠĠĠĠĠĠĠ":12373,"Ġabdominal":12374,"Dav":12375,"Ġpneum":12376,"ĠFA":12377,"Ġspecify":12378,"Ġchecking":12379,"Ġnormalized":12380,"Ġnervous":12381,".),":12382,"CODE":12383,"Dr":12384,"pgen":12385,"Ġcondem":12386,"Ġsees":12387,"Ġages":12388,"Ġretain":12389,"Ġsubjected":12390,"Ġhousehold":12391,"ĠJews":12392,"Ġprognosis":12393,"Ġdisagree":12394,"Ġtroops":12395,"necessary":12396,"Ð²":12397,"energy":12398,"Ġbid":12399,"Ġ118":12400,"ĠDM":12401,"illary":12402,"phys":12403,"aped":12404,"Ġcovers":12405,"Ġdecor":12406,"Ġobjection":12407,"Ġpromising":12408,"Ġestimation":12409,"Ġpsychi":12410,"ĠSupport":12411,"Http":12412,"Po":12413,"dated":12414,"ĠItalian":12415,"ĠScot":12416,"Ġcycles":12417,"Ġtun":12418,"ĠDie":12419,"ĠNode":12420,"Ġshopping":12421,"Ġ109":12422,"Ġtrauma":12423,"trl":12424,"Ġswit":12425,"*(-":12426,"|^":12427,"anal":12428,"Ġthrom":12429,"ami":12430,"Ġscales":12431,"Ġdesirable":12432,"Ġattitude":12433,"Ġbreach":12434,"SET":12435,"Ġdesigns":12436,"ViewController":12437,"================================================================================================":12438,"Dig":12439,"SK":12440,"aver":12441,"oline":12442,"ĠDaniel":12443,"ĠAgency":12444,"Ġprofessionals":12445,"Mesh":12446,"^)":12447,"}%":12448,"Ġhunt":12449,"ĠLove":12450,"354":12451,"Show":12452,"ogenous":12453,"Ġaudio":12454,"Ġdollar":12455,"Ġpsychological":12456,"Ġfavour":12457,"orneys":12458,"ĠCaptain":12459,"Ġunusual":12460,"pb":12461,"ologists":12462,"verexp":12463,"Ġphenotype":12464,"ĠJersey":12465,"Ġoverwhel":12466,">.":12467,"iem":12468,"methyl":12469,"Ġcake":12470,"Ġ{@":12471,"delete":12472,"Ġteeth":12473,"cycl":12474,"ĠSpanish":12475,"Ġtumour":12476,"Ġsupers":12477,"Ġrepeatedly":12478,"Ġtolerance":12479,"bian":12480,"craft":12481,"Ġ132":12482,"ifting":12483,"ĠMah":12484,"1997":12485,"Collection":12486,"Ġcreative":12487,"Express":12488,"GRO":12489,"git":12490,"inator":12491,"Ġov":12492,"ĠFort":12493,"Ġenergies":12494,"Ġovernight":12495,"fileID":12496,"Ġeliminate":12497,"Ġcoconut":12498,"Ġconjug":12499,"Ġenemy":12500,"Ġatmosphere":12501,"Miss":12502,"romagnetic":12503,"Ġdefensive":12504,"United":12505,"Ġvoted":12506,"bral":12507,"Ġhierarch":12508,"ulator":12509,"Ġalignment":12510,"Ġscoring":12511,"Ġ1985":12512,"Ġputs":12513,"Ġpreventing":12514,"Ġvoting":12515,"send":12516,"}}$.":12517,"Ġexplos":12518,"Impl":12519,"ilipp":12520,"Entry":12521,"!)":12522,"Ġanterior":12523,"Ġgent":12524,"Ġconvey":12525,"ĠWeek":12526,"ĠScient":12527,"vironments":12528,"ĠStudy":12529,"Del":12530,"Make":12531,"Ġtone":12532,"Ġna":12533,"ĠPrem":12534,"ĠÂ°":12535,"\"));":12536,"schema":12537,"Ġintellectual":12538,"FB":12539,"Ġtet":12540,"ensing":12541,"ĠKen":12542,"========================":12543,"Ġharvest":12544,"Ġpulmonary":12545,"NG":12546,"uations":12547,"ĠSA":12548,"Ġfalls":12549,"Ġligand":12550,"ĠColumbia":12551,"bat":12552,"chers":12553,"æķ":12554,"ĠPop":12555,"Ġscaling":12556,"Ġrooms":12557,"olecular":12558,"Ġdenotes":12559,"Ġtoxic":12560,"idal":12561,"ĠDar":12562,"icker":12563,"Ġforever":12564,"Ġliberal":12565,"Ġinjected":12566,"Ġexhibited":12567,"Tube":12568,"hire":12569,"zi":12570,"Ġdeals":12571,"unior":12572,"ĠOl":12573,"Ġphases":12574,"Ġ103":12575,"144":12576,"Ġphysically":12577,"Ġqueue":12578,"Ġaims":12579,"tree":12580,"token":12581,"Ġtender":12582,"Ġpoverty":12583,"ĠFC":12584,"dep":12585,"Ġrandomly":12586,"Ġspecimens":12587,"Ġelderly":12588,"Grid":12589,"Ġtact":12590,"Ġboss":12591,"Ġmunicip":12592,"ĠRA":12593,"Ġshorter":12594,"Ġgenerator":12595,"Ġstrange":12596,"component":12597,"CHAR":12598,"clusively":12599,"Ġutilized":12600,"Have":12601,"Ġcraft":12602,"Ġfung":12603,"Ġgiant":12604,"118":12605,"ĠAssembly":12606,"Ġlaid":12607,"UND":12608,"ĠMethods":12609,"hash":12610,"~)":12611,"athy":12612,"Module":12613,"documentclass":12614,"sample":12615,"Ġlean":12616,"Ġadmit":12617,"useum":12618,"Ġsteady":12619,"sofia":12620,"EGF":12621,"Pres":12622,"Position":12623,"[[":12624,"Ġpython":12625,"leep":12626,"Ġpropose":12627,"ĠFBI":12628,"Background":12629,"%%%%%%%%":12630,"ĠRa":12631,"Ġroots":12632,"Ġentertain":12633,"PRE":12634,"Â½":12635,"Ð´":12636,"ĠFair":12637,"Ġ''":12638,"iano":12639,"Ġsentencing":12640,"Ġfriendly":12641,"ĠArizona":12642,"Ant":12643,"Ġpadding":12644,"Ġinherent":12645,"odds":12646,"Stack":12647,"Editor":12648,"Ġfavorable":12649,"Ġcouncil":12650,"imon":12651,"SELECT":12652,"ĠExample":12653,"Ġskill":12654,"Ġincorrect":12655,"Ġinserted":12656,"210":12657,"VM":12658,"Ġ[$":12659,"Ġdisabled":12660,"Ġindict":12661,"ESM":12662,"Ġfocusing":12663,"Write":12664,"0018":12665,"ĠGR":12666,"115":12667,"away":12668,"Ġstruck":12669,"VI":12670,"ĠMatt":12671,"Ġjs":12672,"ĠJSON":12673,"Ġlabeled":12674,"nesota":12675,"Activity":12676,"Ġtonight":12677,"Ġcooperation":12678,"Sing":12679,"Ġbunch":12680,"Ġhide":12681,"iger":12682,"ĠRather":12683,"Ġkg":12684,"Ġtea":12685,"shift":12686,"Hello":12687,"held":12688,"rose":12689,"ĠCOL":12690,"apor":12691,"(){":12692,"Ġmodeling":12693,"blue":12694,"ĠIntroduction":12695,"Ġcocaine":12696,"Ġresonance":12697,"Ġsubsid":12698,"ĠDB":12699,"ĠDri":12700,"Ġattributed":12701,"pository":12702,"ĊĠĠĠĠĠĠĠĠĠĠĠĠĠĠĠĠĠĠĠĠĠĠĠĠĠ":12703,"Ġgrass":12704,"Ġoccurring":12705,"patient":12706,"effective":12707,"=\"../../../../":12708,"Iter":12709,"uid":12710,"ĠEastern":12711,"Three":12712,"Ġlawsuit":12713,"Created":12714,"Ġphrase":12715,"lot":12716,"Ġabstract":12717,"Ġsystemic":12718,"Ġobtaining":12719,"aska":12720,"Ġaffecting":12721,"Ġinspired":12722,"Ġtemporal":12723,"Ãª":12724,"atile":12725,"Ġfits":12726,"Ġbatt":12727,"olving":12728,"Ġyeah":12729,"Ġclamp":12730,"phant":12731,"255":12732,"]{}]{}":12733,"Ġtexture":12734,"Ġsilver":12735,"ĠWARRANT":12736,"nn":12737,"anes":12738,"Ġconcur":12739,"estival":12740,"ĠBal":12741,"enders":12742,"Ġdescribing":12743,"Ġlights":12744,"apsed":12745,"ometer":12746,"Ġfingers":12747,"rust":12748,"Ġmamm":12749,"Ġduties":12750,"Ġstations":12751,"137":12752,"Ġprocessor":12753,"Edit":12754,"Ġdeeply":12755,"widget":12756,"ï½¡":12757,"hom":12758,"Ġ01":12759,"ĠKenn":12760,"Ġrarely":12761,"ĠProcess":12762,"abling":12763,"Ġprojection":12764,"Ġaccurately":12765,"Ġmortgage":12766,"050":12767,"custom":12768,"ĠNA":12769,"1996":12770,"Ġindices":12771,"ĊĠĠĠĠĠĠĠĠĠĠĠĠĠĠĠĠĠĠĠĠ":12772,"venth":12773,"ĠComput":12774,"Ġdefinitions":12775,"Tree":12776,"eras":12777,"Ġ('":12778,"oxia":12779,"Ġfactory":12780,"ĠPlace":12781,"Ġexecute":12782,"ĠWARRANTIES":12783,"onom":12784,"ĠRound":12785,"Ġresist":12786,"Ġattended":12787,"ĠUnfortunately":12788,"Ġflash":12789,"Ġantigen":12790,"attribute":12791,"Ġtransitions":12792,"rend":12793,"Ġprominent":12794,"abstract":12795,"Ġ\\+":12796,"ĠDR":12797,"Ġparse":12798,"Ġdonor":12799,"ĠĠĠĠĠĠĠĠĠĠĠĠĠĠĠĠĠĠĠĠĠĠĠĠĠĠĠĠĠĠ":12800,"Ġhardly":12801,"Ġmultiplic":12802,"WD":12803,"iotic":12804,"eling":12805,"ques":12806,"Ġsmoke":12807,"Ġ::":12808,"á»":12809,"Ġell":12810,"Ġgained":12811,"ĠMC":12812,"Ġleuk":12813,"ĠThird":12814,"Ġvariant":12815,"Ġinsight":12816,"Ġsalary":12817,"scription":12818,"Ġacknowledge":12819,"Ġtrivial":12820,"ZE":12821,"border":12822,"hour":12823,"immun":12824,"acon":12825,"Ġrefuge":12826,"Ġpanels":12827,"arma":12828,"roit":12829,"Phone":12830,"Ġlesion":12831,"ĠIsraeli":12832,"Sur":12833,"days":12834,"~*":12835,"Ġrecovered":12836,"ĠServer":12837,"Ġnewspaper":12838,",{\\":12839,"because":12840,"ĠPsy":12841,"Ġroof":12842,"ĠSpecifically":12843,"Ġmanufacturer":12844,"iy":12845,"Ġhipp":12846,"ockey":12847,"Ġshots":12848,"reference":12849,"700":12850,"may":12851,"amd":12852,"izable":12853,"Expr":12854,"Ġexpectation":12855,"ĠTHIS":12856,"Ġignored":12857,"Ġbiopsy":12858,"DH":12859,"fin":12860,"mac":12861,"uler":12862,"Ġdevelopers":12863,"Ġreadily":12864,"Ġphotograph":12865,"rophy":12866,"grav":12867,"ĠSaf":12868,"phasis":12869,"Ġactor":12870,"Ġantagon":12871,"Ġmuscles":12872,"CLUD":12873,"Entity":12874,">();":12875,"ĠSeveral":12876,"ĠFif":12877,"Ġtracking":12878,"Author":12879,"NM":12880,"bind":12881,"Ġincent":12882,"ĠCF":12883,"ĠMen":12884,"ĠHor":12885,"aki":12886,"109":12887,"figure":12888,"ĠÂ»":12889,"byte":12890,"coll":12891,"ãĥ³":12892,"Ġcorrelations":12893,"Ġarranged":12894,"TG":12895,"Ġbarg":12896,"Ġdip":12897,"Ġhang":12898,"resource":12899,"ĠNAS":12900,"phal":12901,"Ġamended":12902,"Ġpolymorph":12903,"Ġcod":12904,"Ġelectrons":12905,".*]{}":12906,"illy":12907,"ĠHay":12908,"intestinal":12909,"Ġtransportation":12910,"Access":12911,"unter":12912,"ĠLim":12913,"Ġplates":12914,"Ġ+\\":12915,"osex":12916,"obacter":12917,"Ġanalyst":12918,"CRE":12919,"Ġfibers":12920,"Ġ,\\":12921,"Ġcu":12922,"ĠTax":12923,"Ġhep":12924,"Ġunlike":12925,"ĊĊĊĊĊ":12926,"Ġempir":12927,"ĠProduct":12928,"Ġartist":12929,"ĠPalestin":12930,"ĠPetitioner":12931,"binding":12932,"čĊĠĠĠĠ":12933,"Ġfitness":12934,"Ġanswe":12935,"Ġcancel":12936,"ĠĠĠĠĠĠĠĠĠĠĠĠĠĠĠĠĠĠĠĠĠĠĠĠĠĠĠĠĠĠĠĠĠ":12937,"Ġarth":12938,"Ġvisits":12939,"Ġanswered":12940,"grid":12941,"worth":12942,"Ïģ":12943,"Ġtall":12944,"ĠIre":12945,"Ġ\\#":12946,"opa":12947,"ĠEC":12948,"Ġdisrupt":12949,"Ġ128":12950,"Ġcombat":12951,"Ġsymptom":12952,"||||":12953,"Ġregistration":12954,"Ġattractive":12955,"Ġslices":12956,"large":12957,"rank":12958,"Ġpm":12959,"eterm":12960,"Ġsegments":12961,"ĠEL":12962,"Ġgrate":12963,"Ġsearching":12964,"ĠPolit":12965,"Ġsnap":12966,"Ġpeaks":12967,"Ġthro":12968,"_{-":12969,"Ġchildhood":12970,"lux":12971,"Ġcombinations":12972,"ĠDesign":12973,"framework":12974,"ĠCommonwealth":12975,"045":12976,"Hi":12977,"{$\\":12978,"orous":12979,"arse":12980,"Ġ134":12981,"Ġproxim":12982,"ĠHistory":12983,"ĠOp":12984,"Ġdoors":12985,"Ġknife":12986,"short":12987,"Ġinstallation":12988,"Ġhopes":12989,"Font":12990,"čĊĉĉĉĉ":12991,"Ġdehyd":12992,"ĠThom":12993,"Ġphones":12994,"Ġadapted":12995,"ĠMit":12996,"ĠBell":12997,"Ġnobody":12998,"Ġdenying":12999,"drop":13000,"fake":13001,"save":13002,"Ġrecon":13003,"oprop":13004,"ĠDifferent":13005,"ĠNorthern":13006,"phy":13007,"Ġexciting":13008,"ĠGuard":13009,"Ġillustrated":13010,"Ġsaving":13011,"outer":13012,"ĠPI":13013,"Ġhadn":13014,"Ġtransparent":13015,"icking":13016,"Ġconstants":13017,"Ġpublicly":13018,"240":13019,"mbfa":13020,"Ġdeclined":13021,"Ġsatell":13022,"ĠEnvironment":13023,"Ġdestination":13024,"ä¸Ģ":13025,"Ġwing":13026,"ĠHard":13027,"Ġkil":13028,"ĠThough":13029,"Ins":13030,"Ġsizeof":13031,"Ġchoosing":13032,"holders":13033,"@\"":13034,"Empty":13035,"Ġip":13036,"oni":13037,"iley":13038,"}}}}":13039,"Ġ1983":13040,"appy":13041,"Ġ![":13042,"Ġreflects":13043,"Users":13044,"hn":13045,"Ġinline":13046,"ĠTNF":13047,"ĠAz":13048,"ĠRow":13049,"ialize":13050,"acks":13051,"ĠThrough":13052,"licenses":13053,"Ġdipl":13054,"ĠReact":13055,"Ġcomputers":13056,"Ġblocked":13057,"Ġisolation":13058,"Ġprogressive":13059,"Equals":13060,"ĠHenry":13061,"ìĿ":13062,"Ġlunch":13063,"Ġ$.":13064,"ĠVAL":13065,"Ġregulated":13066,"Ġequilibrium":13067,"Ã©e":13068,"Values":13069,"ocratic":13070,"MAX":13071,"Ġdescending":13072,"Ġrendered":13073,"dest":13074,"ĠRelations":13075,"Opt":13076,"bionic":13077,"human":13078,"Ġdos":13079,"Ġdownt":13080,"Ġlap":13081,"lywood":13082,"ĠCub":13083,"Ġ\"/":13084,"Ġpermissions":13085,"irection":13086,"Ġmini":13087,"ORY":13088,"Ġvisited":13089,"Ġsuspension":13090,"Ġsupplied":13091,"Ġshapes":13092,"-*":13093,"ĠDue":13094,"ĠGreek":13095,"ĠEmp":13096,"Ġjunction":13097,"Ġvaried":13098,"Ġprinting":13099,"Ġmathematical":13100,"rav":13101,"ulent":13102,"acet":13103,"oped":13104,"Ġ107":13105,"ĠDefense":13106,"Ġsurvive":13107,"Ġaggressive":13108,"Ġdietary":13109,"Ġmelan":13110,"Ġfrozen":13111,"Ġhits":13112,"Ġkm":13113,"Ġdifferently":13114,"Ġnonlinear":13115,"Ġprogramme":13116,"ĠWithout":13117,"Ġswitching":13118,"ĠEmploy":13119,"dp":13120,"Î¸":13121,"also":13122,"ĠHave":13123,"ĊĉĠ":13124,"Ġbaseball":13125,"ynamic":13126,"ĠSystems":13127,"Ġawesome":13128,"Ġimmigration":13129,"Ġmicroscopy":13130,"Ġsupplies":13131,"Ġnarrative":13132,"/.":13133,"Task":13134,"åľ":13135,"Ġdoses":13136,"Ġnit":13137,"Ġ07":13138,"}}}(":13139,"Ġquot":13140,"Ġordin":13141,"Ġbonds":13142,"æĺ¯":13143,"Ġstomach":13144,"ĠMess":13145,"Ġelectrodes":13146,"Ġmagic":13147,"tim":13148,"wx":13149,"imental":13150,"izers":13151,"elfare":13152,"âĪŀ":13153,"ĠAdditional":13154,"Ġbottle":13155,"Ġdisplays":13156,"Ġunemployment":13157,"Ġoste":13158,"Ġcub":13159,"Ġcompatible":13160,"ĠIndust":13161,"ĠImages":13162,"ĠQuant":13163,"Ġconcepts":13164,"Ġfolks":13165,"?)":13166,"UV":13167,"oa":13168,"tar":13169,"ĠCOP":13170,"Ġpatch":13171,"Ġreasoning":13172,"Ġinfluenced":13173,"Ġsatisfaction":13174,"Ġcomplaints":13175,"Ġstupid":13176,"don":13177,"even":13178,"éĢ":13179,"stage":13180,"Ġ133":13181,"Ġperception":13182,"1995":13183,"114":13184,"Parameter":13185,"zing":13186,"hell":13187,"ocl":13188,"âĢĻ.":13189,"oven":13190,"Ġraising":13191,"Stud":13192,"Ġconfident":13193,"Ġparticipated":13194,"ĠImmun":13195,"Ġtoxicity":13196,"Ġwedding":13197,"Ġguidance":13198,"Ġbasketball":13199,"Rule":13200,"Ġquantities":13201,"Ġattempting":13202,"Ġwondering":13203,"Ġpregnant":13204,"Ġbull":13205,"elson":13206,"Ġlibraries":13207,"ĠSon":13208,"ĠPrior":13209,"Ġspont":13210,"program":13211,"126":13212,"aware":13213,"ĠHead":13214,"Ġblocking":13215,"Ġundefined":13216,"words":13217,"Ġpeptide":13218,"ĠTokyo":13219,"$).":13220,"BT":13221,"fg":13222,"ĠmL":13223,"Ġlying":13224,"ĠFoot":13225,"cursor":13226,"ĠMinnesota":13227,"Ġpromoting":13228,"âĢĶâĢĶâĢĶâĢĶ":13229,"ĠColorado":13230,"Bytes":13231,"ĠBul":13232,"ĠHa":13233,"ĠHas":13234,"ĠÂ¶":13235,"Ġweights":13236,"Ġinputs":13237,"Ġrandomized":13238,")_{":13239,"bp":13240,"Ġhtml":13241,"ĠGames":13242,"Ġcancers":13243,"Ġobesity":13244,"ĠProperty":13245,"Ġcomparisons":13246,"Ġhypothes":13247,"Jan":13248,"ĠFat":13249,"ĠHouston":13250,"ĠDocument":13251,"ĠLear":13252,"Ġshipping":13253,"activity":13254,"Ġtransmitted":13255,"Ġtransactions":13256,"135":13257,"minimal":13258,"Ġcultured":13259,"connected":13260,"Jo":13261,"boot":13262,"dm":13263,"Ġions":13264,"Ġinev":13265,"ĠTen":13266,"Ġ\\|":13267,"ĠGene":13268,"Ġtrim":13269,"comfort":13270,"prim":13271,"Ġbeliefs":13272,"Ġinduces":13273,"ĠBru":13274,"Ġ1987":13275,"parison":13276,"GM":13277,"ped":13278,"inch":13279,"Ġmesh":13280,"irk":13281,"gered":13282,"Ġguest":13283,"Conf":13284,"Ġregarded":13285,"Ġsilicon":13286,"'+":13287,"Ang":13288,"arXiv":13289,"Ġstent":13290,"Ġdeeper":13291,"Ġrs":13292,"ogs":13293,"Ġtreating":13294,"ĠResource":13295,"disp":13296,"Identifier":13297,"Ġbaking":13298,"ĠOUT":13299,"Ġresidence":13300,"131":13301,"Ġdenoted":13302,"Ġteaspoon":13303,"TABLE":13304,"ifiers":13305,"emale":13306,"agent":13307,"Ġcolorectal":13308,"Ġmembership":13309,"Ġwrites":13310,"Ġangry":13311,"Ġanalysed":13312,"Ġmountain":13313,"Ġlifestyle":13314,"ĠSanta":13315,"bour":13316,"Ġpill":13317,"ĠSud":13318,"ĠPrim":13319,"ĠGC":13320,"area":13321,"Ġenact":13322,"achus":13323,"Ġundergo":13324,"utils":13325,"Ġprinted":13326,"Ġcoronary":13327,"green":13328,"yard":13329,"Ġho":13330,"Ġhint":13331,"ĠSports":13332,"ĠRh":13333,"people":13334,"Ġresistant":13335,"Ġcontest":13336,"Ġpreference":13337,"Ġpersu":13338,"ISA":13339,"Ġharder":13340,"Ġparticipating":13341,"ELL":13342,"Ġmagazine":13343,"Ġminority":13344,"Ġembedded":13345,"Ġtur":13346,"Ġlys":13347,"amer":13348,"Ġ\\-":13349,"Ġhealing":13350,"ĠFIT":13351,"ĠHur":13352,"ĠEr":13353,"Ġinvited":13354,"Ġassociations":13355,"HTML":13356,"menu":13357,"Ġrecipes":13358,"vv":13359,"Ġfert":13360,"Ġdeficit":13361,"Ġ1986":13362,"gged":13363,"Ġquestionnaire":13364,"hermox":13365,"Tw":13366,"Ġpocket":13367,"ĠSort":13368,"ococ":13369,"ĠRen":13370,"ĠLew":13371,"ĠOx":13372,"Ġintense":13373,"Ġunexpected":13374,"ĠĠĠĠĠĠĠĠĠĠĠĠĠĠĠĠĠĠĠĠĠĠĠĠĠĠĠĠĠĠĠĠĠĠ":13375,"Ġdefect":13376,"ITED":13377,"ĠAnth":13378,"Ġlimiting":13379,"ennis":13380,"Ġdimin":13381,"Ġconfigurations":13382,"çĶ¨":13383,"kind":13384,"}[":13385,"Ġfract":13386,"Ġprolong":13387,"ĠMaster":13388,"Ġweigh":13389,"ĠFisher":13390,"andal":13391,"riting":13392,"Ġeveryday":13393,"ãģĹ":13394,"čĊčĊ":13395,"Ġadjustment":13396,"Ġschemes":13397,"Document":13398,"xc":13399,"ĠFinal":13400,"Ġclosure":13401,"Ġenrich":13402,"Ġfounded":13403,"Ġpredictions":13404,"ĠExpression":13405,"adelph":13406,"move":13407,"rance":13408,"render":13409,"Ġmos":13410,"Ġgotten":13411,"Ġ\",":13412,"ĠLA":13413,"apore":13414,"Ġselective":13415,"sensors":13416,"ĠAfghanistan":13417,"Loc":13418,"Option":13419,"Ġbub":13420,"uters":13421,"ĠSov":13422,"ĠLic":13423,"alling":13424,"Ġexpend":13425,"Ġrabb":13426,"evin":13427,"ĠInsurance":13428,"etheless":13429,"tk":13430,"ummy":13431,"accept":13432,"tration":13433,"Example":13434,"Ġliked":13435,"Ġsecured":13436,"itudinal":13437,"EF":13438,"ele":13439,"itan":13440,"Ġdent":13441,"Ġloud":13442,"Ġreveals":13443,"ĠPrice":13444,"ĠNavy":13445,"Ċĉĉĉĉĉĉĉĉĉĉĉĉ":13446,"320":13447,"PN":13448,"pread":13449,"Ġoverexp":13450,"Ġvariability":13451,"Ġmatched":13452,"standard":13453,"unsigned":13454,"RDPCSTX":13455,"Ġentreprene":13456,"=>":13457,"Ġtension":13458,"enable":13459,"idav":13460,"ĠAward":13461,"rued":13462,"124":13463,"Ġcoat":13464,"henyl":13465,"adequ":13466,"prison":13467,"Ġequipped":13468,"Ġstrategic":13469,"emporary":13470,"SF":13471,"bes":13472,"each":13473,"hop":13474,"hang":13475,"joint":13476,"km":13477,"Ġthirty":13478,"ĠDaily":13479,"ĠGOP":13480,"urer":13481,"Ġblame":13482,"Ġtrail":13483,"ĠProp":13484,"ãģŁ":13485,"Ġtemp":13486,"ĠIreland":13487,"pur":13488,"Ġgest":13489,"Ġbearing":13490,"Ġexport":13491,"Ġenvironments":13492,"ĠUnless":13493,"Ġscreens":13494,"Ġinterviews":13495,"WE":13496,"hus":13497,"vn":13498,"imated":13499,"ĠSav":13500,"aya":13501,"ĠMP":13502,"osin":13503,"thon":13504,"ĠKat":13505,"Ġ1981":13506,"cedure":13507,"setminus":13508,"ĠYouTube":13509,"idespread":13510,"aptic":13511,"Ġmagnet":13512,"Maybe":13513,"Ġsuspended":13514,"=-":13515,"Que":13516,"Ãł":13517,"133":13518,"execute":13519,"Ġphilosophy":13520,":</":13521,"Gastroenterology":13522,"aire":13523,"Ġtied":13524,"otrop":13525,"olis":13526,"ĠAccess":13527,"ĠPython":13528,"Ġdefining":13529,"Ġregulate":13530,"Common":13531,"Ġestablishing":13532,"Ġassumptions":13533,"Despite":13534,"ĠToronto":13535,"achusetts":13536,"Cle":13537,"Rect":13538,"Ġsouthern":13539,"Ġlanguages":13540,"bery":13541,"Ġasset":13542,"Inv":13543,"overrightarrow":13544,"Ġdiscount":13545,"Ġengagement":13546,"ĠSTAT":13547,"Ġbehaviors":13548,"IX":13549,"Ġpending":13550,"ashes":13551,"robl":13552,"ĠGL":13553,"113":13554,"Ġplacement":13555,"Ġprobable":13556,"auto":13557,"Ġdivor":13558,"Ġnamespace":13559,"ĠInterestingly":13560,"je":13561,"}...\\":13562,"Ġtweet":13563,"Ġolig":13564,"ĠSir":13565,"phase":13566,"Ġpointer":13567,"Step":13568,"iami":13569,"pow":13570,"ĠML":13571,"ĠInternal":13572,"psy":13573,"Ġplacebo":13574,"btn":13575,"Ġtimely":13576,"mask":13577,"uer":13578,"stable":13579,"...,":13580,"Ġbike":13581,"Ġcookies":13582,"Ġterritory":13583,"Ġpremium":13584,"Ġproportional":13585,"Ġendoscopy":13586,"COP":13587,"Ġtired":13588,"isa":13589,"security":13590,"Ġvo":13591,"asted":13592,"Ġarising":13593,"Ġentities":13594,"Ġimpaired":13595,"Ġgraft":13596,"encia":13597,"Ġphysiological":13598,"Unit":13599,"Ġimplicit":13600,"Ġfranchise":13601,"bec":13602,"Ġtill":13603,"rev":13604,"Ġwages":13605,"Ġtow":13606,"ĠFred":13607,"Ġ{\"":13608,"Ġspray":13609,"Ġextending":13610,"Christ":13611,"Ġ>>":13612,"Ġguns":13613,"Ġpushing":13614,"ĠCambridge":13615,"Take":13616,"Ġbills":13617,"Ġborrow":13618,"ĠSaint":13619,"Ġdeemed":13620,"Ġlect":13621,"Ġjustify":13622,"ATED":13623,"party":13624,"Ġpotent":13625,"Ġcannab":13626,"Session":13627,"cas":13628,"tp":13629,"Î½":13630,"Ġsoph":13631,"Ġhex":13632,"jw":13633,"è¡":13634,"heet":13635,"Ġpounds":13636,"ĠSa":13637,"acher":13638,"ĠLy":13639,"articles":13640,"017":13641,"Ġsphere":13642,"1111":13643,"Ġguests":13644,"Ġdeveloper":13645,"bbed":13646,"Ġaffirmed":13647,"Ġmoist":13648,"License":13649,"čĊĠĠĠĠĠĠĠĠĠĠĠĠĠĠĠ":13650,"Ġdating":13651,"ĠTitle":13652,"ocyt":13653,"Ġseats":13654,"Ġ02":13655,"achine":13656,"ceptions":13657,"Ġcarriers":13658,"Ġchopped":13659,"Ġexpressing":13660,"Ġthreatened":13661,"-$":13662,"cover":13663,"four":13664,"ses":13665,"tan":13666,"wave":13667,"itage":13668,"Ġpace":13669,"Ġdies":13670,"Ġaspir":13671,"ĠStill":13672,"Ġtransient":13673,"():":13674,"Convert":13675,"generate":13676,"Ġparticipant":13677,"Ġchallenged":13678,"Di":13679,"åĬ":13680,"Ġhung":13681,"ĠHim":13682,"Ġresident":13683,"Ġlikes":13684,"Ġclinic":13685,"Ġbreaks":13686,"Layer":13687,"Î¿":13688,"ĠĠĠĠĠĠĠĠĠĠĠĠĠĠĠĠĠĠĠĠĠĠĠĠĠĠĠĠĠĠĠĠĠĠĠ":13689,"Ġacceptance":13690,"Ġmethylation":13691,"Î´":13692,"ilst":13693,"ĠRay":13694,"Ġshoes":13695,"cler":13696,"Ġsupporters":13697,"ancies":13698,"ĠBeach":13699,"global":13700,"Ġsurvived":13701,"Methods":13702,"Ġvertices":13703,"225":13704,"Art":13705,"ĠES":13706,"Ġaffordable":13707,"({{\\":13708,"mates":13709,"|_{":13710,"Ġty":13711,"ppers":13712,"ĠGovern":13713,"Ġresidential":13714,"Ġagon":13715,"Ġconserved":13716,"blem":13717,"Ġsolved":13718,"ãģ§":13719,"barr":13720,"Ġbarriers":13721,"Ġmeaningful":13722,"itzer":13723,"===========":13724,"Both":13725,"MAP":13726,"NOW":13727,"dash":13728,"aton":13729,"olen":13730,"ĠKit":13731,"Ġconnecting":13732,"arcinoma":13733,"rons":13734,"ados":13735,"three":13736,"Ġworried":13737,"},$$":13738,"Ġdecimal":13739,"Ġelectricity":13740,"Ġbelongs":13741,"ĠHamiltonian":13742,"adelphia":13743,")</":13744,"lies":13745,"np":13746,"opes":13747,"Ġjack":13748,"Ġads":13749,"Ġagenda":13750,"270":13751,"Ġimpressive":13752,"Ġconsistency":13753,"ĠPerhaps":13754,"ĠIdent":13755,"Ġconvergence":13756,"Ġobligation":13757,"oprotein":13758,"Lim":13759,"XML":13760,"ĠSem":13761,"Ġleak":13762,"Ġquote":13763,"Ġseeks":13764,"ãģ¦":13765,"Ġdemonstrates":13766,"semble":13767,".@{":13768,"good":13769,"track":13770,"Ġmood":13771,"ĠSK":13772,"ensively":13773,"angel":13774,"Ġtries":13775,"Ġshortly":13776,"igenous":13777,"Ġpenet":13778,"Ġmerch":13779,"connection":13780,"Ġpreparing":13781,"Ġframes":13782,"Her":13783,"mM":13784,"random":13785,"Ġwage":13786,"seq":13787,"quar":13788,"Ġcontention":13789,"1991":13790,"amsmath":13791,"Ġinhibited":13792,"Ġconstitu":13793,"DK":13794,"iating":13795,"Ġassistant":13796,"}{-":13797,"Ġprotocols":13798,"ãģ«":13799,"domain":13800,"Ġreferring":13801,"Ġinstitutional":13802,"Ġarrive":13803,"Ġcathe":13804,"Ġappreciated":13805,"Ġaccomplish":13806,"Ġneighbors":13807,"Utils":13808,"Spe":13809,"hol":13810,"orient":13811,"sto":13812,"ulse":13813,"Ġorange":13814,"ĠWin":13815,"Ġintracellular":13816,"Ġacted":13817,"Ġreporter":13818,"Ġedit":13819,"Ġsentenced":13820,"Ġspectrosc":13821,"++;":13822,"Ġscenarios":13823,"Based":13824,"Ġgross":13825,"ĠTM":13826,"Ġexpense":13827,"Ġprescribed":13828,"))?":13829,"Ġrestore":13830,"desc":13831,"Ġirrad":13832,"Flag":13833,"Ġstimulus":13834,"gun":13835,"lated":13836,"zone":13837,"itated":13838,"Ġdense":13839,"asant":13840,"ceive":13841,"ĠSF":13842,"Ġbeach":13843,"ĠCC":13844,"Ġblot":13845,"Ġdistances":13846,"merce":13847,"Ġparam":13848,"requency":13849,"transform":13850,"ĠAnton":13851,"ĠRadio":13852,"Member":13853,"Today":13854,"greek":13855,"atar":13856,"ĠMas":13857,"Ġwashed":13858,"ĠUt":13859,"Ġaging":13860,"Ġ_<":13861,"Ġreliability":13862,"Ġmediated":13863,"Ġemerging":13864,"BASE":13865,"Ġinstruments":13866,"Ġsanctions":13867,"Panel":13868,"Anal":13869,"Ġ$('":13870,"ĠEND":13871,"018":13872,"0002":13873,"Ġartificial":13874,"Ġfunded":13875,"Ġdocumented":13876,"Ġpunishment":13877,"DF":13878,"bc":13879,"pany":13880,"ĠÑģ":13881,"Ġfitting":13882,"ctic":13883,"third":13884,"ĠLibrary":13885,"Ġshadow":13886,"duate":13887,"ĠPhilipp":13888,"temp":13889,"Ġfarmers":13890,"fc":13891,"Îµ":13892,"Ġtar":13893,"health":13894,"Ġwidespread":13895,"Ġhook":13896,"Ġmyocard":13897,"oxic":13898,"appropri":13899,")\\,":13900,"Ġdeny":13901,"Ġexisted":13902,"Ġestablishment":13903,"ĠOverall":13904,"ymmetry":13905,"Ġexcessive":13906,"General":13907,"FONT":13908,"[**":13909,"makers":13910,"Ġtags":13911,"ĠScale":13912,"Ġstake":13913,"ĠMg":13914,"ĠWay":13915,"Ġcallback":13916,"Ġprofits":13917,"Ġcharacterization":13918,"Ġloans":13919,"Ġmacro":13920,"ĠCLASS":13921,"Body":13922,"mus":13923,"ĠâĢĻ":13924,"Ġmad":13925,"Ġthrown":13926,"etc":13927,"ĠMarc":13928,"abases":13929,"Ġexclusively":13930,"ntil":13931,"article":13932,"Ġdesper":13933,"Ġbuck":13934,"ĠSea":13935,"ushing":13936,"Ġinitiated":13937,"Ġconstitution":13938,"brace":13939,"Ġemphasis":13940,"Found":13941,"OG":13942,"Pos":13943,"Root":13944,"Ġtends":13945,"Ġcin":13946,"Ġmas":13947,"Ġvag":13948,"ĠFull":13949,"ĠDall":13950,"Ġ1960":13951,"1993":13952,"Ġinches":13953,"9999":13954,"ĠMedic":13955,"expand":13956,"Ġdiscloses":13957,"Ġdebtor":13958,"Ġcytokines":13959,"oglob":13960,"BUG":13961,"Ġfi":13962,"ĠmÃ¡s":13963,"Ġlumin":13964,"ĠSus":13965,"ĠFall":13966,"Ġreset":13967,"Ġ[],":13968,"Ġdefects":13969,"Ġinfect":13970,"Ġlistening":13971,"Ġdisclosure":13972,"ĠSweden":13973,"Ġvulnerable":13974,"bn":13975,"ĠTerm":13976,"amss":13977,"ĠCAN":13978,"ectomy":13979,"ĠGraph":13980,"Ġdischarg":13981,"ĠKent":13982,"setlength":13983,"222":13984,"Ġmilit":13985,"Ġcooked":13986,"Ġvisitors":13987,"Dem":13988,"Parent":13989,"Ġannot":13990,"acco":13991,"ĠBudd":13992,"Ġshit":13993,"aga":13994,"Ġanybody":13995,"202":13996,"Ġweekly":13997,"ophil":13998,"ĠTurkey":13999,"Ġstretch":14000,"DER":14001,"Fore":14002,"MAT":14003,"SY":14004,"jar":14005,"jack":14006,"itarian":14007,"elve":14008,"ĠSche":14009,"Ġ145":14010,"Ġprostate":14011,"Ġsuicide":14012,"Ġenrolled":14013,"Ġunnecessary":14014,"132":14015,"entials":14016,"bsy":14017,"Ġcorporations":14018,"Ġlegitimate":14019,"cost":14020,"fix":14021,"aloney":14022,"oton":14023,"Ġpropri":14024,"Ġ\"<":14025,"1990":14026,"Ġcoating":14027,"Ġequity":14028,"Ġreceives":14029,"MOESM":14030,"Ġnurses":14031,"made":14032,"Ġ136":14033,"ograp":14034,"INK":14035,"Ġgenerations":14036,"Ġtopology":14037,"Ġmotions":14038,"Ġcomputational":14039,"Ġbirths":14040,"ĠArticle":14041,"Ġbriefly":14042,"ĠHillary":14043,"amssymb":14044,"Na":14045,"TF":14046,"ÎĶ":14047,"Ġtu":14048,"ĠBor":14049,"oga":14050,"ĠJordan":14051,"Ġpresenting":14052,"Ġdetermines":14053,"amsfonts":14054,"interface":14055,"_,":14056,"čĊĠĠĠĠĠĠĠĠĠ":14057,"Ġ(âĪĴ":14058,"1988":14059,"Ġcopper":14060,"Ġcapabilities":14061,"ĠÃ¿":14062,"Ġstriking":14063,"Ġsettled":14064,"Ġflexibility":14065,"idemargin":14066,"Ġscanning":14067,"Ġembryos":14068,"Ġvolunteers":14069,"sr":14070,"Ġbron":14071,"Ġproposition":14072,"ĠHep":14073,"Ġ09":14074,"Ġplugin":14075,"Ġapps":14076,"avirus":14077,"Ġmanaging":14078,"Ġattorneys":14079,"}{{\\":14080,"vertical":14081,"Ġdrives":14082,"ĠAdam":14083,"Import":14084,"ä¹":14085,"Ġfool":14086,"qual":14087,"Ġrating":14088,"âĢĿ)":14089,"ysym":14090,"Ġsubstitute":14091,"Star":14092,"Ġdistinction":14093,"odynam":14094,"Ġdesignated":14095,"ĠDetroit":14096,"consin":14097,"Interface":14098,"Ġnegligence":14099,"lbrack":14100,"oddsidemargin":14101,"Ġindictment":14102,"Ptr":14103,"nals":14104,"Ġferm":14105,"Ġda":14106,"Ġweird":14107,"oser":14108,"Ġmanually":14109,"377":14110,"Ġ$${\\":14111,"ĠManager":14112,"Ġvirtually":14113,"Ġpositively":14114,"Ġholiday":14115,"Save":14116,"pic":14117,"sun":14118,"sort":14119,"square":14120,"Ġtap":14121,"Ġbases":14122,"strap":14123,"ĠSometimes":14124,"ĠCNN":14125,"Ġplots":14126,"rowth":14127,"Ġfunctionality":14128,"Ġsuggestions":14129,"Additional":14130,"Ġthreats":14131,"Ġgarlic":14132,"Ġdefeat":14133,"Ġacknowledged":14134,"court":14135,"habil":14136,"rans":14137,"Ġcow":14138,"ĠMir":14139,"Ġrepresentatives":14140,"printf":14141,"println":14142,"cases":14143,"Ġcig":14144,"Ġdrag":14145,"mentioned":14146,"Ġtherein":14147,"}$-":14148,"mathrs":14149,"upgreek":14150,"Ġedition":14151,"Ġheading":14152,"Ġhumanity":14153,"amsbsy":14154,"ById":14155,"Ġorgans":14156,"wasysym":14157,"Ġcriticism":14158,"Ġcontroversial":14159,"Ġmirror":14160,"mathrsfs":14161,"Av":14162,"Gr":14163,"LV":14164,"Ġ^{\\":14165,"atum":14166,"Ġcul":14167,"Ġreputation":14168,"ĠHart":14169,"Ġperpet":14170,"letter":14171,"Release":14172,"Ġfluor":14173,"Ġsynthetic":14174,"instance":14175,"ĠGaussian":14176,"Template":14177,"Ġvinegar":14178,"900":14179,"Cost":14180,"NL":14181,"risk":14182,"inth":14183,"onomy":14184,"Ġatom":14185,"ĠHu":14186,"Ġ123":14187,"Ġstayed":14188,"ĠMassachusetts":14189,"ĠBitcoin":14190,"BY":14191,"isp":14192,"âĢĻ,":14193,"Ġchampionship":14194,"Ġ800":14195,"parameter":14196,"Ġpersistent":14197,"Changed":14198,"flags":14199,"Ġevaluating":14200,"ĠALL":14201,"KEY":14202,"Ġmotivation":14203,"Ġcollaboration":14204,"Ġremarkable":14205,"Ġuptake":14206,"BF":14207,"Package":14208,"Ġsir":14209,"ĠdÃ©":14210,"ĠTour":14211,"Ġexclude":14212,"Ġtech":14213,"Ġintersection":14214,"ĠYeah":14215,"Ġliber":14216,"ĠHoly":14217,"Ġreconstruction":14218,"ĠYanke":14219,"bid":14220,"ourier":14221,"ĠAsh":14222,"aco":14223,"Ġcorruption":14224,"lessly":14225,"Ġpersonality":14226,"ĠShort":14227,"ĠShould":14228,"ea":14229,"Ġanest":14230,"ĠSS":14231,"ĠLook":14232,"ĠGP":14233,"Ġinfil":14234,"Ġbenz":14235,"ULAR":14236,"Ġprevented":14237,"Attr":14238,"Ġconstructor":14239,"password":14240,"Ġenhancement":14241,"Device":14242,"las":14243,"}>":14244,"ĠPur":14245,"ĠFord":14246,"013":14247,"Ġsymp":14248,"Ġrelies":14249,"atories":14250,"039":14251,"mia":14252,"ĠNi":14253,"Ġcha":14254,"Ġcommands":14255,"Ġpublications":14256,"Ġclaiming":14257,"Ġfragments":14258,"Ġulcer":14259,"Ġvaccination":14260,"opathy":14261,"Ġticket":14262,"Ġinquiry":14263,"Es":14264,"à¯":14265,"atitis":14266,"eric":14267,"Ġdance":14268,"Ġthy":14269,"imid":14270,"ĠBoy":14271,"ensation":14272,"inking":14273,"Ġreflection":14274,"shall":14275,"Ġdelicious":14276,"Ġobjectives":14277,"Ġagreements":14278,"Ġencounter":14279,"Ġinfluenza":14280,"POSE":14281,"Ġceremon":14282,"Ġintrinsic":14283,"YPE":14284,"`,":14285,"hd":14286,"}'":14287,"ĠPerson":14288,"ĠNaz":14289,"Ġintact":14290,"xtures":14291,"ĠVector":14292,"ENCE":14293,"Ġadvis":14294,"Ġadvised":14295,"Ġpublish":14296,"ĠLegisl":14297,"ĠVietnam":14298,"Ġneurolog":14299,"Files":14300,"ench":14301,"Ġstating":14302,"ĠBC":14303,"ĠLittle":14304,"ĠNations":14305,"Ġcomplement":14306,"ĠĠĠĠĠĠĠĠĠĠĠĠĠĠĠĠĠĠĠĠĠĠĠĠĠĠĠĠĠĠĠĠĠĠĠĠ":14307,"Static":14308,"INFO":14309,"Ġparliament":14310,"verted":14311,"important":14312,"ĠCoast":14313,"Ġattacked":14314,"Ġsatisfying":14315,"Ġrespondent":14316,"Ġcompete":14317,"Eff":14318,"member":14319,"watch":14320,"Ñĩ":14321,"aden":14322,"abama":14323,"Ġ\"$":14324,"198":14325,"ĊĠĠĠĠĠĠĠĠĠĠĠĠĠĠĠĠĠĠĠĠĠĠĠĠĠĠĠĠĠĠĠĠĠĠĠĠĠĠĠ":14326,"Selected":14327,"Ġcomplain":14328,"ĠParliament":14329,"Support":14330,"Ġreplied":14331,"oggle":14332,"AX":14333,"hbar":14334,"Ġsquad":14335,"Ġgains":14336,"ĠTGF":14337,"ĠIowa":14338,"ĠPot":14339,"Ġinvasive":14340,"Ġtraits":14341,"Ġinvestigating":14342,"Trump":14343,"Ġdemocracy":14344,"Ġcontinuously":14345,"Ġprotecting":14346,"ĠPhiladelphia":14347,"Ġanger":14348,"abetic":14349,"ĠBrian":14350,"ĠRAss":14351,"ĠLD":14352,"Ġmayor":14353,"Ġtrav":14354,"2020":14355,"ĠAltern":14356,"Ġindependence":14357,"python":14358,"subseteq":14359,"burgh":14360,"Ġallele":14361,"Rear":14362,"caps":14363,"Ġfiscal":14364,"Ġhoney":14365,"odot":14366,"Ġundergoing":14367,"Ġopens":14368,"Ġsilent":14369,"Ġnavigation":14370,"ĊĊĠĠĠĠ":14371,"ĠBible":14372,"ĠHop":14373,"1986":14374,"Media":14375,"Ġprejudice":14376,"Factor":14377,"MX":14378,"Ġnorthern":14379,"ĠCas":14380,"mente":14381,"Ġjav":14382,"Ġcorn":14383,"Ġsimulated":14384,"anny":14385,"NAL":14386,"Ġpromised":14387,"Ġexpertise":14388,"Life":14389,"none":14390,"wrap":14391,"inely":14392,"aron":14393,"175":14394,"ĠRelease":14395,"Ġalongside":14396,"Ġearnings":14397,"Ġbags":14398,
[...]
