#version: 0.2
Ġ Ġ
Ġ t
Ġ a
i n
h e
r e
o n
ĠĠ ĠĠ
Ġt he
a t
e r
Ġ s
e n
Ġ o
Ġ c
Ġ w
i s
o r
i t
e s
a l
e d
a n
Ġ p
Ġ f
Ġ b
Ġa n
in g
Ġ in
Ġo f
a r
i on
o u
Ġ m
Ġ d
i c
l e
Ġt o
- -
a s
Ġan d
r o
ĠĠĠĠ ĠĠĠĠ
en t
Ġt h
c t
Ġ h
Ġ re
e t
Ġ n
e l
s t
o m
i l
Ġ e
Ġ l
i d
i g
i m
o t
v e
Ġ is
u t
Ġ g
Ġ (
Ġ T
o l
a m
Ġ I
at ion
-- --
s e
â Ģ
c e
l y
Ġf or
= =
u r
Ġ S
Ġb e
o w
Ġth at
Ġ u
ĠĠ Ġ
r a
Ġ on
Ġ A
Ġ C
v er
Ġs t
c h
Ġ 1
u l
it h
i f
a d
a y
Ġc on
Ġw ith
Ġ y
Ġa s
i r
o d
Ġ $
Ġp ro
t er
at e
ĠĠĠĠĠĠĠĠ ĠĠĠĠĠĠĠĠ
u m
Ġ it
Ġ M
a b
Ġw e
he r
0 0
p p
Ġa l
r i
Ġ "
Ġ v
g e
n d
Ġ 2
Ġd e
Ġ P
Ġw h
re s
e ct
q u
o s
m ent
h t
Ġy ou
Ġe x
es t
is t
a c
ĠT he
Ġw as
u s
an t
Ġ B
Ġc om
Ġo r
Ġ \
o p
Ġa re
Ġ he
e m
Ġs u
* *
i v
---- ----
t h
it y
Ġa t
o c
n t
== ==
Ġ F
er s
Ġ =
a in
es s
Ġ H
o re
Ġb y
Ġ D
il l
l d
ro m
Ġ -
an d
Ġ W
u n
Ġ r
Ġn ot
ig ht
en d
i ve
Ġs e
Ġh a
Ġ R
k e
or t
Ġ L
p e
Ġ N
Ġn e
Ġth is
p t
ar t
âĢ Ļ
Ġf rom
u d
Ċ ĠĠĠĠ
re d
i al
{ \
p l
i es
Ġs h
Ċ ĠĠĠ
Ġ G
ct ion
Ġ E
el l
at ed
Ġc h
Ġha ve
in e
ou r
u re
al l
Ġ 0
ou ld
a g
t e
Ġ le
' s
p er
o g
f f
Ġ *
ic al
) .
Ġc an
am e
Ġ O
u st
Ġ 3
u e
r ou
a ge
i b
c l
i z
ic h
as e
ar d
ab le
Ġre s
Ġu s
ou t
Ġ j
om e
i e
Ġw he
Ġa b
a ct
Ġc l
) ;
Ġ {
_ {
. .
o st
Ġcom p
as t
ul t
as s
Ġ U
an s
Ġa d
t her
Ġwe re
Ġcon t
Ġp l
Ġ J
p h
ac k
Ġ k
Ġm e
0 1
= "
id e
at h
. "
Ġ im
Ċ ĠĠĠĠĠĠĠĠ
or m
ig n
T he
Ġal l
Ġ âĢ
u b
Ġ [
Ċ Ġ
it ion
i p
Ġ +
Ġd o
a p
a k
in d
Ġh as
ĊĠĠĠĠ ĠĠĠ
f t
ar y
ic e
en s
Ġ 4
im e
on e
Ġwh ich
ĉ ĉ
c c
d u
ĠI n
ou s
==== ====
Ġa pp
Ġb ut
Ġt r
Ġd is
Ġin t
ent s
res s
ation s
in t
Ġw or
c on
en ce
a re
Ġw ill
r u
e ar
on g
e re
) ,
Ġg o
i le
-------- --------
Ġ &
o k
Ġ 5
/ /
o se
Ġ <
d e
} }
ion s
Ġ en
Ġo ut
b er
an ce
Ġ if
i a
Ġu n
Ġp er
a u
ĠT h
a v
p ort
ĠĠĠĠĠĠĠĠĠĠĠĠĠĠĠĠ ĠĠĠĠĠĠĠĠĠĠĠĠĠĠĠĠ
g h
al ly
s o
el y
x t
or y
Ġon e
a ce
t y
an g
Ġ qu
a ch
Ġh is
or d
i re
Ġe v
Ġthe y
if f
r y
âĢ Ŀ
Â ł
Ġs o
re e
f orm
Ġp art
Ġa r
l ic
Ġm ore
a il
Ġthe ir
y s
or s
Ġu p
c re
Ġ K
Ġthe re
Ġp re
Ġ$ \
Ġs p
a ke
Ġa g
it e
e p
Ġo ther
l l
ĠS t
ver y
ou nd
Ġl i
j ect
v el
c om
n e
} \
ou nt
ow n
Ġs a
Ġyou r
Ċ Ċ
at a
at es
Ġbe en
Ġh ad
r ight
Ġan y
ur n
Ġm an
Ġal so
Ġ }
Ġwh o
Ġn o
k s
er v
w e
Ġ '
Ġ V
Ġw ould
r ic
nd er
et h
Ġ 6
if ic
Ġwhe n
er m
Ġab out
l ow
Ġas s
[ @
Ġo b
} $
p le
Ġt ime
ĠâĢ ľ
\ ]
at er
o ok
^ {
o b
Ġth an
ra c
Ġm y
w o
Ġde f
Ġo ver
< /
Ġex p
ri b
ĠĠĠĠ ĠĠĠ
Ġs c
Ġb et
ro w
Ġ1 9
Ġit s
cl ud
Ġd iff
' t
re f
Ġs ome
f ter
Ġt e
m ath
1 0
le ct
Ġs y
ver s
Ġg en
Ġ _
g et
ol d
od e
c es
Ġsu b
Ġne w
I n
h at
o ve
Ġin ter
i ed
p s
Ġof f
ir st
Ġa m
r ing
pe c
ay s
Ġre c
Ġ Y
re at
Ġf e
Ġa cc
Ġcom m
Ġp at
1 9
c ed
au se
Ġa ct
Ġk n
Ġu nder
Ġo ur
Ġre l
Ġv al
Ġcon s
Ġg et
in k
o v
Ġd es
Ġp e
il d
Ġ 7
at ive
ĊĠĠĠĠĠĠĠĠ ĠĠĠ
Ġint o
le ft
e f
ar i
ing s
is s
ĠI t
Ġon ly
Ġst ud
u al
er t
Ġt wo
Ġm ay
Ġy ear
Ġsa id
m a
â Ķ
Ġbe c
on s
Ġwor k
# #
ul ar
p ro
Ġp os
ie w
Ġin v
1 2
Ġ ro
Ġ her
Ġre g
Ġad d
Ġ 8
ĠC h
Ġu se
un ction
Ġtr ans
Ġthe m
ig h
Ġm od
Ġre t
i an
e x
Ġli ke
ar k
Ġwh at
ĠTh is
he d
ic k
o int
Ġe m
c k
as ed
âĶ Ģ
Ġsu ch
Ġp res
Ġb l
Ġfor m
on d
ol og
at ing
Ġp h
Ġ2 01
Ġe ff
c ess
ĠW e
Ġc o
Ġc ol
Ġdiff ere
Ġf irst
it t
Ġthe se
oc k
i ent
Ġres p
il ity
Ġ 9
ment s
Ġj ust
âĶĢ âĶĢ
st em
on t
el f
Ġpro v
Ġ1 0
o x
is h
Ġa fter
Ċ ĉĉ
Ġwhe re
we en
ot h
Ġd et
Ġs ign
ĊĠĠĠĠ Ġ
1 1
Ġthe n
a w
id ent
s s
Ġne ed
Ġs et
e c
Ġp ol
Ġin d
an ge
ic t
o od
ut ion
Ġh ow
Ġbet ween
t he
op le
Ġcl ass
ub lic
Ġc ould
is e
======== ========
Ġres ult
Ġre m
s p
Ġg rou
iz e
y pe
ol low
ce pt
i x
e g
l es
( )
Ġat t
Ġt ra
i ents
u p
" ,
Ġ ra
ou gh
Ġin clud
Ġsu pp
Ġp r
Ġus ed
i ous
el d
S t
our t
Ġd ata
ib le
Ġn um
2 0
ter n
Ġc ell
c y
Ġs he
b le
Ċ ĉ
Ġsh ow
in al
o y
Ġa c
Ġf act
Ġs ur
Ġ\ [
E R
Ġc or
Ġs im
Ġd id
Ġsh ould
u es
a x
ty pe
Ġkn ow
" >
Ġf ollow
ĠU n
Ġs pec
Ġ end
ĠH e
Ġpe ople
f ig
ul l
Ġf unction
Ġd ist
p os
00 0
r am
it s
d er
. ,
Ġf l
n ing
re n
] (
he n
rou gh
f ore
Ġbec ause
O N
in ed
al s
_ _
Ġre qu
it ed
Ġus ing
i eld
it ies
ad e
ic s
e ver
1 5
ru ct
m s
Ġse e
ra ct
I N
Ċ ĠĠĠĠĠĠĠĠĠĠĠĠĠĠĠĠ
r it
Ġm ost
Ġin f
Ġs m
ect ion
Ġ i
Ġcon st
) {
Ġin st
Ġb ack
) $
1 3
Ġgen er
f ul
Ġ .
ur ing
1 6
Ġw ell
Ġt est
Ġex t
] {
Ġsy stem
du ct
Ġ :
Ġth rough
f rac
u res
ation al
- >
Ġh im
Ġdiffere nt
_ {\
Ġr ight
---------------- ----------------
Ġc ase
t o
Ġe ach
Ġag ain
l i
Ġch ar
Ġret urn
ut e
Ġb u
ow er
m er
at or
1 4
âĢ ī
Ġre f
e w
s c
Ġw ant
Ġpat ients
ĠĠĠĠ Ġ
ĊĠĠĠĠĠĠĠĠ ĠĠĠĠĠĠĠ
ical ly
Ġh igh
iz ed
Ġdo es
Ġeff ect
he s
im es
( \
Ġ ent
) )
in s
Ġ[ @
T h
i o
u ch
con d
p r
Ġst ate
} ,
te xt
rou nd
v al
il y
n ce
Ġm in
er r
Ġin cre
Ġm ake
Ġan al
p ut
.. .
Ġs ame
Ġc ur
o ol
** **
eth od
$ \
ri pt
u c
p ar
v ent
w n
g er
le t
Ġp ar
Ġ2 00
Ġe very
t a
c ent
] ,
Ġev en
ot her
s et
Ġin te
Ġyear s
ain t
a red
E S
or k
Ġd i
Ġm on
Ġf ind
ro l
oc i
c er
as es
1 8
Ġp oint
y m
at ic
Ġt ri
ar ch
u g
Ġc all
ant s
Ġth ose
a pp
Ġ x
Ġm ed
in ce
Ġpart ic
Ġ |
ĠS e
vel op
Ġb oth
Ġw ay
c al
v en
Ġn ow
Ġd on
am ple
Ġ1 2
Ġ very
en se
Ġv ari
Ġ @
ect ed
re ad
Ġm at
re nt
Ġs er
d ition
as on
Ġapp ro
Ġl ong
u nd
ire ct
A T
y l
Ġde c
ĠC om
ag es
Ġ ke
w ard
Ġnum ber
Ġex per
Ġhe re
Ġf ound
l ed
5 0
Ġb el
et a
r m
Ġa ut
Ġbe ing
} {
Ġc ar
Ġl ook
Ġpl ay
t r
Ġl oc
ress ion
Ġbe fore
v ed
y p
" }
in es
o id
al th
o ver
if e
1 7
Ġp ublic
Ġp ers
Ġ el
Ġman y
Ġ Q
Ġ /
Ġval ue
s h
ate g
re st
if ied
iv ely
Ġc ourt
3 0
at ure
ak ing
Ġo p
? "
Ġstud y
' ,
I t
Ġg u
er g
Ġmod el
Ġf il
3 2
Ġre p
u pp
t ing
Ġth ink
a ir
Ġe qu
2 01
Ġre port
p end
Ġ Â
Ġc he
Ġm em
an k
Ġ //
od y
c ul
l ine
" :
]( #
al e
ra y
Ġpres ent
Ġhe l
o f
n g
Ġs ol
Ġ est
ĠF or
as h
Ġg iv
m in
Ġpro g
i red
Ġgo od
v iew
Ġwh ile
ic es
a ve
ĠR e
is m
Ġm ade
Ġdis c
: :
Ġpro cess
. âĢĿ
] \]
form ation
Ġt erm
d ay
ign ed
Ġl ar
n ess
Ġle vel
W e
2 5
g g
Ġde velop
Ġn on
o le
v ing
Ġn ame
Ċ ĊĠĠĠ
en g
Ġst art
Ġsupp ort
is ion
Ġd own
an n
Ġc ount
ĠL et
ab el
Ġs erv
al ity
ain ed
Ġpos s
: //
ĠĠĠĠ ĠĠ
ĠI f
Ġm uch
A R
Ġin s
ĠP ro
id er
am b
ĠâĢ ĵ
Ġre ad
E N
Ġm ethod
ent ial
m on
$ ,
our ce
ph a
ĠA l
Ġth ree
u ally
Ġse cond
$ .
Ġh and
le ment
m ed
re t
Ġor der
b b
Ġcon f
2 4
ction s
Ġwith out
Ġo wn
us s
O R
Ġst r
^ {\
an y
g ht
Ġd uring
p art
Ġgrou p
Ġp ri
st r
Ġl ine
\ [
N A
( -
w ay
S T
, \
am p
ar ly
iz ation
ion al
ĠH ow
id ence
if y
n s
]{ }
Ġan t
ĠA nd
8 0
ĠA s
Ġ\[ [@
Ġ2 0
n er
Ġim port
Ġact iv
ĠĠĠĠĠĠĠĠĠĠĠĠĠĠĠĠĠĠĠĠĠĠĠĠĠĠĠĠĠĠĠĠ ĠĠĠĠĠĠĠĠĠĠĠĠĠĠĠĠĠĠĠĠĠĠĠĠĠĠĠĠĠĠĠĠ
olog y
, "
o ad
Ġsign ific
Ġper form
C R
en cy
( "
ab ility
c ript
ist s
W hat
Ġhel p
ra ph
g an
Ġt ype
âĶĢâĶĢ âĶĢâĶĢ
2 2
t t
ĠB ut
Ġc re
Ġpro per
Ġo per
t on
Ġm et
m b
ir c
Ġpro ble
r on
al pha
um ent
id ed
Ġc le
Ġcell s
r ation
Ġsm all
ul ation
Ġl ast
4 0
n ame
Ġle ad
a h
it al
at her
C T
Ġagain st
Ġp ur
I T
Ġm ust
Ġs ay
Ġ et
Ġl aw
Ġa v
âĢ ľ
act er
m an
a im
Ġt reat
ĠY ou
r al
Ġt ake
r an
it ive
Ġis s
ric t
ys is
i vers
Ġ **
f or
Ġ1 5
e red
d d
L et
l ess
Ġle t
h ip
Ġin c
ĠA n
Ġsignific ant
d a
Ġpers on
3 3
al k
Ġqu est
Ġch ild
Ġst ill
Ġc ou
Ġf in
Ġr un
ou se
ter s
Ġo pt
Ġcont rol
n ot
ur ther
ag n
Ġf am
ch n
Ġs om
in ation
Ġ --
ro ss
Ġe lect
r t
w w
ater ial
Ġl im
Ġex pl
m l
Ġc ent
Ġresult s
o ot
ĠN ew
Ġme as
Ġd irect
] .
pl oy
A L
qu e
ar s
s erv
6 0
i er
Ġin formation
E x
Ġst and
Ġ ident
Ġ z
Ġp ost
o h
2 7
v ious
Ġg l
Ġdet erm
âĢ ĵ
( );
Ġcont in
6 4
A N
y n
e ad
ent ion
Ġd ay
Ġ1 8
e k
2 00
Ġst at
Ġfollow ing
id es
at ch
9 9
le ase
Ġa ff
ord ing
mer ic
i or
ot s
at ely
Th is
Ġall ow
Ġ ed
a j
Ġpro du
w ork
m e
2 3
Ġd el
Ġgo ing
0 5
i ence
âĢ Ķ
de f
er al
res ent
am es
ot e
Ġm ult
Ġre al
â Ī
Ġb re
Ċ ĠĠ
Ġcon dition
Ġ ,
Ġc a
iss ion
c ur
et s
iv ed
u red
Ġwith in
Ġcur rent
) \
Ġpro t
i um
v es
Ġs ince
ur al
2 8
Ġre du
ent ly
P ro
4 5
u le
Ġre ce
am et
} (
Ġme an
is hed
Ġinte rest
l and
Ġc are
b f
I D
, âĢĿ
Ġgo ver
le x
r id
Ġinv est
Ġde v
b e
ak es
Ġst ruct
ver t
Ġre st
Ġhe alth
Ġf ield
C on
a z
Ġ err
Ġ X
Ġwor ld
Ġw r
3 5
Ġadd ition
c rib
Ġl ife
ain s
ã ģ
F ig
math cal
Ġp ass
um p
Ġb as
amb da
Ġresp ect
Ġa round
p i
Ġex ample
ĠT r
ar m
Ġ1 4
Ġcl aim
Ġ$ $\
ch ool
iv es
ĠD e
Ġop en
b ers
Ġm ark
ial ly
00 00
Ġ ve
Ġass oci
ĠS h
g en
Ġan other
are nt
Ġin de
u se
ĠHow ever
S E
Ġar g
Ġ1 6
Ġcomm un
s on
ĠC l
an e
Ã ©
2 6
re l
ht t
Ġinclud ing
Ġar t
Ġim p
Ġh um
3 6
ĠW h
an c
Ġl ow
Ġgiv en
Ġo cc
Ġh ig
it her
= \
Ġmon th
Ġl ist
n ment
e e
rib ut
ar g
2 9
Ġprog ram
Ġp ower
Ġch ang
Ġ Z
' m
re g
ra p
## ##
Ġt em
Ġp ot
Ġg reat
he re
in ess
f ace
3 7
w ays
in ing
Ġad v
Ġto p
Ġtr y
l abel
Ġbe h
ot t
} ^{
s elf
Ġc al
ĠI nd
Ġre ally
ĠN o
Ġ* /
ff ic
Ġm ight
Ġob ject
ĠA meric
y t
Ġanal ysis
Ġc r
Ġs l
Ġc ap
I C
Ġl ess
3 8
Ġhe ad
Ġ< /
ĠP h
( '
ain ing
ur y
) /
eth ing
ab ly
h or
b l
Ġ es
Ġha pp
Y ou
Ġfe w
================ ================
Ġb ased
op y
ang le
Ġto o
Ġpl ace
al se
on se
st and
} _
ĠA pp
Ġs elf
ateg ory
Ġapp lic
R E
Ġ #
ro ll
ar n
Ġimport ant
et y
ir d
ĠThe y
2 1
I ON
Ġind ic
th ing
^ ,
ic ro
Ġch ange
iv id
m u
Ġte chn
Ġev idence
Ġpro duct
Ġs ing
ere nce
Ġob t
se c
3 4
Ġpro b
C h
is ed
Ġb i
Ġte am
t s
Ġf our
v ar
-- -
le g
Ġre se
Ġu nt
Ġm ot
Ġ1 1
Ġsu gg
3 9
]\] .
Ġsugg est
Ġb us
Ġtreat ment
Ġwhe ther
Ġ{ #
s er
Ġg ra
pl es
Ġ3 0
b y
ar get
Ġv is
le ction
pl ic
L E
Ġh ome
el s
os ed
Ġf ile
ou ght
Ġp op
ab l
ĠW hat
el ta
7 0
l u
Ġle g
eng th
ĠThe re
Ġcomm on
Ġf ail
erg y
ĠI s
Ġne xt
f er
u nt
Ġob serv
a ult
Ġw om
m un
er y
Ġdef end
Ġd ri
ĠE x
Ġp ath
il ar
Ċ ĊĠ
Ġpro te
Ġb est
Ġg r
orm al
am ma
Ġlar ge
Ġsom ething
ro p
Ġle ft
Ġp ut
re qu
os s
us ed
a ction
ert ain
Ġdes crib
R e
C l
ĠS o
cc ess
Ġinv ol
Ġbet ter
Ġg row
Ġcon n
s um
âĪ Ĵ
N ame
Ġbel ie
} _{
7 5
Ġproble m
p or
ph i
math bb
Ġpartic ular
Ġab ove
4 4
Ġpro f
Ġrep resent
w are
con t
Ġb o
itt le
' re
Ġtr ue
d iv
Ġto t
Ġim pro
A S
9 0
ĠC on
9 5
Ġcons ider
T o
h ib
Ġf r
is k
Ġre ason
at t
Ġrec ord
C om
Ġas k
ific ation
Ġl a
ĠA ll
$ $
c ol
Ġs it
Ġle ast
Ġposs ible
Ġn et
Ġse em
Ġne ver
Ġe as
vers ion
Ġchar acter
ĠU S
e xt
ĠĠĠĠĠĠĠĠĠĠĠĠĠĠĠĠ ĠĠĠĠĠĠĠĠ
Ġpro ject
: **
en e
E D
ivers ity
us h
ĠP l
in a
R O
Ġw ater
Ġs k
os p
ad d
Ġm ov
I S
c he
Ġquest ion
re am
**** ****
ĠUn ited
Ġpos ition
ĠSt ate
at s
H e
olog ical
Ġ ==
al igned
Ġh ist
Ġt urn
aj or
Ġd ue
Ġv iew
Ġp ay
ne w
Ġexp ression
Ġoff ic
Ġin it
op e
E T
} ^
ĠâĢ Ķ
ivid ual
A s
Ġem ploy
Ġtri al
] ;
Ġav ail
h o
i k
m at
eg in
Ġs pe
Ġd ays
Ġo pp
ĠT o
Ġg ive
Ġs ize
Ġse ver
I f
res p
in c
ĠO n
Ġ %
A C
y d
Ġcom e
Ġc ost
Ġl ight
Ġ ide
Ġs um
Ġf ree
Ġ {\
Ġc ode
Ġ2 5
Ġt yp
our s
n al
4 8
ir on
Ġunt il
Ġd en
Ġth ings
b s
Ġgover nment
Ġloc al
Ġb en
Ġ1 7
Ġha ving
Ġb ig
pl ay
- \
i od
Ġc ases
end s
Ġpro m
Ġg ot
Ġ )
en c
Ġsim ilar
Ġf urther
ep s
Ġl ittle
Ġpot ential
ar row
ĊĠĠĠĠĠĠĠĠ Ġ
d ata
Ġsh own
Ġdis e
us ion
u ck
ap s
Ġd er
ig ma
b egin
ack age
Ġp red
or g
__ __
or n
.. ..
et ic
Ġj ud
Ġpre vious
ill ion
ĠSt ates
Ġel se
ri es
Ġhum an
end ed
Ġind ividual
Ġph ys
Ġv ol
our se
rou p
H E
Ġbu ild
T ype
ic le
an ces
as k
c o
Ġe ither
Ġch o
Ġal ways
ĠA d
č Ċ
id th
ab les
Ġprov ide
6 6
Ġfam ily
Ġp a
Ġ1 3
ĠR es
Ġgener al
Ġsu per
ne y
Ġhig her
oc ument
it or
Ġg re
Ġor gan
}$ $
I d
Ġwe ek
ĠThe se
Ġsp ace
er ing
9 8
ĊĠĠĠĠĠĠĠĠĠĠĠĠĠĠĠĠ ĠĠĠ
Ġm aterial
Ġcom b
Ġg ame
op t
one y
C ont
Ġkn own
Ġspec ific
Ġo ld
Ġcall ed
th ough
Ġr ate
Ġpri v
ĠS he
u ro
ct or
F or
Ġfe el
u ff
) :
Ġm ain
Ġm ajor
b eta
le v
l ambda
Ġavail able
B ut
b ack
ĠL e
op er
c d
Ġh ard
ĠC ol
Ġb ro
Ċĉĉ ĉ
a ut
6 8
Ġra d
> </
Ġ !
ĠC ourt
ar ing
im al
\ _
is on
U L
ra in
Ġsing le
0 4
e y
Ġ2 4
Ġstand ard
Ġs w
Ġwor d
Ġh old
ent al
Ġs chool
9 7
Ġtot al
Ġor ig
read y
e q
o or
Ġt re
m od
6 7
pt ion
aint iff
Ġval ues
itt ed
C ategory
Ġab le
{ {\
Ġen ergy
Ġm ass
t en
Ġchild ren
Ġc irc
Ġpl an
os is
Ġstud ies
at ors
Ġme ans
A n
Ġli k
Ġassoci ated
Ġsever al
Ġ >
Ġab s
ra w
ess age
Ġunder stand
b ar
ip le
Ġinvest ig
Ġf ac
pp ed
ĠS p
Ġbus iness
Ġare a
Ġne g
g ment
i ol
ra d
em ber
Ġd iv
ĠTh at
as ing
th is
Ġs ide
m m
ĠC al
} )
Ġm ove
6 5
ress ed
Ġa ction
Ġapp ear
Ġf ull
Ġre view
Ġse qu
Ġc rit
Ġl ater
Ġ id
Ġpar amet
l er
ĠS c
m it
A P
im port
T r
ut es
lect ed
Ġwh y
en ces
id d
ust om
con om
f o
_ \
er n
upp ose
Ġt imes
Ġde pend
oc ial
A M
Ġs ens
u ed
Ġper iod
Ġb ody
Ġreport ed
g o
A nd
t d
ib ility
rac k
c le
y stem
ore d
Ġa ge
Ġgrou ps
Ġd om
it ing
8 8
Ġsh ort
Ċ ĊĠĠĠĠĠĠĠ
il de
it le
ac y
s q
am ples
ĠA r
ĠA t
um e
ru g
p ri
Ġf ar
I I
Ġt arget
f l
Ġl ot
ens ion
is ing
ur s
Ġw ar
ĠUn iversity
ou n
Ġex ist
Ġacc ess
clud e
cept ion
Ġerr or
e b
Ġal ready
Ġdisc uss
Ġ1 00
cl ass
3 1
a f
Ġam ount
st it
v iron
Ġke ep
> <
U T
if t
iv ity
Ġ= >
ĠW hen
l ing
al f
St ring
am s
^{ -
O D
ind ow
Ċĉĉ ĉĉ
Ġrequ ired
Ġresp onse
Ġam ong
e qu
Ġpr im
Ġf inal
Ġs ent
rib ution
p one
Ġc ertain
Ġd one
Ġstr ong
op h
Ġc ourse
Ġlevel s
g ed
A D
Ġp ract
n ces
6 9
Ġcomp ared
Ġte xt
Ġterm s
Ġl ower
Ġdid n
ver se
I s
pos ed
R es
ak en
ou th
' ve
ver age
em pt
Ġr isk
Ġke y
4 7
og raph
% )
~ ~
A G
5 5
.. /
Ġsu re
i que
Ġsu ccess
Ġal ong
u ation
Ġsub ject
ĊĠĠĠĠ ĠĠ
Ġrequ ire
Ġ5 0
Ġper cent
! "
ch an
om et
a pe
Ġiss ue
or ies
y le
t able
m ission
ic y
Ġp ress
Ġexper im
end ing
s ide
ã ĥ
Ġdevelop ment
Ġof ten
ol ution
Ġactiv ity
re ct
iv ing
Ġ$ {\
er c
ã Ĥ
Ġp ort
U S
ay er
Ġhow ever
r ist
iv al
Ġdes ign
Ġcomp on
Ġpol it
1 00
Ġincre ased
ĠĠĠĠĠĠĠĠ ĠĠĠ
Ġcont ent
pl ace
u it
Ġde cl
o res
s ub
ĠC o
s igma
le te
m and
Ġf ore
} {\
Ġag ree
Ġs al
Ġt um
Ġrel ations
Ġf und
Ġacc ount
il on
ĠB l
A l
s w
Ġk ind
htt p
Ġpartic ip
Ġth ought
Ġf ri
Ġs ays
Ġrese arch
W h
ri x
Ġj ob
Ġen g
Ġev ent
Ġwom en
Ġacc ording
at ory
Ġben ef
Ġdise ase
i ation
Ġm en
og n
Ġro le
Ġche ck
Ġne cess
Ġest im
8 5
Ġm aking
Ġdefend ant
Ġm icro
Ġwork ing
cript ion
Ġincre ase
Ġmonth s
Ġev al
7 7
Ġa way
Ġaut hor
Ġm il
is ter
id s
Ġcl in
g es
ar c
med i
Ġcan cer
b ig
Ġbec ome
Ġchang es
viron ment
Ġs at
or th
-------------------------------- --------------------------------
ret urn
ib r
9 6
Ġfact ors
Ġl o
a i
st ring
Ġf ood
V iew
' ll
ĠI N
Ġqu ant
Ġinclud e
Ġcan not
Ġprov ided
Ġto ld
}} \
Ġr ange
Ġth ing
L ist
Ġresp ons
A pp
g round
9 4
ub l
I M
t est
Ġcomp ut
âĶĢâĶĢâĶĢâĶĢ âĶĢâĶĢâĶĢâĶĢ
pp er
Ġn ormal
Ġb ase
ĠO r
0 8
O T
cre t
g in
Ġ `
ht ml
as ter
d ate
Ġeffect s
get her
U R
Ġto gether
se qu
ĠC an
our ces
av a
ĠM ed
ut ure
ke y
ĠI nt
Ġcomp let
Ġup on
le y
Ġt ell
I G
Ġst ring
Ġobserv ed
ĠG en
ist ic
ang u
Ġdet ail
Ġen ough
min ist
Ġse en
um ber
Ġen c
H ow
O n
resp ond
Ġserv ice
Ġcon duct
Ġs ection
Ġcal cul
ac es
C ol
ro du
Ġdoes n
Ġth ird
ĠâĢ ĺ
in ary
Ġreg ard
V al
Ġproper ty
O M
Ġl og
Ġmeas ure
Ġpos itive
Ġcondition s
ic ense
un g
Ġcomp lex
ru ction
g amma
Ġ Î
en n
m ost
Ġf oc
Ġh tt
p re
ess ion
" )
Ġm or
Ġth ough
Ġin j
i ans
ac he
m p
ict ion
0 2
Ġde cre
part ial
at ures
IN G
on y
Ġus er
Ġme chan
O b
le q
e al
) *
Ġse par
i j
Ġt ax
t ies
en ing
Ġan n
] ).
Ġ( [@
Ġcount ry
Ġd ou
Ġl ove
Ġprote in
Ġest abl
ir m
Ġt alk
Ġm om
Ġpri or
Ġinte g
ort un
. )
p ect
Ġm us
x i
Ġsur face
Ġd rug
Ġv iol
Ġde ath
Ġperform ed
w h
0 7
âĢ ¦
Ġb ook
t ime
Ġe p
Ġstruct ure
Ġm oney
g a
f ile
ab or
Ġex c
0 9
uc le
f e
m ber
Ġp ast
Ġe conom
Ġc ut
ww w
A B
N o
Ġcre ate
Ġcle ar
Ġr ather
en ed
Ġc ult
ĠSe e
Ġdo ing
ĠĠĠĠĠĠĠĠ Ġ
Ġdef ined
ix ed
C L
Ġv ir
ur ation
sp an
Ġpoint s
x im
Ġdescrib ed
c ular
ĠA N
Ġb it
Ġf requ
ord er
Ġse ason
Ġim age
Ġlim it
5 7
Ġcon cer
o ff
Ġe arly
O P
u f
Ġbeh av
Ġph ot
Ġrequ est
sq rt
Ġp an
se e
Ġde g
Ġde b
Ġfl u
Ġs cre
he ad
ffic ient
+ \
in ter
ro id
Ġde mon
om s
The re
Ġpat ient
Ġtem per
ound s
r im
com p
Ġcomp any
un c
S h
re m
ĠM ay
im um
Ġass ess
Ġl and
Ġshow ed
ap an
b o
Ġn ull
Ġac ross
Ġspec ial
ul es
S o
Ġac cept
Ġmem bers
ce ed
Ġ q
A r
I L
Ġ( [
Ġ& &
con st
Ġ version
Ġwe ight
Ġm ax
O S
y ear
Ġobt ained
Ġpriv ate
Ġappro ach
Ġme et
osp ital
ic ult
ide red
it er
Ġ$ (
ĠAmeric an
a ff
8 4
Ġact ually
Ġcor respond
Ġf ive
C C
p m
Ġe le
Ġf alse
on es
Ġp ick
Ġv ar
b ox
l im
ĠC ent
Ġother s
Ġwho le
et ition
os ure
Ġbel ow
ĠP at
Ġa ir
Ġv oid
O L
Ġcons idered
ud e
op s
um n
ĠO b
ri ed
ĠF ig
r ho
0 3
P E
Ġm ar
^ \
Ġm akes
og en
Ġbl ood
ens ity
Ġvari ous
Ġs ource
Ġbre ak
a it
Ġrel ated
Ġshow s
Ġon ce
Ġst ates
in o
c ode
Ġlik ely
Ġc y
ĠA ss
on al
Ċ ĠĠĠĠĠĠĠĠĠĠĠĠĠĠĠĠĠĠĠĠĠĠĠĠĠĠĠĠĠĠĠĠ
Ġs ocial
00 3
Ġrespect ively
Ġmult iple
Ġinclud ed
Ġadd ed
e v
Ġb ar
Ġmat ter
er o
res h
ob al
l oad
Ġd am
Ġ ver
Ġc ard
it ch
Ġso ft
Ġsol ution
l og
Ġocc ur
"} ).
Ġf uture
n u
Ġex am
Ġcon cent
) (
Ġdemon str
Ġmark et
4 2
m y
Ġde al
Ġexper ience
Ġt aken
a pt
p ly
ĠJ oh
Ġsignificant ly
Ġapplic ation
Ġe ar
val ue
and om
ĠC ar
ĠO F
ra ft
Ġfact or
Ġm illion
Ġ Ċ
4 9
l or
EN T
angu age
8 7
ch ie
ĠB e
he l
n et
Ġdef in
8 6
ĠO ne
l t
00 1
Ġm aint
Ġrelations hip
ill ed
Ġrece ived
Ġdiff icult
ĠÂ §
Ġsign al
Ġmin utes
Ġsystem s
Ġant i
Ġnet work
Ġse x
Ġser ies
/ *
at ter
Ġs us
Ġto ok
r r
the ta
Ġs ite
' )
' d
od es
Ġh ours
U n
rap y
Fig ure
Ġy et
Ġcons ist
ĠE n
Ġw rit
Ġe ver
p ackage
ĠW ith
Ġpl aintiff
Ġinde pend
S S
led ge
l ation
Ġc ame
ple ment
tern al
pp ing
Ġsp ect
end er
s l
ĠM r
Ġdev ice
Ġw on
t au
Ġcommun ity
Ġh ouse
Ġl oss
n o
Ġc ause
" );
Ġbelie ve
Ġdec ision
ĠJ apan
Ġit em
C H
h ing
ft y
math bf
Ġh ref
u ild
ag er
b all
ut il
Ġdi agn
Ġadd ress
Ġh alf
p ose
ĠT e
Ġf ra
Ġr at
w here
ĠA fter
P h
Ġp arent
Ġh om
Ġbl ock
ol ve
d elta
av or
T R
oc al
Ġimpro ve
Ġc amp
Ġ2 1
Ġreg ion
ĠThe n
/ >
) }
Ġim mun
D ata
Ġn ight
and s
b ody
Ġf low
Ġc ustom
ag ed
Ġm agn
8 3
I m
Ġl ink
4 6
n ow
o ber
ip s
t imes
r angle
Ġin du
com m
s ize
ul ated
Ġb ound
is es
es e
Ġd at
Ġcont ract
Ġany thing
in fty
Ġto ward
Ġ2 7
8 9
-------- ----
id ing
Ġm ind
d is
Ġhist ory
S e
Ġmethod s
m ary
i i
ag ing
Ġsim ple
Ġ( *
Ġask ed
D E
Ġgrou nd
Ġatt ack
ĠM ore
ac hed
Ġd im
Ġserv ices
b it
ĠM ar
Ġaddition al
Ġthere fore
pos ition
Ġch all
ĠG od
iz ing
ĠA ct
Ġapp l
Ġt able
m itted
i res
Ġin hib
ly ing
\ \
or ld
Ġe y
ĠD ef
w ise
Ġdiffere nce
Ġto day
ens ive
tr ans
Ġent ire
ĠD ep
Ġpred ict
ĠTh us
l am
Ġn at
Ġa chie
re ed
ect or
rib ute
ĠÂ ±
Ġtry ing
Ġcl ose
Ġen vironment
Ġth us
Ġneed ed
Ġexp ect
// //
Ġv ide
ĠR ep
^ *
ĠĠĠĠĠĠĠĠ ĠĠ
st ate
com es
ĠCh rist
Ġm i
Ġcom pl
b ol
n a
age ment
at us
b r
f ra
am a
f ield
Ġs ix
Ġv ia
ex p
U N
Ġclin ical
def ine
ac ed
Ġre d
Ġgen e
Ġpa per
os c
Ġl ength
Ġpat tern
Ġ( -
Ġcont act
Ġad minist
Âł Âł
Ġneed s
Ġad j
c ing
il es
Ġcor rect
ĠC ity
itt ing
9 3
0 6
yd ro
al es
un e
Ġ( \[
ed eral
Ġan g
K ey
Ġ ^
Ġqu ality
at ively
Ġinvol ved
Ġ â
i ke
Ġd ig
Ġh y
u ly
Ġass um
Ġpre vent
Ġb ring
Ġe lement
Ġstud ents
9 2
Ġrem ov
m iss
Ġ ill
Ġpart y
Ġc ross
ve c
il ities
ĠM c
pec ially
4 1
ist ance
Ġeval u
Ġm iss
], [@
S et
is f
Ġmodel s
] )
Ġpro ced
Ġne ar
5 6
math rm
Ġinf lu
Ġf ace
Ġpop ulation
b ased
ĠM y
E L
Ġperform ance
c hed
Ġw ent
| \
Ġm ut
c ome
y z
i ver
ie f
Ġsub st
ic ation
Ġmot ion
Ġatt empt
Ġf ib
Ġhe ld
Ġget ting
Ġrec ent
ind ing
Ġint rodu
ome ga
Ġqu e
Ġexp ected
Ġgrow th
Ġder iv
art ment
4 3
ol l
Ġ2 6
Ġ4 0
Ġcomp ar
I V
uro pe
I R
right arrow
Ġex ec
Ġpol ice
Ġeff ic
Ġpol icy
Ġlook ing
Ġan sw
us ing
m ore
Ġiss ues
he m
c hes
Ġcor rel
Ġfunction s
itt en
Ġtemper ature
Ġw in
Ġproble ms
Ġright s
\] )
* ,
b ib
Ġmed ia
Ġ ...
Ġcom es
Ġ\ \
9 1
ĠI m
Ġal most
old s
Ġinit ial
Ġro om
Ġnot hing
yn am
Ġb r
il t
u k
t ilde
Ġ2 8
Ġ ur
ol s
Ġc ity
ĠS te
Ġide a
ist ics
M S
us es
ill s
Ġbe gin
pl it
Ġdist ribution
Ġseem s
g est
T hat
s el
ĠM in
Ġim plement
ect ions
W hen
Ġ Ã
Ġ2 2
ĠC D
Ġed uc
ĠC ount
Ġin put
ic on
Ġem b
w idth
ĠE ng
cd ot
Ġt w
Ġst ory
ĠN ot
Ġprov ides
Ġ$ $
u ous
D elta
R NA
Ġass ert
d es
Ġd r
Ġhe art
l ist
Ġwor ks
Ġp ubl
ĠB y
Ġh ost
ir l
Ġcol l
Ġinst ead
T able
Ġde p
Ġt aking
Ġsim ply
o es
ps i
Ġche m
Ob ject
+ +
Â ±
Ġse arch
an ced
Ġprodu ction
W ith
G et
Ġdis play
ĊĊ Ċ
an ks
Ġ Ð
ĠTr ump
ĠJ an
s im
f unction
r c
ĠT HE
Ġrec ogn
Ġbl ack
Ã ³
Ġthe ory
p o
am ent
Ġnecess ary
P S
ĠP res
il i
ect ive
Ġimp act
og le
Ġincre asing
" ;
um ents
b ook
ĠĠĠĠĠĠĠĠ ĠĠĠĠĠĠĠ
F L
ĠC ont
cc ording
Ġev ents
Ġind ust
Ġsome one
\ *
Ġst ep
Ġmom ent
Ġstart ed
A ll
it ary
g l
c m
Ġp age
om a
ĠA m
e ks
Ġword s
ĠC or
p oint
ĠN ational
Ġf all
re c
Ġcol or
Ġd ire
Ġt iss
htt ps
Ġa verage
ĠP ol
B y
Ġdist rict
Ġval id
Ġstr ateg
Ġl oad
Ġs amples
5 9
ribut ed
Ġre ve
C D
Ġpre t
7 4
b or
Ġex act
Ġal leg
ref ore
Ġp ain
Ġorig inal
cl usion
Ġm ole
Ġ2 3
Ġle arn
y ing
5 8
s y
in clude
b ut
ch ar
Ġn ucle
Ġ! =
ĠM an
Ġbas is
Ġproduct s
w ith
Ġcl os
Ġl ines
Ġ} ,
g ing
ĊĠĠĠĠĠĠĠĠĠĠĠĠĠĠĠĠ ĠĠĠĠĠĠĠ
l ight
Ġf oot
Ġf ig
Ġeff ort
ast ic
ut ions
Ġpresent ed
Ġfollow s
) );
Ġparamet ers
Ġ ess
Ġc red
eth yl
! [
st er
Ġproper ties
Ġphys ical
ut h
Ġs ample
Ġb ad
ĠB o
7 6
Ġdeterm ined
in ally
Ġappro xim
P C
ol es
Ġqu ick
}$ ,
Ġdeterm ine
Ġprob ably
ĠF r
Ġl ack
Ġp ack
Ġst atic
d own
Ġc ry
li ke
ĠIn c
E n
M y
Ġl ive
Ġsh all
I nt
Ġmed ical
Ġinde x
m et
Ġeffect ive
ec ause
a ctions
ron ic
sel ves
Ġm ap
Ġtum or
Ġcomp lete
Ġoffic ial
Ġd ate
Ġsur v
Ġpolit ical
Ġform er
Ġcon fig
ar ily
Ġnew s
$ -
m pt
Ġperson al
er ation
Ġpres ence
d om
s u
}$ .
Ġfor ce
Ġident ified
Ġcon v
row n
oc r
ove red
Ġu nd
A t
I nd
Ġgen es
Ġ âĪĴ
S D
ad a
Val ue
t op
ĠIn tern
Ġpr int
el t
Ġsat isf
P I
Ġits elf
Ġes pecially
Ġpress ure
Ġout side
Ġjud gment
ful ly
} =
6 2
i qu
Ġfil m
w ord
ĠE urope
6 3
Ġd ocument
Ġr andom
A d
o o
Ġl anguage
Ġph ase
F F
Ġext ra
in ks
Ġyou ng
cur ity
5 4
cul ate
ol ic
ĠY ork
Ġcon text
Ġs il
Ġlong er
Ġfr ont
ens ure
Ġo x
f ect
at al
8 2
} ^{\
Ġc opy
Ġconst ant
um b
Ġtyp es
E M
use package
un ch
ĠA g
err or
ĠP r
Ġstate ment
her s
ĠĠĠĠĠĠĠĠ ĠĠĠĠ
7 2
ĠSt ring
Ġevery thing
Ġpol y
et er
Ġs ense
Ġh yp
an a
Ġd est
ĠP ar
Ġele ments
7 9
Ġsequ ence
M od
ard s
p at
5 3
Ġwr ong
Ġstat us
am ed
ul ations
) =
Ġcons um
******** ********
p x
Ġtrans fer
eps ilon
ult s
E d
]{ },
r ast
P A
č ĊĠĠĠ
Ġre comm
de v
Ġrem ain
Ġrun ning
idd le
Ġresp ond
g roup
Ġout put
it es
r s
Ã ¡
Ġprim ary
F ile
Ġconst it
Ġs em
r ange
al ed
P l
n on
Ã Ń
Ġcre ated
mb ox
Ġac id
p ath
" />
ul a
Ġ201 2
7 8
it ation
ĠI I
ĠM e
var phi
eg a
Ġn ode
ear ch
m ail
ĠCom p
Ġar ray
ĠĠĠĠĠĠĠĠ ĠĠĠĠĠ
Ġst ri
Ġqu ite
Ġtra ining
Ġfe atures
Ġmem ber
5 2
Ġf un
Ġw alk
Ġp ie
anc ial
Ġinst all
Ġo il
Ġv s
5 1
Ġeas y
Ġare as
Ġn ational
Ġins ide
ĠP art
Ġknow ledge
Ġp le
qu ad
Ġr ates
au gh
Ġse lect
erv ice
Ġwe eks
Ġv ac
D is
ul ly
ms g
Ġpre c
ro s
o ke
par am
Ġquest ions
ĠThe refore
ef ore
T S
or ph
Ġc reat
ĠS uppose
"> <
ann el
ĠL icense
Ġcontin ue
os ition
ĊĠĠĠĠĠĠĠĠ ĠĠĠĠĠ
Ġg as
Ġre lease
ell ant
Ġm is
T ext
ĠQ u
Ġf em
Ġpr inc
r ant
P s
pr int
Ġve ctor
Ġhtt p
Ġopp ortun
ĠG e
Ġclaim s
le ge
as ons
ĠG erm
Ġwant ed
u x
N ot
Ġcont roll
ar ning
is ions
ĠO ur
us er
Ġnat ural
h ood
Ġdirect ly
unt u
ch i
( $
7 3
ers on
Ġag o
ĠPh ys
P ar
li er
Ġ201 3
ĠPres ident
st ruct
Ġf avor
Ġlim ited
f rom
ve re
ĉĉ ĉĉ
C A
Ġm ach
Ġcont ain
p ublic
Ġis n
7 1
Ġ/ >
l ink
pl ate
Ġav oid
Ġst ay
os ph
Ġab ility
ĠF urther
at ives
ĠĠĠĠĠĠĠĠĠĠĠĠĠĠĠĠĠĠĠĠĠĠĠĠĠĠĠĠĠĠĠĠĠĠĠĠĠĠĠĠĠĠĠĠĠĠĠĠĠĠĠĠĠĠĠĠĠĠĠĠĠĠĠĠ ĠĠĠĠĠĠĠĠĠĠĠĠĠĠĠĠĠĠĠĠĠĠĠĠĠĠĠĠĠĠĠĠĠĠĠĠĠĠĠĠĠĠĠĠĠĠĠĠĠĠĠĠĠĠĠĠĠĠĠĠĠĠĠĠ
pr ime
Ġindepend ent
h a
ĠJoh n
Ġnum bers
Ġl ayer
N S
rr or
Ġst op
Ġredu ced
Ġart icle
Ġdevelop ed
l angle
Ġvide o
he t
cl us
l o
../ ../
av ing
Ġ ?
ĠS im
( (
Ġc ook
Ġpre p
i et
Ġappl ied
8 1
k n
Ġagree ment
en ced
Ġfr ame
p ite
ĠS outh
Ġex cept
ag ue
Ġop in
Ġv ict
Ġim medi
Ġneg ative
ar ray
or ks
f r
per ty
Ġprevious ly
O C
Ġacc ur
sc ript
b ra
Ġgre ater
Ġwh ite
ac hes
Ġr ule
ell ing
Ġfor ward
n ed
ic les
Ġinclud es
Ġset t
Ġobt ain
.. ."
ĠD ist
ĠR uss
S uppose
ere nces
ĠA dd
____ ____
ach ing
E X
p en
Ġ ;
oc ation
Ġsh are
ro ph
ore m
Ġexp ress
Ġappro pri
ï ¼
ĠG u
Ġbehav ior
Ġst ra
ym bol
Ġh ot
R ef
b t
Ġf ire
Ġim pl
Ġre place
Ð ¾
iv en
Ġref er
c ount
M L
im ate
Ġbeh ind
Ġm ention
ĠH ere
Ġsu ff
d en
ri al
l ig
Ġacc om
row s
Ġinst ance
ott om
j s
ag s
p ret
Ġwr itten
u ary
} (\
G F
Ġdef ault
w ide
Ġal tern
n ers
Ġmem ory
port s
Ġ2 9
er a
ĠW orld
Ġm ice
Ġp air
ish ing
Ġg ames
v oid
ĠD em
Ġ ir
lement ary
Ġb all
Ġcomp et
)$ .
Ġ );
Ġg e
ĠJ ust
Ġcompon ent
ĠS ystem
Ġcou n
ur ch
Q u
Ġfind ings
\ <
6 1
l ib
Â °
ĠD o
Ġgener ally
Ġa p
Ġ6 0
Ġl ost
Ġfollow ed
Ġgr ant
Ġt itle
Ġsa f
Ġapp eal
Ġun it
Ġus ually
Ġtre ated
e es
Ġa im
ĠH is
Ġpres ident
ri ef
Ġref erence
oc ol
om y
Ġse curity
I P
Ġmat rix
n b
Ġre pe
Ġcorrespond ing
ĠN orth
Ġinter n
Ġ3 2
Ġre v
ĠS ince
it em
Ġpur pose
in ate
ro te
Ġb ur
Ġet c
ĠD is
Ġcomp an
IN T
Ġgl obal
r ated
ĠCount y
Ġparticular ly
Ġj o
ter m
ĠP er
ĠA f
Ġ[ **
m ega
s m
ĠĠĠĠĠĠĠĠ ĠĠĠĠĠĠ
Ġ[ *
Ġplay ers
ru it
en er
Ġsoft ware
b re
dition al
ĠS T
Ġcom ing
Ġdiffere nces
ĠS m
================================ ================================
in ated
Ġinv ention
Ġst e
čĊ č
av es
Ġaut om
ash ing
A dd
it ness
er ve
ĠCh ina
Ġnot e
Ġbuild ing
ab ase
" .
ĠWh ile
Ġansw er
g or
lev ant
Ġderiv ative
ur b
O r
s k
Ġact ive
M A
vent ion
ru pt
ĠI d
he st
p an
ĠD es
a ign
S he
ot ic
Ġon line
ĠD r
Ġc and
s ing
ĠG o
Ġreg ular
Ġ201 4
C ON
[ '
l in
es tern
Ġm essage
ist ry
( ).
ĠR eg
Ġmat ch
ma x
ĠH ar
Ġcle an
is ms
Ġres id
Ġfail ed
ger y
Ġoff ice
r is
se mb
Ġwh ose
el ine
ns el
ĠM arch
Ġconst ruct
ĠF irst
Ġwr ite
ĠB ar
Ġpro posed
Ġthe rapy
Ġhe at
Ġl ate
d f
Ġc e
Ġst yle
m ar
Ġsa w
Ġfri end
Ġle ave
D ef
Ġd ynam
Ġcost s
Ġpur ch
Ġal though
or ney
Ġanal yz
ill ing
Ġarg ument
ob ile
Ġess ential
ĠP e
Ġchar ge
Ġpract ice
Ġsit uation
Ġsay ing
Ġcount ries
Ġoff er
Ġt akes
Ġf at
O W
Ġrel ative
Ġleg al
pr il
ĠO R
ĠH ouse
ĠD NA
Cl ass
L e
UL L
Ð µ
Ġsy mpt
âĢ Ĳ
Ġw all
ill i
Ġrec ently
ĠGen eral
Ġde ep
} _{\
e ed
l ock
r ate
ra z
Ġsu fficient
P ath
ĠP a
Ġco ver
B C
ĠDep artment
ĠS ome
Ġdou ble
f il
âĢ ¢
ch ange
Ġaff ect
d o
Ġg irl
Ġs low
r ite
j oy
Ġw a
s ource
w id
Ġg raph
Ġv ot
Ġd ensity
Ġcompon ents
ve y
O mega
Ġgiv es
| |
s pec
Ġcent er
Ġh ospital
ĠD av
ir th
Ġ201 6
Ġser ious
Ġst age
our nal
fra k
Ġn ature
Ġpr ime
ĠAmeric a
ĠI S
Ġspec ies
' ;
gor ith
iv il
Ġident ify
re et
Ġ-- >
Ġen h
Ġ3 1
ig en
Ġtri ed
Ġp hen
\] .
Ġor g
Ġve h
Ġdeg ree
id a
Ġany one
ren g
d b
Ġback ground
Ġprom ot
ch o
Ġim ages
Ð °
Ġevery one
Ġfe ed
it ter
Ġre cept
ĠO ct
Ġ201 5
m ap
Ġw atch
Ġp ict
D e
Ġre le
yt es
Ġj ury
Ġl iving
Ġun ique
Ġcomm it
^ [@
g ra
Ġline ar
O ne
Ġro t
u el
ul ate
B S
T H
Ġh ar
Ġwe bs
}} $
ou d
Ġl es
Ġne igh
Ġsu it
Ġh ope
an o
ĠA ust
act ive
Ġuse ful
Ġindividual s
Ġ/ *
Ġbro ad
ĠC ir
Ġlar ger
Ġpret ty
) -
Ġse lected
or age
Ġper fect
Ġopt ion
b on
Ġdire ction
l a
Ġsc ale
Ġcho ice
er ate
Ġf ederal
ang er
Ġcap ac
ay out
c ell
Ġ vers
iz es
Ġ ri
ĠA ug
ĠJ une
C E
Ġw ays
Ġh ydro
Ġmeas ured
Ġ// /
uf act
Ġs qu
Ġdes igned
P L
C al
re me
Ġoper ation
T ime
\ '
Ġallow ed
A A
Ġpro ceed
T est
] ^
oc ks
č ĊĠ
ren ce
ĠS u
ir ing
as is
Ġhigh ly
ĠAl though
Ġthem selves
Ġexper i
i ated
Ġpart ies
ĠW ar
Ġde mand
It em
te e
math frak
Ġspe ed
Ġdetail s
Ġrest rict
Ġdefin ition
st e
Ġp o
oci ety
Ġprof ess
% %
enc ies
Ġor d
Ġpubl ished
Ġcompan ies
h and
Ġp oor
Ġan im
Ġfoc us
ĠS en
Ġbec ame
Ġsubst ant
ar ies
L ambda
Ġfail ure
p y
ail y
Ġf ixed
ĠN ow
an cy
Ġgo al
Ġ201 0
it is
Ġis ol
Ġb ox
at form
op ic
Ġsc ore
l ength
Ġcom ment
O f
O ver
Ġcomm and
ir med
c ap
in fo
Ġm other
ur ance
I F
Ġex erc
ens es
Com p
Ġhy per
b i
ind ex
d im
ap ter
Ġhe av
if ically
kn own
)$ ,
Ġant ib
ou ch
Ġ: =
c ast
n ode
Ġ201 1
ä ¸
Ġb ank
s upp
Ġh or
Ġl iter
St ate
Ġpr ice
h aps
Ġvis it
ĠC ons
Ġst ress
Ġexp ressed
Ġs le
Ġr ound
ĠE d
Ġcent ral
## #
Ġtechn ology
Ġs ort
ab led
Ġnot ice
Ġwom an
' );
Ġcurrent ly
} .
Ġsc he
Ġlead ing
in ity
S im
^ +
os ing
g ar
v is
ub e
Ġ3 5
ĠA M
ograph y
Ġde m
Ġtrans ition
Ġf ast
ĠHe alth
Ġequ ation
ic a
Ġequ al
Ġcamp aign
D es
c irc
Ġcirc um
w ed
se ction
Ġl ed
Ġopt ions
b ase
ĠAN D
ĠM ich
Ġtiss ue
Ġw indow
Ġf ight
ĠS er
Ġeas ily
() );
Ġca used
z e
os ite
Ġem erg
ĠJan uary
Ġover all
Ġd raw
Ġso on
Ġfin ancial
ĠSt ud
Ġrat io
Ġ\ <
Ġinj ury
il s
th at
com ing
Ġg ave
Ġsy nt
hes is
ĠF eb
Ġmean ing
Ġappropri ate
u ge
ĠA pril
ous ly
i us
Ġman agement
Ġelect ro
Ġpro of
S c
Ġhim self
u i
Ġfil ed
ĠRep ublic
Ġconn ection
rou ght
ES T
ĠL a
Ġrequ ires
ĠG l
Ġb al
h old
ĠN one
C P
Ġt en
m ark
Ġp ull
Ex ception
ĠJ es
Ġth reat
Ġindust ry
Ġaut h
Ġcomplet ely
Ġl abel
b and
Ġallow s
rid ge
Ġb rain
Ġa w
or ing
Ġf air
Ġparamet er
ce mber
nb sp
ĠS ch
âĢ ĥ
Ġst reng
ĠJ uly
Ġloc ation
ĠSe pt
Ġopin ion
al ign
S upp
Ġal one
ibr ary
p a
Ġmil itary
in f
Ġac qu
Ã ¿
Ġapp ly
Ġst ated
Ġcle arly
ĠA b
Ġear lier
Ġcrit ical
Ġfri ends
Ġdist ance
st ream
Ġbu y
Ġeduc ation
} ;
T P
Ġ 00
Ġen joy
E C
Ñ Ĥ
Ġvari able
Ġcand id
Ġl ib
ak er
k en
Ġ( $
oper ator
Ġredu ce
âĢ Ĭ
on ent
Ġhe ight
clud ed
% ,
r ide
Ġmult i
Ġ201 7
Ġcontin uous
e ff
Ġst im
Ġpro p
ib ly
ĠTr ans
ers ion
N ew
o ch
}, \
ĠV al
ul f
st atic
Ġinter pret
ens ional
Ġlead ers
for ce
Ġre asons
ri er
! !
Ġestabl ished
f n
( ),
\ !
Ġs n
N ow
Ġon es
Ġprot ect
C S
Ġin form
op l
) ).
n es
M an
ere st
c il
Ġbo ard
end ant
k ing
ã Ģ
Ġre levant
ĠM at
Ġchall eng
G amma
om en
Ġman ufact
qu est
Ġ200 8
Ġ ----------------
Ġcom plic
ad es
Ġbenef its
d ing
Ġparticip ants
* ]{}
m aterial
Ġfield s
č ĊĠĠĠĠĠ
ĠB rit
m ing
Ġc yt
her n
The y
. _
d ocument
it ude
Ġus ers
Ġregard ing
Ġact ual
ic o
Ġm ort
Ġeng ine
Ġk new
E rror
ĠJ ud
Ġpart s
Ġhig hest
Ġadj ust
CT ION
B A
Ġwe b
Ġdis cl
R ES
l s
Ġl at
Ġfil es
Ex p
Ġrem ains
g ram
Ġle arning
Ġloc ated
Ġcont aining
stit ute
over line
Ġfrequ ency
f a
w orks
.... ....
Ġp en
o very
Tr ue
Ġadv ant
Ġh it
Ġcont ains
Ġser ver
Ġsupport ed
Ġgener ated
cul es
t em
ut ed
Ġchang ed
Ġw ond
ove mber
Ġrece ive
Ġunderstand ing
Ġappear s
a e
Ġprote ins
i ate
Ġs on
Ġwrit ing
Ġse c
Ġm er
Ġa x
Ġactiv ities
) **
Ġm id
H O
Ġsol id
Ġintern ational
S P
Ġcont ribut
Ġfind ing
Ġp sy
Ġd og
ub untu
Ġca pt
Ġf ine
Ġli qu
' ]
ge q
F rom
Ġbe gan
ut ive
AT E
ĠI L
Ġ200 9
Ġatt ention
et t
Ġwor th
ĠW est
y ond
ashing ton
Ġeconom ic
al t
Ġsit es
Ġa ud
Ġbu ilt
in it
re w
ĠDist rict
Ġdev ices
ra el
Ġdecl ared
ĠCent er
==== ==
ĠA D
ĠS chool
Ġtr ust
ast ro
Ġsur gery
ĠAug ust
Ġvari ables
an i
Ġwas n
Ġqu al
ĠA ccording
C t
Ġcont rast
Ġt rack
Ġst ar
ĠJes us
de red
* -
Ġw idth
Ġal gorith
Ġre action
ra g
Ġconcent ration
Ġd u
ic it
Ġgo es
ob ject
Ġar rest
enc ing
ĠD et
c all
im age
Ġp lease
Ġcult ure
Ġauth ors
Ġsub sequ
Ġf a
as te
ĠD ata
ĠInd ia
ad em
Ġr ules
Ġst ore
Ġem ail
ĠB r
o e
Ġnum er
Ġproced ure
od ing
ru ary
Ġt im
Ġf ully
im ony
. \
Ġh on
ĠG re
arg in
i os
col or
Ġrel ig
Ġra p
p ol
un k
Ġey es
pl ing
Ġus es
Ġprog ress
h am
ut r
Ġapplic ations
Ġreport s
Ġcou nsel
Ġbe yond
in ct
ĠE l
Ġhe aring
Ġsur pr
Ġ ]
Ġre pl
Ġdef ense
S C
p ace
Ġoper ator
b ran
Ġin sp
Ġinterest ing
rel ated
Ġbe comes
ps ilon
Ġset ting
Ġin ject
ĠO f
Ġst aff
ell ow
ĠR ec
Ġhand s
Ġde ad
B D
Ġtrans form
Ġshow ing
ĠUS A
[ ]
ot al
i able
ĠDe cember
Ġitem s
Ġtra vel
ĠN e
Ġsmall er
Ġbe aut
u ced
Ġy ield
we et
Ġco ord
ic ip
Ġe ight
Ġresult ing
Ġp ow
#### ####
Ġmajor ity
Ġin n
Ġcl ust
Ġent er
Ġtoward s
con n
Ġob vious
Ġwebs ite
Ġ util
ĠT w
i ency
ĠM ark
Ġdom ain
Ġb ed
Ġreg ions
il ies
Ġ< <
Ġprodu ce
* .
g n
Ġsom et
F orm
ĠS ub
o oth
Ġvol ume
Ġequ ival
f s
ens ions
amet er
Ġcon sequ
Ġ| |
if orn
Ġreason able
Ġprodu ced
il le
Ġ4 5
Ġmed ium
Ġinst it
ric es
Ġindic ated
Ġturn ed
c i
Ġn ames
al ing
Ġrel atively
Ġimmedi ately
Ġcol on
Ġcar ry
o ice
Ġsk in
Ġsaf ety
ĠM on
Ġexact ly
Ġlook s
Ġstart ing
Ġsl ight
Ġdiv ided
Ġs old
ĠP ublic
Ġread ing
ic ine
Ġpre fer
od ies
r um
con fig
Ġcou ple
Ġdec ided
Ġs ound
Ġform s
en ge
Ġp etition
Ġadminist ration
z z
Ġim m
Ġget s
Ġexperim ents
ad o
Ġc up
Ġ8 0
Ġar ri
Ġb rought
o at
ou ra
ĠF rom
ĠMore over
Ġex ists
Ġb irth
Ġde part
ang ed
Ġwork ed
= '
Ġsy n
ĠC O
Ġredu ction
f ort
Î ²
f ree
c or
Ġdef ine
){ #
Ġm ys
Ġd ark
Ġinflu ence
* (
Ġcoun ter
Ġu pper
ĠB ecause
Ġmaterial s
' :
att le
ĠT able
Ġinter action
Ġlaw s
E G
Ġro ad
Ġanal ys
Ġmet ab
ĠOct ober
Ġh ous
Ġst d
Ġabs ol
Ġtrans port
operator name
Ġg un
Ġmax imum
ĠR ed
B ig
\ |
Ġf ather
Ġf elt
Ġconst ruction
Ġm g
Ġro ot
c in
Ġn orm
/ (
Ġinter view
Ġcomput er
} -
Ġext ract
Ġfact s
che ck
om in
Ġparent s
Ġ9 5
T Y
os es
Ġz ero
Ġsepar ate
Ġ er
er ia
ight s
Ġopportun ity
ĠN ovember
iforn ia
et ilde
Ġnot ed
wid etilde
Ġh op
ĠW ashington
_ .
Ġd ro
Ġvir t
if orm
Ġ- >
Ġvict im
Ġb inding
Ġn or
Ġl abor
ĠSept ember
ĠT H
Ġph osph
Ġcirc uit
Ġdri ve
o on
Ġplay ed
Ġdo or
ĠC ong
Ġconn ect
uff er
Ġinter nal
Ġthrough out
c os
Ġbas ic
Ġreve aled
Ġcol umn
it ro
Ġprocess es
Ġrele ased
ĠM od
ĠOb ama
ĠCh ar
ĊĠĠĠĠĠĠĠĠĠĠĠĠĠĠĠĠ ĠĠĠĠĠĠĠĠĠĠĠ
Ġachie ve
b m
Ġalleg ed
a res
Ġl ov
Ġse cret
Ġs ources
---- --
Ġapp e
b olds
Ġ ensure
Ġmus ic
bolds ymbol
ĠS ection
ĠDem ocr
Ġf it
M R
Ġhealth y
Ġw rote
ric k
Ġform ation
ĠIs rael
i ance
Ġc it
f erence
ra int
N ode
Ġmechan ism
Ġmagn etic
Ġ rac
Ġcol lect
om as
A fter
H and
S ub
S ec
In fo
Ġcon cept
Ġto ol
Ġm ode
Ġstat ist
Ġto wn
if ier
Ġtest s
00 4
` `
ent er
Ġplay er
Ġhe ard
Ġc am
Ġcr im
Ġman if
Ġfunction al
om ic
Ġsympt oms
Ġ9 0
roll er
E vent
z eta
Ġhapp en
Ġconn ected
Ġa ctions
at ur
Ġas pect
Ġconduct ed
Ġform ed
Ġbu ff
Ġres istance
; \
Ġ} );
Ġrem ove
Ġinc or
Ġother wise
ĠO ther
Ġb ow
Ġref lect
A b
In st
Ġra ce
Ġread y
Ġcomb ination
mm et
Ġa ward
pro t
V ert
as ion
Ġdiagn osis
Ġport ion
ĠAf ric
Ġquick ly
um in
Ġco ol
Ġl ives
Ġcl osed
Ã³ n
Ġmach ine
B e
Ġset s
Ġcompar ison
Ġ4 8
Ġsy mmet
Ġw ide
Ġm ount
cl es
Ġu lt
pos es
ro om
con s
sp ace
wh ich
Ġ" "
Ġa ware
ĠT ra
Ġincre ases
erv ed
Ġph one
S A
oun ced
ig ation
Ġ3 7
Con text
non umber
Ġqu ar
Ġ3 3
Ġ/ **
t itle
z a
Ġplay ing
) ^
Ġse ven
Ġpl as
. [
Ġres ources
F A
P D
v are
Ġl if
ĠĠĠĠĠĠĠĠĠĠĠĠĠĠĠĠ ĠĠĠ
Ġinf lam
l ish
ĠI D
Ġcalcul ated
S U
is ation
p arent
Ġy es
}} _
Ġdes cription
Ġst eps
Ġrem ember
Ġdemonstr ated
Ġquant um
de pend
Ġpa id
Ġremov ed
ol ved
Ġlook ed
Ġar ch
Ġf resh
Ġmov ed
Ġcho ose
Ġ eth
Ġsp in
ĠIn st
c ar
Ġm ur
Ġmeet ing
H ere
S M
Î ±
Ġ ign
Ġl as
ot o
Ġp ackage
ir t
ĠRe v
Ġhapp ened
Ġdat abase
Ġsh ape
und red
v est
Ġpro ve
Ġprov iding
Ġcap ital
iqu es
âĶĢâĶĢâĶĢâĶĢâĶĢâĶĢâĶĢâĶĢ âĶĢâĶĢâĶĢâĶĢâĶĢâĶĢâĶĢâĶĢ
ĠFeb ruary
Ġmor ning
ĠIntern ational
Ġpl ant
Ġm ess
Ind ex
Ġcircum st
ĠA rt
ĠL aw
Ġleg is
Ġmov ing
Ġsomet imes
ur rent
Ġexp osure
Ġfe ature
Ġconsist ent
it ivity
P O
. '
Ġthink ing
Ġdel ay
in put
sh ip
Ġre ach
Ġcapac ity
Ġ( \
Ġtest imony
)/ (-
ĠG et
a ur
Ġst ru
ct ors
um an
Ġ\ ,
Ġestabl ish
O ut
stit ution
ou l
Ġwe ak
ĠN et
he ck
\] ,
Ġgiv ing
ĠAust ral
Ġhtt ps
Ġcrim inal
Ġdam age
Ġt ask
Ġcharacter istics
Ġse vere
ĠE q
ĠL ist
Ġp ul
Ġpe ak
( {
F alse
ĠĠĠĠĠĠĠĠĠĠĠĠĠĠĠĠ Ġ
r ations
H T
y th
st art
Ġâ ī
Ġdis p
un n
Ġdet ected
vent ional
ĠCal ifornia
Ġw itness
ot he
ĠC R
st yle
00 2
Ġfam ilies
as cular
ot ype
Ġb ul
^{ (
à ¤
a el
Ġne arly
Ġindic ate
L og
ĠA tt
c ase
Ġb ottom
ur g
ĠInd ian
re es
semb ly
ĠS an
ok en
Ġrecomm end
Ġm iddle
ĊĊ ĉ
Ġfig ure
Ġcard i
Ġbl og
ĠT est
ĠS ec
ĠA ng
ber g
Ġ201 8
Ġs en
Ġb and
//// ////
ĠRes earch
Ġth ous
ock et
A ss
te red
Ġm ac
ĠA L
/ (-
b ot
vare psilon
Ġmet al
Ġdist ributed
Ġch annel
lic k
u nder
ĠK ing
es h
0000 0000
Ġt er
}} (
Ġwork ers
} =\
m en
č ĊĠĠĠĠĠĠĠ
Ġr ul
Ġj ur
tr ue
Ġl ay
Ġne ur
Ġspe ak
ĠG r
Ġc ert
ran ch
Ġveh icle
e ch
im ent
ic ity
ate ver
Ġsc ient
ĠInt erest
I A
Ġn il
U p
it ors
ym ph
Ġexist ing
Ġscre en
Ġpop ular
Ġcom ments
cur rent
Ġl ip
ĠBo ard
i pe
f ord
ĠH ol
Ġbenef it
ĠFig ure
ĠP ost
Ġsuggest ed
Ġdiscuss ed
go ing
() )
Ġf ix
ut y
Ġch ance
I B
P R
au ght
Ġno vel
"> </
ir it
A V
e ah
am in
en ame
Ġstreng th
ĠN ULL
ic ial
Ġ( (
over nment
Ġro ll
Ġhe ar
Ġcor por
Ġfin ally
] :
b uild
Ġm ag
Ġm m
Ġpl aced
Ġsw itch
Ġcry st
ĠF l
ĠAl so
\ ,
Ġ il
âĢĶ âĢĶ
Ġliqu id
Ġb rief
b in
ĠH igh
Ġapp arent
Ġ3 4
Ġmys elf
U M
Ġc at
Ġsa fe
d ed
Ġd aily
\ /
ĠFurther more
Ġreg ul
Ġ7 0
Col or
bo ard
ĠI R
Ġdis s
Ġfore ign
ĠS y
c her
ab s
ĠWh ite
h ost
Ġinf ection
Ġactiv ation
x x
Ġext rem
Ġtest ing
Ġlet ter
Ġc ivil
al le
lic t
ld ots
V ER
ph p
s f
Ð ¸
Ġsh oot
Ġn ation
Ġinc ome
Ġgre en
ĠF ound
Ġun its
ĠCom mission
Ġbre ast
Ġjud ge
ar r
Tr ans
Ġexp and
Ġins ert
Ġpre m
ĠU K
Ġman ner
B ox
ĠM us
Ġmeas ures
Ġsum mary
E E
Ġs end
Ġn amed
Ġaltern ative
in st
Ġdrug s
Ġw id
Ċ ĊĠĠĠĠĠĠĠĠĠĠĠ
l ong
Ġstud ied
Ġm ale
Ġfin ite
Ġemploy ees
m essage
Ġt ree
Ġad opt
Ġd oc
ĠA nt
O h
ent y
Ġoffic er
Ġsu p
ĠE ven
ur t
j ava
d et
Ġyour self
Ġrespons ible
Ġprob ability
M e
Ġtra de
so ft
ra b
Ġf ear
ĠR NA
Ġ3 6
ĠA c
i pp
Ġdet ect
ĠJapan ese
Ġr out
ari o
ĠC ode
ĊĊ ĊĊ
C re
ĠT ex
Ġstrateg y
Ġapproxim ately
ĠT O
ĠB ank
Ġsex ual
Ġobject s
Ġsurv ival
m ic
Ġexerc ise
Ġsh ot
om b
[ \
Ġm ix
Ġinvestig ation
Ar ray
Ġst ation
Ġprogram s
Ġden ied
Ġmin imum
Ġthe rm
Ġmove ment
Ġex hib
ĠO ff
rac y
C M
at ically
ge bra
Ġ2 000
ind uced
k a
Ġw ild
ĠP M
ĠR el
** ]{},
g s
z ym
Con fig
Ġ4 2
Ġpan el
Y es
Ġw ave
Ġrecord s
Ġb ill
Ġspec ifically
Ġh undred
Ġvari ety
ere nt
U ser
Ġw ife
rom e
Ġcontin ued
Ġstruct ures
Ġrap id
[ ^
Ġ= \
âĢ ²
ĠS pec
Ġcomp r
ĠH am
Ġpass ed
Ġpl atform
Ġmention ed
ĠAss oci
r ig
Ġsus p
Ġbegin ning
S ize
Ġsa ve
app ing
ines e
ĠH er
ol ar
Ġcar ried
indow s
) ?
pri v
* ~
Ġass ume
ell ig
Ġst ock
ĠN ote
Ġli ver
Ġexperim ental
Ġse ed
Ġprep ared
ĠS up
Ġpre par
" },
P P
Ġconf irmed
n ormal
Ġth ick
Ġad apt
ĠP ark
C O
C ode
Ġdes pite
Ġprocess ing
R ead
r ary
Ġ ut
Ġst ream
es is
ĠR ef
Ġtalk ing
Ġstra ight
ĠA ut
Ġst uff
Ġstat ute
ET H
Ġpro sec
Ġdet ection
Ġcol lection
Ġhapp y
i ers
Ġsub str
ing u
Ġc op
ing ly
ol id
Ġindu ced
Ġsuccess ful
ot imes
Ġv an
ĠC ON
Ġcorrel ation
Ġc ore
ĠD i
Ġag g
Ġexperim ent
el le
Ġcl ub
A Y
Ġd ry
ag ram
Ġrem aining
Ġb acter
Ġprofess ional
Ġs ell
Ġtest ed
Ġk illed
T T
g u
op en
Ġsle ep
ĠT R
if ul
C all
d s
ĠIn ter
Ġb ond
Ġsh ift
le vel
Ġmin or
air s
Ġre ached
Ġst orage
Ġup d
o z
Ġt end
Ġcomm erc
Ġcomb ined
ĠI ll
d ot
Ġreturn ed
Ġup date
Ġelect ric
ĠM or
& &
Ġe lection
ĠS w
ag o
Ġcircumst ances
Ġclass es
ĠH ospital
Ġimpro ved
ĠC H
Ġtr uth
idd en
Ġa part
Ġwant s
Ġser ve
Ġsol utions
: \
ic ed
Ġon to
Ġim ag
Ġth row
d ict
Ġsuggest s
Ġcare er
ic ians
cre ate
Ġmay be
ic ks
Ġanalyz ed
id ers
Ġchall enge
Ġsc en
Ġre ject
Ġcl ick
Ġ200 6
os en
k y
Ġrel ation
Ġh our
Ġreplace ment
Ġpro port
Ġofficial s
Ġcontrol s
Ġexpl ain
** ^
Ġsent ence
Ġc ru
Ġun less
AT ION
Ġ$ {
ac ing
Ġlead s
Ġtyp ically
et urn
Ġwhere as
Ġb order
est s
Ġag reed
ify ing
u ps
yn c
x y
ig ration
are st
Ġs ociety
pt ions
Ġ200 7
ĠĠĠĠĠĠĠĠĠĠĠĠĠĠĠĠ ĠĠ
' '
r un
lic ation
P er
Ġim plic
ail s
Ġder ived
ĠPa ul
Ġd ied
Ġra ised
Ġassoci ation
om orph
Ġoccur red
}} {
z on
ic ations
Ġdecre ased
Ġpick ed
Ġfem ale
c oh
n um
Ġt ouch
id el
Ġun f
Ġsh ip
Ġtechn iques
Ġd ed
Ġp ush
d i
S p
ab il
Ġt al
Ġsp read
Ġvis ual
k g
ĠN OT
Ġdis miss
ren ch
Ġf irm
Ġaff ected
u ing
â ĸ
Ġb illion
Ġem ot
Ġvol t
Ġed ge
Ġatt orney
M ethod
Ġt ables
Ġd ie
Ġnucle ar
ph one
ond on
Ġgrow ing
Ġ row
ĠCal culate
Mod el
ar a
st ract
ĠDav id
g t
ist ant
Ġapp ellant
Ġto ols
Ġpl ans
C ount
it z
Ġb ud
Ġgener ation
Ġchem ical
Ġadvant age
ĠG roup
Ġmon itor
Ġcl ient
ap i
Ġsp ent
Ġco e
Ġbehav i
( {\
Ġun c
ann ed
Ġrepresent ation
rid ay
Ġcred it
re ly
AN T
Ġmole cular
ĠEurope an
ĠW illi
Ġill ust
S ervice
Ġdeb t
5 00
Ġoffic ers
r ich
ra pe
ĠE ast
m ain
ur ity
Ġcall s
#### ##
Ġfe et
p ass
il ing
Ġn one
Ġun s
Im age
ĠM ost
Ġsubject s
č Ċĉ
Ġestim ated
. *
ĠP re
Ġper haps
Ċ ĊĠĠĠĠĠ
k ay
ĠT V
ari an
Ġlo op
F ield
Q L
Ġsc ript
An y
f low
pro du
Ġpl aces
Ġwond er
Ġ_ _
Wh y
D o
Ġsu st
Ġse lection
al y
ograph ic
ÂłÂł ÂłÂł
Ã¿ Ã¿
c ore
re lease
ign ment
omet ry
Ġintrodu ced
B l
ĠP al
i ra
act ory
Ġtr ig
Ġeffort s
Ñ Ģ
Ġhand le
Ġelect r
Ġdiscuss ion
Ġc ir
ĠS upp
sp ect
T C
at in
pt r
Ġbl ue
Ġmem bran
Ġn ice
ĠN S
Ġanim als
F r
ress ive
Ġand roid
ole an
Ġf ruit
il ed
Ġhyp ot
ĠB ro
act or
O U
Ġv ent
Ġ& \
Ġdi et
Ġlet ters
D U
E P
Ġv ote
ace book
Ġprot ection
mat ory
Ġbig gest
ĠY our
j o
ro y
il arly
ri e
Ġk in
Ġdescrib e
d em
Ġcould n
ĠPl aintiff
Ð¾ Ð
ing er
ĠD on
ĠE R
in ner
Ġ3 8
Ġ200 5
ĠCong ress
N F
Ġd oll
Ġout come
Ġmod ern
Ġser um
** (-
que ue
Ġpur poses
n am
Ġcol lected
ond ay
Ġevalu ated
Ġneigh bor
t ra
Ġm ental
Ġpl ate
B I
iz ations
Ġpl us
]\] ,
Ġmov ie
ĠS ur
ĠJ ew
In ter
Ġtechn ique
opy right
Ġb ab
p g
Ġst o
AR T
Ġd anger
Ġsm ooth
r l
augh ter
Ġ( **
or b
Ġstud ent
Ġmiss ing
Ġh uge
D R
w ell
app a
ĠNew s
Ġcertain ly
Ġfoot ball
Ġ( )
Ġwould n
ĠSu per
Ġl inks
res ents
Ġw ait
res ult
Ġar m
Ġcon ver
R ec
Ġgra du
i very
ĠP C
Ġcommun ication
Ġexpl ained
ain er
p c
ĠE nd
Ġ( !
ri a
Ġalgorith m
Ġtem por
x ml
Ġcon vert
Ġem pt
Ġproject s
* )
Ġint ent
Ġins urance
xt ure
Ġeffic ient
cl osure
Ġoper ations
il er
Ġenc oura
Ġcompl aint
G C
Ġabs ence
Ġeconom y
ĠC oun
Ġm obile
w hat
Ġcon ventional
Ġopt im
P r
Ġtrans l
Ġex ternal
Ġfor ces
h ow
Wh ile
a ud
ur l
Ġex change
Ġke pt
Ġnet works
IT Y
Ġaccept ed
Ġslight ly
ar ant
Ġsupp ly
fr ame
l ocal
ĠSup reme
us band
Ġdecre ase
Ġc m
Ġpsy ch
p ack
ic ated
as c
D A
ĠCom mun
Ġend osc
201 5
g r
ĠEng lish
Ġbuff er
Ġk ids
so le
mod el
Ġjob s
it led
ith ub
S ee
Ġm ist
Ġelect ron
f alse
Ġsc ience
ĊĠĠĠĠĠĠĠĠĠĠĠĠĠĠĠĠ Ġ
mat rix
ial og
Ġrespons es
ck now
Ġsit u
am ily
Ġc atch
Ġauthor ity
ĠO h
Ġmot or
cont ent
R eg
ĠGo ogle
F T
Ġsur round
mit tee
M E
Ġg al
Ġdis app
ip ment
ri ent
D ep
b efore
Ġpie ce
Ġar bit
Cal culate
Ñ ģ
E lement
ĠF in
ost ic
Ġint ended
Ġequival ent
pl ify
S er
Ġf lex
ĠIn stitute
ĠĠĠĠĠĠĠĠĠĠĠĠĠĠĠĠ ĠĠĠĠ
S I
ol f
Ġk ill
Ġreg ist
Ġrequire ments
ĠF lor
' .
im b
Ġocc up
} +
ĠCl ass
oc ytes
ĠE m
Ġadd ing
Ġch ronic
Ġserv ed
Ġag ent
Ġhist or
Ġide as
y st
Ġch ain
Ġent ry
Ġgu y
. [@
Ġt our
Ġtra ditional
Ġbel ong
O ur
Ġ ing
Ġm ill
ill a
Ġpol ic
Ġp ark
in y
Ġext ent
âĢĿ .
Ġj ava
pos s
ou te
Ġcon vers
Ġexper t
Ġcreat ing
/ **
Ġne arest
Ġj oint
Ġsy mb
Ġhold s
ĠF OR
ot ed
ĠA rm
Ġep is
. $$
or ter
Ġrep resents
sub set
Ġcit iz
A ut
n y
Ġinvol ve
ĠB i
Ġinterest s
Ġteam s
Ġha ir
Ġwh om
, -
ĠO ver
Ġdisc rim
Ġtre nd
M P
old er
Ġgu ess
Ġfa ith
Ġinter val
ĠCh inese
ser ver
M ap
c a
con text
F irst
ot a
Ġfeel ing
Ġ ~
ĠW ell
bl ock
il ty
A tt
Ġequ ations
reed om
ĠU p
Ġk id
Ġcy cle
^ âĪĴ
Ġdirect or
Ġev olution
ĠGerm any
Ġcur ve
. ](
Ġinter face
p ost
w rite
ĠW estern
ĠAn y
\! \!
c an
$ (
yp es
Ġc ast
)/ (
Ġinteg r
ĠBrit ish
} |
E qu
Ġd rop
ĠE ach
======== ==
Ġgr and
i Ã³n
Ġw ind
v ille
act ers
Ġassess ment
ĠM art
- (
D L
Ġinter actions
Ġent ered
Ġanalys es
A ct
c s
M C
b ound
Ġl ymph
val id
Ġdo se
ru ctions
w as
Ġe at
Ġel im
Ġgu ys
iven ess
S ystem
Ġconcent rations
Ġpict ure
Ġlat est
Ġca uses
\ {
S ome
d oc
ues day
olog ies
ĠCan ada
ĠM icro
AL L
n av
Ġmod ule
ĠR em
Ġcrit eria
spec ific
ans ion
Ġdist inct
C an
ist ent
ang es
ward s
wo od
B uild
ĠA R
ĠFound ation
Ġcommerc ial
or ge
Ġl icense
ir al
Ġe arn
Ġl ock
ĠC L
How ever
W ell
c are
Ġ vert
on ic
! --
i as
Pro perty
ĠT wo
Ġfil ter
Ġproper ly
Ġrad io
Ġpattern s
B L
ĠF e
ch ild
Ġfl oor
Ġestim ate
ĠO N
Ġmechan isms
d t
ĠC P
Re quest
ĠS uch
Ġinte ger
AB LE
as ks
wh ile
Ġevalu ate
Ġincor por
Ġ} ;
Ġc ateg
ĠÎ ¼
ĠĠĠĠĠĠĠĠĠĠĠĠĠĠĠĠ ĠĠĠĠĠ
rape ut
ri v
Ġ( "
Ġ{ {\
Ġchar ges
ens or
Ġen zym
Ġcr ime
Ð ½
ĠB oth
00 01
ist an
Ġj u
j ust
Ġex ception
ĠL ondon
T O
f ont
l en
ut or
Ġv oice
d raw
ur ies
Ġdou bt
a fter
ĠC A
clud ing
Ġstate ments
om es
Ġt rou
Ġform ula
in i
U E
ari ant
Ġlar gest
Ġindic ates
Ġann ounced
b ug
le m
Ġ" [
Ġcont ained
Ġorgan ization
ĠF riday
Ġrecord ed
Ġrepe ated
ang ing
abl a
ĠCom mittee
Ġcon clusion
Ġvolt age
Ġinterest ed
Ġcontroll ed
D ate
Ġ+ +
Ġoff ered
l ast
Ġposs ibility
or ry
def ault
Ġres olution
ip al
Ġro b
Ġexist ence
= &
Ġn odes
Ġjur is
G roup
S ource
Ġg one
Ġflu id
Ġ4 4
ĠK ore
C K
ition s
Ġcons erv
Ġare n
Ġgo als
Ġvol unt
Ġs ch
ĠU nder
and roid
Ġrefer red
it ory
Ġg ain
Ġg old
F l
Ġwh atever
> >
Ġdri ver
D S
ic ate
Ġsum mer
ĠT ime
} )$
Ġcomp ens
Ġch rom
Ġp un
Ġey e
Ġst ars
ĠE v
Ġconf irm
)* (
Ġ --------
ĠA T
iz er
Ġorig in
qu ery
f irst
Ġrec ip
pl ed
Ġhold ing
ĠR ober
Ġs ale
und ay
Ġcom fort
Ġcar bon
ST R
Ġliter ature
Ġag ents
Ġcol lege
wide hat
Ġoff ers
Con n
Ġold er
il it
Ġrecept or
Ã ¶
l n
ĠM al
Ġgener ate
ven ue
Ġcomplet ed
ri an
Ġ5 00
st on
ĠFlor ida
Ġw ire
Ġ4 3
C N
urs day
se ct
Ġimport ance
Ġdevelop ing
Ġv el
ed ing
Ġconfig uration
ĠC irc
Ġout comes
we ight
n abla
ri age
Ġbeaut iful
Ġ3 9
Ġident ity
Ġab use
app ro
Ġext ended
Ġsal t
Ġex amples
Ġform at
hel ial
Ġempt y
Ġhapp ens
Ġdel ivery
ra ction
Ġpr ison
het ic
ĠTex as
Ġsu n
Ġr ise
Ġstru gg
ĠĠĠĠĠĠĠĠĠĠĠĠĠĠĠĠĠĠĠĠĠĠĠĠĠĠĠĠĠĠĠĠ ĠĠĠĠĠĠĠĠĠĠĠĠĠĠĠĠĠĠĠĠĠĠĠĠ
Ġthan k
Ġgover n
Ġexam ined
ĠA P
ĠBl ack
dim ensional
g ithub
Ġerr ors
Ġgu ilty
E nt
ĠB en
ĠS olve
ĠPe ople
K E
im g
" ).
b an
ĠW ed
Ġne ut
Ġchar acters
t es
Ġsu gar
b a
Ġcomp ounds
Ġb inary
ar th
Ġplas ma
Ġs q
ĠF ran
ĠM onday
M T
Ġchar ged
Ġpartic les
Ġspect rum
L O
Ġh usband
Ġschool s
Ġsqu are
Ġinst r
Ġsal es
Ċ ĊĠĠĠĠĠĠ
âĸ Ķ
ĠCoun cil
ĠD iv
Ġco verage
Ġdise ases
i en
n ight
onal d
ĠF acebook
ree k
Ġprof ile
i pped
Ġreturn s
D on
Ġin ner
Ġc ategory
se lect
ĠS et
Ġeval uation
ĠThe orem
anc ing
ĠMed ical
Ġc old
ĠD el
Ġmus cle
Ġpay ment
B ack
Ġpart ners
Ġequ ipment
k appa
Ġm it
Ġspec ified
al ysis
Ġdim ension
Ġpre val
Ġ ------------
Ġwe ap
Ġme ant
~~ ~~
Ġexpl icit
Ġce le
Ġ0 5
ict ed
Ġd ra
ĠW IT
Ġl it
Ġst able
** )
Ġal coh
oc y
Ġsequ ences
Ġinvestig ated
ab ilities
ĠE very
Ġw at
Ġhigh light
ĠTe chn
B ar
ĠDef endant
Ġdig it
Ġappe ared
ĠJ ack
cre te
Ġmet ast
Ġsens itivity
F il
ste in
end ment
en ance
Ġw ish
Ġsubstant ial
it ect
Ġpe ace
Ġp ure
Ġsh ared
Ġmeasure ment
c ks
y a
ĠH T
(\ [
ĠEx p
Ġ200 4
Ġconcer ns
T ER
os h
S te
Ġs av
st d
ĠS ervice
Ġcon clude
ant ly
Ġmeasure ments
P re
Ġre ality
ĠGerm an
00 5
\[ [@
Ġpercent age
Cont roller
ĠG overnment
Ġsign ed
Ġopt ical
sum mary
Ġrepresent ed
Ġ ĊĠĠĠĠĠĠĠĠĠĠĠĠĠĠĠ
Ġa head
Ġmort ality
ĠM et
-------------------------------- ----------------
is hes
ES S
OD E
Ġachie ved
ç ļ
Ġopen ing
Ġposition s
alle l
ĠUn ion
ĠWh y
U D
Ġr ank
201 7
ĠSe cond
Ġsche me
Ġ5 5
L C
Ġ$ {{\
ĠGre en
Ġs in
as p
ĠD irect
Ġknow s
201 0
Ġrece iving
Ġimplement ation
Ġheav y
c ss
est ed
** ]{}
Ġcomp osition
Ġmaint ain
Ġsubstr ate
c hen
Ġu l
oper ative
Ġmor ph
Ġdig ital
201 3
ĠFr ance
ĠCol lege
Ph i
E nd
Ġst rict
ĠRe ad
Ġrese arc
Ġoper ating
r d
Ġmi xture
ĠK e
Ġvac c
z en
Ġ4 6
Ġag ency
Ġte le
Ġfour th
ind er
Ġ7 5
Ġallow ing
çļ Ħ
---- ---
ĠR om
Ġpl ants
ĠĠĠĠĠĠĠĠĠĠĠĠĠĠĠĠ ĠĠĠĠĠĠĠ
Ġes c
Ġd raft
Ġf arm
ĠM ac
Ġdri ving
Ġcustom ers
U s
ĠI ran
Ġun iform
ail ed
Ġown ers
AS S
Ġbro ther
====== =
f aces
ĠU N
Ġviol ence
Ġk it
ĠR E
% .
Ġown er
Ġd ys
---- -
Ġqu ery
M essage
um ns
ĠP ort
Ġ4 1
ren cy
nes day
y gen
ĠF inally
u a
ĠĠĠĠĠĠĠĠĠĠĠĠĠĠĠĠ ĠĠĠĠĠĠ
ip her
Ġquar ter
Ġhelp ed
Ġhous ing
âĸĶ âĸĶ
( &
ĠAmeric ans
Ġb ra
Ġem ph
cent er
amp ions
om ial
ĠC ell
ĠF orm
ETH OD
P H
ok es
Ġ6 4
Ġdr ink
ĠO ut
Ġte ac
Ġatt ract
A ccording
Ġdes ired
Ġb le
Ġle aves
}} _{
str ong
resh old
Ġne uro
Ġsub set
C o
dition ally
ĠC I
oth ing
Ġdec isions
Ġal gebra
ty p
Ġj ournal
com ple
Ġext ension
Ġgrant ed
it ative
Ġe lev
Ġestim ates
ĠSt reet
Ġsubsequ ent
G A
---------------------------------------------------------------- ----------------------------------------------------------------
ĠI II
Ġact s
E O
t ag
utr ition
m em
Ġf ill
c ence
Ġc overed
Ġgu arant
Ġgl ass
ĠLe ague
it able
Ġdefend ants
Ġinvestig ate
Ġg ly
Ġeas ier
i ary
cre en
Ġpurch ase
Ġtest ified
Ġassess ed
Ġd ram
ĠA S
Ġunder lying
k in
p age
Ġm al
ro ke
Ġrun s
Ġh arm
ĠJ ames
Ġbal ance
r h
Ġ4 9
AN D
Ġs ections
Ġapp rec
Ġocc urs
cret ion
X X
ĠC a
Ġan imal
Â ·
am ine
ĠB ay
Ġaccur acy
l if
u int
Ġreg ulation
Ġexc ell
Ġl ibrary
ĠT uesday
ĠU se
ĠChrist ian
ĠU sing
est ic
ution al
a a
Ġsk ills
ab et
EN D
or row
ific ations
Ġemploy ee
Ġ4 7
id em
ĠO pen
Ġstrong ly
m t
ĠA ir
er ior
Ġb urn
Ġc oc
ar p
Ġto x
Ġinc ident
Ġsur vey
Ġint ra
Ġp ool
ĠY es
Ġover l
Ġlead er
B P
d ir
f unc
g ent
Ġbut ton
ber t
atur day
g ments
Ġ ĊĠ
Ġn av
ĠSm ith
Ġvel oc
Ġt ub
Ġres ource
ord ers
Ġpower ful
1 01
P e
T A
ĠM any
Ġst ories
it ely
ain e
Ġappro ved
Ġwar rant
. </
Ġal ter
âĢĿ ,
Ġextrem ely
s rc
Ġsp ring
Ġper t
Ġa cknow
Ġsp irit
Ġposs ibly
Ġpath way
iv o
Ġha ven
Ġtrans mission
Ġlimit ations
Ġproced ures
Ġappro aches
Ġiss ued
Ġch osen
The n
Ġra ise
: "
m id
Ġd uty
ĠD ay
RO DU
R el
c p
Ġth read
Ġdepend s
Ġ5 6
Ġfl at
Ġmost ly
ab ric
Ċĉĉĉĉ ĉ
omet ric
rapeut ic
=" ../../
ak ers
S H
ĠR ich
for all
Ġthous ands
Ġdeterm ination
ĠJud ge
^ -
ĠA re
ane ous
Ġspe ech
othe rapy
S olve
ploy ment
Ġb ag
S ince
at he
ĠIn s
Ġdetail ed
Ġint ellig
pro duct
Ġprot ected
aut hor
Ġremain der
leg al
L ine
Ġcomp are
Ġisol ated
$ ]{}
in ates
Ġs rc
Ġaut o
Ġp or
Ġ6 5
Ġmembran e
B M
~~ ~
i ences
Ġ _{
Ġm ixed
Ġbook s
RES UL
Ġlist ed
Ġdep th
Ġlearn ed
ou ble
ĠS H
Ġtra in
ym met
I O
en u
ĠG ra
el ess
and a
ortun ately
ĠS al
Ġacc ident
R L
ĠCh urch
Ġinvest ment
Ġcr is
am ental
ĠD uring
yt ic
Ġh ab
Ġl ung
Ġcomm itted
hen s
tem plate
Ġsecond ary
/ \
; &
ore t
Ġmetab ol
el se
ot es
og ene
ĠTh ursday
i h
Ġb orn
ost er
du c
Ġpolic ies
Ġpl ays
ĊĠĠĠĠĠĠĠĠ ĠĠĠĠĠĠ
Ġtri als
F C
Ġcomp osite
Ġview s
ï¼ ļ
Ġc atal
Ġp et
ow s
ĠComp any
Ġh ole
Ġimprove ment
Ġrel ief
Ġ+ =
Ġplan ning
Ġenvironment al
i ples
The se
Ġarg uments
Ġcommun ities
Ġd uration
ĠP et
Ġopen ed
stand ing
Ġapplic able
Ġl atter
Ġv ary
F R
ĠB er
ĠW il
Ġresult ed
Ġgreat est
C ell
o om
s d
M ed
y ou
ä »
: #
ne xt
Ġac ute
A IM
Ġint ensity
Ġun ivers
F I
y r
ĠB re
Ġun known
Ġ201 9
Ġfoc used
ĠF ree
let s
he ight
Ġ5 2
ann els
] [
Ġmet ric
ro ad
Ġgen etic
ug in
m ation
as ure
ĠSt at
ĠTw itter
pl oad
Ġconsider ing
ĠSc ience
P V
Ġbu nd
bre ak
is her
ĠF rench
\] ).
Ġth in
Ġexp ansion
ou nce
201 2
Ġassum ing
Over ride
yth on
E xt
ĠH ill
Qu ery
Ġexperi enced
ry pt
Ġtyp ical
Ġsp ot
ro t
ĠMich ael
re ated
Ġadv anced
Ġfund s
Ġf uel
Ġm ouse
Ġd ual
oc hem
St art
Ġdirect ed
Ġbe g
Ġad vert
Ġdepend ing
ĠM em
ĠS unday
Ġrec overy
2 000
mon th
Ġaff ord
Ġsett ings
Ġad equ
Ġsign als
C V
Ġe cho
k i
Ġchang ing
Ġcall ing
M ore
Ġw arm
Ġg ar
el ly
ell ed
Ġevent ually
ĠRuss ian
b ul
Ġplaintiff s
ĠIntern et
Ġsuit able
Ġ7 2
se ud
ri end
Ġad ult
Ġre act
Ġconf lict
j ud
ass ert
] ),
Ġacc ord
Ġapp oint
erv ices
it a
Ġtrans cript
Ġanal og
Ġvir us
In put
v an
Î ¼
Ġt error
Ġex cess
ut s
Ġle aving
Ġsens or
N O
Ġm aster
Ġbud get
Ġb oy
Ġfor ced
? âĢĿ
Ġl ab
ul in
G u
Ġsignal ing
ĠRuss ia
d iction
ĠP ress
Ġseem ed
Ġsm art
R S
Ġm argin
velop ment
Ġc ere
Ġo dd
st atus
land s
Ġsc ores
i ot
Ġst ored
Ġman ager
Ġcandid ate
Ġr ing
Ġfrequ ently
Ġ1 20
ell ular
ib er
ok ing
n ames
Ġent itled
ol t
Ġpl ot
P T
i am
Ġno ise
Ġsc al
ĠT om
Ġcomp etition
Ġstatist ical
ĠM o
char ge
p mb
Ġpre gn
Ġconcer n
Ġtw ice
**************** ****************
Ġlim its
$ {
4 00
h as
Ġ* )
ater al
Sim plify
ut ely
se y
US ION
c at
Ġgal ax
Ġd ream
ed y
clus ive
Ġinvol ving
Ġb ool
Ġre nt
ĠP D
ĠL eg
ri p
ĠR ule
Ġcont ribution
Ġ5 1
}\ ,
Ġpro pos
C I
c is
Ġv ess
p onse
Ġmot iv
Ġrad iation
Ġpl ane
Ġbelie ved
Ġn an
ist ory
Ġad ults
Ġexam ination
c ial
Ġs ides
ĠM S
ĠS O
Ġim aging
Ġmole cules
Man ager
y g
et te
Ġu int
ribut es
ro g
Ġre vers
od ay
Ġwill ing
RO M
Ġles ions
p ir
Ġcent ury
Ġstandard s
te x
ĊĠĠĠĠĠĠĠĠ ĠĠĠĠ
idel ines
Ġre plic
ĠA p
am ing
======== ====
Ġ200 2
Ġfin ished
Ġmanufact ure
Ġsp aces
Ġinter vention
Ġinde ed
at o
Ġre verse
Ġr an
ER S
ruct ure
Ġsee ing
ĠG ood
Ġoper ators
cd ots
c ard
e vent
s or
Ġp rices
ĠC opyright
Ġacc um
c f
j son
al ty
Ġcon ven
Ġ5 4
Ġmin im
med ia
w in
ic ian
est inal
Ġor dered
Ġmi R
ĠWed nesday
at ric
00 7
ĠSe cret
Ġr ich
ear s
Ġsur g
Ġrelationship s
Ġimmun e
poss ible
c up
ĠM il
ĠJ er
Ġcons ult
Ġsupp osed
Ġ200 3
) =\
. **
ĠD ec
Ġthan ks
}^ \
A meric
Ġs ession
depend ent
J ust
Ġext ends
but ton
Ġalcoh ol
G L
ĠT or
Ġindic ating
i pping
Ġam az
Ġprot ocol
s ur
st ood
ĠM A
Ġj ump
ribut ions
Ġdemonstr ate
Ġf reedom
et ch
Ġl ose
200 9
F S
201 6
Ġjo in
ĠSen ate
Ġb an
Ġn ine
Ġcons ent
Res ult
ĠAssoci ation
Ġm ission
Ġnecess arily
Ġbur den
ce ived
Ġrec all
Ġrel ates
Ġform al
Ġphen omen
Ġrelig ious
d ots
ĠB el
Ġconcer ned
Ġco ach
Ġmain ly
Ġpie ces
k er
** ,
end if
AG E
Ġfra ction
Ġattack s
raz il
p ref
Ġm o
form at
Ġar ter
Ġdepart ment
et ime
Ġconst raint
CL USION
Ġw ood
om al
F O
in te
Ġbound ary
h al
\ )
Ġvirt ual
N et
R em
k ins
Ġ ion
Ġfund ing
dis play
on ly
Ġhe ter
Ġm and
he mat
ist ed
ĠPart y
ĠOff ice
Ġf if
Ġin equ
con f
r ine
ur a
g y
reat ment
Ġbab y
Ġne ither
ĠS ing
Ġp ix
ĠM er
uc os
ĠOn ly
Ġen force
Ġox id
I ST
i verse
Ġ ens
Ġsc ene
ex ec
sp ective
Ġask ing
Ġinterpret ation
v as
_{ {\
Ġsp end
Ġfe es
s plit
pro cess
Ġf ans
3 00
Ġt on
Ġarg ues
ogen esis
v t
ĠS N
ul s
us hed
ĠR ob
Ġenh ance
Ġvers us
Ġchalleng es
Ġm RNA
Ġob lig
Ġs am
Ġd il
ard en
ili ar
Ġfavor ite
Ġconf erence
Ġadv ice
} +\
Ġpol ar
200 8
Ġcy cl
Ġang le
ĠEng land
] --
Ġfor th
Ġframe work
ĠCirc uit
l aw
iff erent
Ġstim ul
Ġt ight
Ġass ay
c uss
Ġs ector
ĠF ederal
Ġp aint
int on
Ġmed ian
": "
gen er
Ġbi as
Ġmur der
RODU CTION
ĠS um
ĠH all
if ies
Ġ200 1
201 4
in ations
Ġclaim ed
Ġpotential ly
h ouse
Ġconf idence
ĠPl an
Ġst ick
ĠF ield
ns on
Ġexcell ent
L abel
row ser
Ġhel ps
ĠIs lam
O K
ap ers
Ġest ate
Ġfund amental
Ġrecogn ized
w er
Ġdat as
Ġcap able
Ġemploy ed
ĠP en
", "
Ġcomp act
sc rib
Ġadv ance
But ton
a per
r or
im ately
ij ms
Ġre produ
b al
Ġhe nce
au ge
Ġr ough
Ġbre ath
lev ision
Ġg rid
Ġman us
T e
U G
F e
E W
w s
ic ious
um er
ĠAustral ia
ect s
op ath
Ġcourt s
Cl ient
supp lementary
Ġ1 01
ar atus
Ġl ig
ĠW indows
{ {
ĠS aturday
on na
Ġdi agram
Ġfil ms
Ġmark ed
Ġimpl ies
ig an
ĠD C
p df
Ġb atter
201 8
el come
ĠAdd ress
T D
Ġc os
ĠP lease
Ġus ual
Ġrel ax
Ġrespons ibility
Ġdam ages
ĠB rown
Ġwid ely
W ord
Ġm aps
Ġtum ors
Ġscre ening
ĠPro gram
Ġbi ological
Ġadminist r
d el
s he
Ġe gg
ĠL ou
ap ache
Ġac adem
Ġsmall est
Ġaccur ate
]-- [@
in ite
ill er
Ġg ast
Ġoff ense
Cont act
C lick
Ġt rac
Ġg ap
ĠD E
ym pt
ĠPh il
Ġr ats
Ġcont ribute
pro posed
ensure math
" ),
) ]
d ist
Ġp al
}} {\
ash ion
Ġdown load
Ġposs ession
Ġv ill
out put
Ġ5 3
Ġdec ide
Ġsh ut
Ġme at
Ġart icles
d x
ĠM ETHOD
ĠW ork
ĠL in
ic ago
âĶ Ĥ
he nt
Ġsh ock
Ġre ct
ĠM ary
Ġexp osed
Ġwa iting
V ersion
Ġcele br
Ġm ethyl
astro enter
d y
us iness
Ġsee k
queue bot
Ġpart ial
ne g
Ġco h
Ġstand ing
Ġcrit ic
it ud
us al
ĠH ence
> &
P ol
b ed
ĠH D
out hern
ne ver
ĠT ype
Ġdeg rees
M O
on ents
Ġc ash
Ġ3 00
H S
el i
ĠF ed
201 1
Ġdisc overed
Ġveloc ity
Ġann ual
Ref erences
G o
t arget
å ı
Ġ1 50
Ġvari ation
Ġdom in
ĊĠĠĠĠĠĠĠĠ ĠĠ
Ġtrans f
Ġprov ision
opt ion
B O
ĠS l
ĠL em
ĠC he
j pg
Ġl ens
UR L
Ġmaint enance
L ast
h box
ult ure
Ġcitiz ens
ĠG ive
Ġelect ronic
Ġrem ained
Ġst rain
ĠF IG
pro ject
Ġposs ess
s in
Ã ¼
Ġlegis l
Ġsen ior
Ġ ice
Ġs plit
Ġf abric
Ġve get
Ġneg ot
Ġeffic iency
$ )
Ġsp ending
Wh ich
ĠI P
Ġdist ingu
R ep
Ġgu ide
"} .
app ed
Ġox ygen
d at
%% %%
Ġg ender
ĠO nce
Ġtra ffic
Ġst ability
Ġ5 8
ĠWe b
ĠInd eed
C heck
Ġn arrow
** (
Ġterm inal
ĠPro ject
h i
ä ½
ag on
Ġinst ructions
Ġtechn ical
Cont ent
ĠC T
& \
Ġs weet
ĠM iss
Ġdynam ics
ĠW H
S pec
d r
i ant
Ġcor re
Ġpers pect
Ġfac ilit
U I
y er
ĠM ass
Ġpre f
Ġpreval ence
c r
Ġs an
Ġm el
Ġbe coming
Ġch urch
Ġcomm ission
ĠRober t
) ^{
ant ic
Ġapp aratus
Ġthere by
line ar
A F
c el
Ġcustom er
CON CLUSION
Cre ate
Hand ler
ĠW al
Ġsim pl
Ġend s
IN E
cle ar
Ġax is
æ ľ
Ġd aughter
ĠP RO
ĠD en
ont al
Ġl ic
Ġopp osite
R ight
Ġdo ctor
Ġpur su
Ġemploy ment
Ġst em
Ġcon cluded
Ġinc ub
sc ale
ĠAn n
Ġconsider ation
Ġaccom pl
Ġjuris diction
l ang
ĠP H
ak ed
Ġwor se
ĊĊ ĉĉ
Ġbas eline
ĠCar ol
Ġstart s
Ġdoc uments
f ind
eg er
Cont rol
j u
re al
ĠS E
ĠB razil
Ġor al
he ther
ĠM ot
Ġra re
OR T
Ġnumer ous
Ġaspect s
B R
ĠE X
________ ________
S L
requ est
M I
N umber
Ġro ck
Ġstrateg ies
Ġmod ified
Ġsuggest ing
m L
Ġpro lif
Ġsup ra
en ess
ell o
Ġrest aur
Ġcommon ly
D B
S cript
Ġdifferent ial
\* \*
RESUL TS
D C
m g
Ġthe orem
Ġar range
Ġpers ons
cont in
Ġcl ar
app end
Ġrequire ment
Ġm eta
ra q
.. \
Ġsecond s
Ġsto pped
ĠMETHOD S
G G
p hen
Ġunder w
P art
Ġsee king
Ġsurg ical
ĠM ad
ĠB ur
Ġnot es
Ġmicro sc
Ġneur ons
cont rol
M in
C OM
Ġexpl an
Ġrecomm ended
Ġsupport ing
Ġpop ulations
m ethod
Ġsuccess fully
Ġarch itect
Ġmanus cript
S O
Ġs i
Ġdi vers
trans lation
% ),
ens ed
ĠAfric a
à ®
Ġre nder
el es
Ġdel iver
Ġinj uries
Ġtiss ues
ĠRepublic an
Ġsymmet ry
ĠâĢ ¦
ER R
Dis closure
Ġc as
n ull
Ġch ief
Ġpre v
12 0
ĠAN Y
Y our
Ġdefin itely
ust er
Ġinc idence
clus ions
Ġen able
Ġsc hed
Ġsign s
Ġf ol
ir ty
Ġab und
}} }
equ iv
Ġfib er
> (
Ġthe rapeutic
Ġdepend ent
Ġc row
Ġph arm
cal e
Ġpract ices
Ġemerg ency
S R
Ġide al
Ġinteg ral
1 10
N ote
U P
h yd
ag ger
Ġper m
ĠThe ir
ort ed
ĠG old
Ã Ĺ
Ġrepl aced
ĠS and
Ġhe m
ĠMed icine
Ġear th
sm all
Ġc ort
Ġto ler
miss ions
Ġcam era
q l
Ġoff set
Ġend ed
Ġdest roy
arg s
ĠJust ice
AIM S
Ġbe at
Ġconsum ption
b rid
Ġcon j
Ġcontin ues
ern el
act iv
Ġso le
201 9
Ġmil es
red ients
ĠV ir
Ġcell ular
Ġdes c
il ton
ad s
Ġv itro
Ġwas te
Ġ5 7
Ġinter act
y e
Ġ ì
se arch
ĠGe orge
H ead
y an
| {\
Ġviol ation
Ġphot o
v als
Ġo rient
Ġret ro
S ON
m as
t xt
Ġsol ve
ri ers
Ġgirl s
v ant
om er
pl ant
Ġt aste
Ġdis cretion
Ġcar cin
Ġhor iz
Ġc art
Ġentire ly
B ase
ĠF our
ap se
ĠS ant
od ed
Ġappear ance
/ -
Ġamount s
ĠInst ead
ĠB ill
Ġbr and
Ġb ird
ĠH uman
m i
as y
ĠL ike
Ġprom ote
Ġfra ud
Fr ame
Ġs outh
st ar
ft ware
' ).
G B
ĠP ak
ĠF ile
ĠL ie
Ġeffect ively
Ġt ag
ĠE qu
\] ),
Ġreport ing
AR R
L A
Ġad mitted
ĠMin ister
e z
ĠI V
ort ion
Ġte aching
] $
Ġf ont
ĠG al
Ġsc ope
Ġl os
Ġst ack
ad ian
A re
Ġun ion
TY PE
Ð »
Ġpart ner
Ġorgan ic
$ _
č Ċĉĉĉ
ĠS am
++ )
Ġbehavi our
m atch
ĠT ur
** *
INT RODUCTION
T wo
Ġgra v
Ġunder stood
sc he
go ogle
p ush
ĠT imes
ĠCent ral
Ġst reet
M ay
Ġassum ed
ĠN av
Ġun able
Ġinf o
ĠN or
Ġsp at
ĠOb ject
Ġreg ression
rodu ction
Ġass istance
Ġjust ice
Ġkeep ing
Ġp ump
Ġcomp ound
dd en
# :
Ġconcer ning
ĠA PI
Ġdec ades
Ġobserv ations
n ap
Ġal t
Ġli ability
or ters
Ġ5 9
Ġatt ached
Ġabsol ute
Ġ iron
Ġun a
Ġpartic le
ole cules
call ed
i ological
Ġpan cre
Ġcharacter ized
g ers
Ġs ought
Ġf av
Ġcou pling
P lease
re p
Ġm es
am m
ĠA cc
ĠA lex
ive red
ĠCh icago
Ġpl astic
Ġn om
val u
Ġtri p
Ġmass ive
E CT
Ġper man
Ġprop ag
ĠI raq
,\ *
Ġid x
Ġresearc hers
Ġre form
ĠN a
Ġap opt
Ġb one
Ġn orth
Ġdis k
h igh
add ing
Ġgra de
ĠÎ ²
ĠR ad
Ġ{ }
Ġass igned
Ġsupp l
Ġobject ive
H R
Ĩ Ĵ
Ġam plit
pro perty
Ġneighbor hood
Ġcontain er
Ġresid ents
G R
ĠS D
ul ed
Ġch annels
Ġact ing
Ġtot ally
Ġ[ [
RE F
or al
Ġr ig
ollow ing
Ġep it
t w
ĠW ill
Ġme rely
Ġstruct ural
Ġcontribut ions
x p
ĠM ex
Ġ9 9
ĠCh ild
N U
and er
ĠN O
um s
Ġim possible
Ġman aged
Ġph il
] ]
Al though
Ġtr uly
Ġinject ion
Ġsq rt
as hed
ĠSt ar
Ġgu ard
Ġfin ish
ĠJoh nson
Ġord ers
h ydro
ul ating
ĠL ife
Ġlink ed
Ġmess ages
c ers
ĠJ ones
ook ing
ampions hip
N D
Ġmar riage
Ġproport ion
n orm
Ġf re
Ġpar allel
Se lect
Ġclust er
Ġth reshold
Ġinv ent
Ġlar g
che m
Ġrecept ors
Ġprepar ation
l ocation
Ġas sembly
ER T
Ġmin ute
m d
Ġed itor
Ġprinc ipal
abet es
G E
Ġ\ >
v a
ĠG reat
Ġsc an
Ġbro ken
Ġcomplic ations
) }\
medi ate
Ġpredict ed
Ġb attle
du le
Ġcons c
t ings
he rent
Ġcol le
p ng
Ġinform ed
priv ate
lect ric
Pro v
ĠL ord
rou ps
Ġauthor ities
Ġprinc iple
wed ge
un s
{ (
} )\
Ġb ranch
Ġ_ ,
Ġcor on
P ost
r b
ens us
ident ial
Ġcoh ort
Ġident ification
G en
Ġscient ific
a o
ch ron
. -
G O
ogen ic
ag en
ty le
M D
ĠA rab
A m
f ast
Ġan c
Ġsens itive
Ġinhib ition
Ġpict ures
Ġlow est
T ra
W here
Ġa id
Ġcomp re
Ġsupp lement
F P
li k
athe red
Ġf an
Ġsu dden
Ġsec ure
Ġcris is
M at
Ġmil k
Ġ19 99
Ġf aster
ar ks
Ġdi ameter
Ġconv iction
Ġcon sole
K P
Ġar ms
ott ed
Ġprog ression
Ġneigh b
Ġsupport s
Ġcandid ates
Ġinn ov
Ġlarg ely
Ġf ell
ro ot
Ġfl oat
Ġredu cing
fl oat
N N
Ġc ogn
Ġhum ans
D ec
t x
Ġp ed
Ġf ish
Ġad en
Ġun iversity
Ġclass ical
Ġlas er
ä º
ĠM s
av as
St atus
An other
pro p
F IG
Ġinvol ves
Ġf illed
we b
erm ine
ï¼ Į
Ġmonitor ing
ick en
ĠSc ott
ĠC le
as m
Ġ" \
Ġse gment
ort hern
]^ .
Ġexp ensive
Ġbl ocks
15 0
L oad
M ENT
f riend
l ayout
Ġfac ilities
Inst ance
Ġt ick
Ġch air
Ġclos ely
r at
Ġp p
ĠCl inton
roll ed
PE CT
ro le
ĠV ol
Ġfam iliar
Ġtherm al
s ign
Ġex ceed
com mand
fil ter
Ġabsol utely
Ġen em
Ġenh anced
in ical
ĠI T
Ġdeterm ining
Ġsh ap
Ġs ac
Ġg auge
ĠM ethod
ãĢ Ĥ
( [
ĠJ ava
Ġsignific ance
h y
r ants
s ens
Ġcor ner
Ġob st
ĠAtt orney
St ream
Â ¶
ĠApp le
Ġmar ried
Ġe ating
ĠB u
ĠF und
Ġmin imal
Comp onent
Ġv ivo
OR D
Ġcorrect ly
Ġâī ¥
Ġhundred s
t ab
Ġread s
Ġz one
Ã ¤
Ġs itting
Ġre b
Ġass ets
Ġsy nd
Ġm outh
as ic
Ġr is
ĠL abor
Ġass ault
Ġmat ters
Ġcardi ac
c ut
com mon
Ġprov isions
Ġdecre asing
Ġfor g
Ġyou th
Ġcal c
ser ve
Ġremov al
Ġinstall ed
Fil ter
i ations
or gan
ĠC ap
Ġ1 10
ĠSt and
Ġcount s
Ġg onna
ĠF ib
Ġr oute
)) )
Ġput ting
Ġ ĊĠĠĠ
ĠU s
Ġc ities
the less
f it
mod ule
oun ter
ĠB ig
Ġr ational
ĠKore a
ĠTh omas
ĠÃ Ĺ
ad ow
ist or
Ġarg ued
] );
ur ally
Ġext end
Th anks
al a
ĠC re
Ġpack ages
######## ########
) "
Ġp ages
ĠD I
Ġad m
gra de
G e
R D
Ġp ray
* /
i pl
ĠM ag
Ġdef ic
Ġte levision
Ġdynam ic
) }{
F ind
ĠP ut
ĠE xt
Ġkn ock
Ps i
Ġs and
Ġj our
Ġpass ing
= (
ĠG a
P oint
v ol
Ġt or
ro vers
ĠÎ ±
Ġdoll ars
Ġinit ially
Ġaccount s
avas cript
S igma
Ġ ],
ik i
Ġle ague
Con st
Ġjo ined
Ġs pl
ĠF ind
end ar
Ġpat ent
Ġrequest ed
Ġcre ation
Ġrul ing
am ber
Ġpract ical
Ġp in
cl aim
Ġinter net
Ċĉĉĉĉ ĉĉĉĉ
msg str
Ġantib ody
M s
Ġt asks
Ġeffic acy
Ġinstr ument
l ife
Ġv en
ĠFr ank
msg id
ER E
Ġdel ivered
Ġconvers ation
al ian
ent ry
erv es
č Ċĉĉ
Ġreview ed
FL AG
Ġil legal
B B
ĠH aw
Res ource
ic ular
Ġh al
ĠP CR
Ġcount y
E A
ĠO ffic
ĊĊ ĠĠ
{ "
Ġto m
ĠS k
ĠS ocial
ru ption
Ġpre ced
rol og
* ^
Ġcl ients
av en
Ġgl uc
add r
d ri
Ġf old
Ġfl av
,\* ^,
Ġwor ry
Ġcoll abor
Ġcoe fficient
ĠA ma
Ġprog n
Ġ Âł
N e
Ġwe ar
Ġse at
rac ellular
amet ers
h an
Ġp it
Ġfac ility
ĠPar is
or ation
ad ing
č ĊĠĠĠĠĠĠĠĠĠĠĠ
are n
the n
Ġvis ible
Ġcryst al
le ments
ff ff
Ġres on
Ġ19 90
Ġwatch ing
Ġtables po
D P
E V
S u
s ystem
Ġc ov
Ġadopt ed
f ess
Ġb ott
ĠS ervices
ĠF ore
Ġinst ant
Ġopt imal
Ġbut ter
Ġcons ists
Ġsus pect
] \
ol y
ĠB ack
ĠH IV
un it
ook s
Ġmed icine
Ġserv ing
ĠWh ich
Ġinflam matory
B uffer
Ġfor get
k es
} );
Ġman age
oy al
Ġca using
Ġflu ores
Ġp ig
ob j
Ġarg ue
h ar
v o
x ef
Ġv ision
ĠE V
ne q
Ġla unch
g rad
Ġa st
Ġout er
ĠApp ellant
........ ........
Ġapparent ly
ĠDiv ision
ĠDe velopment
Ġprim arily
Ġexec utive
Ġautom atically
Ġobvious ly
Ġdanger ous
B r
L S
w ing
00 000
Ġhe ll
Ġgu idelines
Ġrep air
agn etic
D I
U t
f old
Ġt ail
ĠI F
th let
Ġ8 5
Ch ar
Ġbund le
Ġpro hib
O ther
per t
AC K
Ġleaders hip
L a
ç Ķ
Ġb right
ok ed
ch ain
sl ant
Ġcommit tee
Ġpetition er
Ġl ie
Ġsol ar
Ġimpl ied
Ġb oot
ĊĠĠĠĠĠĠĠĠĠĠĠĠĠĠĠĠ ĠĠĠĠĠĠĠĠĠĠĠĠĠĠĠ
Ġexperi ences
Ġsynt hesis
ĠMus lim
A ction
Ġst re
ĠL og
ĠN on
"} )
Ġ-- -
col umn
Ġhom es
is c
Ġp il
et ing
Ġtreat ments
Ġpost ed
Ġemb od
A CT
u um
Ġprov ed
Ġturn s
ar ia
ree ment
Ġimplement ed
Ġm ent
Ġre nal
per ties
Ġ9 7
ox y
val ues
lim its
Ġr h
Ġperspect ive
H z
Ġsim ult
yn omial
ane ously
Ġt it
}} ,
Ġpe pt
up date
Ġopportun ities
ĠM ur
em pl
Ġ6 1
head er
Ġsitu ations
duc ation
at tr
// /
material s
D eb
est ion
Ġloc ations
ott en
^+ ^
ĠS un
ac ent
ĠAd minist
Ġweek end
} /
Ġs we
ot ing
Ġpoly mer
Ġp y
ĠM ult
ide o
Ġsub mitted
Ġobserv ation
\ "
c ert
i ability
ĠH el
Ġ6 8
Ġco oper
ĠMc C
Ġcook ing
Ġorgan izations
opt ions
Ġneut ral
or i
Ġb io
Def ault
s a
ĠC amp
end ants
Ġamaz ing
I ES
id ity
Ġcon form
Ġ19 98
m ann
Ġl ived
ĠSo ftware
Ġinit i
Ġcorrel ated
Ġf ashion
iv ari
ep end
ĠAn other
ĠCol or
B E
G l
Ġdisc overy
Ġhon est
n el
Ġp H
ĠC ath
Ġthought s
Ġinflam mation
Ġwe alth
cl ient
ĠP R
ĠE arth
Ġexpl ore
Ġpath ways
Ġpolit ics
Ġconsequ ences
er red
Ġcateg ories
ĠIt s
Ġshoot ing
ĠSecret ary
E very
Ġs ports
ĠC are
Ġrec over
oles ter
ĠSec urity
% ).
ĠCh ief
P at
r as
Ġw arn
Ġb odies
Ġpoint ed
aterial s
Ġm s
osp it
Ġpay ments
Ġpair s
B efore
D et
ĠP A
Ġch art
ĠCon n
Ġwalk ing
im er
ut ory
Ġ6 6
Ġneg lig
Ġclos er
O ff
Ã ¨
Ġde pos
ress ing
Ġlov ed
L R
Ġw rt
ĠC up
Ġst ret
Ġrem ark
Ġne ck
Ġtrans cription
U C
b uffer
Ġ6 3
Ġdeb ate
ĠFran cis
E l
ad y
Ġpublic ation
serv ice
Ġtrans formation
Ġunc ertain
Ġp od
Ġe igen
ĠS il
ĠL ong
the w
M r
ra ys
ut ing
Ġ9 6
rupt cy
Ġfeed back
ĠLou is
H L
Ġst ages
Ġdom estic
S m
200 6
Ġessential ly
Ġlay ers
: (
Ġgra d
[ "
Ġhelp ful
g re
k et
m ult
n ic
Ġc aught
Ġ19 97
Ġthe oret
Ġse a
Ġcry pt
Ġaccord ance
O ptions
P age
om atic
Ġ20 20
Ġb ath
st ack
ĠQ ue
Ġpur s
A g
se cond
Ġrec ording
Ġtre es
Ġju ice
Ġ6 2
å Ī
Ġl ies
ĠJ ose
de g
astroenter ology
Ġr id
Ġreg ime
sc ill
ar ge
ĠV iew
ĠAr ray
ĠO S
{ -
00 6
ĠD O
ell a
Ġcont rovers
Ġsome what
Ġintellig ence
Q U
n at
Ġs au
ĠW here
Ġacc el
L ayout
ĠÂ µ
< \
Y S
Ġ6 7
Ġgast ric
y les
on ed
ĠL u
Ġmaint ained
l ines
Ġdescrib es
ĠCan cer
Ġspect ra
) +
n umber
Ġg ift
ax is
g ence
ĠI C
Ġbe am
ch ing
ple t
Ġatt end
ĠRe view
Ġpow ers
ĠS ign
os oph
Ġint r
li ament
xi ety
ĠCarol ina
Ġj e
Ġrec ipe
Ġattempt s
Ġsurround ing
Ġor th
Ġdis charge
Ġgen ome
Ġ19 96
Ġrecogn ition
Ġpull ed
e als
k o
ar ation
ĠF ire
Ġacc used
Ġident ical
Americ an
ĠM el
de bug
Supp lementary
\ .
u able
Ġsur ve
Ġsem i
ĠJew ish
Ġth or
Ġl ots
ĠR iver
Ġhelp ing
oh n
ĠMicro soft
) [
N ext
me an
Ġbig ger
en a
Ġm ob
Ġelectr ical
Ġp seud
id ents
ĠC all
Ġdef e
ĠDemocr atic
Ġemot ional
U se
Ġfig ures
ri um
Ġappro val
1 12
Ġreg ister
Ġpick ing
M ode
Ġ7 6
Ġtell ing
Ġarri ved
AT A
Ġcharacter istic
Ġpass word
Ġbi om
Ġsuper ior
Ġprof ession
ĠAfric an
Ġupd ated
i ology
Ġcont ents
}} ^{
Ġshe ll
Ġdifferent iation
Ġall oc
ĠK im
Ġdes ire
equ al
ĠJ ournal
ĠPro t
Ġcompl iance
Ġemb ry
cuss ion
k l
w ar
ter ior
ĠM ath
ud d
T ex
Ġre in
Ġl uck
Ġg ate
ĠD onald
ano ate
Ġantib odies
ĠP eter
ell er
ĠIn formation
IN D
Ġdirect ory
d irect
Ġs orry
ĊĠĠĠĠĠĠĠĠĠĠĠĠĠĠĠĠ ĠĠĠĠĠ
duct or
ĠDe v
O pen
m ond
Ġp ip
ri or
ist ing
k top
um a
Ġstat istics
Ġbusiness es
ĠPat ients
port ed
crib ed
ĠOh io
Ġac ids
ĠCl ub
Ġdisplay ed
Ġre nd
her m
Ġ7 9
Ġconstruct ed
N one
ff ee
Ġrapid ly
P CR
R I
Ġm ail
ĠP an
ĠR eturn
Ġmod ify
Ġshe et
Ġlo an
Ġvictim s
ĠLem ma
i pt
Ġindu ction
Ġdep ression
Y eah
igh ter
Ġcol umns
Ġset up
Ġemploy er
ĠP o
200 1
Re v
Ġdiagn ostic
H el
Ġfil ename
ĠPro v
or ption
}^ *
Ġden omin
big g
b en
ĠA ff
Ġde let
II I
ĠPol ice
Ġhypot hesis
et her
Ġ4 00
ere n
Ġdim ensions
ĠDemocr ats
Ġs ounds
Ġst roke
if ts
Ġexper ts
ĠĠĠĠĠĠĠĠĠĠĠĠĠĠĠĠĠĠĠĠĠĠĠĠ Ġ
Ġtrou ble
Ġb ind
ĠH ome
sh ow
IC E
Ġconstit utional
Ġsymb ol
Ġepis ode
ĠM ont
Ġra il
w ater
z o
olog ic
Ġinst ruction
Ġinteg rated
Ġcopy right
Ab out
C ons
G S
a is
Ġmark ets
AC E
//////// ////////
Ġprolif eration
Ġbet a
Ġparticip ate
Ġo scill
Ġcon sec
Res ults
ĠWilli am
hens ive
a us
Ġs ke
Ġpres um
Ġtem plate
T E
p et
in et
ost on
Ġ6 9
erm an
Ph ys
Ġ ),
rit ory
Ġexam ine
Ġam pl
Ġadv oc
Ġimmedi ate
P AR
d c
Ġn ative
Ġult imately
O per
l oc
ĠTh ose
ox id
)* (-
ĠAc adem
Ġst ir
qu are
Ġk ne
Ġclass ification
Ġendosc opic
D D
p ie
p ower
Ġre actions
Ġass ign
F unction
e per
ĠF il
out s
Ġcl ock
Ġpl ain
) }$
m es
ad ed
Ġ8 8
Ġra w
Ġmov es
Ġtell s
Ġcompens ation
b uf
f lu
id get
Ġ1 000
Ġ8 4
Ġspe aking
unc hed
Ġprinc iples
all oc
ĠÂ £
Ġpursu ant
ĠC S
ag raph
Ġpol l
Ġtop ic
ĠĠĠĠĠĠĠĠĠĠĠĠĠĠĠĠĠĠĠĠĠĠĠĠ ĠĠĠ
Ġdeath s
exp ected
Ġdivers ity
M em
R T
b ur
s i
Ġdist ributions
Ġinequ ality
V AL
Ġc ups
Ġphot os
ĠMich igan
Ġx ml
Ġfight ing
typ es
ter day
Ġv it
ĠCom mon
sq l
Ġlegis lation
ocy te
ĠL os
ĠCor p
Ġt ube
Com mand
L ocal
V A
Ġex cluded
Ġreg ional
Ġdi abetes
Ġeng aged
ĠCont rol
Ġpow der
" ]
x f
Ġrem ote
Ġden ote
ĠMe an
V ector
Ġ rows
ac c
Ġret ail
Ġdiagn osed
ĠSim ilarly
Ġf le
Ġh ate
Ġrespect ive
Ġdiv ision
Ġassum ption
Ġsubstant ially
Ġdis order
Ġcomplic ated
Ġtrig ger
P M
ly mp
Ġad verse
Ġpost s
Ġcalcul ation
Ġdog s
Ġo l
200 7
O H
V E
s up
Ġnorm ally
L L
irc raft
ĠApp eals
ĠAd ditionally
Ġintrodu ce
Ġprefer red
Ġdiscrim ination
or a
Ġhe pat
pos itive
Ġtax es
Ġmanif est
b orn
Ċ ĠĠĠĠĠĠĠĠĠĠĠĠĠĠĠĠĠĠĠĠĠĠĠĠĠĠĠĠĠĠĠĠĠĠĠĠĠĠĠĠĠĠĠĠĠĠĠĠĠĠĠĠĠĠĠĠĠĠĠĠĠĠĠĠ
Ġk ick
]{ }\
Ġb ought
Ġre const
ĠN ever
Ġincreasing ly
Ġble eding
$ $\
Ġdis ag
av el
16 0
Ġrepresent ative
Ġsust ain
Ġn ut
Ġreal ize
Ġemb ed
Form at
unn el
t ask
g i
ĠL o
Ġaff irm
Id ent
Pe ople
Ġadequ ate
. âĢĻ
Ġm ic
Ġapp lying
Ġspec im
Ġkit chen
\ }
h is
h ome
Ġwor st
fo o
R eturn
y es
Ġt ro
ĠAs ia
var pi
Ġb ars
Ġst er
ĠL ib
g raph
Ġm ales
Ġcult ural
Ġrot ation
appro x
f oot
ri ents
Ġ[ ]
Ġphosph ory
ĠMart in
N OT
ĠA bb
Ġas ympt
Ġoff ering
Ġreal ized
Ġarrest ed
Ġn m
Ġl en
Ġro les
ĠTr ust
% ;
Ġpro be
ord s
af e
Ġregard less
V is
Ġm ine
Ġn urs
ĠN ame
Ġ[ '
Ġent ity
ĠL ee
18 0
Ġple a
C or
ĊĊ ĠĠĠĠĠĠĠĠĠĠĠĠĠĠĠĠĠĠĠĠĠĠĠĠĠĠĠĠĠĠĠĠ
Ġur l
P an
in ternal
Ġs ick
ĠA v
ĠP ower
Ġcont rary
point s
eli hood
K e
id o
ĠM ax
ĠD ate
Ġk ing
Ġorig inally
Ar g
Ġsuff ered
Ġcru cial
n ger
Ġf ellow
Ġm igration
Ġn ic
az ine
ĠI DE
Ġv ul
cl ick
Ġinv asion
Ġmod erate
on ym
Ġs oc
Ġher self
ish ment
Ġcur ves
Key Word
ĠAm ong
ĠRich ard
Ġg ro
ay lor
Ġco al
HE CK
Ġtarget s
Ġsepar ated
r if
ĠT re
Ġsu c
\ ^
Ġhapp ening
co in
Ġdra wn
? ?
C urrent
Â »
Ġt ens
Ġpl anned
Ġocc asion
Ġbi ops
:** <
te en
Ġinv al
\| _{
ĠG ame
Ġ7 8
Ġfair ly
Ġform ing
Ġwar ning
ĠVir gin
is or
Ġf ram
et al
ĠT im
ad ata
Ġwe ather
ĠW ood
ru le
ĠTh anks
Ġfe e
Ġ7 4
tt p
Out put
Ñ ĥ
Ġn utrition
em ia
Ġpol ynomial
ever al
hel p
Ġproceed ings
Ġcyt ok
Dep artment
x e
Ġ }}
ĠI M
Ġreg ulations
Ġmoment um
Ġexplan ation
Ð º
bl og
M ar
ĠC ard
og ram
reg ulated
Ġapopt osis
p ay
Ġm ig
Ġcon version
Ġ- \
Ġ7 1
Ġconn ections
Res ponse
Ġdeg rad
Ġmut ations
Ġsynd rome
f iles
is ely
M any
Ġdri vers
Ġprom pt
Ġsub t
Ġem ission
Ġpass age
B ecause
W indow
ãģ ®
ĠArm y
Ġrel iable
Ġground s
Ġunderw ent
N C
ĠG O
Ġgrow n
Ġkind s
Ġdro pped
Ġstatist ically
er ry
ĠP ac
Ġâ ĨĴ
ĠDirect or
v s
rom ise
Ġnot iced
Ġ[ $\
10 5
ĠGe org
Ġâī ¤
Ġ --------------------------------
ic ide
Ġmetab olic
g reg
h r
m ode
Ġt ip
Ġknow ing
Ġregist ered
, '
Ġn od
Ġ7 7
Ġemph as
Ġb il
Ġas ide
Ġfl ag
Ġpred iction
Ġord inary
ĠDet ermine
Ġ č
Ġlist en
ĠAt l
pref ix
N ull
od er
Ġinf ections
is ters
ĠB et
List ener
IV E
b untu
=" #
Ġsc hem
Pro cess
Ġansw ers
Ġtransfer red
Ġweap ons
Ġs lic
ĠO ld
Ġso il
P RO
e an
ol a
Ġcon d
Ġext ensive
ion ic
st ore
all ow
r ates
Ġs izes
Ġ$ (\
Ġper ipher
ef ined
Ġpar a
oid s
Ġmen u
ĠWilli ams
Ġmill ions
Build er
Ġf ro
ĠW ARR
ĠTh ree
Ġman ip
Ġhyper t
od ium
Ġal k
200 2
Ġsuff ering
it ure
ĠC heck
Ġinc red
Ġcir cul
' $
( *
Ġdis orders
o pping
Ġexc ited
ĠMod el
Ġacadem ic
Ã £
ĠS ociety
** :
Ġsubst ance
Ġcontroll er
Ġacqu ired
$]{} ;
M ax
Ġhot el
ĠAma zon
Ġm eth
Ġfe els
ov ascular
ĠĠĠĠĠĠĠĠĠĠĠĠĠĠĠĠĠĠĠĠĠĠĠĠ ĠĠ
Ġbo olean
Ġlog ic
Ġvolunt e
Ġdenomin ator
Ġl ob
ach ment
Ġsp oke
ov a
Ġ8 9
f ortunately
se m
ĠA ri
Ġche st
conn ect
Ċ Č
ĠP O
ass oci
Ġper mission
ĠV er
Pro ject
ĠAccording ly
Deb ug
olester ol
s ome
ve ctor
Ġcorpor ate
Ġvert ical
Ġt ort
ĠB uild
ĠR oad
Ġcomp ute
ĠWh o
Ġver dict
Ġprep are
Ġinvolve ment
r ating
ĠT enn
ra pper
Ġinst ruct
Ġsum mar
Ġmom ents
I Z
Ġt ough
Ġhy brid
) _
in er
in cluding
Ġc rack
12 5
ĠSp ring
ib ration
Ġag encies
Ġam b
Ġadd ressed
14 0
ĠIs land
Ġmechan ical
Ġrelig ion
] [@
Ġdim ensional
E ven
_ >
Ġcalcul ate
Ġlabor atory
ur d
Ġvide os
m osp
rou s
Ġopp osition
osc opy
v in
ed s
Ġf ault
am ely
ir us
Ġyou nger
Ġr ub
Ġsur faces
Ġcou pled
LE CT
Ġcard s
Ġstra ins
c pp
ro sc
Ġk illing
Ġrec ur
Ġref used
Ġexpl o
ÃŃ a
Ġcarry ing
Ġded icated
S tyle
s v
Ġa ver
ct x
Ġ1 11
Ġcomput ed
Ġsubsequ ently
H A
Ġm ir
p in
y y
Ġ rib
Ch ild
Ġh idden
Ġ\ *
Ġfe at
Ġel ig
Ġrepresent ing
Ġprom ise
Ġcalcul ations
g age
st ep
Ġtemper atures
Ġrecogn ize
Al so
Ġdeal ing
Ġsatisf ied
Ġenforce ment
6 00
i ro
Ġas c
Ġv ast
ess ions
Ġdri ed
Ġacknow led
. ;
W ho
im a
Ġinter mediate
ĠSh ow
ĠCP U
p op
Ġdiff er
ĠRe port
Ġste el
Ġbacter ia
Ġ eld
Ġ âĪ
ĠW all
Ġcut ting
Ġrequest s
Ġslow ly
Ġh all
ĠU C
Ġfind s
Ġinj ured
Ġcoord inates
' _
b el
ĠS U
ĠCan adian
Ġimag ine
ĠB oston
Ġvers ions
Ġb rowser
âĢ ĺ
Ġint ention
Ġbelie f
Ġamplit ude
D O
ru its
Ġstat utory
Ġill ness
Ġconsequ ence
jo in
e lement
ast s
Ġbre aking
Ġbas ically
Ġattempt ed
ĠAut hor
G T
L ength
p ot
Ġre new
Ġ( âĢľ
Ġon going
Ġcent re
ĠCor por
... \
Ġfail s
Ġdepend ence
Ġvot ers
ĠHam ilton
Ġh oles
ĠS P
ĠO per
ĠY et
Ġfl o
ĠT ext
os ome
Ġch apter
Ġqu as
Ġaim ed
Ġagg reg
Ġg ran
AR Y
Â ®
in ition
ĠR o
Ġrad ical
} -\
Ġm ucos
Ġh urt
Ġpre jud
Ġ7 3
ira ble
A cc
T L
ĠV an
Th ank
resp onse
Ġappl ies
Ġgluc ose
V ID
es ter
if act
Ġrad i
ĠMed ia
Ġst ores
Ġam ino
AT H
Ġstand s
ĠCol umb
z er
Ġcl imate
}} ^
Ġsc atter
Ġins u
OR E
reg ion
Ġaud ience
Ġing redients
Ġal ert
us r
ĠE ducation
Ġbacter ial
Ġc ab
ĠD u
ak a
Ġper mit
Ġ: )
omet imes
ĠAm endment
b u
ĠH and
math sf
10 7
Ġdri ven
raz y
D irect
as tern
ĠG iven
Ġflu x
Ġfem ales
`` `
Ġf inger
un ct
^{ -\
Ġ19 95
Ġpresent ation
conom ic
ĠC OM
Ġus age
Ġ8 2
Ġresp ir
T EST
Ġab normal
Ġ19 80
Ġpay ing
Ġdifficult y
Ġfra gment
a id
s en
Ġd ict
Ġh ospit
Ġ2 50
Ġ> =
Ġmor al
Ġinstit utions
elle e
Ġal pha
ĠL ight
Ġev ident
ĠIt aly
Ġ9 8
Ġdecl ine
Ġconsum er
z ero
Ġan xiety
Ġin qu
Ġre n
if er
-------- -
pro d
Ġtrans action
Ġperman ent
Ġo ven
ell ants
ag ues
ib ilities
Ġcont ributed
UL T
Ġcompar able
ani el
Ġsau ce
ï ½
ĠS C
ĠB ush
Ġhe ro
ĠPl ay
Ġfood s
an ish
ĠC am
Ġsh aring
Ġsp okes
ãĥ ¼
dev ice
Ġsem icon
v ari
Ġm arg
ĠB ase
Ġen abled
off set
Ġapproxim ation
Ġenzym e
T ag
ĠJ eff
ĠV is
Ġeven ing
n ut
as ia
ac cess
con duct
Ġoper ate
Ġsever ity
ino is
Ã §
ic an
os a
}^{ (
Ġelev ated
U rl
Ġve ctors
Ġcho ices
ĠMay be
ĠWIT H
. $
Ġret rie
text rm
ĠYou ng
Ġprodu cing
Ġpriv acy
Ġele ctions
G ener
g ly
es ides
um or
Ġour selves
Ġclass ified
B lock
Ġtra ined
Ġtra dition
We b
Ġinteg ration
ĠC r
Ġwith draw
Ġtrans lation
Ġret ire
uc ks
F actory
R ed
re y
ĠS ol
ĠS pe
aw a
vent ions
ĠAn alysis
ros is
C IT
Ġb low
ĠS ar
Ġte ach
Ġpos it
Ġdec ade
ĠAr ch
Up date
or ne
200 3
Ċĉĉĉĉ ĉĉ
Ġf ant
ol ars
ĠL ast
ĠU RL
ĠJ ul
Ġmod es
Ġwalk ed
Ġesc ape
ra ise
ĠMat thew
FLAG S
S ION
Ġpro spect
Ġprec ise
Ġtal ent
D own
Ġst ead
Ġv eter
Ġqu iet
Ġmark ers
ocol ate
Ġany where
ĠY OU
uss ian
ffic ients
rast ructure
Ġrout ine
Ġa ircraft
Ġsim ulation
Ġsing ular
Ġfrequ ent
ha ust
ĠGr and
Ġspat ial
ot ypes
Ġim posed
The ta
Ġany way
Ġnew ly
Ġpol ym
Ġrequ iring
R ange
w a
y o
å ®
ĠE U
Ġthem e
pr ise
Ġfac ing
Ġwin ning
Ġrepe at
Ġd uck
st at
In it
12 8
Ġgl ob
' ),
. ]
l ie
ĠS M
Ġval uable
Ġcre ates
G ET
Ġabs orb
ĠRepublic ans
Ġwonder ful
M ult
Â §
at ible
ber ry
Ġscen ario
Ġpropos al
m eta
Ġ âĶĤ
in fl
ĠC M
-------- --
Ġcont ends
ĠV ersion
pro v
ĠDes pite
Ã£ o
S ort
Ġplan et
Ġregul atory
Ġreject ed
D NA
Ġde lete
ast ian
19 99
Ġgood s
L ike
T oken
oc racy
ĠO K
Ġcl oud
Ġt ank
um ps
Ġtr uck
ĠCon stitution
Ġsatisf y
X iv
â ģ
Ġs port
Ġb rown
ab out
ĠF ood
ĠÂ «
C ase
Ġ9 1
ĠK ey
ĠSt r
Ġmat hemat
}^{ -
Ġbeg ins
Ġpriv ile
ra ge
Ġ1 16
ĠL and
Ġvict ory
Ġpurch ased
Ġextract ed
" "
å ¤
am ination
du ction
AM P
Ġenc oding
Ġdocument ation
Ġdiscl osed
Ġmanif old
F inally
j i
Ġmiss ed
E m
Ġar r
Ġag ed
att ice
Ġrad ius
Ġconstraint s
P ut
u ity
Ġg el
em por
ĠJ o
Ġob serve
Ġown ed
Ġcommun ications
ĠEx per
Ġeng age
Ġann ounce
Ġindepend ently
Ġrestrict ed
ochem ical
Ġm ask
cl ose
Ġnew sp
ual ity
Ġleg s
U ST
Ġed ges
. ^[@
M et
Ġ\ {
Ġcar rier
200 4
g ress
j a
ĠK ar
sp ring
b les
Ġdo ct
Ġhead er
Ġbow l
ivari ate
L ink
ĠIn vest
Ġinhib itor
Ġperfect ly
Conn ection
Ġm ild
ĠF ox
ĠG NU
Ġch ose
S l
Ġs ong
Ġb are
el lect
ĠP ath
Ġ19 92
clud es
Ġstri ke
valu ate
Ġtheoret ical
V D
ours es
Ġstrong er
ĠS i
Ġ== =
Ġcorrespond s
Ġyield s
Ġconsc ious
ot helial
Ġ8 3
Ġdisc over
b ial
Ġf o
ob s
Ġ19 94
ĠCath olic
W idth
ot ox
Ġal le
ĠB ased
gh an
Ġcar s
M ost
Ġat mosp
rou d
Ġ9 4
Ġmanufact uring
Ġris ks
M on
} :
Ġa thlet
is ons
Ġl augh
ĠOr gan
sk i
Ġsche dule
Ġtempor ary
c ule
ion e
ov ed
Ġshould n
Ġcare fully
Ġround ed
Ġf unc
ĠP T
ĠB ern
Ġdis h
Ġsam pling
Ĥ ¬
V er
Ġte as
Ġindust rial
b urg
he x
Ġth r
Ġinv ariant
rit er
Ġimpro ving
Ġcomplex ity
inf inity
Ġbul k
ĠAng eles
Ġdisc ipl
}_ \
Ġturn ing
Ġben ch
Ġmagn itude
Ġs elling
Ġ1 15
Ġcan n
200 5
Ġbeh alf
opl us
d l
og g
ĠEn ter
Ġdatas et
W S
Ġw ed
ĠO lymp
sh ot
Ġperform ing
Ġprof iles
Ġopp osed
ĠJack son
M ark
U nder
p ress
Ġcomfort able
Ġ Ã©
oc ard
Ġch icken
Ġsepar ation
ĠSpec ial
Ġ\ ;
ĠV iet
sh ould
NA ME
c am
Î º
ĠH en
Ġcomp aring
', '
Ġserious ly
W idget
m ake
ĠB E
Ġgen u
Ġbring ing
Ġexplicit ly
Ġcogn itive
= {
F D
el a
un icip
Ġdo ctors
"} ),
Ġparticip ation
Ġquant ity
Le ft
Ġsurpr ising
Prov ider
E ng
Ġf urn
ĠS wed
00 8
ĠJ ac
Ġ8 7
Ġaccom mod
Ġsufficient ly
Ġcoe fficients
Ġencoura ge
Ġmet all
ĠPak istan
W H
t ml
ĠM ike
ru p
ail able
Ġequ ally
c ache
Î ³
Ġo kay
Ġinst ances
ym b
rop y
ĠMex ico
B V
t wo
ĠI r
ur se
ĠE st
Ġread er
Ġfore st
Ġprec isely
Ġcapt ure
Config uration
( _
W ork
æ ĺ
le ctions
ĠI g
ĠC ase
Ġwhere in
Ġdom ains
------------ --
Par am
ĠB ow
ear ing
Ġbu g
EX T
Ġadj acent
w ait
il ib
Ġass ist
Ġdist urb
Ġperiod s
Y P
Ġph r
Ġwrit er
Ġconsec utive
; </
Ġres c
Ġwhe never
Ġqu ad
) ),
0 20
n c
p erson
Ġm apping
ct al
ad i
Col umn
ĠPr ime
N R
ed ia
Ġgu id
Ġactiv ated
Ġmult ip
Ġmut ation
D oes
Ġg od
ĠD oes
O nce
Ġob j
ex ample
Ġelect ed
He y
Ġbatter y
Ġre ly
ĠC EO
Ġ1 12
ĠF ROM
> \
m ut
Ġb in
ag an
Ġext reme
ĠRe al
A c
D ev
b ottom
Ġne u
Ġref erences
Ġ** (
Ġaw ait
Ġstim ulation
D id
L ocation
om ething
id ad
pl an
Ġar my
Ġsign ature
Ġfam ous
Ġcr imes
AM E
Ġres olve
Ġveh icles
H is
Ġ ..
th read
s uch
ĠS ource
ĠM ake
ĠN FL
Ġsh op
"} ](
ĠĠĠĠĠĠĠĠĠĠĠĠĠĠĠĠĠĠĠĠĠĠĠĠ ĠĠĠĠĠ
Ġtarget ed
Ġyes terday
Ġc ited
Ġg all
Ġ" (
Ġsc r
EN SE
0000 00
Ġsurpr ise
G ood
Ġp el
Ġcheck ed
Ġintrodu ction
w hen
Ġab dom
ĠIn it
Ġdis pl
ins on
Ġaut hent
IG HT
an ol
Ġth rows
ĠB usiness
ĠCom mand
ĠStud ies
C ar
Ġin clusion
ĠC ou
um es
ĠV ari
is ition
Ġprov ider
cond ition
Ġpen alty
N av
al i
ĠT op
rib le
Ġsub s
Ġbo ost
Ġcirc le
Ġcompre hensive
ell ar
Ġbu ying
Cont ainer
Ġdire ctions
Ġlip id
omorph ic
ogene ous
Ġs ister
Ġleg it
Ġmass es
ĠTechn ology
it o
ans as
ĠBrit ain
Ġw ound
ob uf
des cription
gy pt
w est
act ic
bl ing
Ġsus cept
Ġb read
Ġd rain
Ġ6 00
ĠĠĠĠĠĠĠĠĠĠĠĠĠĠĠĠĠĠĠĠĠĠĠĠĠĠĠĠĠĠĠĠĠĠĠĠĠĠĠĠĠĠĠĠĠĠĠĠĠĠĠĠĠĠĠĠĠĠĠĠĠĠĠĠĠĠĠĠĠĠĠĠĠĠĠĠĠĠĠĠĠĠĠĠĠĠĠĠĠĠĠĠĠĠĠĠĠĠĠĠĠĠĠĠĠĠĠĠĠĠĠĠĠĠĠĠĠĠĠĠĠĠĠĠĠĠĠĠ ĠĠĠĠĠĠĠĠĠĠĠĠĠĠĠĠĠĠĠĠĠĠĠĠĠĠĠĠĠĠĠĠĠĠĠĠĠĠĠĠĠĠĠĠĠĠĠĠĠĠĠĠĠĠĠĠĠĠĠĠĠĠĠĠĠĠĠĠĠĠĠĠĠĠĠĠĠĠĠĠĠĠĠĠĠĠĠĠĠĠĠĠĠĠĠĠĠĠĠĠĠĠĠĠĠĠĠĠĠĠĠĠĠĠĠĠĠĠĠĠĠĠĠĠĠĠĠĠ
> ,
Ġvari ations
ann er
anc he
! âĢĿ
å Ĳ
Ġh olid
ace ut
IL ITY
Ġver ify
or se
ure au
ĠCon f
Ġvir al
Ġtw enty
Ġw ine
ĠL ink
Ġhere in
Ġes oph
Ġrese ction
ĠNet work
Ġmix ing
Ġs ulf
ut en
âĢ ħ
Ġv ascular
Ġindu ce
Ġinval id
T otal
Ġn g
Ġex it
Ġj son
Ġcre am
not e
rem ove
Ġimprove ments
Ġnat urally
Ġpartners hip
d ouble
Ġo k
ĠR ights
Ġpl enty
so f
Ex ternal
On ly
Ġconsum ers
et ts
Ġn amely
est in
pl us
Ġ{ {
Ġgo ogle
Ġcorre ction
f inal
Ġs ad
Ġb ridge
Ġit er
Ġab and
ĠMan agement
Ġclust ers
Att ribute
scrib e
w orld
in ction
Ġ1 30
ell ate
Ġmat rices
S creen
r ical
ĠM D
Ġclass ic
Ġfat ty
Ġfif th
p ers
on ential
il a
Ġy ellow
ĠN umber
ĠFor ce
Ġmeas uring
Ġtechn ologies
Ġapart ment
& =&
Ġ$ -
Ġres erved
Ġ8 6
Ġtrans plant
Ġ9 2
Ġent re
IT ION
medi ated
Ġcarcin oma
Ñ ĭ
es ome
Ġ$ [
Ġ$ |
ĠR am
ĠE vent
Ġsm oking
)) /(
Ġm align
de c
Ġprov en
reg ulation
Ã¡ s
Ġarbit rary
Ġrob ust
E v
Ġt ou
Ġw estern
is er
ĠB rad
ĠE nt
Ġun em
erg ies
------------ -
Ġrespond ed
Ġcommit ment
O p
W AR
ad or
ac iÃ³n
Ġch amber
Ġtra ce
mon ary
Ġcare ful
Ġaware ness
U RE
n an
Ġt ang
er ly
ĠR ight
Ġcl ot
Ġredu ces
;\ ;\
Ġdomin ant
Ġs oci
ol i
ĠC u
Ġco ffee
ĠÃ ł
Ġrestaur ant
C F
Ġp apers
Ġl ift
Ġg arden
ĠE th
ĠU V
ific ate
Ġhead s
Int eger
Ġextra ction
T ab
a ft
-------- ---
Ġ19 93
Ġ9 3
Ġind irect
Ġhealth care
Ġphys ics
Ġload ed
Ġelectro de
Ġchalleng ing
P ref
x b
om an
Ġch lor
Ġdis ability
Ġatt ribute
Ġbar rier
S ection
Ġthere of
ĠV ict
Ġgreat ly
Ġsurpr ised
M M
c b
il ation
olog ically
the re
ann a
Ġst aining
ag ers
Ġrem ind
Ġshe l
Ã© s
Ġbuild ings
ĠOr der
Ġcop ies
s pe
Ġt aught
ĠC apt
ĠL i
Ġhas n
12 7
Ġscal ar
lik ely
P a
o vers
A SE
S ch
k t
Ġw al
ĠP S
Ġla unched
ĠIll inois
Ġsuc ceed
Ġal ive
Ġ" #
ĠE D
ĠSt art
pi racy
Ġpharm ac
1 000
8 00
re q
on ing
Ġpl ug
Ġcap s
Se cond
na ire
Ġconven ient
< ?
ĠM iddle
Ġint ake
min us
ymmet ric
Ġw elcome
Ġre ward
Ġal b
}} }$
Ġbl ind
Ġmin ister
ĠRes p
Ġl osing
ĠB it
ĠE ll
Ġ8 1
ĠWil son
, $$
C ore
D raw
H C
l ay
Ġh orm
ĠB efore
Ġ& =&
Ġhand ling
Ġarg s
epend ent
q quad
Ġn erve
Ġst abil
os omes
Ġcol ors
r ink
Ġt ack
ult ural
Ġbo ys
Ġcut s
Ġteac hers
N on
ak s
Ġpres ents
aw n
Ġins ulin
Ġant icip
ĠAg ain
ĠN at
Ġk ernel
ple x
13 0
Ġbring s
Ġcover ing
Ġhydro gen
Ġsav ed
Ġmetabol ism
b ro
t mp
ĠR T
av ed
Ġgover ning
Ġreve al
Hand le
Ġthick ness
) {\
A ST
T ool
f amily
Ġp our
Ġdec ay
Ġreview s
Ġphil osoph
: =
ut ch
ĠL ine
te in
form ed
ne um
ii i
Ser ver
C ustom
Ġc razy
Ġe ast
ĠL O
Ġval ve
empt y
Ġhistor ical
Ġs ou
Ġst ood
Ġex haust
Ġ} )
ĠAs ian
m aster
u h
Ġw inter
Ġ1 80
ĠJ im
EN C
Ġhard ware
Ġdiv ide
iction ary
Ġc ache
Ġl b
ĠB Y
Ġref ers
ĠCon st
Ġb anks
Ġd ump
âĢ ¯
Ġon set
Ġme al
Ġun us
Ġfil ing
ĠC urrent
Ġpart ially
Ġsc ored
IG N
Ġthe ories
Ġis land
ĠB ook
)$ $
Ġmarket ing
. /
ch or
ex ists
a ired
d iff
Ġ( (-
ĠM iller
and o
Ġcont rad
Ġunder t
Ġser ial
Ġfew er
Ġadministr ative
T HE
Ġd inner
ĠF ar
Ġsupp ress
for ward
Ġbank ruptcy
ĠP L
Ġsome where
vious ly
Ġbas ket
ĠBl ue
no on
Ġcalc ium
Ġvul ner
ĠVirgin ia
f ol
f ire
Ġo mitted
et he
Ġn arr
Ġby tes
}\ \
Ġover ride
Ġexec uted
hold er
Ġwat ched
Ġre venue
min ent
ĠSp ace
lo op
Ġs ed
ch arg
Ġwe aring
Ġfl ight
Ch ange
ĠEn ergy
b ool
Ġf er
ĠC ustom
Ġde position
ĠH ig
01 1
Ġany more
Ġprof it
ĠHT ML
m o
ĠN Y
Ġsimult aneously
) |
st op
ĠS L
Ġbe ar
ĠC ivil
). $$
Ġexec ution
ĠCommun ity
Ġsemicon ductor
2 16
Ð ¼
ĠP age
Ġmatch ing
Ġnumer ical
Ġf el
Ġor b
ĠF unction
01 4
Ċĉ ĠĠĠ
fr ont
ĠGl obal
C G
H igh
Ġprior ity
T em
y cl
in v
ĠT own
og ether
Ġrece iver
Ġconserv ative
Ġteac her
aceut ical
ĠU ser
Ġaccom pan
prot obuf
M enu
ĠP etition
Ġf ed
Ġim per
Ġexpand ed
omorph ism
Ġteas po
n m
Ġb its
ud io
cont ainer
App lication
Ġbound ed
L ong
m ate
Ġm M
ĠSy ria
Ġseed s
@ {
i atric
âĶĢâĶĢâĶĢâĶĢâĶĢâĶĢâĶĢâĶĢâĶĢâĶĢâĶĢâĶĢâĶĢâĶĢâĶĢâĶĢ âĶĢâĶĢâĶĢâĶĢâĶĢâĶĢâĶĢâĶĢâĶĢâĶĢâĶĢâĶĢâĶĢâĶĢâĶĢâĶĢ
. (
N P
u an
Ġinter vals
Ġserv es
Ġsepar ately
Ġperipher al
Ġe c
Ġfor t
oc us
01 2
Ġvari ance
al d
ist ical
P K
U ID
n i
} "
ĠT oday
ce an
ra ce
Ġ\ "
ĠN ext
Ġpass ion
Ġfr ust
Ġcomput ation
ÂłÂłÂłÂł ÂłÂłÂłÂł
on a
im ents
em ic
Ġper mitted
Ġpe er
ins ic
Ġdecre ases
Ġmi RNA
Ġri ver
P ort
ir ms
Ġne utr
Ġd ust
ĠS aud
Ġy ards
ĠM ount
Ġ< -
Ġloc ally
âĶĢâĶĢâĶĢâĶĢ âĶĢâĶĢ
Ġsus pend
Ġstri p
Exp and
ĠAustral ian
L Y
ĠM ajor
Ġne ural
rit is
unt ime
ĠĠĠĠĠĠĠĠĠĠĠĠĠĠĠĠĠĠĠĠĠĠĠĠ ĠĠĠĠ
Ġwitness es
Ġp itch
Ġpl ur
), \
ĠTe am
Ġpresident ial
ĠDav is
2 50
B U
f i
on ut
Ġres olved
Ġsub stit
ON E
ĠPro fess
âĶĢâĶĢâĶĢâĶĢâĶĢâĶĢâĶĢâĶĢ âĶĢâĶĢâĶĢâĶĢâĶĢâĶĢ
Ġwindow s
ilib rium
. \[[@
/ _
w indow
å ħ
Ġf ulf
ĠR et
Ġad mission
ps on
ins ert
Ġwall s
Ġp roud
ian a
och ond
Ġunivers al
M art
l ook
ect ors
ĠH R
Ġun e
OC K
Ġinsu fficient
u zz
on ia
ĠC ro
ĠB est
Ġ< !--
ang ular
Ġ10 2
Ġfl our
Ġdev iation
INT ER
at son
ĠR od
ast y
Ġresid ual
Ġrestrict ions
HO UT
B o
R ow
Ġt ab
Ġf ake
Ġ10 5
Ġsupp ose
ĠLet t
Ġtablespo ons
r ator
ĠF re
au g
par ams
Ġmat ches
IC ENSE
He ight
sl c
l b
Ġj et
Ġdi ver
over ty
Ġche ese
Ġinhib itors
Ġkin ase
s we
z y
01 6
Ġmov ies
Ġport ions
D uring
Ġ icon
Ġl attice
Ġg ay
ĠU k
Ġpre lim
19 98
\_ [
Ġoccur rence
Ġlif etime
N ames
V P
en ger
Ġp ushed
ch anged
Ġpro spective
ĠW omen
ag onal
Ġsub group
Ġche ap
Ġcontin uing
Ġinvest ors
âĸĶâĸĶ âĸĶâĸĶ
Ġguarant ee
Ġsched uled
Ġjour ney
G raph
** .
St r
Ġsim ulations
Ġcent ers
N um
ur i
ult y
12 3
ier arch
ĠSp ain
ĠChrist mas
ĠIm age
Ġadjust ed
l at
w ill
ent h
Ġg ather
ne cess
neg ative
C HECK
N ULL
r in
ĠE lect
Ġ0 4
Th read
Ġgalax ies
Ġphenomen on
x sd
Ġm l
ĠF M
ĠJ r
Ġint estinal
Ġpregn ancy
ĠP ay
ĠD ig
Ġcomp osed
ced ent
Ġimp air
Ġbelie ves
Ġlik elihood
comple te
ĠGeorg ia
S w
Ġf ired
Ġcom o
Ġtalk ed
' }
F urther
S earch
Ġfor um
ĠB ob
Ġbl ank
ĠEng ine
Ġtele phone
ĠAdminist ration
v i
ill ance
ĠE s
are t
Ġembod iment
Ġuncertain ty
Ġt rib
ĠC hem
Ġ1 14
ĠR ock
Ġsh ares
Ġinf inite
Ġgre w
Ġmist ake
n l
st one
ĠL ake
Ġun clear
Ġke ys
fra id
Ġupd ates
Ġrespir atory
G D
N E
o pp
ĠC ur
iv a
und le
Ġge ometry
æ Ī
ĠK n
Ġver tex
Ġsuff er
D IR
Ġre com
ĠL ocal
Ġint ellect
we ek
ĠÂ Ĺ
ĠCol l
Ġcomplet ion
Ġcrow d
Ġthor ough
f d
Ġh ol
Ġdes cript
ex port
Ġdi verse
Ġeduc ational
Ġmetast asis
ĠCorpor ation
b led
Ġthe rap
Ġth inks
end ix
Ġch olesterol
ry ing
ry st
low er
10 2
10 8
Ġcons piracy
12 9
Ġprevent ion
ĠE gypt
Ġd b
Ġu pload
pl ot
ĠJ oe
ang ers
Ġcre w
Ġocc as
Ġcontract s
}. $$
ur able
Ġdecl are
Ġalleg ations
T op
h space
Ġc ro
al ities
Ġf ing
Ġde ploy
Ġ& =
Ġexpect ations
Ġtal ks
E ach
U sing
Ġtim ing
S um
m aking
t otal
Ġin her
ial s
am matory
Ġafter noon
11 1
Ġelse where
Ġvalid ity
l ate
ĠS QL
Ġad vent
Ġ19 91
Ġmod ul
rop ri
Ġabs orption
Ġmach ines
Ġflex ible
d ig
m olecules
u ce
w art
at abase
ious ly
Ġmark er
Ġhospit als
x ff
ĠD am
R un
t ed
Ġd ialog
ĠT al
ĠM a
}} )
Ġdef ines
iss ions
ĠSe b
Ġspect ral
Ġpack et
A E
Ġ ^{
Ġo s
Ġsome how
the y
Ġfail ing
Ġspecific ity
Ġsett lement
ĠCons ider
ĠChar les
f ull
Ġsymmet ric
Equ al
re ason
Ġb omb
et ry
ig inal
Ġ( $\
se x
ĠG M
ĠE ff
Ġover w
Ġcol i
S ign
Ġw est
ĠR est
ĠG ar
Ġincorpor ated
C ache
u ct
01 0
Ġinf rastructure
ĠRes ults
Ġorgan ized
ĠAf ghan
Ġrecommend ations
_ +
Ñ Į
Ġ }\
Ġf ly
et ies
Ġrev olution
u its
pro file
aw s
Ġac et
eng ine
Ġfac ed
su ccess
d oor
Ï Ģ
in n
st ra
ĠI BD
Ġperson nel
Ġquant itative
leq slant
Ġmaint aining
Ġcollect ive
G P
J ohn
f ound
u z
Ġb at
ĠDef endants
ĠRom an
Ġarchitect ure
Ġa fraid
ic ul
ĠH y
Ġrec ruit
off s
------------ ---
Ġadminist ered
Ġsust ained
p res
} ]
ĠW ater
Ġad hes
sc ape
F ree
ĠC onse
ĠP ers
ĠAg reement
names pace
u ction
Ġmod ification
Ġir re
Ġpert urb
v y
è ¿
et ary
ac er
Ġprov iders
Ġfeel ings
Ġpromot er
Ġrestrict ion
Ġul tr
Ġvess el
S V
ĠM ic
ĠF amily
ĠE p
age al
ard ing
Ġdiff usion
ucle ar
Ġnear by
Ġdisp ute
er k
ad er
Ġphys icians
ĠSc iences
ĠPac ific
T M
e h
Ġ1 19
op rote
Ġinf ected
Ġderiv atives
O UR
c opy
p ad
Ġt ape
ple te
rac le
Ġflu ct
ãĢ ģ
Ġadvant ages
Ġcon clusions
ist ence
}} (\
Ġpart ition
Ġanal yt
year s
Ref erence
c anc
Ġto ken
ĠH E
IL L
Ġcontroll ing
Ġ"" "
Ġs ight
Ġinf inity
Pro t
ubl ished
Ġload ing
Ġhon or
Ġthous and
P i
d slc
m ol
er ated
Ġexp enses
ari ju
Ġoper ated
Ġlaw yer
Ġtop ological
irt ual
Ġc odes
Ġh yd
ĠT aylor
ĠN ov
ĠUn ivers
put ation
Ġconv icted
ĠDes cription
Ġfeed ing
ariju ana
å Ń
Ġco ast
Ġrem and
Ġ&& &&
æ ĸ
ĠT urn
Ġ1 13
ĠJ on
Ġloss es
Ġsch olars
f ill
Ġshould er
g athered
Ã º
ĠC ross
Ġatt ributes
Ġgener ic
Ġperson ally
leg ate
ĠRep resent
avel ength
S QL
he rence
St at
Ġgener ating
ĠWIT HOUT
ac ity
Ġsh arp
Ġwhe el
Ġadd s
Ġco inc
ox ide
Ġprelim inary
w all
Ġch ip
icro soft
Ġavail ability
wh ite
Ġur ban
Ġign ore
Ġpul se
Ġconvert ed
f act
Ñ ı
erg ic
Ġread ers
Ġbo at
ĠAcadem y
H D
O B
~ ,
Ġre ar
Ġbro ke
pre c
ĠCent re
Des cription
Ġpancre atic
Ã ¢
Ġf ruits
ĠE rror
Ġche cks
Ġclean ing
ĠS W
ĠC ast
ad el
Ġwork er
Ġro se
Ex ec
Ġrepresent ations
ĠPol icy
Ġrul ed
im ation
ĠA C
Ġcon ce
ĠB an
Ġcur rency
ĠPro position
Ġdiv isor
Ġcompr ises
Ġut ility
ĠJose ph
r ont
ĠB as
Ġun likely
ĠOffic er
s ip
as ive
am ic
Ġun iverse
Ġpredict ive
~~~~ ~~~~
Ġadvert ising
T V
_ [
o op
Ġbe er
ow ed
th rough
}} }\
St ore
Ġmed i
yl van
ĠAnd roid
ĠCh apter
Ġend othelial
Ġpar agraph
Ġreason ably
Ġstring s
Ġconsist ing
ĠMr s
Ġdu plic
Ġscient ists
Ġgovern ments
T ypes
im ages
ĠT em
Ġconf lic
Ġremov ing
Ġinstit ution
KP X
t ons
Ġse al
ĊĠĠĠĠ ĊĠĠĠ
Ġbus y
ĠFrancis co
i est
Ċ ĊĠĠĠĠĠĠĠĠĠĠĠĠĠĠĠ
he ast
Ġat oms
ĠL I
Ġcont ra
Ġent ering
put ed
d agger
Ġwere n
ov ing
ad vant
Ġal ign
ath an
Ġprot est
Ġanalyz e
Ġhar mon
Ġrough ly
R ad
V ari
Ġf ibr
ro cy
Ġg ram
ul ative
ĠR yan
Ġconsider able
Ġmar ks
Ġowners hip
Head er
Ġse asons
Ġtr ick
ann ot
Le vel
associ ated
] "
ot ion
ĠB ra
ĠH ot
ore ctal
y nt
â Ħ
ou ston
aut h
Ġsw im
Ġbenef icial
Ġappe als
ĠKing dom
ĠStand ard
V C
est yle
Ġ19 70
olog ist
Ġevery where
az e
Ġcomput ing
Ġchem otherapy
Ġclos ing
Ġbow el
ĠSeb astian
n ament
s ite
Ġb ran
ĠS ix
em a
ĠPh arm
Ġqual ified
Ã ±
Ġt unnel
Ġc yl
Ġg ut
ir y
Ġr ural
Ġcl imb
par se
Ġfound ation
ĠAd v
Ġtom orrow
Ġb atch
Ġr ide
Ġover come
Ġtra ject
Ġsk y
miss ible
Ġbroad cast
c us
Ġ ethyl
ac le
ĠSt an
11 6
00000000 00000000
4 50
D M
in ating
ĠC ook
Ġ19 88
Ġfl avor
ibr aries
Ġcontact s
Ġimm ig
è ¯
am ond
em s
ĠW is
Ġsub mit
O O
R A
p red
Ġs ending
Ġw aves
Ġin cons
ĠVal ley
Ġcapt ured
Ġs now
ĠT otal
ow nt
end a
Ġass ignment
ĠApp lication
Ġdiscuss ions
Ġcardi ovascular
ur ations
Ġv ice
Ġ10 4
Ġconstit ute
Exp ression
Ġ rom
Ġst orm
Ġr ice
Ġte en
Ġjud icial
Val id
Ġregular ly
Ġuns igned
N T
ens ities
Ġev il
Ġfe as
Ġtri v
IM E
Ġdisapp oint
\ >
Ġ ).
Ġc able
Ġl ists
ĠC ru
ĠM id
erv ing
Ġprocess ed
ĠĠĠĠĠĠĠĠĠĠĠĠĠĠĠĠĠĠĠĠĠĠĠĠ ĠĠĠĠĠĠĠ
Ġlater al
Ġresid ues
g ame
Ġt ips
re ll
ir ation
ĠO pt
}} ^{\
ãģ Ħ
Ġimplic ations
Ġincub ated
h ard
Ġw ww
Ġf uck
ĠL ab
ON T
Ġent ries
Ġexpl ains
ĠSte ve
Ġdrink ing
Ġplur ality
L P
Ġse arc
Ġun con
Pro duct
Ġsynt hes
Ġbeaut y
Ġvess els
ou red
Ġh ur
Ġre aching
ime q
we alth
su per
ĠLin ux
Ġ_, _
; ">
Ġn erv
ĠCh ris
ĠCon ference
Ġprec ision
Ġaward ed
Ġweap on
Ġpil ot
+ ^
L D
P ass
t n
Ġc av
Ġh at
ail ing
sc ope
A K
Ġt iny
ĠU I
Ġpres erve
ns ylvan
back ground
Ġtarget ing
Ġdoct rine
R P
v ision
Ġb on
00 9
ĠP K
ĠL td
red it
Th us
Ġview ed
Ġsequ encing
Ġhab it
Ġorient ation
' ],
F OR
^ ^
g mail
Ġun w
Ġag ric
Ġconsist ently
Ġprosec ution
g roups
u v
Ġex clusive
end or
ĠL ow
ub y
Ġar med
Ġke eps
Ġpass es
Ġopin ions
inst all
Ġepis odes
Ġsudden ly
] -
w ho
Ġar c
ERR OR
l an
Ġg astro
Ġr ising
Ġass ays
Ġpe pper
Ġpost erior
Ġcult ures
lo at
h av
r itten
Ġas semb
Ġr u
10 4
Ġref rig
Ġvari ants
def ined
ĠCont in
c ategory
â ī
on ical
Ġf older
ĠT ok
ĠW hether
Ġle mon
Ġme re
Ġphys ician
Ġfac es
s imeq
Ļ ª
ĠS her
ric ular
Ġpar ad
supp ort
Ġphosphory lation
l ined
in os
es see
st ic
Ġ1 17
Ġcompet ing
* ]{},
Ġt ensor
ot yp
se ason
Ġab ortion
Ġ+ /-
com mun
Ġden ial
back s
fl oor
Ġexpress ions
Ġinn oc
Ġarter y
oc ols
ĠD ou
ĠN BA
iz z
ep ing
Ġtra ding
Ġmole cule
EX PECT
Ġcolle agues
role um
F M
ig m
ra ined
ant e
ĠF ollowing
Ġsh ips
Ġinter ventions
ST AT
Ġsatisf ies
under line
AV E
Ġelig ible
ĠW alk
hand le
Ġexhib it
ĠAp ache
nsylvan ia
Ġs essions
ke ys
ont o
Ġsim ilarly
let on
Ġviol ent
ĠÐ ¿
Add ress
Ġdemand s
Ġacqu isition
Ġhous es
Ġalleged ly
Ġdismiss ed
Ġaccum ulation
pie ce
Ġrecur rence
Ġreturn ing
Ġmove ments
Ġmut ant
ĠVal ue
Ġdegrad ation
M o
Ġ à¤
Ġm ock
ol ver
Ġinter ior
ov es
Ġfl ood
app ly
over n
Ġcompet itive
Ġalgorith ms
ĠFin ancial
E valuate
en v
or ial
Ġre ven
01 5
text bf
Ġmed ication
enn a
Ġnucle us
Ġvot es
Ġkid ney
à ¥
Ġ ----------------------------------------------------------------
Ġf illing
im p
ĠS at
ĠS outhern
em an
Ġcl ause
Ġpr on
ĠConse qu
ĠT ri
ĠT ake
Ġy e
ub le
10 3
Ġprodu ces
ĠTr ue
Ġpred omin
Ġliter ally
zon a
Ġscatter ing
I AL
Ġd ates
Ġ19 89
ĠAnd rew
Ġcryst all
O kay
Ġst up
Ġtra ct
Ġmonth ly
Ġcomb ine
ĠMin istry
Ġgrad ient
Ġ1 60
cl ip
}} $,
Ġhop ing
deg ree
Ġs oul
Ġc ord
Ġl ayout
id x
Ġg ang
ĠC amb
Ġde cent
ĠG i
Ġpolit icians
Ġcomplex es
Ġsold iers
Ġvill age
es ity
ut ies
Ġhe ating
() ->
ĠCl inical
Set tings
Ġsyn chron
u cl
{ $
Ġd ress
Ġh am
ve x
ad ium
os ity
Ġsystem atic
ĠAnd erson
doc s
Ġgalax y
n pm
Ġw avelength
ĠD own
Ġch ocolate
Ġsp ons
angu ages
field s
< !--
s ys
Ġf usion
ĠT er
ant i
pt on
Ġar ise
)) /
Ġvac uum
M B
Ġw et
ĠM ap
Ġnot ion
ĠR un
ob ic
10 6
Ġevery body
W R
w an
ĠC ond
th m
AP I
Ġspirit ual
Ġabund ance
Ġhoriz ontal
C s
D oc
O UT
ion ed
ĠM ain
Ġj oy
Ġen ables
ĠUn it
to ol
Ġconf ront
Ġmax im
Ġvalid ation
Ġimpl ant
Ġer red
Ġprosec utor
Ġwire less
ĠCre ate
Ġp as
ock er
Ġstrugg le
ĠNever theless
D ialog
J son
en za
Ġc oding
Ġcol our
reg ular
Ġpath s
Ġlegisl ative
Ġsole ly
" ))
Ġc ust
ĠC rim
Ġde com
end o
ĠR oyal
form s
ST X
Ġvacc ine
Ġdys function
Ġepit helial
âģ Ħ
d ers
p ool
he p
il bert
ant a
Ġha z
Ġ< =
Ġrel ating
Ġra in
Ġviol ated
Ġaddress es
Ġrat ios
Ġult imate
Ġdelay ed
Ġegg s
o i
t reated
Ġ era
em ed
ĠF I
ber ries
bl ack
Ġaccept able
ĠAb out
or ia
ot ide
ict ions
Ġtop ics
Ġsens ors
Ġconstant ly
Ġinterpret ed
T arget
ow a
Ġ1 35
Ġper ceived
mpt y
hand ler
T I
m ons
Ġ ë
Ġa er
Ġin verse
pt ic
Ġoff ensive
ĠPat ent
Ġidentify ing
font s
l ayer
ro oms
Ġv ine
Ġ19 84
Ġeffect iveness
Ġcorpor ation
Ġw ake
is l
Ġal tered
ang o
================ ====
Ġpar as
Ġworld wide
ĠEx ec
Ġfall ing
Ġaffect s
Ġintegr ity
Ġcateg or
S che
m al
Ġst uck
ĠTh ank
form ance
ĠY ear
âĦ ¢
Ġcar b
Ġstudy ing
Ġequ ality
}( {\
be ing
Ġbird s
ĠSaud i
' \
b ell
s is
Ġb ounds
ic ing
ch annel
Ġsome body
Ġinter ference
ut able
Ġst om
ĠĠĠĠĠĠĠĠĠĠĠĠĠĠĠĠĠĠĠĠĠĠĠĠĠĠĠĠĠĠĠĠĠĠĠĠĠĠĠĠĠĠĠĠĠĠĠĠĠĠĠĠĠĠĠĠĠĠĠĠĠĠĠĠ ĠĠĠĠĠĠĠĠĠĠĠĠĠĠĠĠĠĠĠĠĠĠĠĠĠĠĠĠĠĠĠĠ
Ġrac ial
D ist
b ibr
e en
e lect
Ġ( @
ra ine
Ġ1 40
ĠK elly
Ġ10 8
ĠZ eal
AB ILITY
Ġmac roph
h ave
Â Ĺ
ĠA h
old ing
ĠIslam ic
itud es
~ \
Ġst one
Ġrec ru
Ġcamp us
Ġclos est
PC STX
Ġheav ily
itro gen
Me an
Ġtrend s
Ġdistingu ish
C a
l ers
in ic
Ġm arijuana
Ġle ase
Ġbl ess
Ġfluores cence
Ġs odium
ĠL ead
ph osph
vers ely
Ġdeterm in
Ġstre ets
N ET
o T
v m
ĠG rant
ari os
Ġsm ile
Ġaff ili
Ġabs ent
Ġarrange ment
Ġanc ient
b old
p matrix
er ator
ĠM u
ĠF L
=" ../
Ġaccess ible
Ġcr ash
Ġimpro per
Ġimmun ity
ili ary
Ġmount ed
Ġcompr ising
Ġpark ing
Ġstrict ly
Ġpix el
Ġveget ables
C ome
Ġu pt
Ġby te
ĠW ild
Ġad oles
Ġexp onential
Ġra pe
sc r
arc in
O X
Ġe ase
Ġhas h
Ġmod ules
Ġlabel s
infl ammatory
EXPECT ED
H as
s ession
re place
Ġw ra
Ġcon crete
erv ation
ific ial
In tern
ĠInd ex
En c
J S
b et
is cal
ia h
Ġam endment
ĠY an
11 7
Ġsur ge
Ġauthor ized
ĠSer ies
Ġengine ering
Ġsusp ected
ĠPen nsylvania
Ġhypert ension
Ġ -------
Ġnot ation
Ġle af
Ġdis advant
der ived
Ġaccompan ied
3 15
F E
er ies
en vironment
an alysis
Ġprot ective
Ġprogram ming
Ġdeb ug
Ġmeet ings
ĠTenn essee
M c
j avascript
Ġto mat
ĠP E
ĠP oint
ĠB a
ĠH on
ĠD id
Ġdis crete
rict ion
ĠCar l
ENT S
Ġang i
Ġenzym es
nut rients
en um
osc opic
riv ate
Ġvary ing
L ook
P ER
{ }^*
Ġf ranch
Ġb ands
ĠC ost
ĠB MI
Ġr anging
com ment
add ress
Ġenjoy ed
S W
Ġt urb
Ġc um
et o
Ġv ital
Ġ10 6
Ġ12 5
Ġindic ation
pre ne
cm d
Ġautom atic
P G
h ab
Ġcons ensus
Ġdest ruction
bul let
g p
Ġc ourses
ĠA ge
ĠA ction
ĠR og
ef ully
Ġep idem
Par ams
f all
l anguage
Ġn ations
ĠN F
Ġch r
cl i
ĠÐ ²
Ġodd s
Ġrevers ed
Ġfacilit ate
Ġdestroy ed
\ }$
y ers
it ations
ig ate
im pl
Ġj ail
ie ve
Ġman ual
Ġfrequ encies
Ġox ide
Ġproceed ing
Ġcoord inate
Read er
U SE
h ot
Ġ ĊĠĠĠĠĠĠĠ
Ġh ack
am ps
os omal
ord an
gen ic
Ġprofess or
Ġapprec iate
ĠChild ren
Ġclot hes
L T
em b
ĠCh ampionship
Ġlimit ation
Ġmax imal
Ġdifficult ies
Ġdraw ing
D ir
[ $
ere r
Ġsp an
Ġmit ochond
ĠConsequ ently
M ain
et ics
Ġl in
ĠD an
Ġper f
Ġsub m
AR D
Ġinvestig ations
Ġdam aged
rep resent
Ġkne e
Ġretire ment
, $
s nap
ĠP ass
Ġend ing
Ġref lected
25 6
Ġang ular
Ġfun ny
T itle
con v
Or der
\!\! \!\!
ĠD ise
og ens
ĠPlaintiff s
Ġearn ed
Ġsurve illance
S ER
ad der
og l
Ġ$\ {
ret t
ĠAn al
onym ous
Ġgenu ine
ĠZeal and
. ).
C B
o ir
as er
Ġ( %)
ater nal
Ġfib M
ament e
ĠDo ctor
Ġappoint ed
1 19
g ov
ĠM E
em ail
ĠIn f
ĊĠĠĠĠĠĠĠĠĠĠĠĠĠĠĠĠĠĠĠĠĠĠĠĠĠĠĠĠĠĠĠĠ ĠĠĠ
Ġabdom inal
D av
Ġp neum
ĠF A
Ġspec ify
Ġcheck ing
Ġnormal ized
Ġnerv ous
. ),
C ODE
D r
p gen
Ġcon dem
Ġse es
Ġag es
Ġret ain
Ġsubject ed
Ġhouse hold
ĠJew s
Ġprogn osis
Ġdisag ree
Ġtro ops
necess ary
Ð ²
en ergy
Ġb id
Ġ1 18
ĠD M
ill ary
ph ys
ap ed
Ġco vers
Ġdec or
Ġobject ion
Ġprom ising
Ġestim ation
Ġpsy chi
ĠSupp ort
H ttp
P o
d ated
ĠIt alian
ĠSc ot
Ġcy cles
Ġt un
ĠD ie
ĠN ode
Ġsh opping
Ġ10 9
Ġtra uma
tr l
Ġsw it
* (-
| ^
an al
Ġth rom
am i
Ġsc ales
Ġdes irable
Ġatt itude
Ġbre ach
SE T
Ġdesign s
View Controller
================================================================ ================================
D ig
S K
a ver
ol ine
ĠD aniel
ĠAg ency
Ġprofession als
M esh
^ )
} %
Ġh unt
ĠL ove
35 4
Sh ow
ogen ous
Ġaud io
Ġdoll ar
Ġpsych ological
Ġfav our
orne ys
ĠCapt ain
Ġunus ual
p b
olog ists
vere xp
Ġphen otype
ĠJer sey
Ġoverw hel
> .
i em
m ethyl
Ġc ake
Ġ{ @
de lete
Ġte eth
cy cl
ĠSp anish
Ġtum our
Ġsup ers
Ġrepeated ly
Ġtoler ance
b ian
c raft
Ġ1 32
if ting
ĠM ah
19 97
Col lection
Ġcreat ive
Exp ress
G RO
g it
in ator
Ġo v
ĠF ort
Ġen ergies
Ġover night
file ID
Ġelim inate
Ġcoc onut
Ġconj ug
Ġenem y
Ġatmosp here
M iss
rom agnetic
Ġdef ensive
Un ited
Ġvot ed
b ral
Ġh ierarch
ul ator
Ġal ignment
Ġsc oring
Ġ19 85
Ġput s
Ġprevent ing
Ġvot ing
s end
}} $.
Ġexpl os
Im pl
ili pp
Ent ry
! )
Ġan terior
Ġg ent
Ġcon vey
ĠWe ek
ĠSc ient
viron ments
ĠStud y
D el
M ake
Ġt one
Ġn a
ĠP rem
ĠÂ °
") );
sche ma
Ġintellect ual
F B
Ġt et
ens ing
ĠK en
================ ========
Ġhar vest
Ġpul monary
N G
u ations
ĠS A
Ġfall s
Ġlig and
ĠColumb ia
b at
c hers
æ ķ
ĠP op
Ġsc aling
Ġro oms
ole cular
Ġden otes
Ġtox ic
id al
ĠD ar
ick er
Ġfore ver
Ġlib eral
Ġinject ed
Ġexhib ited
T ube
h ire
z i
Ġde als
un ior
ĠO l
Ġph ases
Ġ10 3
14 4
Ġphys ically
Ġque ue
Ġaim s
t ree
t oken
Ġt ender
Ġp overty
ĠF C
de p
Ġrandom ly
Ġspecim ens
Ġeld erly
G rid
Ġt act
Ġb oss
Ġm unicip
ĠR A
Ġsh orter
Ġgener ator
Ġstr ange
comp onent
CH AR
clus ively
Ġutil ized
H ave
Ġc raft
Ġf ung
Ġg iant
11 8
ĠAs sembly
Ġla id
UN D
ĠMethod s
h ash
~ )
ath y
Mod ule
document class
s ample
Ġle an
Ġad mit
use um
Ġstead y
sof ia
E GF
P res
P osition
[ [
Ġp ython
le ep
Ġpro pose
ĠF BI
Back ground
%%%% %%%%
ĠR a
Ġro ots
Ġent ertain
P RE
Â ½
Ð ´
ĠF air
Ġ' '
ian o
Ġsent encing
Ġfriend ly
ĠAri zona
A nt
Ġp adding
Ġin herent
od ds
St ack
Ed itor
Ġfavor able
Ġcoun cil
im on
SE LECT
ĠEx ample
Ġsk ill
Ġincor rect
Ġinsert ed
2 10
V M
Ġ[ $
Ġdis abled
Ġind ict
ES M
Ġfoc using
W rite
00 18
ĠG R
11 5
aw ay
Ġstru ck
V I
ĠM att
Ġj s
ĠJ SON
Ġlabel ed
nes ota
Act ivity
Ġton ight
Ġcooper ation
S ing
Ġb unch
Ġh ide
ig er
ĠR ather
Ġk g
Ġte a
sh ift
H ello
he ld
ro se
ĠC OL
ap or
() {
Ġmodel ing
bl ue
ĠInt roduction
Ġcoc aine
Ġreson ance
Ġsubs id
ĠD B
ĠD ri
Ġatt ributed
pos itory
ĊĠĠĠĠĠĠĠĠĠĠĠĠĠĠĠĠ ĠĠĠĠĠĠĠĠĠ
Ġgr ass
Ġoccur ring
pat ient
eff ective
="../../ ../../
I ter
u id
ĠE astern
Th ree
Ġlaws uit
Cre ated
Ġphr ase
l ot
Ġab stract
Ġsystem ic
Ġobt aining
ask a
Ġaffect ing
Ġinsp ired
Ġtempor al
Ã ª
at ile
Ġf its
Ġb att
ol ving
Ġy eah
Ġcl amp
ph ant
25 5
]{} ]{}
Ġtext ure
Ġsil ver
ĠWARR ANT
n n
an es
Ġcon cur
est ival
ĠB al
end ers
Ġdescrib ing
Ġlight s
aps ed
omet er
Ġfing ers
r ust
Ġm amm
Ġd uties
Ġst ations
13 7
Ġprocess or
Ed it
Ġdeep ly
wid get
ï½ ¡
h om
Ġ0 1
ĠK enn
Ġra rely
ĠPro cess
abl ing
Ġproject ion
Ġaccur ately
Ġmort gage
0 50
c ustom
ĠN A
19 96
Ġind ices
ĊĠĠĠĠĠĠĠĠĠĠĠĠĠĠĠĠ ĠĠĠĠ
vent h
ĠCom put
Ġdefinition s
T ree
er as
Ġ( '
ox ia
Ġfact ory
ĠPl ace
Ġexec ute
ĠWARRANT IES
on om
ĠR ound
Ġres ist
Ġatt ended
ĠUn fortunately
Ġfl ash
Ġant igen
att ribute
Ġtransition s
re nd
Ġpro minent
ab stract
Ġ\ +
ĠD R
Ġpar se
Ġdon or
ĠĠĠĠĠĠĠĠĠĠĠĠĠĠĠĠĠĠĠĠĠĠĠĠ ĠĠĠĠĠĠ
Ġhard ly
Ġmulti plic
W D
i otic
el ing
qu es
Ġsm oke
Ġ: :
á »
Ġ ell
Ġg ained
ĠM C
Ġle uk
ĠTh ird
Ġvari ant
Ġins ight
Ġsal ary
script ion
Ġacknow ledge
Ġtriv ial
Z E
b order
h our
im mun
ac on
Ġref uge
Ġpan els
ar ma
ro it
Ph one
Ġles ion
ĠIsrael i
S ur
d ays
~ *
Ġrec overed
ĠSer ver
Ġnewsp aper
, {\
b ecause
ĠP sy
Ġro of
ĠSpec ifically
Ġmanufacture r
i y
Ġh ipp
oc key
Ġsh ots
ref erence
7 00
m ay
am d
iz able
Ex pr
Ġexpect ation
ĠTH IS
Ġign ored
Ġbiops y
D H
f in
m ac
ul er
Ġdevelop ers
Ġread ily
Ġphot ograph
roph y
gra v
ĠS af
ph asis
Ġact or
Ġant agon
Ġmus cles
CL UD
Ent ity
> ();
ĠS everal
ĠF if
Ġtrack ing
Aut hor
N M
b ind
Ġin cent
ĠC F
ĠM en
ĠH or
ak i
10 9
fig ure
ĠÂ »
by te
col l
ãĥ ³
Ġcorrel ations
Ġarr anged
T G
Ġb arg
Ġd ip
Ġh ang
res ource
ĠN AS
ph al
Ġam ended
Ġpolym orph
Ġc od
Ġelectr ons
. *]{}
il ly
ĠH ay
int estinal
Ġtransport ation
A ccess
un ter
ĠL im
Ġpl ates
Ġ+ \
ose x
ob acter
Ġanal yst
CR E
Ġfib ers
Ġ ,\
Ġc u
ĠT ax
Ġhe p
Ġun like
ĊĊ ĊĊĊ
Ġem pir
ĠPro duct
Ġart ist
ĠPal estin
ĠPetition er
b inding
č ĊĠĠĠĠ
Ġf itness
Ġan swe
Ġcan cel
ĠĠĠĠĠĠĠĠĠĠĠĠĠĠĠĠĠĠĠĠĠĠĠĠĠĠĠĠĠĠĠĠ Ġ
Ġar th
Ġvis its
Ġanswe red
g rid
w orth
Ï ģ
Ġt all
ĠI re
Ġ\ #
op a
ĠE C
Ġdis rupt
Ġ12 8
Ġcomb at
Ġsympt om
|| ||
Ġregist ration
Ġattract ive
Ġslic es
l arge
r ank
Ġp m
et erm
Ġse gments
ĠE L
Ġgr ate
Ġsearch ing
ĠPol it
Ġsn ap
Ġpeak s
Ġth ro
_{ -
Ġchild hood
lu x
Ġcomb inations
ĠDes ign
frame work
ĠCommon wealth
0 45
H i
{ $\
or ous
ar se
Ġ1 34
Ġpro xim
ĠH istory
ĠO p
Ġdo ors
Ġkn ife
sh ort
Ġinstall ation
Ġhop es
F ont
č Ċĉĉĉĉ
Ġde hyd
ĠTh om
Ġph ones
Ġadapt ed
ĠM it
ĠB ell
Ġno body
Ġden ying
d rop
f ake
s ave
Ġre con
op rop
ĠD ifferent
ĠN orthern
ph y
Ġexc iting
ĠGu ard
Ġillust rated
Ġs aving
ou ter
ĠP I
Ġhad n
Ġtrans parent
ick ing
Ġconst ants
Ġpublic ly
24 0
mb fa
Ġdecl ined
Ġsat ell
ĠEn vironment
Ġdest ination
ä¸ Ģ
Ġw ing
ĠH ard
Ġk il
ĠTh ough
In s
Ġsize of
Ġcho osing
hold ers
@ "
E mpty
Ġ ip
on i
ile y
}} }}
Ġ19 83
app y
Ġ! [
Ġreflect s
Us ers
h n
Ġin line
ĠT NF
ĠA z
ĠR ow
ial ize
ack s
ĠTh rough
lic enses
Ġdi pl
ĠRe act
Ġcomput ers
Ġblock ed
Ġisol ation
Ġprogress ive
Equ als
ĠHen ry
ì Ŀ
Ġl unch
Ġ$ .
ĠV AL
Ġreg ulated
Ġequ ilibrium
Ã© e
Val ues
ocr atic
MA X
Ġdesc ending
Ġrend ered
d est
ĠRel ations
O pt
b ionic
h uman
Ġd os
Ġd ownt
Ġl ap
ly wood
ĠC ub
Ġ" /
Ġper missions
ire ction
Ġmin i
OR Y
Ġvis ited
Ġsusp ension
Ġsuppl ied
Ġshap es
- *
ĠD ue
ĠG reek
ĠE mp
Ġj unction
Ġvar ied
Ġprint ing
Ġmathemat ical
ra v
ul ent
ac et
op ed
Ġ10 7
ĠDef ense
Ġsurv ive
Ġagg ressive
Ġdiet ary
Ġmel an
Ġfro zen
Ġh its
Ġk m
Ġdifferent ly
Ġnon linear
Ġprogram me
ĠWith out
Ġswitch ing
ĠEm ploy
d p
Î ¸
al so
ĠH ave
Ċĉ Ġ
Ġbase ball
ynam ic
ĠSystem s
Ġaw esome
Ġimm igration
Ġmicrosc opy
Ġsuppl ies
Ġnarr ative
/ .
T ask
å ľ
Ġd oses
Ġn it
Ġ0 7
}} }(
Ġqu ot
Ġord in
Ġbond s
æĺ ¯
Ġstom ach
ĠM ess
Ġelectro des
Ġmag ic
t im
w x
im ental
iz ers
elf are
âĪ ŀ
ĠAd ditional
Ġbott le
Ġdispl ays
Ġunem ployment
Ġo ste
Ġc ub
Ġcomp atible
ĠInd ust
ĠIm ages
ĠQu ant
Ġconcept s
Ġfol ks
? )
U V
o a
t ar
ĠC OP
Ġpat ch
Ġreason ing
Ġinflu enced
Ġsatisf action
Ġcomplaint s
Ġstup id
d on
e ven
é Ģ
st age
Ġ1 33
Ġper ception
19 95
11 4
Par ameter
z ing
he ll
oc l
âĢĻ .
ov en
Ġra ising
St ud
Ġconf ident
Ġparticip ated
ĠIm mun
Ġtox icity
Ġwed ding
Ġguid ance
Ġbasket ball
R ule
Ġquant ities
Ġattempt ing
Ġwond ering
Ġpregn ant
Ġb ull
el son
Ġl ibraries
ĠS on
ĠP rior
Ġsp ont
pro gram
12 6
aw are
ĠHe ad
Ġblock ing
Ġund efined
word s
Ġpept ide
ĠTok yo
$ ).
B T
f g
Ġm L
Ġl ying
ĠF oot
cur sor
ĠMin nesota
Ġpromot ing
âĢĶâĢĶ âĢĶâĢĶ
ĠColor ado
B ytes
ĠB ul
ĠH a
ĠH as
ĠÂ ¶
Ġweight s
Ġinput s
Ġrandom ized
) _{
b p
Ġh tml
ĠG ames
Ġcan cers
Ġob esity
ĠPro perty
Ġcompar isons
Ġhypot hes
J an
ĠF at
ĠH ouston
ĠD ocument
ĠL ear
Ġsh ipping
act ivity
Ġtrans mitted
Ġtrans actions
13 5
min imal
Ġcult ured
conn ected
J o
b oot
d m
Ġ ions
Ġin ev
ĠT en
Ġ\ |
ĠG ene
Ġtr im
com fort
pr im
Ġbelie fs
Ġindu ces
ĠB ru
Ġ19 87
par ison
G M
p ed
in ch
Ġm esh
ir k
ge red
Ġgu est
Con f
Ġregard ed
Ġsil icon
' +
A ng
ar Xiv
Ġst ent
Ġde eper
Ġr s
og s
Ġtreat ing
ĠRes ource
dis p
Ident ifier
Ġb aking
ĠO UT
Ġres idence
13 1
Ġden oted
Ġteaspo on
T ABLE
if iers
em ale
ag ent
Ġcol orectal
Ġmembers hip
Ġwrit es
Ġang ry
Ġanalys ed
Ġmount ain
Ġlif estyle
ĠSant a
b our
Ġp ill
ĠS ud
ĠP rim
ĠG C
are a
Ġen act
ach us
Ġunder go
util s
Ġprint ed
Ġcoron ary
gre en
y ard
Ġh o
Ġh int
ĠS ports
ĠR h
pe ople
Ġres istant
Ġcont est
Ġpre ference
Ġpers u
IS A
Ġhard er
Ġparticip ating
EL L
Ġmag azine
Ġminor ity
Ġembed ded
Ġt ur
Ġl ys
am er
Ġ\ -
Ġhe aling
ĠF IT
ĠH ur
ĠE r
Ġinv ited
Ġassoci ations
HT ML
men u
Ġrecip es
v v
Ġf ert
Ġdef icit
Ġ19 86
gg ed
Ġquestion naire
herm ox
T w
Ġp ocket
ĠS ort
oc oc
ĠR en
ĠL ew
ĠO x
Ġint ense
Ġun expected
ĠĠĠĠĠĠĠĠĠĠĠĠĠĠĠĠĠĠĠĠĠĠĠĠĠĠĠĠĠĠĠĠ ĠĠ
Ġdef ect
IT ED
ĠAn th
Ġlim iting
enn is
Ġdim in
Ġconfig urations
çĶ ¨
k ind
} [
Ġf ract
Ġpro long
ĠM aster
Ġwe igh
ĠF isher
and al
rit ing
Ġevery day
ãģ Ĺ
čĊ čĊ
Ġadjust ment
Ġschem es
D ocument
x c
ĠF inal
Ġcl osure
Ġen rich
Ġfound ed
Ġpredict ions
ĠExp ression
adel ph
m ove
r ance
re nder
Ġm os
Ġg otten
Ġ" ,
ĠL A
ap ore
Ġselect ive
sens ors
ĠAfghan istan
L oc
O ption
Ġb ub
ut ers
ĠS ov
ĠL ic
all ing
Ġexp end
Ġra bb
ev in
ĠIns urance
ethe less
t k
um my
ac cept
tr ation
Ex ample
Ġlik ed
Ġsec ured
itud inal
E F
e le
it an
Ġd ent
Ġl oud
Ġreve als
ĠPr ice
ĠNav y
Ċĉĉĉĉĉĉĉĉ ĉĉĉĉ
3 20
P N
p read
Ġo verexp
Ġvari ability
Ġmat ched
stand ard
uns igned
RD PCSTX
Ġentre prene
= >
Ġt ension
en able
id av
ĠA ward
ru ed
12 4
Ġco at
hen yl
ade qu
pr ison
Ġequ ipped
Ġstrateg ic
empor ary
S F
b es
e ach
h op
h ang
j oint
k m
Ġth irty
ĠD aily
ĠG OP
ure r
Ġbl ame
Ġtra il
ĠPro p
ãģ Ł
Ġtem p
ĠIre land
p ur
Ġg est
Ġbe aring
Ġex port
Ġen vironments
ĠUn less
Ġscre ens
Ġinterview s
W E
h us
v n
im ated
ĠS av
ay a
ĠM P
os in
th on
ĠK at
Ġ19 81
ced ure
set minus
ĠYou Tube
ides pread
apt ic
Ġmagn et
May be
Ġsuspend ed
= -
Q ue
Ã ł
13 3
exec ute
Ġphilosoph y
: </
G astroenterology
a ire
Ġt ied
ot rop
ol is
ĠA ccess
ĠP ython
Ġdef ining
Ġreg ulate
Com mon
Ġestabl ishing
Ġassum ptions
Des pite
ĠTor onto
achus etts
C le
R ect
Ġs outhern
Ġl anguages
ber y
Ġass et
In v
over rightarrow
Ġdisc ount
Ġeng agement
ĠST AT
Ġbehavi ors
I X
Ġp ending
as hes
ro bl
ĠG L
11 3
Ġplace ment
Ġprob able
aut o
Ġdiv or
Ġnames pace
ĠInterest ingly
j e
} ...\
Ġt weet
Ġo lig
ĠS ir
ph ase
Ġpo inter
Ste p
iam i
p ow
ĠM L
ĠIn ternal
ps y
Ġplace bo
bt n
Ġtim ely
m ask
u er
st able
.. .,
Ġbi ke
Ġcook ies
Ġter ritory
Ġprem ium
Ġproport ional
Ġendosc opy
C OP
Ġt ired
is a
se curity
Ġv o
ast ed
Ġar ising
Ġent ities
Ġimp aired
Ġgra ft
enc ia
Ġphys iological
Un it
Ġimplic it
Ġfranch ise
b ec
Ġt ill
re v
Ġw ages
Ġto w
ĠF red
Ġ{ "
Ġsp ray
Ġext ending
Ch rist
Ġ> >
Ġgun s
Ġpush ing
ĠCamb ridge
T ake
Ġb ills
Ġb orrow
ĠS aint
Ġde emed
Ġle ct
Ġjust ify
AT ED
part y
Ġpot ent
Ġcann ab
S ession
c as
t p
Î ½
Ġs oph
Ġhe x
j w
è ¡
he et
Ġp ounds
ĠS a
ac her
ĠL y
art icles
01 7
Ġsp here
11 11
Ġgu ests
Ġdevelop er
bb ed
Ġaff irmed
Ġmo ist
L icense
č ĊĠĠĠĠĠĠĠĠĠĠĠĠĠĠĠ
Ġd ating
ĠT itle
oc yt
Ġse ats
Ġ0 2
ach ine
cept ions
Ġcar riers
Ġcho pped
Ġexpress ing
Ġthreat ened
- $
c over
f our
s es
t an
w ave
it age
Ġp ace
Ġd ies
Ġas pir
ĠSt ill
Ġtrans ient
() :
Con vert
gen erate
Ġparticip ant
Ġchalleng ed
D i
å Ĭ
Ġh ung
ĠH im
Ġres ident
Ġlik es
Ġclin ic
Ġbreak s
L ayer
Î ¿
ĠĠĠĠĠĠĠĠĠĠĠĠĠĠĠĠĠĠĠĠĠĠĠĠĠĠĠĠĠĠĠĠ ĠĠĠ
Ġaccept ance
Ġmethyl ation
Î ´
il st
ĠR ay
Ġsh oes
cl er
Ġsupp orters
anc ies
ĠBe ach
gl obal
Ġsurv ived
Method s
Ġvert ices
2 25
A rt
ĠE S
Ġafford able
( {{\
m ates
| _{
Ġt y
pp ers
ĠG overn
Ġres idential
Ġag on
Ġcons erved
ble m
Ġsol ved
ãģ §
bar r
Ġbar riers
Ġmeaning ful
itz er
========== =
B oth
M AP
N OW
d ash
at on
ol en
ĠK it
Ġconnect ing
arcin oma
r ons
ad os
th ree
Ġwor ried
}, $$
Ġdec imal
Ġelectric ity
Ġbelong s
ĠHamilton ian
adelph ia
) </
l ies
n p
op es
Ġj ack
Ġad s
Ġag enda
27 0
Ġimp ressive
Ġconsist ency
ĠPer haps
ĠId ent
Ġconver gence
Ġoblig ation
oprote in
L im
X ML
ĠS em
Ġle ak
Ġqu ote
Ġsee ks
ãģ ¦
Ġdemonstr ates
sem ble
. @{
g ood
t rack
Ġm ood
ĠS K
ens ively
ang el
Ġtri es
Ġshort ly
igen ous
Ġpen et
Ġmer ch
conn ection
Ġprepar ing
Ġfram es
H er
m M
r andom
Ġw age
se q
qu ar
Ġcont ention
19 91
ams math
Ġinhib ited
Ġconstit u
D K
i ating
Ġass istant
}{ -
Ġprot ocols
ãģ «
dom ain
Ġrefer ring
Ġinstit utional
Ġarri ve
Ġcat he
Ġapprec iated
Ġaccompl ish
Ġneighb ors
Ut ils
S pe
h ol
or ient
st o
ul se
Ġor ange
ĠW in
Ġint racellular
Ġact ed
Ġrep orter
Ġed it
Ġsent enced
Ġspect rosc
++ ;
Ġscen arios
B ased
Ġg ross
ĠT M
Ġexp ense
Ġpres cribed
)) ?
Ġrest ore
des c
Ġir rad
Fl ag
Ġstimul us
g un
l ated
z one
it ated
Ġd ense
as ant
ce ive
ĠS F
Ġbe ach
ĠC C
Ġbl ot
Ġdist ances
mer ce
Ġpar am
requ ency
trans form
ĠAnt on
ĠRad io
M ember
T oday
g reek
at ar
ĠM as
Ġwas hed
ĠU t
Ġag ing
Ġ_ <
Ġrel iability
Ġmed iated
Ġemerg ing
BA SE
Ġinstr uments
Ġsan ctions
Pan el
A nal
Ġ$ ('
ĠE ND
01 8
000 2
Ġart ificial
Ġfund ed
Ġdocument ed
Ġpun ishment
D F
b c
p any
Ġ Ñģ
Ġf itting
ct ic
th ird
ĠL ibrary
Ġsh adow
du ate
ĠPh ilipp
tem p
Ġfarm ers
f c
Î µ
Ġt ar
he alth
Ġw idespread
Ġh ook
Ġmy ocard
ox ic
app ropri
)\ ,
Ġden y
Ġexist ed
Ġestablish ment
ĠOver all
ymmet ry
Ġexcess ive
Gen eral
F ONT
[ **
m akers
Ġt ags
ĠS cale
Ġst ake
ĠM g
ĠW ay
Ġcall back
Ġprof its
Ġcharacter ization
Ġlo ans
Ġmac ro
ĠCL ASS
B ody
m us
Ġ âĢĻ
Ġm ad
Ġth rown
et c
ĠM arc
ab ases
Ġex clusively
nt il
art icle
Ġdes per
Ġbu ck
ĠSe a
ush ing
Ġinit iated
Ġconstit ution
bra ce
Ġemph asis
F ound
O G
P os
R oot
Ġt ends
Ġc in
Ġm as
Ġv ag
ĠF ull
ĠD all
Ġ19 60
19 93
Ġinc hes
99 99
ĠMed ic
exp and
Ġdiscl oses
Ġdebt or
Ġcytok ines
ogl ob
B UG
Ġf i
Ġm Ã¡s
Ġl umin
ĠS us
ĠF all
Ġres et
Ġ[ ],
Ġdef ects
Ġinf ect
Ġlist ening
Ġdiscl osure
ĠSwed en
Ġvulner able
b n
ĠT erm
am ss
ĠC AN
ect omy
ĠG raph
Ġdis charg
ĠK ent
set length
22 2
Ġmil it
Ġcook ed
Ġvisit ors
D em
P arent
Ġan not
ac co
ĠB udd
Ġsh it
ag a
Ġany body
20 2
Ġweek ly
oph il
ĠTur key
Ġstret ch
D ER
F ore
M AT
S Y
j ar
j ack
it arian
el ve
ĠS che
Ġ1 45
Ġpro state
Ġsu icide
Ġen rolled
Ġun necessary
13 2
ential s
bs y
Ġcorpor ations
Ġlegit imate
c ost
f ix
al oney
ot on
Ġpro pri
Ġ" <
19 90
Ġco ating
Ġequ ity
Ġrece ives
MO ESM
Ġnurs es
m ade
Ġ1 36
og rap
IN K
Ġgener ations
Ġtop ology
Ġmot ions
Ġcomput ational
Ġbirth s
ĠArt icle
Ġbrief ly
ĠHill ary
amss ymb
N a
T F
Î Ķ
Ġt u
ĠB or
og a
ĠJ ordan
Ġpresent ing
Ġdeterm ines
ams fonts
inter face
_ ,
č ĊĠĠĠĠĠĠĠĠĠ
Ġ( âĪĴ
19 88
Ġco pper
Ġcap abilities
ĠÃ ¿
Ġstri king
Ġsett led
Ġflex ibility
idem argin
Ġscan ning
Ġembry os
Ġvolunte ers
s r
Ġb ron
Ġpro position
ĠH ep
Ġ0 9
Ġpl ugin
Ġapp s
av irus
Ġman aging
Ġatt orneys
}{ {\
vert ical
Ġdri ves
ĠAd am
Im port
ä ¹
Ġf ool
qu al
Ġr ating
âĢĿ )
ys ym
Ġsub stitute
St ar
Ġdist inction
ody nam
Ġdesign ated
ĠDet roit
cons in
Inter face
Ġneglig ence
lb rack
odds idemargin
Ġindict ment
P tr
n als
Ġf erm
Ġd a
Ġwe ird
os er
Ġman ually
37 7
Ġ$$ {\
ĠMan ager
Ġvirt ually
Ġposit ively
Ġholid ay
S ave
p ic
s un
s ort
s quare
Ġt ap
Ġb ases
st rap
ĠS ometimes
ĠC NN
Ġpl ots
row th
Ġfunction ality
Ġsuggest ions
Ad ditional
Ġthreat s
Ġgar lic
Ġdefe at
Ġacknowled ged
c ourt
h abil
r ans
Ġc ow
ĠM ir
Ġrepresent atives
print f
print ln
c ases
Ġc ig
Ġd rag
ment ioned
Ġthere in
}$ -
math rs
up greek
Ġed ition
Ġhead ing
Ġhuman ity
ams bsy
By Id
Ġorg ans
was ysym
Ġcritic ism
Ġcontrovers ial
Ġmir ror
mathrs fs
A v
G r
L V
Ġ ^{\
at um
Ġc ul
Ġre putation
ĠH art
Ġper pet
let ter
Re lease
Ġflu or
Ġsynt hetic
inst ance
ĠGa ussian
Tem plate
Ġvine gar
9 00
C ost
N L
r isk
in th
on omy
Ġat om
ĠH u
Ġ12 3
Ġstay ed
ĠMass achusetts
ĠBit coin
B Y
is p
âĢĻ ,
Ġch ampionship
Ġ8 00
par ameter
Ġpers istent
Ch anged
fl ags
Ġevalu ating
ĠAL L
KE Y
Ġmotiv ation
Ġcollabor ation
Ġremark able
Ġupt ake
B F
P ackage
Ġs ir
Ġd Ã©
ĠT our
Ġex clude
Ġte ch
Ġinter section
ĠY eah
Ġlib er
ĠHol y
Ġreconst ruction
ĠYan ke
b id
ou rier
ĠA sh
ac o
Ġcor ruption
less ly
Ġperson ality
ĠSh ort
ĠSh ould
e a
Ġan est
ĠS S
ĠL ook
ĠG P
Ġinf il
Ġben z
UL AR
Ġprevent ed
At tr
Ġconstruct or
pass word
Ġenhance ment
Dev ice
l as
} >
ĠP ur
ĠF ord
01 3
Ġsy mp
Ġrel ies
ator ies
0 39
m ia
ĠN i
Ġch a
Ġcomm ands
Ġpublic ations
Ġclaim ing
Ġfra gments
Ġul cer
Ġvacc ination
opath y
Ġtick et
Ġinqu iry
E s
à ¯
at itis
er ic
Ġd ance
Ġth y
im id
ĠB oy
ens ation
ink ing
Ġref lection
sh all
Ġdel icious
Ġobject ives
Ġagree ments
Ġenc ounter
Ġinflu enza
PO SE
Ġcere mon
Ġintr insic
Y PE
` ,
h d
} '
ĠP erson
ĠN az
Ġint act
xt ures
ĠV ector
EN CE
Ġadv is
Ġadv ised
Ġpubl ish
ĠLeg isl
ĠViet nam
Ġneu rolog
F iles
en ch
Ġst ating
ĠB C
ĠL ittle
ĠN ations
Ġcomp lement
ĠĠĠĠĠĠĠĠĠĠĠĠĠĠĠĠĠĠĠĠĠĠĠĠĠĠĠĠĠĠĠĠ ĠĠĠĠ
St atic
IN FO
Ġpar liament
vert ed
import ant
ĠCo ast
Ġattack ed
Ġsatisf ying
Ġrespond ent
Ġcompet e
E ff
m ember
w atch
Ñ ĩ
ad en
ab ama
Ġ" $
19 8
ĊĠĠĠĠĠĠĠĠĠĠĠĠĠĠĠĠĠĠĠĠĠĠĠĠĠĠĠĠĠĠĠĠ ĠĠĠĠĠĠĠ
Se lected
Ġcompl ain
ĠPar liament
Supp ort
Ġrepl ied
ogg le
A X
h bar
Ġs quad
Ġg ains
ĠT GF
ĠI owa
ĠP ot
Ġinv asive
Ġtra its
Ġinvestig ating
Tr ump
Ġdem ocracy
Ġcontinuous ly
Ġprotect ing
ĠPhil adelphia
Ġan ger
ab etic
ĠB rian
ĠR Ass
ĠL D
Ġmay or
Ġtra v
20 20
ĠAl tern
Ġindepend ence
py thon
subset eq
bur gh
Ġalle le
R ear
c aps
Ġf iscal
Ġh oney
od ot
Ġunder going
Ġop ens
Ġsil ent
Ġnav igation
Ċ ĊĠĠĠĠ
ĠB ible
ĠH op
19 86
Med ia
Ġprejud ice
F actor
M X
Ġn orthern
ĠC as
ment e
Ġj av
Ġcor n
Ġsim ulated
ann y
NA L
Ġprom ised
Ġexpert ise
L ife
n one
w rap
in ely
ar on
17 5
ĠRe lease
Ġalong side
Ġearn ings
Ġb ags
ud es
Ġqu oted
Ġrel ied
Ġsupp ression
Ġpar ams
app lication
Ġfin ance
UN T
ĠP AT
Ġad min
Ġtrans it
Ġgl ad
Ġaff idav
Ġplatform s
Ġefficient ly
Ġgrav it
rb rack
Ġtit les
Acc ount
M ich
ĠF ather
Ġr if
Ġpe el
Ġviol ations
Ġaccom pany
Ġpurs ue
2 20
A I
f ive
or rh
ed ge
Ġ1 37
Ġcon vention
ĠD er
ond er
Ġfact ual
Ġ| \
Ġcoll apse
Ġapproxim ate
Ġdram atic
ĠSing apore
Ġbran ches
b ow
h h
Ġas ks
Ġ\ !
un ks
ĠU buntu
ific ant
ring e
ĠSe ven
Ġhead ed
ĠPh oto
ĠÎ¼ g
Ġincons istent
& =
S k
g al
Ġf lying
ut ter
ch anges
ĠM iami
ĠW ord
ex pr
16 7
Ġref eren
Ġdown stream
Ġconv in
Dis cussion
ĠIndian a
Ġcitiz en
ĠL C
reg on
Ġprob ation
ĠSm all
Ġhar ass
ĠMark et
G a
b sp
l ass
w ich
Ġg ear
art s
Ġoff ices
Ġaff inity
ãģ ¯
ĠAr k
UR T
Ġtransform ed
Ġunf air
-------------------------------------------------------------------------------------------------------------------------------- --------------------------------------------------------------------------------------------------------------------------------
ĠPH P
Ġbare ly
l g
t i
== =
Ġinter f
19 92
ĠCh air
Ġdi agonal
Ġ** *
Ġcrit er
Ġland scape
clip se
h ad
Ġp ric
Ġn u
ĠP ear
ĠĠĠĠĠĠĠĠĠĠĠĠĠĠĠĠĠĠĠĠĠĠĠĠĠĠĠĠĠĠĠĠ ĠĠĠĠĠ
Ġprov ince
Ġfib rosis
stitution al
ĠBro ok
ĠMo ore
Ġinnov ation
Ġp tr
id en
se lected
Ġ" %
qu ot
ĠL uc
---------------- ----
ater n
ĠEd itor
Ġemerg ed
ĠCommission er
âĢ² -
Ġsubset s
Ġpix els
canc ers
C ond
I con
Ġst ellar
um ing
pe er
Ġrem ission
Ġcap ability
place ment
fe ed
Ġmind s
Ġcapt ain
Ġsch olar
Ġoverl ap
] =
i ar
al o
st ers
ĠA SS
ĠB D
Ġover t
ug ht
app er
Ġconf usion
)* -
Ġbreak fast
umin um
Ġsav ings
Ġdram a
ĠScot land
M ac
W ORD
c it
v ised
Ġn ons
Ġim prison
Ġam big
19 94
13 6
cript or
inc ipal
Ġjo ining
Ġcool ing
Ġaccompl ished
Ġiniti ative
Ġcust ody
å ¼
Ġin sect
ch a
Ġor bit
op her
ud a
}} _{\
ob e
Ġsc roll
Ġact ively
Direct ory
B s
N ESS
b oth
m ock
Ġin ch
ic ion
ĠT an
ĠF actor
ĠR S
Ġdist ribute
]{ .
ID TH
Ġvis iting
Ġdom inated
Ġmicro bi
Ġbox es
ĠCou nsel
V ol
w d
ed ef
Ġex clusion
Ġch ances
}} =
ord on
15 9
Ġrep ly
AN G
Ġeth nic
Ġobst ruction
Rear range
re port
on z
Ġw ins
Ġg olf
ĠS earch
ĠP UR
oc amp
ĠG all
cl osed
ry ption
li um
!! !
Ġoxid ative
ĠWis consin
Ġs ocket
Ġp ic
Ġm ath
ĠO PA
Ġup set
Ġli able
ression al
ĠKore an
/ âĪĴ
Î ¹
ad min
ĠL atin
ĠN ick
Ġad ip
uck y
Ġrout es
ĠMary land
Ġas ync
ĠM other
qu ality
ĠL yn
Ġar ises
Ġgen otype
Ġext racellular
CA A
mark et
Ġlock ed
Ġfeat ured
: _
k now
w ould
Ġde put
ĠP ART
ĠF ac
Ġj am
Ġk iss
ĉĉ ĉ
ah oma
IS H
Ġdecl aration
Ġlog ical
Ġphot on
Ġred ist
Ġsubst ances
Int roduction
Ġdisapp ear
Ġgovern or
Ġmacroph ages
H ash
T X
k an
t bl
ç Ľ
Ġsh ield
Ġbound aries
Dis play
Par ameters
Ġexcept ions
ĠCR C
Ġprivile ge
]- [@
K L
c ents
Ġh ired
us ers
ĠF alse
Ġtre m
Ġsent ences
Def inition
Ġmer it
Ġfel ony
Ġt sp
Ġa qu
ĠT y
ĠA venue
ug ar
Ġrep orters
Ġlocal ized
Ġcirc uits
SI ZE
Ġnegot iations
Ġmob ility
Ġannounce ment
h ss
in ent
ge x
ĠB L
Ġne c
Ġcomp ly
ru nt
ok ia
Ġrec urs
ict ure
14 5
ffic iency
Col lect
Ġsymb ols
Ġrecruit ment
h u
k it
n ov
âĶĢ âĶ
Ġfunction ing
set tings
Se lection
pan el
Ġlov es
FA ULT
)/( (-
Ġwarn ed
ĠSov iet
O ct
ish op
ãģ ª
ĠPh ot
Sh ort
Ġgradu ally
ogene ity
Gl obal
Ġgrate ful
D iv
e cho
Ġs ectors
Ġin k
ig in
Ġr anges
Ġcl othing
Ġdist al
Ġgu ilt
LE D
Ġpo ison
Ġxml ns
Ï Ħ
æ Ĺ
Ġf itted
Ġn ose
est amp
th an
ĠN E
ib l
ph an
15 6
ĠCom b
Ġimp ression
Ġaccount ing
Ġwin ner
Ġtour nament
å °
Ġp ap
ol er
ĠM O
Ġal arm
ect in
AN CE
mod ules
Ġmut ual
Ġprefer ably
Ġpseud o
. :
W est
ri ends
ĠB on
ub er
ors hip
Ġreg im
Ġpoint ing
lin ux
Ab stract
Ġdiss olved
Ġmucos al
ĠSar ah
y our
us ive
ĠL ess
ph yl
Ġinter rupt
Ġem issions
ox o
pos ing
OR S
ãģ ¨
Ġappoint ment
ĠCru z
" ?
M Y
` .
b est
d am
Ġp ist
Ġg ray
Ġv ibr
pl ug
Ġexpl ored
ĠSh are
Ġcommun icate
kl ahoma
Ġpip eline
$ _{
' _{
S pace
T im
r x
u y
Ġpro x
Ġ2 20
ard ed
pro fit
16 5
Ġdon ors
Ġimportant ly
Ġleg end
Ġprem ises
ĠMus ic
child ren
Ġvit amin
D ay
F ull
L ICENSE
at i
Ġp ipe
Ġd x
ĠT arget
ĠF arm
Ġen orm
Ġro bot
Ġmorph ology
Ġlic ensed
ĠMot ion
2 11
Ġf ate
Ġg ym
Ġ" >
az a
Ã© t
čĊ čĊč
97 8
OM E
Ġflow s
Ġms g
P ORT
d frac
ab c
ĠW at
,\ ,
ĠIN T
ĠSim ilar
she ll
tw itter
ĠM ill
Ġper me
Ġproject ed
ĠSp irit
Ġclin ically
Ġpoor ly
Ġisol ates
Act ive
ĠBer lin
Ġempir ical
F our
S al
W indows
f ish
è ®
Ġc er
ĠA F
Ġint ensive
Ġ19 82
iss ue
Ġsign ing
Ġind ivid
ID S
Ġmand atory
ĠAuthor ity
& #
Ġd ial
Ġl um
ĠK now
32 3
Ġfac ulty
ãĤ ĭ
Ġcos m
: '
H istory
Ġd op
ĠL LC
ĠN C
Ġ< ?
Ġtest ify
**** ,
32 5
Ġimp ose
Ġdat abases
Ġcert ificate
f lex
ĠA I
Ġst yles
est ine
ĠB AS
em on
ĠG reg
Ġch iral
Ġ0 6
Ġsp inal
pro of
Ġ12 7
Ġimp ly
Ġconsist ed
Ġrelax ation
< <
Ġs ys
Ġl act
Ġcon cert
ĠL at
ĠL ED
Ġser vers
17 0
ĠHar ris
Ġencoura ged
ĠReturn s
Ġincred ible
Ġimpair ment
R R
\ {\
Ġw ider
ĠS oc
Ġu b
Ġ2 40
un ning
Ġch ains
Ġpart ly
man if
Ġlet ting
Ġreal istic
cont roller
Ġ25 5
Item s
Ġhor se
prot ected
* \<
p il
Ġt ie
ar o
ur red
ĠB all
ĠF ive
ĠH o
ĠR ail
ĠSt ation
ric s
IN S
Ġel astic
Ġorder ing
Ġlaw yers
ĠAll en
cm aloney
Ġap olog
Ġcort ex
, âĢĻ
D ITION
en o
Ġd ot
Ġst rom
Ġact ors
Ġrel ate
Ġmod ifications
Ġinf lation
De cl
Ġcounter part
Rec ord
Ġtrac ks
rif ug
Ġgastro intestinal
H ar
b d
b age
p rom
z ip
ç »
Ġapp ellate
au x
Ġpost operative
Ġcross ing
Ġfem in
W orld
r v
Ġc ure
is an
oc arcinoma
ĠL ind
ress or
ĠK ansas
ise ment
sh ared
ĠPl us
Ġlength s
Ad apter
Ġdiss ent
Ġhistor ic
Ġgly c
Ġbiom ark
Ġmarg inal
Ġcriter ion
C ard
R ound
d or
ĠC y
Ġst ops
Ġnot ing
Ġar rays
Ġob sc
Ġent ang
cent ury
Ġlong itudinal
Ġsil ence
Ġgraph s
Ġwebs ites
Ġemot ion
W I
b rief
m n
Ġc erv
es ian
ĠT E
ant ed
em ption
ĠW as
ple ments
Ġconf used
requ ire
ĠInt eg
Ðµ Ð½
Ġhep atic
0 22
Ġb es
st ud
om on
ĠT ask
ab e
ĠH z
ell s
Ġres in
ia z
Ġsupp ressed
Ġsuggest ion
Ġhydro ph
ĠSand ers
Ġspokes man
Ġtherap ies
Ġimmig rants
Ġgent le
Ġex ert
ĠF R
Ġr um
Ġsp ots
Ġhand ed
38 6
Ġgradu ate
ochem istry
ĠUk raine
G iven
P F
b its
Ġm im
Ġg rap
Ġgener ates
ĠX ML
Ġconsider ations
oph ag
Ġexc itation
Ġoccasion ally
Ġmalign ant
ĠProfess or
] }
d k
f actory
m ass
im ore
ĠB ox
art ifact
ĠO s
itt s
16 8
Ġ12 1
Ġcar ries
view s
ik a
Ġminim ize
M IN
^ [
f x
Ġb rack
ic iary
ĠC it
ul as
ĠB R
oc om
ĠR os
), $$
oh ist
az y
oper ation
const ruct
Ġflow ers
Ġbed room
Ġpet roleum
Ġdefic iency
a que
h ole
om aly
il by
ul um
ens is
19 84
ĠAl abama
\* ](#
Ġacqu ire
ĠSy rian
Ġchrom osome
Ġbrother s
Ġgrav ity
Ġdecom position
G I
or able
Ġh ip
Ġst ere
ĠĠĠĠĠĠĠĠĠĠĠĠĠĠĠĠĠĠĠĠĠĠĠĠĠĠĠĠĠĠĠĠ ĠĠĠĠĠĠĠĠĠĠ
Ġinf ra
Ġmin ing
opl as
Ġroad s
*~ *
Ġrestaur ants
2 12
Ġc her
ĠA li
ri z
ĠE ric
ĠO P
ĠK ong
Ġret ained
14 7
RE AD
lev ance
Ġsure ly
ĠBl ock
Ġwrit ers
met adata
Ġconfig ured
ĠCons erv
Ġcontribut ing
Ġ-------- ---
ĠFed eration
Ġneighb our
$ ;
B it
p nt
en abled
Ġe q
Ġwas h
em at
ĠR ose
ĠR ES
Ġ0 3
ĠK IND
Ġmed ications
ãģ Ļ
cont ract
Ã¿Ã¿ Ã¿Ã¿
Ġcorre ctions
Îº B
F loat
s creen
ĠA B
res ults
ĠO il
Ġdo zen
ex per
requ ired
Ġsimilar ity
UT E
Ġpen al
Ġcatal yst
Rem ove
æķ °
d ump
Ġp ad
Ġf irms
om ain
ĠT reatment
ch lor
Ġcon current
Ġpro s
ĠM AP
ist a
ĠB P
ĠD IS
Ġ[ "
Ġen um
av ailable
upp et
Ġmem ories
ĠChrist ians
Ġhost s
Ġutil ize
Call back
Ġmetast atic
g el
Ġo h
ĠP ack
Ġout standing
18 6
Ġx e
Ġimpact s
fil ename
Ġsle e
Ġcir cles
Fl ags
reason able
m ma
he at
ĠN K
Ġcan onical
Ġdis posed
Ġar row
Ġpres cription
Ġshe ets
Ġhand ler
OR K
Ġcal m
Ġder ive
Ġdiscuss ing
Ġcoll ision
FI LE
Ġincub ation
Ġcav ity
B ank
b matrix
t ri
w alk
in stein
ed u
Ġp iv
ĠH REF
ast ing
Ġret ention
)) );
sh ore
Ġins ights
36 7
Ġemploy ers
Ġlack ing
Ġproceed s
Ġbirth day
Ġdetect ing
Ġscen es
Ġconflic ts
O VA
l m
í ķ
re ction
Ġin cl
iv ities
Ġ4 50
ĠIn vention
Ġup coming
own ed
Ġtrans mit
Ġmod ulation
Ġver ified
Ġbroad er
Ġemot ions
Ġwat ers
ĠResp ond
[ :
d one
ĠV EGF
ON G
ĠSe lect
Ġterm ination
Ġcal ibration
resp ons
inc ome
Ġheart s
IP T
Ġenter prise
ĠDise ase
A x
_ *
e conomic
r us
ct rl
id ine
ĠB ud
Ġdis position
ĠSt ock
Ġback up
to String
Ġed iting
Ġcult iv
Ġachie ving
PO ST
Ġtend ency
Ġdatas ets
ĠArab ia
fol io
ed a
Ġre aches
ĠS TR
are r
Ġinv ari
ĠSe attle
Ġsl ope
ĠEx ception
Ġreported ly
Ġexpand ing
B ER
Y Y
g oto
m c
t ry
ol ly
Ġst eal
Ġcon c
Ġout break
Ġdist ant
sh ips
Ġsl ide
Ġlocal ization
ãĤ Ĵ
sw itch
Ġasympt otic
Ġenrich ment
Ġb ip
ro gen
pl ane
Ġgen omic
19 0
val uation
Ġair port
ĠSte p
Ġkin etic
Ġlit igation
J ava
h idden
v able
ĠT ry
ĠP ract
ĠH CV
ĠG A
ĠJ ean
ject ion
Ġsl ice
Ġconduct ing
ĠSm art
Ġter rible
Ġneur onal
Ġvent ricular
Ġtransl ate
Ġprev ents
Ġperm its
ĠNat ural
r ific
od a
ĠH S
Ġdis aster
ord inary
Ġerr one
RE E
Ġindic ator
Ġoffic ially
osc ow
ĠDie go
) ^{-
M K
Ġ ------
en h
Ġb other
st ock
Ġl ux
Ġst ocks
Ġ" -
Ġcomp ression
Ġ19 73
Ġro d
uc id
30 3
Ġes cap
Ġmut ants
Ġpromot ed
Ġmer its
Inter val
ĠBrazil ian
activ ated
Ġw is
ĠS elf
ĠN othing
Ġmat ure
Ġblock chain
Ġunivers ities
Ġconven ience
ol ves
her lands
Ġqu i
ĠSt atus
^{ *
pr ice
ai ver
Ġbur st
ĠRel ated
ĠQue en
ĠThom pson
adequ ate
G re
b ad
r ative
Ġ -----
ĠĠ Ċ
ĠA RE
Ġrec urrent
pro ve
Ġdet ector
ym ers
ĠLe vel
Ġnecess ity
Ġcorrect ed
Ġdynam ical
ĠCO URT
Ġs ake
ĠI BS
Ġdis contin
Ġsp ark
ĠCh ange
Ġpres erved
cont aining
init ely
Ġfant astic
Ġconvin ced
ĠT ag
ĠC E
ĠM ER
Ġcount ing
Ġassoci ate
cont rolled
Ġbehavior al
Ġadopt ion
Ġsurround ed
iot ics
Ġc ock
ar ms
Ġg erm
Ġ1 39
ĠB io
ĠW T
ĠW ould
ĠR ome
Ġcan cell
Ġmy el
IT E
Ġrece ipt
rel ation
icro bial
Ġland s
Ġvar ies
net work
ĠStud ent
ĠMat hemat
ĠBr and
Ġdro ve
Ġcov ari
Ġincred ibly
Ġathlet es
Ġhorm one
Ġmitochond rial
i op
Â µ
Ġf atal
Ġd ad
ĠP ow
ĠP EG
ĠH it
ĠH ong
ne x
ĠV ill
Ġra ises
St and
ĊĠĠĠĠĠĠĠĠĠĠĠĠĠĠĠĠ ĠĠ
Ġpur ified
Ġsurv iv
Ġconvers ations
just ed
Ġmotiv ated
A uth
W ill
s ed
it ate
ul ing
ĠB alt
ĠL ag
Ġres ort
Ġar te
20 3
Ġopt ional
Ġintrodu cing
ĠNot ice
Ġbeg un
C ap
ĠC ore
Ġst yl
13 4
)) \
min ute
27 7
Ġscre w
Ġdistrict s
En ter
ĠEd ward
Ġemail s
Ġsecret ary
LO G
ĠCap ital
3 60
[ (
j j
Ġ ------------------------------------------------
at omic
le in
Ġn uts
Ġis o
ol in
ĠO regon
cre ated
Ġsub mar
Ġac res
14 3
az z
Ġ% >
ãĤ ¹
ĠSte phen
rec ord
local host
Ġinnov ative
################ ################
Off set
L I
re a
Ġs hed
Ġd w
Ġd ensities
ĠC AP
if def
ĠB ureau
ĠN okia
Ġdet erior
Ġinf erence
Ġgl ut
ai ro
Ġlov ely
Ġchemical s
Ġoptim ization
inte rest
Ġpolar ization
Ġcontrovers y
C ur
M icrosoft
S YS
s ch
Ġw rap
Ġy ard
qu ant
ĠR O
ĠG I
Ġch amp
Ġ0 8
ĠJ am
ĠĠĠĠĠĠĠĠĠĠĠĠĠĠĠĠĠĠĠĠĠĠĠĠĠĠĠĠĠĠĠĠ ĠĠĠĠĠĠĠĠĠ
ĠK evin
sc ore
Ġindust ries
Ġrespond ents
Ġball s
Ġoccup ied
Ġhighlight ed
ĠExp ress
dri ver
Su per
Ġhipp ocamp
Ġf as
Ġse iz
ĠE SD
air y
He alth
UT H
ĠUp on
I g
L i
o ose
å ĩ
Ġs que
Ġm ol
Ġd ivid
ĠC at
ĠW atch
Ġsh aft
sp in
__ _
Pro perties
Ar gs
ĠMc G
Def endant
Ġalter ations
ĠT D
Ġal igned
ĠP P
ht hal
ĠN ight
Ġpl acing
ĠâĢ ²
Ġ' /
Ġfl ags
Ġwant ing
Ġcur v
Ġappro ached
for ced
equ als
Pl ay
Ġcert ified
Ġarbit ration
ĠCell s
ĠAre a
Ġprogn ostic
Ġoccas ions
Ġreven ues
ĠEmp ire
ĠFoot ball
ĠLew is
) }{\
Ġd f
ĠH an
out heast
12 2
Ġhom eless
V s
i ac
m ers
t ain
Ġan omaly
ĠT ai
ĠS R
ĊĠĠĠĠĠĠĠĠ ĊĠĠĠĠĠĠĠ
Ġman agers
12 1
Ġtra iler
comp onents
Ġdefin ite
ĠRec ently
Ġguarant eed
******************************** ********************************
Ġsustain able
Ġmyocard ial
P ublic
b ury
Ġre pository
oc he
ĠD utch
un es
19 85
ex pl
Ġsim plic
ĠPro tein
Ġcou ples
Ġfore cast
By te
Gu est
Ġstimul i
ĠSum mary
Ġbreath ing
WAR E
r w
Ġthe at
om aterials
us ions
ue z
=" _
rit ical
Ġent hus
ĠReg ister
ĠHol lywood
Ġstraight forward
ĠAnth ony
_ -
â Ĥ¬
al g
ow ski
Ġal ien
ĠF uture
ĠN eg
Ġinter ven
Ġret ired
Ġposs ibilities
Ġoper ational
ĠLe ft
br as
Ġassert ed
Ġpromot ion
Ġdu ct
Ġillust rate
Ġ-------- -
Net work
Ġlob by
c ou
à ²
â Ļª
it ol
ĠD rug
ĠâĢ ¢
Ġthere after
ount ered
19 80
Ġrem arks
ash i
ĠHow ard
Ġcharacter ize
Ġexc it
Ġspect rom
Ġelement ary
user name
Ġinsert ion
riv ial
Ġquas i
P UT
n ia
re x
Ġv as
qu oting
un ger
Ġup stream
ĠV ery
math scr
Ġatt ending
Ġins ured
Re qu
Ġcomb ining
Ġcirc ular
Ġinhib it
Ġimplement ing
Ġple asure
Ġstay ing
ĠJava Script
Ġsynthes ized
Ġsatell ite
[ *
-- >
st yles
om ers
Ġg amb
Ġ1 70
Ġab road
iss on
Ġbl end
Ġimp ed
Ġproduct ivity
Ġfib robl
ĠÐ ½
Ġreject ion
Ġconserv ation
Ġoxid ation
ĠFore ign
Ġnurs ing
0 29
A p
Ð ¿
Ġt we
Ġn urse
ĠC t
ĠN ob
Ġmy st
Ġover se
Ġcol itis
000 5
Ġgeneral ized
Ġsequ ential
Ġenc ountered
lim ited
sim ple
Ġrecommend ation
Ġ------------ -
Ġburn ing
Ġluck y
Ġentertain ment
Ġp ub
Ġf etch
Ġb olt
ĠS ong
Ġhe mat
og onal
ĠO klahoma
=" "
Ġ19 79
18 4
less sim
Ġrad ial
ĠDef ault
Ġgrant ing
Ġrev ised
term inal
ĠTrans port
Ġrent al
e ared
l ab
v ard
ob last
Ġ19 78
Ġjust ified
Ġatt achment
rit ic
ful ness
cur s
Ġmot if
Ġpack ed
Ġconstit utes
Ġsaf ely
j ob
Ġw x
ar ity
am ide
if iable
um atic
ĠM Y
Ġun ity
to ols
yn chron
Ġview ing
ik ip
Ġappear ing
Ġhom osex
FF FF
ĠDis ney
Ġrepl acing
Ġterror ist
Ġanc est
Ġhepat itis
Ġinnoc ent
c n
f ail
i ors
Ġw elfare
ĠI l
ĠC IA
ĠM ut
ĠThe ory
ĠW orks
Ġr ally
Ġhand led
Ġmet als
37 5
Ġadv ances
bin ant
ellig ence
Ġdry ing
Ġillust rates
Rel ative
Ġesoph ageal
U K
it ance
Ġg ri
res et
Ġdis par
IN ST
eng ers
36 5
Ġbi os
Ġamong st
with out
.[ ]{
Ġconver ges
Ġsi RNA
Ġbath room
Ġindivid ually
' (
s ent
le e
ve e
ĠM oh
ĠF act
ell i
Ġcomp romise
Ob j
ĠTH AT
Ġweak ness
Ġadapt ation
ĠSur vey
Ġthrom b
H I
S B
} )$.
Î »
Ġg ently
ĠA k
Ġex empt
ĠR ick
ĠN ature
ĠE P
Ġ3 50
Ġim plements
Ġ19 75
Ġrem edy
St op
cy cle
ĠApp endix
yd ney
Ġcred ibility
Ġri val
Ġinsp ection
ĠNet herlands
Ġdram atically
ĠAff airs
Ġt ies
ĠP BS
ĠL as
red uc
Ġlet s
Ġgr ants
Ġfoc uses
ĠWith in
Ġinhib itory
item s
Ġrig id
pot ential
Ġconscious ness
Ġresc ue
Ġdownt own
H ost
Â Ĵ
Ġs li
ed er
Ġb old
Ġh ub
im et
ĠA CC
od d
ĠP U
Ġ\ $
ĠN orm
ĠSt ra
Ġtri ple
Ġbel t
ĠZ n
75 8
ĠRes ponse
trans fer
ĠTest ament
rypt ed
Ġpref erences
Ġreconst ruct
Ġanalyt ical
artifact Id
$ ),
B undle
D ATA
b g
nd ef
ĠL ar
ĠL iver
ĠU P
Ġag grav
ĠSt ore
Ġcons olid
18 8
Ġpost ing
ene z
En abled
Ġ-------- --
ĠJac ob
t ail
Ġm old
as al
ĠA TP
ĠC ome
Ġst iff
ort ic
ĠN R
Ġ19 76
Ġsub stitution
Ġdel iber
Pro gram
Ġinvest ments
ĠOn line
Ġaccording ly
pre v
Ġann oy
comp ass
Ġexhib its
Ġshift ed
ĠAlex ander
Ġhaz ard
B est
h alf
v ia
Å Ĥ
he art
Ġm aternal
am ous
ĠP u
ĠH AVE
ĠE M
Ġcomm ut
19 2
igh ters
Ġinf ants
Ġmin istry
Ġbo il
ĠBl ood
Ġsix th
lock ed
ĠBro ad
Pr int
ikip edia
\ @
\ ,\
c ology
p ing
Ġre levance
ĠN eed
ĠE uro
ine ment
Ġab ilities
own er
Ġoff enses
Ġfl ip
Ġmed ic
ĠState ment
Ġeng aging
ĠQu estion
Ġspeak s
Ġdiagram s
Cons ider
Mem ory
Ġfeas ible
T s
Ġc rop
Ġe leg
ĠT B
Ġle v
crib e
Cl ose
Ġaddress ing
Ġfluct uations
N ormal
_ ;
b oy
s ymbol
it ic
it one
ĠS n
ĠE N
ous ing
osp el
Ġhom ogeneous
Des ign
Ġconnect ivity
Ġpure ly
$ ^{-
D a
F s
h w
æ ī
Ġm erg
Ġl ady
Ġ( <
ch rom
ac count
ĠB BC
ĠH ilbert
ĠW ales
Ġcl ip
yl ogen
Ġcurrent s
be an
ĠCl ark
Ġexc use
Sh are
ĠIm port
Time out
Ġconfirm ation
Ġretro spective
l ied
s ized
Ġw el
is o
it ored
ce il
ĠM RI
ĠO nt
ĠU lt
Ġtri angle
Ġposition ed
Ġsat ur
ĠÎ Ķ
Ġbr illi
Ġphosph ate
cons ider
Ġstrugg ling
Ġveter an
ĠLic ensed
Ġ ï
Ġt ong
Ġh ire
om ed
ĠA G
ĠC BD
ir ts
ĠM R
ab eth
ĠB ang
Ġqu ark
15 3
sh ape
Ġdevelop ments
Ġgra in
ĠPat rick
Ġfall en
Ġstation ary
Ġthrow ing
ĠDig ital
" \
> ::
I CT
J SON
v ation
he res
Ġf ishing
Ġd ans
ĠC N
Ġde leg
ore r
au nd
Ġmy th
Ġsc ar
24 1
Ġleg ally
ĠCol lection
mod els
ĠCo hen
âĢ¦ .
Ġvalid ate
ha us
Ġinstance of
Ġanim ation
ĠSen ior
Ġmanufact ured
VER SION
Ġgold en
ĠExec utive
ĠMedic are
c ies
Ġin complete
Ġpro c
ant h
ĠB ab
Ġun law
Ġinter rog
Ġdes ktop
13 8
16 2
Ġless ons
Ġinvestig ators
Al t
CON FIG
anche ster
spe ed
B i
R oute
Ã ´
or ic
ig g
ĠW ars
Ġsh ifts
ĠO ak
Ġapp end
}} }}\
19 5
Ġref ere
30 6
33 6
Ġopp osing
Ġlo ops
Sub ject
ĠRem ove
============ =
ĠAcc ount
P ars
p are
Ġt ons
Ġd ont
as i
Ġe V
ĠM M
ge bras
ĠP y
oc on
Ġby pass
ĠJ ay
Ġsub div
Ġcomm od
ĠCh i
ock ets
Ġshow er
05 4
ãģ ¾
Ġquestion ed
ĠCont ent
Ġphenomen a
ĠSum mer
Ġdelet ed
Ġcontrad ict
m ys
p ix
r f
or o
Ġb os
le ading
se par
un a
ĠG astroenterology
de velop
Ġro y
Ġform ulation
Ġexpl aining
cur rency
State ment
Ġcryst als
Ġ------------ --
Ġaband oned
c iting
p us
á º
å Ľ
an cer
Ġp aste
ĠI ron
Ġon ion
Ġst olen
Ġ1 75
Ġr iding
pl asia
Ġme ets
ĠIn cre
ĠĠĠĠĠĠĠĠĠĠĠĠĠĠĠĠĠĠĠĠĠĠĠĠĠĠĠĠĠĠĠĠ ĠĠĠĠĠĠĠ
Ġno vo
Ġ19 72
Ġconf idential
Ġbas al
Ġreview ing
Sh ould
Ġbelong ing
Ġreplic ation
Ġenem ies
Ġoverwhel ming
; ;
R est
V R
ë ĭ
Ġt utor
Ġan omal
ig ue
ĠS Y
ĠA BC
Ġal uminum
Ġat he
ill in
Ġall ocation
ĠâĢľ [
Ġ12 6
22 9
Ġaff airs
Ġanti oxid
Ġsecret ion
Ġeth ical
ĠUp date
Ġasc ending
Ġtrem end
h ou
er ce
Ġf n
Ġf iring
st ory
ĠM oscow
Ġsu ck
ĠN AT
19 87
ract ed
Th ose
Ġless on
ĠAr g
enn y
Ġwarrant y
ĠConn ect
D onald
P ower
W ait
p resent
ut f
ĠC SS
Ġat omic
ĠD VD
ĠN ic
Ġ3 60
par ser
cont act
oph ys
Ġuniform ly
Ġt el
ĠS ett
Ġsu pre
Ġun itary
com a
Ġneed le
20 7
--- |
Ġprof ound
ĠAss istant
roph ic
Ġste pped
eff ect
Ġclub s
Ġsleep ing
Ġneutr ino
Ġsoph istic
j ango
Ġcon g
=" @
form ula
IN CLUD
ĠEx pl
Ġspe aker
Ġvol umes
ai res
Ġ? >
Ġge ometric
OW ER
Ġsynt ax
ÑĢ Ð°
appropri ate
) }(
b ing
c u
est y
form ing
Ġend point
Ġsol ving
24 5
arg ument
Ġcal endar
bl ank
Ġdevelopment al
link ed
Ġexerc ises
PD ATE
Ġhighlight s
Ġens uring
Ġanticip ated
) ^{\
G s
K D
M AN
Ġ ĊĊ
Ġm ism
Ġd ying
ĠT ree
Ġhe s
Ġr ings
ĠK al
Ġam end
Ġext ensions
Ġcent ered
reg ister
Ġmist akes
Ġub iqu
J apan
d oes
ð Ł
ĠA st
00 10
ĠH al
ĠG ulf
Ġbut tons
pro to
Ġend orse
23 4
App ellant
ĠOther wise
Ġaver aged
hav ior
Ġwis dom
L ight
c mp
l on
ou ri
Ġ1 38
ĠF ourier
per ial
ph ones
), (
Ġyour s
Ġactiv ists
new s
Ġinit iation
fl ag
Ġlo ose
MS G
File Name
Ġprec ip
Ġavoid ed
ĠDel hi
Ġrank ed
Ġcere bral
Ġped iatric
ĠFil m
ĠScient ific
M atch
N s
Ġin comp
Ġcon ced
ĠH ind
ĠH aving
ĠG ro
Ġdel ight
ĠPart icip
Ġpull ing
Ġcontribut es
Ġarri val
Ġvolunt ary
Ġfre ely
Ġsuscept ibility
+ )
K n
m ind
Ġn itrogen
ĠM ort
ĠB O
ĠB uff
ĠN EW
ft en
19 6
30 5
Ġult ra
ĠCON DITION
Ġtang ent
Ġprox imal
H g
N B
P op
\ #
Ġa ux
he ne
at ivity
Ġw aiver
Ġp yl
Ġarg uing
Ġart ifact
Ġgra b
Ġgra bbed
che ll
ograph ical
================================================================ ================================================================
Ġcam eras
Ġarrange ments
Arg ument
Ġmetall ic
* =
T erm
g ate
m ine
o ard
t ile
re view
Ġp int
ing ton
Ġd ated
ic ating
ut ors
ĠT OD
Ġst ained
Ġv iable
ĠG ET
_{ (
Ġsign atures
Ġinf ant
Ġelect romagnetic
DE BUG
Ġple ased
sk y
Ġrecip ient
I ED
M ES
b ably
i ag
Ġm elt
ĠS ab
ĠM I
ĠM aterial
ĠB ol
Ġcent rifug
face book
Ġple ad
ĠSen ator
yth m
Ġut ter
Ġflav our
ĠMuslim s
Ġdiscipl ine
Ġadoles cents
S i
S em
d in
Ġf oo
un iverse
ĠN elson
Ġsh ops
ĠE ight
ĠU r
ys et
ane y
Ġgra ce
Ġla pt
Ġsens ing
cle an
ĠOb serv
Ġvalid ated
ĠStud io
Ġtranscript s
E q
P ress
c g
Ġf asc
Ġh itting
ĠT X
ĠS ER
if ndef
ĠM eg
ĠF er
iz ontal
Ġsy rup
In f
Ġcor rupt
-> _
pol icy
Ġrob bery
( !
; /
Ø §
Ġ ĊĠĠĠĠĠ
Ġd ock
Ġto oth
ĠP ri
ĠE PA
Ġdis cre
Ġqu it
Ġdec iding
Ġdemonstr ating
umb ered
group Id
Ġheav en
Ġelim inated
Ġjournal ists
vas ive
Ġmucos a
iem ann
ĠPUR POSE
W A
h s
h ma
re ported
ro c
Ġl ake
ĠS ep
00 15
ĠR ab
ĠL es
pe at
Ġdes k
Ġmon itored
Ġ12 4
Ġmethod ology
gen es
Ġart ists
Ġconsider ably
do i
Ġcir rh
..\ ..\
quar ters
w ick
Ġc ot
Ġp ound
Ġn ick
il ization
her ical
." "
19 89
ah oo
ĠBar ack
TH ER
ci pl
Hel per
Ġrecru ited
ĠPART IC
) ]{}
I Q
t f
w al
æ Ŀ
in line
in ery
in itions
Ġo c
or ity
Ġto ss
ĠS ure
ĠC ourse
per p
ok er
ty pen
ors es
Ġinter fer
Ġstud io
14 1
ĠApp ro
Ġbo ards
col on
Ġport al
Ġbr ands
Ġaltern atives
vis or
Ġdisp ersion
Ġdistingu ished
Ġpropag anda
Ġchair man
Ġcytok ine
Ġthorough ly
Ġfibr in
or dered
ĠP B
ĠP ed
ess ment
av i
ĠĠĠĠĠĠĠĠĠĠĠĠĠĠĠĠĠĠĠĠĠĠĠĠĠĠĠĠĠĠĠĠ ĠĠĠĠĠĠ
Ġ19 77
19 82
ex e
Ġco aching
20 5
ta h
Ġca ution
bl ob
Ġprint f
Ġdro ps
Ġmount ing
Ġsusp icion
Ġlegisl ature
ĠGold en
Ġtransplant ation
C he
Ġp and
ra gment
Ġen abling
Ġinv oke
cept or
St orage
15 5
Ġref lex
ãģ Į
urg ical
Ġsubt le
typen ame
F unc
G od
M ED
Â Ģ
å º
at om
ĠD ark
ĠW inter
ase k
ĠJ ar
Ġdis pos
15 4
16 9
CR IPT
Ġoper ates
Ġstat utes
Ġpotential s
ĠTe ch
Ġrat ings
Ġrender ing
ĠDall as
ig hed
Ġbe ings
ter ritory
ĠP ier
ĠG ib
Ġapp les
ĠV eg
sh aped
Ġprot ests
As ync
Ġste am
Ġexperi encing
Ġclust ering
Ġmembran es
Ġmanufacture rs
Ġpackages et
uten ant
nan omaterials
ĠPsy ch
P rim
f ly
o ct
p air
y cle
Ġa pt
Ġc f
Ġb ore
as ound
Ġl enses
est abl
ĠR ules
ĠG ard
Ġle ather
ĠU SE
ne a
Ġrem ed
Ġtra p
ool s
Ġ12 2
17 4
Ġel ite
Ġcr ude
Re port
Ġassert ion
Ġtravel ing
build ing
Ġevolution ary
Ġlit eral
ä½ ľ
ĠHaw ai
ffff ffff
Return s
ĠAtl anta
aceutical s
0 26
| -
Ġth rew
Ġtrans p
ĊĠĠĠĠĠĠĠĠĠĠĠĠĠĠĠĠ ĠĠĠĠĠĠĠĠĠĠĠĠĠ
ĠNe ither
Ġign or
ĠLu ke
Ġalk yl
pl ugin
ĠJ osh
Ġev olved
17 8
Ġprodu cer
return s
Ġang les
Ġcross ed
Ġhop ed
Mat rix
Ġye ast
ÂĢ Â
D atabase
es ters
Ġd ental
om ing
Ġg ifts
ĠC ert
Ġhe ated
Ġch ips
per ature
Ġme als
Ġun iqu
ss s
20 4
Ġant im
Ġaff ine
ĠLe on
ĠGen er
Ġaccept ing
ĠFr ont
Ġequival ence
Ġsubstr ates
Ġoccup ation
Ġoblig ations
activ ation
Ġinvent ory
................ ................
Ġspont aneous
Ġcannab is
h olds
Ġo ught
ant o
ĠR oss
ĠL E
ĠE ar
cl oud
ĠV ice
OL OR
TR C
^* (
Ġcompr ised
ĠFour th
Ġsummar ized
ĠOrgan ization
Ġtack le
[ ]{
ĠC ab
ĠC reat
ĠM un
Ġsh irt
19 7
ex cept
17 7
ah n
Ġelect roph
ĠCl aim
eq n
Ġchem istry
Ġload s
Ġir regular
Ġmother s
Aut o
phen yl
0 36
S ymbol
g ency
s C
s n
Ġg athered
od ge
ĠP AR
ĠP ET
ĠW right
ĠN ev
ine ar
ĠJ en
Ġup grade
ĠV en
19 83
Ġdes erve
Ġco aches
Ġ14 4
Ġpath ology
Ġsum s
Ġlog in
âĢ¦ ]
ls d
comple x
Ġmetric s
ĠOx ford
E p
M ut
T n
T IM
Ġre active
am inated
ĠB rief
01 9
de cl
In valid
15 7
Ġref use
30 8
Ġhist ological
Ġbal anced
Ġpropos als
chem ia
nat ural
overs et
Ġpsychi atric
b ytes
w ere
is ite
ed it
ic i
el and
Ġg aps
ĠS quare
Ġu m
ĠC X
ĠC ra
Ġde ck
ĠB urn
ĠE conomic
ang i
Ġcount ed
RE CT
Ġsubject ive
Ġcontain ers
Ġdem ographic
RES S
Ġroll ing
Ġil leg
ĠHT TP
Ġpref ix
Ġproxim ity
otrop ic
Ġreferen ced
l ibrary
m x
Ġc ant
ul ates
ĠB at
ĠL iber
Ġsh ame
ĠK a
pro perties
Ġcondition al
Ġspecial ist
Ġfig ured
ä¸ į
ĠCons ult
Sc ore
Ġdismiss al
FT WARE
Ġcort ical
sv g
at oes
Ġcont end
Ġactiv ate
ik es
CH ANT
PI O
Ġrac es
Ġregul ating
Ġswit ched
ĠHur ric
' ))
+ {\
M us
N Ps
Ġcon e
ment ed
20 6
oh yd
UT F
force ment
Ġencoura ging
Ġrecip ients
Br ush
P ad
i ative
Ġ rack
re r
Ġm a
ĠJ ason
ĊĠĠĠĠĠĠĠĠĠĠĠĠĠĠĠĠ ĠĠĠĠĠĠĠĠ
18 1
"} ;
30 4
Ġassess ing
exp ression
ä¸ ª
Ġmer ge
ĠRom ney
Ġsoc io
ĠSaf ety
ĠAnton io
Ġgravit ational
C irc
} &
Ġw orm
Ġpro ton
Ġwh ilst
ĠW E
Ġcomp iler
Ġdis hes
Ġen v
Ġtra dem
Ġmin us
Ġmult ivariate
az ole
Ġcoll ateral
Ġdiscl ose
det erm
Ġpray er
Ġol ive
ĠAtl antic
jw atson
ĠBalt imore
B ook
L ock
P ATH
T ry
ig ger
ĠM om
ĠM ember
ĠF lu
Ġ19 50
Ġtrans m
cy p
gen eration
Ġenc oded
ĠPhys ics
Ġcas ual
Ġshap ed
Ġtraject ory
W in
t l
v irtual
Ġf riction
Ġb ol
ar in
ĠC ould
ĠC hen
Ġv ig
Ġse aled
au er
Ġsp oken
ric hed
Ġsl ot
Ġnull ptr
bol ic
Ġselect ing
ĠBan ach
b one
~ -
ĠB ad
ĠH A
Ġch at
Ġout door
Ġ19 42
ond a
Ġref usal
Ġsol uble
ĠPro cedure
Ġart s
Ġrese mb
ĠIN C
Ġregard s
Ġclear ance
Ġsto pping
Ġcoron avirus
//////////////// ////////////////
Ġwithdraw al
Ġirre levant
ĠCONDITION S
in cre
Ġb p
Ġcon vex
Ġde cedent
ĠB ody
ĠD ead
ĠG olf
Ġen velop
19 81
let al
Ġhold er
Wh ite
Sim ple
ĠSil ver
Ġentreprene ur
ĠPARTIC ULAR
, *^
3 50
4 13
D im
M aterial
R ole
p ublished
Ġin con
ar ound
ion es
Ġm arrow
il ateral
Ġis chemia
ĠI oT
ĠM anchester
Ġse cre
ĠE lement
ĠJ ane
Ġmod est
ĠSe ason
Ġeas tern
Ġperiod ic
Ġweight ed
Ġoutput s
ĠIran ian
plet ion
ĠEngine ering
GRO UP
Ġcathe ter
CHANT ABILITY
B el
C r
J ECT
P ay
m el
t ic
Ġf ur
ol utions
ĠS ydney
ry an
14 8
ĠQ U
Ġprom ises
ores cence
Ġdeb ut
char acter
REF ER
ĠPrem ier
ĠFIT NESS
Ġdivor ce
2 80
B H
I ll
L o
c ross
f b
er ge
ed ly
Ġb ene
Ġres erv
Ġout lined
ang les
ĠK r
15 1
ĠPol y
![ ](
cor rect
Ġlig ands
Ġsimpl er
ĠOlymp ics
ynt hesis
ĠGovern or
habil itation
Ġenorm ous
! \
E Q
F ib
G ame
ä ¼
it us
Ġh anging
ĠH F
and y
pe red
ĠG as
Ġcont emporary
}$ )
mer cial
Ġent rance
ĠCom pl
chn ology
AL S
Ġless er
col lect
Ġseem ingly
add le
ãĥ »
GF R
Ġpromot es
ĠStat istics
ĠStat istical
Ġadequ ately
Ġcelebr ate
usal em
âĶĢâĶĢâĶĢâĶĢâĶĢâĶĢâĶĢâĶĢâĶĢâĶĢâĶĢâĶĢâĶĢâĶĢ âĶ
Ġjav ax
e V
al ine
Ġp ole
Ġto wer
ly n
ur ities
ĠA bs
od en
ĠP i
ĠD a
ĠD im
Ġag rees
15 2
Ġent ropy
18 7
33 5
AC C
ĠMay or
Ġqual ify
Ġclar ify
Ġagric ultural
Ġwra pped
, {
D ri
p ci
q q
u pload
v c
ĠT ABLE
ĠP red
ĠL PS
Ġtra ff
Ġback ed
Ġclaim ant
ĠPh ase
39 0
Un iversity
Ġnucle i
âĶĢâĶĢâĶĢâĶĢâĶĢâĶĢâĶĢâĶĢâĶĢâĶĢâĶĢâĶĢâĶĢâĶĢâĶĢâĶĢ âĶĢâĶĢâĶĢâĶĢâĶĢâĶĢâĶĢâĶĢâĶĢâĶĢâĶĢâĶĢâĶĢâĶĢâĶ
âĶĢâĶĢâĶĢâĶĢâĶĢâĶĢâĶĢâĶĢâĶĢâĶĢâĶĢâĶĢâĶĢâĶĢâĶĢâĶĢâĶĢâĶĢâĶĢâĶĢâĶĢâĶĢâĶĢâĶĢâĶĢâĶĢâĶĢâĶĢâĶĢâĶĢâĶĢâĶĢ âĶĢâĶĢâĶĢâĶĢâĶĢâĶĢâĶĢâĶĢâĶĢâĶĢâĶĢâĶĢâĶĢâĶĢâĶĢâĶĢâĶĢâĶĢâĶĢâĶĢâĶĢâĶĢâĶĢâĶĢâĶĢâĶĢâĶĢâĶĢâĶĢâĶĢâĶ
âĶĢâĶĢâĶĢâĶĢâĶĢâĶĢâĶĢâĶĢâĶĢâĶĢâĶĢâĶĢâĶĢâĶĢ âĶĢâĶ
Ġdialog ue
barr ass
' ])
[ -
s at
Ġt err
he el
en z
ou stic
ĠI O
od o
ĠG onz
ĠO pp
Ġval ued
ĊĠĠĠĠĠĠĠĠĠĠĠĠĠĠĠĠ ĠĠĠĠĠĠĠĠĠĠĠĠ
ah r
Ġinc idents
Ġmechan ics
ĠBe ck
Ġconv ictions
Ġavoid ing
Ġpresum ably
Ġabnormal ities
ENC ES
Ġpron ounced
Dav id
Ġcurv ature
cyp hermox
F i
S eq
Ġn ested
ĠE US
.. ...
Ġcont amination
ĠHe at
Ġbu f
23 5
Ġdev ast
Ġgovernment al
And roid
map sto
Ġtransl ated
phant om
ĠFif th
L in
c ourse
h l
m art
Ġo cean
Ġp up
ist ically
ĠB esides
Ġ19 74
Ġend omet
âĢĶ "
=\ "
ãĤ ¤
arc el
pat tern
Ġchrom at
Ġconj unction
ĠTur k
==================== =
dep th
at iv
Ġc c
Ġre cre
ra de
Ġwas hing
ine z
Ġph on
14 6
Ġref ract
EL D
init ial
Ġachieve ment
ryst al
Po inter
Ġoverexp ression
d id
u j
Ġd end
st orage
Ġbe ans
ĠM IT
ĠM essage
us hes
Ġad herence
Ġ[ (
ĠIn put
Ġsp ike
12 00
Ġed ited
ĠCl oud
Ġcomb ust
hold ing
Ġwid get
img ur
VAL UE
ĠPalestin ian
v iol
at tered
ig e
ĠA ns
ass ign
Ġatt enu
Ġdist ress
por ter
che mic
load ed
Ġband width
Ġcircul ating
Que ue
pil as
L INE
b idity
t rain
Ð ·
Ġp ink
ĠC ut
13 9
Ġstr at
Ġhapp iness
ĠDep uty
Ġvirt ue
Ġtub es
Ġhoriz on
Ġprohib ited
Ġscr atch
jack son
pilas engine
2 64
F n
Y ES
d ag
f un
h ist
Ġt ent
Ġbe ating
ĠA mb
ĠE arly
Ġdi abetic
Ġdel ays
Ġprob es
Ġpath ological
play er
47 6
Ġbar rel
Ġmaint ains
Ġred irect
ĠChar lie
Ġnutrition al
rocy tes
eterm ined
åľ ¨
ĠBAS IS
V ar
W arning
k r
Ġp ose
ĠT yp
ĠC art
Ġst ain
em en
ĠR C
Ġsh out
ĠE SP
iz za
ĠIn v
Ġapp ellants
Ġem barrass
000 6
Ġconst rued
14 9
Ġfil ters
Ġant it
Ġcle ared
Ġlist ing
Ġjud ges
gl as
ÑĤ ÑĮ
Ġroll ed
ĠWell s
ĠProt ection
" ],
) ~
A bs
g ian
en berg
ĠS ize
ĠC orn
os ures
Ġsp o
Ġsol vent
tt es
arg o
Ch annel
Ġsk ip
down arrow
Reg ister
Ġnan op
ĠBack ground
ĠMic hel
itzer land
r int
é ĩ
Ġf etal
Ġm ile
Ġd y
Ġst ip
ĠH CC
ĠD rag
). \
iz abeth
=" /
li ers
AN S
Ġmain stream
Ġpain ful
Ġalloc ated
Ġaccompany ing
F ollowing
d ark
m ad
re act
Ġs ink
en in
an im
op ol
ĠF DA
ĠD iff
ill o
ĠE mer
Ġcomp rom
}} )$
ĠĠĠĠĠĠĠĠĠĠĠĠĠĠĠĠĠĠĠĠĠĠĠĠĠĠĠĠĠĠĠĠ ĠĠĠĠĠĠĠĠĠĠĠĠĠ
ĠV I
Ġ_ __
Ġact u
Ġspec ification
que ous
Ex per
Ġcal ories
AS K
OL D
Ġtransform ations
Ġdream s
hy de
3 80
B re
E urope
Ġf ist
ĠM obile
ĠP RE
Ġr amp
ĠL ive
Ġsub space
Ġcur ious
IT S
34 7
Ġneg atively
Ġprim er
Pl aintiff
ä¸ Ń
oz yg
display Name
del im
ĠMount ain
P ers
in formation
ĠF ont
ag ain
Ġapp le
ear ly
ĠHe art
Ġbo iling
- .
H ome
T NF
W atch
] $.
f ood
w ritten
he ro
Ġw iring
ic ode
am l
ĠP ubl
Ġres erve
Ġcomp ass
ap olis
Ġel abor
rid ges
ãģ ĭ
Ġcalcul ating
Ġresid ue
cos ystem
Ġeth ics
ĠKe ep
Ġhab its
Ġmicrosc ope
Ġaffidav it
5 12
I E
M or
T om
t u
w oman
y out
Ð ±
ĠI BM
ĠIn stit
Ġsp ite
Ġatt ach
Ġinf ar
set s
Ġgre y
Ġlog istic
sing le
ĠAust in
Ġdem ocratic
ĠMean while
f ather
m argin
t or
it ar
Ġb er
Ġto b
ĠC oc
Ġ\ _
ĠH ub
ĠG ram
Ġprov ing
Ġcou rage
serv ices
empt yset
Ġconduct ive
Ġspecial ized
Ġur ine
Ġalleg es
Ġrele ases
ĠLaw rence
Ġadapt ive
Ġsuscept ible
Ġrecom binant
Ġadhes ion
Ġcerv ical
2 32
3 01
= [
A bb
S everal
T ri
W rapper
v C
as ury
Ġall ies
ind ependent
Ġdis reg
Ġun stable
17 1
Pro of
Ġrest ored
Fig ures
IC K
IC AL
Ġfree ze
čĊ čĊĠĠĠ
Ġcontact ed
ĠBo olean
bi om
Ġsche ma
vis ible
Ġutil izing
Ġdepos ited
ĠIg G
aug hed
Ġadvent ure
ĠPAT I
ĠMER CHANTABILITY
( __
b as
d av
o is
Ġt ear
ĠT umor
ĠP os
** _
Ġnot ification
Ġim pe
Ġfound er
Ġindic ators
Ġnucle otide
Ġcolon oscopy
ĠAut o
Ġfluores cent
Ġorth ogonal
Ġquad r
Ġwal ks
F in
j et
Ġp icks
Ġd ir
le en
Ġl aughed
ig ious
ĠG ov
70 4
Ġleg acy
Ġimpro ves
Pl atform
car bon
ipp i
sur f
Ġaden ocarcinoma
Ġcircul ation
Ġdeploy ed
Sche ma
S cale
em phasis
ĠR oy
ĠL ater
per m
ĠO cc
ap ing
Ġint u
int o
Ġqu eries
Ġcur sor
ĠSe qu
oid al
17 6
39 7
AS H
fl ix
Ġtw elve
ĠFr ame
Ðµ ÑĤ
Ġrot ated
cell s
pol y
depend ency
ĠAnt i
product ive
Ġanalog ous
ĠSO FTWARE
ĠHot el
F eb
O k
e ur
j ury
o ys
s ame
w estern
x A
Ġs ends
Ġf ought
Ġan chor
ĠM T
ess ed
Ġsh rink
Ġad vers
Ġsub scription
ãĤ Į
ĠÐ º
mar ks
Ġcyt otox
ĠWH ERE
Const raint
ĠOlymp ic
Sum mary
Ġsearc hed
N ever
Ġt mp
er on
ĠB ull
}} }_
ĠCh annel
ew ay
17 9
33 3
37 0
Ġexam ining
New s
month s
Ġforg otten
ĠCrim inal
M ove
^ .
Ġl on
ĠT LR
ĠK h
Ġpr ide
18 5
Ġdecl ar
Ġconsum ed
ĠRec ent
ĠDemocr at
Ġtrig gered
Ġtub er
cf g
Ġreprodu ce
Ġgro cer
ogram s
ĠBuild ing
Ġaccommod ate
Ġdeput y
4 80
M W
r ang
t if
t reatment
Ġde pri
ĠB ag
th row
ĠH ung
ĠĠĠĠĠĠĠĠĠĠĠĠĠĠĠĠĠĠĠĠĠĠĠĠĠĠĠĠĠĠĠĠ ĠĠĠĠĠĠĠĠĠĠĠĠĠĠ
ject ure
ĊĊ ĊĠĠĠĠĠĠĠĠĠĠĠĠĠĠĠĠĠĠĠĠĠĠĠĠĠĠĠĠĠĠĠĠ
Ġ/ ><
Ġgover ned
ĠZ e
Ġopp onents
Ġdesign er
Ġfra ctions
ĠHar ry
Ġdemand ing
elle es
Ġalgebra ic
Ġabund ant
Ġcyl ind
oprop yl
C ent
at ology
Ġp ra
Ġin adequate
ul ence
ad ies
and ra
ĠL ower
Ġapp ellee
^{ +
iss ippi
Ġassert s
Ġax ial
I H
M ask
\ ;
b x
j ax
o en
Ã ħ
Ġa ug
Ġo ct
em ploy
ob ar
19 79
20 9
ãģ £
Ġve in
arent ly
Ġpath ogenesis
Ġdam n
ĠBet ween
Ġinstruct ed
Ġinfect ious
U U
e as
h over
p adding
Ġa queous
Ġo z
an ie
Ġin effective
Ġ2 25
ĠP V
ĠR iemann
Ġne on
Ġfe ver
to o
Ġ12 9
Ġdepend ency
ĠOr th
Ġpack ets
inte g
Ġinteract ing
ĠLabor atory
Ġpredomin antly
k le
ab a
ĠP rom
de hyde
ang asek
anc ell
Ġproduct ive
bs ite
Ph oto
Ġdep icted
Ġtransf ected
Right arrow
Ġspecim en
Ev ents
$ :
) ->
; ->
d n
g overnment
s ince
Ġthe ft
Ġp ension
ĠT ony
ol o
Ġde ployment
ĠE conom
Ġen compass
Ġif f
ĠĠĠĠĠĠĠĠĠĠĠĠĠĠĠĠĠĠĠĠĠĠĠĠĠĠĠĠĠĠĠĠ ĠĠĠĠĠĠĠĠ
ail ability
Ġwhere by
Ã© n
Ġproced ural
oll ary
RNA s
ĠCont ract
ĠPart ners
Ġautom obile
Ġcampaign s
ĠPort ug
ĠWalk er
P OS
c ounter
Ġa rom
Ġhe lic
th ur
ĠR OS
ĠL oad
og an
Ġpl otted
]{} .
99 4
Con clusion
ĠSte el
EG IN
ĠJer usalem
Ġarter ial
ĠLab our
Mean while
Ġcum ulative
P B
P et
R Y
S equ
S pan
Ġh ind
ĠP itts
ĠF le
Ġsm ell
)) ))
Ġsort s
ĠMur ray
B inding
S orry
w iki
ol ute
ĠF al
ĠH ash
ĠW L
lic ations
ĠK night
ĠV ideo
Ġsc ared
Ġinter pre
Ġel ucid
ivers ary
Ġhar sh
Ġdepart ments
ĠBro ther
push i
rif ice
Ġflo ating
D IS
F older
M ath
V ideo
se ctions
ĠS EC
ard o
Ġcomp lementary
Ġreg ret
() ).
amb ers
Ġsal ine
Ġjuris dict
Ġterror ism
GB T
Ġdepos it
Process or
2 24
P al
Ï ĥ
å į
Ġb is
om ics
Ġv ic
Ġv iability
th al
ĠH ang
Ġab used
Ġsub groups
99 9
Ġ16 5
26 6
Ġbi ology
Re al
Ġben ign
Rel ated
ĠIF N
ĠLegisl ature
Ġsophistic ated
2 30
d L
d ra
m ir
p n
Ġan a
ar ter
se min
ĠS ite
ĠC lick
Ġit eration
all enge
are ttes
Ġdi amond
Ġfil tered
Ġprodu cers
Ġeng ines
Ġeconom ics
umn i
Ġcontract or
Ġbr ut
ĠTra de
ĠEq s
ĠEvery thing
Ġpreced ing
Ġbiops ies
Ġdischarg ed
biom olecules
U ES
d ifferent
e very
Ġf u
Ġan th
ar ns
Ġy y
oc ur
ĠG it
te ch
Ġab oard
own ers
Ġrec ycl
Ġincre ment
ĠRe quest
Ġdisc iples
Ġpass enger
leg es
To String
Ġsw ing
ĠSim on
Ġantib iotic
Ġhop efully
æľ ī
ĠVict oria
Ġspectrosc opy
; <
L ow
p u
Ġo un
ĠT a
ĠW R
ap ters
Ġun ions
av age
ĠV enez
Ġ19 69
Ġ. $$
Ġess ence
Ġbur ied
sk ip
Ġdiscrim in
ãĥ¼ ãĥ
Ġdrain age
Ġirrad iation
reduc ible
D iff
F ix
b urn
al is
Ġb ail
ĠS ac
ĠA ud
ĠM U
ĠM os
Ġr Ã©
Ġj oke
Ġqu art
Ġthem es
ĠUn like
000 4
15 8
Ġi Phone
ateg y
26 1
ĠCol umn
Ġcrit ics
Ġsens ory
Ġdep ict
Ġextra ordinary
Ġinsp iration
Ġspread ing
Ġharm ful
Ġrefuge es
E mail
c rim
g z
Ġc DNA
Ġp ressed
se a
ĠC au
ch t
Ġal i
Ġj unior
Ġup grad
AC H
Ġmor bidity
Ġver b
Ġhyp oxia
Ġdepart ure
ĠSw itzerland
Ġquarter back
Ġking dom
Ġfeat uring
ococ cus
m ouse
Ġw ise
al gebra
ig uous
ĠO k
The refore
Ġsy m
Ġel ong
22 1
38 9
add y
Ġ13 1
Ġfore ach
Ġinj unction
Ġpredict ing
^* $
Ġinflu ences
ĠCount ry
Ġhost ed
Ġneur on
Ġoverl apping
Ġswim ming
C opy
E st
L EN
Y ear
Â Ń
Ġa pi
Ġto ile
ĠM B
Ġv on
Ġch unk
}$ $\
Ġnow here
Ġvac ation
Not es
Ġdisp ers
ĠRem ember
Ġjump ed
Ġsou p
Ġultr asound
s g
on omic
Ġp ays
Ġan onymous
ĠF F
ĠR aj
Ġper for
ĠV II
ĠY OUR
eg u
St ruct
ram es
sc ious
sh are
Ġmet ers
Ġcoll agen
ĠRec ord
appro ved
Ġintra ven
{}^* \
emb ered
D T
Ġ ]{}
am ents
ĠH istor
ĠW HO
ĠL iam
ĠG ordon
Ġad op
Ġrec k
ov ie
Ġext r
AT CH
Ġlight ing
Ġcompet ent
Ġqual itative
Ġaward s
Ġimplic ated
Ġalb umin
Ġpneum onia
Ġprolong ed
ĠOnt ario
Ġtob acco
) '
0 23
C enter
P ack
i el
Â £
æ ł
Ġc ran
it ant
Ġd irty
Ġ$ |\
ab olic
est ive
ĠN ation
ĠE mb
Ġcomp ile
Ġ7 00
ert s
Ġgener ators
Ġext ensively
Ġcou pl
ik z
ĠInt eger
bo olean
Ġrev ision
ĠPD F
claim ed
Ġsurve ys
ĠSud an
ĠRAss ian
Ġsubmar ine
F ollow
l it
x fe
å ¹
in cess
Ġb ureau
st ant
ĠM ove
os itory
Ġse ized
ĠN CAA
ĠG ree
ĠSt aff
ann on
35 7
ĠDe cl
Ġdeal t
ĠSte ven
gorith m
Ġdemand ed
Ġstrugg led
sur face
sens itive
dri ven
ĠIr ish
aret te
Pass word
) +\
- ,
D u
{ }
Ġt ears
es y
il let
ĠF a
ĠâĢ Ŀ
Ġso vere
In ternal
ert o
20 8
app le
Ġtem ple
Ġgrow s
Set up
Ġantib iotics
geq slant
Ġcoord ination
Ġreflect ing
Eng lish
Intern ational
z ens
Ġ ĊĠĠĠĠ
Ġd ough
id i
Ġ" âĻª
us c
ĠB UT
un its
Ġr anks
ĠN ash
." );
Ġ19 71
the ir
Ġdifferent ially
ug g
view er
Ġident ifier
Ġdev oted
Id x
ij ing
Ġbul let
Ġaccel eration
Ġthro at
0 33
P red
e u
l inks
m om
} )$,
¿ ½
Ġd rew
ĠP ant
ĠF ollow
ip ation
Ġover flow
cal endar
ID E
RE T
Ġviol ate
supp orted
ĠFore st
Ġtomat oes
M al
P ool
S en
å ½
Ġs el
is ations
Ġin ability
Ġh ug
Ġe cosystem
ĠG DP
iz ard
Ġqu otes
com ments
In Call
sp ot
Ġchar ging
hes ia
yl ene
Ġfin ishing
Ġcent uries
Ġunt reated
Ġill um
Ġslow er
Ġlov ing
Bl ack
Ġast hma
ĠCamp bell
spring framework
Ġharmon ic
) ](#
A H
l ooking
Ġt ile
Ġd ictionary
ĠI mp
ĠS ex
ment ation
og ue
Ġcomp iled
Ġsc andal
ateg ories
Ġown s
Ġca us
Ġconcent rated
fil m
Stand ard
Ġtong ue
> "
J ames
l arg
l ene
v ideo
è ¦
Ġb icy
Ġm oon
ig ens
ut o
am an
Ġfor b
ur ches
Ġst raw
ĠF ried
Ġam id
cy l
man ager
}_{ (
}) }
ĠAr gent
US ER
Un known
Ġrespond ing
Qu ant
Ġ------------ ---
Ġdefe ated
Ġcaps ule
ĠRog er
Ġarth ritis
Ġceremon y
2 15
P rivate
he a
Ġs ank
Ġb orders
Ġbe ef
ĠA x
ĠM MP
ĠN HL
18 9
ser vers
Ġpract ition
lim it
Ġautom ated
Ġrot ate
ĠRob inson
Pol icy
âĸĶâĸĶâĸĶâĸĶ âĸĶâĸĶâĸĶâĸĶ
ĠPATI ENTS
Ġ ##
ar ith
ĠT rib
am y
se ed
ĠH unter
Ġcont empl
ĠJ O
======== =======
ĊĠĠĠĠĠĠĠĠĠĠĠĠĠĠĠĠ ĠĠĠĠĠĠĠĠĠĠ
par ameters
Ġop io
24 4
Ġorgan isms
Ġsw allow
OS COP
ĠMc K
Ġur ged
Ġdr inks
Ġund ers
Ġmis conduct
Ġsett le
ĠReg ional
Ġstreng the
Ġeth anol
ĠAssoci ated
Ġtouch down
Ġmal aria
uls ion
Ġtablespo on
Hel p
Ġampl ification
âī ¥
2 60
C opyright
N i
m or
es c
ĠR F
ag ic
ĠO THER
Ġpol ls
ĠCon vention
Ġfoc al
Ġcomplic ation
ĠMal ays
ĠCurrent ly
bet ween
0 25
B et
D G
H B
V EL
Ġm apped
Ġl iv
ul atory
ĠW ard
ĠL S
Ġcomp elling
ne ed
Ġ' <
Ġinter faces
Ġatt itudes
Ġstat s
be at
ĠSh ar
Ġmus ical
call back
Ġconsequ ently
Ġweak ly
Ġtransf ers
Ġhem orrh
Ġordin ance
Ġantim icrobial
D rop
Y R
j ug
l oss
p ub
t le
Ð ¹
Ġs ail
Ġf les
Ġst ones
ĠM arg
ĠH ad
Ġr ounds
." ,
Ġexpl oring
Ġinteg ers
OS S
gra duate
Ġcolon ic
Ġoptim ized
Ġintellig ent
Ġens ures
Ġlic enses
ĠVis ual
ĠKenn edy
Ġbarg aining
Ġsimplic ity
InCall Screen
* ^*
G reat
b ach
k ed
Ġc iting
Ġre imb
Ġn l
om at
ĠI ss
Ġpro xy
ĠO cean
Ġco il
pend ing
Ġhand ful
ĠInd ependent
Ġgr at
ED IT
ik ing
Ġnormal ization
Ġpredict ors
Ġextract s
ĠMil itary
ĠLouis iana
Pa ul
Ġbon us
orient ed
4 30
O F
r ison
Ġw ings
om p
ist e
ĠB asic
ĠL ore
Ġint end
16 4
Ġcomplet ing
Ġvir uses
Ġfoot age
ÑĤ Ð¾
ĠTrans fer
Ġcm d
Ġlab our
gener ated
Ġeigen values
Ġunlaw ful
A ug
C ity
U IT
k ens
on ce
it ical
Ġin coming
el ian
Ġg it
ab ul
her ic
Ġal gebras
ĠB attle
op ard
ĠH om
ĠD ouble
ĠW ag
ĠN ag
19 77
Ġtrans verse
Ġpres erving
Ġprov es
Ġshould ers
AL SE
Ġnever theless
Ġdemonstr ation
Ġir rit
pan ic
ĠChar acter
Ġplas mid
Ġsevere ly
Ass ert
Ġbil ateral
Further more
H H
Ġc ous
Ġre ass
et itive
ĠI mm
ch y
Ġal mond
Ġr anged
ĠL oc
000 3
32 1
Ġterm inated
lu a
Ġposition ing
Ġflow ing
Ġpubl ishing
book s
De lete
Sc roll
ĠLa ure
ĠCommun ications
Att ributes
Ġdomin ance
H int
S eg
r g
Ġb reat
Ġv ibration
ĠN uclear
Ġ{ },
ĠSt ir
Ġsub section
ex ternal
================ ======
Ġcou p
ĠAll iance
new command
Ġcut off
ĠBe ing
Ġappropri ately
ĠHar vard
ĠÎ¼ M
oly mer
Ġoscill ations
Prot ocol
] ->
d ie
ed itor
ou ver
Ġl ips
im m
ĠT i
th ink
Ġr ug
ĠO MX
Ġj ar
Ġher bs
Ġph ylogen
Ġequ als
Ġsuper conduct
erc ise
TR IB
Ã¡ n
Ġgraph ics
Ġregul ator
Ġjournal ist
Ġthread s
ĠMem bers
Ġtick ets
Ġpept ides
Ġpolynomial s
Ġfurn iture
æĪ ĳ
A U
C reat
J uly
w t
Ġp uzz
Ġ$ <
Ġwh is
ĠG irl
Ġpar ole
Ġsk illed
Ġport s
ĠÐ ¸
ĠPr ince
Ġce iling
Ġtown s
Ġclick ing
Ġorient ed
ĠVeg as
f requency
n ick
Ġis omorphic
Ġ( +
Ġ_ /_
Ġfl ies
Ġinst ability
err ors
Ġgu ided
Ġperform s
ams ung
Ġspeed s
Ġtrust ed
ĠMor ris
Pr ice
Ġsitu ated
}| ^
) )$
) },
c v
c ad
in ters
Ġh ockey
ĠS V
ĠB ron
ĠD oc
ĠE mail
com mit
ĊĊ ĠĠĠĠĠĠĠĠĠĠĠĠĠĠĠĠĠĠĠ
Ġover view
In g
Ġact ress
Res ources
ĠCo oper
ĠGet ty
Ġincorpor ate
Ġpeace ful
project s
aren cy
ĠPhilipp ines
7 68
R ober
Ġa f
in ces
ĠM uch
Ġres ign
Ġun changed
ound ing
Ġwork place
Ġport able
Ġge omet
Ġcollect ing
Ġpert inent
Ġmetabol ites
ĠMiss issippi
Ġcyl inder
ĠKent ucky
% "}
; "
c z
Ġs ne
Ġc asc
Ġfor cing
Ġ1 64
ĠSt ory
Ġrel uct
Ġcons iders
Ġref err
Ġref und
Ġconf ined
)\ \
Ġpass engers
Ġquant ified
Ġcompar ative
Ġbad ly
ĠPe ace
inf ected
ĠEl izabeth
ĠMor gan
Ġneighborhood s
Ġrail road
ĠRod rig
icul ous
Ġlapt op
# .
( :
m ount
m other
w p
x n
Ġa fore
is co
Ġd amp
ol as
ol ip
Ġu ph
Ġsu ed
ite ment
ĠV el
Ġmon etary
ug gest
201 80
AN TY
Ġpass ive
Ġprim ers
DE FAULT
Pl ace
ĠGu ide
Ġball ot
ĠEv idence
Ġtranscript ional
Ġheter ogeneity
Down load
Ġmos qu
Oct ober
ĠVenez uel
0 40
s ight
it Ã©
Ġh iring
et ed
Ġpro st
ĠB GC
ĠD ave
ĠN ative
Ġdis able
Ġout line
Ġsp ell
der r
yl ation
cul osis
Ġ14 9
sequ ently
Ġbreak down
ĠCar ter
ĠRuss ell
Ġexpress ly
Ġisol ate
ica id
ĠSub ject
ĠMon te
Ġphosph at
Field s
Ġclar ity
Ġsubstit uted
Pres ident
+ (
b ond
w en
ĥ ½
ad v
ĠM useum
ĠD ad
ĠD ak
ag ine
Ġj ars
âĶ ľ
32 6
Ġbi ochemical
Ġquestion ing
Ġassum es
des ktop
Trans action
Per haps
Ġpun ct
ĠDen mark
' ];
J P
r and
im eter
ĠC ulture
ul ose
iv ation
Ġpl aus
ĠK an
ĠSt one
Ġrem embered
Ġtra ged
Ġi OS
Ġbel oved
work ing
Ġview ers
ĠAss ert
Ġnight s
Ġdocument ary
Ġvan illa
ĠDen ver
c ould
f ixed
t rial
ic ut
ĠC redit
ĠM and
ĠH M
ĠW ind
Ġha em
ĠL anguage
ĠN os
Ġ[ ];
ĠĠĠĠĠĠĠĠĠĠĠĠĠĠĠĠĠĠĠĠĠĠĠĠĠĠĠĠĠĠĠĠ ĠĠĠĠĠĠĠĠĠĠĠĠĠĠĠ
ĠK ind
Ġcol ony
Ġi o
Ġexpl oration
Ġstruct ured
test s
Ġcred its
Ġbreast s
vol ume
Oper ation
ĠEff ect
Ġdisadvant age
Ġneurolog ical
ĠTai wan
F U
f actor
ĠC reek
qu er
Ġsu ited
ĠU tah
Ġdef ence
16 3
sc ar
Ġ14 6
gen eral
Ġneg lect
ival ent
Ġ` `
ING S
Ġimmun ohist
DE F
Ġdead ly
Go ogle
Ġimprison ment
C ould
N K
] ^,
k k
s ol
Ġ ery
Ġw ishes
Ġn p
ĠT ol
ĠM aine
ĠH um
ĠL am
ens itive
}{ (
ĠÂ§ Â§
Ġhouse holds
object s
ĠMon th
ĠWARR ANTY
C are
R untime
f p
j query
o j
re ach
qu in
ac cur
ĠG h
Ġpl ed
Ġinf usion
Ġche aper
AR E
ĠTr ilby
ĠEx change
rad ius
}) ^{
AD D
Ġexcept ional
ĠTra ining
ĠFrank lin
ĠBow l
Ġtou ched
Pars er
) -\
as ures
Ġl uc
Ġl ane
ly cer
ĠB arn
ĠN eb
Ġtr unc
Ġdis placement
Ġen roll
Ġmy ster
Ġdef ective
ick ed
Ġclass room
li est
ĠInd ones
Ġoil s
Ġenjoy ing
Ġcert ification
Ġstream ing
ĠÎ¼ m
Ġmoist ure
c atal
j ournal
Ġt anks
Ġb ite
Ġb anned
ut her
ĠD atabase
ĠR on
ort s
27 9
44 44
ĠRes ources
Ġpract ically
Ġcook ie
Ġfat igue
Ġgirl friend
Ġunf ortunately
ĠMiss ouri
Ġperm ut
ĠArray List
ĠCond ition
Mich ael
@ @
N Y
R andom
Ġ ĊĠĠĠĠĠĠĠĠĠĠĠ
Ġm ang
ĠA ST
ĠC V
ĠH ans
ĠG F
Ġab ol
ob by
Ġsc iences
Ġpat ents
pro ps
Th rough
line width
Ġperform ances
Ġlaw makers
Com mun
omet ers
Ġrespons ibilities
ĠInt elligence
Ġassess ments
Ġbr ush
Ġlack s
script s
pa id
Inst ead
ĠMart inez
åı ¯
vari able
Ġsatur ated
A z
A IL
M OD
k ar
ic in
Ġn est
ĠC oul
ĠP ent
ĠP arent
ĠH ttp
ĠR ub
per iod
Ġtrans istor
Ġform ally
Ġ25 6
idd ing
Ġeduc ated
product s
ĠBru ce
ĠYanke es
Ġinfra red
Ġbrilli ant
Ġtremend ous
C AP
L ibrary
T rack
j our
k w
l av
Ġb iliary
ing ham
Ġ$ ("
Ġr untime
Ġnot able
rac es
In formation
Ġanal ytic
be it
Ġstandard ized
Ġmass less
oun cing
Ġaccess ed
Ġmicro bial
rag ma
Ġlip ids
Ġchart s
ĠmiRNA s
ĠNAS A
, [@
j p
p kg
v ic
Ġb ay
Ġb tn
ot omy
Ġis chemic
ĠP as
ĠR andom
ĠJ un
Ġmed itation
Ġdec ode
17 2
ump y
ĠRes erve
Ġorgan isation
urs or
ĠÐ ¾
Ġcompr ise
Ġvent ure
More over
del ay
EV ENT
Ġesoph ag
Ġinev itable
A ge
W O
c A
k ernel
Ä ģ
å ¾
Ġs age
ĠM i
ĠN an
ĠG y
act ual
Ġ[ âĢ¦]
Ġdis ruption
Ġen riched
Ġref using
29 3
Ġaccount ed
Ġpack aging
Ġdark ness
Ġtight ly
Ġiniti atives
Ġmanip ulation
IZ E
Ġorb ital
Ġfulf ill
Ġcondem n
F IL
U PDATE
d ll
s chool
am med
ĠC os
Ġ\ _[
ĠĠĠĠĠĠĠĠĠĠĠĠĠĠĠĠĠĠĠĠĠĠĠĠĠĠĠĠĠĠĠĠ ĠĠĠĠĠĠĠĠĠĠĠĠ
Ġterm in
ĠBl oom
Ġexpect ing
Ġconstit uted
struct ure
ĠER R
Ġdeliver ing
Pref ix
Ġfibrobl asts
Ġcirrh osis
0 37
B ur
N ational
W illi
c ity
f at
g ary
æ Ń
et ically
ĠP ad
ĠP ER
ĠE ag
Ġ* (
ous es
ĠK el
ãģ Ĩ
reg istry
}) ^
ev ents
Ġstri kes
ĠRef erence
Ġbra ins
Ġelev ation
Char acter
Ġhunt ing
cler osis
f und
g ender
k h
n v
» ¿
Ġw eld
ur ia
ad justed
Ġr ush
ĠR at
ĠE ss
Ġsp herical
Ġgen omes
Ġsub mission
19 4
St ill
ax y
SE D
(' /
ĠMar ine
ocr ine
ĠCO VID
ĠRev olution
ĠArt s
**^ **
Child ren
Ġglob ally
Ġperturb ation
Ġrom antic
odynam ic
' "
L eg
st ats
ĠC RE
ĠD un
ĠTh or
Ġattack ing
Ġexpect s
Ġir reducible
Ġanalyz ing
ĠWar ren
Ġadjust ing
ĠInst agram
Tra ce
Eng ine
Sing le
Ġlux ury
styles heet
$ âĢĵ
T EXT
d ialog
p ayer
in yl
Ġin appropriate
id ency
ĠA CT
). ](
con sum
Ġout s
Ġform ulas
Ġcol ored
Th ough
Ġdirect ors
def endant
ĠApp ellants
ĠAd ams
Ġtext s
OP T
Se pt
ĠPol and
En um
Ġstream s
Ser ial
Ġkill er
cp u
Ġwood en
Ġsac rifice
ĠChair man
Ġgamb ling
= {\
A pril
M arch
O wn
S ervices
S ql
b ons
b ration
c C
s b
Å ¡
or and
Ġm ush
Ġd ashed
il o
Ġe ars
Ġe ager
ĠE le
Ġatt r
Ġcur ric
Ġloc us
Ġins ulating
Ġmult ic
ĠApp eal
Ġpa ired
ĠCol on
ĠAN OVA
Sc ope
Ġprem ature
ĠAP PE
Ġadministr ator
ĊĊĉĉ ĉ
Ġstir ring
Ġdos age
Ġerrone ous
C am
C ourt
L ib
L IB
b us
le ans
Ġto ll
ent ity
Ġre vel
ĠT el
ĠI de
ĠC ole
od ox
Ġcom ic
ĠH C
Ġcont raction
Ġun pre
ĠK y
Ġsp oon
we ak
Ġcar box
Ġins isted
ST ATE
Ġdel ta
Ġsex ually
Ġur inary
Object s
Ġaltern ate
Ġdead line
Ġpopular ity
Ġneighbor ing
ä» ¥
Ġconsult ation
Ġathlet ic
ĠHig gs
STAT US
Ġcer amic
$ ^{
C u
n odes
Ġc ra
Ġn s
ig ating
Ġg rip
ĠT am
ĠĠĠ ĊĠ
ĠM ars
Ġsu its
ĠE sc
Ġch ol
Ġrest ing
Ġgr asp
ĠCon fig
col n
ãĥ ĥ
ãĥ Ī
Ġpromot ers
ĠEvery one
small caps
Ġscr ut
Ġundert aken
ĠColl abor
Ġassemb led
2 33
R X
U ns
c od
h pp
h ide
m k
} |\
Ġs ender
Ġb rows
Ġg amma
Ġst ressed
Ġcl one
Ġ4 36
19 9
Ġdifferent iable
AR S
22 3
Ġ15 5
ĠDe bt
IC ATION
Ġhead ache
Ġport ray
Ġfund ament
Ġuser name
bre w
Test s
ÑĤ Ð°
Ġengine er
ĠCR P
Ġsam pled
Ġcolle ctions
Am ong
Ġharass ment
ĠJen kins
) }_
D X
\ |\
l floor
m ust
Ġb om
Ġd ess
le ad
ĠB uck
ĠN ig
pl ess
pl ates
ĠĠĠĠĠĠĠĠĠĠĠĠĠĠĠĠĠĠĠĠĠĠĠĠĠĠĠĠĠĠĠĠ ĠĠĠĠĠĠĠĠĠĠĠĠĠĠĠĠĠĠĠ
xt y
Ġ' \
ex it
ĠQ uality
Ġprot otype
45 1
Ġpath ogens
Ġplan es
Ġflu ids
SS L
Ġtw ist
des ign
Ġthreat ening
Ġelim ination
ĠMad rid
ĠVol ume
ĠCommand er
! {(
' -
2 13
H aving
N ER
b ag
s ocket
v p
Ġe ch
ĠT IME
Ġ$ _
ter y
ant ine
ĠB lu
ĠW olf
Ġr ic
ell in
Ġwor ship
ĠĠĠĠĠĠĠĠĠĠĠĠĠĠĠĠĠĠĠĠĠĠĠĠĠĠĠĠĠĠĠĠ ĠĠĠĠĠĠĠĠĠĠĠ
lic ense
ĠK i
Ġro ster
Ġtra pped
Ġref resh
Ġloc ate
aps es
Ġport folio
sub ject
Ġinhib its
ĠĠĠĠĠĠĠĠĠĠĠĠĠĠĠĠĠĠĠĠĠĠĠĠĠĠĠĠĠĠĠĠĠĠĠĠĠĠĠĠĠĠĠĠĠĠĠĠĠĠĠĠĠĠĠĠĠĠĠĠĠĠĠĠĠĠĠĠĠĠĠĠĠĠĠĠĠĠĠĠĠĠĠĠĠĠĠĠĠĠĠĠĠĠĠĠĠĠĠĠĠĠĠĠĠĠĠĠĠĠĠĠĠĠĠĠĠĠĠĠĠĠĠĠĠĠĠĠ ĠĠĠĠĠĠĠĠĠĠĠĠĠĠĠĠĠĠĠĠĠĠĠĠĠĠĠĠĠĠĠĠĠĠĠĠĠĠĠĠĠĠĠĠĠĠĠĠĠĠĠĠĠĠĠĠĠĠĠĠĠĠĠĠ
level and
Dep end
Ġmand ate
Ġcrypt ocur
K ind
M aster
c ox
d ried
s yn
Ġs ons
an ing
Ġg ard
ĠS ales
ĠS ky
Ġcon cludes
ĠD ur
un bound
ĠL V
pl atform
te am
Ġj ew
Ġatt ain
Ġvari eties
ĠCom par
Ġsol o
Ġant enna
23 8
gen e
Ġsl ip
ĠEx amples
rop ol
Ġsuper f
Ġdiv ine
Un fortunately
Ġcompl ained
ĠJust in
ze ch
Ġmount ains
Ġfear s
CM D
Ð¾Ð ²
yg d
Ġspl itting
Ġtom ography
Ġwarn ings
Ġcoal ition
E Y
M Q
j av
m iddle
{ %
Ġc ave
is ible
or ious
ol ph
Ġu gly
Ġv es
ĠB ou
ĠH unt
Ġr it
ĠL GBT
pl ain
ĠO kay
iz ar
Ġdo zens
Ġ_ **
Ġcomm erce
Ġbl ast
Ġprog en
ĠAd m
ĠBl og
ĠMed icaid
Ð¾Ð »
>> >
Ġpreval ent
Ġgly col
Ġretrie ve
Ġveter ans
Ġsearc hes
ĠComput er
immun e
d z
w ers
å ¥
al b
Ġ2 30
ine e
Ġev id
}$ ]{}
math op
Ġrel atives
27 5
big l
Ġconv inc
CP P
rick et
ĠDi agn
Ġemphas ized
Ġprospect s
L iving
W T
W il
s ided
t rivial
å Ĩ
Ġe uro
ra ining
ĠB ridge
ĠH ug
ĠW ang
Ġse venth
ĠL ady
ĠN ik
ens itivity
Ġass ured
Ġref lux
Ġdel ib
Ġlist ener
}_{ {\
Ġappear ances
log in
Ġess ay
Ġdraft ed
ĠProt ocol
Ġgather ing
Ġcro ps
ĠDou glas
ĠMit chell
Ġoverse as
. *,
G N
f etch
r ame
Ð ³
Ġt rop
Ġa z
Ġo w
Ġf ence
Ġb esides
ĠT C
ĠS in
ĠA str
res istant
Ġr ated
ĠN HS
ĠU l
Ġfl aw
ven ile
Ġcount ies
âĪ Ĺ
class es
Ġkey board
IL D
Ġri p
Ġpaint ing
Ġveget able
Su ccess
Iter ator
Ġpyl ori
Ġcompass ion
A h
B asic
D ouble
S outh
l p
t ikz
u ance
Ġt out
Ġd ining
ro ck
am az
Ġv apor
Ġcl im
Ġwor n
^{ {\
Ġinf erred
Ġcontin uity
aj ax
Ġimp ressed
ern and
sub mit
Ġmar ine
ĠBe ijing
ĠMar ia
ĠÃ ħ
ĠAg ric
ĠSim ple
.' "
Trans form
Ġattract ed
ĠEqu ation
Ġreform s
cut aneous
ĠAltern atively
rw ren
F oo
I FL
M EM
N UM
S olution
W riter
f usion
j an
å ¸
at able
Ġre normal
Ġde ar
qu et
ld er
ĠN AME
ud o
Ġsh ifting
ĠE lectric
ĠCh ile
Th omas
io let
oci ation
Ġx en
24 7
Ġcondition ing
uck er
ĠPat ri
Ġlink ing
ĠIS O
Ġhydro x
Ġinterview ed
idel ity
Spec ial
Ġsac rific
Ut il
PAR AM
greg ation
Ġlift ed
Ins ert
Ġafore mentioned
M ess
] $,
Ġw ore
Ġd ps
Ġh orses
ĠW rite
ĠY ang
Ġact in
Ġdec ree
Ġpred etermined
ãĤ ¢
Ġlack ed
Ġwa ist
ĠSur gery
ĠSing h
Ġadvoc ate
prim ary
E rr
s ay
æ ŀ
Ġ ic
Ġa est
Ġis omorphism
ĠT rial
ĠB row
ry l
Ġour s
Ġcor ners
14 2
AN Y
Ġtem pt
98 7
ãĤ ¿
comp are
bo ost
GF P
Ðµ ÑĢ
Ġaw k
Ġcivil ian
mem ory
Ġhal o
Ġrefrig erator
Ġlumin osity
Ġinterf ere
- )
m ale
s il
Ġ" .
Ġso ap
Ġag ar
ook ed
Ġ19 64
Ġsub unit
Ġinter active
Ġmod ular
Ġshe ep
16 6
Ġpar ser
eral d
ĠInd ividual
ĠAll ah
69 6
ãĤ ·
ĠOr leans
Ġdou b
Ġdeb ris
sim ilar
Ġrac ism
exec ution
Ġconform al
Ġrenew able
Ġrabb it
Ġmyst ery
Ġtraff icking
- "
n il
Ġg aming
Ġwe aker
ĠP el
qu ire
cl ock
Ġgo ose
ĠSt ream
Ġbl ade
olog ous
Cl oud
---------------------------------------------------------------- ----------------
ĠIN TO
iter ator
yz ed
![ **
ĠPr int
Ġwa ited
ĠIR S
Ġsq l
Ġbatter ies
ĠPut in
Ġsurprising ly
. }
J ob
R ender
i ably
p ent
ist le
ob ut
inal s
Ġend ogenous
Ġdon ations
Ġold est
Ġbro ker
}) =
sl ash
ynam ics
Ġappeal ed
Ġfraud ulent
Ġpropag ation
ĠMex ican
Ġadm its
Ġpreced ent
Cond ition
Ġregim en
) }}
K K
U h
b ridge
b asic
Ġf ut
Ġre habilitation
Ġon c
ĠC atal
Ġex empl
ĠF estival
Ġch i
ary n
Ġout let
Ġout lets
form al
Ġreg istry
oth y
ST ART
Ġz ones
Ġput ative
co very
ey ond
mod al
Ġauthor ization
xim ately
ĠPat ient
') );
Ġparent al
Ġfun ctor
SC s
friend ly
plug ins
REFER ENCES
M aterials
b ination
d ose
u pt
an ch
us age
Ġcom edy
ĠH PV
ĠG il
... )
Ġins urer
RE G
lu ent
Ġstrong est
test ing
Ġland ing
ĠCont act
Ġhor rible
Ġfirm ly
ĠON E
Ke ys
ĠRepresent atives
Ġtact ics
, *
1 0000
F amily
à ¸
Ġt an
Ġs its
or iginal
Ġe go
Ġas h
ac ular
ĠG er
ĠTh ink
ient o
Ġsm iled
Let t
cur ities
Ġball oon
Ġut er
Ġdisapp eared
Ġaccum ulated
________________ ________________
Ġoccas ional
ĠTurk ish
A ust
F und
G al
N othing
P resent
V O
W estern
c ible
at ibility
Ġp all
Ġb ones
Ġd ia
ĠW ash
Ġr t
ĠR ap
=" %
au nt
19 78
16 1
Ġ% }
Ġfle et
ĠJon athan
Ġbene ath
, (
B N
H ub
p ragma
æ Ķ
as et
op les
Ġj est
Ġco in
Ġgu itar
Pro p
ext ension
Res p
plement ation
uk i
Ġbank ing
Ġfix ing
Ġcop ing
Ġrank ing
Ġpancre atitis
Ġnod ded
Ġslee ve
orand um
D OM
J une
M obile
\ %
e fficient
m eth
he im
ot or
ĠT ro
ra ul
ac les
ĠD or
ill ation
ib et
_{ {
Ġad ren
Ġwell s
45 9
Com pat
Com plete
Ġland ed
Ġsqu ares
section al
Ġmulti pl
Ġcolon ies
Ġsyn c
asc ii
ĠSwed ish
Ġauthent ication
Ġholid ays
Ġfles h
N orth
S end
c rypt
t oggle
in ine
Ġm arch
ĠS now
ĠA K
ĠB and
ĠB elf
ud ge
}} [
Ġass ass
\] (
Ġinf erior
gg ing
(" %
05 6
ĠDe an
anc ouver
Ġemploy ing
ij er
ĠMar vel
ĠDis play
ĠPort land
Ġaband on
Ġindirect ly
Ġtraject ories
Ġthy roid
Ġnec rosis
s us
Ã ¥
is ol
ig o
ĠS cript
Ġde ce
res ources
Ġnot ably
Ġdis put
erm al
ian ces
Ġtra ins
Ġsim mer
arch y
23 1
inc ial
Ġsens it
arc ia
ĠCor ps
down load
ros ine
Ġutil ization
Ġpoll ution
Ġfuck ing
L F
M ill
N ING
p al
r ically
in ar
Ġis lands
ĠC trl
res olution
ĠR y
Ġint rig
40 4
Ġpot atoes
Ġproblem atic
Cont in
Ġmicro environment
Pl ayer
Ġwa ived
Ġhor ror
}. \
ĠStud ents
xx x
gu ided
Ġfung al
Ġphotograph s
0 27
R et
re po
Ġl ag
Ġch ond
Ġso y
ĠV i
Ġdiff ers
ĠY am
ĠDe bug
Ġprogram mes
An n
unc hes
Text ure
Ġrot ating
check ed
Ġcomposition s
ĠMur phy
Ġpros per
Ġinfar ction
, [
0 44
T a
f ox
Ġth umb
ad get
un iform
ĠN ucl
Ġdis semin
ail and
par allel
50 6
ãĤ ¯
Ġann ually
ĠMar x
Ġpredict or
UN EXPECTED
Ġemb race
Ġund es
Ġpurch asing
Ġtransport ed
det ail
ĊĊĊĊ ĊĠĠĠĠĠĠĠĠĠĠĠĠĠĠĠĠĠĠĠĠĠĠĠĠĠĠĠĠĠĠĠĠ
Ġexperiment ally
Ġrect al
Load er
Ġhonest ly
Det ails
ĠEth ics
Ġshel ter
Ġpenal ties
) }_{
, {{\
D est
P rior
r vert
x bf
Ġre ception
ĠS ave
ĠP ok
ĠB IO
ĠH ist
and ed
Ġse am
ĠL ang
ĠN ormal
Ġsh ar
Ġle mma
Ġcomp artment
ass ium
Ġ19 68
Ġsur f
)) **
pr ises
Ġfail ures
Ġcost ly
Ġphot ograp
ĠPr inc
Ġdest ro
Ġemerg ence
Be an
Ġburn ed
ĠCle arly
Ġdelet ion
T B
Ġm akers
Ġd irt
Ġon t
ĠA IDS
Ġst ays
op ter
Ġne opl
Ġle ver
Ġint imid
Ġwork out
Ġco ated
Ġmon ol
Ġpri est
Ġhead quarters
ĠPh ill
cd n
Ġfac ial
Ġcomment ary
ãĢ Į
ĠWork ing
Ġsoc cer
rous ch
~~~~~~~~ ~~~~~~~~
ĠRow Box
0 30
M eta
n ell
Ġin ad
Ġth ym
st rip
ĠS ay
ra it
ĠL iving
Ġwhe at
ak h
}} _\
Ġexp ose
Ġam yl
sc hem
pr ising
Ġplay offs
Ġequ itable
34 6
Ġinteg rate
ÃŃ t
ĠHar bor
Ġsort ed
Ġpurs uit
Ġaggreg ate
ĠJul ia
ĠNAT O
IFL A
D OC
H y
R ob
\ }$.
he never
Ġc ath
Ġw ard
ic ans
ĠS EM
ĠA PP
Ġhe al
ĠG ary
Ġun related
Ġar Xiv
Ġsub scrib
Ġrel ie
Ġdes erves
ĊĠĠĠĠĠĠĠĠĠĠĠĠĠĠĠĠ ĠĠĠĠĠĠ
Ġtri ps
Ġlast ing
Ġdev iations
Ġsl ides
Ġes cal
Ġprob abilities
ĠIN TER
Ġste ep
Ġhydro ly
Des criptor
och astic
Ġyield ed
inte ger
ĠMot or
ORD ER
Ġincent ives
ĠEmploy ee
Ġroy al
= $
> )
T ON
W hether
w hether
æ ³
it in
Ġm uc
Ġ" _
ĠW i
ĠG ab
ĠJ J
Ġdis puted
av y
Ġ19 40
Ġrel iance
pro f
Ġtra ditionally
ĠQ CD
upp er
ĠAl t
Ġ20 2
38 2
oph ageal
Ġflow er
gl uc
Ġstim ulated
ãĢ į
ĠSuper ior
ocy an
Ġfinger print
Ġdisappoint ed
Ġov arian
oglob in
Ġartifact s
B en
N at
S ample
d ensity
l uc
Ã ĥ
ĠT reat
ĠT EST
ĠT bsp
ch rome
ĠM aterials
Ġ2 70
oc a
ĠR EP
}\ |
Ġob ese
Ġent ers
hip s
Ġapproach ing
TR A
rec ip
Ġconsum ing
Ġcontribut or
Ġquar ters
Ġprepar ations
ĠRober ts
Ġgar age
Ġtort ure
Ġagric ulture
3 45
Ġt ert
Ġa str
Ġo wed
Ġd ub
Ġl ith
ĠP ref
ĠG ill
Ġad missible
âĢĿ ).
Ġsp ir
Ġsp ac
get Element
Ġpat ches
ym al
Ġcar go
ĠSp ect
fe ature
Ġsatisf actory
Ġcru el
ĠMult i
Ġangi ogenesis
Ġexpend iture
Ġdeliber ately
j f
v ens
ç ī
Ġ ];
he w
Ġp ants
Ġf oss
ĠM n
ĠH old
Ġinv ite
ren cies
Ġhigh way
sh op
24 8
(- \
Ġimport s
Ġann iversary
)} *
Ġadj ud
EM ENT
ĠComp ared
ĠTw enty
ĠMark ov
Ġter rit
Ġtempor arily
ĠForm ula
ucos al
Ġsulf ur
Ġdescript ions
Ġfavour ite
Ġstrom al
Ġcombust ion
Ing redients
l ip
t oc
is ers
Ġl oci
Ġg ases
ĠF ro
ĠG MT
Ġch unks
Ġint ens
Ġpre cursor
ĠV erm
ck er
Ġend e
pos ite
Ġproject ions
Ġlog s
Ġir r
Ġer ad
ĠTR UE
Draw ing
Jo in
Ġcha os
_ (
b ank
h im
Ä ±
Ġan ch
st im
Ġu h
ver ter
ĠM oon
Ġ\ (
ĠD og
Ġj Query
Ġ_ {\
Ġam ygd
ĠHe y
__ (
Ġlong est
Ġant is
Ġinc urred
Ġca usal
cur y
Ġworld s
ĠDe ath
ĠCon text
Ġur ge
Ġhost ile
ĠQu ick
cin ating
Ġdie lectric
ĠTechn ologies
Ġinequ alities
Select or
Ġven ue
Ġaffirm ative
Ġredist ribute
Ġgrap hene
U LE
W elcome
c red
i encies
l ad
m icro
x bb
} </
č ĊĠĠĠĠĠĠĠĠĠĠĠĠĠĠĠĠĠĠĠ
Ġ ê
he lium
Ġc ube
Ġb ell
Ġl y
ĠT ed
ĠS ide
Ġv oc
ke ep
Ġob struct
Ġadd itive
Ġimport ed
Ġtechn ological
Com ment
Ġbuild s
Ġcorrespond ence
AA AA
ĠAM PK
bran e
ĠCr ime
Ġgram s
$ ^
) >
* :
Ã ¸
it ives
Ġn os
il ic
ĠA FP
ĠM K
ĠB aker
ĠN ancy
ass ador
ĠJ ere
Ġ' ,
Ġ19 67
Ġph ag
ble ms
sh a
ĠNew ton
Ġprot esters
Ġbeh ave
AG ES
big r
ĠOb viously
Ġbar red
Ġwa fer
long rightarrow
Ġbond ing
Ġarbit r
Ġfarm ing
ĠGra ham
Pol ice
Ġsimult aneous
Ġvolunte er
ĠPrim ary
Ġchamp ion
2 14
S an
T x
W as
d ynamic
f are
p d
å ·
Ġb od
Ġd ors
ic he
ation ally
Ġfor fe
ĠC leveland
Ġst ew
Ġde prec
ĠD ream
ĠL ip
ĠL IM
ĠJ e
Ġacc us
Ġval uation
Ġac oustic
Ġinf er
)$ -
ah o
Ch ina
che t
ĠShe l
Ġep id
comp iler
Ġconfig ure
Not ice
ĠAb d
!! !!
ĠNet flix
Ġmm RDPCSTX
riv acy
Ġretro spect
Ġknock down
NOT ES
^^ ^^
Ġhierarch y
B EGIN
R ows
Y et
c py
Ġc ats
Ġp s
Ġp ockets
ĠC G
Ġex ports
ĠN GC
ĠU ntil
Ġcont our
ip eline
19 75
ari um
set up
ĠRe uters
Ġdown ward
Ġ15 4
Ġfin ancing
Ġz inc
Ġcare g
38 4
******** ****
An imation
bor ne
Ġselect ively
la unch
Ġbab ies
pack ages
Ġpun ish
hydro xy
ĠHel p
Ġdiver gence
ĠUnivers al
ĠContin ue
Ġbub ble
3 12
7 20
B IT
v et
st rom
ĠC ox
ĠC AS
ĠC ape
Ġst oring
her in
ĠH ousing
ag in
Ġdes ert
Ġem erge
sp ector
() ));
22 6
Ġbi ased
Ġfar ms
circ le
Ġnorm s
Ġregul ators
Ġrout inely
ĠSN Ps
Frame work
Ġpig s
Ġretrie ved
Ġantioxid ant
ĠGree ce
. <
S uch
Ġb ov
ar u
ent o
om o
ad as
ĠM ix
Ġ2 10
Ġse cular
ĠR uby
pe g
ĠN ap
ĠE ver
ie re
Ġcont aminated
ĠJ u
ong o
Ġsp ouse
Ġtime out
Ċĉĉ ĠĠĠ
ĠQ t
Ġmet er
ah a
23 9
}_{ -
Ġtyp ename
oph y
Log ger
ĠPo isson
æĸ ĩ
ĠRepresent ative
Ġbes ide
Ġtutor ial
F V
I mp
d ocker
{ }\
} ="
Ġw ars
Ġf estival
Ġb or
ĠN ort
Ġsh ook
ĠJ ess
}} ,\
Ġret inal
ER Y
Ġ15 6
Ġtechn ically
CH AN
Ġexec ut
Ġscript s
ĠSupp lementary
bal ance
Jan uary
A gent
F la
æ Ģ
Ġc tx
Ġl oyal
ĠA V
ĠC over
Ġ2 60
ĠD ick
ĠW S
ĠN SA
Ġle pt
Ġdiff use
Ġco herent
Ġconst rained
ator ial
text up
aint ies
ĠCom ment
Ġopt ic
Ch apter
Ġhome ost
Ġfore going
Ġlog ging
code haus
Ġconv ince
Ġcommand er
Ġdro pping
Ġplate let
Ġtub ular
Ġrevers al
ĠEnvironment al
ĠLear ning
ĠArk ansas
; }
D V
F ocus
H a
S ometimes
T ags
m itt
p ages
Â ©
å ¯
Ġa u
Ġf et
Ġd s
Ġd t
Ġ2 68
ĠP au
Ġdis abilities
Ġup regulated
Ġrel apse
AN K
Ġmult if
29 2
Ġsuccess ive
Ġprior ities
aff ected
Sec urity
à¤ ¾
ĠSy nt
Ġterror ists
Vis ible
ĠHig her
ĠCra ig
Ġcoupl ings
? !
Ġa rose
Ġb ile
Ġto kens
ĠT ru
Ġex on
ĠF reedom
ĠW itt
Ġsp acing
ĠV ancouver
ob serv
19 76
ĠCh ap
Ġdist ribut
28 7
ĠCl ient
Ġsl iding
Ġdefend ing
Ġopp onent
Ġgot o
US A
apt ure
Ad vert
augh ters
Ġanim ated
Ġdem o
Ġtim er
Ġsyn aptic
Ġstrength s
ĠPre vious
Ġtrou bles
Ġvolunt arily
Ġamplit udes
ĠMult iple
Ġpod cast
plet ed
ĠHit ler
ĠPU BL
C y
Q t
m ix
n ik
w at
é ¡
he nd
Ġis ot
Ġfor k
ĠM ach
ri k
ĠH ills
ence phal
19 1
ĠCh ak
Ġcol leges
37 9
plic it
Ġsk i
Ġdepend encies
Ġver bal
Ġimmun os
ĠAct ivity
ĠDis cussion
unn y
Ġpsych ology
pay ers
ĠInit ial
åŃ Ĳ
ĠAz ure
Ġcot ton
ĠPitts burgh
ĠRodrig uez
J ack
M ODE
m aker
s am
ch unk
ul us
Ġ" '
Ġde formation
cl inical
=" \
ear ance
ia e
so ever
rac ks
Ġexp onent
Ġ19 41
Ġinf l
Ġmed ial
alth ough
17 3
Ġreal ization
28 8
Ar ch
pat cher
Ġcyt os
EE E
Ġmetast ases
names e
Ġrecall ed
Ġsimpl est
Ġmicrosc opic
Ġsupplement ed
Ġadvoc ates
Ġol factory
Ġemphas ize
ĠVict or
acer b
Ġhung ry
itone al
rang ian
l vert
t urn
u art
Ġd ash
ol ytic
ĠL ICENSE
ĠJ oint
ĠJ uan
Ġdis ks
pro j
sc an
]{} -
Ġlim b
Ġrest art
ĠDe velop
Ġcr ust
ĠPh D
oun ters
Ġpress ing
UR I
En vironment
pa per
Ġeth n
Ġspeak ers
erent ial
:" ){
ä» ¶
Ġban ana
Ġcycl ic
Nav Bar
Ġlap ar
Ġuniqu ely
R s
g c
p icker
s omething
Ġp ent
Ġf als
Ġfor ty
Ġ$ ,
ĠM ind
Ġwh ites
ac char
Ġhe ars
ĠD OM
Ġr het
red ient
ĠG B
ie u
Ġrec ession
Ġmon ster
Ġread only
28 5
ãģ ĵ
Ġapplic ant
Ġsuper potential
bar a
Ġrespons ive
ĠAct ive
oz illa
Ġpolymer ase
mult i
Local ized
Ġmelan oma
Ġvo ices
à¯ į
Ġtransp arency
) })
| --
~ .
Ġt orn
in valid
Ġo u
Ġre per
ot ics
res olved
Ġha pl
ĠR ivers
ĠL ane
_{ -\
=" -
ĠIt em
40 6
Ġ15 8
Ġz oning
Ġart ic
Ġhold ers
Ġpress ures
100 8
Ġdest ruct
Ġstreng then
ĠAb stract
Ġrac ist
Ġelectron ics
Ġterminal s
Ġexplos ion
Ġjack et
mys ql
oen ix
Ġtoile t
ĠWag ner
p ull
v box
Ġc ree
as a
ĠF S
ĠE T
rou t
_{ {{\
av ir
ĠV A
"> @
Ġinst antly
Ġgener ous
Ġinvest ing
Ġrest oration
38 7
col umns
An im
Ġpolit ician
ĠCan ad
state ment
ĠPhys ical
Ġqual ities
Inst all
Ġneut ron
ASS ERT
Ġsimpl ified
hydro gen
ĠLib eral
Ġchlor ide
Ġethyl ene
pred ict
Ġlin ux
ĠRespond ent
Ġgrocer y
ĠBGC OLOR
, ...,
/ )
D W
R a
X ml
] ))
^ ](#
j k
m ill
Ġc ents
Ġp ine
Ġh ill
Ġn aming
ri ors
Ġ2 69
op ing
ĠE state
cl uster
ĠĠĠĠĠĠĠĠĠĠĠĠĠĠĠĠĠĠĠĠĠĠĠĠĠĠĠĠĠĠĠĠ ĠĠĠĠĠĠĠĠĠĠĠĠĠĠĠĠĠĠĠĠĠ
ĠK ings
ĠSt age
ook ie
Ġwork force
Ġph p
ĠAl b
Ġ15 1
Ġrest raint
ĠApp ellee
Ġgra ins
Ġlog o
Ġphot ons
ĊĠĠĠĠĠĠĠĠĠĠĠĠĠĠĠĠĠĠĠĠĠĠĠĠĠĠĠĠĠĠĠĠ ĠĠ
Ġsil ly
chem ical
ĠBu y
Ġwealth y
Ver tex
Ġmultiplic ation
ĠBelf ast
> ;
C ast
D ES
S up
[ {"
f ork
f ocal
s ocial
t ip
~ /
£ ç
Ġ ðŁ
Ġc i
ic ator
ĠT ogether
ĠM ale
ĠF low
Ġse q
ĠO racle
ub ric
ex tern
Ġdet ention
)) **(-
18 3
Ġsuper nat
ĠAr c
08 7
Ġmar ry
Ad v
ĠPer formance
Ġengine ers
Ġlymph ocytes
hent ication
Ġcarb ohyd
pnt d
ĠParticip ants
raul ic
: $
C Y
L ES
o ffic
Ġd ye
ot ay
ĠA wards
ĠD A
Ġse curities
ĠL ock
og raft
Ġim posing
con g
}} ^\
Ġel ic
33 33
IC O
Ġdesign ing
Ġsal ad
Ġcy ber
Ġlink age
ĠCD K
Int erest
NS String
ĠReg ion
ĠOR DER
ĠGl ass
Ġmanif olds
unn umbered
gener ic
ĠCro hn
ĠVill age
Ġtuber culosis
B LE
\ (
e or
Ã ¯
Ġs our
Ġc ute
es pecially
Ġf oster
Ġd ressed
Ġn M
ut m
Ġ( ).
ĠB ed
ĠB art
ĠN BC
ĠG rid
ĠG arden
Ġspec ulation
of lu
ãģ ķ
AB A
const raint
UN CTION
Ġâ Ĥ¬
Ġcred entials
Ġstar ter
run ning
Mem bers
cedent ed
Vari able
Ġmaxim ize
Ġanalyst s
yout ube
Rober t
, _
5 49
M N
Ġan is
Ġcon jecture
Ġal umni
ĠP in
all s
ff e
Ġj er
ĠV in
Ġgen us
Ġadd iction
Ġpr one
ser ies
Ġpath ogen
resp ect
\_ \_
Pl ugin
Ġunc ert
Ġprison ers
Ġexplo it
Ġren ov
Ġinher ited
onom ous
pow ered
Ġrif le
Feb ruary
+ /
L u
N OS
w rapper
} ),
Ġ Ñ
Ġc attle
Ġbe ars
ĠC ow
ĠC and
her ry
ĠH P
ĠN J
ĠO tt
}\ ,\
row ave
Ġ9 00
Ġhere by
Ġca ption
ser ial
ĠIs a
ĠPl ayer
ĠRes ult
Ġplan ar
Ġep ile
size of
ĠSte wart
De legate
Ġconver ting
Ġcelebr ated
Ġnom ination
sen al
Ġtradition s
ĠTOD O
ropol itan
0 66
H ER
V ery
Y OU
f as
g ium
Ġc rown
ar ial
ig inally
ĠT A
ĠM ann
Ġr am
Ġen semble
Ġso bre
Ġher itage
Ġfollow ers
Ġins ult
ĠAl bert
64 7
ina fter
Ġabs urd
Ġcrit ically
AP P
ĠMet ro
æľ ¬
Ġjour nals
ĠPan el
Ġprompt ed
Ġsucceed ed
Ġsupers ymmetric
Ġdesper ate
+ ,
P aint
R t
d ic
m icrosoft
t alk
v ity
v ie
x sl
Ġt ended
Ġs z
Ġs ul
ĠS ent
Ġ$ ^{
00 978
ost ics
Ġsa fer
ick et
the me
Ġrem od
18 00
32 4
Ġ15 7
Ġgl uten
Ġredu nd
ãĤ ĵ
Ġtax payer
Ġear ning
ĠChrist opher
ĠOther s
Ġregul ates
ĠChristian ity
ĠDu ke
bu ilt
ÂłÂłÂłÂłÂłÂłÂłÂł ÂłÂłÂłÂłÂłÂłÂłÂł
Ġperme ability
oden al
D N
T ell
[ \*](#
f illed
p f
s ig
Ġt itled
Ġn arc
st olic
Ġe osin
im s
am ount
ce x
Ġst amp
ri ber
Ġex terior
Ġ\ '
** ).
th ood
ag g
Ġro cks
Ġtrans genic
hed ral
Ġcor pus
li ography
Ġmon op
AT T
Ġdec ides
AR M
24 9
Ġpur ity
Ġsuper vision
Ġwon dered
^+ $
Ġrac ing
output s
blog ger
Ġaggreg ation
Ġreserv oir
I gn
j or
m ont
å Į
he imer
it atively
Ġd ots
ĠA A
Ġst adium
ĠN H
act ing
Ġall erg
de ep
ĠTh ai
ĠSt adium
Ġsc rap
Ġ19 30
Ċĉ Ċ
ER D
Ġcor ro
Ġback ward
32 2
Ġsl ave
Ġindic ations
34 8
ĠIs lands
FF ER
Ġcapital ism
Ġproport ions
Ġintegr als
Ġgar bage
Ġrelax ed
ĠIP v
Ġexceed ed
ĠÂµ g
ĠPharm aceuticals
Ġparad igm
Ġtomat o
Ġuncert ainties
B as
P erson
c atch
m aven
w arn
in is
at isf
Ġf mt
Ġm art
st ick
ĠS ET
ad ic
um m
Ġ\ ~
ĠH IF
Ġcan al
Ġ{ '
Ġtr ucks
Ġsp ine
ov al
ox ygen
Ġend owed
Ġmin eral
ĠAl an
22 7
ron es
45 5
Ġsing let
idd ell
String s
Ġviol ating
het ical
Ġclean ed
ĠSu ccess
Ġlabel ing
Bl ue
Ġcycl ing
Sm all
Ġrub ber
pin ion
Ã§ Ã£o
Ġtalent ed
Gre en
c gi
d ue
s mu
u ate
w indows
w riter
è ĩ
Ċ ĊĠĠĠĠĠĠĠĠĠ
Ġthe ater
is ode
Ġf ats
st an
ĠT ar
ĠS omething
ch art
ĠD AM
ort ex
ard less
Ġab ort
ass ets
=" {
Ġtr illion
ĠK in
Ġ19 65
itt i
Ġjust ification
sc ience
Ġhand les
Ġ16 6
Ġvol atile
âĢ¦ âĢ¦
ops is
top ic
Ġpair ing
Ġcircum ference
Ġwilling ness
ĠLike wise
Ġrational e
Ġfant asy
Ġseiz ure
Ġhomosex ual
3 40
A li
L en
L ear
L oop
p atch
t re
| âĢĶâĢĶ
è ¨
Ġc AMP
Ġd ich
Ġth ri
il age
ĠI E
ĠS PE
ĠC e
Ġst en
pp y
ĠP ope
Ġex cluding
op ts
Ġle verage
Ġun reasonable
Ġass isted
row ing
Ġinter sect
ari ans
ix on
text sf
Ġ14 7
load ing
Ġpret reatment
Ġprec ious
Ġmach inery
Ġge odes
Ġlib ert
quest ion
Ġarch ive
Ġcommerc ially
ĠWork ers
COM P
direct ory
Ke ep
Ġslic ed
bel ie
Ġbench mark
lot te
Ġbenz yl
Ġconvinc ing
- {\
N EW
R C
U B
p ulse
x s
å Ģ
å İ
Ġp ou
Ġre lying
ant ib
ĠH ell
ĠD ES
ĠD uck
ĠR EG
ke ley
Ġdis section
---------------- -----
Ġ5 12
pro tein
Ġpri ze
Ġmet adata
28 9
Ġquant ification
She ll
pol ymers
config uration
ĠLin coln
äº Ĩ
Ġrid iculous
Ġgran ul
Ġhol omorphic
Ġduplic ate
Intern et
Ġmunicip al
oler ance
Sept ember
' >
: [
A cknow
D er
E lements
F acebook
P erm
h size
v ascular
¼ âĶĢâĶĢâĶĢâĶĢâĶĢâĶĢâĶĢâĶĢâĶĢâĶĢâĶĢâĶĢâĶĢâĶĢâĶĢâĶĢâĶĢâĶĢâĶĢâĶĢâĶĢâĶĢâĶĢâĶĢâĶĢâĶĢâĶĢâĶĢâĶĢâĶĢâĶĢâĶĢâĶĢâĶĢâĶĢâĶĢâĶĢâĶĢâĶĢâĶĢâĶĢâĶĢâĶĢâĶĢâĶĢâĶĢâĶĢâĶĢâĶĢâĶĢâĶĢâĶĢâĶĢâĶĢâĶĢâĶĢâĶĢâĶĢâĶĢâĶĢâĶĢâĶĢâĶ
Â ¼
ur ious
ĠS amsung
ĠA le
ĠC in
Ġv om
Ġex changes
ĠF ixed
Ġsh ake
Ġad apter
ĠIn clude
port ion
Ġsc aff
Ġ19 62
par a
Ġeven ly
Ġant igens
Ġrisk y
ĠNot es
Ġworth y
zz le
Ġcam ps
Ġlif ting
Ġkid n
ĠSing le
ĠSN P
Ġpharm aceutical
Ġeditor ial
Ġnut rient
Ġglob e
%%%%%%%% %%%%%%%%
âĶĢâĶĢâĶĢâĶĢâĶĢâĶĢâĶĢâĶĢâĶĢâĶĢâĶĢâĶĢâĶĢâĶĢâĶĢâĶ ¼âĶĢâĶĢâĶĢâĶĢâĶĢâĶĢâĶĢâĶĢâĶĢâĶĢâĶĢâĶĢâĶĢâĶĢâĶĢâĶĢâĶĢâĶĢâĶĢâĶĢâĶĢâĶĢâĶĢâĶĢâĶĢâĶĢâĶĢâĶĢâĶĢâĶĢâĶĢâĶĢâĶĢâĶĢâĶĢâĶĢâĶĢâĶĢâĶĢâĶĢâĶĢâĶĢâĶĢâĶĢâĶĢâĶĢâĶĢâĶĢâĶĢâĶĢâĶĢâĶĢâĶĢâĶĢâĶĢâĶĢâĶĢâĶĢâĶĢâĶĢâĶĢâĶĢâĶ
âĶľ âĶĢâĶĢâĶĢâĶĢâĶĢâĶĢâĶĢâĶĢâĶĢâĶĢâĶĢâĶĢâĶĢâĶĢâĶĢâĶ¼âĶĢâĶĢâĶĢâĶĢâĶĢâĶĢâĶĢâĶĢâĶĢâĶĢâĶĢâĶĢâĶĢâĶĢâĶĢâĶĢâĶĢâĶĢâĶĢâĶĢâĶĢâĶĢâĶĢâĶĢâĶĢâĶĢâĶĢâĶĢâĶĢâĶĢâĶĢâĶĢâĶĢâĶĢâĶĢâĶĢâĶĢâĶĢâĶĢâĶĢâĶĢâĶĢâĶĢâĶĢâĶĢâĶĢâĶĢâĶĢâĶĢâĶĢâĶĢâĶĢâĶĢâĶĢâĶĢâĶĢâĶĢâĶĢâĶĢâĶĢâĶĢâĶĢâĶ
âĶľâĶĢâĶĢâĶĢâĶĢâĶĢâĶĢâĶĢâĶĢâĶĢâĶĢâĶĢâĶĢâĶĢâĶĢâĶĢâĶ¼âĶĢâĶĢâĶĢâĶĢâĶĢâĶĢâĶĢâĶĢâĶĢâĶĢâĶĢâĶĢâĶĢâĶĢâĶĢâĶĢâĶĢâĶĢâĶĢâĶĢâĶĢâĶĢâĶĢâĶĢâĶĢâĶĢâĶĢâĶĢâĶĢâĶĢâĶĢâĶĢâĶĢâĶĢâĶĢâĶĢâĶĢâĶĢâĶĢâĶĢâĶĢâĶĢâĶĢâĶĢâĶĢâĶĢâĶĢâĶĢâĶĢâĶĢâĶĢâĶĢâĶĢâĶĢâĶĢâĶĢâĶĢâĶĢâĶĢâĶĢâĶĢâĶĢâĶ ¤
: @"
N H
c jwatson
m os
p uppet
x it
x ious
Ù Ħ
ç ½
Ġw ires
ou bt
Ġd ign
Ġn ap
Ġ( _
ĠT aking
Ġu buntu
ver b
ul u
ĠB erg
ĠF oster
ĠR ice
ĠL M
Ġj avascript
Ġ[ \
ĠV a
Ġover head
Ġfl ed
Ġ14 8
label s
Ġinit iate
04 1
With out
ĠÐ ´
function s
ĠGe V
Ġappeal ing
Ġnation wide
Ġmarked ly
Ġfle w
rosc opic
ĠSix th
ĠStan ley
Ġsurviv ors
ëĭ ¤
Ġcong ressional
cipl inary
Mut ex
Ġchromat ography
) ^\
H o
S am
S ir
W ould
b inary
n utrition
w r
Ġg aining
um ina
Ġal ike
ĠR ole
ĠG ran
og y
ĠK l
ob l
Ġ19 0
Ġpe cul
iss ues
Ġro ok
ident ity
000 7
Ġappro ve
Ġsupport ive
ploy ed
by e
ope z
Ġlight ly
Ġ! ==
Col l
Ġten ant
Log ging
Ġtrig gers
Ġfilter ing
Ġalt ogether
Ġsoci eties
ĠLim ited
Ġenact ed
Ġbron ch
ĠMathemat ics
tain ment
ĠConnect icut
Sequ ence
2 18
H s
Q P
S omething
X Y
c ause
l ord
ou p
ĠN MR
Ġsh am
ĠG ospel
ich i
Ġinter pol
Ġdifferent iate
ĠCom merce
Ġgu ards
ĠÂ ·
25 7
Ex c
29 4
Ġhead ers
Ġes p
hib ition
Ġdr unk
Ġdisplay ing
Ġalleg ing
Ġagg ression
Ġswe at
Static Resource
Ġpric ing
Ġnanop articles
lene ck
* {-
7 45
B ind
C FLAGS
S ocial
V ICE
b z
Ġt ire
er os
Ġc ass
Ġin hab
Ġre actor
ĠP rivate
ĠR s
ip es
sc roll
ĠFor ces
36 1
Ġlow ered
Ġprim itive
ãĥ ©
ev idence
Ġmi xtures
ĠJan eway
lib sofia
sk a
tra ce
DR M
ĠEv ans
ĠMem ory
Const ant
Ġven ous
ĠProv ince
Ġnut rients
Exec ute
Ġepidem ic
ocl onal
Ġcounterpart s
Ġenvelop e
Ġcurric ulum
ernand ez
* ;
2 17
B ro
T IC
W orks
g m
g if
g one
j d
Ġf reed
ig roup
Ġg y
ĠT alk
am el
ch at
ul k
ĠB enn
ast ically
int endo
ĠTh ailand
ĠV e
Ġover r
pro ves
Ġwhere ver
put er
Ġpot assium
Ġwin ners
Ġcontext s
umb led
Ġpoly ps
Ġselect or
Ġge ographic
Ġconstruct ive
Ġtravel ed
prot ocol
Ġgradu ated
Ġrock et
Off ice
Ġmarg ins
oplas mic
ĠHurric ane
Ġintraven ous
W F
r ors
r ift
Ġis opropyl
ĠT CP
th umb
ĠL abel
ine a
per cent
01 758
Ġdes ires
ari ous
Ġdet rim
Ġcor rid
Ġend less
ĠCom mons
Ġconf using
Ġopen ly
29 0
ĠZ hang
70 6
col lection
Ġ17 1
sequ ence
Ġenc ode
Ġconcent rate
po inter
ÃŃ cul
Ġlat ent
Ġjoint s
Ġcele bration
ĠMem orial
Rem ember
Ġrail way
Mult i
ĠPract ice
Ġdisput es
S elf
T or
f older
r ceil
v l
Ï ĩ
è Ģ
č ĊĠĠĠĠĠĠ
Ġt ennis
an ne
um ar
ĠM olecular
ĠP erm
Ġex acerb
ac re
em n
ag ulation
ĠO ptions
ĠTh ings
iff s
ail ure
IN VAL
lement al
ĠBut ton
land o
Ġes ter
Ġquant ify
Ġdynam ically
ĠĠĠĠĠĠĠĠĠĠĠĠĠĠĠĠĠĠĠĠĠĠĠĠĠĠĠĠĠĠĠĠĠĠĠĠĠĠĠĠĠĠĠĠĠĠĠĠĠĠĠĠĠĠĠĠ Ġ
display style
Ġfif teen
Ġfold ing
Ġsong s
Ġpharmac ological
Bo olean
Stat istical
ĠVAL UES
Ġcub ic
Anal ysis
ijer ph
G H
re ck
er d
Ġc ough
is y
ing e
Ġd airy
Ġl ighter
ĠA Î²
00 12
ac in
th reshold
ĠF O
ĠR u
Ġres ume
Ġtr ash
get Name
19 74
iss a
Ġdet er
Ġclass Name
Ġatt raction
sc riber
Ġaut ophag
Ġgl u
Ġfund ra
Ġbit ter
Ġnetwork ing
ĠSte f
det ails
ĠCON FIG
ĠRead ing
process ing
Ġhierarch ical
Ġinfil tr
Eff ect
runt ime
M ouse
j rwren
k ers
{ |
å ¿
Ġ ile
en ant
ar coma
st ates
Ġl id
Ġ2 80
Ġcan vas
ĠO wn
Ġ4 04
ĠSt ruct
vel t
Ġmon o
ĠCom plete
Ġnon etheless
45 6
ID X
rel ations
Ġstri ps
script ions
Ġconstruct s
Ġfriend ship
EC s
ĠAng el
Ġvacc ines
Ġdil uted
Ġvill ages
Ġkick ed
comfort able
Ġbios ynthesis
Ġoun ces
Ġplaus ible
getElement ById
B u
E th
K it
V ec
es ium
an as
Ġp i
ar b
Ġl n
ĠM agn
ĠP G
ĠP resent
ĠF ALSE
un ique
ĠN M
ag u
ag ents
Ġall ergic
ress es
---------------- --
ĠK u
ob i
Ġident ifies
Ġ14 1
co ord
ĠLe ban
ĠOr ange
++ ++
roph ys
ĠST ATE
ĠBar ry
Ġenh ancing
Ġphen otypes
Over load
ĠNe uro
ĠSw iss
PH Y
ä½ ¿
otyp ic
Ġambig uous
arcel ona
dra wn
F oot
F ROM
L INK
Z ero
b rousch
f m
v ae
Ġ ....
in her
Ġc el
Ġw ished
id yl
ol ation
ol ysis
ĠS ym
Ġst unning
Ġal ph
Ġ" ",
ĠF ly
Ġr iders
Ġsh r
Ġli en
Ġpe ers
Ġtra ded
24 6
22 8
Ġrecord Count
Ġsuper vised
Ġfire arm
Ġbroad ly
ä¸ º
Sc ott
Ġintent ions
Ġelim inating
ĠBel ow
Fe ature
icular ly
Ġintention ally
ĠLead er
ĠProduct s
ĠSTAT ES
Ġsymp at
Ġunpre cedented
B ound
M ock
V vC
b rain
e ous
g iving
s ync
Ġf ul
Ġh iding
ĠA ra
ĠC B
Ġwe aken
ist ani
ĠB AL
ĠD al
Ġcl erk
Ġim g
ob il
ss on
Ġmed al
ĠAl aska
Ġreal m
ĠCol omb
list ener
with standing
Ġvot er
ĠJud ges
Ġax es
nav bar
ĠIraq i
Ġexhaust ed
Ġremand ed
Ġcrystall ine
phosph ate
ĠEL ISA
Ġliber ty
( @
* ),
+ }
U pload
p ire
t own
Ġp unch
ĠM AC
Ġor che
rom y
Ġr outer
Ġch urches
ĊĠ ĊĠ
ress ions
Ġbl adder
Ġdifferent iated
18 2
app s
EN S
ĠAn imal
Ġident ities
Ġ16 2
Ġpolit ically
big cup
ĠInt el
rem ote
Ġmar ital
hand ed
Ġfast est
ĠTor res
ĠEX P
eles c
Ġforg ot
Ag ain
ĠCOM P
Ġbatt les
377 44
Ġtradem ark
Ġquadr atic
ĠMalays ia
B io
H am
k el
m outh
o L
s ym
è §
Ġde legate
Ġnot ified
Ġse vent
ĠL T
ĠL arge
ĠN utrition
ud son
Ġout ward
Ġun re
ĠV eter
Ġcons ume
igh s
Ġafter wards
Ġtra it
Ġline arly
40 5
Ġ30 4
Ġvis ibility
list ed
spec ial
ĠVal id
ĠMat rix
Ġcontribut ors
Ġmur ine
Ġprosec utors
Ġimag ination
produ ction
Ġperman ently
pay ment
Ġremind ed
ĠUr ban
Ġsecre ts
ĠDak ota
Ġtert iary
3 30
9 80
m etic
Ġt am
re z
Ġc ens
Ġp ier
ic ates
Ġh oly
id y
Ġy oga
ĠF ast
ĠN PC
ust ain
ib an
ĠJ ur
Ġ} $
Ġover weight
Ġexp ed
Ġpat rol
fore ach
ĊĠĠĠĠĠĠĠĠĠĠĠĠĠĠĠĠ ĠĠĠĠĠĠĠĠĠĠĠĠĠĠ
Ġcondition ed
Ġ16 7
ION S
Ġgot ta
Ġpurch ases
Ġtrust ee
ĠID irect
Ġroll s
draw able
**, **
Ġreprodu ction
mi R
Ġaver aging
Ġnewsp apers
Ġaccommod ation
ĠSus an
ĠHang ul
F ragment
R ich
W IN
b ott
d istance
h ook
Ġo re
Ġp ork
ct omy
Ġl azy
ĠT ab
ĠS outheast
os ide
ĠF ant
un ion
Ġout rage
Ġnew er
Ġent ert
aint enance
und o
sh ire
Ġtreat s
Ġredu ctions
Ġ16 8
Ġinhib iting
Pl an
MA KE
Ġcomment ed
Ġdraw s
ĠRNA i
STR ING
Ġmorph ism
gent ext
Ġbund les
Ġdil ig
Ġstem s
organ ic
> '
a eda
f ocus
ç §
Ġp ione
ig ator
se cret
ĠM ission
em bed
ĠN ate
ĠO t
int age
ber ger
Ġsc ram
Ġ19 63
24 2
45 74
Ġgr ill
List en
Ġbase ment
Ġlog arith
urb an
De cember
Ġstim ulate
Ġmorph ological
rule opt
0000000000000000 0000000000000000
wx l
Ġfas cinating
ĠCollabor ation
3 10
A ff
C iv
P rom
W W
Z Z
d ates
e ze
f mt
g ic
s ix
v ine
w ire
} [\
Ġc age
ce iver
ĠP ie
Ġsu cc
ĠW atson
Ġch ick
Ġcont ing
Ġper i
ĠSt op
Ġ19 2
ref lect
Ġwhat soever
li ver
Ġplay off
Ġche er
Ġ15 2
yn olds
ĠDe ep
ĠInd igenous
ext ra
rain ian
Ġfore closure
inter pret
Ġprotect s
ĠSur v
Ġcooper ate
anche z
Ġfeas ibility
ĠCit iz
è¦ ģ
" ];
P ython
V ie
j amin
Ġp estic
Ġf id
Ġm useum
Ġd ancing
Ġg li
Ġfor ma
Ġcon ve
Ġal lev
ac ic
us p
ĠU E
19 3
19 70
pro b
Ġind ent
Com ments
ext ensions
ĠÃ ¢
Ġreve aling
ĠComp onent
Ġfun eral
lib s
ĠIS IS
Ġsoon er
rag m
ĠOper ation
))/( (-
Ġfulf illed
Ġclimb ing
Ġsurge on
bour ne
Ġeleg ant
ãĤ· ãĥ
F ailed
H F
K ing
m oving
Ġan te
Ġl ubric
ĠT ak
ĠC ool
est one
ers hip
ĠR and
ĠN ich
ap es
con sole
con cat
ĠK ir
com b
Ġmod er
up arrow
Ġmin er
Ġ@ "
Ġcar ing
Ġ20 4
Ġ15 3
Ġ16 1
Ġexc itement
ĠTe le
Ġcompet itors
Ġdetect able
Ġpaint ed
Ġneglig ent
Ġamb ient
Ġpassion ate
Ġell ipt
Ġentang lement
Ġreferr al
7 50
B ug
C OL
is hers
al one
Ġp c
ent e
ut er
âĢ ĭ
ĠP ub
ĠD S
ĠG T
ĠG ot
ĠE t
ĠE dition
te es
te enth
Ġob server
Ġsm ok
25 2
ĠPro perties
Ġ20 5
Ġinvest ed
Ġeas iest
Ġ17 3
ograph ics
Ġsurv iving
(( (
HO X
ett i
Ġconsult ant
she et
Ġlic ensing
contin ue
Ġepit helium
Ġimplant ation
Ġpolymorph ism
è¡ Į
ĠLiber ty
. ]{}
0 35
C UR
F G
H uman
I K
T ip
^ (
c oding
| $
it ures
Ġp orn
ĠM oney
ĠB apt
ĠH ob
Ġr c
ĠR N
ĠN P
ud ed
pl er
iz on
Ġapp et
ĠTh read
ific ates
19 72
Ġ7 50
Ġchar ity
for cing
Ġcent res
oot ing
ĠWh it
Ġobserv ational
44 4
rad ing
Ġid i
bre aking
}. $
Ġmm ol
ĠDec ision
Ġflo ors
Ġwound ed
ĠCast le
ĠMu eller
ĠBD NF
Ġhydroph obic
Ġspectrom etry
0 80
O A
O ffic
c amp
v or
č ĊĠĠ
it ably
Ġin active
Ġl ately
est ions
ac ute
ĠN L
ph or
Ġall iance
}\ ;
oy alty
Ġpar ity
ĠFor um
ĠPro f
gen stein
Ġarg u
Ġ16 3
26 5
cont ains
Ġorig ins
ĠSc ore
Ġcertain ty
time out
Ġbit coin
ĊĠĠĠĠĠĠĠĠĠĠĠĠĠĠĠĠĠĠĠĠĠĠĠĠĠĠĠĠĠĠĠĠ Ġ
log o
Ġund is
Ġinstall ing
ĠGl enn
Ġcyt ometry
Ġscient ist
ĠAir port
Pat tern
ĠÂµ m
ĠColumb us
ĠOpt ional
ĠCarl os
Ġsuperf icial
A udio
p H
ä ¿
an ut
Ġan kle
ĠS B
Ġcon com
Ġsu ite
pt ide
ys es
Ġsp rink
Ġsub po
dd dt
Ġmeas urable
64 6
36 8
label ed
34 4
Ġfra g
Ġindu cing
ĠIm perial
En able
Ġwitness ed
Ext ension
ĠEX PECT
Ġbott les
Ġfo am
Ġconjug ate
Ġbiomark ers
ĠGener ally
B atch
E lect
d og
t ake
ed uc
Ġp raise
Ġb ot
Ġb oring
Ġin aug
ĠC av
ad ows
Ġ2 12
os o
ment ia
ĠG PS
ath on
Ġsc ans
Ġatt ribut
arch ive
Ġdon ation
ather ine
az ar
LE ASE
Ġdefend er
Ġfree zer
98 5
Ġmiss ions
light s
Ġ---------------- -
ĠBr ig
Ġsusp icious
Ġneut roph
Ġjump ing
Ġfif ty
Rep ository
rolog y
ĠMcC ain
ĠProfess ional
Ġhyd raulic
ĠSett ings
g on
in qu
an ine
Ġre productive
Ġl ent
ĠP ere
ĠB B
ĠF el
ĠD eg
ĠR ig
Ġper pend
ĠK ol
the m
40 7
Ġ18 7
Con clusions
Ġ14 2
ĠSh aw
ĠPh oenix
Com parison
ĠCo al
Ġver ification
Ġmiss ile
Ġhost ing
Ġcred ible
Ġgraph ic
Ġproceed ed
Over all
}; \
Ġdiscl aim
Ġdisp atch
ĠGr iff
typ edef
ĠViet namese
ĠAdv anced
Ġreimb urse
I U
S il
e lements
r uby
v ir
} ))
å ¦
Ċ ĊĠĠĠĠĠĠĠĠ
Ġo wing
al c
al in
Ġd in
ent ric
el astic
ot ides
ĠS z
ĠS ample
ĠA u
Ġcon duction
ĠM ORE
ĠD om
Ġass ists
Ġback ing
mer ge
Ġref ined
": {"
Ġest e
25 4
rel im
Ġorgan isations
Ġcy to
ĠAss essment
ĠCar lo
Ġur gent
ĠAust ria
tem perature
valid ate
Ġcompens ate
Ġwarrant ed
Line ar
process or
Ġmel ting
Ġbiom ass
å® ļ
success ful
Ġadhes ive
Ġrit ual
* ).
0 60
H P
T urn
i w
s qu
x m
re ne
Ġn ail
ĠS cal
ĠM IN
ĠB rew
ĠH ERE
ĠN intendo
ĠG ent
ĠG ate
Ġres il
Ġ{ };
Ġun limited
Ġpos ed
Ġback s
34 9
IM P
Ġmis leading
Ġrele asing
Ġhyper bolic
Ġpow ered
Ġing redient
Ġglass es
ĠBay esian
Ġdownload ed
Control s
Ġrh ythm
Ġbrack et
Ġawk ward
Ġsympat hetic
L anguage
M icro
c ig
h ill
å ±
æ µ
an ium
Ġp ause
Ġd urable
ĠS port
ĠC ertain
Ġ2 16
ĠP oss
ĠW X
ĠR isk
Ġsh oe
ĠG ray
Ġar rows
Ġdiff raction
ex isting
Ġsim plify
Ġext inction
Ġcalcul us
eal ous
Ġscre ened
Ġele ven
Int eg
Ġnews letter
Ġple asant
urch ase
ĠPa per
ĠDi rac
Ġsuspect s
Oper ator
Ġabsorb ed
ĠEnter tainment
ĠDri ve
Ġantagon ist
Ġreconstruct ed
ĠJO IN
Ġdelib erate
* /*
N eed
h it
n amed
re th
Ġm ud
ĠT ibet
âĢ ł
ur u
Ġde form
un al
ĠR b
ĠL P
Ġsh red
ell ers
ĠJ S
Ġsp are
Ġob s
rac ing
Ġbl i
32 8
Ġ16 9
rop athy
Ġbelie ving
Ġsum mit
Res olver
Ġep ic
ucle otide
Ġdr um
Ġrot ational
Cal cul
ä¸ Ĭ
Ġadjust ments
ĠAL J
Rec ently
Ġreprodu ced
Gener ic
phys ical
Q C
S ure
W ed
s al
t frac
u cc
w arning
~ (
Ċ ĠĠĠĠĠĠĠĠĠĠĠĠĠĠĠĠĠĠĠĠĠĠĠĠĠĠĠĠĠĠĠĠĠĠĠĠĠĠĠĠĠĠĠĠĠĠĠĠĠĠĠĠĠĠĠĠĠĠĠĠĠĠĠĠĠĠĠĠĠĠĠĠĠĠĠĠĠĠĠĠĠĠĠĠĠĠĠĠĠĠĠĠĠĠĠĠĠĠĠĠĠĠĠĠĠĠĠĠĠĠĠĠĠĠĠĠĠĠĠĠĠĠĠĠĠĠĠĠ
Ġb ump
ro cal
st ation
st derr
id ge
Ġg host
res olve
ĠL com
Ġus eless
Ġwhe els
Ġ19 5
Ġend ors
Ġend points
Ġpers istence
ale z
Ġcle ver
Ġpost er
Ġbo ats
68 7
oph osph
met ric
Ġaw ful
ĠDet ails
Ġfresh ly
ĠHigh way
Ġwild life
Ġresearc her
Ġguarant ees
Ġcritic ized
Ġattend ance
Ġquiet ly
ĠChem ical
Ġdisadvant ages
ancell or
Aug ust
Ġexecut ives
" }\
Ġ 000
Ġth resh
Ġg inger
ĠT ob
oc used
ĠH em
ĠR EC
ĠG D
ĠE sp
ĠJ oy
ĠJ enn
ub a
ub s
---------------- ---
Ġsp iral
ps in
Ġpres idency
Ġi od
AR CH
for th
Ġinc ap
Ġz ip
Ġ, $$
Ġaddition ally
38 5
ĠSc i
ores is
Ġspect acular
ĠMar shall
Ġcorrel ate
Ġtw in
Ġcry ing
Ġmis under
Ġsubstant ive
^+ _
Ġelectro ly
ĠTra vel
BI O
ĠFin ance
Ġcast ing
CN TL
Ġcatal og
Ġinfil tration
ĠTyp ically
H om
L aw
L ower
R end
Ġ ----
Ġw ounds
Ġre q
Ġre build
st mt
se p
se ek
ra ctions
ĠC el
Ġv end
Ġ2 48
Ġde generate
ĠR io
Ġ3 65
The orem
Ġ19 7
Ġtra ys
Ġpar s
yl er
Ġrep etition
Ġline up
36 3
sub scribe
CL C
Ġcy st
Ġear liest
Ġshall ow
Not ification
ĠPublic ation
Ġconfirm ing
ĠBre xit
Ġdil ution
ĠNor way
Ġment ally
ĠCustom er
Ġacet ate
Dist ribution
Ġ$(' #
ĠCompl aint
Localized String
A pi
M ass
N ative
N odes
h istory
m esh
n ational
u ated
Ġf ires
Ġy a
ĠM ust
ĠB iden
ore ms
Ġres erves
Ġass ure
Ġacc idents
yl um
24 3
Ġcontin uum
ĠInd ians
ĠCon versely
Ġpan ic
ĠDef inition
Par se
Qu estion
Ġ---------------- ----
ĠMod ern
Ġju venile
Ġtrac es
ĠAnn ual
Ġexceed s
Ġbind s
Ġmig rants
Ġcab inet
Ġultr ason
Ġagon ist
Ġanest hesia
ĠConserv ative
ĠDrag on
N or
R ON
j b
m any
å ĳ
Ġw are
ĠS yn
ĠS SR
ĠM AT
ĠH ope
all ed
Ġj ets
ĠK am
erm i
Ġam bit
Ġem itting
Ġfl att
ĠCom parison
Ġterm inate
33 4
90 8
Ġneg lected
fl at
ĠMe asure
Ġsaf egu
Ġbur gl
âĢĥ âĢĥ
Ð¾Ð ´
FI X
ĠScott ish
sign al
Sm ith
Ġenthus i
ativ istic
D ifferent
M Hz
i asis
r ules
Î ¬
Ġ ^{-
in vasive
as ync
Ġon ions
ul p
Ġ" ."
ĠP AC
Ġex emption
ĠB arcelona
ĠH i
ĠN am
ĠE G
Ġher b
type of
vent ory
und ef
Ġel ast
23 6
28 4
28 6
ID s
Ġ17 2
57 2
ĠEd ge
pol ar
Ġinject ions
Ġcivil ians
Ġpossess ed
Ġje opard
Ġnic ely
Ċĉĉĉĉĉĉ ĉ
Ġpel ÃŃcul
ĠGi ants
elect ron
CRE ATE
Ġescap ed
Ġsubdiv ision
Ġdispos al
ĠNev ada
F low
M G
e ight
h rule
y f
Ġ ****,
in vest
Ġw rapper
Ġp ore
ĠT s
ĠT ool
ch anging
um ab
ĠB ond
ĠL oss
act in
ast ric
ire ctions
Ġpre operative
math it
ef its
ex ception
Ġresp ected
oy d
Ġbu gs
Ġdi oxide
ĠSe oul
50 4
ĠRe id
chan ical
ãĤ Ĭ
Ġund erest
Ed ge
Ġarri ving
Ġer os
Ġupd ating
Ġkin etics
ĠTechn ical
Ġapopt otic
Ġfle e
Ġauthent ic
Ġfrust ration
Ġimproper ly
Ġcylind rical
ĠVenezuel a
Ġbod ily
Ġcorro bor
Ġpecul iar
M en
R B
S ko
d irection
t ax
w ind
Ġl am
ĠS ad
ĠS ri
ĠC zech
Ġas leep
Ġv ox
ac hers
em atic
Ġsu e
ĠH I
ĠH ost
ĠN ep
Ġsh ade
ĠE ve
Ġch ambers
ĠO B
}} =\
Ġun comfortable
Ġte aches
Ġfl ush
Ġ| =
ah l
Ġobserv ing
Ġâ Ļª
Ġautom orph
alt ed
Ġinn ate
ĠLeg al
ĠBel gium
ĠRo ose
Fore ground
ĠTransport ation
ynchron ous
Ġpand emic
Ġcous in
: /
C IS
H or
M ON
M IT
g om
t og
v ars
{ {{\
en ic
an z
Ġb ru
Ġg ig
ir ates
um ble
oc o
oc cul
pt o
ĠE ither
Ġ3 20
19 73
ĠCh anges
Ġmake up
Ġmat uration
25 8
Ġconf ession
Ġadv ise
70 2
Ġide ology
ask et
AD DR
Ġcred itors
Ġmis represent
Ġenh ances
Ġsen ator
Ġnav igate
opath ological
Ġrecom bination
ĠIndust rial
Ġdisreg ard
) âĢĵ
/ +
? '
E arly
R aw
b usiness
d st
f w
f ic
h ind
l ag
t ensor
v olt
Ġc d
Ġb ic
Ġd aughters
id is
ĠC NS
ĠM AL
Ġat e
ĠD ATA
ĠW a
ĠU L
ens en
Ġsp otted
Ġ19 59
In c
ren a
Ġdevelop s
ah an
Ġhum or
ĠPh arma
Ġsat uration
Ġexam inations
gra ber
PL IED
Ġcounsel ing
Ġcatal ytic
ĠPRO VID
Ġstret ching
ĠAbb y
A lex
C ursor
O s
d h
t et
Ġs isters
Ġo t
is ive
Ġm p
Ġd ens
Ġn ort
Ġl aund
ĠS erv
ĠS tyle
ra ble
Ġst ochastic
Ġv ocal
ĠB ry
iv an
th rows
ĠF ellow
ke e
_{ *
hat tan
ident ified
Ġshe ar
ĠÂ ©
Ġconf irms
40 8
Ġpur ification
23 7
39 5
Ġgra des
Ġinvestig ator
}) =\
ĠDef ine
Ġimpact ed
Ġple aded
prot otype
Ġpul ses
Sp ring
ĠCommun ist
Ġmist aken
Co V
ĠLie utenant
Ġknock ed
Ġske letal
Ġevident iary
Ġlaugh ing
ĠConsider ing
hell o
accept able
Ġmerg ed
Prim ary
Ġvic inity
ĠRoose velt
D s
F ar
M il
R ate
U ri
e lection
re le
Ġp ci
Ġf iction
Ġin activation
Ġh i
Ġl ang
ĠS ony
ĠM ED
ĠF T
ĠW O
ure rs
ĠO scar
Ġgen otypes
Ġcol ours
Ġtra umatic
ren ces
IN AL
Ġmodel ed
Ġfin ely
]. [
45 8
Ġrespect s
36 6
Ġrese ct
Com b
ceed ings
Ġminor ities
Ġoptim ize
Ġreplic ates
Ġsan ction
Ġasympt omatic
ĠâĪ ŀ
Ġpsychi at
ĠEND OSCOP
Ġfundament ally
" /
B a
B al
T enn
Ġf est
Ġb ent
Ġm u
Ġd ur
Ġd ressing
ic z
le uk
et ric
Ġg low
ĠB ishop
ĠD omin
able View
Ġdis g
ĠK NOW
Ġob ra
Ġinto x
Ġpres erves
let t
Ġmon oclonal
amb iguous
Ġz oom
anc el
37 8
IC ES
Ġapplic ants
Cl uster
pri ority
Ġenc aps
ĠÎ ´
Ġcapac itor
Sc ene
)** (-
ĠBr un
atur ated
Ġbeat en
Ġdefic ient
Ġ\* \*
Ġopio id
Ġperpend icular
B order
U A
\ **
^ \[[@
r ue
s igned
Ġ ))
or us
es ophageal
Ġp ant
ar an
ro b
se en
Ġbe ams
ĠA ld
ĠC AR
ab ol
ĠP ast
ĠH erm
Ġ5 50
ne ys
Ġem it
sh irt
AR K
ential ly
Ġopp ose
resp ective
ãĥ «
ortun ate
ä¸ ĭ
Ġsec uring
Ġcriminal s
Ġtouch ing
Ġlung s
ĠPet ers
Ġembod iments
Ġnic ot
---| ---
Ġplead ings
ĠAdm iral
Ġretrospect ively
M a
m ess
v endor
Ġin clusive
ro v
ĠT u
ĠS el
ow est
ĠP OL
qu ote
ĠH at
Ġne ph
ok ine
Ġam mon
ring ton
], \
sh adow
Ġrep airs
Ġstart up
Ġhand y
26 8
RE L
Ġspecific ations
Ġsepar ating
CH O
Ġri pe
Ġrout ing
ĠĠĠĠĠĠĠĠĠĠĠĠĠĠĠĠĠĠĠĠĠĠĠĠĠĠĠĠĠĠĠĠĠĠĠĠĠĠĠĠĠĠĠĠĠĠĠĠĠĠĠĠĠĠĠĠ ĠĠ
Ġdefic its
å¤ §
ĠEnter prise
ĠConst ruction
Ġcontrad iction
Ġconflic ting
Ġdimin ished
ĠâĢ² (
4 95
t z
} <
Ï Ĥ
æ ĥ
Ġ Ø
en ial
im an
Ġ2 15
ĠR oche
ĠG rowth
Ġle ar
." )
ign ore
ub in
}} }{
ĠĠĠĠĠĠĠĠĠĠĠĠĠĠĠĠĠĠĠĠĠĠĠĠĠĠĠĠĠĠĠĠ ĠĠĠĠĠĠĠĠĠĠĠĠĠĠĠĠ
ĠK o
Ġthere to
ne ath
Ġinter medi
ĠY ears
ex amples
ex amination
Ġrem inder
Ġsystem atically
Ġtri angular
yl ated
ĠLet ter
ĠPro c
40 2
ĠYou th
Ġfin anc
27 1
27 6
26 2
Ġcal ibr
Ġrecord ings
ĠAt ty
Ġenc rypted
Ġtax payers
dis able
rec ogn
Ġprinc ip
het amine
System Control
stack rel
Ġmathemat ics
Ġmetall icity
Ġinher itance
ĠSher iff
Ġbuck et
schem as
> ()
S ox
U ntil
c ia
e cess
f ailed
m ight
s ound
Ġp ond
Ġp ads
Ġp iano
Ġb end
ar cer
Ġm ate
Ġal beit
Ġv endor
ĠP OM
ĠP enn
os ine
un ge
Ġne at
Ġres ur
Ġun cle
get Value
Ġunder ground
ĠRe ed
Ġdisc ourse
AR G
ST EM
Ġactiv ist
CT YPE
27 8
Ġ18 5
Ġdr ill
Ġcoll apsed
Ġhospital ization
Ġbackground s
vis ory
Ġeight h
Ġsound ed
Ġadvantage ous
Ġauto immune
Ġanalog y
Ġboy friend
QU EST
ĠâĨĴ âĪŀ
Ġaggrav ated
Ġmedic ines
ĠFrame work
mom ent
( ()
A W
F c
K im
S ync
m is
r n
Ä ĩ
Ġ ig
he aring
Ġp ts
il en
ĠS UM
ĠA the
ĠC hel
Ġcont amin
ject ed
Ġob ey
Ġdes cent
Ġem power
ever se
read er
Ġaut ism
Ġ/ ></
Ġ20 3
Ġ20 9
Ġdirect ing
Ch ain
44 8
att ributes
48 3
Ġhuman itarian
ãĤ Ĥ
wh y
]) ^
Ġderiv ation
Get ty
cell ular
Ġelectro static
Ġbuy er
Ġsold ier
cos ity
nam on
Ġreplic ate
Ġheter ogeneous
Ġpal p
Ġshock ed
dat abase
ĠPak istani
Ġaccel erated
Ġspons ored
Ġremed ies
0 24
G PIO
N ovember
N MR
S z
é Ŀ
Ġto do
as ma
Ġe j
Ġl ined
ĠT G
ad ren
Ġcon cat
ĠP ick
ist ration
iv able
ĠD raft
ill us
Ġpre st
Ġsc aled
ĠCh rome
Ġsign alling
================ =======
Ġchar ter
Ġmon keys
read ing
38 68
ĠUS B
comp ile
Ġdr ift
Ġdep ressed
count ry
Ġce ase
OW N
Ġvent ilation
orge ous
Ġfabric ation
ĠÂµ M
Ġmic rom
ĠStr ong
Stud y
INS ERT
ĠMeg an
C ong
E B
F act
F ox
V L
Ġ ĊĠĠ
at ility
al ias
Ġin def
Ġre write
Ġre consider
Ġl adies
ĠT rack
ĠM G
ĠM ol
ab ad
ĠP ap
ĠR ot
ĠR his
ĠL amb
Ġad ul
=" ">
Ġper ceive
ĠK lein
ĠV C
Ġdef enses
Ġexp ired
Ġbet ray
================ ===
"> &
AT IVE
amp a
rict ed
key word
IG H
fe eding
Ġbal con
\, {\
XX XX
PV L
Ġelig ibility
Ġpenet ration
ĠChak otay
& =\
P ix
] ],
b is
i q
t ot
Ġt une
Ġa pert
Ġp ued
ĠI ce
ĠC YP
Ġcon gest
ĠB ore
==== =
ĠH B
Ġnot ify
ke eper
ĠE B
Ġdis qual
we gian
Ġsub type
ĠCh allenge
Ġ\[ [
rit es
30 9
Ġfil tration
Ġsol ub
Ġgood ness
not es
Ġdel im
Ġ14 3
29 6
IC S
ĠIN S
const ant
Ġair way
ĠOF F
bor ough
ĠAdd ed
Ġsort ing
Ġbuy ers
Ġpul p
Ġimplic ation
ĠPC I
Ġprison er
ĠRE AD
Ġdual ity
ĠIC U
ĠResource Key
YR IGHT
Ġtraged y
Ġrook ie
D ue
G old
G UID
m are
it i
Ġin ert
ĠA part
Ġpro ps
ĠM es
ĠP ain
ĠH g
ĠW u
ĠL ex
ĠO T
01 00
de velopment
Ġrec ess
pos ure
Th ird
Ġdirect ive
Ex it
ote chnology
ĠWh atever
ĠApp ellate
ĠCal gary
ĠOr lando
bo ards
no op
Ġaw a
Ġbill ions
Ġded uce
Post ed
Ġtor us
ĠTre asury
ĠExper imental
ĠFre i
ĠUk rainian
pb io
Ġdevast ating
ĠWitt genstein
6 80
A f
F ill
x z
Ġ ?"
Ġ ../
Ġa uction
Ġw anna
Ġp ale
et e
Ġl ambda
Ġ( \<
Ġ" ^
Ġ2 29
ist ered
ist rate
ĠF oo
ĠR ace
ĠN W
ĠJ ob
ĠĠĠĠĠĠĠĠĠĠĠĠĠĠĠĠĠĠĠĠĠĠĠĠĠĠĠĠĠĠĠĠ ĠĠĠĠĠĠĠĠĠĠĠĠĠĠĠĠĠĠĠĠ
Ġpre view
ĊĊ ĊĠĠĠ
Ġ' ./
ĠV AR
Ġinter cept
ex ports
sp ons
Ġbu zz
ĠCom plex
50 9
Ġgroup ed
ãģ Ĥ
ĠTo o
mod ified
Ġaccess ing
Ġlower ing
Ġpercent ages
Ġver te
oll ar
Ġple as
Ġdistinct ive
Ġincorpor ates
Ġhab eas
Ġpit cher
Ġcrypt o
åĪ Ĩ
Ident ity
Ġcab in
pers onal
ĠEs pecially
ĠEff ects
Ġcategor ized
Tw itter
ĠArgent ina
Ġscrut iny
B ottom
I r
] /
Ġ verse
Ġf aint
Ġf ier
Ġl d
Ġl amp
ĠS ound
ow ing
ĠA pr
od s
Ġ2 35
oc cur
Ġr im
=" ..\..\
Ġun aware
Ġfil mm
Ġfil ament
ĠTr uth
Ġsing ing
ĠPl ant
opt ional
Ġcomplet eness
load er
Ġcontract ors
struct or
Ġge ographical
Ġqual ifications
FA IL
ĊĊĊĊ ĊĊĊĊ
Ġvisual ization
According ly
ĠLeg end
ä½ ł
ĠWal ter
Ġpresum ption
Ġampl ified
Gener ator
ĠResp ons
Graph ics
Ġparad ox
ibl ings
Ġanomal ous
Ġadop ting
Ġhemorrh age
ĠIndones ia
L ess
M ASK
P y
Q Q
S ol
S ame
S cal
[ {\
b atch
d it
l ar
n aires
in x
Ġc ad
ic ides
im ir
Ġu mb
Ġst ance
Ġhe d
ĠD aw
Ġ4 01
Ġun anim
ĠK ash
Ġ19 20
Ġpe oples
St ructure
Ġpar ks
Ġlar vae
Ġpur ple
Ġfr ank
Ġsimilar ities
AD E
ENT ER
Ġtable ts
Sim ilarly
MR I
Ġintegr in
Ext ensions
Ġarter ies
Ġsand wich
ĠNon etheless
ĠQue ens
ĠDev ice
ĠLag rangian
Ġhippocamp us
K C
b irth
â ĨĴ
at re
Ġc rap
an ia
Ġm k
Ġre agent
Ġg am
ĠT I
Ġst ab
Ġ2 45
Ġcom orb
Ġare na
Ġr he
ĠR ho
ĠN ak
og urt
Ġev apor
ĠUn approved
Ġcur l
EN G
Ġgl ory
work er
Pro ps
Pro file
plic ate
Ġconn ector
Ġorig inated
Ġsequ el
AD ER
Ġconduct ivity
Ġviol ates
*]{} .
oe lectric
ĠSub sequently
ĠChar lotte
Ġmur dered
Ġjur ors
Ġsell er
comple t
win ning
Ġnom inee
ĠDI SE
Point s
ĠAcadem ic
ĠStan ford
Na N
Relative Path
ozyg ous
> :
L uc
T yp
a verage
m aps
Ñ İ
Ġ iv
Ġa th
er ver
Ġb ust
Ġan onym
ro e
ot ive
ĠT un
ĠA SD
ad ays
Ġ2 18
ĠL CD
ĠG E
ast olic
Ġev olve
Ġsp ices
Ġfl ights
IN ION
Ġinf erences
Ġmat t
Ġdisc oura
bb ing
IT H
Ġcontin uation
ĠSh an
)/ ((
Ġgr in
Ġaccount able
85 4
PC A
čĊč ĊĠ
Comp eting
ĠBank ruptcy
Sp in
Ġjoint ly
Ġlock ing
Ġmal icious
Ġampl ifier
ĠSpring er
ĠHy per
bold math
Ġincent ive
ĠNaz i
ĠASS ERT
Ġcommod ity
INCLUD ES
ĠHind u
establ ished
ĠIO Exception
Ġpractition ers
4 75
H tml
p es
p ubl
å Ĵ
è ĥ½
Ġp g
as sembly
Ġre ign
ĠS PVL
ĠA WS
Ġ2 24
Ġde comp
Ġor phan
Ġby val
ĠD iet
ĠW y
pl ants
Ġ3 01
Ġ3 33
Ġcomp ressed
}} }(\
Ġen forced
ĠĠĠĠĠĠĠĠĠĠĠĠĠĠĠĠĠĠĠĠĠĠĠĠĠĠĠĠĠĠĠĠ ĠĠĠĠĠĠĠĠĠĠĠĠĠĠĠĠĠ
ys on
Ġsub scribe
Ġam bul
Ġanal y
cent ral
ĠRe agan
ĠAl ong
Ġoper ative
Ġcle avage
40 9
64 4
work ers
az i
Ġimp urity
Ġsw ap
Ġclin ics
Ġconduct ance
omy cin
Ġsyn th
HT TP
ĠSw ift
Ġincorpor ating
Ġstrugg les
Ġrevers ible
ĠCle an
Ġembed ding
ĠJeff erson
ĠPT SD
ench ymal
Ġery th
) ",
+ {
F ire
L OC
M ad
O ld
h appy
k ill
t c
en cer
le af
ĠC ategory
Ġst aging
ate ur
ĠM ail
Ġv est
nd um
ĠB us
Ġhe y
oc ide
ĠF ix
ĠF CC
Ġr ick
ĠR ic
ĠE asy
rou te
ĠJ unior
======== ======
Ġret reat
Ġlike wise
Ġmin isters
Ġser a
ĠPro du
ĠAl ber
Ġmult im
Ġobject ions
add ed
rad io
^* _
'] ['
Fr ank
Ġalter ation
Ã¼ r
äº º
è¿ Ļ
ĠHon or
ĠHawai i
( %
0 34
5 89
C ross
[ {
k b
l ists
â ľ
al ter
Ġp ets
Ġm ast
Ġto y
as g
ĠS olid
ir i
ĠM Ps
Ġ2 88
Ġde ed
Ġde pletion
Ġat rial
Ġper ceptions
ob ia
ps hire
Ġoff spring
ĠY u
ĠY ES
Ġsur render
Ġknow ingly
]\] ^
Ã© r
29 5
37 4
Ġsl ots
att ed
04 9
ey er
UR N
Ġestabl ishes
Ġeconom ies
Ġrequest ing
Ġdam aging
Ġdig its
Ġrespond ers
ste ine
Ġinsp ect
004 66
'' '
Ġcommission er
Ġbright ness
Ã¨ re
Ġdepos its
ĠJim my
Ġignor ance
Ġdend ritic
Ġhomeost asis
6 90
B ag
N EL
T i
\ }$,
b ab
l ive
s olid
| }
Å į
it ches
Ġm asks
id u
Ġ( .
ĠS DS
ĠC rit
um ption
Ġde gener
ĠB M
ĠG W
Ġ[ ****,
Ġen jo
ll a
ject ive
Ġpe ppers
ull ah
sc i
ĠRe venue
25 1
Ġdou bled
vis ors
ĠSupp ly
Ġhistor ically
Ġfaith ful
Pre vious
ĠPO ST
&=& \
wart z
Ġconstitu ents
Ġcig arette
ĠPu erto
ĠVerm ont
< !
F K
P ACE
^ Â®
d w
g ie
t imer
Î ·
in tern
Ġh ood
ĠT ot
ĠT oy
os i
ĠB h
th reat
ĠD ennis
ĠN AD
te chn
Ġ' ''
rac ed
ari us
Ġpos es
Ġspec ially
16 400
duct ive
}, {
arch ar
32 9
28 1
bl ind
sec ure
Ġobserv able
Ġhist ology
Ġformer ly
ĠAg ent
Qu ote
ĠSchool s
asp ase
Ġapprec iation
Ġpool ed
author ized
Ġshut down
ĠIM PLIED
Em ploy
ĠVari ous
Ġharvest ed
H ide
I l
P U
R H
R h
S ite
V T
a ques
l ades
n it
è ¾
Ġin hal
ic idal
et on
ĠS olar
Ġst a
ch air
ĠM OD
nt z
ĠE PS
Ġdis comfort
Ġ} {
Ġsy stolic
ss l
ract ing
)) *
30 2
ism o
Ġcle ans
Ġdel icate
pi pe
ĠCol lect
Ġ! "
comm end
Ġcompl aining
Ġassert Equals
gl ut
Ġrepe ating
Ġcolon ial
Ġhypot hetical
Conn ect
Ġnav al
ĠHD AC
ĠMag ic
Ġneglig ible
Ġembry onic
ĠFM PI
ryst all
Ġdiscrimin atory
p ract
v id
w riting
Ġt ilt
er nal
Ġf right
Ġn aked
st airs
Ġl oses
ĠT ig
ĠM ade
Ġ2 33
ac ial
ĠB og
ĠB ooks
Ġsh ore
Ġbut t
ll ll
ĠSt ars
Ġoff shore
Ġpr inter
Ġinf ringe
ĠCom m
amet ric
SE M
Ġlog ged
ache lor
ĊĠĠĠĠĠĠĠĠĠĠĠĠĠĠĠĠĠĠĠĠĠĠĠĠĠĠĠĠĠĠĠĠ ĠĠĠĠĠĠĠĠĠĠĠ
ĠBar bara
Ġquar ks
}}( {\
Ġprem ise
omorph isms
Ġelectr ically
Ġintegr ating
sor ption
organ ization
Ms g
bel ow
Ġfragment ation
ĠSpe aker
Ġrear range
ĠQuant um
ocyt osis
Ġincl ined
occul ant
0 67
S n
t g
t ags
é ģ
ï ¿½
Ġ ie
Ġb a
Ġb row
Ġm ais
ro d
Ġn ond
ot le
ĠP rivacy
oc cup
ĠR ain
ĠR AM
pl astic
Ġ4 03
ĠUn iverse
Ġend if
Ġdi ets
Ġmon ocytes
32 7
Ġpresent ly
Ġterm ed
NA MES
acter ial
ĠAn na
29 7
Ġ17 4
Ġorgan ize
Ġep och
Ġrecogn izes
Ġcreat ivity
Ġbal ancing
Ġinform al
rag ue
config ure
Ġroll er
run ner
cs v
nav igation
Ġconserv atives
olt z
Ġexplan ations
Pat ients
Ġradi otherapy
ĠKar l
Sw itch
Ġuncon stitutional
Ġreven ge
Ġparas ite
Ġdip ole
Ġmicrobi ota
Ġpiv ot
Ġbrut al
Ġdors al
A w
E ar
^ --
c xx
Ġ í
ed i
Ġp izza
Ġb ending
Ġm aker
Ġre wards
ol or
am os
ĠC iv
Ġ2 34
ĠH SP
Ġse g
ĠL ect
ĠL anc
ĠĠĠĠĠĠĠĠĠĠĠĠĠĠĠĠĠĠĠĠĠĠĠĠĠĠĠĠĠĠĠĠ ĠĠĠĠĠĠĠĠĠĠĠĠĠĠĠĠĠĠ
Ġcor onal
000 8
Ġcount less
ĠAl ice
Ġaff air
arg uments
enc il
Ġcomb ines
uit ar
ĠCo ach
Ġprior it
sy nt
Ġconnect s
ĠPlan ning
Ġrect angle
flu id
Ġmic rowave
ĠHand le
Valid ator
ĠGuard ian
atern ity
Ġargu ably
' }{
D am
F at
I J
_ **
Ġa po
Ġl l
ĠP f
ĠB ird
ĠD yn
ĠR aw
ĠR ange
ĠO H
Ġcomp atibility
Ġpat ri
19 67
Ġem itted
ĠSe an
Ġke en
ĠAnd y
ĠAn im
ĠAct ually
UN C
Ġaltern ating
Des c
Ġten ure
ÑĤ Ðµ
Ġtransform ing
Ġign oring
ĠBre ak
ĠMA X
Ġperm itting
Ġpresum ed
Ġassign ments
ĠBase ball
ĠPolit ical
Cle ar
Ġty rosine
ĠPear l
Japan ese
M el
S chool
b ird
f ed
m obile
n z
p ared
r Vert
w y
z es
å ī
æ Į
al am
Ġd umb
ĠB U
ĠB os
em et
iv iral
ĠF ruit
Ġsh ipped
ass y
}} }^{
Ġun pack
so ap
Ġev ac
Ġup ward
ĠV ent
Ġ19 61
Ġtrans c
Ġsupp liers
Ġ. $
Ġext rap
Ġpers ist
30 7
Ġlast ed
AL T
ĠX box
Ġpred ecess
Ġpract icing
Ġdecl ining
Ġsympt omatic
Ġbed s
can vas
ĠForm er
fess ional
Every thing
Ġfrust rated
Ġrecru iting
Ġmamm alian
Ġforb idden
20180 3868
Ġfoss il
( .
( |
0 48
: =\
G roups
K A
L at
g nu
s ock
Ġa in
Ġa ster
Ġf ond
Ġin oc
Ġm ant
Ġd angers
ot ically
ĠS end
ge al
iv ia
ĠR oot
ĠR oom
Ġ19 8
the se
ise cond
cept ive
ug s
Ġcar pet
99 6
Ġsens ation
Ġdom inate
lt ry
CE PT
ĠHealth care
Ġlymph oma
Ġpump ing
Ġtou g
Enc oding
Ġnons ense
ĠFac ulty
Ġarom atic
obut anoate
oflu orescence
2 19
A ns
l Vert
ä ¾
é Ĺ
er ating
Ġs v
en ario
Ġo d
ĠA uth
ir s
Ġpro to
um ann
ĠM eta
Ġde mentia
ĠE E
Ġad missions
Ġtr icks
Ġwor ries
Ġsc ary
Ġsub types
Ġacc ent
Ġinv itation
Ġ. /
... ]
cer n
Ġelect oral
Ġ18 1
Ġlist ened
ĠSo on
Ġ17 9
Sh ape
ĠCor ollary
Ġhot els
CON T
ĠLa unch
Ġmid field
Ġunf ortunate
ĠBi ology
Ġeat en
ĠMad ison
Ax is
Ġ%> %
Ġmyster ious
ĠLIM ITED
5 50
B ay
G U
L M
Y G
\ }}
k u
r aska
Î ¯
Ġs aves
Ġh r
Ġh ollow
Ġl adder
Ġl oyalty
ig a
ot rans
ut ral
ur st
Ġ" {
Ġ2 90
ist ors
ac ry
ĠB oot
oc ellular
ĠR ou
Ġinter im
Ġret ina
oth o
ĠRe ynolds
ism iss
25 9
ĠAl f
27 2
roll ing
Ġvis a
ĠEx ercise
UL D
oph ila
Ġtum ours
sl angasek
Set ting
Ġinitial ize
Ġpret end
ĠWar ner
zym e
imb ab
ALL Y
ĠĠĠĠĠĠĠĠĠĠĠĠĠĠĠĠĠĠĠĠĠĠĠĠĠĠĠĠĠĠĠĠĠĠĠĠĠĠĠĠĠĠĠĠĠĠĠĠĠĠĠĠĠĠĠĠ ĠĠĠ
Ġjournal ism
Ġprev ailing
Ġhell o
Rad ius
FOR M
Ġaffili ated
Ġswit ches
ĠLyn ch
ĠQuestion naire
Ġrhet oric
Ġambit ious
4 20
4 36
A u
C ert
H ouse
M F
M er
N eg
O FF
n ative
t um
Ġin exp
Ġin accur
ri en
ĠH ydro
ĠN iet
ĠO A
ĠIn str
Ġ19 9
cess ion
elf y
amp hetamine
Ġinc ision
Ġinc arcer
05 5
29 1
reg n
95 5
Ġsk illet
AC S
Al tern
ĠCent ury
ĠÐ ¼
PL C
Cal endar
abil istic
ĠGra de
Ġrect angular
Ġrig orous
Ġhorm ones
ĠPers onal
rocy te
annot ation
"? >
Ġannoy ing
Ġworm s
ĠHug hes
gom ery
imbab we
B ounds
F ed
L ooking
f rames
k ov
m illion
p her
v x
Ġt f
Ġs ab
Ġc ope
Ġd ucks
Ġe rect
ĠI TS
ĠS ox
Ġst ro
Ġv ague
Ġ2 22
Ġ\ :
ĠF E
ĠD at
ĠD ra
ĠN um
ff f
Ġab err
=" ${
Ġqu bit
Ġgen etically
)) (
Ġfin itely
ĠApp arently
Ġgra ve
Ġsw ift
88 7
ĠAr thur
Ġdesign ation
ubl in
ĠFig ures
Ġinflu ential
with in
En v
Ġ; )
Ġrepe ats
ĠGre y
ĠLaw s
ĠPre vention
Ġintent ional
ĠOut put
Ġcitizens hip
ĠSE LECT
Ġphil os
ĠQue bec
Ġpolym ers
ĠTal iban
Ġrevolution ary
Decl aration
Ġdivid ing
Ġbicy cle
CPP FLAGS
ä½¿ çĶ¨
D ATE
b ay
h ig
i ates
q t
Ġs es
or igin
Ġf ighters
el ines
ĠA aron
od al
ter min
ĠW n
end ent
Ġch ase
ĠJ UST
ĠIn n
ĠIn nov
\] ;
Ġsc attered
Ġ19 66
Ġdiff ered
================ ==
ins ured
OR M
35 9
ĠCl iff
26 9
IC A
Ġ17 6
ĠAr n
Al ignment
Ġclin icians
ĠCar owest
ĠPol ish
Ġpair wise
Ġexerc ised
Ġaud iences
Ġsomet ime
car inic
ĠFl ash
ÑĢ Ð¸
Ġpark ed
ĠDiv ine
Ġmeant ime
Ġpossess es
Ġflav ors
Ġassemb lies
Ġleak age
Ġpeel ed
Ġlaund ry
S unday
f emale
o il
at ro
Ġc raw
Ġf t
Ġf ancy
ar med
ĠC rystal
Ġ2 37
res a
op ram
iv ahr
ĠH yp
---------------- -
ĠK han
com pl
ex pect
Ġback wards
sc al
Ġet her
Ġcontin ually
Ġed itors
35 5
29 8
Ġjud gments
Ġbuild er
08 3
On line
Ġremov es
MS O
Ġ---------------- -----
Error f
Ġlat ency
Ġconcept ual
Ġfix es
Ġclick ed
RESUL T
Ġadvert ise
Rem ote
Ġbranch ing
Ġlaunch ing
Ġunem ployed
Ġupload ed
Ġbless ed
Ġsubm ucosal
Ġber ries
Ġperfor ation
Ġbov ine
Ġconcom itant
Ġattribut able
) }$,
B ra
C ounter
L IN
g b
| ^{
} :\
in ium
im acy
ĠT S
am ino
ĠC EA
ĠM aking
Ġ" ${
ac id
th ose
ĠF la
ĠL B
ĠE c
ĠE instein
iz ational
Ġj umps
Ġ5 23
ound ed
In cre
Ġinv isible
AR GET
(" \
Ġwr ist
75 4
af ka
Ġspecial ists
ĠEn c
Ġ^ [@
}= (
Ġsn ack
Ġaud it
ĠRec all
Form s
Form er
check box
Ġcat ast
ĠBen jamin
Ġpursu ing
Ġcloud s
look up
0018 1
Ġdipl omatic
Ġpropri etary
ĠBuff alo
Ġelectroph oresis
Ġimmunos upp
1008 476
Ġsten osis
% \
5 40
P romise
S ep
T ouch
^ /
s ic
u o
ç ±
Ġt ast
on line
Ġs ph
it amin
ot in
ĠT T
Ġcon cluding
ĠM all
Ġ" )
ĠB ak
Ġr ust
ĠR ent
ke eping
Ġtr an
ĠSt orm
Ġsub units
Ġpat ience
ĠWe ight
sp i
Ġcourt esy
Ġhel per
Ġsol ic
Ġline age
less ness
35 2
Ġve c
Ġprogram med
As sembly
Ġaccess ory
sub stant
Ġlog ger
Ġtable t
Ġentire ty
Ġpack ing
Ġindex es
Ġcopy ing
Ġbur d
Ġfast ing
Ġcop ied
ĠEm ployment
Ġhybrid ization
Ġshel f
Mart in
ĠTem ple
Ġleuk emia
Ġannot ation
Ġbiomark er
oubt edly
. ',
0 38
5 000
E t
S erv
æ İ
Ġa ortic
Ġs ized
Ġc ros
ĠS qu
Ġst ub
ĠM ET
Ġ2 17
ĠP ero
ĠH Q
ĠH FD
ĠN T
---------------- ------
ob b
In vest
ĠCh oose
Ġmod al
ict ures
ann ah
uss els
Ġ18 4
Ġpay load
Ġgeneral ization
Ġshort age
Ġaccept s
Ġinn ings
Ġimag inary
**^ **,**
select or
Ġtail ored
Ġkne es
Ġster oid
ï½ ŀ
npm js
Ġdies el
ĠPear son
Ġscholar ship
ĠBud get
ĠPri ze
ĠEmer gency
Ġsovere ign
F inal
O cc
g irl
z heimer
Ġg orgeous
ch annels
ĠM achine
ĠP or
os her
Ġex osomes
** \
oc ate
Ġr ises
Ġse aling
art ments
ĠE li
The me
Ġall oy
Ġint estine
ĠSt ack
Ġ' #
ric ks
Ġunder gone
Ġpres ervation
Ġind oor
Ġsupp lements
St ats
Ġnum b
Ġinst inct
ĠCom mercial
Ġins ist
64 8
Ġ18 6
26 7
respond ing
br and
Ġprint s
Ġdraw ings
Ġten ants
Ġarri ves
seud o
[...]
