{
  "version": "1.0",
  "truncation": null,
  "padding": null,
  "added_tokens": [
    {
      "id": 0,
      "content": "[UNK]",
      "single_word": false,
      "lstrip": false,
      "rstrip": false,
      "normalized": false,
      "special": true
    },
    {
      "id": 1,
      "content": "[CLS]",
      "single_word": false,
      "lstrip": false,
      "rstrip": false,
      "normalized": false,
      "special": true
    },
    {
      "id": 2,
      "content": "[SEP]",
      "single_word": false,
      "lstrip": false,
      "rstrip": false,
      "normalized": false,
      "special": true
    },
    {
      "id": 3,
      "content": "[PAD]",
      "single_word": false,
      "lstrip": false,
      "rstrip": false,
      "normalized": false,
      "special": true
    },
    {
      "id": 4,
      "content": "[MASK]",
      "single_word": false,
      "lstrip": false,
      "rstrip": false,
      "normalized": false,
      "special": true
    }
  ],
  "normalizer": null,
  "pre_tokenizer": {
    "type": "ByteLevel",
    "add_prefix_space": true,
    "trim_offsets": true,
    "use_regex": true
  },
  "post_processor": null,
  "decoder": null,
  "model": {
    "type": "BPE",
    "dropout": null,
    "unk_token": "[UNK]",
    "continuing_subword_prefix": null,
    "end_of_word_suffix": null,
    "fuse_unk": false,
    "byte_fallback": false,
    "ignore_merges": false,
    "vocab": {
      "[UNK]": 0,
      "[CLS]": 1,
      "[SEP]": 2,
      "[PAD]": 3,
      "[MASK]": 4,
      "!": 5,
      "\"": 6,
      "#": 7,
      "$": 8,
      "%": 9,
      "&": 10,
      "'": 11,
      "(": 12,
      ")": 13,
      "*": 14,
      "+": 15,
      ",": 16,
      "-": 17,
      ".": 18,
      "/": 19,
      "0": 20,
      "1": 21,
      "2": 22,
      "3": 23,
      "4": 24,
      "5": 25,
      "6": 26,
      "7": 27,
      "8": 28,
      "9": 29,
      ":": 30,
      ";": 31,
      "<": 32,
      "=": 33,
      ">": 34,
      "?": 35,
      "@": 36,
      "A": 37,
      "B": 38,
      "C": 39,
      "D": 40,
      "E": 41,
      "F": 42,
      "G": 43,
      "H": 44,
      "I": 45,
      "J": 46,
      "K": 47,
      "L": 48,
      "M": 49,
      "N": 50,
      "O": 51,
      "P": 52,
      "Q": 53,
      "R": 54,
      "S": 55,
      "T": 56,
      "U": 57,
      "V": 58,
      "W": 59,
      "X": 60,
      "Y": 61,
      "Z": 62,
      "[": 63,
      "\\": 64,
      "]": 65,
      "^": 66,
      "_": 67,
      "`": 68,
      "a": 69,
      "b": 70,
      "c": 71,
      "d": 72,
      "e": 73,
      "f": 74,
      "g": 75,
      "h": 76,
      "i": 77,
      "j": 78,
      "k": 79,
      "l": 80,
      "m": 81,
      "n": 82,
      "o": 83,
      "p": 84,
      "q": 85,
      "r": 86,
      "s": 87,
      "t": 88,
      "u": 89,
      "v": 90,
      "w": 91,
      "x": 92,
      "y": 93,
      "z": 94,
      "{": 95,
      "|": 96,
      "}": 97,
      "~": 98,
      "¡": 99,
      "¢": 100,
      "£": 101,
      "¤": 102,
      "¥": 103,
      "¦": 104,
      "§": 105,
      "¨": 106,
      "©": 107,
      "ª": 108,
      "«": 109,
      "¬": 110,
      "®": 111,
      "¯": 112,
      "°": 113,
      "±": 114,
      "²": 115,
      "³": 116,
      "´": 117,
      "µ": 118,
      "¶": 119,
      "·": 120,
      "¸": 121,
      "¹": 122,
      "º": 123,
      "»": 124,
      "¼": 125,
      "½": 126,
      "¾": 127,
      "¿": 128,
      "Â": 129,
      "Ã": 130,
      "Ä": 131,
      "Å": 132,
      "Æ": 133,
      "Ç": 134,
      "È": 135,
      "É": 136,
      "Ê": 137,
      "Ë": 138,
      "Ì": 139,
      "Í": 140,
      "Î": 141,
      "Ï": 142,
      "Ð": 143,
      "Ñ": 144,
      "Ò": 145,
      "Ó": 146,
      "Ô": 147,
      "Õ": 148,
      "Ö": 149,
      "×": 150,
      "Ø": 151,
      "Ù": 152,
      "Ú": 153,
      "Û": 154,
      "Ü": 155,
      "Þ": 156,
      "ß": 157,
      "à": 158,
      "á": 159,
      "â": 160,
      "ã": 161,
      "ä": 162,
      "å": 163,
      "æ": 164,
      "ç": 165,
      "è": 166,
      "é": 167,
      "ê": 168,
      "ë": 169,
      "ì": 170,
      "í": 171,
      "î": 172,
      "ï": 173,
      "ð": 174,
      "Ā": 175,
      "ā": 176,
      "Ă": 177,
      "ĉ": 178,
      "Ċ": 179,
      "ċ": 180,
      "Č": 181,
      "č": 182,
      "ě": 183,
      "Ġ": 184,
      "ġ": 185,
      "Ģ": 186,
      "ģ": 187,
      "Ĥ": 188,
      "ĥ": 189,
      "Ħ": 190,
      "ħ": 191,
      "Ĩ": 192,
      "ĩ": 193,
      "Ī": 194,
      "ī": 195,
      "Ĭ": 196,
      "ĭ": 197,
      "Į": 198,
      "į": 199,
      "İ": 200,
      "ı": 201,
      "Ĳ": 202,
      "ĳ": 203,
      "Ĵ": 204,
      "ĵ": 205,
      "Ķ": 206,
      "ķ": 207,
      "ĸ": 208,
      "Ĺ": 209,
      "ĺ": 210,
      "Ļ": 211,
      "ļ": 212,
      "Ľ": 213,
      "ľ": 214,
      "Ŀ": 215,
      "ŀ": 216,
      "Ł": 217,
      "ł": 218,
      "Ń": 219,
      "ĠĠ": 220,
      "Ġt": 221,
      "Ġa": 222,
      "in": 223,
      "he": 224,
      "re": 225,
      "on": 226,
      "ĠĠĠĠ": 227,
      "Ġthe": 228,
      "at": 229,
      "er": 230,
      "Ġs": 231,
      "en": 232,
      "Ġo": 233,
      "Ġc": 234,
      "Ġw": 235,
      "is": 236,
      "or": 237,
      "it": 238,
      "es": 239,
      "al": 240,
      "ed": 241,
      "an": 242,
      "Ġp": 243,
      "Ġf": 244,
      "Ġb": 245,
      "Ġan": 246,
      "ing": 247,
      "Ġin": 248,
      "Ġof": 249,
      "ar": 250,
      "ion": 251,
      "ou": 252,
      "Ġm": 253,
      "Ġd": 254,
      "ic": 255,
      "le": 256,
      "Ġto": 257,
      "--": 258,
      "as": 259,
      "Ġand": 260,
      "ro": 261,
      "ĠĠĠĠĠĠĠĠ": 262,
      "ent": 263,
      "Ġth": 264,
      "ct": 265,
      "Ġh": 266,
      "Ġre": 267,
      "et": 268,
      "Ġn": 269,
      "el": 270,
      "st": 271,
      "om": 272,
      "il": 273,
      "Ġe": 274,
      "Ġl": 275,
      "id": 276,
      "ig": 277,
      "im": 278,
      "ot": 279,
      "ve": 280,
      "Ġis": 281,
      "ut": 282,
      "Ġg": 283,
      "Ġ(": 284,
      "ĠT": 285,
      "ol": 286,
      "am": 287,
      "ĠI": 288,
      "ation": 289,
      "----": 290,
      "se": 291,
      "âĢ": 292,
      "ce": 293,
      "ly": 294,
      "Ġfor": 295,
      "==": 296,
      "ur": 297,
      "ĠS": 298,
      "Ġbe": 299,
      "ow": 300,
      "Ġthat": 301,
      "Ġu": 302,
      "ĠĠĠ": 303,
      "ra": 304,
      "Ġon": 305,
      "ĠA": 306,
      "ĠC": 307,
      "ver": 308,
      "Ġst": 309,
      "ch": 310,
      "Ġ1": 311,
      "ul": 312,
      "ith": 313,
      "if": 314,
      "ad": 315,
      "ay": 316,
      "Ġcon": 317,
      "Ġwith": 318,
      "Ġy": 319,
      "Ġas": 320,
      "ir": 321,
      "od": 322,
      "Ġ$": 323,
      "Ġpro": 324,
      "ter": 325,
      "ate": 326,
      "ĠĠĠĠĠĠĠĠĠĠĠĠĠĠĠĠ": 327,
      "um": 328,
      "Ġit": 329,
      "ĠM": 330,
      "ab": 331,
      "Ġwe": 332,
      "her": 333,
      "00": 334,
      "pp": 335,
      "Ġal": 336,
      "ri": 337,
      "Ġ\"": 338,
      "Ġv": 339,
      "ge": 340,
      "nd": 341,
      "Ġ2": 342,
      "Ġde": 343,
      "ĠP": 344,
      "Ġwh": 345,
      "res": 346,
      "ect": 347,
      "qu": 348,
      "os": 349,
      "ment": 350,
      "ht": 351,
      "Ġyou": 352,
      "Ġex": 353,
      "est": 354,
      "ist": 355,
      "ac": 356,
      "ĠThe": 357,
      "Ġwas": 358,
      "us": 359,
      "ant": 360,
      "ĠB": 361,
      "Ġcom": 362,
      "Ġor": 363,
      "Ġ\\": 364,
      "op": 365,
      "Ġare": 366,
      "Ġhe": 367,
      "em": 368,
      "Ġsu": 369,
      "**": 370,
      "iv": 371,
      "--------": 372,
      "th": 373,
      "ity": 374,
      "Ġat": 375,
      "oc": 376,
      "nt": 377,
      "====": 378,
      "ĠF": 379,
      "ers": 380,
      "Ġ=": 381,
      "ain": 382,
      "ess": 383,
      "ĠH": 384,
      "ore": 385,
      "Ġby": 386,
      "ĠD": 387,
      "ill": 388,
      "ld": 389,
      "rom": 390,
      "Ġ-": 391,
      "and": 392,
      "ĠW": 393,
      "un": 394,
      "Ġr": 395,
      "Ġnot": 396,
      "ight": 397,
      "end": 398,
      "ive": 399,
      "Ġse": 400,
      "Ġha": 401,
      "ĠR": 402,
      "ke": 403,
      "ort": 404,
      "ĠL": 405,
      "pe": 406,
      "ĠN": 407,
      "Ġne": 408,
      "Ġthis": 409,
      "pt": 410,
      "art": 411,
      "âĢĻ": 412,
      "Ġfrom": 413,
      "ud": 414,
      "ĊĠĠĠĠ": 415,
      "red": 416,
      "ial": 417,
      "{\\": 418,
      "pl": 419,
      "ies": 420,
      "Ġsh": 421,
      "ĊĠĠĠ": 422,
      "ĠG": 423,
      "ction": 424,
      "ĠE": 425,
      "ell": 426,
      "ated": 427,
      "Ġch": 428,
      "Ġhave": 429,
      "ine": 430,
      "our": 431,
      "ure": 432,
      "all": 433,
      "Ġ0": 434,
      "ould": 435,
      "ag": 436,
      "te": 437,
      "Ġle": 438,
      "'s": 439,
      "per": 440,
      "og": 441,
      "ff": 442,
      "Ġ*": 443,
      "ical": 444,
      ").": 445,
      "Ġcan": 446,
      "ame": 447,
      "ĠO": 448,
      "ust": 449,
      "Ġ3": 450,
      "ue": 451,
      "rou": 452,
      "age": 453,
      "ib": 454,
      "cl": 455,
      "iz": 456,
      "ich": 457,
      "ase": 458,
      "ard": 459,
      "able": 460,
      "Ġres": 461,
      "Ġus": 462,
      "out": 463,
      "Ġj": 464,
      "ome": 465,
      "ie": 466,
      "Ġwhe": 467,
      "Ġab": 468,
      "act": 469,
      "Ġcl": 470,
      ");": 471,
      "Ġ{": 472,
      "_{": 473,
      "..": 474,
      "ost": 475,
      "Ġcomp": 476,
      "ast": 477,
      "ult": 478,
      "ass": 479,
      "ĠU": 480,
      "ans": 481,
      "Ġad": 482,
      "ther": 483,
      "Ġwere": 484,
      "Ġcont": 485,
      "Ġpl": 486,
      "ĠJ": 487,
      "ph": 488,
      "ack": 489,
      "Ġk": 490,
      "Ġme": 491,
      "01": 492,
      "=\"": 493,
      "ide": 494,
      "ath": 495,
      ".\"": 496,
      "Ġim": 497,
      "ĊĠĠĠĠĠĠĠĠ": 498,
      "orm": 499,
      "ign": 500,
      "The": 501,
      "Ġall": 502,
      "ĠâĢ": 503,
      "ub": 504,
      "Ġ[": 505,
      "ĊĠ": 506,
      "ition": 507,
      "ip": 508,
      "Ġ+": 509,
      "Ġdo": 510,
      "ap": 511,
      "ak": 512,
      "ind": 513,
      "Ġhas": 514,
      "ĊĠĠĠĠĠĠĠ": 515,
      "ft": 516,
      "ary": 517,
      "ice": 518,
      "ens": 519,
      "Ġ4": 520,
      "ime": 521,
      "one": 522,
      "Ġwhich": 523,
      "ĉĉ": 524,
      "cc": 525,
      "du": 526,
      "ĠIn": 527,
      "ous": 528,
      "========": 529,
      "Ġapp": 530,
      "Ġbut": 531,
      "Ġtr": 532,
      "Ġdis": 533,
      "Ġint": 534,
      "ents": 535,
      "ress": 536,
      "ations": 537,
      "int": 538,
      "Ġwor": 539,
      "con": 540,
      "ence": 541,
      "are": 542,
      "Ġwill": 543,
      "ru": 544,
      "ear": 545,
      "ong": 546,
      "ere": 547,
      "),": 548,
      "Ġgo": 549,
      "ile": 550,
      "----------------": 551,
      "Ġ&": 552,
      "ok": 553,
      "Ġ5": 554,
      "//": 555,
      "ose": 556,
      "Ġ<": 557,
      "de": 558,
      "}}": 559,
      "ions": 560,
      "Ġen": 561,
      "Ġout": 562,
      "ber": 563,
      "ance": 564,
      "Ġif": 565,
      "ia": 566,
      "Ġun": 567,
      "Ġper": 568,
      "au": 569,
      "ĠTh": 570,
      "av": 571,
      "port": 572,
      "ĠĠĠĠĠĠĠĠĠĠĠĠĠĠĠĠĠĠĠĠĠĠĠĠĠĠĠĠĠĠĠĠ": 573,
      "gh": 574,
      "ally": 575,
      "so": 576,
      "ely": 577,
      "xt": 578,
      "ory": 579,
      "Ġone": 580,
      "ace": 581,
      "ty": 582,
      "ang": 583,
      "Ġqu": 584,
      "ach": 585,
      "Ġhis": 586,
      "ord": 587,
      "ire": 588,
      "Ġev": 589,
      "Ġthey": 590,
      "iff": 591,
      "ry": 592,
      "âĢĿ": 593,
      "Âł": 594,
      "Ġso": 595,
      "ree": 596,
      "form": 597,
      "Ġpart": 598,
      "Ġar": 599,
      "lic": 600,
      "Ġmore": 601,
      "ail": 602,
      "Ġtheir": 603,
      "ys": 604,
      "ors": 605,
      "Ġup": 606,
      "cre": 607,
      "ĠK": 608,
      "Ġthere": 609,
      "Ġpre": 610,
      "Ġ$\\": 611,
      "Ġsp": 612,
      "ake": 613,
      "Ġag": 614,
      "ite": 615,
      "ep": 616,
      "Ġother": 617,
      "ll": 618,
      "ĠSt": 619,
      "very": 620,
      "ound": 621,
      "Ġli": 622,
      "ject": 623,
      "vel": 624,
      "com": 625,
      "ne": 626,
      "}\\": 627,
      "ount": 628,
      "own": 629,
      "Ġsa": 630,
      "Ġyour": 631,
      "ĊĊ": 632,
      "ata": 633,
      "ates": 634,
      "Ġbeen": 635,
      "Ġhad": 636,
      "right": 637,
      "Ġany": 638,
      "urn": 639,
      "Ġman": 640,
      "Ġalso": 641,
      "Ġ}": 642,
      "Ġwho": 643,
      "Ġno": 644,
      "ks": 645,
      "erv": 646,
      "we": 647,
      "Ġ'": 648,
      "ĠV": 649,
      "Ġwould": 650,
      "ric": 651,
      "nder": 652,
      "eth": 653,
      "Ġ6": 654,
      "ific": 655,
      "Ġwhen": 656,
      "erm": 657,
      "Ġabout": 658,
      "low": 659,
      "Ġass": 660,
      "[@": 661,
      "Ġob": 662,
      "}$": 663,
      "ple": 664,
      "Ġtime": 665,
      "ĠâĢľ": 666,
      "\\]": 667,
      "ater": 668,
      "ook": 669,
      "^{": 670,
      "ob": 671,
      "Ġthan": 672,
      "rac": 673,
      "Ġmy": 674,
      "wo": 675,
      "Ġdef": 676,
      "Ġover": 677,
      "</": 678,
      "Ġexp": 679,
      "rib": 680,
      "ĠĠĠĠĠĠĠ": 681,
      "Ġsc": 682,
      "Ġbet": 683,
      "row": 684,
      "Ġ19": 685,
      "Ġits": 686,
      "clud": 687,
      "Ġdiff": 688,
      "'t": 689,
      "ref": 690,
      "Ġsome": 691,
      "fter": 692,
      "Ġte": 693,
      "math": 694,
      "10": 695,
      "lect": 696,
      "Ġsy": 697,
      "vers": 698,
      "Ġgen": 699,
      "Ġ_": 700,
      "get": 701,
      "old": 702,
      "ode": 703,
      "ces": 704,
      "Ġsub": 705,
      "Ġnew": 706,
      "In": 707,
      "hat": 708,
      "ove": 709,
      "Ġinter": 710,
      "ied": 711,
      "ps": 712,
      "Ġoff": 713,
      "irst": 714,
      "Ġam": 715,
      "ring": 716,
      "pec": 717,
      "ays": 718,
      "Ġrec": 719,
      "ĠY": 720,
      "reat": 721,
      "Ġfe": 722,
      "Ġacc": 723,
      "Ġcomm": 724,
      "Ġpat": 725,
      "19": 726,
      "ced": 727,
      "ause": 728,
      "Ġact": 729,
      "Ġkn": 730,
      "Ġunder": 731,
      "Ġour": 732,
      "Ġrel": 733,
      "Ġval": 734,
      "Ġcons": 735,
      "Ġget": 736,
      "ink": 737,
      "ov": 738,
      "Ġdes": 739,
      "Ġpe": 740,
      "ild": 741,
      "Ġ7": 742,
      "ative": 743,
      "ĊĠĠĠĠĠĠĠĠĠĠĠ": 744,
      "Ġinto": 745,
      "left": 746,
      "ef": 747,
      "ari": 748,
      "ings": 749,
      "iss": 750,
      "ĠIt": 751,
      "Ġonly": 752,
      "Ġstud": 753,
      "ual": 754,
      "ert": 755,
      "Ġtwo": 756,
      "Ġmay": 757,
      "Ġyear": 758,
      "Ġsaid": 759,
      "ma": 760,
      "âĶ": 761,
      "Ġbec": 762,
      "ons": 763,
      "Ġwork": 764,
      "##": 765,
      "ular": 766,
      "pro": 767,
      "Ġpos": 768,
      "iew": 769,
      "Ġinv": 770,
      "12": 771,
      "Ġro": 772,
      "Ġher": 773,
      "Ġreg": 774,
      "Ġadd": 775,
      "Ġ8": 776,
      "ĠCh": 777,
      "Ġuse": 778,
      "unction": 779,
      "Ġtrans": 780,
      "Ġthem": 781,
      "igh": 782,
      "Ġmod": 783,
      "Ġret": 784,
      "ian": 785,
      "ex": 786,
      "Ġlike": 787,
      "ark": 788,
      "Ġwhat": 789,
      "ĠThis": 790,
      "hed": 791,
      "ick": 792,
      "oint": 793,
      "Ġem": 794,
      "ck": 795,
      "ased": 796,
      "âĶĢ": 797,
      "Ġsuch": 798,
      "Ġpres": 799,
      "Ġbl": 800,
      "Ġform": 801,
      "ond": 802,
      "olog": 803,
      "ating": 804,
      "Ġph": 805,
      "Ġ201": 806,
      "Ġeff": 807,
      "cess": 808,
      "ĠWe": 809,
      "Ġco": 810,
      "Ġcol": 811,
      "Ġdiffere": 812,
      "Ġfirst": 813,
      "itt": 814,
      "Ġthese": 815,
      "ock": 816,
      "ient": 817,
      "Ġresp": 818,
      "ility": 819,
      "Ġ9": 820,
      "ments": 821,
      "Ġjust": 822,
      "âĶĢâĶĢ": 823,
      "stem": 824,
      "ont": 825,
      "elf": 826,
      "Ġprov": 827,
      "Ġ10": 828,
      "ox": 829,
      "ish": 830,
      "Ġafter": 831,
      "Ċĉĉ": 832,
      "Ġwhere": 833,
      "ween": 834,
      "oth": 835,
      "Ġdet": 836,
      "Ġsign": 837,
      "ĊĠĠĠĠĠ": 838,
      "11": 839,
      "Ġthen": 840,
      "aw": 841,
      "ident": 842,
      "ss": 843,
      "Ġneed": 844,
      "Ġset": 845,
      "ec": 846,
      "Ġpol": 847,
      "Ġind": 848,
      "ange": 849,
      "ict": 850,
      "ood": 851,
      "ution": 852,
      "Ġhow": 853,
      "Ġbetween": 854,
      "the": 855,
      "ople": 856,
      "Ġclass": 857,
      "ublic": 858,
      "Ġcould": 859,
      "ise": 860,
      "================": 861,
      "Ġresult": 862,
      "Ġrem": 863,
      "sp": 864,
      "Ġgrou": 865,
      "ize": 866,
      "ype": 867,
      "ollow": 868,
      "cept": 869,
      "ix": 870,
      "eg": 871,
      "les": 872,
      "()": 873,
      "Ġatt": 874,
      "Ġtra": 875,
      "ients": 876,
      "up": 877,
      "\",": 878,
      "Ġra": 879,
      "ough": 880,
      "Ġinclud": 881,
      "Ġsupp": 882,
      "Ġpr": 883,
      "Ġused": 884,
      "ious": 885,
      "eld": 886,
      "St": 887,
      "ourt": 888,
      "Ġdata": 889,
      "ible": 890,
      "Ġnum": 891,
      "20": 892,
      "tern": 893,
      "Ġcell": 894,
      "cy": 895,
      "Ġshe": 896,
      "ble": 897,
      "Ċĉ": 898,
      "Ġshow": 899,
      "inal": 900,
      "oy": 901,
      "Ġac": 902,
      "Ġfact": 903,
      "Ġsur": 904,
      "Ġ\\[": 905,
      "ER": 906,
      "Ġcor": 907,
      "Ġsim": 908,
      "Ġdid": 909,
      "Ġshould": 910,
      "ues": 911,
      "ax": 912,
      "type": 913,
      "Ġknow": 914,
      "\">": 915,
      "Ġfollow": 916,
      "ĠUn": 917,
      "Ġspec": 918,
      "Ġend": 919,
      "ĠHe": 920,
      "Ġpeople": 921,
      "fig": 922,
      "ull": 923,
      "Ġfunction": 924,
      "Ġdist": 925,
      "pos": 926,
      "000": 927,
      "ram": 928,
      "its": 929,
      "der": 930,
      ".,": 931,
      "Ġfl": 932,
      "ning": 933,
      "ren": 934,
      "](": 935,
      "hen": 936,
      "rough": 937,
      "fore": 938,
      "Ġbecause": 939,
      "ON": 940,
      "ined": 941,
      "als": 942,
      "__": 943,
      "Ġrequ": 944,
      "ited": 945,
      "Ġusing": 946,
      "ield": 947,
      "ities": 948,
      "ade": 949,
      "ics": 950,
      "ever": 951,
      "15": 952,
      "ruct": 953,
      "ms": 954,
      "Ġsee": 955,
      "ract": 956,
      "IN": 957,
      "ĊĠĠĠĠĠĠĠĠĠĠĠĠĠĠĠĠ": 958,
      "rit": 959,
      "Ġmost": 960,
      "Ġinf": 961,
      "Ġsm": 962,
      "ection": 963,
      "Ġi": 964,
      "Ġconst": 965,
      "){": 966,
      "Ġinst": 967,
      "Ġback": 968,
      ")$": 969,
      "13": 970,
      "Ġgener": 971,
      "ful": 972,
      "Ġ.": 973,
      "uring": 974,
      "16": 975,
      "Ġwell": 976,
      "Ġtest": 977,
      "Ġext": 978,
      "]{": 979,
      "Ġsystem": 980,
      "duct": 981,
      "Ġ:": 982,
      "Ġthrough": 983,
      "frac": 984,
      "ures": 985,
      "ational": 986,
      "->": 987,
      "Ġhim": 988,
      "Ġdifferent": 989,
      "_{\\": 990,
      "Ġright": 991,
      "--------------------------------": 992,
      "Ġcase": 993,
      "to": 994,
      "Ġeach": 995,
      "Ġagain": 996,
      "li": 997,
      "Ġchar": 998,
      "Ġreturn": 999,
      "ute": 1000,
      "Ġbu": 1001,
      "ower": 1002,
      "mer": 1003,
      "ator": 1004,
      "14": 1005,
      "âĢī": 1006,
      "Ġref": 1007,
      "ew": 1008,
      "sc": 1009,
      "Ġwant": 1010,
      "Ġpatients": 1011,
      "ĠĠĠĠĠ": 1012,
      "ĊĠĠĠĠĠĠĠĠĠĠĠĠĠĠĠ": 1013,
      "ically": 1014,
      "Ġhigh": 1015,
      "ized": 1016,
      "Ġdoes": 1017,
      "Ġeffect": 1018,
      "hes": 1019,
      "imes": 1020,
      "(\\": 1021,
      "Ġent": 1022,
      "))": 1023,
      "ins": 1024,
      "Ġ[@": 1025,
      "Th": 1026,
      "io": 1027,
      "uch": 1028,
      "cond": 1029,
      "pr": 1030,
      "Ġstate": 1031,
      "},": 1032,
      "text": 1033,
      "round": 1034,
      "val": 1035,
      "ily": 1036,
      "nce": 1037,
      "Ġmin": 1038,
      "err": 1039,
      "Ġincre": 1040,
      "Ġmake": 1041,
      "Ġanal": 1042,
      "put": 1043,
      "...": 1044,
      "Ġsame": 1045,
      "Ġcur": 1046,
      "ool": 1047,
      "****": 1048,
      "ethod": 1049,
      "$\\": 1050,
      "ript": 1051,
      "uc": 1052,
      "par": 1053,
      "vent": 1054,
      "wn": 1055,
      "ger": 1056,
      "let": 1057,
      "Ġpar": 1058,
      "Ġ200": 1059,
      "Ġevery": 1060,
      "ta": 1061,
      "cent": 1062,
      "],": 1063,
      "Ġeven": 1064,
      "other": 1065,
      "set": 1066,
      "Ġinte": 1067,
      "Ġyears": 1068,
      "aint": 1069,
      "ared": 1070,
      "ES": 1071,
      "ork": 1072,
      "Ġdi": 1073,
      "Ġmon": 1074,
      "Ġfind": 1075,
      "rol": 1076,
      "oci": 1077,
      "cer": 1078,
      "ases": 1079,
      "18": 1080,
      "Ġpoint": 1081,
      "ym": 1082,
      "atic": 1083,
      "Ġtri": 1084,
      "arch": 1085,
      "ug": 1086,
      "Ġcall": 1087,
      "ants": 1088,
      "Ġthose": 1089,
      "app": 1090,
      "Ġx": 1091,
      "Ġmed": 1092,
      "ince": 1093,
      "Ġpartic": 1094,
      "Ġ|": 1095,
      "ĠSe": 1096,
      "velop": 1097,
      "Ġboth": 1098,
      "Ġway": 1099,
      "cal": 1100,
      "ven": 1101,
      "Ġnow": 1102,
      "Ġdon": 1103,
      "ample": 1104,
      "Ġ12": 1105,
      "Ġvery": 1106,
      "ense": 1107,
      "Ġvari": 1108,
      "Ġ@": 1109,
      "ected": 1110,
      "read": 1111,
      "Ġmat": 1112,
      "rent": 1113,
      "Ġser": 1114,
      "dition": 1115,
      "ason": 1116,
      "Ġappro": 1117,
      "Ġlong": 1118,
      "und": 1119,
      "irect": 1120,
      "AT": 1121,
      "yl": 1122,
      "Ġdec": 1123,
      "ĠCom": 1124,
      "ages": 1125,
      "Ġke": 1126,
      "ward": 1127,
      "Ġnumber": 1128,
      "Ġexper": 1129,
      "Ġhere": 1130,
      "Ġfound": 1131,
      "led": 1132,
      "50": 1133,
      "Ġbel": 1134,
      "eta": 1135,
      "rm": 1136,
      "Ġaut": 1137,
      "Ġbeing": 1138,
      "}{": 1139,
      "Ġcar": 1140,
      "Ġlook": 1141,
      "Ġplay": 1142,
      "tr": 1143,
      "Ġloc": 1144,
      "ression": 1145,
      "Ġbefore": 1146,
      "ved": 1147,
      "yp": 1148,
      "\"}": 1149,
      "ines": 1150,
      "oid": 1151,
      "alth": 1152,
      "over": 1153,
      "ife": 1154,
      "17": 1155,
      "Ġpublic": 1156,
      "Ġpers": 1157,
      "Ġel": 1158,
      "Ġmany": 1159,
      "ĠQ": 1160,
      "Ġ/": 1161,
      "Ġvalue": 1162,
      "sh": 1163,
      "ateg": 1164,
      "rest": 1165,
      "ified": 1166,
      "ively": 1167,
      "Ġcourt": 1168,
      "30": 1169,
      "ature": 1170,
      "aking": 1171,
      "Ġop": 1172,
      "?\"": 1173,
      "Ġstudy": 1174,
      "',": 1175,
      "It": 1176,
      "Ġgu": 1177,
      "erg": 1178,
      "Ġmodel": 1179,
      "Ġfil": 1180,
      "32": 1181,
      "Ġrep": 1182,
      "upp": 1183,
      "ting": 1184,
      "Ġthink": 1185,
      "air": 1186,
      "Ġequ": 1187,
      "201": 1188,
      "Ġreport": 1189,
      "pend": 1190,
      "ĠÂ": 1191,
      "Ġche": 1192,
      "Ġmem": 1193,
      "ank": 1194,
      "Ġ//": 1195,
      "ody": 1196,
      "cul": 1197,
      "line": 1198,
      "\":": 1199,
      "](#": 1200,
      "ale": 1201,
      "ray": 1202,
      "Ġpresent": 1203,
      "Ġhel": 1204,
      "of": 1205,
      "ng": 1206,
      "Ġsol": 1207,
      "Ġest": 1208,
      "ĠFor": 1209,
      "ash": 1210,
      "Ġgiv": 1211,
      "min": 1212,
      "Ġprog": 1213,
      "ired": 1214,
      "Ġgood": 1215,
      "view": 1216,
      "Ġwhile": 1217,
      "ices": 1218,
      "ave": 1219,
      "ĠRe": 1220,
      "ism": 1221,
      "Ġmade": 1222,
      "Ġdisc": 1223,
      "::": 1224,
      "Ġprocess": 1225,
      ".âĢĿ": 1226,
      "]\\]": 1227,
      "formation": 1228,
      "Ġterm": 1229,
      "day": 1230,
      "igned": 1231,
      "Ġlar": 1232,
      "ness": 1233,
      "Ġlevel": 1234,
      "We": 1235,
      "25": 1236,
      "gg": 1237,
      "Ġdevelop": 1238,
      "Ġnon": 1239,
      "ole": 1240,
      "ving": 1241,
      "Ġname": 1242,
      "ĊĊĠĠĠ": 1243,
      "eng": 1244,
      "Ġstart": 1245,
      "Ġsupport": 1246,
      "ision": 1247,
      "Ġdown": 1248,
      "ann": 1249,
      "Ġcount": 1250,
      "ĠLet": 1251,
      "abel": 1252,
      "Ġserv": 1253,
      "ality": 1254,
      "ained": 1255,
      "Ġposs": 1256,
      "://": 1257,
      "ĠĠĠĠĠĠ": 1258,
      "ĠIf": 1259,
      "Ġmuch": 1260,
      "AR": 1261,
      "Ġins": 1262,
      "ĠPro": 1263,
      "ider": 1264,
      "amb": 1265,
      "ĠâĢĵ": 1266,
      "Ġread": 1267,
      "EN": 1268,
      "Ġmethod": 1269,
      "ential": 1270,
      "mon": 1271,
      "$,": 1272,
      "ource": 1273,
      "pha": 1274,
      "ĠAl": 1275,
      "Ġthree": 1276,
      "ually": 1277,
      "Ġsecond": 1278,
      "$.": 1279,
      "Ġhand": 1280,
      "lement": 1281,
      "med": 1282,
      "ret": 1283,
      "Ġorder": 1284,
      "bb": 1285,
      "Ġconf": 1286,
      "24": 1287,
      "ctions": 1288,
      "Ġwithout": 1289,
      "Ġown": 1290,
      "uss": 1291,
      "OR": 1292,
      "Ġstr": 1293,
      "^{\\": 1294,
      "any": 1295,
      "ght": 1296,
      "Ġduring": 1297,
      "part": 1298,
      "Ġgroup": 1299,
      "Ġpri": 1300,
      "str": 1301,
      "Ġline": 1302,
      "\\[": 1303,
      "NA": 1304,
      "(-": 1305,
      "way": 1306,
      "ST": 1307,
      ",\\": 1308,
      "amp": 1309,
      "arly": 1310,
      "ization": 1311,
      "ional": 1312,
      "ĠHow": 1313,
      "idence": 1314,
      "ify": 1315,
      "ns": 1316,
      "]{}": 1317,
      "Ġant": 1318,
      "ĠAnd": 1319,
      "80": 1320,
      "ĠAs": 1321,
      "Ġ\\[[@": 1322,
      "Ġ20": 1323,
      "ner": 1324,
      "Ġimport": 1325,
      "Ġactiv": 1326,
      "ĠĠĠĠĠĠĠĠĠĠĠĠĠĠĠĠĠĠĠĠĠĠĠĠĠĠĠĠĠĠĠĠĠĠĠĠĠĠĠĠĠĠĠĠĠĠĠĠĠĠĠĠĠĠĠĠĠĠĠĠĠĠĠĠ": 1327,
      "ology": 1328,
      ",\"": 1329,
      "oad": 1330,
      "Ġsignific": 1331,
      "Ġperform": 1332,
      "CR": 1333,
      "ency": 1334,
      "(\"": 1335,
      "ability": 1336,
      "cript": 1337,
      "ists": 1338,
      "What": 1339,
      "Ġhelp": 1340,
      "raph": 1341,
      "gan": 1342,
      "Ġtype": 1343,
      "âĶĢâĶĢâĶĢâĶĢ": 1344,
      "22": 1345,
      "tt": 1346,
      "ĠBut": 1347,
      "Ġcre": 1348,
      "Ġproper": 1349,
      "Ġoper": 1350,
      "ton": 1351,
      "Ġmet": 1352,
      "mb": 1353,
      "irc": 1354,
      "Ġproble": 1355,
      "ron": 1356,
      "alpha": 1357,
      "ument": 1358,
      "ided": 1359,
      "Ġcle": 1360,
      "Ġcells": 1361,
      "ration": 1362,
      "Ġsmall": 1363,
      "ulation": 1364,
      "Ġlast": 1365,
      "40": 1366,
      "name": 1367,
      "Ġlead": 1368,
      "ah": 1369,
      "ital": 1370,
      "ather": 1371,
      "CT": 1372,
      "Ġagainst": 1373,
      "Ġpur": 1374,
      "IT": 1375,
      "Ġmust": 1376,
      "Ġsay": 1377,
      "Ġet": 1378,
      "Ġlaw": 1379,
      "Ġav": 1380,
      "âĢľ": 1381,
      "acter": 1382,
      "man": 1383,
      "aim": 1384,
      "Ġtreat": 1385,
      "ĠYou": 1386,
      "ral": 1387,
      "Ġtake": 1388,
      "ran": 1389,
      "itive": 1390,
      "Ġiss": 1391,
      "rict": 1392,
      "ysis": 1393,
      "ivers": 1394,
      "Ġ**": 1395,
      "for": 1396,
      "Ġ15": 1397,
      "ered": 1398,
      "dd": 1399,
      "Let": 1400,
      "less": 1401,
      "Ġlet": 1402,
      "hip": 1403,
      "Ġinc": 1404,
      "ĠAn": 1405,
      "Ġsignificant": 1406,
      "da": 1407,
      "Ġperson": 1408,
      "33": 1409,
      "alk": 1410,
      "Ġquest": 1411,
      "Ġchild": 1412,
      "Ġstill": 1413,
      "Ġcou": 1414,
      "Ġfin": 1415,
      "Ġrun": 1416,
      "ouse": 1417,
      "ters": 1418,
      "Ġopt": 1419,
      "Ġcontrol": 1420,
      "not": 1421,
      "urther": 1422,
      "agn": 1423,
      "Ġfam": 1424,
      "chn": 1425,
      "Ġsom": 1426,
      "ination": 1427,
      "Ġ--": 1428,
      "ross": 1429,
      "Ġelect": 1430,
      "rt": 1431,
      "ww": 1432,
      "aterial": 1433,
      "Ġlim": 1434,
      "Ġexpl": 1435,
      "ml": 1436,
      "Ġcent": 1437,
      "Ġresults": 1438,
      "oot": 1439,
      "ĠNew": 1440,
      "Ġmeas": 1441,
      "Ġdirect": 1442,
      "].": 1443,
      "ploy": 1444,
      "AL": 1445,
      "que": 1446,
      "ars": 1447,
      "serv": 1448,
      "60": 1449,
      "ier": 1450,
      "Ġinformation": 1451,
      "Ex": 1452,
      "Ġstand": 1453,
      "Ġident": 1454,
      "Ġz": 1455,
      "Ġpost": 1456,
      "oh": 1457,
      "27": 1458,
      "vious": 1459,
      "Ġgl": 1460,
      "Ġdeterm": 1461,
      "âĢĵ": 1462,
      "();": 1463,
      "Ġcontin": 1464,
      "64": 1465,
      "AN": 1466,
      "yn": 1467,
      "ead": 1468,
      "ention": 1469,
      "Ġday": 1470,
      "Ġ18": 1471,
      "ek": 1472,
      "200": 1473,
      "Ġstat": 1474,
      "Ġfollowing": 1475,
      "ides": 1476,
      "atch": 1477,
      "99": 1478,
      "lease": 1479,
      "Ġaff": 1480,
      "ording": 1481,
      "meric": 1482,
      "ior": 1483,
      "ots": 1484,
      "ately": 1485,
      "This": 1486,
      "Ġallow": 1487,
      "Ġed": 1488,
      "aj": 1489,
      "Ġprodu": 1490,
      "work": 1491,
      "me": 1492,
      "23": 1493,
      "Ġdel": 1494,
      "Ġgoing": 1495,
      "05": 1496,
      "ience": 1497,
      "âĢĶ": 1498,
      "def": 1499,
      "eral": 1500,
      "resent": 1501,
      "ames": 1502,
      "ote": 1503,
      "Ġmult": 1504,
      "Ġreal": 1505,
      "âĪ": 1506,
      "Ġbre": 1507,
      "ĊĠĠ": 1508,
      "Ġcondition": 1509,
      "Ġ,": 1510,
      "Ġca": 1511,
      "ission": 1512,
      "cur": 1513,
      "ets": 1514,
      "ived": 1515,
      "ured": 1516,
      "Ġwithin": 1517,
      "Ġcurrent": 1518,
      ")\\": 1519,
      "Ġprot": 1520,
      "ium": 1521,
      "ves": 1522,
      "Ġsince": 1523,
      "ural": 1524,
      "28": 1525,
      "Ġredu": 1526,
      "ently": 1527,
      "Pro": 1528,
      "45": 1529,
      "ule": 1530,
      "Ġrece": 1531,
      "amet": 1532,
      "}(": 1533,
      "Ġmean": 1534,
      "ished": 1535,
      "Ġinterest": 1536,
      "land": 1537,
      "Ġcare": 1538,
      "bf": 1539,
      "ID": 1540,
      ",âĢĿ": 1541,
      "Ġgover": 1542,
      "lex": 1543,
      "rid": 1544,
      "Ġinvest": 1545,
      "Ġdev": 1546,
      "be": 1547,
      "akes": 1548,
      "Ġstruct": 1549,
      "vert": 1550,
      "Ġrest": 1551,
      "Ġhealth": 1552,
      "Ġfield": 1553,
      "Con": 1554,
      "az": 1555,
      "Ġerr": 1556,
      "ĠX": 1557,
      "Ġworld": 1558,
      "Ġwr": 1559,
      "35": 1560,
      "Ġaddition": 1561,
      "crib": 1562,
      "Ġlife": 1563,
      "ains": 1564,
      "ãģ": 1565,
      "Fig": 1566,
      "mathcal": 1567,
      "Ġpass": 1568,
      "ump": 1569,
      "Ġbas": 1570,
      "ambda": 1571,
      "Ġrespect": 1572,
      "Ġaround": 1573,
      "pi": 1574,
      "Ġexample": 1575,
      "ĠTr": 1576,
      "arm": 1577,
      "Ġ14": 1578,
      "Ġclaim": 1579,
      "Ġ$$\\": 1580,
      "chool": 1581,
      "ives": 1582,
      "ĠDe": 1583,
      "Ġopen": 1584,
      "bers": 1585,
      "Ġmark": 1586,
      "ially": 1587,
      "0000": 1588,
      "Ġve": 1589,
      "Ġassoci": 1590,
      "ĠSh": 1591,
      "gen": 1592,
      "Ġanother": 1593,
      "arent": 1594,
      "Ġinde": 1595,
      "use": 1596,
      "ĠHowever": 1597,
      "SE": 1598,
      "Ġarg": 1599,
      "Ġ16": 1600,
      "Ġcommun": 1601,
      "son": 1602,
      "ĠCl": 1603,
      "ane": 1604,
      "Ã©": 1605,
      "26": 1606,
      "rel": 1607,
      "htt": 1608,
      "Ġincluding": 1609,
      "Ġart": 1610,
      "Ġimp": 1611,
      "Ġhum": 1612,
      "36": 1613,
      "ĠWh": 1614,
      "anc": 1615,
      "Ġlow": 1616,
      "Ġgiven": 1617,
      "Ġocc": 1618,
      "Ġhig": 1619,
      "ither": 1620,
      "=\\": 1621,
      "Ġmonth": 1622,
      "Ġlist": 1623,
      "nment": 1624,
      "ee": 1625,
      "ribut": 1626,
      "arg": 1627,
      "29": 1628,
      "Ġprogram": 1629,
      "Ġpower": 1630,
      "Ġchang": 1631,
      "ĠZ": 1632,
      "'m": 1633,
      "reg": 1634,
      "rap": 1635,
      "####": 1636,
      "Ġtem": 1637,
      "Ġpot": 1638,
      "Ġgreat": 1639,
      "here": 1640,
      "iness": 1641,
      "face": 1642,
      "37": 1643,
      "ways": 1644,
      "ining": 1645,
      "Ġadv": 1646,
      "Ġtop": 1647,
      "Ġtry": 1648,
      "label": 1649,
      "Ġbeh": 1650,
      "ott": 1651,
      "}^{": 1652,
      "self": 1653,
      "Ġcal": 1654,
      "ĠInd": 1655,
      "Ġreally": 1656,
      "ĠNo": 1657,
      "Ġ*/": 1658,
      "ffic": 1659,
      "Ġmight": 1660,
      "Ġobject": 1661,
      "ĠAmeric": 1662,
      "yt": 1663,
      "Ġanalysis": 1664,
      "Ġcr": 1665,
      "Ġsl": 1666,
      "Ġcap": 1667,
      "IC": 1668,
      "Ġless": 1669,
      "38": 1670,
      "Ġhead": 1671,
      "Ġ</": 1672,
      "ĠPh": 1673,
      "('": 1674,
      "aining": 1675,
      "ury": 1676,
      ")/": 1677,
      "ething": 1678,
      "ably": 1679,
      "hor": 1680,
      "bl": 1681,
      "Ġes": 1682,
      "Ġhapp": 1683,
      "You": 1684,
      "Ġfew": 1685,
      "================================": 1686,
      "Ġbased": 1687,
      "opy": 1688,
      "angle": 1689,
      "Ġtoo": 1690,
      "Ġplace": 1691,
      "alse": 1692,
      "onse": 1693,
      "stand": 1694,
      "}_": 1695,
      "ĠApp": 1696,
      "Ġself": 1697,
      "ategory": 1698,
      "Ġapplic": 1699,
      "RE": 1700,
      "Ġ#": 1701,
      "roll": 1702,
      "arn": 1703,
      "Ġimportant": 1704,
      "ety": 1705,
      "ird": 1706,
      "ĠThey": 1707,
      "21": 1708,
      "ION": 1709,
      "Ġindic": 1710,
      "thing": 1711,
      "^,": 1712,
      "icro": 1713,
      "Ġchange": 1714,
      "ivid": 1715,
      "mu": 1716,
      "Ġtechn": 1717,
      "Ġevidence": 1718,
      "Ġproduct": 1719,
      "Ġsing": 1720,
      "erence": 1721,
      "Ġobt": 1722,
      "sec": 1723,
      "34": 1724,
      "Ġprob": 1725,
      "Ch": 1726,
      "ised": 1727,
      "Ġbi": 1728,
      "Ġteam": 1729,
      "ts": 1730,
      "Ġfour": 1731,
      "var": 1732,
      "---": 1733,
      "leg": 1734,
      "Ġrese": 1735,
      "Ġunt": 1736,
      "Ġmot": 1737,
      "Ġ11": 1738,
      "Ġsugg": 1739,
      "39": 1740,
      "]\\].": 1741,
      "Ġsuggest": 1742,
      "Ġbus": 1743,
      "Ġtreatment": 1744,
      "Ġwhether": 1745,
      "Ġ{#": 1746,
      "ser": 1747,
      "Ġgra": 1748,
      "ples": 1749,
      "Ġ30": 1750,
      "by": 1751,
      "arget": 1752,
      "Ġvis": 1753,
      "lection": 1754,
      "plic": 1755,
      "LE": 1756,
      "Ġhome": 1757,
      "els": 1758,
      "osed": 1759,
      "Ġfile": 1760,
      "ought": 1761,
      "Ġpop": 1762,
      "abl": 1763,
      "ĠWhat": 1764,
      "elta": 1765,
      "70": 1766,
      "lu": 1767,
      "Ġleg": 1768,
      "ength": 1769,
      "ĠThere": 1770,
      "Ġcommon": 1771,
      "Ġfail": 1772,
      "ergy": 1773,
      "ĠIs": 1774,
      "Ġnext": 1775,
      "fer": 1776,
      "unt": 1777,
      "Ġobserv": 1778,
      "ault": 1779,
      "Ġwom": 1780,
      "mun": 1781,
      "ery": 1782,
      "Ġdefend": 1783,
      "Ġdri": 1784,
      "ĠEx": 1785,
      "Ġpath": 1786,
      "ilar": 1787,
      "ĊĊĠ": 1788,
      "Ġprote": 1789,
      "Ġbest": 1790,
      "Ġgr": 1791,
      "ormal": 1792,
      "amma": 1793,
      "Ġlarge": 1794,
      "Ġsomething": 1795,
      "rop": 1796,
      "Ġleft": 1797,
      "Ġput": 1798,
      "requ": 1799,
      "oss": 1800,
      "used": 1801,
      "action": 1802,
      "ertain": 1803,
      "Ġdescrib": 1804,
      "Re": 1805,
      "Cl": 1806,
      "ĠSo": 1807,
      "ccess": 1808,
      "Ġinvol": 1809,
      "Ġbetter": 1810,
      "Ġgrow": 1811,
      "Ġconn": 1812,
      "sum": 1813,
      "âĪĴ": 1814,
      "Name": 1815,
      "Ġbelie": 1816,
      "}_{": 1817,
      "75": 1818,
      "Ġproblem": 1819,
      "por": 1820,
      "phi": 1821,
      "mathbb": 1822,
      "Ġparticular": 1823,
      "Ġabove": 1824,
      "44": 1825,
      "Ġprof": 1826,
      "Ġrepresent": 1827,
      "ware": 1828,
      "cont": 1829,
      "Ġbo": 1830,
      "ittle": 1831,
      "'re": 1832,
      "Ġtrue": 1833,
      "div": 1834,
      "Ġtot": 1835,
      "Ġimpro": 1836,
      "AS": 1837,
      "90": 1838,
      "ĠCon": 1839,
      "95": 1840,
      "Ġconsider": 1841,
      "To": 1842,
      "hib": 1843,
      "Ġfr": 1844,
      "isk": 1845,
      "Ġreason": 1846,
      "att": 1847,
      "Ġrecord": 1848,
      "Com": 1849,
      "Ġask": 1850,
      "ification": 1851,
      "Ġla": 1852,
      "ĠAll": 1853,
      "$$": 1854,
      "col": 1855,
      "Ġsit": 1856,
      "Ġleast": 1857,
      "Ġpossible": 1858,
      "Ġnet": 1859,
      "Ġseem": 1860,
      "Ġnever": 1861,
      "Ġeas": 1862,
      "version": 1863,
      "Ġcharacter": 1864,
      "ĠUS": 1865,
      "ext": 1866,
      "ĠĠĠĠĠĠĠĠĠĠĠĠĠĠĠĠĠĠĠĠĠĠĠĠ": 1867,
      "Ġproject": 1868,
      ":**": 1869,
      "ene": 1870,
      "ED": 1871,
      "iversity": 1872,
      "ush": 1873,
      "ĠPl": 1874,
      "ina": 1875,
      "RO": 1876,
      "Ġwater": 1877,
      "Ġsk": 1878,
      "osp": 1879,
      "add": 1880,
      "Ġmov": 1881,
      "IS": 1882,
      "che": 1883,
      "Ġquestion": 1884,
      "ream": 1885,
      "********": 1886,
      "ĠUnited": 1887,
      "Ġposition": 1888,
      "ĠState": 1889,
      "ats": 1890,
      "He": 1891,
      "ological": 1892,
      "Ġ==": 1893,
      "aligned": 1894,
      "Ġhist": 1895,
      "Ġturn": 1896,
      "ajor": 1897,
      "Ġdue": 1898,
      "Ġview": 1899,
      "Ġpay": 1900,
      "new": 1901,
      "Ġexpression": 1902,
      "Ġoffic": 1903,
      "Ġinit": 1904,
      "ope": 1905,
      "ET": 1906,
      "}^": 1907,
      "ĠâĢĶ": 1908,
      "ividual": 1909,
      "As": 1910,
      "Ġemploy": 1911,
      "Ġtrial": 1912,
      "];": 1913,
      "Ġavail": 1914,
      "ho": 1915,
      "ik": 1916,
      "mat": 1917,
      "egin": 1918,
      "Ġspe": 1919,
      "Ġdays": 1920,
      "Ġopp": 1921,
      "ĠTo": 1922,
      "Ġgive": 1923,
      "Ġsize": 1924,
      "Ġsever": 1925,
      "If": 1926,
      "resp": 1927,
      "inc": 1928,
      "ĠOn": 1929,
      "Ġ%": 1930,
      "AC": 1931,
      "yd": 1932,
      "Ġcome": 1933,
      "Ġcost": 1934,
      "Ġlight": 1935,
      "Ġide": 1936,
      "Ġsum": 1937,
      "Ġfree": 1938,
      "Ġ{\\": 1939,
      "Ġcode": 1940,
      "Ġ25": 1941,
      "Ġtyp": 1942,
      "ours": 1943,
      "nal": 1944,
      "48": 1945,
      "iron": 1946,
      "Ġuntil": 1947,
      "Ġden": 1948,
      "Ġthings": 1949,
      "bs": 1950,
      "Ġgovernment": 1951,
      "Ġlocal": 1952,
      "Ġben": 1953,
      "Ġ17": 1954,
      "Ġhaving": 1955,
      "Ġbig": 1956,
      "play": 1957,
      "-\\": 1958,
      "iod": 1959,
      "Ġcases": 1960,
      "ends": 1961,
      "Ġprom": 1962,
      "Ġgot": 1963,
      "Ġ)": 1964,
      "enc": 1965,
      "Ġsimilar": 1966,
      "Ġfurther": 1967,
      "eps": 1968,
      "Ġlittle": 1969,
      "Ġpotential": 1970,
      "arrow": 1971,
      "ĊĠĠĠĠĠĠĠĠĠ": 1972,
      "data": 1973,
      "Ġshown": 1974,
      "Ġdise": 1975,
      "usion": 1976,
      "uck": 1977,
      "aps": 1978,
      "Ġder": 1979,
      "igma": 1980,
      "begin": 1981,
      "ackage": 1982,
      "Ġpred": 1983,
      "org": 1984,
      "____": 1985,
      "orn": 1986,
      "....": 1987,
      "etic": 1988,
      "Ġjud": 1989,
      "Ġprevious": 1990,
      "illion": 1991,
      "ĠStates": 1992,
      "Ġelse": 1993,
      "ries": 1994,
      "Ġhuman": 1995,
      "ended": 1996,
      "Ġindividual": 1997,
      "Ġphys": 1998,
      "Ġvol": 1999,
      "ourse": 2000,
      "roup": 2001,
      "HE": 2002,
      "Ġbuild": 2003,
      "Type": 2004,
      "icle": 2005,
      "ances": 2006,
      "ask": 2007,
      "co": 2008,
      "Ġeither": 2009,
      "Ġcho": 2010,
      "Ġalways": 2011,
      "ĠAd": 2012,
      "čĊ": 2013,
      "idth": 2014,
      "ables": 2015,
      "Ġprovide": 2016,
      "66": 2017,
      "Ġfamily": 2018,
      "Ġpa": 2019,
      "Ġ13": 2020,
      "ĠRes": 2021,
      "Ġgeneral": 2022,
      "Ġsuper": 2023,
      "ney": 2024,
      "Ġhigher": 2025,
      "ocument": 2026,
      "itor": 2027,
      "Ġgre": 2028,
      "Ġorgan": 2029,
      "}$$": 2030,
      "Id": 2031,
      "Ġweek": 2032,
      "ĠThese": 2033,
      "Ġspace": 2034,
      "ering": 2035,
      "98": 2036,
      "ĊĠĠĠĠĠĠĠĠĠĠĠĠĠĠĠĠĠĠĠ": 2037,
      "Ġmaterial": 2038,
      "Ġcomb": 2039,
      "Ġgame": 2040,
      "opt": 2041,
      "oney": 2042,
      "Cont": 2043,
      "Ġknown": 2044,
      "Ġspecific": 2045,
      "Ġold": 2046,
      "Ġcalled": 2047
    },
    "merges": [
      [
        "Ġ",
        "Ġ"
      ],
      [
        "Ġ",
        "t"
      ],
      [
        "Ġ",
        "a"
      ],
      [
        "i",
        "n"
      ],
      [
        "h",
        "e"
      ],
      [
        "r",
        "e"
      ],
      [
        "o",
        "n"
      ],
      [
        "ĠĠ",
        "ĠĠ"
      ],
      [
        "Ġt",
        "he"
      ],
      [
        "a",
        "t"
      ],
      [
        "e",
        "r"
      ],
      [
        "Ġ",
        "s"
      ],
      [
        "e",
        "n"
      ],
      [
        "Ġ",
        "o"
      ],
      [
        "Ġ",
        "c"
      ],
      [
        "Ġ",
        "w"
      ],
      [
        "i",
        "s"
      ],
      [
        "o",
        "r"
      ],
      [
        "i",
        "t"
      ],
      [
        "e",
        "s"
      ],
      [
        "a",
        "l"
      ],
      [
        "e",
        "d"
      ],
      [
        "a",
        "n"
      ],
      [
        "Ġ",
        "p"
      ],
      [
        "Ġ",
        "f"
      ],
      [
        "Ġ",
        "b"
      ],
      [
        "Ġa",
        "n"
      ],
      [
        "in",
        "g"
      ],
      [
        "Ġ",
        "in"
      ],
      [
        "Ġo",
        "f"
      ],
      [
        "a",
        "r"
      ],
      [
        "i",
        "on"
      ],
      [
        "o",
        "u"
      ],
      [
        "Ġ",
        "m"
      ],
      [
        "Ġ",
        "d"
      ],
      [
        "i",
        "c"
      ],
      [
        "l",
        "e"
      ],
      [
        "Ġt",
        "o"
      ],
      [
        "-",
        "-"
      ],
      [
        "a",
        "s"
      ],
      [
        "Ġan",
        "d"
      ],
      [
        "r",
        "o"
      ],
      [
        "ĠĠĠĠ",
        "ĠĠĠĠ"
      ],
      [
        "en",
        "t"
      ],
      [
        "Ġt",
        "h"
      ],
      [
        "c",
        "t"
      ],
      [
        "Ġ",
        "h"
      ],
      [
        "Ġ",
        "re"
      ],
      [
        "e",
        "t"
      ],
      [
        "Ġ",
        "n"
      ],
      [
        "e",
        "l"
      ],
      [
        "s",
        "t"
      ],
      [
        "o",
        "m"
      ],
      [
        "i",
        "l"
      ],
      [
        "Ġ",
        "e"
      ],
      [
        "Ġ",
        "l"
      ],
      [
        "i",
        "d"
      ],
      [
        "i",
        "g"
      ],
      [
        "i",
        "m"
      ],
      [
        "o",
        "t"
      ],
      [
        "v",
        "e"
      ],
      [
        "Ġ",
        "is"
      ],
      [
        "u",
        "t"
      ],
      [
        "Ġ",
        "g"
      ],
      [
        "Ġ",
        "("
      ],
      [
        "Ġ",
        "T"
      ],
      [
        "o",
        "l"
      ],
      [
        "a",
        "m"
      ],
      [
        "Ġ",
        "I"
      ],
      [
        "at",
        "ion"
      ],
      [
        "--",
        "--"
      ],
      [
        "s",
        "e"
      ],
      [
        "â",
        "Ģ"
      ],
      [
        "c",
        "e"
      ],
      [
        "l",
        "y"
      ],
      [
        "Ġf",
        "or"
      ],
      [
        "=",
        "="
      ],
      [
        "u",
        "r"
      ],
      [
        "Ġ",
        "S"
      ],
      [
        "Ġb",
        "e"
      ],
      [
        "o",
        "w"
      ],
      [
        "Ġth",
        "at"
      ],
      [
        "Ġ",
        "u"
      ],
      [
        "ĠĠ",
        "Ġ"
      ],
      [
        "r",
        "a"
      ],
      [
        "Ġ",
        "on"
      ],
      [
        "Ġ",
        "A"
      ],
      [
        "Ġ",
        "C"
      ],
      [
        "v",
        "er"
      ],
      [
        "Ġs",
        "t"
      ],
      [
        "c",
        "h"
      ],
      [
        "Ġ",
        "1"
      ],
      [
        "u",
        "l"
      ],
      [
        "it",
        "h"
      ],
      [
        "i",
        "f"
      ],
      [
        "a",
        "d"
      ],
      [
        "a",
        "y"
      ],
      [
        "Ġc",
        "on"
      ],
      [
        "Ġw",
        "ith"
      ],
      [
        "Ġ",
        "y"
      ],
      [
        "Ġa",
        "s"
      ],
      [
        "i",
        "r"
      ],
      [
        "o",
        "d"
      ],
      [
        "Ġ",
        "$"
      ],
      [
        "Ġp",
        "ro"
      ],
      [
        "t",
        "er"
      ],
      [
        "at",
        "e"
      ],
      [
        "ĠĠĠĠĠĠĠĠ",
        "ĠĠĠĠĠĠĠĠ"
      ],
      [
        "u",
        "m"
      ],
      [
        "Ġ",
        "it"
      ],
      [
        "Ġ",
        "M"
      ],
      [
        "a",
        "b"
      ],
      [
        "Ġw",
        "e"
      ],
      [
        "he",
        "r"
      ],
      [
        "0",
        "0"
      ],
      [
        "p",
        "p"
      ],
      [
        "Ġa",
        "l"
      ],
      [
        "r",
        "i"
      ],
      [
        "Ġ",
        "\""
      ],
      [
        "Ġ",
        "v"
      ],
      [
        "g",
        "e"
      ],
      [
        "n",
        "d"
      ],
      [
        "Ġ",
        "2"
      ],
      [
        "Ġd",
        "e"
      ],
      [
        "Ġ",
        "P"
      ],
      [
        "Ġw",
        "h"
      ],
      [
        "re",
        "s"
      ],
      [
        "e",
        "ct"
      ],
      [
        "q",
        "u"
      ],
      [
        "o",
        "s"
      ],
      [
        "m",
        "ent"
      ],
      [
        "h",
        "t"
      ],
      [
        "Ġy",
        "ou"
      ],
      [
        "Ġe",
        "x"
      ],
      [
        "es",
        "t"
      ],
      [
        "is",
        "t"
      ],
      [
        "a",
        "c"
      ],
      [
        "ĠT",
        "he"
      ],
      [
        "Ġw",
        "as"
      ],
      [
        "u",
        "s"
      ],
      [
        "an",
        "t"
      ],
      [
        "Ġ",
        "B"
      ],
      [
        "Ġc",
        "om"
      ],
      [
        "Ġo",
        "r"
      ],
      [
        "Ġ",
        "\\"
      ],
      [
        "o",
        "p"
      ],
      [
        "Ġa",
        "re"
      ],
      [
        "Ġ",
        "he"
      ],
      [
        "e",
        "m"
      ],
      [
        "Ġs",
        "u"
      ],
      [
        "*",
        "*"
      ],
      [
        "i",
        "v"
      ],
      [
        "----",
        "----"
      ],
      [
        "t",
        "h"
      ],
      [
        "it",
        "y"
      ],
      [
        "Ġa",
        "t"
      ],
      [
        "o",
        "c"
      ],
      [
        "n",
        "t"
      ],
      [
        "==",
        "=="
      ],
      [
        "Ġ",
        "F"
      ],
      [
        "er",
        "s"
      ],
      [
        "Ġ",
        "="
      ],
      [
        "a",
        "in"
      ],
      [
        "es",
        "s"
      ],
      [
        "Ġ",
        "H"
      ],
      [
        "o",
        "re"
      ],
      [
        "Ġb",
        "y"
      ],
      [
        "Ġ",
        "D"
      ],
      [
        "il",
        "l"
      ],
      [
        "l",
        "d"
      ],
      [
        "ro",
        "m"
      ],
      [
        "Ġ",
        "-"
      ],
      [
        "an",
        "d"
      ],
      [
        "Ġ",
        "W"
      ],
      [
        "u",
        "n"
      ],
      [
        "Ġ",
        "r"
      ],
      [
        "Ġn",
        "ot"
      ],
      [
        "ig",
        "ht"
      ],
      [
        "en",
        "d"
      ],
      [
        "i",
        "ve"
      ],
      [
        "Ġs",
        "e"
      ],
      [
        "Ġh",
        "a"
      ],
      [
        "Ġ",
        "R"
      ],
      [
        "k",
        "e"
      ],
      [
        "or",
        "t"
      ],
      [
        "Ġ",
        "L"
      ],
      [
        "p",
        "e"
      ],
      [
        "Ġ",
        "N"
      ],
      [
        "Ġn",
        "e"
      ],
      [
        "Ġth",
        "is"
      ],
      [
        "p",
        "t"
      ],
      [
        "ar",
        "t"
      ],
      [
        "âĢ",
        "Ļ"
      ],
      [
        "Ġf",
        "rom"
      ],
      [
        "u",
        "d"
      ],
      [
        "Ċ",
        "ĠĠĠĠ"
      ],
      [
        "re",
        "d"
      ],
      [
        "i",
        "al"
      ],
      [
        "{",
        "\\"
      ],
      [
        "p",
        "l"
      ],
      [
        "i",
        "es"
      ],
      [
        "Ġs",
        "h"
      ],
      [
        "Ċ",
        "ĠĠĠ"
      ],
      [
        "Ġ",
        "G"
      ],
      [
        "ct",
        "ion"
      ],
      [
        "Ġ",
        "E"
      ],
      [
        "el",
        "l"
      ],
      [
        "at",
        "ed"
      ],
      [
        "Ġc",
        "h"
      ],
      [
        "Ġha",
        "ve"
      ],
      [
        "in",
        "e"
      ],
      [
        "ou",
        "r"
      ],
      [
        "u",
        "re"
      ],
      [
        "al",
        "l"
      ],
      [
        "Ġ",
        "0"
      ],
      [
        "ou",
        "ld"
      ],
      [
        "a",
        "g"
      ],
      [
        "t",
        "e"
      ],
      [
        "Ġ",
        "le"
      ],
      [
        "'",
        "s"
      ],
      [
        "p",
        "er"
      ],
      [
        "o",
        "g"
      ],
      [
        "f",
        "f"
      ],
      [
        "Ġ",
        "*"
      ],
      [
        "ic",
        "al"
      ],
      [
        ")",
        "."
      ],
      [
        "Ġc",
        "an"
      ],
      [
        "am",
        "e"
      ],
      [
        "Ġ",
        "O"
      ],
      [
        "u",
        "st"
      ],
      [
        "Ġ",
        "3"
      ],
      [
        "u",
        "e"
      ],
      [
        "r",
        "ou"
      ],
      [
        "a",
        "ge"
      ],
      [
        "i",
        "b"
      ],
      [
        "c",
        "l"
      ],
      [
        "i",
        "z"
      ],
      [
        "ic",
        "h"
      ],
      [
        "as",
        "e"
      ],
      [
        "ar",
        "d"
      ],
      [
        "ab",
        "le"
      ],
      [
        "Ġre",
        "s"
      ],
      [
        "Ġu",
        "s"
      ],
      [
        "ou",
        "t"
      ],
      [
        "Ġ",
        "j"
      ],
      [
        "om",
        "e"
      ],
      [
        "i",
        "e"
      ],
      [
        "Ġw",
        "he"
      ],
      [
        "Ġa",
        "b"
      ],
      [
        "a",
        "ct"
      ],
      [
        "Ġc",
        "l"
      ],
      [
        ")",
        ";"
      ],
      [
        "Ġ",
        "{"
      ],
      [
        "_",
        "{"
      ],
      [
        ".",
        "."
      ],
      [
        "o",
        "st"
      ],
      [
        "Ġcom",
        "p"
      ],
      [
        "as",
        "t"
      ],
      [
        "ul",
        "t"
      ],
      [
        "as",
        "s"
      ],
      [
        "Ġ",
        "U"
      ],
      [
        "an",
        "s"
      ],
      [
        "Ġa",
        "d"
      ],
      [
        "t",
        "her"
      ],
      [
        "Ġwe",
        "re"
      ],
      [
        "Ġcon",
        "t"
      ],
      [
        "Ġp",
        "l"
      ],
      [
        "Ġ",
        "J"
      ],
      [
        "p",
        "h"
      ],
      [
        "ac",
        "k"
      ],
      [
        "Ġ",
        "k"
      ],
      [
        "Ġm",
        "e"
      ],
      [
        "0",
        "1"
      ],
      [
        "=",
        "\""
      ],
      [
        "id",
        "e"
      ],
      [
        "at",
        "h"
      ],
      [
        ".",
        "\""
      ],
      [
        "Ġ",
        "im"
      ],
      [
        "Ċ",
        "ĠĠĠĠĠĠĠĠ"
      ],
      [
        "or",
        "m"
      ],
      [
        "ig",
        "n"
      ],
      [
        "T",
        "he"
      ],
      [
        "Ġal",
        "l"
      ],
      [
        "Ġ",
        "âĢ"
      ],
      [
        "u",
        "b"
      ],
      [
        "Ġ",
        "["
      ],
      [
        "Ċ",
        "Ġ"
      ],
      [
        "it",
        "ion"
      ],
      [
        "i",
        "p"
      ],
      [
        "Ġ",
        "+"
      ],
      [
        "Ġd",
        "o"
      ],
      [
        "a",
        "p"
      ],
      [
        "a",
        "k"
      ],
      [
        "in",
        "d"
      ],
      [
        "Ġh",
        "as"
      ],
      [
        "ĊĠĠĠĠ",
        "ĠĠĠ"
      ],
      [
        "f",
        "t"
      ],
      [
        "ar",
        "y"
      ],
      [
        "ic",
        "e"
      ],
      [
        "en",
        "s"
      ],
      [
        "Ġ",
        "4"
      ],
      [
        "im",
        "e"
      ],
      [
        "on",
        "e"
      ],
      [
        "Ġwh",
        "ich"
      ],
      [
        "ĉ",
        "ĉ"
      ],
      [
        "c",
        "c"
      ],
      [
        "d",
        "u"
      ],
      [
        "ĠI",
        "n"
      ],
      [
        "ou",
        "s"
      ],
      [
        "====",
        "===="
      ],
      [
        "Ġa",
        "pp"
      ],
      [
        "Ġb",
        "ut"
      ],
      [
        "Ġt",
        "r"
      ],
      [
        "Ġd",
        "is"
      ],
      [
        "Ġin",
        "t"
      ],
      [
        "ent",
        "s"
      ],
      [
        "res",
        "s"
      ],
      [
        "ation",
        "s"
      ],
      [
        "in",
        "t"
      ],
      [
        "Ġw",
        "or"
      ],
      [
        "c",
        "on"
      ],
      [
        "en",
        "ce"
      ],
      [
        "a",
        "re"
      ],
      [
        "Ġw",
        "ill"
      ],
      [
        "r",
        "u"
      ],
      [
        "e",
        "ar"
      ],
      [
        "on",
        "g"
      ],
      [
        "e",
        "re"
      ],
      [
        ")",
        ","
      ],
      [
        "Ġg",
        "o"
      ],
      [
        "i",
        "le"
      ],
      [
        "--------",
        "--------"
      ],
      [
        "Ġ",
        "&"
      ],
      [
        "o",
        "k"
      ],
      [
        "Ġ",
        "5"
      ],
      [
        "/",
        "/"
      ],
      [
        "o",
        "se"
      ],
      [
        "Ġ",
        "<"
      ],
      [
        "d",
        "e"
      ],
      [
        "}",
        "}"
      ],
      [
        "ion",
        "s"
      ],
      [
        "Ġ",
        "en"
      ],
      [
        "Ġo",
        "ut"
      ],
      [
        "b",
        "er"
      ],
      [
        "an",
        "ce"
      ],
      [
        "Ġ",
        "if"
      ],
      [
        "i",
        "a"
      ],
      [
        "Ġu",
        "n"
      ],
      [
        "Ġp",
        "er"
      ],
      [
        "a",
        "u"
      ],
      [
        "ĠT",
        "h"
      ],
      [
        "a",
        "v"
      ],
      [
        "p",
        "ort"
      ],
      [
        "ĠĠĠĠĠĠĠĠĠĠĠĠĠĠĠĠ",
        "ĠĠĠĠĠĠĠĠĠĠĠĠĠĠĠĠ"
      ],
      [
        "g",
        "h"
      ],
      [
        "al",
        "ly"
      ],
      [
        "s",
        "o"
      ],
      [
        "el",
        "y"
      ],
      [
        "x",
        "t"
      ],
      [
        "or",
        "y"
      ],
      [
        "Ġon",
        "e"
      ],
      [
        "a",
        "ce"
      ],
      [
        "t",
        "y"
      ],
      [
        "an",
        "g"
      ],
      [
        "Ġ",
        "qu"
      ],
      [
        "a",
        "ch"
      ],
      [
        "Ġh",
        "is"
      ],
      [
        "or",
        "d"
      ],
      [
        "i",
        "re"
      ],
      [
        "Ġe",
        "v"
      ],
      [
        "Ġthe",
        "y"
      ],
      [
        "if",
        "f"
      ],
      [
        "r",
        "y"
      ],
      [
        "âĢ",
        "Ŀ"
      ],
      [
        "Â",
        "ł"
      ],
      [
        "Ġs",
        "o"
      ],
      [
        "re",
        "e"
      ],
      [
        "f",
        "orm"
      ],
      [
        "Ġp",
        "art"
      ],
      [
        "Ġa",
        "r"
      ],
      [
        "l",
        "ic"
      ],
      [
        "Ġm",
        "ore"
      ],
      [
        "a",
        "il"
      ],
      [
        "Ġthe",
        "ir"
      ],
      [
        "y",
        "s"
      ],
      [
        "or",
        "s"
      ],
      [
        "Ġu",
        "p"
      ],
      [
        "c",
        "re"
      ],
      [
        "Ġ",
        "K"
      ],
      [
        "Ġthe",
        "re"
      ],
      [
        "Ġp",
        "re"
      ],
      [
        "Ġ$",
        "\\"
      ],
      [
        "Ġs",
        "p"
      ],
      [
        "a",
        "ke"
      ],
      [
        "Ġa",
        "g"
      ],
      [
        "it",
        "e"
      ],
      [
        "e",
        "p"
      ],
      [
        "Ġo",
        "ther"
      ],
      [
        "l",
        "l"
      ],
      [
        "ĠS",
        "t"
      ],
      [
        "ver",
        "y"
      ],
      [
        "ou",
        "nd"
      ],
      [
        "Ġl",
        "i"
      ],
      [
        "j",
        "ect"
      ],
      [
        "v",
        "el"
      ],
      [
        "c",
        "om"
      ],
      [
        "n",
        "e"
      ],
      [
        "}",
        "\\"
      ],
      [
        "ou",
        "nt"
      ],
      [
        "ow",
        "n"
      ],
      [
        "Ġs",
        "a"
      ],
      [
        "Ġyou",
        "r"
      ],
      [
        "Ċ",
        "Ċ"
      ],
      [
        "at",
        "a"
      ],
      [
        "at",
        "es"
      ],
      [
        "Ġbe",
        "en"
      ],
      [
        "Ġh",
        "ad"
      ],
      [
        "r",
        "ight"
      ],
      [
        "Ġan",
        "y"
      ],
      [
        "ur",
        "n"
      ],
      [
        "Ġm",
        "an"
      ],
      [
        "Ġal",
        "so"
      ],
      [
        "Ġ",
        "}"
      ],
      [
        "Ġwh",
        "o"
      ],
      [
        "Ġn",
        "o"
      ],
      [
        "k",
        "s"
      ],
      [
        "er",
        "v"
      ],
      [
        "w",
        "e"
      ],
      [
        "Ġ",
        "'"
      ],
      [
        "Ġ",
        "V"
      ],
      [
        "Ġw",
        "ould"
      ],
      [
        "r",
        "ic"
      ],
      [
        "nd",
        "er"
      ],
      [
        "et",
        "h"
      ],
      [
        "Ġ",
        "6"
      ],
      [
        "if",
        "ic"
      ],
      [
        "Ġwhe",
        "n"
      ],
      [
        "er",
        "m"
      ],
      [
        "Ġab",
        "out"
      ],
      [
        "l",
        "ow"
      ],
      [
        "Ġas",
        "s"
      ],
      [
        "[",
        "@"
      ],
      [
        "Ġo",
        "b"
      ],
      [
        "}",
        "$"
      ],
      [
        "p",
        "le"
      ],
      [
        "Ġt",
        "ime"
      ],
      [
        "ĠâĢ",
        "ľ"
      ],
      [
        "\\",
        "]"
      ],
      [
        "at",
        "er"
      ],
      [
        "o",
        "ok"
      ],
      [
        "^",
        "{"
      ],
      [
        "o",
        "b"
      ],
      [
        "Ġth",
        "an"
      ],
      [
        "ra",
        "c"
      ],
      [
        "Ġm",
        "y"
      ],
      [
        "w",
        "o"
      ],
      [
        "Ġde",
        "f"
      ],
      [
        "Ġo",
        "ver"
      ],
      [
        "<",
        "/"
      ],
      [
        "Ġex",
        "p"
      ],
      [
        "ri",
        "b"
      ],
      [
        "ĠĠĠĠ",
        "ĠĠĠ"
      ],
      [
        "Ġs",
        "c"
      ],
      [
        "Ġb",
        "et"
      ],
      [
        "ro",
        "w"
      ],
      [
        "Ġ1",
        "9"
      ],
      [
        "Ġit",
        "s"
      ],
      [
        "cl",
        "ud"
      ],
      [
        "Ġd",
        "iff"
      ],
      [
        "'",
        "t"
      ],
      [
        "re",
        "f"
      ],
      [
        "Ġs",
        "ome"
      ],
      [
        "f",
        "ter"
      ],
      [
        "Ġt",
        "e"
      ],
      [
        "m",
        "ath"
      ],
      [
        "1",
        "0"
      ],
      [
        "le",
        "ct"
      ],
      [
        "Ġs",
        "y"
      ],
      [
        "ver",
        "s"
      ],
      [
        "Ġg",
        "en"
      ],
      [
        "Ġ",
        "_"
      ],
      [
        "g",
        "et"
      ],
      [
        "ol",
        "d"
      ],
      [
        "od",
        "e"
      ],
      [
        "c",
        "es"
      ],
      [
        "Ġsu",
        "b"
      ],
      [
        "Ġne",
        "w"
      ],
      [
        "I",
        "n"
      ],
      [
        "h",
        "at"
      ],
      [
        "o",
        "ve"
      ],
      [
        "Ġin",
        "ter"
      ],
      [
        "i",
        "ed"
      ],
      [
        "p",
        "s"
      ],
      [
        "Ġof",
        "f"
      ],
      [
        "ir",
        "st"
      ],
      [
        "Ġa",
        "m"
      ],
      [
        "r",
        "ing"
      ],
      [
        "pe",
        "c"
      ],
      [
        "ay",
        "s"
      ],
      [
        "Ġre",
        "c"
      ],
      [
        "Ġ",
        "Y"
      ],
      [
        "re",
        "at"
      ],
      [
        "Ġf",
        "e"
      ],
      [
        "Ġa",
        "cc"
      ],
      [
        "Ġcom",
        "m"
      ],
      [
        "Ġp",
        "at"
      ],
      [
        "1",
        "9"
      ],
      [
        "c",
        "ed"
      ],
      [
        "au",
        "se"
      ],
      [
        "Ġa",
        "ct"
      ],
      [
        "Ġk",
        "n"
      ],
      [
        "Ġu",
        "nder"
      ],
      [
        "Ġo",
        "ur"
      ],
      [
        "Ġre",
        "l"
      ],
      [
        "Ġv",
        "al"
      ],
      [
        "Ġcon",
        "s"
      ],
      [
        "Ġg",
        "et"
      ],
      [
        "in",
        "k"
      ],
      [
        "o",
        "v"
      ],
      [
        "Ġd",
        "es"
      ],
      [
        "Ġp",
        "e"
      ],
      [
        "il",
        "d"
      ],
      [
        "Ġ",
        "7"
      ],
      [
        "at",
        "ive"
      ],
      [
        "ĊĠĠĠĠĠĠĠĠ",
        "ĠĠĠ"
      ],
      [
        "Ġint",
        "o"
      ],
      [
        "le",
        "ft"
      ],
      [
        "e",
        "f"
      ],
      [
        "ar",
        "i"
      ],
      [
        "ing",
        "s"
      ],
      [
        "is",
        "s"
      ],
      [
        "ĠI",
        "t"
      ],
      [
        "Ġon",
        "ly"
      ],
      [
        "Ġst",
        "ud"
      ],
      [
        "u",
        "al"
      ],
      [
        "er",
        "t"
      ],
      [
        "Ġt",
        "wo"
      ],
      [
        "Ġm",
        "ay"
      ],
      [
        "Ġy",
        "ear"
      ],
      [
        "Ġsa",
        "id"
      ],
      [
        "m",
        "a"
      ],
      [
        "â",
        "Ķ"
      ],
      [
        "Ġbe",
        "c"
      ],
      [
        "on",
        "s"
      ],
      [
        "Ġwor",
        "k"
      ],
      [
        "#",
        "#"
      ],
      [
        "ul",
        "ar"
      ],
      [
        "p",
        "ro"
      ],
      [
        "Ġp",
        "os"
      ],
      [
        "ie",
        "w"
      ],
      [
        "Ġin",
        "v"
      ],
      [
        "1",
        "2"
      ],
      [
        "Ġ",
        "ro"
      ],
      [
        "Ġ",
        "her"
      ],
      [
        "Ġre",
        "g"
      ],
      [
        "Ġad",
        "d"
      ],
      [
        "Ġ",
        "8"
      ],
      [
        "ĠC",
        "h"
      ],
      [
        "Ġu",
        "se"
      ],
      [
        "un",
        "ction"
      ],
      [
        "Ġtr",
        "ans"
      ],
      [
        "Ġthe",
        "m"
      ],
      [
        "ig",
        "h"
      ],
      [
        "Ġm",
        "od"
      ],
      [
        "Ġre",
        "t"
      ],
      [
        "i",
        "an"
      ],
      [
        "e",
        "x"
      ],
      [
        "Ġli",
        "ke"
      ],
      [
        "ar",
        "k"
      ],
      [
        "Ġwh",
        "at"
      ],
      [
        "ĠTh",
        "is"
      ],
      [
        "he",
        "d"
      ],
      [
        "ic",
        "k"
      ],
      [
        "o",
        "int"
      ],
      [
        "Ġe",
        "m"
      ],
      [
        "c",
        "k"
      ],
      [
        "as",
        "ed"
      ],
      [
        "âĶ",
        "Ģ"
      ],
      [
        "Ġsu",
        "ch"
      ],
      [
        "Ġp",
        "res"
      ],
      [
        "Ġb",
        "l"
      ],
      [
        "Ġfor",
        "m"
      ],
      [
        "on",
        "d"
      ],
      [
        "ol",
        "og"
      ],
      [
        "at",
        "ing"
      ],
      [
        "Ġp",
        "h"
      ],
      [
        "Ġ2",
        "01"
      ],
      [
        "Ġe",
        "ff"
      ],
      [
        "c",
        "ess"
      ],
      [
        "ĠW",
        "e"
      ],
      [
        "Ġc",
        "o"
      ],
      [
        "Ġc",
        "ol"
      ],
      [
        "Ġdiff",
        "ere"
      ],
      [
        "Ġf",
        "irst"
      ],
      [
        "it",
        "t"
      ],
      [
        "Ġthe",
        "se"
      ],
      [
        "oc",
        "k"
      ],
      [
        "i",
        "ent"
      ],
      [
        "Ġres",
        "p"
      ],
      [
        "il",
        "ity"
      ],
      [
        "Ġ",
        "9"
      ],
      [
        "ment",
        "s"
      ],
      [
        "Ġj",
        "ust"
      ],
      [
        "âĶĢ",
        "âĶĢ"
      ],
      [
        "st",
        "em"
      ],
      [
        "on",
        "t"
      ],
      [
        "el",
        "f"
      ],
      [
        "Ġpro",
        "v"
      ],
      [
        "Ġ1",
        "0"
      ],
      [
        "o",
        "x"
      ],
      [
        "is",
        "h"
      ],
      [
        "Ġa",
        "fter"
      ],
      [
        "Ċ",
        "ĉĉ"
      ],
      [
        "Ġwhe",
        "re"
      ],
      [
        "we",
        "en"
      ],
      [
        "ot",
        "h"
      ],
      [
        "Ġd",
        "et"
      ],
      [
        "Ġs",
        "ign"
      ],
      [
        "ĊĠĠĠĠ",
        "Ġ"
      ],
      [
        "1",
        "1"
      ],
      [
        "Ġthe",
        "n"
      ],
      [
        "a",
        "w"
      ],
      [
        "id",
        "ent"
      ],
      [
        "s",
        "s"
      ],
      [
        "Ġne",
        "ed"
      ],
      [
        "Ġs",
        "et"
      ],
      [
        "e",
        "c"
      ],
      [
        "Ġp",
        "ol"
      ],
      [
        "Ġin",
        "d"
      ],
      [
        "an",
        "ge"
      ],
      [
        "ic",
        "t"
      ],
      [
        "o",
        "od"
      ],
      [
        "ut",
        "ion"
      ],
      [
        "Ġh",
        "ow"
      ],
      [
        "Ġbet",
        "ween"
      ],
      [
        "t",
        "he"
      ],
      [
        "op",
        "le"
      ],
      [
        "Ġcl",
        "ass"
      ],
      [
        "ub",
        "lic"
      ],
      [
        "Ġc",
        "ould"
      ],
      [
        "is",
        "e"
      ],
      [
        "========",
        "========"
      ],
      [
        "Ġres",
        "ult"
      ],
      [
        "Ġre",
        "m"
      ],
      [
        "s",
        "p"
      ],
      [
        "Ġg",
        "rou"
      ],
      [
        "iz",
        "e"
      ],
      [
        "y",
        "pe"
      ],
      [
        "ol",
        "low"
      ],
      [
        "ce",
        "pt"
      ],
      [
        "i",
        "x"
      ],
      [
        "e",
        "g"
      ],
      [
        "l",
        "es"
      ],
      [
        "(",
        ")"
      ],
      [
        "Ġat",
        "t"
      ],
      [
        "Ġt",
        "ra"
      ],
      [
        "i",
        "ents"
      ],
      [
        "u",
        "p"
      ],
      [
        "\"",
        ","
      ],
      [
        "Ġ",
        "ra"
      ],
      [
        "ou",
        "gh"
      ],
      [
        "Ġin",
        "clud"
      ],
      [
        "Ġsu",
        "pp"
      ],
      [
        "Ġp",
        "r"
      ],
      [
        "Ġus",
        "ed"
      ],
      [
        "i",
        "ous"
      ],
      [
        "el",
        "d"
      ],
      [
        "S",
        "t"
      ],
      [
        "our",
        "t"
      ],
      [
        "Ġd",
        "ata"
      ],
      [
        "ib",
        "le"
      ],
      [
        "Ġn",
        "um"
      ],
      [
        "2",
        "0"
      ],
      [
        "ter",
        "n"
      ],
      [
        "Ġc",
        "ell"
      ],
      [
        "c",
        "y"
      ],
      [
        "Ġs",
        "he"
      ],
      [
        "b",
        "le"
      ],
      [
        "Ċ",
        "ĉ"
      ],
      [
        "Ġsh",
        "ow"
      ],
      [
        "in",
        "al"
      ],
      [
        "o",
        "y"
      ],
      [
        "Ġa",
        "c"
      ],
      [
        "Ġf",
        "act"
      ],
      [
        "Ġs",
        "ur"
      ],
      [
        "Ġ\\",
        "["
      ],
      [
        "E",
        "R"
      ],
      [
        "Ġc",
        "or"
      ],
      [
        "Ġs",
        "im"
      ],
      [
        "Ġd",
        "id"
      ],
      [
        "Ġsh",
        "ould"
      ],
      [
        "u",
        "es"
      ],
      [
        "a",
        "x"
      ],
      [
        "ty",
        "pe"
      ],
      [
        "Ġkn",
        "ow"
      ],
      [
        "\"",
        ">"
      ],
      [
        "Ġf",
        "ollow"
      ],
      [
        "ĠU",
        "n"
      ],
      [
        "Ġs",
        "pec"
      ],
      [
        "Ġ",
        "end"
      ],
      [
        "ĠH",
        "e"
      ],
      [
        "Ġpe",
        "ople"
      ],
      [
        "f",
        "ig"
      ],
      [
        "ul",
        "l"
      ],
      [
        "Ġf",
        "unction"
      ],
      [
        "Ġd",
        "ist"
      ],
      [
        "p",
        "os"
      ],
      [
        "00",
        "0"
      ],
      [
        "r",
        "am"
      ],
      [
        "it",
        "s"
      ],
      [
        "d",
        "er"
      ],
      [
        ".",
        ","
      ],
      [
        "Ġf",
        "l"
      ],
      [
        "n",
        "ing"
      ],
      [
        "re",
        "n"
      ],
      [
        "]",
        "("
      ],
      [
        "he",
        "n"
      ],
      [
        "rou",
        "gh"
      ],
      [
        "f",
        "ore"
      ],
      [
        "Ġbec",
        "ause"
      ],
      [
        "O",
        "N"
      ],
      [
        "in",
        "ed"
      ],
      [
        "al",
        "s"
      ],
      [
        "_",
        "_"
      ],
      [
        "Ġre",
        "qu"
      ],
      [
        "it",
        "ed"
      ],
      [
        "Ġus",
        "ing"
      ],
      [
        "i",
        "eld"
      ],
      [
        "it",
        "ies"
      ],
      [
        "ad",
        "e"
      ],
      [
        "ic",
        "s"
      ],
      [
        "e",
        "ver"
      ],
      [
        "1",
        "5"
      ],
      [
        "ru",
        "ct"
      ],
      [
        "m",
        "s"
      ],
      [
        "Ġse",
        "e"
      ],
      [
        "ra",
        "ct"
      ],
      [
        "I",
        "N"
      ],
      [
        "Ċ",
        "ĠĠĠĠĠĠĠĠĠĠĠĠĠĠĠĠ"
      ],
      [
        "r",
        "it"
      ],
      [
        "Ġm",
        "ost"
      ],
      [
        "Ġin",
        "f"
      ],
      [
        "Ġs",
        "m"
      ],
      [
        "ect",
        "ion"
      ],
      [
        "Ġ",
        "i"
      ],
      [
        "Ġcon",
        "st"
      ],
      [
        ")",
        "{"
      ],
      [
        "Ġin",
        "st"
      ],
      [
        "Ġb",
        "ack"
      ],
      [
        ")",
        "$"
      ],
      [
        "1",
        "3"
      ],
      [
        "Ġgen",
        "er"
      ],
      [
        "f",
        "ul"
      ],
      [
        "Ġ",
        "."
      ],
      [
        "ur",
        "ing"
      ],
      [
        "1",
        "6"
      ],
      [
        "Ġw",
        "ell"
      ],
      [
        "Ġt",
        "est"
      ],
      [
        "Ġex",
        "t"
      ],
      [
        "]",
        "{"
      ],
      [
        "Ġsy",
        "stem"
      ],
      [
        "du",
        "ct"
      ],
      [
        "Ġ",
        ":"
      ],
      [
        "Ġth",
        "rough"
      ],
      [
        "f",
        "rac"
      ],
      [
        "u",
        "res"
      ],
      [
        "ation",
        "al"
      ],
      [
        "-",
        ">"
      ],
      [
        "Ġh",
        "im"
      ],
      [
        "Ġdiffere",
        "nt"
      ],
      [
        "_",
        "{\\"
      ],
      [
        "Ġr",
        "ight"
      ],
      [
        "----------------",
        "----------------"
      ],
      [
        "Ġc",
        "ase"
      ],
      [
        "t",
        "o"
      ],
      [
        "Ġe",
        "ach"
      ],
      [
        "Ġag",
        "ain"
      ],
      [
        "l",
        "i"
      ],
      [
        "Ġch",
        "ar"
      ],
      [
        "Ġret",
        "urn"
      ],
      [
        "ut",
        "e"
      ],
      [
        "Ġb",
        "u"
      ],
      [
        "ow",
        "er"
      ],
      [
        "m",
        "er"
      ],
      [
        "at",
        "or"
      ],
      [
        "1",
        "4"
      ],
      [
        "âĢ",
        "ī"
      ],
      [
        "Ġre",
        "f"
      ],
      [
        "e",
        "w"
      ],
      [
        "s",
        "c"
      ],
      [
        "Ġw",
        "ant"
      ],
      [
        "Ġpat",
        "ients"
      ],
      [
        "ĠĠĠĠ",
        "Ġ"
      ],
      [
        "ĊĠĠĠĠĠĠĠĠ",
        "ĠĠĠĠĠĠĠ"
      ],
      [
        "ical",
        "ly"
      ],
      [
        "Ġh",
        "igh"
      ],
      [
        "iz",
        "ed"
      ],
      [
        "Ġdo",
        "es"
      ],
      [
        "Ġeff",
        "ect"
      ],
      [
        "he",
        "s"
      ],
      [
        "im",
        "es"
      ],
      [
        "(",
        "\\"
      ],
      [
        "Ġ",
        "ent"
      ],
      [
        ")",
        ")"
      ],
      [
        "in",
        "s"
      ],
      [
        "Ġ[",
        "@"
      ],
      [
        "T",
        "h"
      ],
      [
        "i",
        "o"
      ],
      [
        "u",
        "ch"
      ],
      [
        "con",
        "d"
      ],
      [
        "p",
        "r"
      ],
      [
        "Ġst",
        "ate"
      ],
      [
        "}",
        ","
      ],
      [
        "te",
        "xt"
      ],
      [
        "rou",
        "nd"
      ],
      [
        "v",
        "al"
      ],
      [
        "il",
        "y"
      ],
      [
        "n",
        "ce"
      ],
      [
        "Ġm",
        "in"
      ],
      [
        "er",
        "r"
      ],
      [
        "Ġin",
        "cre"
      ],
      [
        "Ġm",
        "ake"
      ],
      [
        "Ġan",
        "al"
      ],
      [
        "p",
        "ut"
      ],
      [
        "..",
        "."
      ],
      [
        "Ġs",
        "ame"
      ],
      [
        "Ġc",
        "ur"
      ],
      [
        "o",
        "ol"
      ],
      [
        "**",
        "**"
      ],
      [
        "eth",
        "od"
      ],
      [
        "$",
        "\\"
      ],
      [
        "ri",
        "pt"
      ],
      [
        "u",
        "c"
      ],
      [
        "p",
        "ar"
      ],
      [
        "v",
        "ent"
      ],
      [
        "w",
        "n"
      ],
      [
        "g",
        "er"
      ],
      [
        "le",
        "t"
      ],
      [
        "Ġp",
        "ar"
      ],
      [
        "Ġ2",
        "00"
      ],
      [
        "Ġe",
        "very"
      ],
      [
        "t",
        "a"
      ],
      [
        "c",
        "ent"
      ],
      [
        "]",
        ","
      ],
      [
        "Ġev",
        "en"
      ],
      [
        "ot",
        "her"
      ],
      [
        "s",
        "et"
      ],
      [
        "Ġin",
        "te"
      ],
      [
        "Ġyear",
        "s"
      ],
      [
        "ain",
        "t"
      ],
      [
        "a",
        "red"
      ],
      [
        "E",
        "S"
      ],
      [
        "or",
        "k"
      ],
      [
        "Ġd",
        "i"
      ],
      [
        "Ġm",
        "on"
      ],
      [
        "Ġf",
        "ind"
      ],
      [
        "ro",
        "l"
      ],
      [
        "oc",
        "i"
      ],
      [
        "c",
        "er"
      ],
      [
        "as",
        "es"
      ],
      [
        "1",
        "8"
      ],
      [
        "Ġp",
        "oint"
      ],
      [
        "y",
        "m"
      ],
      [
        "at",
        "ic"
      ],
      [
        "Ġt",
        "ri"
      ],
      [
        "ar",
        "ch"
      ],
      [
        "u",
        "g"
      ],
      [
        "Ġc",
        "all"
      ],
      [
        "ant",
        "s"
      ],
      [
        "Ġth",
        "ose"
      ],
      [
        "a",
        "pp"
      ],
      [
        "Ġ",
        "x"
      ],
      [
        "Ġm",
        "ed"
      ],
      [
        "in",
        "ce"
      ],
      [
        "Ġpart",
        "ic"
      ],
      [
        "Ġ",
        "|"
      ],
      [
        "ĠS",
        "e"
      ],
      [
        "vel",
        "op"
      ],
      [
        "Ġb",
        "oth"
      ],
      [
        "Ġw",
        "ay"
      ],
      [
        "c",
        "al"
      ],
      [
        "v",
        "en"
      ],
      [
        "Ġn",
        "ow"
      ],
      [
        "Ġd",
        "on"
      ],
      [
        "am",
        "ple"
      ],
      [
        "Ġ1",
        "2"
      ],
      [
        "Ġ",
        "very"
      ],
      [
        "en",
        "se"
      ],
      [
        "Ġv",
        "ari"
      ],
      [
        "Ġ",
        "@"
      ],
      [
        "ect",
        "ed"
      ],
      [
        "re",
        "ad"
      ],
      [
        "Ġm",
        "at"
      ],
      [
        "re",
        "nt"
      ],
      [
        "Ġs",
        "er"
      ],
      [
        "d",
        "ition"
      ],
      [
        "as",
        "on"
      ],
      [
        "Ġapp",
        "ro"
      ],
      [
        "Ġl",
        "ong"
      ],
      [
        "u",
        "nd"
      ],
      [
        "ire",
        "ct"
      ],
      [
        "A",
        "T"
      ],
      [
        "y",
        "l"
      ],
      [
        "Ġde",
        "c"
      ],
      [
        "ĠC",
        "om"
      ],
      [
        "ag",
        "es"
      ],
      [
        "Ġ",
        "ke"
      ],
      [
        "w",
        "ard"
      ],
      [
        "Ġnum",
        "ber"
      ],
      [
        "Ġex",
        "per"
      ],
      [
        "Ġhe",
        "re"
      ],
      [
        "Ġf",
        "ound"
      ],
      [
        "l",
        "ed"
      ],
      [
        "5",
        "0"
      ],
      [
        "Ġb",
        "el"
      ],
      [
        "et",
        "a"
      ],
      [
        "r",
        "m"
      ],
      [
        "Ġa",
        "ut"
      ],
      [
        "Ġbe",
        "ing"
      ],
      [
        "}",
        "{"
      ],
      [
        "Ġc",
        "ar"
      ],
      [
        "Ġl",
        "ook"
      ],
      [
        "Ġpl",
        "ay"
      ],
      [
        "t",
        "r"
      ],
      [
        "Ġl",
        "oc"
      ],
      [
        "ress",
        "ion"
      ],
      [
        "Ġbe",
        "fore"
      ],
      [
        "v",
        "ed"
      ],
      [
        "y",
        "p"
      ],
      [
        "\"",
        "}"
      ],
      [
        "in",
        "es"
      ],
      [
        "o",
        "id"
      ],
      [
        "al",
        "th"
      ],
      [
        "o",
        "ver"
      ],
      [
        "if",
        "e"
      ],
      [
        "1",
        "7"
      ],
      [
        "Ġp",
        "ublic"
      ],
      [
        "Ġp",
        "ers"
      ],
      [
        "Ġ",
        "el"
      ],
      [
        "Ġman",
        "y"
      ],
      [
        "Ġ",
        "Q"
      ],
      [
        "Ġ",
        "/"
      ],
      [
        "Ġval",
        "ue"
      ],
      [
        "s",
        "h"
      ],
      [
        "ate",
        "g"
      ],
      [
        "re",
        "st"
      ],
      [
        "if",
        "ied"
      ],
      [
        "iv",
        "ely"
      ],
      [
        "Ġc",
        "ourt"
      ],
      [
        "3",
        "0"
      ],
      [
        "at",
        "ure"
      ],
      [
        "ak",
        "ing"
      ],
      [
        "Ġo",
        "p"
      ],
      [
        "?",
        "\""
      ],
      [
        "Ġstud",
        "y"
      ],
      [
        "'",
        ","
      ],
      [
        "I",
        "t"
      ],
      [
        "Ġg",
        "u"
      ],
      [
        "er",
        "g"
      ],
      [
        "Ġmod",
        "el"
      ],
      [
        "Ġf",
        "il"
      ],
      [
        "3",
        "2"
      ],
      [
        "Ġre",
        "p"
      ],
      [
        "u",
        "pp"
      ],
      [
        "t",
        "ing"
      ],
      [
        "Ġth",
        "ink"
      ],
      [
        "a",
        "ir"
      ],
      [
        "Ġe",
        "qu"
      ],
      [
        "2",
        "01"
      ],
      [
        "Ġre",
        "port"
      ],
      [
        "p",
        "end"
      ],
      [
        "Ġ",
        "Â"
      ],
      [
        "Ġc",
        "he"
      ],
      [
        "Ġm",
        "em"
      ],
      [
        "an",
        "k"
      ],
      [
        "Ġ",
        "//"
      ],
      [
        "od",
        "y"
      ],
      [
        "c",
        "ul"
      ],
      [
        "l",
        "ine"
      ],
      [
        "\"",
        ":"
      ],
      [
        "](",
        "#"
      ],
      [
        "al",
        "e"
      ],
      [
        "ra",
        "y"
      ],
      [
        "Ġpres",
        "ent"
      ],
      [
        "Ġhe",
        "l"
      ],
      [
        "o",
        "f"
      ],
      [
        "n",
        "g"
      ],
      [
        "Ġs",
        "ol"
      ],
      [
        "Ġ",
        "est"
      ],
      [
        "ĠF",
        "or"
      ],
      [
        "as",
        "h"
      ],
      [
        "Ġg",
        "iv"
      ],
      [
        "m",
        "in"
      ],
      [
        "Ġpro",
        "g"
      ],
      [
        "i",
        "red"
      ],
      [
        "Ġgo",
        "od"
      ],
      [
        "v",
        "iew"
      ],
      [
        "Ġwh",
        "ile"
      ],
      [
        "ic",
        "es"
      ],
      [
        "a",
        "ve"
      ],
      [
        "ĠR",
        "e"
      ],
      [
        "is",
        "m"
      ],
      [
        "Ġm",
        "ade"
      ],
      [
        "Ġdis",
        "c"
      ],
      [
        ":",
        ":"
      ],
      [
        "Ġpro",
        "cess"
      ],
      [
        ".",
        "âĢĿ"
      ],
      [
        "]",
        "\\]"
      ],
      [
        "form",
        "ation"
      ],
      [
        "Ġt",
        "erm"
      ],
      [
        "d",
        "ay"
      ],
      [
        "ign",
        "ed"
      ],
      [
        "Ġl",
        "ar"
      ],
      [
        "n",
        "ess"
      ],
      [
        "Ġle",
        "vel"
      ],
      [
        "W",
        "e"
      ],
      [
        "2",
        "5"
      ],
      [
        "g",
        "g"
      ],
      [
        "Ġde",
        "velop"
      ],
      [
        "Ġn",
        "on"
      ],
      [
        "o",
        "le"
      ],
      [
        "v",
        "ing"
      ],
      [
        "Ġn",
        "ame"
      ],
      [
        "Ċ",
        "ĊĠĠĠ"
      ],
      [
        "en",
        "g"
      ],
      [
        "Ġst",
        "art"
      ],
      [
        "Ġsupp",
        "ort"
      ],
      [
        "is",
        "ion"
      ],
      [
        "Ġd",
        "own"
      ],
      [
        "an",
        "n"
      ],
      [
        "Ġc",
        "ount"
      ],
      [
        "ĠL",
        "et"
      ],
      [
        "ab",
        "el"
      ],
      [
        "Ġs",
        "erv"
      ],
      [
        "al",
        "ity"
      ],
      [
        "ain",
        "ed"
      ],
      [
        "Ġpos",
        "s"
      ],
      [
        ":",
        "//"
      ],
      [
        "ĠĠĠĠ",
        "ĠĠ"
      ],
      [
        "ĠI",
        "f"
      ],
      [
        "Ġm",
        "uch"
      ],
      [
        "A",
        "R"
      ],
      [
        "Ġin",
        "s"
      ],
      [
        "ĠP",
        "ro"
      ],
      [
        "id",
        "er"
      ],
      [
        "am",
        "b"
      ],
      [
        "ĠâĢ",
        "ĵ"
      ],
      [
        "Ġre",
        "ad"
      ],
      [
        "E",
        "N"
      ],
      [
        "Ġm",
        "ethod"
      ],
      [
        "ent",
        "ial"
      ],
      [
        "m",
        "on"
      ],
      [
        "$",
        ","
      ],
      [
        "our",
        "ce"
      ],
      [
        "ph",
        "a"
      ],
      [
        "ĠA",
        "l"
      ],
      [
        "Ġth",
        "ree"
      ],
      [
        "u",
        "ally"
      ],
      [
        "Ġse",
        "cond"
      ],
      [
        "$",
        "."
      ],
      [
        "Ġh",
        "and"
      ],
      [
        "le",
        "ment"
      ],
      [
        "m",
        "ed"
      ],
      [
        "re",
        "t"
      ],
      [
        "Ġor",
        "der"
      ],
      [
        "b",
        "b"
      ],
      [
        "Ġcon",
        "f"
      ],
      [
        "2",
        "4"
      ],
      [
        "ction",
        "s"
      ],
      [
        "Ġwith",
        "out"
      ],
      [
        "Ġo",
        "wn"
      ],
      [
        "us",
        "s"
      ],
      [
        "O",
        "R"
      ],
      [
        "Ġst",
        "r"
      ],
      [
        "^",
        "{\\"
      ],
      [
        "an",
        "y"
      ],
      [
        "g",
        "ht"
      ],
      [
        "Ġd",
        "uring"
      ],
      [
        "p",
        "art"
      ],
      [
        "Ġgrou",
        "p"
      ],
      [
        "Ġp",
        "ri"
      ],
      [
        "st",
        "r"
      ],
      [
        "Ġl",
        "ine"
      ],
      [
        "\\",
        "["
      ],
      [
        "N",
        "A"
      ],
      [
        "(",
        "-"
      ],
      [
        "w",
        "ay"
      ],
      [
        "S",
        "T"
      ],
      [
        ",",
        "\\"
      ],
      [
        "am",
        "p"
      ],
      [
        "ar",
        "ly"
      ],
      [
        "iz",
        "ation"
      ],
      [
        "ion",
        "al"
      ],
      [
        "ĠH",
        "ow"
      ],
      [
        "id",
        "ence"
      ],
      [
        "if",
        "y"
      ],
      [
        "n",
        "s"
      ],
      [
        "]{",
        "}"
      ],
      [
        "Ġan",
        "t"
      ],
      [
        "ĠA",
        "nd"
      ],
      [
        "8",
        "0"
      ],
      [
        "ĠA",
        "s"
      ],
      [
        "Ġ\\[",
        "[@"
      ],
      [
        "Ġ2",
        "0"
      ],
      [
        "n",
        "er"
      ],
      [
        "Ġim",
        "port"
      ],
      [
        "Ġact",
        "iv"
      ],
      [
        "ĠĠĠĠĠĠĠĠĠĠĠĠĠĠĠĠĠĠĠĠĠĠĠĠĠĠĠĠĠĠĠĠ",
        "ĠĠĠĠĠĠĠĠĠĠĠĠĠĠĠĠĠĠĠĠĠĠĠĠĠĠĠĠĠĠĠĠ"
      ],
      [
        "olog",
        "y"
      ],
      [
        ",",
        "\""
      ],
      [
        "o",
        "ad"
      ],
      [
        "Ġsign",
        "ific"
      ],
      [
        "Ġper",
        "form"
      ],
      [
        "C",
        "R"
      ],
      [
        "en",
        "cy"
      ],
      [
        "(",
        "\""
      ],
      [
        "ab",
        "ility"
      ],
      [
        "c",
        "ript"
      ],
      [
        "ist",
        "s"
      ],
      [
        "W",
        "hat"
      ],
      [
        "Ġhel",
        "p"
      ],
      [
        "ra",
        "ph"
      ],
      [
        "g",
        "an"
      ],
      [
        "Ġt",
        "ype"
      ],
      [
        "âĶĢâĶĢ",
        "âĶĢâĶĢ"
      ],
      [
        "2",
        "2"
      ],
      [
        "t",
        "t"
      ],
      [
        "ĠB",
        "ut"
      ],
      [
        "Ġc",
        "re"
      ],
      [
        "Ġpro",
        "per"
      ],
      [
        "Ġo",
        "per"
      ],
      [
        "t",
        "on"
      ],
      [
        "Ġm",
        "et"
      ],
      [
        "m",
        "b"
      ],
      [
        "ir",
        "c"
      ],
      [
        "Ġpro",
        "ble"
      ],
      [
        "r",
        "on"
      ],
      [
        "al",
        "pha"
      ],
      [
        "um",
        "ent"
      ],
      [
        "id",
        "ed"
      ],
      [
        "Ġc",
        "le"
      ],
      [
        "Ġcell",
        "s"
      ],
      [
        "r",
        "ation"
      ],
      [
        "Ġsm",
        "all"
      ],
      [
        "ul",
        "ation"
      ],
      [
        "Ġl",
        "ast"
      ],
      [
        "4",
        "0"
      ],
      [
        "n",
        "ame"
      ],
      [
        "Ġle",
        "ad"
      ],
      [
        "a",
        "h"
      ],
      [
        "it",
        "al"
      ],
      [
        "at",
        "her"
      ],
      [
        "C",
        "T"
      ],
      [
        "Ġagain",
        "st"
      ],
      [
        "Ġp",
        "ur"
      ],
      [
        "I",
        "T"
      ],
      [
        "Ġm",
        "ust"
      ],
      [
        "Ġs",
        "ay"
      ],
      [
        "Ġ",
        "et"
      ],
      [
        "Ġl",
        "aw"
      ],
      [
        "Ġa",
        "v"
      ],
      [
        "âĢ",
        "ľ"
      ],
      [
        "act",
        "er"
      ],
      [
        "m",
        "an"
      ],
      [
        "a",
        "im"
      ],
      [
        "Ġt",
        "reat"
      ],
      [
        "ĠY",
        "ou"
      ],
      [
        "r",
        "al"
      ],
      [
        "Ġt",
        "ake"
      ],
      [
        "r",
        "an"
      ],
      [
        "it",
        "ive"
      ],
      [
        "Ġis",
        "s"
      ],
      [
        "ric",
        "t"
      ],
      [
        "ys",
        "is"
      ],
      [
        "i",
        "vers"
      ],
      [
        "Ġ",
        "**"
      ],
      [
        "f",
        "or"
      ],
      [
        "Ġ1",
        "5"
      ],
      [
        "e",
        "red"
      ],
      [
        "d",
        "d"
      ],
      [
        "L",
        "et"
      ],
      [
        "l",
        "ess"
      ],
      [
        "Ġle",
        "t"
      ],
      [
        "h",
        "ip"
      ],
      [
        "Ġin",
        "c"
      ],
      [
        "ĠA",
        "n"
      ],
      [
        "Ġsignific",
        "ant"
      ],
      [
        "d",
        "a"
      ],
      [
        "Ġpers",
        "on"
      ],
      [
        "3",
        "3"
      ],
      [
        "al",
        "k"
      ],
      [
        "Ġqu",
        "est"
      ],
      [
        "Ġch",
        "ild"
      ],
      [
        "Ġst",
        "ill"
      ],
      [
        "Ġc",
        "ou"
      ],
      [
        "Ġf",
        "in"
      ],
      [
        "Ġr",
        "un"
      ],
      [
        "ou",
        "se"
      ],
      [
        "ter",
        "s"
      ],
      [
        "Ġo",
        "pt"
      ],
      [
        "Ġcont",
        "rol"
      ],
      [
        "n",
        "ot"
      ],
      [
        "ur",
        "ther"
      ],
      [
        "ag",
        "n"
      ],
      [
        "Ġf",
        "am"
      ],
      [
        "ch",
        "n"
      ],
      [
        "Ġs",
        "om"
      ],
      [
        "in",
        "ation"
      ],
      [
        "Ġ",
        "--"
      ],
      [
        "ro",
        "ss"
      ],
      [
        "Ġe",
        "lect"
      ],
      [
        "r",
        "t"
      ],
      [
        "w",
        "w"
      ],
      [
        "ater",
        "ial"
      ],
      [
        "Ġl",
        "im"
      ],
      [
        "Ġex",
        "pl"
      ],
      [
        "m",
        "l"
      ],
      [
        "Ġc",
        "ent"
      ],
      [
        "Ġresult",
        "s"
      ],
      [
        "o",
        "ot"
      ],
      [
        "ĠN",
        "ew"
      ],
      [
        "Ġme",
        "as"
      ],
      [
        "Ġd",
        "irect"
      ],
      [
        "]",
        "."
      ],
      [
        "pl",
        "oy"
      ],
      [
        "A",
        "L"
      ],
      [
        "qu",
        "e"
      ],
      [
        "ar",
        "s"
      ],
      [
        "s",
        "erv"
      ],
      [
        "6",
        "0"
      ],
      [
        "i",
        "er"
      ],
      [
        "Ġin",
        "formation"
      ],
      [
        "E",
        "x"
      ],
      [
        "Ġst",
        "and"
      ],
      [
        "Ġ",
        "ident"
      ],
      [
        "Ġ",
        "z"
      ],
      [
        "Ġp",
        "ost"
      ],
      [
        "o",
        "h"
      ],
      [
        "2",
        "7"
      ],
      [
        "v",
        "ious"
      ],
      [
        "Ġg",
        "l"
      ],
      [
        "Ġdet",
        "erm"
      ],
      [
        "âĢ",
        "ĵ"
      ],
      [
        "(",
        ");"
      ],
      [
        "Ġcont",
        "in"
      ],
      [
        "6",
        "4"
      ],
      [
        "A",
        "N"
      ],
      [
        "y",
        "n"
      ],
      [
        "e",
        "ad"
      ],
      [
        "ent",
        "ion"
      ],
      [
        "Ġd",
        "ay"
      ],
      [
        "Ġ1",
        "8"
      ],
      [
        "e",
        "k"
      ],
      [
        "2",
        "00"
      ],
      [
        "Ġst",
        "at"
      ],
      [
        "Ġfollow",
        "ing"
      ],
      [
        "id",
        "es"
      ],
      [
        "at",
        "ch"
      ],
      [
        "9",
        "9"
      ],
      [
        "le",
        "ase"
      ],
      [
        "Ġa",
        "ff"
      ],
      [
        "ord",
        "ing"
      ],
      [
        "mer",
        "ic"
      ],
      [
        "i",
        "or"
      ],
      [
        "ot",
        "s"
      ],
      [
        "at",
        "ely"
      ],
      [
        "Th",
        "is"
      ],
      [
        "Ġall",
        "ow"
      ],
      [
        "Ġ",
        "ed"
      ],
      [
        "a",
        "j"
      ],
      [
        "Ġpro",
        "du"
      ],
      [
        "w",
        "ork"
      ],
      [
        "m",
        "e"
      ],
      [
        "2",
        "3"
      ],
      [
        "Ġd",
        "el"
      ],
      [
        "Ġgo",
        "ing"
      ],
      [
        "0",
        "5"
      ],
      [
        "i",
        "ence"
      ],
      [
        "âĢ",
        "Ķ"
      ],
      [
        "de",
        "f"
      ],
      [
        "er",
        "al"
      ],
      [
        "res",
        "ent"
      ],
      [
        "am",
        "es"
      ],
      [
        "ot",
        "e"
      ],
      [
        "Ġm",
        "ult"
      ],
      [
        "Ġre",
        "al"
      ],
      [
        "â",
        "Ī"
      ],
      [
        "Ġb",
        "re"
      ],
      [
        "Ċ",
        "ĠĠ"
      ],
      [
        "Ġcon",
        "dition"
      ],
      [
        "Ġ",
        ","
      ],
      [
        "Ġc",
        "a"
      ],
      [
        "iss",
        "ion"
      ],
      [
        "c",
        "ur"
      ],
      [
        "et",
        "s"
      ],
      [
        "iv",
        "ed"
      ],
      [
        "u",
        "red"
      ],
      [
        "Ġwith",
        "in"
      ],
      [
        "Ġcur",
        "rent"
      ],
      [
        ")",
        "\\"
      ],
      [
        "Ġpro",
        "t"
      ],
      [
        "i",
        "um"
      ],
      [
        "v",
        "es"
      ],
      [
        "Ġs",
        "ince"
      ],
      [
        "ur",
        "al"
      ],
      [
        "2",
        "8"
      ],
      [
        "Ġre",
        "du"
      ],
      [
        "ent",
        "ly"
      ],
      [
        "P",
        "ro"
      ],
      [
        "4",
        "5"
      ],
      [
        "u",
        "le"
      ],
      [
        "Ġre",
        "ce"
      ],
      [
        "am",
        "et"
      ],
      [
        "}",
        "("
      ],
      [
        "Ġme",
        "an"
      ],
      [
        "is",
        "hed"
      ],
      [
        "Ġinte",
        "rest"
      ],
      [
        "l",
        "and"
      ],
      [
        "Ġc",
        "are"
      ],
      [
        "b",
        "f"
      ],
      [
        "I",
        "D"
      ],
      [
        ",",
        "âĢĿ"
      ],
      [
        "Ġgo",
        "ver"
      ],
      [
        "le",
        "x"
      ],
      [
        "r",
        "id"
      ],
      [
        "Ġinv",
        "est"
      ],
      [
        "Ġde",
        "v"
      ],
      [
        "b",
        "e"
      ],
      [
        "ak",
        "es"
      ],
      [
        "Ġst",
        "ruct"
      ],
      [
        "ver",
        "t"
      ],
      [
        "Ġre",
        "st"
      ],
      [
        "Ġhe",
        "alth"
      ],
      [
        "Ġf",
        "ield"
      ],
      [
        "C",
        "on"
      ],
      [
        "a",
        "z"
      ],
      [
        "Ġ",
        "err"
      ],
      [
        "Ġ",
        "X"
      ],
      [
        "Ġwor",
        "ld"
      ],
      [
        "Ġw",
        "r"
      ],
      [
        "3",
        "5"
      ],
      [
        "Ġadd",
        "ition"
      ],
      [
        "c",
        "rib"
      ],
      [
        "Ġl",
        "ife"
      ],
      [
        "ain",
        "s"
      ],
      [
        "ã",
        "ģ"
      ],
      [
        "F",
        "ig"
      ],
      [
        "math",
        "cal"
      ],
      [
        "Ġp",
        "ass"
      ],
      [
        "um",
        "p"
      ],
      [
        "Ġb",
        "as"
      ],
      [
        "amb",
        "da"
      ],
      [
        "Ġresp",
        "ect"
      ],
      [
        "Ġa",
        "round"
      ],
      [
        "p",
        "i"
      ],
      [
        "Ġex",
        "ample"
      ],
      [
        "ĠT",
        "r"
      ],
      [
        "ar",
        "m"
      ],
      [
        "Ġ1",
        "4"
      ],
      [
        "Ġcl",
        "aim"
      ],
      [
        "Ġ$",
        "$\\"
      ],
      [
        "ch",
        "ool"
      ],
      [
        "iv",
        "es"
      ],
      [
        "ĠD",
        "e"
      ],
      [
        "Ġop",
        "en"
      ],
      [
        "b",
        "ers"
      ],
      [
        "Ġm",
        "ark"
      ],
      [
        "ial",
        "ly"
      ],
      [
        "00",
        "00"
      ],
      [
        "Ġ",
        "ve"
      ],
      [
        "Ġass",
        "oci"
      ],
      [
        "ĠS",
        "h"
      ],
      [
        "g",
        "en"
      ],
      [
        "Ġan",
        "other"
      ],
      [
        "are",
        "nt"
      ],
      [
        "Ġin",
        "de"
      ],
      [
        "u",
        "se"
      ],
      [
        "ĠHow",
        "ever"
      ],
      [
        "S",
        "E"
      ],
      [
        "Ġar",
        "g"
      ],
      [
        "Ġ1",
        "6"
      ],
      [
        "Ġcomm",
        "un"
      ],
      [
        "s",
        "on"
      ],
      [
        "ĠC",
        "l"
      ],
      [
        "an",
        "e"
      ],
      [
        "Ã",
        "©"
      ],
      [
        "2",
        "6"
      ],
      [
        "re",
        "l"
      ],
      [
        "ht",
        "t"
      ],
      [
        "Ġinclud",
        "ing"
      ],
      [
        "Ġar",
        "t"
      ],
      [
        "Ġim",
        "p"
      ],
      [
        "Ġh",
        "um"
      ],
      [
        "3",
        "6"
      ],
      [
        "ĠW",
        "h"
      ],
      [
        "an",
        "c"
      ],
      [
        "Ġl",
        "ow"
      ],
      [
        "Ġgiv",
        "en"
      ],
      [
        "Ġo",
        "cc"
      ],
      [
        "Ġh",
        "ig"
      ],
      [
        "it",
        "her"
      ],
      [
        "=",
        "\\"
      ],
      [
        "Ġmon",
        "th"
      ],
      [
        "Ġl",
        "ist"
      ],
      [
        "n",
        "ment"
      ],
      [
        "e",
        "e"
      ],
      [
        "rib",
        "ut"
      ],
      [
        "ar",
        "g"
      ],
      [
        "2",
        "9"
      ],
      [
        "Ġprog",
        "ram"
      ],
      [
        "Ġp",
        "ower"
      ],
      [
        "Ġch",
        "ang"
      ],
      [
        "Ġ",
        "Z"
      ],
      [
        "'",
        "m"
      ],
      [
        "re",
        "g"
      ],
      [
        "ra",
        "p"
      ],
      [
        "##",
        "##"
      ],
      [
        "Ġt",
        "em"
      ],
      [
        "Ġp",
        "ot"
      ],
      [
        "Ġg",
        "reat"
      ],
      [
        "he",
        "re"
      ],
      [
        "in",
        "ess"
      ],
      [
        "f",
        "ace"
      ],
      [
        "3",
        "7"
      ],
      [
        "w",
        "ays"
      ],
      [
        "in",
        "ing"
      ],
      [
        "Ġad",
        "v"
      ],
      [
        "Ġto",
        "p"
      ],
      [
        "Ġtr",
        "y"
      ],
      [
        "l",
        "abel"
      ],
      [
        "Ġbe",
        "h"
      ],
      [
        "ot",
        "t"
      ],
      [
        "}",
        "^{"
      ],
      [
        "s",
        "elf"
      ],
      [
        "Ġc",
        "al"
      ],
      [
        "ĠI",
        "nd"
      ],
      [
        "Ġre",
        "ally"
      ],
      [
        "ĠN",
        "o"
      ],
      [
        "Ġ*",
        "/"
      ],
      [
        "ff",
        "ic"
      ],
      [
        "Ġm",
        "ight"
      ],
      [
        "Ġob",
        "ject"
      ],
      [
        "ĠA",
        "meric"
      ],
      [
        "y",
        "t"
      ],
      [
        "Ġanal",
        "ysis"
      ],
      [
        "Ġc",
        "r"
      ],
      [
        "Ġs",
        "l"
      ],
      [
        "Ġc",
        "ap"
      ],
      [
        "I",
        "C"
      ],
      [
        "Ġl",
        "ess"
      ],
      [
        "3",
        "8"
      ],
      [
        "Ġhe",
        "ad"
      ],
      [
        "Ġ<",
        "/"
      ],
      [
        "ĠP",
        "h"
      ],
      [
        "(",
        "'"
      ],
      [
        "ain",
        "ing"
      ],
      [
        "ur",
        "y"
      ],
      [
        ")",
        "/"
      ],
      [
        "eth",
        "ing"
      ],
      [
        "ab",
        "ly"
      ],
      [
        "h",
        "or"
      ],
      [
        "b",
        "l"
      ],
      [
        "Ġ",
        "es"
      ],
      [
        "Ġha",
        "pp"
      ],
      [
        "Y",
        "ou"
      ],
      [
        "Ġfe",
        "w"
      ],
      [
        "================",
        "================"
      ],
      [
        "Ġb",
        "ased"
      ],
      [
        "op",
        "y"
      ],
      [
        "ang",
        "le"
      ],
      [
        "Ġto",
        "o"
      ],
      [
        "Ġpl",
        "ace"
      ],
      [
        "al",
        "se"
      ],
      [
        "on",
        "se"
      ],
      [
        "st",
        "and"
      ],
      [
        "}",
        "_"
      ],
      [
        "ĠA",
        "pp"
      ],
      [
        "Ġs",
        "elf"
      ],
      [
        "ateg",
        "ory"
      ],
      [
        "Ġapp",
        "lic"
      ],
      [
        "R",
        "E"
      ],
      [
        "Ġ",
        "#"
      ],
      [
        "ro",
        "ll"
      ],
      [
        "ar",
        "n"
      ],
      [
        "Ġimport",
        "ant"
      ],
      [
        "et",
        "y"
      ],
      [
        "ir",
        "d"
      ],
      [
        "ĠThe",
        "y"
      ],
      [
        "2",
        "1"
      ],
      [
        "I",
        "ON"
      ],
      [
        "Ġind",
        "ic"
      ],
      [
        "th",
        "ing"
      ],
      [
        "^",
        ","
      ],
      [
        "ic",
        "ro"
      ],
      [
        "Ġch",
        "ange"
      ],
      [
        "iv",
        "id"
      ],
      [
        "m",
        "u"
      ],
      [
        "Ġte",
        "chn"
      ],
      [
        "Ġev",
        "idence"
      ],
      [
        "Ġpro",
        "duct"
      ],
      [
        "Ġs",
        "ing"
      ],
      [
        "ere",
        "nce"
      ],
      [
        "Ġob",
        "t"
      ],
      [
        "se",
        "c"
      ],
      [
        "3",
        "4"
      ],
      [
        "Ġpro",
        "b"
      ],
      [
        "C",
        "h"
      ],
      [
        "is",
        "ed"
      ],
      [
        "Ġb",
        "i"
      ],
      [
        "Ġte",
        "am"
      ],
      [
        "t",
        "s"
      ],
      [
        "Ġf",
        "our"
      ],
      [
        "v",
        "ar"
      ],
      [
        "--",
        "-"
      ],
      [
        "le",
        "g"
      ],
      [
        "Ġre",
        "se"
      ],
      [
        "Ġu",
        "nt"
      ],
      [
        "Ġm",
        "ot"
      ],
      [
        "Ġ1",
        "1"
      ],
      [
        "Ġsu",
        "gg"
      ],
      [
        "3",
        "9"
      ],
      [
        "]\\]",
        "."
      ],
      [
        "Ġsugg",
        "est"
      ],
      [
        "Ġb",
        "us"
      ],
      [
        "Ġtreat",
        "ment"
      ],
      [
        "Ġwhe",
        "ther"
      ],
      [
        "Ġ{",
        "#"
      ],
      [
        "s",
        "er"
      ],
      [
        "Ġg",
        "ra"
      ],
      [
        "pl",
        "es"
      ],
      [
        "Ġ3",
        "0"
      ],
      [
        "b",
        "y"
      ],
      [
        "ar",
        "get"
      ],
      [
        "Ġv",
        "is"
      ],
      [
        "le",
        "ction"
      ],
      [
        "pl",
        "ic"
      ],
      [
        "L",
        "E"
      ],
      [
        "Ġh",
        "ome"
      ],
      [
        "el",
        "s"
      ],
      [
        "os",
        "ed"
      ],
      [
        "Ġf",
        "ile"
      ],
      [
        "ou",
        "ght"
      ],
      [
        "Ġp",
        "op"
      ],
      [
        "ab",
        "l"
      ],
      [
        "ĠW",
        "hat"
      ],
      [
        "el",
        "ta"
      ],
      [
        "7",
        "0"
      ],
      [
        "l",
        "u"
      ],
      [
        "Ġle",
        "g"
      ],
      [
        "eng",
        "th"
      ],
      [
        "ĠThe",
        "re"
      ],
      [
        "Ġcomm",
        "on"
      ],
      [
        "Ġf",
        "ail"
      ],
      [
        "erg",
        "y"
      ],
      [
        "ĠI",
        "s"
      ],
      [
        "Ġne",
        "xt"
      ],
      [
        "f",
        "er"
      ],
      [
        "u",
        "nt"
      ],
      [
        "Ġob",
        "serv"
      ],
      [
        "a",
        "ult"
      ],
      [
        "Ġw",
        "om"
      ],
      [
        "m",
        "un"
      ],
      [
        "er",
        "y"
      ],
      [
        "Ġdef",
        "end"
      ],
      [
        "Ġd",
        "ri"
      ],
      [
        "ĠE",
        "x"
      ],
      [
        "Ġp",
        "ath"
      ],
      [
        "il",
        "ar"
      ],
      [
        "Ċ",
        "ĊĠ"
      ],
      [
        "Ġpro",
        "te"
      ],
      [
        "Ġb",
        "est"
      ],
      [
        "Ġg",
        "r"
      ],
      [
        "orm",
        "al"
      ],
      [
        "am",
        "ma"
      ],
      [
        "Ġlar",
        "ge"
      ],
      [
        "Ġsom",
        "ething"
      ],
      [
        "ro",
        "p"
      ],
      [
        "Ġle",
        "ft"
      ],
      [
        "Ġp",
        "ut"
      ],
      [
        "re",
        "qu"
      ],
      [
        "os",
        "s"
      ],
      [
        "us",
        "ed"
      ],
      [
        "a",
        "ction"
      ],
      [
        "ert",
        "ain"
      ],
      [
        "Ġdes",
        "crib"
      ],
      [
        "R",
        "e"
      ],
      [
        "C",
        "l"
      ],
      [
        "ĠS",
        "o"
      ],
      [
        "cc",
        "ess"
      ],
      [
        "Ġinv",
        "ol"
      ],
      [
        "Ġbet",
        "ter"
      ],
      [
        "Ġg",
        "row"
      ],
      [
        "Ġcon",
        "n"
      ],
      [
        "s",
        "um"
      ],
      [
        "âĪ",
        "Ĵ"
      ],
      [
        "N",
        "ame"
      ],
      [
        "Ġbel",
        "ie"
      ],
      [
        "}",
        "_{"
      ],
      [
        "7",
        "5"
      ],
      [
        "Ġproble",
        "m"
      ],
      [
        "p",
        "or"
      ],
      [
        "ph",
        "i"
      ],
      [
        "math",
        "bb"
      ],
      [
        "Ġpartic",
        "ular"
      ],
      [
        "Ġab",
        "ove"
      ],
      [
        "4",
        "4"
      ],
      [
        "Ġpro",
        "f"
      ],
      [
        "Ġrep",
        "resent"
      ],
      [
        "w",
        "are"
      ],
      [
        "con",
        "t"
      ],
      [
        "Ġb",
        "o"
      ],
      [
        "itt",
        "le"
      ],
      [
        "'",
        "re"
      ],
      [
        "Ġtr",
        "ue"
      ],
      [
        "d",
        "iv"
      ],
      [
        "Ġto",
        "t"
      ],
      [
        "Ġim",
        "pro"
      ],
      [
        "A",
        "S"
      ],
      [
        "9",
        "0"
      ],
      [
        "ĠC",
        "on"
      ],
      [
        "9",
        "5"
      ],
      [
        "Ġcons",
        "ider"
      ],
      [
        "T",
        "o"
      ],
      [
        "h",
        "ib"
      ],
      [
        "Ġf",
        "r"
      ],
      [
        "is",
        "k"
      ],
      [
        "Ġre",
        "ason"
      ],
      [
        "at",
        "t"
      ],
      [
        "Ġrec",
        "ord"
      ],
      [
        "C",
        "om"
      ],
      [
        "Ġas",
        "k"
      ],
      [
        "ific",
        "ation"
      ],
      [
        "Ġl",
        "a"
      ],
      [
        "ĠA",
        "ll"
      ],
      [
        "$",
        "$"
      ],
      [
        "c",
        "ol"
      ],
      [
        "Ġs",
        "it"
      ],
      [
        "Ġle",
        "ast"
      ],
      [
        "Ġposs",
        "ible"
      ],
      [
        "Ġn",
        "et"
      ],
      [
        "Ġse",
        "em"
      ],
      [
        "Ġne",
        "ver"
      ],
      [
        "Ġe",
        "as"
      ],
      [
        "vers",
        "ion"
      ],
      [
        "Ġchar",
        "acter"
      ],
      [
        "ĠU",
        "S"
      ],
      [
        "e",
        "xt"
      ],
      [
        "ĠĠĠĠĠĠĠĠĠĠĠĠĠĠĠĠ",
        "ĠĠĠĠĠĠĠĠ"
      ],
      [
        "Ġpro",
        "ject"
      ],
      [
        ":",
        "**"
      ],
      [
        "en",
        "e"
      ],
      [
        "E",
        "D"
      ],
      [
        "ivers",
        "ity"
      ],
      [
        "us",
        "h"
      ],
      [
        "ĠP",
        "l"
      ],
      [
        "in",
        "a"
      ],
      [
        "R",
        "O"
      ],
      [
        "Ġw",
        "ater"
      ],
      [
        "Ġs",
        "k"
      ],
      [
        "os",
        "p"
      ],
      [
        "ad",
        "d"
      ],
      [
        "Ġm",
        "ov"
      ],
      [
        "I",
        "S"
      ],
      [
        "c",
        "he"
      ],
      [
        "Ġquest",
        "ion"
      ],
      [
        "re",
        "am"
      ],
      [
        "****",
        "****"
      ],
      [
        "ĠUn",
        "ited"
      ],
      [
        "Ġpos",
        "ition"
      ],
      [
        "ĠSt",
        "ate"
      ],
      [
        "at",
        "s"
      ],
      [
        "H",
        "e"
      ],
      [
        "olog",
        "ical"
      ],
      [
        "Ġ",
        "=="
      ],
      [
        "al",
        "igned"
      ],
      [
        "Ġh",
        "ist"
      ],
      [
        "Ġt",
        "urn"
      ],
      [
        "aj",
        "or"
      ],
      [
        "Ġd",
        "ue"
      ],
      [
        "Ġv",
        "iew"
      ],
      [
        "Ġp",
        "ay"
      ],
      [
        "ne",
        "w"
      ],
      [
        "Ġexp",
        "ression"
      ],
      [
        "Ġoff",
        "ic"
      ],
      [
        "Ġin",
        "it"
      ],
      [
        "op",
        "e"
      ],
      [
        "E",
        "T"
      ],
      [
        "}",
        "^"
      ],
      [
        "ĠâĢ",
        "Ķ"
      ],
      [
        "ivid",
        "ual"
      ],
      [
        "A",
        "s"
      ],
      [
        "Ġem",
        "ploy"
      ],
      [
        "Ġtri",
        "al"
      ],
      [
        "]",
        ";"
      ],
      [
        "Ġav",
        "ail"
      ],
      [
        "h",
        "o"
      ],
      [
        "i",
        "k"
      ],
      [
        "m",
        "at"
      ],
      [
        "eg",
        "in"
      ],
      [
        "Ġs",
        "pe"
      ],
      [
        "Ġd",
        "ays"
      ],
      [
        "Ġo",
        "pp"
      ],
      [
        "ĠT",
        "o"
      ],
      [
        "Ġg",
        "ive"
      ],
      [
        "Ġs",
        "ize"
      ],
      [
        "Ġse",
        "ver"
      ],
      [
        "I",
        "f"
      ],
      [
        "res",
        "p"
      ],
      [
        "in",
        "c"
      ],
      [
        "ĠO",
        "n"
      ],
      [
        "Ġ",
        "%"
      ],
      [
        "A",
        "C"
      ],
      [
        "y",
        "d"
      ],
      [
        "Ġcom",
        "e"
      ],
      [
        "Ġc",
        "ost"
      ],
      [
        "Ġl",
        "ight"
      ],
      [
        "Ġ",
        "ide"
      ],
      [
        "Ġs",
        "um"
      ],
      [
        "Ġf",
        "ree"
      ],
      [
        "Ġ",
        "{\\"
      ],
      [
        "Ġc",
        "ode"
      ],
      [
        "Ġ2",
        "5"
      ],
      [
        "Ġt",
        "yp"
      ],
      [
        "our",
        "s"
      ],
      [
        "n",
        "al"
      ],
      [
        "4",
        "8"
      ],
      [
        "ir",
        "on"
      ],
      [
        "Ġunt",
        "il"
      ],
      [
        "Ġd",
        "en"
      ],
      [
        "Ġth",
        "ings"
      ],
      [
        "b",
        "s"
      ],
      [
        "Ġgover",
        "nment"
      ],
      [
        "Ġloc",
        "al"
      ],
      [
        "Ġb",
        "en"
      ],
      [
        "Ġ1",
        "7"
      ],
      [
        "Ġha",
        "ving"
      ],
      [
        "Ġb",
        "ig"
      ],
      [
        "pl",
        "ay"
      ],
      [
        "-",
        "\\"
      ],
      [
        "i",
        "od"
      ],
      [
        "Ġc",
        "ases"
      ],
      [
        "end",
        "s"
      ],
      [
        "Ġpro",
        "m"
      ],
      [
        "Ġg",
        "ot"
      ],
      [
        "Ġ",
        ")"
      ],
      [
        "en",
        "c"
      ],
      [
        "Ġsim",
        "ilar"
      ],
      [
        "Ġf",
        "urther"
      ],
      [
        "ep",
        "s"
      ],
      [
        "Ġl",
        "ittle"
      ],
      [
        "Ġpot",
        "ential"
      ],
      [
        "ar",
        "row"
      ],
      [
        "ĊĠĠĠĠĠĠĠĠ",
        "Ġ"
      ],
      [
        "d",
        "ata"
      ],
      [
        "Ġsh",
        "own"
      ],
      [
        "Ġdis",
        "e"
      ],
      [
        "us",
        "ion"
      ],
      [
        "u",
        "ck"
      ],
      [
        "ap",
        "s"
      ],
      [
        "Ġd",
        "er"
      ],
      [
        "ig",
        "ma"
      ],
      [
        "b",
        "egin"
      ],
      [
        "ack",
        "age"
      ],
      [
        "Ġp",
        "red"
      ],
      [
        "or",
        "g"
      ],
      [
        "__",
        "__"
      ],
      [
        "or",
        "n"
      ],
      [
        "..",
        ".."
      ],
      [
        "et",
        "ic"
      ],
      [
        "Ġj",
        "ud"
      ],
      [
        "Ġpre",
        "vious"
      ],
      [
        "ill",
        "ion"
      ],
      [
        "ĠSt",
        "ates"
      ],
      [
        "Ġel",
        "se"
      ],
      [
        "ri",
        "es"
      ],
      [
        "Ġhum",
        "an"
      ],
      [
        "end",
        "ed"
      ],
      [
        "Ġind",
        "ividual"
      ],
      [
        "Ġph",
        "ys"
      ],
      [
        "Ġv",
        "ol"
      ],
      [
        "our",
        "se"
      ],
      [
        "rou",
        "p"
      ],
      [
        "H",
        "E"
      ],
      [
        "Ġbu",
        "ild"
      ],
      [
        "T",
        "ype"
      ],
      [
        "ic",
        "le"
      ],
      [
        "an",
        "ces"
      ],
      [
        "as",
        "k"
      ],
      [
        "c",
        "o"
      ],
      [
        "Ġe",
        "ither"
      ],
      [
        "Ġch",
        "o"
      ],
      [
        "Ġal",
        "ways"
      ],
      [
        "ĠA",
        "d"
      ],
      [
        "č",
        "Ċ"
      ],
      [
        "id",
        "th"
      ],
      [
        "ab",
        "les"
      ],
      [
        "Ġprov",
        "ide"
      ],
      [
        "6",
        "6"
      ],
      [
        "Ġfam",
        "ily"
      ],
      [
        "Ġp",
        "a"
      ],
      [
        "Ġ1",
        "3"
      ],
      [
        "ĠR",
        "es"
      ],
      [
        "Ġgener",
        "al"
      ],
      [
        "Ġsu",
        "per"
      ],
      [
        "ne",
        "y"
      ],
      [
        "Ġhig",
        "her"
      ],
      [
        "oc",
        "ument"
      ],
      [
        "it",
        "or"
      ],
      [
        "Ġg",
        "re"
      ],
      [
        "Ġor",
        "gan"
      ],
      [
        "}$",
        "$"
      ],
      [
        "I",
        "d"
      ],
      [
        "Ġwe",
        "ek"
      ],
      [
        "ĠThe",
        "se"
      ],
      [
        "Ġsp",
        "ace"
      ],
      [
        "er",
        "ing"
      ],
      [
        "9",
        "8"
      ],
      [
        "ĊĠĠĠĠĠĠĠĠĠĠĠĠĠĠĠĠ",
        "ĠĠĠ"
      ],
      [
        "Ġm",
        "aterial"
      ],
      [
        "Ġcom",
        "b"
      ],
      [
        "Ġg",
        "ame"
      ],
      [
        "op",
        "t"
      ],
      [
        "one",
        "y"
      ],
      [
        "C",
        "ont"
      ],
      [
        "Ġkn",
        "own"
      ],
      [
        "Ġspec",
        "ific"
      ],
      [
        "Ġo",
        "ld"
      ],
      [
        "Ġcall",
        "ed"
      ]
    ]
  }
}