{"version":"1.0","truncation":null,"padding":null,"added_tokens":[{"id":0,"special":true,"content":"[UNK]","single_word":false,"lstrip":false,"rstrip":false,"normalized":false},{"id":1,"special":true,"content":"[CLS]","single_word":false,"lstrip":false,"rstrip":false,"normalized":false},{"id":2,"special":true,"content":"[SEP]","single_word":false,"lstrip":false,"rstrip":false,"normalized":false},{"id":3,"special":true,"content":"[PAD]","single_word":false,"lstrip":false,"rstrip":false,"normalized":false},{"id":4,"special":true,"content":"[MASK]","single_word":false,"lstrip":false,"rstrip":false,"normalized":false}],"normalizer":null,"pre_tokenizer":{"type":"Whitespace"},"post_processor":null,"decoder":null,"model":{"dropout":null,"unk_token":"[UNK]","continuing_subword_prefix":null,"end_of_word_suffix":null,"fuse_unk":false,"vocab":{"[UNK]":0,"[CLS]":1,"[SEP]":2,"[PAD]":3,"[MASK]":4,"!":5,"\"":6,"#":7,"$":8,"%":9,"&":10,"'":11,"(":12,")":13,"*":14,"+":15,",":16,"-":17,".":18,"/":19,"0":20,"1":21,"2":22,"3":23,"4":24,"5":25,"6":26,"7":27,"8":28,"9":29,":":30,";":31,"<":32,"=":33,">":34,"?":35,"@":36,"A":37,"B":38,"C":39,"D":40,"E":41,"F":42,"G":43,"H":44,"I":45,"J":46,"K":47,"L":48,"M":49,"N":50,"O":51,"P":52,"Q":53,"R":54,"S":55,"T":56,"U":57,"V":58,"W":59,"X":60,"Y":61,"Z":62,"[":63,"\\":64,"]":65,"^":66,"_":67,"`":68,"a":69,"b":70,"c":71,"d":72,"e":73,"f":74,"g":75,"h":76,"i":77,"j":78,"k":79,"l":80,"m":81,"n":82,"o":83,"p":84,"q":85,"r":86,"s":87,"t":88,"u":89,"v":90,"w":91,"x":92,"y":93,"z":94,"{":95,"|":96,"}":97,"~":98,"":99,"":100,"":101,"":102,"":103,"":104,"¡":105,"¢":106,"£":107,"¤":108,"¥":109,"§":110,"©":111,"«":112,"­":113,"®":114,"¯":115,"°":116,"±":117,"²":118,"³":119,"´":120,"µ":121,"¶":122,"·":123,"¹":124,"º":125,"»":126,"¼":127,"½":128,"¾":129,"¿":130,"À":131,"Á":132,"Â":133,"Ä":134,"Å":135,"Æ":136,"Ç":137,"È":138,"É":139,"Ê":140,"Ë":141,"Ì":142,"Í":143,"Î":144,"Ï":145,"Ð":146,"Ñ":147,"Ò":148,"Ó":149,"Ô":150,"Õ":151,"Ö":152,"×":153,"Ø":154,"Ù":155,"Ú":156,"Ü":157,"Ý":158,"Þ":159,"ß":160,"à":161,"á":162,"â":163,"ã":164,"ä":165,"å":166,"æ":167,"ç":168,"è":169,"é":170,"ê":171,"ë":172,"ì":173,"í":174,"î":175,"ï":176,"ð":177,"ñ":178,"ò":179,"ó":180,"ô":181,"õ":182,"ö":183,"÷":184,"ø":185,"ù":186,"ú":187,"û":188,"ü":189,"ý":190,"þ":191,"ÿ":192,"Ā":193,"ā":194,"Ă":195,"ă":196,"ą":197,"Ć":198,"ć":199,"ĉ":200,"Ċ":201,"ċ":202,"Č":203,"č":204,"Ď":205,"ď":206,"Đ":207,"đ":208,"Ē":209,"ē":210,"Ĕ":211,"ĕ":212,"Ė":213,"ė":214,"ę":215,"Ě":216,"ě":217,"ğ":218,"Ġ":219,"ġ":220,"Ģ":221,"ģ":222,"Ĥ":223,"Ħ":224,"ħ":225,"ĩ":226,"Ī":227,"ī":228,"ĭ":229,"į":230,"İ":231,"ı":232,"ĵ":233,"Ķ":234,"ķ":235,"ĸ":236,"ĺ":237,"ļ":238,"Ľ":239,"ľ":240,"Ł":241,"ł":242,"ń":243,"ņ":244,"ň":245,"Ŋ":246,"ŋ":247,"Ō":248,"ō":249,"ŏ":250,"ő":251,"Œ":252,"œ":253,"Ŗ":254,"ŗ":255,"Ř":256,"ř":257,"Ś":258,"ś":259,"Ŝ":260,"Ş":261,"ş":262,"Š":263,"š":264,"Ţ":265,"ţ":266,"ť":267,"ŧ":268,"ũ":269,"Ū":270,"ū":271,"ŭ":272,"ů":273,"ű":274,"ų":275,"ŵ":276,"ŷ":277,"Ź":278,"ź":279,"Ż":280,"ż":281,"Ž":282,"ž":283,"ſ":284,"ƀ":285,"Ɔ":286,"Ƈ":287,"ƈ":288,"Ɖ":289,"ƍ":290,"Ǝ":291,"Ə":292,"Ɛ":293,"ƒ":294,"Ɣ":295,"ƙ":296,"ƛ":297,"ơ":298,"Ƣ":299,"ƥ":300,"ƭ":301,"ư":302,"Ʋ":303,"ƿ":304,"ǀ":305,"ǁ":306,"ǂ":307,"ǃ":308,"ǎ":309,"ǐ":310,"Ǒ":311,"ǒ":312,"ǔ":313,"ǚ":314,"ǜ":315,"ǝ":316,"Ǣ":317,"ǣ":318,"Ǧ":319,"ǧ":320,"Ǫ":321,"ǫ":322,"ǭ":323,"ǰ":324,"ǵ":325,"Ƿ":326,"Ǹ":327,"ǹ":328,"ǽ":329,"Ș":330,"ș":331,"Ț":332,"ț":333,"Ȝ":334,"ȝ":335,"ȟ":336,"ȯ":337,"ȳ":338,"ȷ":339,"ȼ":340,"Ɉ":341,"ɐ":342,"ɑ":343,"ɒ":344,"ɓ":345,"ɔ":346,"ɕ":347,"ɖ":348,"ɗ":349,"ɘ":350,"ə":351,"ɚ":352,"ɛ":353,"ɜ":354,"ɞ":355,"ɟ":356,"ɠ":357,"ɡ":358,"ɢ":359,"ɣ":360,"ɤ":361,"ɥ":362,"ɦ":363,"ɧ":364,"ɨ":365,"ɪ":366,"ɫ":367,"ɬ":368,"ɭ":369,"ɮ":370,"ɯ":371,"ɰ":372,"ɱ":373,"ɲ":374,"ɳ":375,"ɴ":376,"ɵ":377,"ɶ":378,"ɷ":379,"ɸ":380,"ɹ":381,"ɺ":382,"ɻ":383,"ɽ":384,"ɾ":385,"ʀ":386,"ʁ":387,"ʂ":388,"ʃ":389,"ʄ":390,"ʇ":391,"ʈ":392,"ʉ":393,"ʊ":394,"ʋ":395,"ʌ":396,"ʍ":397,"ʎ":398,"ʏ":399,"ʐ":400,"ʑ":401,"ʒ":402,"ʔ":403,"ʕ":404,"ʖ":405,"ʗ":406,"ʘ":407,"ʙ":408,"ʛ":409,"ʝ":410,"ʟ":411,"ʠ":412,"ʡ":413,"ʢ":414,"ʰ":415,"ʱ":416,"ʲ":417,"ʳ":418,"ʷ":419,"ʹ":420,"ʻ":421,"ʼ":422,"ʽ":423,"ʾ":424,"ʿ":425,"ˀ":426,"ˁ":427,"ˆ":428,"ˇ":429,"ˈ":430,"ˌ":431,"ː":432,"ˑ":433,"˔":434,"˕":435,"˖":436,"˘":437,"˚":438,"˜":439,"˞":440,"ˠ":441,"ˢ":442,"ˣ":443,"ˤ":444,"˥":445,"˦":446,"˧":447,"˨":448,"˩":449,"̀":450,"́":451,"̂":452,"̃":453,"̄":454,"̆":455,"̇":456,"̈":457,"̊":458,"̋":459,"̌":460,"̍":461,"̏":462,"̐":463,"̑":464,"̖":465,"̗":466,"̚":467,"̝":468,"̞":469,"̟":470,"̠":471,"̣":472,"̤":473,"̥":474,"̧":475,"̩":476,"̪":477,"̬":478,"̮":479,"̯":480,"̰":481,"̱":482,"̲":483,"̳":484,"̺":485,"̽":486,"͌":487,"͍":488,"͘":489,"͜":490,"͡":491,"΄":492,"Ά":493,"Έ":494,"Ή":495,"Ί":496,"Ό":497,"Ύ":498,"ΐ":499,"Α":500,"Β":501,"Γ":502,"Δ":503,"Ε":504,"Ζ":505,"Η":506,"Θ":507,"Ι":508,"Κ":509,"Λ":510,"Μ":511,"Ν":512,"Ξ":513,"Ο":514,"Π":515,"Ρ":516,"Σ":517,"Τ":518,"Υ":519,"Φ":520,"Χ":521,"Ψ":522,"Ω":523,"ά":524,"έ":525,"ή":526,"ί":527,"α":528,"β":529,"γ":530,"δ":531,"ε":532,"ζ":533,"η":534,"θ":535,"ι":536,"κ":537,"λ":538,"μ":539,"ν":540,"ξ":541,"ο":542,"π":543,"ρ":544,"ς":545,"σ":546,"τ":547,"υ":548,"φ":549,"χ":550,"ψ":551,"ω":552,"ϊ":553,"ό":554,"ύ":555,"ώ":556,"ϑ":557,"ϕ":558,"ϝ":559,"ϟ":560,"ϵ":561,"Ђ":562,"Є":563,"І":564,"Ї":565,"Ј":566,"Љ":567,"Ћ":568,"А":569,"Б":570,"В":571,"Г":572,"Д":573,"Е":574,"Ж":575,"З":576,"И":577,"Й":578,"К":579,"Л":580,"М":581,"Н":582,"О":583,"П":584,"Р":585,"С":586,"Т":587,"У":588,"Ф":589,"Х":590,"Ц":591,"Ч":592,"Ш":593,"Щ":594,"Ъ":595,"Ы":596,"Ь":597,"Э":598,"Ю":599,"Я":600,"а":601,"б":602,"в":603,"г":604,"д":605,"е":606,"ж":607,"з":608,"и":609,"й":610,"к":611,"л":612,"м":613,"н":614,"о":615,"п":616,"р":617,"с":618,"т":619,"у":620,"ф":621,"х":622,"ц":623,"ч":624,"ш":625,"щ":626,"ъ":627,"ы":628,"ь":629,"э":630,"ю":631,"я":632,"ё":633,"ђ":634,"є":635,"і":636,"ї":637,"ј":638,"љ":639,"њ":640,"ћ":641,"ѝ":642,"ў":643,"Ѡ":644,"ѡ":645,"Ѣ":646,"ѣ":647,"ѥ":648,"ѧ":649,"Ѯ":650,"ѹ":651,"҆":652,"ғ":653,"қ":654,"ү":655,"ҳ":656,"ҷ":657,"ӣ":658,"Ө":659,"ө":660,"ӯ":661,"Ӷ":662,"ӷ":663,"Ա":664,"Բ":665,"Գ":666,"Դ":667,"Ե":668,"Զ":669,"Է":670,"Ը":671,"Թ":672,"Ժ":673,"Ի":674,"Լ":675,"Խ":676,"Կ":677,"Հ":678,"Ձ":679,"Ղ":680,"Ճ":681,"Մ":682,"Յ":683,"Ն":684,"Շ":685,"Ո":686,"Պ":687,"Ջ":688,"Ռ":689,"Ս":690,"Վ":691,"Տ":692,"Փ":693,"Ք":694,"Օ":695,"ա":696,"բ":697,"գ":698,"դ":699,"ե":700,"զ":701,"է":702,"ը":703,"թ":704,"ժ":705,"ի":706,"լ":707,"խ":708,"ծ":709,"կ":710,"հ":711,"ձ":712,"ղ":713,"ճ":714,"մ":715,"յ":716,"ն":717,"շ":718,"ո":719,"չ":720,"պ":721,"ջ":722,"ռ":723,"ս":724,"վ":725,"տ":726,"ր":727,"ց":728,"ւ":729,"փ":730,"ք":731,"օ":732,"և":733,"֤":734,"֫":735,"ְ":736,"ֱ":737,"ֲ":738,"ֳ":739,"ִ":740,"ֵ":741,"ֶ":742,"ַ":743,"ָ":744,"ֹ":745,"ֻ":746,"ּ":747,"ֽ":748,"ֿ":749,"ׁ":750,"ׂ":751,"א":752,"ב":753,"ג":754,"ד":755,"ה":756,"ו":757,"ז":758,"ח":759,"ט":760,"י":761,"ך":762,"כ":763,"ל":764,"ם":765,"מ":766,"ן":767,"נ":768,"ס":769,"ע":770,"ף":771,"פ":772,"ץ":773,"צ":774,"ק":775,"ר":776,"ש":777,"ת":778,"ױ":779,"׳":780,"،":781,"ء":782,"آ":783,"أ":784,"ؤ":785,"إ":786,"ئ":787,"ا":788,"ب":789,"ة":790,"ت":791,"ث":792,"ج":793,"ح":794,"خ":795,"د":796,"ذ":797,"ر":798,"ز":799,"س":800,"ش":801,"ص":802,"ض":803,"ط":804,"ظ":805,"ع":806,"غ":807,"ـ":808,"ف":809,"ق":810,"ك":811,"ل":812,"م":813,"ن":814,"ه":815,"و":816,"ى":817,"ي":818,"ً":819,"ٌ":820,"ٍ":821,"َ":822,"ُ":823,"ِ":824,"ّ":825,"ْ":826,"ٔ":827,"١":828,"٧":829,"ٰ":830,"پ":831,"چ":832,"ڈ":833,"ڠ":834,"ک":835,"ڬ":836,"گ":837,"ں":838,"ھ":839,"ہ":840,"ی":841,"ۍ":842,"ے":843,"ە":844,"ܐ":845,"ܒ":846,"ܔ":847,"ܕ":848,"ܗ":849,"ܘ":850,"ܙ":851,"ܚ":852,"ܛ":853,"ܝ":854,"ܠ":855,"ܡ":856,"ܢ":857,"ܣ":858,"ܥ":859,"ܦ":860,"ܪ":861,"ܬ":862,"ܲ":863,"ܵ":864,"ܼ":865,"݂":866,"ँ":867,"ं":868,"ः":869,"अ":870,"आ":871,"इ":872,"ई":873,"उ":874,"ऋ":875,"ए":876,"ऐ":877,"औ":878,"क":879,"ख":880,"ग":881,"घ":882,"ङ":883,"च":884,"छ":885,"ज":886,"ञ":887,"ट":888,"ठ":889,"ड":890,"ण":891,"त":892,"थ":893,"द":894,"ध":895,"न":896,"प":897,"फ":898,"ब":899,"भ":900,"म":901,"य":902,"र":903,"ल":904,"व":905,"श":906,"ष":907,"स":908,"ह":909,"़":910,"ऽ":911,"ा":912,"ि":913,"ी":914,"ु":915,"ू":916,"ृ":917,"ॆ":918,"े":919,"ै":920,"ॉ":921,"ॊ":922,"ो":923,"ौ":924,"्":925,"ॐ":926,"।":927,"॥":928,"१":929,"२":930,"३":931,"ং":932,"অ":933,"আ":934,"ই":935,"এ":936,"ক":937,"খ":938,"গ":939,"ঙ":940,"চ":941,"জ":942,"ট":943,"ড":944,"ঢ":945,"ণ":946,"ত":947,"থ":948,"দ":949,"ন":950,"প":951,"ব":952,"ভ":953,"ম":954,"য":955,"র":956,"ল":957,"শ":958,"ষ":959,"স":960,"হ":961,"়":962,"া":963,"ি":964,"ী":965,"ু":966,"ূ":967,"ে":968,"ৈ":969,"ো":970,"্":971,"ৰ":972,"ਂ":973,"ਅ":974,"ਉ":975,"ਖ":976,"ਘ":977,"ਜ":978,"ਝ":979,"ਦ":980,"ਲ":981,"ਵ":982,"ਸ":983,"ਹ":984,"਼":985,"ਾ":986,"ਿ":987,"ੁ":988,"ੇ":989,"ੰ":990,"ੱ":991,"ખ":992,"ફ":993,"બ":994,"ર":995,"લ":996,"સ":997,"ા":998,"ો":999,"ପ":1000,"ର":1001,"ୀ":1002,"ୁ":1003,"ஃ":1004,"அ":1005,"ஆ":1006,"இ":1007,"ஈ":1008,"எ":1009,"ஒ":1010,"க":1011,"ங":1012,"ச":1013,"ட":1014,"ண":1015,"த":1016,"ந":1017,"ன":1018,"ப":1019,"ம":1020,"ய":1021,"ர":1022,"ற":1023,"ல":1024,"ள":1025,"ழ":1026,"வ":1027,"ஸ":1028,"ா":1029,"ி":1030,"ீ":1031,"ு":1032,"ூ":1033,"ெ":1034,"ே":1035,"ை":1036,"ோ":1037,"்":1038,"ం":1039,"క":1040,"ఖ":1041,"గ":1042,"జ":1043,"ట":1044,"ఠ":1045,"డ":1046,"త":1047,"థ":1048,"ద":1049,"న":1050,"ప":1051,"బ":1052,"భ":1053,"మ":1054,"య":1055,"ర":1056,"ల":1057,"వ":1058,"ష":1059,"స":1060,"ా":1061,"ి":1062,"ీ":1063,"ు":1064,"ై":1065,"ో":1066,"్":1067,"ಂ":1068,"ಃ":1069,"ಕ":1070,"ಖ":1071,"ಗ":1072,"ಚ":1073,"ಟ":1074,"ಠ":1075,"ಡ":1076,"ತ":1077,"ದ":1078,"ನ":1079,"ಪ":1080,"ಬ":1081,"ಭ":1082,"ಮ":1083,"ಯ":1084,"ರ":1085,"ಱ":1086,"ಲ":1087,"ಳ":1088,"ವ":1089,"ಶ":1090,"ಸ":1091,"ಹ":1092,"ಾ":1093,"ಿ":1094,"ು":1095,"ೇ":1096,"ೋ":1097,"್":1098,"ೞ":1099,"അ":1100,"ങ":1101,"ദ":1102,"ന":1103,"പ":1104,"മ":1105,"യ":1106,"ര":1107,"ള":1108,"വ":1109,"ശ":1110,"സ":1111,"ഹ":1112,"ാ":1113,"ി":1114,"്":1115,"අ":1116,"එ":1117,"ක":1118,"ග":1119,"ජ":1120,"ත":1121,"ධ":1122,"න":1123,"ප":1124,"ම":1125,"ය":1126,"ර":1127,"ල":1128,"ව":1129,"ශ":1130,"හ":1131,"ළ":1132,"්":1133,"ා":1134,"ැ":1135,"ි":1136,"ු":1137,"ේ":1138,"ෝ":1139,"ก":1140,"ข":1141,"ค":1142,"ฆ":1143,"ง":1144,"จ":1145,"ฉ":1146,"ช":1147,"ซ":1148,"ญ":1149,"ฎ":1150,"ฏ":1151,"ฐ":1152,"ฑ":1153,"ณ":1154,"ด":1155,"ต":1156,"ถ":1157,"ท":1158,"ธ":1159,"น":1160,"บ":1161,"ป":1162,"ผ":1163,"ฝ":1164,"พ":1165,"ฟ":1166,"ภ":1167,"ม":1168,"ย":1169,"ร":1170,"ฤ":1171,"ล":1172,"ว":1173,"ศ":1174,"ษ":1175,"ส":1176,"ห":1177,"ฬ":1178,"อ":1179,"ฮ":1180,"ะ":1181,"ั":1182,"า":1183,"ำ":1184,"ิ":1185,"ี":1186,"ึ":1187,"ื":1188,"ุ":1189,"ู":1190,"฿":1191,"เ":1192,"แ":1193,"โ":1194,"ใ":1195,"ไ":1196,"็":1197,"่":1198,"้":1199,"๊":1200,"์":1201,"་":1202,"༌":1203,"།":1204,"ཀ":1205,"ཁ":1206,"ག":1207,"ང":1208,"ཆ":1209,"ཇ":1210,"ཐ":1211,"ད":1212,"ན":1213,"པ":1214,"བ":1215,"མ":1216,"ཙ":1217,"ཚ":1218,"ཛ":1219,"འ":1220,"ཡ":1221,"ར":1222,"ལ":1223,"ས":1224,"ཧ":1225,"ི":1226,"ུ":1227,"ེ":1228,"ོ":1229,"ྟ":1230,"ྡ":1231,"ྣ":1232,"ྤ":1233,"ྥ":1234,"ྱ":1235,"ྲ":1236,"က":1237,"ဂ":1238,"င":1239,"စ":1240,"ဆ":1241,"ဇ":1242,"တ":1243,"န":1244,"ပ":1245,"ဗ":1246,"ဘ":1247,"မ":1248,"ယ":1249,"ရ":1250,"လ":1251,"ဝ":1252,"ဟ":1253,"အ":1254,"ာ":1255,"ိ":1256,"ီ":1257,"ု":1258,"ူ":1259,"ဲ":1260,"း":1261,"္":1262,"်":1263,"ျ":1264,"ြ":1265,"ွ":1266,"ှ":1267,"၁":1268,"၂":1269,"၇":1270,"၈":1271,"Ⴀ":1272,"Ⴂ":1273,"Ⴃ":1274,"Ⴈ":1275,"Ⴌ":1276,"Ⴕ":1277,"Ⴟ":1278,"ა":1279,"ბ":1280,"გ":1281,"დ":1282,"ე":1283,"ვ":1284,"ზ":1285,"თ":1286,"ი":1287,"კ":1288,"ლ":1289,"მ":1290,"ნ":1291,"ო":1292,"პ":1293,"ჟ":1294,"რ":1295,"ს":1296,"ტ":1297,"უ":1298,"ფ":1299,"ქ":1300,"ღ":1301,"ყ":1302,"შ":1303,"ჩ":1304,"ც":1305,"ძ":1306,"წ":1307,"ჭ":1308,"ხ":1309,"ჯ":1310,"ჰ":1311,"ჱ":1312,"ჲ":1313,"ჳ":1314,"ჴ":1315,"ჵ":1316,"ჶ":1317,"ჷ":1318,"ჸ":1319,"ჹ":1320,"ჺ":1321,"჻":1322,"ሀ":1323,"ለ":1324,"ሐ":1325,"ሓ":1326,"ሕ":1327,"መ":1328,"ማ":1329,"ሥ":1330,"ረ":1331,"ር":1332,"ሰ":1333,"ስ":1334,"ቆ":1335,"ቈ":1336,"በ":1337,"ብ":1338,"ቲ":1339,"ታ":1340,"ት":1341,"ነ":1342,"ና":1343,"ን":1344,"ኖ":1345,"አ":1346,"ኢ":1347,"እ":1348,"ከ":1349,"ኲ":1350,"ዕ":1351,"ዘ":1352,"ዛ":1353,"የ":1354,"ያ":1355,"ይ":1356,"ዮ":1357,"ደ":1358,"ድ":1359,"ጅ":1360,"ገ":1361,"ጉ":1362,"ጵ":1363,"ፈ":1364,"ፍ":1365,"፡":1366,"Ꭰ":1367,"Ꭳ":1368,"Ꭶ":1369,"Ꭸ":1370,"Ꭹ":1371,"Ꮀ":1372,"Ꮃ":1373,"Ꮉ":1374,"Ꮝ":1375,"Ꮿ":1376,"Ᏹ":1377,"ᐊ":1378,"ᑲ":1379,"ᒡ":1380,"ᓘ":1381,"ᚢ":1382,"ᚣ":1383,"ᚦ":1384,"ᚨ":1385,"ᚩ":1386,"ᚬ":1387,"ᚱ":1388,"ᚷ":1389,"ᚹ":1390,"ᚺ":1391,"ᚻ":1392,"ᚼ":1393,"ᚾ":1394,"ᛁ":1395,"ᛃ":1396,"ᛄ":1397,"ᛇ":1398,"ᛋ":1399,"ᛏ":1400,"ᛒ":1401,"ᛗ":1402,"ᛚ":1403,"ᛝ":1404,"ᛞ":1405,"ᛟ":1406,"ᛠ":1407,"ក":1408,"ខ":1409,"គ":1410,"ង":1411,"ច":1412,"ឆ":1413,"ជ":1414,"ញ":1415,"ដ":1416,"ឋ":1417,"ណ":1418,"ត":1419,"ថ":1420,"ទ":1421,"ធ":1422,"ន":1423,"ប":1424,"ព":1425,"ភ":1426,"ម":1427,"យ":1428,"រ":1429,"ល":1430,"វ":1431,"ស":1432,"ហ":1433,"អ":1434,"ឥ":1435,"ឪ":1436,"ឫ":1437,"ឯ":1438,"឵":1439,"ា":1440,"ិ":1441,"ី":1442,"ឹ":1443,"ឺ":1444,"ុ":1445,"ូ":1446,"ួ":1447,"ៀ":1448,"េ":1449,"ែ":1450,"ៃ":1451,"ោ":1452,"ៅ":1453,"ំ":1454,"ះ":1455,"ៈ":1456,"៉":1457,"់":1458,"្":1459,"ᠠ":1460,"ᠣ":1461,"ᠨ":1462,"ᠪ":1463,"ᠮ":1464,"ᠯ":1465,"ᠰ":1466,"ᠴ":1467,"ᠵ":1468,"ᠸ":1469,"ᡝ":1470,"ᡠ":1471,"ᡥ":1472,"ᡨ":1473,"ᡳ":1474,"ᡴ":1475,"ᡵ":1476,"ᴰ":1477,"ᴷ":1478,"ᴺ":1479,"ᵀ":1480,"ᵊ":1481,"ᵑ":1482,"ᵗ":1483,"ᵘ":1484,"ᵝ":1485,"ᵻ":1486,"ᵿ":1487,"ᶑ":1488,"ᶢ":1489,"ᶦ":1490,"ᶴ":1491,"ᶷ":1492,"᷄":1493,"᷅":1494,"᷆":1495,"᷇":1496,"᷈":1497,"᷉":1498,"᷽":1499,"Ḍ":1500,"ḍ":1501,"Ḏ":1502,"ḏ":1503,"ḑ":1504,"ḕ":1505,"ḗ":1506,"Ḣ":1507,"Ḥ":1508,"ḥ":1509,"Ḩ":1510,"ḩ":1511,"Ḫ":1512,"ḫ":1513,"ḭ":1514,"ḱ":1515,"Ḳ":1516,"ḳ":1517,"ḵ":1518,"ḷ":1519,"ḹ":1520,"ḻ":1521,"ḿ":1522,"ṁ":1523,"ṃ":1524,"ṅ":1525,"ṇ":1526,"ṉ":1527,"ṓ":1528,"ṙ":1529,"Ṛ":1530,"ṛ":1531,"Ṝ":1532,"ṝ":1533,"ṟ":1534,"Ṣ":1535,"ṣ":1536,"Ṧ":1537,"Ṫ":1538,"Ṭ":1539,"ṭ":1540,"Ṯ":1541,"ṯ":1542,"ṳ":1543,"ṵ":1544,"Ṽ":1545,"ṽ":1546,"ẃ":1547,"Ẓ":1548,"ẓ":1549,"ẖ":1550,"ạ":1551,"ả":1552,"Ấ":1553,"ấ":1554,"ầ":1555,"Ẩ":1556,"ẩ":1557,"ẫ":1558,"ậ":1559,"ắ":1560,"ằ":1561,"ẵ":1562,"ặ":1563,"ẹ":1564,"ẻ":1565,"ẽ":1566,"ế":1567,"ề":1568,"ể":1569,"ễ":1570,"ệ":1571,"ỉ":1572,"ị":1573,"Ọ":1574,"ọ":1575,"ỏ":1576,"Ố":1577,"ố":1578,"ồ":1579,"ổ":1580,"ỗ":1581,"ộ":1582,"ớ":1583,"ờ":1584,"ở":1585,"ợ":1586,"Ụ":1587,"ụ":1588,"ủ":1589,"Ứ":1590,"ứ":1591,"ừ":1592,"ử":1593,"ữ":1594,"ự":1595,"ỳ":1596,"ỵ":1597,"ỹ":1598,"ἀ":1599,"ἁ":1600,"ἂ":1601,"ἃ":1602,"ἄ":1603,"ἅ":1604,"Ἀ":1605,"Ἁ":1606,"Ἄ":1607,"Ἅ":1608,"ἐ":1609,"ἑ":1610,"ἒ":1611,"ἔ":1612,"ἕ":1613,"Ἐ":1614,"Ἑ":1615,"Ἔ":1616,"Ἕ":1617,"ἠ":1618,"ἡ":1619,"ἢ":1620,"ἤ":1621,"ἥ":1622,"ἦ":1623,"ἧ":1624,"Ἠ":1625,"Ἡ":1626,"ἰ":1627,"ἱ":1628,"ἲ":1629,"ἳ":1630,"ἴ":1631,"ἵ":1632,"ἶ":1633,"ἷ":1634,"Ἰ":1635,"Ἱ":1636,"Ἶ":1637,"ὀ":1638,"ὁ":1639,"ὂ":1640,"ὃ":1641,"ὄ":1642,"ὅ":1643,"Ὁ":1644,"Ὄ":1645,"ὐ":1646,"ὑ":1647,"ὔ":1648,"ὕ":1649,"ὖ":1650,"ὗ":1651,"Ὕ":1652,"ὡ":1653,"ὣ":1654,"ὤ":1655,"ὥ":1656,"ὦ":1657,"Ὠ":1658,"Ὡ":1659,"Ὦ":1660,"ὰ":1661,"ὲ":1662,"ὴ":1663,"ὶ":1664,"ὸ":1665,"ὺ":1666,"ὼ":1667,"ᾓ":1668,"ᾰ":1669,"ᾳ":1670,"ᾶ":1671,"ᾷ":1672,"᾿":1673,"ῆ":1674,"ῇ":1675,"Ὲ":1676,"ῐ":1677,"ῑ":1678,"ῖ":1679,"Ὶ":1680,"ῠ":1681,"ῥ":1682,"ῦ":1683,"Ῥ":1684,"ῳ":1685,"ῶ":1686,"ῷ":1687,"​":1688,"‌":1689,"‍":1690,"‐":1691,"‑":1692,"‒":1693,"–":1694,"—":1695,"―":1696,"‖":1697,"‘":1698,"’":1699,"‚":1700,"‛":1701,"“":1702,"”":1703,"„":1704,"‟":1705,"†":1706,"‡":1707,"•":1708,"…":1709,"‰":1710,"′":1711,"″":1712,"※":1713,"‼":1714,"‿":1715,"⁄":1716,"⁊":1717,"⁠":1718,"⁡":1719,"⁰":1720,"⁺":1721,"ⁿ":1722,"₁":1723,"₂":1724,"₃":1725,"₄":1726,"₡":1727,"₣":1728,"₤":1729,"₦":1730,"₧":1731,"₨":1732,"₩":1733,"₫":1734,"€":1735,"₱":1736,"₴":1737,"₹":1738,"ℂ":1739,"℃":1740,"ℓ":1741,"ℕ":1742,"№":1743,"ℛ":1744,"ℝ":1745,"℞":1746,"™":1747,"ℤ":1748,"℥":1749,"ℵ":1750,"⅓":1751,"⅔":1752,"⅙":1753,"⅛":1754,"⅜":1755,"⅝":1756,"⅞":1757,"Ⅱ":1758,"←":1759,"↑":1760,"→":1761,"↓":1762,"↔":1763,"↗":1764,"↘":1765,"↦":1766,"↪":1767,"↵":1768,"⇄":1769,"⇌":1770,"⇒":1771,"⇪":1772,"∀":1773,"∂":1774,"∅":1775,"∆":1776,"∇":1777,"∈":1778,"∉":1779,"∊":1780,"∑":1781,"−":1782,"∕":1783,"∖":1784,"∗":1785,"∘":1786,"√":1787,"∝":1788,"∞":1789,"∤":1790,"∩":1791,"∪":1792,"∫":1793,"∴":1794,"∼":1795,"≈":1796,"≠":1797,"≡":1798,"≢":1799,"≤":1800,"≥":1801,"≪":1802,"≫":1803,"≲":1804,"⊂":1805,"⊕":1806,"⊗":1807,"⊙":1808,"⊞":1809,"⊢":1810,"⊣":1811,"⊥":1812,"⋅":1813,"⋆":1814,"⋯":1815,"⌊":1816,"⌋":1817,"⌘":1818,"①":1819,"②":1820,"③":1821,"④":1822,"⑤":1823,"⑥":1824,"⑦":1825,"⑧":1826,"─":1827,"█":1828,"▢":1829,"▲":1830,"▼":1831,"○":1832,"●":1833,"◦":1834,"☄":1835,"★":1836,"☆":1837,"☉":1838,"☧":1839,"☫":1840,"☭":1841,"☽":1842,"☾":1843,"♀":1844,"♂":1845,"♄":1846,"♅":1847,"♆":1848,"♇":1849,"♈":1850,"♉":1851,"♠":1852,"♣":1853,"♥":1854,"♦":1855,"♩":1856,"♪":1857,"♭":1858,"♮":1859,"♯":1860,"⚳":1861,"⚴":1862,"⚵":1863,"⛢":1864,"✡":1865,"✱":1866,"❄":1867,"❅":1868,"❆":1869,"❤":1870,"⟦":1871,"⟧":1872,"⟨":1873,"⟩":1874,"⥇":1875,"⩽":1876,"⫶":1877,"ⱱ":1878,"ⲁ":1879,"ⲛ":1880,"ⲥ":1881,"ⲧ":1882,"ⲩ":1883,"Ⲫ":1884,"ⲱ":1885,"ⴰ":1886,"ⴳ":1887,"ⴷ":1888,"ⴻ":1889,"ⴼ":1890,"ⴽ":1891,"ⵃ":1892,"ⵇ":1893,"ⵉ":1894,"ⵍ":1895,"ⵎ":1896,"ⵏ":1897,"ⵓ":1898,"ⵔ":1899,"ⵕ":1900,"ⵖ":1901,"ⵙ":1902,"ⵛ":1903,"ⵜ":1904,"ⵡ":1905,"ⵢ":1906,"ⵣ":1907,"⸨":1908,"⸩":1909,"、":1910,"。":1911,"々":1912,"〈":1913,"〉":1914,"《":1915,"》":1916,"「":1917,"」":1918,"『":1919,"』":1920,"【":1921,"】":1922,"〒":1923,"〜":1924,"あ":1925,"ぃ":1926,"い":1927,"ぅ":1928,"う":1929,"ぇ":1930,"え":1931,"ぉ":1932,"お":1933,"か":1934,"が":1935,"き":1936,"ぎ":1937,"く":1938,"ぐ":1939,"け":1940,"げ":1941,"こ":1942,"ご":1943,"さ":1944,"ざ":1945,"し":1946,"じ":1947,"す":1948,"ず":1949,"せ":1950,"ぜ":1951,"そ":1952,"ぞ":1953,"た":1954,"だ":1955,"ち":1956,"っ":1957,"つ":1958,"づ":1959,"て":1960,"で":1961,"と":1962,"ど":1963,"な":1964,"に":1965,"ぬ":1966,"ね":1967,"の":1968,"は":1969,"ば":1970,"ぱ":1971,"ひ":1972,"び":1973,"ぴ":1974,"ふ":1975,"ぶ":1976,"ぷ":1977,"へ":1978,"べ":1979,"ぺ":1980,"ほ":1981,"ぼ":1982,"ぽ":1983,"ま":1984,"み":1985,"む":1986,"め":1987,"も":1988,"ゃ":1989,"や":1990,"ゅ":1991,"ゆ":1992,"ょ":1993,"よ":1994,"ら":1995,"り":1996,"る":1997,"れ":1998,"ろ":1999,"わ":2000,"ゑ":2001,"を":2002,"ん":2003,"ァ":2004,"ア":2005,"ィ":2006,"イ":2007,"ゥ":2008,"ウ":2009,"ェ":2010,"エ":2011,"ォ":2012,"オ":2013,"カ":2014,"ガ":2015,"キ":2016,"ギ":2017,"ク":2018,"グ":2019,"ケ":2020,"ゲ":2021,"コ":2022,"ゴ":2023,"サ":2024,"ザ":2025,"シ":2026,"ジ":2027,"ス":2028,"ズ":2029,"セ":2030,"ゼ":2031,"ソ":2032,"ゾ":2033,"タ":2034,"ダ":2035,"チ":2036,"ヂ":2037,"ッ":2038,"ツ":2039,"ヅ":2040,"テ":2041,"デ":2042,"ト":2043,"ド":2044,"ナ":2045,"ニ":2046,"ヌ":2047,"ネ":2048,"ノ":2049,"ハ":2050,"バ":2051,"パ":2052,"ヒ":2053,"ビ":2054,"ピ":2055,"フ":2056,"ブ":2057,"プ":2058,"ヘ":2059,"ベ":2060,"ペ":2061,"ホ":2062,"ボ":2063,"ポ":2064,"マ":2065,"ミ":2066,"ム":2067,"メ":2068,"モ":2069,"ャ":2070,"ヤ":2071,"ュ":2072,"ユ":2073,"ョ":2074,"ヨ":2075,"ラ":2076,"リ":2077,"ル":2078,"レ":2079,"ロ":2080,"ワ":2081,"ヲ":2082,"ン":2083,"ヴ":2084,"ヶ":2085,"・":2086,"ー":2087,"一":2088,"丁":2089,"七":2090,"万":2091,"丈":2092,"三":2093,"上":2094,"下":2095,"不":2096,"与":2097,"丑":2098,"且":2099,"世":2100,"丘":2101,"丙":2102,"东":2103,"丝":2104,"丞":2105,"両":2106,"丨":2107,"个":2108,"中":2109,"丶":2110,"丸":2111,"丹":2112,"为":2113,"主":2114,"丽":2115,"丿":2116,"乃":2117,"久":2118,"么":2119,"义":2120,"之":2121,"乌":2122,"乎":2123,"乐":2124,"乘":2125,"乙":2126,"乚":2127,"乛":2128,"九":2129,"也":2130,"习":2131,"书":2132,"乩":2133,"买":2134,"乱":2135,"乳":2136,"乾":2137,"亀":2138,"亅":2139,"了":2140,"予":2141,"争":2142,"事":2143,"二":2144,"云":2145,"五":2146,"井":2147,"亚":2148,"些":2149,"亜":2150,"亞":2151,"亡":2152,"交":2153,"亦":2154,"亨":2155,"京":2156,"亮":2157,"亰":2158,"人":2159,"什":2160,"仁":2161,"仇":2162,"今":2163,"介":2164,"仔":2165,"仕":2166,"他":2167,"付":2168,"仙":2169,"代":2170,"令":2171,"以":2172,"仪":2173,"们":2174,"仮":2175,"仰":2176,"仲":2177,"件":2178,"任":2179,"份":2180,"伊":2181,"伏":2182,"伐":2183,"休":2184,"会":2185,"伝":2186,"伟":2187,"传":2188,"伪":2189,"伯":2190,"伴":2191,"伸":2192,"似":2193,"佃":2194,"但":2195,"位":2196,"住":2197,"佐":2198,"佑":2199,"体":2200,"何":2201,"余":2202,"佛":2203,"作":2204,"你":2205,"佳":2206,"併":2207,"使":2208,"來":2209,"例":2210,"侍":2211,"侗":2212,"供":2213,"依":2214,"侠":2215,"侨":2216,"侬":2217,"侯":2218,"係":2219,"促":2220,"俄":2221,"俊":2222,"保":2223,"信":2224,"俭":2225,"修":2226,"俱":2227,"俳":2228,"倉":2229,"個":2230,"們":2231,"候":2232,"借":2233,"倪":2234,"倫":2235,"倭":2236,"偃":2237,"假":2238,"偏":2239,"健":2240,"側":2241,"偵":2242,"偽":2243,"傀":2244,"傅":2245,"傑":2246,"傘":2247,"備":2248,"催":2249,"傭":2250,"傳":2251,"傷":2252,"像":2253,"僑":2254,"僕":2255,"僧":2256,"儀":2257,"億":2258,"儒":2259,"儚":2260,"儡":2261,"優":2262,"儿":2263,"允":2264,"元":2265,"充":2266,"兆":2267,"先":2268,"光":2269,"克":2270,"免":2271,"兒":2272,"兔":2273,"兜":2274,"入":2275,"內":2276,"全":2277,"兩":2278,"八":2279,"公":2280,"六":2281,"兰":2282,"共":2283,"关":2284,"兵":2285,"其":2286,"具":2287,"典":2288,"养":2289,"冀":2290,"内":2291,"円":2292,"冉":2293,"册":2294,"再":2295,"冒":2296,"写":2297,"军":2298,"冠":2299,"冥":2300,"冫":2301,"冬":2302,"冯":2303,"决":2304,"冴":2305,"冶":2306,"冷":2307,"净":2308,"准":2309,"凌":2310,"凤":2311,"処":2312,"凪":2313,"凯":2314,"凰":2315,"凱":2316,"凶":2317,"凹":2318,"出":2319,"刀":2320,"刃":2321,"分":2322,"切":2323,"刊":2324,"划":2325,"列":2326,"刘":2327,"初":2328,"判":2329,"別":2330,"利":2331,"别":2332,"到":2333,"制":2334,"刷":2335,"券":2336,"刹":2337,"刺":2338,"刻":2339,"則":2340,"前":2341,"剑":2342,"剛":2343,"剣":2344,"剧":2345,"剩":2346,"副":2347,"割":2348,"創":2349,"劃":2350,"劇":2351,"劉":2352,"劍":2353,"力":2354,"办":2355,"功":2356,"加":2357,"劣":2358,"动":2359,"助":2360,"劳":2361,"勃":2362,"勅":2363,"勇":2364,"勒":2365,"動":2366,"勘":2367,"務":2368,"勝":2369,"勞":2370,"勢":2371,"勳":2372,"勾":2373,"包":2374,"化":2375,"北":2376,"匠":2377,"匹":2378,"区":2379,"医":2380,"區":2381,"十":2382,"千":2383,"升":2384,"午":2385,"半":2386,"华":2387,"协":2388,"卐":2389,"卒":2390,"卓":2391,"協":2392,"单":2393,"卖":2394,"南":2395,"博":2396,"卜":2397,"占":2398,"卡":2399,"卢":2400,"卦":2401,"卫":2402,"印":2403,"危":2404,"即":2405,"却":2406,"卸":2407,"卿":2408,"厂":2409,"厄":2410,"历":2411,"厘":2412,"厚":2413,"原":2414,"厥":2415,"厦":2416,"厩":2417,"去":2418,"县":2419,"参":2420,"參":2421,"叉":2422,"及":2423,"友":2424,"双":2425,"反":2426,"収":2427,"发":2428,"叔":2429,"取":2430,"受":2431,"变":2432,"叛":2433,"叠":2434,"叡":2435,"叢":2436,"口":2437,"古":2438,"句":2439,"只":2440,"叫":2441,"召":2442,"可":2443,"台":2444,"史":2445,"右":2446,"叶":2447,"号":2448,"司":2449,"合":2450,"吉":2451,"同":2452,"名":2453,"后":2454,"向":2455,"吕":2456,"君":2457,"吞":2458,"吟":2459,"吧":2460,"启":2461,"吳":2462,"吴":2463,"吸":2464,"吹":2465,"吾":2466,"呂":2467,"呉":2468,"告":2469,"周":2470,"呪":2471,"味":2472,"呼":2473,"命":2474,"咆":2475,"和":2476,"咖":2477,"咙":2478,"咫":2479,"咲":2480,"咸":2481,"哀":2482,"品":2483,"哈":2484,"哉":2485,"响":2486,"員":2487,"哥":2488,"哮":2489,"哲":2490,"唄":2491,"唐":2492,"唯":2493,"唱":2494,"商":2495,"問":2496,"啓":2497,"啟":2498,"啡":2499,"善":2500,"喇":2501,"喋":2502,"喚":2503,"喜":2504,"喝":2505,"喬":2506,"嘉":2507,"嘘":2508,"噛":2509,"器":2510,"嚣":2511,"嚴":2512,"囁":2513,"囂":2514,"囃":2515,"囚":2516,"四":2517,"回":2518,"因":2519,"团":2520,"団":2521,"図":2522,"国":2523,"图":2524,"圈":2525,"國":2526,"圍":2527,"圏":2528,"園":2529,"圓":2530,"圖":2531,"土":2532,"圣":2533,"圧":2534,"在":2535,"地":2536,"圻":2537,"坂":2538,"均":2539,"坊":2540,"坑":2541,"块":2542,"坚":2543,"坝":2544,"坡":2545,"坤":2546,"坪":2547,"型":2548,"垣":2549,"城":2550,"埔":2551,"域":2552,"執":2553,"培":2554,"基":2555,"堀":2556,"堂":2557,"堅":2558,"堆":2559,"堡":2560,"堤":2561,"堯":2562,"報":2563,"場":2564,"塊":2565,"塔":2566,"塘":2567,"塚":2568,"塞":2569,"塩":2570,"填":2571,"塵":2572,"境":2573,"墓":2574,"墙":2575,"增":2576,"壁":2577,"壌":2578,"壓":2579,"壟":2580,"壤":2581,"士":2582,"壬":2583,"壮":2584,"壯":2585,"声":2586,"壱":2587,"売":2588,"壳":2589,"壷":2590,"壽":2591,"处":2592,"备":2593,"変":2594,"复":2595,"夏":2596,"夕":2597,"外":2598,"多":2599,"夜":2600,"够":2601,"夢":2602,"夤":2603,"大":2604,"天":2605,"太":2606,"夫":2607,"央":2608,"失":2609,"头":2610,"夷":2611,"奇":2612,"奈":2613,"奉":2614,"奎":2615,"奏":2616,"奐":2617,"契":2618,"奔":2619,"套":2620,"奥":2621,"奧":2622,"奪":2623,"女":2624,"奴":2625,"好":2626,"如":2627,"妃":2628,"妇":2629,"妍":2630,"妖":2631,"妙":2632,"妮":2633,"妹":2634,"妻":2635,"姉":2636,"姊":2637,"始":2638,"姑":2639,"委":2640,"姚":2641,"姥":2642,"姦":2643,"姫":2644,"姬":2645,"姿":2646,"威":2647,"娘":2648,"娜":2649,"婁":2650,"婆":2651,"婚":2652,"婷":2653,"嫁":2654,"嬢":2655,"嬴":2656,"子":2657,"孔":2658,"字":2659,"存":2660,"孙":2661,"孛":2662,"孝":2663,"孟":2664,"季":2665,"孤":2666,"学":2667,"孩":2668,"孫":2669,"孵":2670,"學":2671,"宁":2672,"宅":2673,"宇":2674,"守":2675,"安":2676,"宋":2677,"完":2678,"宏":2679,"宗":2680,"官":2681,"宙":2682,"定":2683,"宜":2684,"宝":2685,"实":2686,"実":2687,"客":2688,"宣":2689,"室":2690,"宫":2691,"宮":2692,"宴":2693,"宵":2694,"家":2695,"宸":2696,"容":2697,"宿":2698,"寂":2699,"寄":2700,"密":2701,"寇":2702,"富":2703,"寔":2704,"寗":2705,"寛":2706,"寝":2707,"寞":2708,"察":2709,"寧":2710,"寨":2711,"審":2712,"寬":2713,"寵":2714,"寶":2715,"寸":2716,"对":2717,"寺":2718,"寻":2719,"対":2720,"寿":2721,"封":2722,"射":2723,"将":2724,"將":2725,"尉":2726,"尊":2727,"尋":2728,"對":2729,"導":2730,"小":2731,"少":2732,"尔":2733,"尚":2734,"尧":2735,"就":2736,"尸":2737,"尹":2738,"尺":2739,"尼":2740,"尽":2741,"尾":2742,"局":2743,"居":2744,"届":2745,"屋":2746,"屍":2747,"屑":2748,"展":2749,"屠":2750,"層":2751,"屬":2752,"屯":2753,"山":2754,"屿":2755,"岐":2756,"岑":2757,"岚":2758,"岛":2759,"岡":2760,"岩":2761,"岬":2762,"岭":2763,"岳":2764,"岸":2765,"峰":2766,"島":2767,"崇":2768,"崎":2769,"崔":2770,"崖":2771,"嵐":2772,"嶋":2773,"嶺":2774,"嶼":2775,"巂":2776,"巖":2777,"川":2778,"州":2779,"巡":2780,"工":2781,"左":2782,"巨":2783,"巫":2784,"差":2785,"己":2786,"巳":2787,"巴":2788,"巻":2789,"币":2790,"市":2791,"布":2792,"帆":2793,"师":2794,"希":2795,"帕":2796,"帖":2797,"帝":2798,"帥":2799,"带":2800,"師":2801,"帮":2802,"帰":2803,"帶":2804,"常":2805,"幕":2806,"幡":2807,"幣":2808,"干":2809,"平":2810,"年":2811,"幸":2812,"幻":2813,"幽":2814,"广":2815,"庁":2816,"広":2817,"庄":2818,"庆":2819,"庇":2820,"序":2821,"库":2822,"底":2823,"庖":2824,"店":2825,"庙":2826,"庚":2827,"府":2828,"度":2829,"座":2830,"庫":2831,"庭":2832,"庵":2833,"康":2834,"廉":2835,"廊":2836,"廖":2837,"廟":2838,"廣":2839,"廬":2840,"延":2841,"廷":2842,"建":2843,"廻":2844,"廿":2845,"开":2846,"弁":2847,"式":2848,"弐":2849,"弓":2850,"弔":2851,"引":2852,"弘":2853,"弟":2854,"张":2855,"弥":2856,"弦":2857,"弧":2858,"弱":2859,"張":2860,"強":2861,"弹":2862,"强":2863,"弾":2864,"彌":2865,"当":2866,"录":2867,"彖":2868,"彙":2869,"形":2870,"彦":2871,"彩":2872,"彪":2873,"彬":2874,"彭":2875,"影":2876,"役":2877,"彼":2878,"征":2879,"径":2880,"待":2881,"律":2882,"後":2883,"徐":2884,"徒":2885,"得":2886,"從":2887,"御":2888,"復":2889,"微":2890,"徳":2891,"德":2892,"徹":2893,"徽":2894,"心":2895,"必":2896,"忍":2897,"志":2898,"忘":2899,"応":2900,"忠":2901,"快":2902,"念":2903,"怀":2904,"怎":2905,"怒":2906,"怖":2907,"思":2908,"怡":2909,"急":2910,"性":2911,"怨":2912,"怪":2913,"总":2914,"恆":2915,"恋":2916,"恐":2917,"恒":2918,"恢":2919,"恥":2920,"恩":2921,"恭":2922,"息":2923,"恵":2924,"恼":2925,"悔":2926,"悟":2927,"悠":2928,"悦":2929,"悪":2930,"悫":2931,"悲":2932,"悼":2933,"情":2934,"惑":2935,"惟":2936,"惠":2937,"惡":2938,"想":2939,"愁":2940,"愍":2941,"意":2942,"愚":2943,"愛":2944,"感":2945,"愽":2946,"慈":2947,"態":2948,"慎":2949,"慧":2950,"慰":2951,"慶":2952,"憂":2953,"憎":2954,"憑":2955,"憲":2956,"憶":2957,"應":2958,"懍":2959,"懷":2960,"戈":2961,"戊":2962,"戎":2963,"成":2964,"我":2965,"战":2966,"戦":2967,"戯":2968,"戰":2969,"戴":2970,"户":2971,"戸":2972,"房":2973,"所":2974,"扁":2975,"扇":2976,"扈":2977,"扉":2978,"手":2979,"才":2980,"打":2981,"托":2982,"扶":2983,"找":2984,"承":2985,"技":2986,"抄":2987,"抓":2988,"投":2989,"抜":2990,"択":2991,"护":2992,"报":2993,"披":2994,"抱":2995,"抵":2996,"担":2997,"拉":2998,"拍":2999,"拏":3000,"拐":3001,"拖":3002,"拘":3003,"招":3004,"拜":3005,"拟":3006,"拥":3007,"括":3008,"拱":3009,"拳":3010,"拾":3011,"持":3012,"挂":3013,"指":3014,"挑":3015,"挥":3016,"振":3017,"据":3018,"捷":3019,"授":3020,"掛":3021,"採":3022,"探":3023,"控":3024,"掲":3025,"描":3026,"提":3027,"揚":3028,"換":3029,"援":3030,"揺":3031,"摂":3032,"摩":3033,"摸":3034,"撃":3035,"撒":3036,"撞":3037,"播":3038,"撲":3039,"操":3040,"攝":3041,"支":3042,"收":3043,"改":3044,"攻":3045,"放":3046,"政":3047,"故":3048,"敏":3049,"救":3050,"教":3051,"敢":3052,"散":3053,"敦":3054,"敬":3055,"数":3056,"敵":3057,"敷":3058,"數":3059,"文":3060,"斉":3061,"斎":3062,"斗":3063,"料":3064,"斜":3065,"斤":3066,"斩":3067,"斬":3068,"断":3069,"斯":3070,"新":3071,"方":3072,"於":3073,"施":3074,"旅":3075,"旋":3076,"族":3077,"旗":3078,"无":3079,"日":3080,"旦":3081,"旧":3082,"早":3083,"旭":3084,"时":3085,"旺":3086,"昂":3087,"昇":3088,"昌":3089,"明":3090,"昏":3091,"易":3092,"昔":3093,"星":3094,"映":3095,"春":3096,"昭":3097,"是":3098,"昼":3099,"時":3100,"晉":3101,"晋":3102,"晒":3103,"普":3104,"景":3105,"晴":3106,"晶":3107,"智":3108,"暁":3109,"暂":3110,"暖":3111,"暗":3112,"暦":3113,"暮":3114,"暴":3115,"曆":3116,"曜":3117,"曦":3118,"曲":3119,"更":3120,"書":3121,"曹":3122,"曼":3123,"曾":3124,"最":3125,"會":3126,"月":3127,"有":3128,"朋":3129,"服":3130,"朏":3131,"朔":3132,"朗":3133,"望":3134,"朝":3135,"期":3136,"朧":3137,"木":3138,"未":3139,"末":3140,"本":3141,"札":3142,"朱":3143,"朴":3144,"朵":3145,"机":3146,"朽":3147,"杀":3148,"杂":3149,"权":3150,"李":3151,"杏":3152,"材":3153,"村":3154,"杖":3155,"杜":3156,"束":3157,"条":3158,"来":3159,"杨":3160,"杯":3161,"東":3162,"杲":3163,"松":3164,"板":3165,"极":3166,"析":3167,"林":3168,"枚":3169,"果":3170,"枝":3171,"枭":3172,"枯":3173,"架":3174,"柆":3175,"柏":3176,"柔":3177,"柚":3178,"柩":3179,"柱":3180,"柳":3181,"柴":3182,"査":3183,"栄":3184,"标":3185,"栈":3186,"树":3187,"栖":3188,"栗":3189,"栞":3190,"校":3191,"株":3192,"样":3193,"核":3194,"根":3195,"格":3196,"栽":3197,"栾":3198,"桀":3199,"桂":3200,"桃":3201,"案":3202,"桎":3203,"桐":3204,"桑":3205,"桓":3206,"桜":3207,"桥":3208,"桧":3209,"梁":3210,"梅":3211,"梏":3212,"梓":3213,"條":3214,"梦":3215,"梨":3216,"梭":3217,"梯":3218,"械":3219,"梵":3220,"梶":3221,"棋":3222,"棍":3223,"棗":3224,"棘":3225,"棚":3226,"棟":3227,"森":3228,"棲":3229,"棵":3230,"棺":3231,"椅":3232,"植":3233,"椎":3234,"椒":3235,"椛":3236,"検":3237,"椰":3238,"椿":3239,"楊":3240,"楚":3241,"楠":3242,"業":3243,"楯":3244,"極":3245,"楼":3246,"楽":3247,"概":3248,"榆":3249,"榊":3250,"榔":3251,"榛":3252,"榮":3253,"榴":3254,"槐":3255,"様":3256,"槤":3257,"槻":3258,"樂":3259,"樉":3260,"樊":3261,"樓":3262,"樗":3263,"標":3264,"樛":3265,"模":3266,"権":3267,"横":3268,"樱":3269,"樸":3270,"樹":3271,"橋":3272,"橘":3273,"橚":3274,"機":3275,"橫":3276,"橿":3277,"檀":3278,"檜":3279,"檳":3280,"檻":3281,"櫓":3282,"櫻":3283,"權":3284,"欒":3285,"欠":3286,"次":3287,"欣":3288,"欲":3289,"欽":3290,"歌":3291,"歓":3292,"歡":3293,"止":3294,"正":3295,"步":3296,"武":3297,"歩":3298,"歪":3299,"歲":3300,"歳":3301,"歴":3302,"歷":3303,"歸":3304,"死":3305,"殊":3306,"残":3307,"段":3308,"殺":3309,"殻":3310,"殿":3311,"毅":3312,"母":3313,"毎":3314,"每":3315,"比":3316,"毕":3317,"毘":3318,"毛":3319,"毫":3320,"毬":3321,"氏":3322,"民":3323,"气":3324,"気":3325,"氣":3326,"水":3327,"氷":3328,"永":3329,"氾":3330,"汇":3331,"汉":3332,"汐":3333,"汗":3334,"汝":3335,"江":3336,"池":3337,"汤":3338,"汪":3339,"汰":3340,"汶":3341,"決":3342,"汽":3343,"沂":3344,"沃":3345,"沈":3346,"沉":3347,"沌":3348,"沐":3349,"沒":3350,"沖":3351,"沙":3352,"沛":3353,"没":3354,"沢":3355,"沫":3356,"河":3357,"沸":3358,"油":3359,"治":3360,"沼":3361,"沽":3362,"泉":3363,"泊":3364,"法":3365,"泗":3366,"泡":3367,"波":3368,"泣":3369,"泥":3370,"注":3371,"泰":3372,"泾":3373,"洁":3374,"洋":3375,"洛":3376,"洞":3377,"津":3378,"洪":3379,"洲":3380,"活":3381,"派":3382,"流":3383,"浅":3384,"浙":3385,"浚":3386,"浜":3387,"浦":3388,"浩":3389,"浪":3390,"浮":3391,"海":3392,"消":3393,"涙":3394,"润":3395,"涵":3396,"涼":3397,"淇":3398,"淑":3399,"淘":3400,"淡":3401,"淨":3402,"深":3403,"淳":3404,"淵":3405,"淹":3406,"添":3407,"清":3408,"渊":3409,"渚":3410,"減":3411,"渠":3412,"渡":3413,"渣":3414,"渥":3415,"渦":3416,"温":3417,"測":3418,"港":3419,"游":3420,"渾":3421,"湊":3422,"湖":3423,"湯":3424,"湾":3425,"満":3426,"源":3427,"準":3428,"溜":3429,"溢":3430,"溪":3431,"溫":3432,"溶":3433,"滅":3434,"滋":3435,"滑":3436,"滨":3437,"滿":3438,"漁":3439,"漂":3440,"漆":3441,"漏":3442,"漠":3443,"漢":3444,"漫":3445,"漳":3446,"漸":3447,"潘":3448,"潜":3449,"潤":3450,"澄":3451,"澤":3452,"澪":3453,"激":3454,"濃":3455,"濞":3456,"濟":3457,"瀛":3458,"瀬":3459,"灣":3460,"火":3461,"灯":3462,"灰":3463,"灵":3464,"灶":3465,"灼":3466,"災":3467,"灾":3468,"炎":3469,"炬":3470,"炮":3471,"炯":3472,"炷":3473,"炸":3474,"点":3475,"為":3476,"炼":3477,"烈":3478,"烏":3479,"烙":3480,"烟":3481,"烦":3482,"烧":3483,"焉":3484,"焔":3485,"無":3486,"焦":3487,"然":3488,"焼":3489,"煌":3490,"煙":3491,"煜":3492,"照":3493,"煩":3494,"煮":3495,"熊":3496,"熔":3497,"熙":3498,"熟":3499,"熱":3500,"燃":3501,"燈":3502,"燕":3503,"營":3504,"爆":3505,"爪":3506,"爭":3507,"爱":3508,"爲":3509,"爵":3510,"父":3511,"爺":3512,"爻":3513,"爽":3514,"爾":3515,"片":3516,"版":3517,"牌":3518,"牙":3519,"牛":3520,"牡":3521,"牢":3522,"牧":3523,"物":3524,"牵":3525,"特":3526,"犖":3527,"犬":3528,"犯":3529,"狀":3530,"狂":3531,"狐":3532,"狗":3533,"狛":3534,"狡":3535,"狩":3536,"独":3537,"狭":3538,"狱":3539,"狸":3540,"狼":3541,"猛":3542,"猩":3543,"猪":3544,"猫":3545,"献":3546,"猿":3547,"獄":3548,"獅":3549,"獣":3550,"獵":3551,"獻":3552,"玄":3553,"玉":3554,"王":3555,"玖":3556,"玩":3557,"玲":3558,"珂":3559,"珍":3560,"珙":3561,"珠":3562,"現":3563,"球":3564,"理":3565,"琦":3566,"琪":3567,"琬":3568,"琮":3569,"琴":3570,"瑋":3571,"瑙":3572,"瑜":3573,"瑞":3574,"瑠":3575,"瑣":3576,"瑪":3577,"瑾":3578,"璉":3579,"環":3580,"璽":3581,"瓊":3582,"瓜":3583,"瓢":3584,"瓦":3585,"瓩":3586,"瓷":3587,"甘":3588,"甜":3589,"生":3590,"產":3591,"産":3592,"用":3593,"甫":3594,"田":3595,"由":3596,"甲":3597,"申":3598,"男":3599,"町":3600,"画":3601,"甽":3602,"界":3603,"畑":3604,"留":3605,"畜":3606,"畢":3607,"略":3608,"番":3609,"畫":3610,"異":3611,"疆":3612,"疾":3613,"病":3614,"症":3615,"痘":3616,"痛":3617,"痴":3618,"瘡":3619,"瘤":3620,"発":3621,"登":3622,"發":3623,"白":3624,"百":3625,"的":3626,"皇":3627,"皙":3628,"皮":3629,"皿":3630,"盆":3631,"盈":3632,"益":3633,"盏":3634,"盐":3635,"监":3636,"盒":3637,"盗":3638,"盘":3639,"盛":3640,"盟":3641,"監":3642,"盤":3643,"盧":3644,"目":3645,"直":3646,"相":3647,"盼":3648,"省":3649,"看":3650,"県":3651,"眞":3652,"真":3653,"眼":3654,"着":3655,"督":3656,"瞬":3657,"瞳":3658,"矢":3659,"知":3660,"矩":3661,"短":3662,"矮":3663,"矯":3664,"石":3665,"砂":3666,"砍":3667,"研":3668,"砖":3669,"砲":3670,"破":3671,"硕":3672,"硝":3673,"硨":3674,"碍":3675,"碗":3676,"碩":3677,"確":3678,"碼":3679,"磁":3680,"磅":3681,"磐":3682,"磨":3683,"磯":3684,"磲":3685,"礁":3686,"礎":3687,"礮":3688,"示":3689,"礼":3690,"社":3691,"祀":3692,"祈":3693,"祐":3694,"祖":3695,"祚":3696,"神":3697,"祠":3698,"祥":3699,"票":3700,"祭":3701,"祺":3702,"祿":3703,"禁":3704,"禄":3705,"禎":3706,"福":3707,"禦":3708,"禮":3709,"禰":3710,"禺":3711,"禾":3712,"秀":3713,"私":3714,"秋":3715,"科":3716,"秒":3717,"秘":3718,"租":3719,"秤":3720,"秦":3721,"移":3722,"程":3723,"稔":3724,"稚":3725,"種":3726,"稲":3727,"稷":3728,"稽":3729,"穂":3730,"穌":3731,"積":3732,"穎":3733,"穗":3734,"穢":3735,"究":3736,"空":3737,"突":3738,"窓":3739,"窗":3740,"窟":3741,"竇":3742,"立":3743,"站":3744,"竜":3745,"章":3746,"童":3747,"端":3748,"竹":3749,"竺":3750,"笑":3751,"笔":3752,"笛":3753,"笠":3754,"符":3755,"笨":3756,"第":3757,"笹":3758,"筆":3759,"等":3760,"筋":3761,"筍":3762,"筐":3763,"筑":3764,"答":3765,"策":3766,"筹":3767,"箇":3768,"箋":3769,"算":3770,"管":3771,"箪":3772,"箭":3773,"箱":3774,"節":3775,"範":3776,"篇":3777,"篋":3778,"篚":3779,"篤":3780,"簡":3781,"簿":3782,"籃":3783,"籌":3784,"籍":3785,"籠":3786,"米":3787,"籵":3788,"粁":3789,"粉":3790,"粍":3791,"粟":3792,"粥":3793,"粨":3794,"精":3795,"糊":3796,"糎":3797,"糖":3798,"糸":3799,"系":3800,"紀":3801,"約":3802,"紅":3803,"紋":3804,"納":3805,"純":3806,"紘":3807,"紙":3808,"級":3809,"素":3810,"紡":3811,"紫":3812,"細":3813,"紹":3814,"紺":3815,"終":3816,"組":3817,"絆":3818,"経":3819,"結":3820,"絡":3821,"給":3822,"統":3823,"絵":3824,"絶":3825,"綁":3826,"經":3827,"継":3828,"続":3829,"綜":3830,"綠":3831,"維":3832,"綯":3833,"綱":3834,"網":3835,"綸":3836,"綺":3837,"綾":3838,"緋":3839,"総":3840,"緑":3841,"緒":3842,"線":3843,"締":3844,"編":3845,"緩":3846,"緬":3847,"緯":3848,"縄":3849,"縊":3850,"縣":3851,"總":3852,"繋":3853,"織":3854,"繹":3855,"繼":3856,"續":3857,"红":3858,"级":3859,"纪":3860,"纯":3861,"纲":3862,"纵":3863,"线":3864,"组":3865,"绅":3866,"细":3867,"终":3868,"绍":3869,"经":3870,"给":3871,"统":3872,"继":3873,"绮":3874,"维":3875,"综":3876,"缽":3877,"网":3878,"罗":3879,"罠":3880,"罪":3881,"置":3882,"罰":3883,"罸":3884,"羅":3885,"羊":3886,"美":3887,"群":3888,"義":3889,"羽":3890,"翁":3891,"習":3892,"翔":3893,"翘":3894,"翠":3895,"翡":3896,"翱":3897,"翹":3898,"翻":3899,"翼":3900,"老":3901,"考":3902,"者":3903,"耆":3904,"而":3905,"耕":3906,"耳":3907,"耶":3908,"耿":3909,"聃":3910,"联":3911,"聖":3912,"聘":3913,"聚":3914,"聞":3915,"聡":3916,"聯":3917,"聰":3918,"聲":3919,"職":3920,"肃":3921,"肉":3922,"肖":3923,"肚":3924,"股":3925,"肥":3926,"肩":3927,"育":3928,"背":3929,"胞":3930,"胠":3931,"胡":3932,"胤":3933,"胴":3934,"胸":3935,"能":3936,"脂":3937,"脇":3938,"脈":3939,"脉":3940,"脚":3941,"脩":3942,"脱":3943,"脳":3944,"腎":3945,"腐":3946,"腰":3947,"腹":3948,"腿":3949,"膀":3950,"膺":3951,"臂":3952,"臘":3953,"臚":3954,"臣":3955,"臨":3956,"自":3957,"臭":3958,"至":3959,"致":3960,"臺":3961,"與":3962,"興":3963,"舍":3964,"舎":3965,"舞":3966,"舟":3967,"航":3968,"船":3969,"艦":3970,"良":3971,"色":3972,"艳":3973,"艶":3974,"艺":3975,"节":3976,"芒":3977,"芙":3978,"芝":3979,"芥":3980,"芦":3981,"芬":3982,"芭":3983,"芮":3984,"芯":3985,"花":3986,"芳":3987,"芸":3988,"芹":3989,"芽":3990,"苏":3991,"苑":3992,"苗":3993,"苣":3994,"若":3995,"英":3996,"苺":3997,"茂":3998,"范":3999,"茅":4000,"茜":4001,"茶":4002,"茸":4003,"草":4004,"荊":4005,"荒":4006,"荔":4007,"荘":4008,"荥":4009,"荪":4010,"荫":4011,"药":4012,"荷":4013,"荻":4014,"荼":4015,"莉":4016,"莊":4017,"莎":4018,"莘":4019,"莞":4020,"莫":4021,"莱":4022,"莲":4023,"莴":4024,"菇":4025,"菉":4026,"菊":4027,"菜":4028,"華":4029,"菱":4030,"菲":4031,"萌":4032,"萍":4033,"萝":4034,"营":4035,"萧":4036,"萨":4037,"萬":4038,"落":4039,"葆":4040,"葉":4041,"著":4042,"葛":4043,"董":4044,"葦":4045,"葫":4046,"葵":4047,"蒙":4048,"蒭":4049,"蒲":4050,"蒼":4051,"蒿":4052,"蓀":4053,"蓑":4054,"蓝":4055,"蓮":4056,"蔡":4057,"蔭":4058,"蔵":4059,"蕃":4060,"蕉":4061,"蕨":4062,"蕩":4063,"蕭":4064,"薇":4065,"薊":4066,"薔":4067,"薙":4068,"薛":4069,"薩":4070,"薫":4071,"薯":4072,"藍":4073,"藏":4074,"藕":4075,"藝":4076,"藤":4077,"藥":4078,"藩":4079,"藻":4080,"蘄":4081,"蘅":4082,"蘇":4083,"蘑":4084,"蘭":4085,"蘿":4086,"虎":4087,"虐":4088,"虔":4089,"處":4090,"虚":4091,"虛":4092,"號":4093,"虫":4094,"虹":4095,"蛇":4096,"蛍":4097,"蛙":4098,"蛭":4099,"蜃":4100,"蜡":4101,"蝉":4102,"蝕":4103,"蝴":4104,"蝶":4105,"融":4106,"螺":4107,"蟲":4108,"蠕":4109,"蠻":4110,"血":4111,"衆":4112,"行":4113,"術":4114,"街":4115,"衙":4116,"衛":4117,"衝":4118,"衡":4119,"衢":4120,"衣":4121,"补":4122,"表":4123,"袁":4124,"袈":4125,"袖":4126,"被":4127,"裁":4128,"裂":4129,"装":4130,"裏":4131,"裔":4132,"裕":4133,"補":4134,"裝":4135,"裟":4136,"裳":4137,"裸":4138,"製":4139,"褒":4140,"襄":4141,"襟":4142,"襲":4143,"西":4144,"要":4145,"覇":4146,"見":4147,"規":4148,"視":4149,"覚":4150,"親":4151,"観":4152,"覺":4153,"觀":4154,"观":4155,"角":4156,"解":4157,"触":4158,"觳":4159,"言":4160,"計":4161,"記":4162,"設":4163,"許":4164,"訳":4165,"証":4166,"詔":4167,"詞":4168,"詠":4169,"試":4170,"詩":4171,"話":4172,"誌":4173,"誐":4174,"誒":4175,"誓":4176,"誕":4177,"誘":4178,"語":4179,"誠":4180,"誡":4181,"誦":4182,"說":4183,"説":4184,"読":4185,"誰":4186,"課":4187,"調":4188,"談":4189,"論":4190,"諭":4191,"諷":4192,"諸":4193,"謀":4194,"謁":4195,"謎":4196,"謙":4197,"講":4198,"謝":4199,"謡":4200,"譌":4201,"識":4202,"譚":4203,"譜":4204,"警":4205,"議":4206,"護":4207,"讀":4208,"變":4209,"讐":4210,"讓":4211,"计":4212,"让":4213,"议":4214,"许":4215,"论":4216,"讼":4217,"诉":4218,"词":4219,"诗":4220,"诚":4221,"话":4222,"语":4223,"诶":4224,"请":4225,"诺":4226,"读":4227,"课":4228,"谁":4229,"谦":4230,"谭":4231,"谷":4232,"豆":4233,"豊":4234,"豌":4235,"豐":4236,"豚":4237,"象":4238,"豪":4239,"豫":4240,"豬":4241,"豹":4242,"貓":4243,"貝":4244,"貞":4245,"負":4246,"財":4247,"貫":4248,"貴":4249,"費":4250,"賀":4251,"資":4252,"賈":4253,"賊":4254,"賓":4255,"賞":4256,"賢":4257,"賦":4258,"質":4259,"購":4260,"贈":4261,"贝":4262,"贞":4263,"财":4264,"贤":4265,"质":4266,"贵":4267,"贺":4268,"贼":4269,"资":4270,"赤":4271,"赭":4272,"走":4273,"赵":4274,"起":4275,"超":4276,"越":4277,"趙":4278,"足":4279,"跆":4280,"跑":4281,"跖":4282,"跟":4283,"跡":4284,"路":4285,"跳":4286,"踊":4287,"踏":4288,"踢":4289,"蹴":4290,"身":4291,"車":4292,"軌":4293,"軍":4294,"軒":4295,"転":4296,"軽":4297,"載":4298,"輔":4299,"輛":4300,"輝":4301,"輪":4302,"輿":4303,"轉":4304,"车":4305,"轩":4306,"转":4307,"辆":4308,"辉":4309,"辛":4310,"辣":4311,"辨":4312,"辭":4313,"辯":4314,"辰":4315,"農":4316,"边":4317,"辺":4318,"辽":4319,"达":4320,"辿":4321,"迄":4322,"迅":4323,"过":4324,"迈":4325,"运":4326,"近":4327,"返":4328,"这":4329,"进":4330,"远":4331,"迦":4332,"迪":4333,"述":4334,"迷":4335,"追":4336,"送":4337,"适":4338,"逆":4339,"选":4340,"這":4341,"通":4342,"造":4343,"逢":4344,"連":4345,"逯":4346,"週":4347,"進":4348,"遁":4349,"遇":4350,"遊":4351,"運":4352,"遍":4353,"過":4354,"道":4355,"達":4356,"遗":4357,"遙":4358,"遜":4359,"遠":4360,"遥":4361,"遮":4362,"選":4363,"遺":4364,"遼":4365,"避":4366,"邁":4367,"還":4368,"邊":4369,"邑":4370,"邓":4371,"那":4372,"邦":4373,"邪":4374,"邱":4375,"邵":4376,"郁":4377,"郊":4378,"郎":4379,"郑":4380,"郛":4381,"郝":4382,"郡":4383,"部":4384,"郭":4385,"郷":4386,"都":4387,"鄧":4388,"鄭":4389,"酈":4390,"酉":4391,"酒":4392,"酔":4393,"酥":4394,"酱":4395,"酷":4396,"酸":4397,"醋":4398,"醒":4399,"醫":4400,"采":4401,"釈":4402,"釋":4403,"里":4404,"重":4405,"野":4406,"量":4407,"金":4408,"釗":4409,"釣":4410,"鈍":4411,"鈴":4412,"鉄":4413,"鉢":4414,"鉦":4415,"鉱":4416,"鉴":4417,"銀":4418,"銃":4419,"銅":4420,"銓":4421,"銖":4422,"銘":4423,"銳":4424,"鋒":4425,"鋪":4426,"鋼":4427,"錄":4428,"錡":4429,"錦":4430,"錬":4431,"録":4432,"鍋":4433,"鍵":4434,"鎖":4435,"鎧":4436,"鎮":4437,"鏡":4438,"鐘":4439,"鐵":4440,"鐸":4441,"鑒":4442,"钊":4443,"钢":4444,"钦":4445,"钱":4446,"铁":4447,"铎":4448,"铜":4449,"铭":4450,"铺":4451,"锡":4452,"键":4453,"镇":4454,"镗":4455,"镜":4456,"長":4457,"长":4458,"門":4459,"閃":4460,"開":4461,"閏":4462,"閒":4463,"間":4464,"関":4465,"閣":4466,"閨":4467,"闇":4468,"闍":4469,"闕":4470,"闘":4471,"關":4472,"门":4473,"问":4474,"闯":4475,"阁":4476,"阪":4477,"防":4478,"阳":4479,"阿":4480,"陀":4481,"附":4482,"际":4483,"陈":4484,"降":4485,"限":4486,"陛":4487,"院":4488,"陣":4489,"除":4490,"陪":4491,"陳":4492,"陵":4493,"陶":4494,"陸":4495,"険":4496,"陽":4497,"隆":4498,"隊":4499,"階":4500,"隔":4501,"隗":4502,"隠":4503,"隣":4504,"隱":4505,"隴":4506,"隸":4507,"隻":4508,"隼":4509,"雀":4510,"雁":4511,"雄":4512,"雅":4513,"集":4514,"雇":4515,"雉":4516,"雎":4517,"雕":4518,"雙":4519,"雛":4520,"雜":4521,"雞":4522,"離":4523,"難":4524,"雨":4525,"雪":4526,"雲":4527,"雳":4528,"零":4529,"雷":4530,"電":4531,"雾":4532,"需":4533,"霆":4534,"震":4535,"霊":4536,"霍":4537,"霖":4538,"霜":4539,"霞":4540,"霧":4541,"霰":4542,"露":4543,"霸":4544,"霹":4545,"靂":4546,"靈":4547,"青":4548,"靖":4549,"静":4550,"非":4551,"靠":4552,"面":4553,"革":4554,"靴":4555,"靼":4556,"鞋":4557,"鞍":4558,"鞠":4559,"韃":4560,"韋":4561,"韓":4562,"韦":4563,"韩":4564,"韭":4565,"音":4566,"韶":4567,"響":4568,"頃":4569,"項":4570,"順":4571,"須":4572,"頌":4573,"頒":4574,"領":4575,"頭":4576,"顆":4577,"題":4578,"額":4579,"顏":4580,"顔":4581,"願":4582,"類":4583,"顯":4584,"项":4585,"顾":4586,"颂":4587,"颊":4588,"颖":4589,"颗":4590,"颜":4591,"風":4592,"颪":4593,"颱":4594,"飄":4595,"风":4596,"飛":4597,"飞":4598,"食":4599,"飯":4600,"飾":4601,"餅":4602,"養":4603,"餓":4604,"館":4605,"饼":4606,"饾":4607,"馆":4608,"馒":4609,"首":4610,"香":4611,"馬":4612,"馮":4613,"駆":4614,"駐":4615,"駒":4616,"駙":4617,"駢":4618,"駿":4619,"騎":4620,"騒":4621,"験":4622,"騭":4623,"騰":4624,"騷":4625,"驁":4626,"驗":4627,"驚":4628,"驤":4629,"马":4630,"驰":4631,"骨":4632,"骸":4633,"髀":4634,"體":4635,"高":4636,"髪":4637,"鬘":4638,"鬥":4639,"鬪":4640,"鬼":4641,"魂":4642,"魄":4643,"魔":4644,"魚":4645,"魯":4646,"鮑":4647,"鮫":4648,"鮮":4649,"鯖":4650,"鯵":4651,"鰐":4652,"鱀":4653,"鱼":4654,"鲁":4655,"鲤":4656,"鳥":4657,"鳩":4658,"鳳":4659,"鳴":4660,"鳶":4661,"鴉":4662,"鴣":4663,"鴨":4664,"鴻":4665,"鵡":4666,"鵩":4667,"鵬":4668,"鶍":4669,"鶴":4670,"鷓":4671,"鷹":4672,"鷺":4673,"鸚":4674,"鸟":4675,"鸡":4676,"鸭":4677,"鸿":4678,"鹅":4679,"鹹":4680,"鹼":4681,"鹽":4682,"鹿":4683,"麗":4684,"麥":4685,"麵":4686,"麻":4687,"麼":4688,"麾":4689,"黃":4690,"黄":4691,"黎":4692,"黑":4693,"黒":4694,"黙":4695,"黛":4696,"黨":4697,"鼉":4698,"鼎":4699,"鼓":4700,"鼠":4701,"鼻":4702,"齉":4703,"齊":4704,"齋":4705,"齐":4706,"龍":4707,"龙":4708,"ꜛ":4709,"ꜜ":4710,"ꜣ":4711,"ꜩ":4712,"ꜫ":4713,"ꜭ":4714,"ꞅ":4715,"ꞎ":4716,"Ʞ":4717,"ꞵ":4718,"ꦂ":4719,"ꦠ":4720,"ꦯ":4721,"ꦲ":4722,"ꦸ":4723,"ꭓ":4724,"가":4725,"간":4726,"강":4727,"개":4728,"거":4729,"건":4730,"경":4731,"계":4732,"고":4733,"공":4734,"관":4735,"광":4736,"구":4737,"국":4738,"권":4739,"귀":4740,"그":4741,"극":4742,"근":4743,"글":4744,"금":4745,"급":4746,"기":4747,"김":4748,"꺼":4749,"껐":4750,"나":4751,"날":4752,"남":4753,"났":4754,"내":4755,"너":4756,"네":4757,"념":4758,"노":4759,"놔":4760,"눈":4761,"늬":4762,"다":4763,"단":4764,"대":4765,"더":4766,"도":4767,"독":4768,"돌":4769,"동":4770,"디":4771,"딱":4772,"라":4773,"람":4774,"래":4775,"런":4776,"렌":4777,"려":4778,"렬":4779,"로":4780,"록":4781,"론":4782,"루":4783,"류":4784,"르":4785,"를":4786,"리":4787,"립":4788,"마":4789,"막":4790,"만":4791,"말":4792,"명":4793,"목":4794,"무":4795,"문":4796,"물":4797,"미":4798,"민":4799,"믿":4800,"바":4801,"박":4802,"방":4803,"백":4804,"뱅":4805,"버":4806,"범":4807,"법":4808,"별":4809,"병":4810,"보":4811,"복":4812,"봐":4813,"부":4814,"불":4815,"붉":4816,"빅":4817,"빙":4818,"빤":4819,"뿐":4820,"사":4821,"산":4822,"살":4823,"삼":4824,"삿":4825,"상":4826,"새":4827,"색":4828,"서":4829,"성":4830,"센":4831,"소":4832,"쇼":4833,"수":4834,"순":4835,"술":4836,"숫":4837,"스":4838,"시":4839,"식":4840,"신":4841,"실":4842,"쌤":4843,"아":4844,"안":4845,"알":4846,"암":4847,"앙":4848,"애":4849,"앤":4850,"야":4851,"양":4852,"어":4853,"에":4854,"엔":4855,"연":4856,"영":4857,"예":4858,"오":4859,"온":4860,"왜":4861,"용":4862,"운":4863,"울":4864,"원":4865,"위":4866,"유":4867,"은":4868,"을":4869,"음":4870,"의":4871,"이":4872,"인":4873,"일":4874,"자":4875,"장":4876,"재":4877,"적":4878,"전":4879,"점":4880,"정":4881,"제":4882,"조":4883,"종":4884,"좋":4885,"주":4886,"줄":4887,"중":4888,"지":4889,"진":4890,"집":4891,"짓":4892,"징":4893,"차":4894,"천":4895,"청":4896,"체":4897,"쳐":4898,"초":4899,"춘":4900,"충":4901,"치":4902,"커":4903,"코":4904,"킨":4905,"타":4906,"태":4907,"터":4908,"퇴":4909,"투":4910,"트":4911,"특":4912,"파":4913,"판":4914,"퍼":4915,"평":4916,"표":4917,"풍":4918,"피":4919,"하":4920,"학":4921,"한":4922,"합":4923,"해":4924,"행":4925,"향":4926,"허":4927,"헬":4928,"호":4929,"혹":4930,"홀":4931,"화":4932,"회":4933,"후":4934,"희":4935,"ﬀ":4936,"ﬁ":4937,"ﬂ":4938,"ﮭ":4939,"ﮮ":4940,"ﷲ":4941,"ﷺ":4942,"️":4943,"︠":4944,"︡":4945,"ﺒ":4946,"ﻉ":4947,"ﻋ":4948,"ﻔ":4949,"ﻴ":4950,"﻿":4951,"！":4952,"％":4953,"＆":4954,"（":4955,"）":4956,"，":4957,"－":4958,"／":4959,"１":4960,"２":4961,"３":4962,"４":4963,"６":4964,"：":4965,"＜":4966,"＝":4967,"＞":4968,"？":4969,"Ａ":4970,"Ｃ":4971,"Ｄ":4972,"Ｇ":4973,"Ｉ":4974,"Ｊ":4975,"Ｌ":4976,"Ｍ":4977,"Ｐ":4978,"Ｒ":4979,"Ｘ":4980,"［":4981,"］":4982,"｜":4983,"～":4984,"｢":4985,"｣":4986,"･":4987,"ｰ":4988,"￥":4989,"�":4990,"𐀁":4991,"𐀈":4992,"𐀫":4993,"𐎠":4994,"𐎢":4995,"𐎭":4996,"𐎰":4997,"𐎹":4998,"𐎺":4999,"𐎼":5000,"𐏁":5001,"𐭃":5002,"𐭉":5003,"𐭓":5004,"𐭕":5005,"𒀯":5006,"𒀳":5007,"𝕄":5008,"𝕡":5009,"🖕":5010,"th":5011,"in":5012,"er":5013,"an":5014,"the":5015,"on":5016,"ed":5017,"re":5018,"at":5019,"en":5020,"or":5021,"al":5022,"st":5023,"ar":5024,"and":5025,"as":5026,"of":5027,"ing":5028,"es":5029,"to":5030,"is":5031,"it":5032,"ou":5033,"ic":5034,"ion":5035,"le":5036,"he":5037,"ro":5038,"il":5039,"ac":5040,"ent":5041,"ad":5042,"se":5043,"am":5044,"om":5045,"ly":5046,"be":5047,"was":5048,"for":5049,"ch":5050,"de":5051,"ve":5052,"ur":5053,"ol":5054,"ir":5055,"The":5056,"im":5057,"-@":5058,"@-@":5059,"ig":5060,"ver":5061,"ter":5062,"wh":5063,"ow":5064,"un":5065,"ith":5066,"ce":5067,"ay":5068,"id":5069,"con":5070,"ation":5071,"ct":5072,"with":5073,"ag":5074,"that":5075,"te":5076,"by":5077,"us":5078,"ot":5079,"el":5080,"ere":5081,"ri":5082,"ul":5083,"ap":5084,"et":5085,"ut":5086,"19":5087,"res":5088,"ain":5089,"ers":5090,"op":5091,"pl":5092,"com":5093,"his":5094,"rom":5095,"um":5096,"all":5097,"00":5098,"ab":5099,"oun":5100,"ist":5101,"mo":5102,"su":5103,"ne":5104,"sh":5105,"pro":5106,"pe":5107,"from":5108,"In":5109,"cl":5110,"ate":5111,"are":5112,"li":5113,"tr":5114,"art":5115,"ther":5116,"os":5117,"igh":5118,"em":5119,"di":5120,"ex":5121,"ber":5122,"est":5123,"ich":5124,"ak":5125,"were":5126,"ld":5127,"oc":5128,"ill":5129,"ard":5130,"ast":5131,"ies":5132,"ant":5133,"per":5134,"ong":5135,"qu":5136,"gh":5137,"ment":5138,"ated":5139,"man":5140,"ive":5141,"out":5142,"ity":5143,"ame":5144,"ess":5145,"fe":5146,"od":5147,"our":5148,"had":5149,"end":5150,"ish":5151,"ack":5152,"ort":5153,"one":5154,"als":5155,"av":5156,"ge":5157,"over":5158,"ear":5159,"tw":5160,"af":5161,"ip":5162,"which":5163,"ough":5164,"der":5165,"but":5166,"not":5167,"gr":5168,"vi":5169,"ass":5170,"act":5171,"ound":5172,"ally":5173,"ave":5174,"str":5175,"ine":5176,"ight":5177,"her":5178,"ary":5179,"rit":5180,"its":5181,"iv":5182,"ud":5183,"du":5184,"pr":5185,"ian":5186,"ep":5187,"if":5188,"St":5189,"Ch":5190,"ore":5191,"20":5192,"wor":5193,"fir":5194,"up":5195,"200":5196,"ew":5197,"ia":5198,"ould":5199,"cor":5200,"au":5201,"ous":5202,"own":5203,"bo":5204,"bl":5205,"aw":5206,"ach":5207,"ction":5208,"ev":5209,"comp":5210,"age":5211,"ke":5212,"att":5213,"land":5214,"first":5215,"port":5216,"ign":5217,"ition":5218,"form":5219,"si":5220,"their":5221,"ical":5222,"lo":5223,"low":5224,"ial":5225,"ser":5226,"tim":5227,"ll":5228,"po":5229,"ater":5230,"also":5231,"He":5232,"who":5233,"br":5234,"int":5235,"part":5236,"ure":5237,"18":5238,"cre":5239,"has":5240,"other":5241,"ans":5242,"have":5243,"ome":5244,"play":5245,"pt":5246,"ust":5247,"ok":5248,"off":5249,"cont":5250,".@":5251,"@.@":5252,"two":5253,"ile":5254,"ree":5255,"ence":5256,"co":5257,"pres":5258,"uring":5259,"me":5260,"been":5261,"pre":5262,"ice":5263,"we":5264,"mer":5265,"ance":5266,"dis":5267,",@":5268,"@,@":5269,"201":5270,"Th":5271,"pos":5272,"It":5273,"ph":5274,"this":5275,"ory":5276,"year":5277,"after":5278,"ult":5279,"ell":5280,"ren":5281,"des":5282,"ace":5283,"ved":5284,"sc":5285,"fin":5286,"ark":5287,"An":5288,"cent":5289,"able":5290,"ade":5291,"mon":5292,"they":5293,"incl":5294,"ite":5295,"ue":5296,"ang":5297,"ail":5298,"Un":5299,"work":5300,"ever":5301,"ced":5302,"ff":5303,"air":5304,"cr":5305,"sion":5306,"cord":5307,"time":5308,"sp":5309,"inter":5310,"urn":5311,"ations":5312,"ship":5313,"would":5314,"iz":5315,"into":5316,"him":5317,"ick":5318,"vel":5319,"spe":5320,"she":5321,"no":5322,"mber":5323,"ict":5324,"ates":5325,"ie":5326,"ased":5327,"more":5328,"ilm":5329,"ited":5330,"min":5331,"ire":5332,"old":5333,"ty":5334,"way":5335,"Ar":5336,"amp":5337,"ces":5338,"son":5339,"most":5340,"og":5341,"new":5342,"fore":5343,"main":5344,"Al":5345,"bec":5346,"ry":5347,"any":5348,"ten":5349,"ret":5350,"ase":5351,"used":5352,"ann":5353,"ason":5354,"fl":5355,"ood":5356,"includ":5357,"cond":5358,"cess":5359,"cted":5360,"ings":5361,"ran":5362,"ind":5363,"ath":5364,"vis":5365,"les":5366,"ors":5367,"red":5368,"day":5369,"film":5370,"when":5371,"ted":5372,"ton":5373,"col":5374,"rough":5375,"ild":5376,"comm":5377,"ward":5378,"ake":5379,"Mar":5380,"ob":5381,"ck":5382,"Au":5383,"ican":5384,"ens":5385,"ts":5386,"bu":5387,"ra":5388,"gan":5389,"though":5390,"sy":5391,"reg":5392,"ions":5393,"Re":5394,"een":5395,"Wh":5396,"De":5397,"during":5398,"On":5399,"than":5400,"again":5401,"ose":5402,"so":5403,"under":5404,"gen":5405,"game":5406,"ble":5407,"ubl":5408,"nor":5409,"char":5410,"199":5411,"produ":5412,"only":5413,"ollow":5414,"them":5415,"about":5416,"ide":5417,"row":5418,"can":5419,"ents":5420,"New":5421,"while":5422,"En":5423,"ational":5424,"oy":5425,"some":5426,"song":5427,"rele":5428,"later":5429,"led":5430,"outh":5431,"ered":5432,"ele":5433,"tween":5434,"between":5435,"10":5436,"sing":5437,"ron":5438,"ating":5439,"three":5440,"coun":5441,"Af":5442,"where":5443,"num":5444,"through":5445,"kn":5446,"aid":5447,"As":5448,"season":5449,"ics":5450,"ful":5451,"view":5452,"lar":5453,"my":5454,"Amer":5455,"cons":5456,"tain":5457,"ern":5458,"sub":5459,"stru":5460,"writ":5461,"ied":5462,"Le":5463,"dr":5464,"then":5465,"iver":5466,"000":5467,"rel":5468,"ular":5469,"ters":5470,"sel":5471,"Jo":5472,"high":5473,"second":5474,"Com":5475,"med":5476,"set":5477,"made":5478,"ef":5479,"cur":5480,"ames":5481,"bum":5482,"record":5483,"four":5484,"do":5485,"go":5486,"cap":5487,"follow":5488,"ock":5489,"17":5490,"ub":5491,"spec":5492,"call":5493,"car":5494,"such":5495,"sur":5496,"eng":5497,"ished":5498,"No":5499,"atch":5500,"back":5501,"before":5502,"there":5503,"team":5504,"well":5505,"ma":5506,"15":5507,"iel":5508,"mus":5509,"inn":5510,"ven":5511,"cho":5512,"years":5513,"Sh":5514,"appe":5515,"add":5516,"Con":5517,"ros":5518,"Nor":5519,"pol":5520,"This":5521,"ident":5522,"sup":5523,"ific":5524,"album":5525,"publ":5526,"reat":5527,"ily":5528,"owever":5529,"je":5530,"fer":5531,"gu":5532,"tem":5533,"..":5534,"ale":5535,"ual":5536,"ative":5537,"unt":5538,"many":5539,"being":5540,"point":5541,"uary":5542,"epis":5543,"ond":5544,"oup":5545,"ek":5546,"ode":5547,"ince":5548,"war":5549,"velop":5550,"At":5551,"ins":5552,"against":5553,"ury":5554,"number":5555,"use":5556,"ped":5557,"side":5558,"Be":5559,"lead":5560,"ft":5561,"show":5562,"charac":5563,"After":5564,"par":5565,"sever":5566,"16":5567,"loc":5568,"12":5569,"mem":5570,"ash":5571,"long":5572,"ause":5573,"appear":5574,"ious":5575,"rece":5576,"became":5577,"Brit":5578,"io":5579,"including":5580,"like":5581,"cy":5582,"United":5583,"hn":5584,"ese":5585,"serv":5586,"Se":5587,"both":5588,"cri":5589,"ise":5590,"ost":5591,"series":5592,"198":5593,"found":5594,"feat":5595,"mi":5596,"known":5597,"line":5598,"igin":5599,"cover":5600,"194":5601,"did":5602,"rop":5603,"She":5604,"ended":5605,"eral":5606,"az":5607,"tri":5608,"develop":5609,"ley":5610,"mill":5611,"War":5612,"contin":5613,"cer":5614,"ments":5615,"ities":5616,"down":5617,"30":5618,"ures":5619,"dire":5620,"run":5621,"head":5622,"Eng":5623,"suc":5624,"pop":5625,"mar":5626,"Wor":5627,"diff":5628,"road":5629,"For":5630,"John":5631,"uch":5632,"pass":5633,"ird":5634,"episode":5635,"said":5636,"leg":5637,"por":5638,"west":5639,"ouse":5640,"mis":5641,"ress":5642,"could":5643,"che":5644,"erson":5645,"ah":5646,"Ro":5647,"several":5648,"American":5649,"lin":5650,"peri":5651,"orn":5652,"vol":5653,"ield":5654,"14":5655,"vid":5656,"origin":5657,"called":5658,"197":5659,"Gr":5660,"II":5661,"ised":5662,"comple":5663,"rest":5664,"196":5665,"Br":5666,"sign":5667,"ually":5668,"stem":5669,"self":5670,"music":5671,"bed":5672,"remain":5673,"cept":5674,"return":5675,"oper":5676,"ste":5677,"began":5678,"Ger":5679,"design":5680,"try":5681,"13":5682,"ci":5683,"ting":5684,"ank":5685,"men":5686,"ople":5687,"trans":5688,"chool":5689,"hel":5690,"state":5691,"dec":5692,"early":5693,"aking":5694,"ball":5695,"near":5696,"dist":5697,"released":5698,"Tr":5699,"US":5700,"Col":5701,"hy":5702,"ived":5703,"une":5704,"descri":5705,"until":5706,"ject":5707,"olog":5708,"arr":5709,"open":5710,"plac":5711,"success":5712,"ross":5713,"present":5714,"hist":5715,"sm":5716,"fam":5717,"arch":5718,"gg":5719,"May":5720,"Cl":5721,"ists":5722,"offic":5723,"band":5724,"overn":5725,"val":5726,"crit":5727,"less":5728,"get":5729,"jor":5730,"50":5731,"gust":5732,"group":5733,"may":5734,"ms":5735,"along":5736,"vent":5737,"nam":5738,"ves":5739,"bers":5740,"mil":5741,"ower":5742,"tow":5743,"million":5744,"British":5745,"xt":5746,"order":5747,"bre":5748,"cast":5749,"Sep":5750,"ving":5751,"sim":5752,"met":5753,"enn":5754,"these":5755,"ric":5756,"come":5757,"oci":5758,"ized":5759,"ather":5760,"fect":5761,"attack":5762,"ord":5763,"cut":5764,"sk":5765,"Sp":5766,"Car":5767,"cle":5768,"stral":5769,"tember":5770,"Wil":5771,"let":5772,"national":5773,"September":5774,"und":5775,"now":5776,"August":5777,"World":5778,"ured":5779,"stor":5780,"Bl":5781,"ib":5782,"requ":5783,"batt":5784,"States":5785,"Ju":5786,"took":5787,"continu":5788,"large":5789,"same":5790,"people":5791,"oot":5792,"character":5793,"var":5794,"grap":5795,"dep":5796,"because":5797,"11":5798,"vide":5799,"light":5800,"position":5801,"ism":5802,"ca":5803,"around":5804,"result":5805,"ired":5806,"Oc":5807,"la":5808,"Ad":5809,"start":5810,"Is":5811,"km":5812,"ctor":5813,"class":5814,"aving":5815,"king":5816,"cour":5817,"ivers":5818,"Jan":5819,"Austral":5820,"oth":5821,"aim":5822,"pon":5823,"mark":5824,"formed":5825,"vision":5826,"support":5827,"build":5828,"ants":5829,"week":5830,"Pl":5831,"north":5832,"tal":5833,"following":5834,"rist":5835,"life":5836,"allow":5837,"six":5838,"system":5839,"However":5840,"aft":5841,"ison":5842,"track":5843,"Octo":5844,"Pr":5845,"prom":5846,"ork":5847,"consid":5848,"urch":5849,"each":5850,"received":5851,"ys":5852,"ime":5853,"ax":5854,"October":5855,"will":5856,"ained":5857,"West":5858,"ility":5859,"ium":5860,"place":5861,"ling":5862,"sol":5863,"govern":5864,"very":5865,"thern":5866,"ars":5867,"liam":5868,"five":5869,"just":5870,"area":5871,"stand":5872,"right":5873,"wards":5874,"century":5875,"appro":5876,"def":5877,"They":5878,"Sc":5879,"city":5880,"match":5881,"ina":5882,"North":5883,"ask":5884,"By":5885,"ple":5886,"ately":5887,"partic":5888,"report":5889,"York":5890,"world":5891,"rote":5892,"public":5893,"June":5894,"book":5895,"top":5896,"contro":5897,"tle":5898,"giv":5899,"ger":5900,"jo":5901,"small":5902,"major":5903,"field":5904,"cording":5905,"King":5906,"Man":5907,"25":5908,"ground":5909,"July":5910,"Can":5911,"last":5912,"Nove":5913,"organ":5914,"November":5915,"played":5916,"what":5917,"atter":5918,"ner":5919,"turn":5920,"town":5921,"east":5922,"tit":5923,"person":5924,"since":5925,"gun":5926,"ional":5927,"Fe":5928,"single":5929,"read":5930,"lish":5931,"sequ":5932,"Apr":5933,"ik":5934,"March":5935,"reach":5936,"April":5937,"aged":5938,"ude":5939,"Mc":5940,"Ac":5941,"arm":5942,"Co":5943,"even":5944,"care":5945,"hal":5946,"ster":5947,"ural":5948,"Eu":5949,"pri":5950,"Ge":5951,"won":5952,"name":5953,"bro":5954,"dom":5955,"idge":5956,"lit":5957,"power":5958,"0s":5959,"differ":5960,"Coun":5961,"vious":5962,"ica":5963,"Indi":5964,"ague":5965,"ined":5966,"test":5967,"final":5968,"ref":5969,"South":5970,"left":5971,"ru":5972,"ier":5973,"Ph":5974,"due":5975,"Me":5976,"south":5977,"udi":5978,"gre":5979,"event":5980,"During":5981,"ages":5982,"version":5983,"list":5984,"Ste":5985,"school":5986,"avy":5987,"aff":5988,"Dece":5989,"German":5990,"Ed":5991,"ilt":5992,"December":5993,"third":5994,"water":5995,"ets":5996,"incre":5997,"ision":5998,"month":5999,"We":6000,"moved":6001,"much":6002,"ons":6003,"ians":6004,"child":6005,"expl":6006,"another":6007,"January":6008,"included":6009,"named":6010,"195":6011,"Or":6012,"based":6013,"issu":6014,"All":6015,"ls":6016,"claim":6017,"ships":6018,"camp":6019,"government":6020,"wrote":6021,"apan":6022,"ales":6023,"193":6024,"Gu":6025,"24":6026,"kill":6027,"home":6028,"ane":6029,"chan":6030,"When":6031,"Pe":6032,"short":6033,"bert":6034,"ially":6035,"death":6036,"story":6037,"app":6038,"Japan":6039,"ute":6040,"ically":6041,"Pro":6042,"ought":6043,"ature":6044,"ody":6045,"roy":6046,"ext":6047,"press":6048,"oss":6049,"tempt":6050,"using":6051,"make":6052,"ital":6053,"review":6054,"family":6055,"hand":6056,"flu":6057,"species":6058,"pect":6059,"house":6060,"ution":6061,"ement":6062,"ney":6063,"rench":6064,"described":6065,"ards":6066,"dam":6067,"previous":6068,"fact":6069,"dest":6070,"...":6071,"rown":6072,"Bo":6073,"forman":6074,"late":6075,"ene":6076,"Euro":6077,"beli":6078,"ler":6079,"thing":6080,"urther":6081,"real":6082,"built":6083,"cas":6084,"gener":6085,"ified":6086,"ness":6087,"ilar":6088,"former":6089,"mp":6090,"oute":6091,"best":6092,"tak":6093,"attempt":6094,"placed":6095,"games":6096,"colle":6097,"tract":6098,"Mon":6099,"ared":6100,"polit":6101,"command":6102,"held":6103,"ats":6104,"put":6105,"Par":6106,"ety":6107,"stit":6108,"still":6109,"stud":6110,"vo":6111,"ford":6112,"His":6113,"those":6114,"gram":6115,"original":6116,"constru":6117,"lim":6118,"den":6119,"addition":6120,"gy":6121,"augh":6122,"Febr":6123,"February":6124,"fel":6125,"next":6126,"ently":6127,"effect":6128,"Christ":6129,"22":6130,"ator":6131,"fall":6132,"mid":6133,"There":6134,"thor":6135,"performan":6136,"fri":6137,"ham":6138,"100":6139,"members":6140,"sent":6141,"rican":6142,"ctions":6143,"ences":6144,"Gen":6145,"van":6146,"National":6147,"inc":6148,"Li":6149,"ush":6150,"mit":6151,"Europe":6152,"21":6153,"bur":6154,"iversity":6155,"days":6156,"ines":6157,"period":6158,"within":6159,"French":6160,"ched":6161,"role":6162,"na":6163,"although":6164,"wind":6165,"init":6166,"ze":6167,"release":6168,"move":6169,"video":6170,"hip":6171,"say":6172,"rank":6173,"half":6174,"2010":6175,"23":6176,"estab":6177,"came":6178,"Ser":6179,"arri":6180,"Her":6181,"ps":6182,"ropical":6183,"ink":6184,"continued":6185,"William":6186,"And":6187,"wom":6188,"law":6189,"27":6190,"ali":6191,"craft":6192,"aining":6193,"ning":6194,"round":6195,"uss":6196,"ones":6197,"ains":6198,"hum":6199,"ris":6200,"ulation":6201,"win":6202,"ribut":6203,"sou":6204,"posed":6205,"ending":6206,"however":6207,"itary":6208,"sen":6209,"2008":6210,"fac":6211,"28":6212,"ral":6213,"inning":6214,"often":6215,"2009":6216,"Geor":6217,"you":6218,"few":6219,"uc":6220,"ried":6221,"rad":6222,"ister":6223,"imes":6224,"equ":6225,"mag":6226,"ampion":6227,"stri":6228,"Bar":6229,"wood":6230,"take":6231,"local":6232,"Des":6233,"ix":6234,"Air":6235,"26":6236,"friend":6237,"2011":6238,"Ear":6239,"similar":6240,"player":6241,"40":6242,"beg":6243,"among":6244,"Mich":6245,"Inter":6246,"force":6247,"production":6248,"ior":6249,"pite":6250,"ony":6251,"atic":6252,"went":6253,"different":6254,"Char":6255,"ove":6256,"mission":6257,"ery":6258,"chang":6259,"ides":6260,"possi":6261,"storm":6262,"England":6263,"strong":6264,"further":6265,"One":6266,"night":6267,"Mus":6268,"Har":6269,"post":6270,"sty":6271,"considered":6272,"company":6273,"fire":6274,"level":6275,"served":6276,"Dav":6277,"ices":6278,"2007":6279,"aver":6280,"ided":6281,"career":6282,"uck":6283,"ively":6284,"City":6285,"fort":6286,"ged":6287,"East":6288,"provid":6289,"having":6290,"action":6291,"Park":6292,"commun":6293,"ung":6294,"exp":6295,"trad":6296,"ient":6297,"tele":6298,"ae":6299,"English":6300,"que":6301,"ops":6302,"fron":6303,"ai":6304,"enter":6305,"ives":6306,"Fr":6307,"every":6308,"history":6309,"hold":6310,"without":6311,"club":6312,"refer":6313,"Although":6314,"lands":6315,"studi":6316,"wide":6317,"2012":6318,"written":6319,"graph":6320,"Scot":6321,"stead":6322,"become":6323,"board":6324,"29":6325,"Ang":6326,"respon":6327,"reet":6328,"Lond":6329,"influ":6330,"London":6331,"iss":6332,"foot":6333,"Batt":6334,"So":6335,"sound":6336,"Ex":6337,"River":6338,"With":6339,"invol":6340,"ggest":6341,"Mo":6342,"scor":6343,"tro":6344,"suggest":6345,"bor":6346,"ington":6347,"190":6348,"bus":6349,"given":6350,"announ":6351,"prof":6352,"divid":6353,"oung":6354,"mand":6355,"Ne":6356,"key":6357,"Te":6358,"ds":6359,"want":6360,"Sy":6361,"cial":6362,"comb":6363,"To":6364,"High":6365,"change":6366,"building":6367,"ug":6368,"cop":6369,"imp":6370,"Canad":6371,"iment":6372,"successful":6373,"father":6374,"gave":6375,"Fl":6376,"University":6377,"close":6378,"common":6379,"import":6380,"published":6381,"stated":6382,"Pol":6383,"seven":6384,"sure":6385,"never":6386,"good":6387,"While":6388,"ailed":6389,"fr":6390,"returned":6391,"total":6392,"beh":6393,"produced":6394,"omin":6395,"anim":6396,"face":6397,"author":6398,"prote":6399,"country":6400,"bar":6401,"gn":6402,"del":6403,"eved":6404,"quad":6405,"away":6406,"hour":6407,"see":6408,"aren":6409,"Cor":6410,"sit":6411,"Div":6412,"tour":6413,"omet":6414,"popular":6415,"aur":6416,"ably":6417,"reported":6418,"fun":6419,"dri":6420,"lost":6421,"capt":6422,"2006":6423,"program":6424,"aign":6425,"compos":6426,"great":6427,"ways":6428,"vest":6429,"chn":6430,"draw":6431,"particular":6432,"making":6433,"ama":6434,"ks":6435,"rent":6436,"Dr":6437,"vers":6438,"include":6439,"ened":6440,"struct":6441,"forces":6442,"decl":6443,"ox":6444,"According":6445,"covered":6446,"how":6447,"soci":6448,"indu":6449,"interest":6450,"recorded":6451,"ology":6452,"fle":6453,"need":6454,"vict":6455,"direct":6456,"Phil":6457,"body":6458,"Am":6459,"itions":6460,"urrican":6461,"site":6462,"ploy":6463,"ument":6464,"plan":6465,"should":6466,"quar":6467,"voc":6468,"suff":6469,"service":6470,"moder":6471,"performance":6472,"teen":6473,"died":6474,"fan":6475,"These":6476,"times":6477,"grad":6478,"net":6479,"ana":6480,"coming":6481,"rock":6482,"ned":6483,"Roy":6484,"pen":6485,"aircraft":6486,"military":6487,"tell":6488,"flo":6489,"Australia":6490,"sum":6491,"himself":6492,"2013":6493,"pur":6494,"intro":6495,"iness":6496,"battle":6497,"Jack":6498,"bas":6499,"depend":6500,"agre":6501,"room":6502,"aul":6503,"Pres":6504,"songs":6505,"elect":6506,"member":6507,"aster":6508,"itch":6509,"Rep":6510,"Min":6511,"cing":6512,"General":6513,"State":6514,"development":6515,"gl":6516,"critic":6517,"front":6518,"alth":6519,"BC":6520,"xim":6521,"search":6522,"represent":6523,"sw":6524,"ael":6525,"ges":6526,"look":6527,"189":6528,"itive":6529,"acy":6530,"60":6531,"histor":6532,"akes":6533,"sl":6534,"istr":6535,"developed":6536,"James":6537,"medi":6538,"vir":6539,"destroy":6540,"Rom":6541,"control":6542,"star":6543,"introdu":6544,"nal":6545,"children":6546,"remained":6547,"Army":6548,"Su":6549,"range":6550,"fav":6551,"ored":6552,"ption":6553,"rew":6554,"Sm":6555,"title":6556,"characters":6557,"chart":6558,"ey":6559,"Gre":6560,"mm":6561,"months":6562,"clear":6563,"ither":6564,"ising":6565,"ues":6566,"rap":6567,"ille":6568,"campaign":6569,"ense":6570,"ability":6571,"occur":6572,"League":6573,"urricane":6574,"cult":6575,"cir":6576,"taken":6577,"eight":6578,"omb":6579,"tropical":6580,"gether":6581,"compet":6582,"felt":6583,"signific":6584,"across":6585,"tar":6586,"ots":6587,"seen":6588,"writing":6589,"project":6590,"Cap":6591,"ering":6592,"bridge":6593,"gest":6594,"station":6595,"too":6596,"Division":6597,"pra":6598,"America":6599,"Tw":6600,"appeared":6601,"created":6602,"announced":6603,"alter":6604,"noted":6605,"Sw":6606,"reached":6607,"George":6608,"Per":6609,"appoint":6610,"cil":6611,"Japanese":6612,"Ma":6613,"County":6614,"Hen":6615,"hor":6616,"activ":6617,"experi":6618,"works":6619,"ov":6620,"areas":6621,"uses":6622,"gin":6623,"fight":6624,"television":6625,"Road":6626,"2005":6627,"saw":6628,"lect":6629,"prim":6630,"ream":6631,"cost":6632,"performed":6633,"various":6634,"Street":6635,"political":6636,"break":6637,"complete":6638,"followed":6639,"full":6640,"har":6641,"iting":6642,"ality":6643,"race":6644,"players":6645,"mb":6646,"trave":6647,"inv":6648,"style":6649,"ago":6650,"2014":6651,"mot":6652,"arded":6653,"mph":6654,"black":6655,"abor":6656,"process":6657,"mix":6658,"Mad":6659,"non":6660,"antic":6661,"killed":6662,"ization":6663,"wall":6664,"oto":6665,"hit":6666,"points":6667,"ief":6668,"help":6669,"bet":6670,"bel":6671,"crew":6672,"lines":6673,"lished":6674,"live":6675,"throughout":6676,"sess":6677,"techn":6678,"sex":6679,"stat":6680,"cru":6681,"formation":6682,"debut":6683,"El":6684,"together":6685,"little":6686,"significant":6687,"tra":6688,"established":6689,"fem":6690,"ull":6691,"broad":6692,"meet":6693,"icult":6694,"construction":6695,"aval":6696,"Thom":6697,"coast":6698,"thought":6699,"Australian":6700,"Reg":6701,"miles":6702,"pair":6703,"find":6704,"far":6705,"Qu":6706,"earli":6707,"odes":6708,"enced":6709,"pain":6710,"does":6711,"born":6712,"impro":6713,"rain":6714,"stage":6715,"David":6716,"got":6717,"entire":6718,"Michael":6719,"Rich":6720,"San":6721,"ission":6722,"ators":6723,"young":6724,"special":6725,"route":6726,"Med":6727,"relation":6728,"conom":6729,"decided":6730,"women":6731,"conne":6732,"acc":6733,"Bill":6734,"You":6735,"ivil":6736,"case":6737,"Part":6738,"ible":6739,"80":6740,"started":6741,"caused":6742,"ances":6743,"general":6744,"ho":6745,"playing":6746,"sell":6747,"features":6748,"aves":6749,"white":6750,"Sch":6751,"grow":6752,"once":6753,"House":6754,"tee":6755,"isted":6756,"eventually":6757,"pat":6758,"ample":6759,"Fin":6760,"manag":6761,"host":6762,"Lu":6763,"Royal":6764,"sold":6765,"stant":6766,"feet":6767,"ald":6768,"added":6769,"modern":6770,"located":6771,"opened":6772,"termin":6773,"ring":6774,"Hist":6775,"quadron":6776,"itar":6777,"base":6778,"idence":6779,"ampionship":6780,"inj":6781,"My":6782,"Po":6783,"ife":6784,"adv":6785,"Some":6786,"vari":6787,"ensive":6788,"disc":6789,"Ital":6790,"Mal":6791,"peak":6792,"instead":6793,"theast":6794,"Don":6795,"clos":6796,"section":6797,"hon":6798,"Black":6799,"important":6800,"current":6801,"cret":6802,"Music":6803,"utes":6804,"Ber":6805,"Comp":6806,"cross":6807,"moun":6808,"Bel":6809,"ata":6810,"completed":6811,"ination":6812,"possible":6813,"urb":6814,"ocial":6815,"ends":6816,"worked":6817,"yn":6818,"els":6819,"oney":6820,"cogn":6821,"ying":6822,"others":6823,"don":6824,"cause":6825,"population":6826,"audi":6827,"era":6828,"free":6829,"tre":6830,"Hol":6831,"2004":6832,"fig":6833,"pred":6834,"mater":6835,"lled":6836,"pie":6837,"31":6838,"guns":6839,"leading":6840,"oted":6841,"Ab":6842,"loss":6843,"typ":6844,"rather":6845,"quest":6846,"behind":6847,"scri":6848,"church":6849,"dle":6850,"ches":6851,"upon":6852,"ceed":6853,"70":6854,"Robert":6855,"pract":6856,"forced":6857,"lie":6858,"lack":6859,"comment":6860,"amb":6861,"invest":6862,"Vi":6863,"alk":6864,"mother":6865,"heavy":6866,"2015":6867,"France":6868,"ays":6869,"ino":6870,"Cent":6871,"fif":6872,"know":6873,"NA":6874,"vill":6875,"ming":6876,"ecut":6877,"Act":6878,"Russ":6879,"subsequ":6880,"party":6881,"School":6882,"respect":6883,"Cr":6884,"35":6885,"proble":6886,"difficult":6887,"reve":6888,"novel":6889,"accept":6890,"human":6891,"working":6892,"Wash":6893,"separ":6894,"hard":6895,"associ":6896,"joined":6897,"term":6898,"weeks":6899,"Ham":6900,"scene":6901,"coll":6902,"originally":6903,"Henry":6904,"avail":6905,"pression":6906,"Em":6907,"asing":6908,"Ale":6909,"ories":6910,"Battle":6911,"angu":6912,"almost":6913,"spir":6914,"ties":6915,"inst":6916,"damage":6917,"188":6918,"scored":6919,"gar":6920,"allowed":6921,"mass":6922,"ids":6923,"fourth":6924,"Best":6925,"approach":6926,"Spe":6927,"ival":6928,"igned":6929,"ament":6930,"ready":6931,"provided":6932,"Fir":6933,"engine":6934,"Red":6935,"Port":6936,"drop":6937,"lower":6938,"Mil":6939,"Vir":6940,"claimed":6941,"goal":6942,"ope":6943,"cup":6944,"Dan":6945,"super":6946,"TV":6947,"Paul":6948,"wanted":6949,"500":6950,"regular":6951,"Mor":6952,"employ":6953,"brought":6954,"Cour":6955,"Que":6956,"nat":6957,"Mac":6958,"cell":6959,"compan":6960,"ula":6961,"tradition":6962,"aps":6963,"individ":6964,"Fran":6965,"featured":6966,"bal":6967,"least":6968,"laun":6969,"hest":6970,"President":6971,"wife":6972,"aut":6973,"Gl":6974,"econom":6975,"soon":6976,"towards":6977,"reek":6978,"business":6979,"region":6980,"average":6981,"passed":6982,"tempor":6983,"runs":6984,"cred":6985,"court":6986,"recogn":6987,"Washington":6988,"Play":6989,"cts":6990,"critics":6991,"western":6992,"counter":6993,"estim":6994,"azine":6995,"quick":6996,"redu":6997,"186":6998,"either":6999,"defe":7000,"office":7001,"plann":7002,"contract":7003,"profess":7004,"emy":7005,"forms":7006,"sour":7007,"Res":7008,"rail":7009,"uel":7010,"troops":7011,"Angel":7012,"example":7013,"leng":7014,"nomin":7015,"Other":7016,"icated":7017,"nia":7018,"foc":7019,"ades":7020,"mult":7021,"dou":7022,"finished":7023,"rid":7024,"Je":7025,"ico":7026,"army":7027,"hom":7028,"scre":7029,"shot":7030,"rul":7031,"asy":7032,"osp":7033,"2003":7034,"uk":7035,"Despite":7036,"mun":7037,"concl":7038,"mal":7039,"Follow":7040,"ials":7041,"circ":7042,"unk":7043,"Game":7044,"cycl":7045,"generally":7046,"ills":7047,"condu":7048,"whe":7049,"proper":7050,"det":7051,"fre":7052,"anti":7053,"ha":7054,"ply":7055,"aper":7056,"bes":7057,"fed":7058,"sea":7059,"Colle":7060,"cert":7061,"compl":7062,"events":7063,"length":7064,"believed":7065,"First":7066,"keep":7067,"particip":7068,"Following":7069,"Cup":7070,"Star":7071,"aled":7072,"parts":7073,"tic":7074,"Mary":7075,"ius":7076,"scen":7077,"fund":7078,"ping":7079,"replaced":7080,"tor":7081,"nine":7082,"ention":7083,"victory":7084,"bound":7085,"designed":7086,"45":7087,"cially":7088,"island":7089,"75":7090,"Mer":7091,"Dep":7092,"available":7093,"iction":7094,"ological":7095,"official":7096,"involved":7097,"itor":7098,"sele":7099,"hours":7100,"Lou":7101,"Two":7102,"conc":7103,"evol":7104,"European":7105,"opening":7106,"hab":7107,"ta":7108,"president":7109,"prison":7110,"ports":7111,"stop":7112,"ential":7113,"Sun":7114,"hous":7115,"asked":7116,"bri":7117,"stone":7118,"tel":7119,"turned":7120,"istic":7121,"execut":7122,"certain":7123,"cal":7124,"erous":7125,"comes":7126,"exist":7127,"ville":7128,"director":7129,"nd":7130,"Roman":7131,"saying":7132,"threat":7133,"2000":7134,"commit":7135,"appearance":7136,"Route":7137,"park":7138,"love":7139,"ighest":7140,"watch":7141,"Mid":7142,"highway":7143,"minutes":7144,"largest":7145,"southern":7146,"ount":7147,"writer":7148,"Scott":7149,"sil":7150,"survi":7151,"taking":7152,"ize":7153,"ishing":7154,"mir":7155,"commer":7156,"ublic":7157,"going":7158,"Do":7159,"Church":7160,"From":7161,"highest":7162,"2001":7163,"earlier":7164,"initially":7165,"Sing":7166,"training":7167,"Atl":7168,"vice":7169,"percent":7170,"particularly":7171,"Val":7172,"lear":7173,"bit":7174,"White":7175,"ership":7176,"Mart":7177,"90":7178,"lying":7179,"Mag":7180,"graphy":7181,"ordered":7182,"educ":7183,"Navy":7184,"box":7185,"assist":7186,"must":7187,"pot":7188,"Charles":7189,"issue":7190,"Kingdom":7191,"Off":7192,"aj":7193,"signed":7194,"hib":7195,"weak":7196,"thus":7197,"ateg":7198,"pond":7199,"pers":7200,"But":7201,"Hall":7202,"Thomas":7203,"central":7204,"tries":7205,"studio":7206,"social":7207,"maintain":7208,"ency":7209,"speed":7210,"ape":7211,"uture":7212,"praised":7213,"za":7214,"ification":7215,"pected":7216,"International":7217,"AA":7218,"Dis":7219,"alifor":7220,"gress":7221,"date":7222,"Smith":7223,"bill":7224,"langu":7225,"bow":7226,"units":7227,"northern":7228,"ception":7229,"reason":7230,"Cam":7231,"increased":7232,"Virgin":7233,"deal":7234,"hurricane":7235,"past":7236,"2002":7237,"relig":7238,"Pal":7239,"vin":7240,"research":7241,"rac":7242,"Bur":7243,"depart":7244,"type":7245,"Bay":7246,"stry":7247,"via":7248,"meas":7249,"deli":7250,"Du":7251,"Canada":7252,"pay":7253,"rian":7254,"commission":7255,"Califor":7256,"agon":7257,"fantry":7258,"Pri":7259,"Sam":7260,"Rock":7261,"hol":7262,"mean":7263,"immedi":7264,"Bro":7265,"Ho":7266,"ayed":7267,"omer":7268,"daugh":7269,"acqu":7270,"ilities":7271,"imin":7272,"Peter":7273,"relationship":7274,"Sen":7275,"Richard":7276,"pressed":7277,"bomb":7278,"Indian":7279,"Ben":7280,"Mi":7281,"independ":7282,"Alex":7283,"nel":7284,"better":7285,"told":7286,"usually":7287,"sat":7288,"Sal":7289,"winds":7290,"California":7291,"enough":7292,"states":7293,"Sk":7294,"icket":7295,"Union":7296,"aring":7297,"sed":7298,"Court":7299,"rup":7300,"positive":7301,"jour":7302,"God":7303,"Island":7304,"concern":7305,"sal":7306,"ston":7307,"Brown":7308,"spent":7309,"ume":7310,"ference":7311,"phys":7312,"according":7313,"above":7314,"appointed":7315,"Tom":7316,"arily":7317,"outside":7318,"tion":7319,"Ap":7320,"films":7321,"Great":7322,"feel":7323,"anks":7324,"Award":7325,"Str":7326,"icle":7327,"football":7328,"Cong":7329,"previously":7330,"accoun":7331,"responsi":7332,"quare":7333,"lay":7334,"mur":7335,"bird":7336,"ener":7337,"active":7338,"contribut":7339,"load":7340,"Associ":7341,"Company":7342,"recording":7343,"standing":7344,"NY":7345,"defin":7346,"usion":7347,"access":7348,"failed":7349,"alion":7350,"ems":7351,"reng":7352,"required":7353,"occup":7354,"elements":7355,"Germany":7356,"sey":7357,"Vict":7358,"ken":7359,"187":7360,"overnor":7361,"ga":7362,"Ter":7363,"treat":7364,"atin":7365,"directed":7366,"Sou":7367,"reviews":7368,"viol":7369,"Mark":7370,"India":7371,"gir":7372,"ique":7373,"interview":7374,"word":7375,"ida":7376,"groups":7377,"itself":7378,"ometimes":7379,"Christian":7380,"III":7381,"give":7382,"aters":7383,"vert":7384,"reme":7385,"inner":7386,"despite":7387,"thod":7388,"bour":7389,"respond":7390,"score":7391,"Frank":7392,"prob":7393,"La":7394,"Times":7395,"Sim":7396,"onto":7397,"UK":7398,"soldi":7399,"ns":7400,"Ke":7401,"perform":7402,"idea":7403,"script":7404,"beginning":7405,"bi":7406,"ministr":7407,"Cast":7408,"space":7409,"College":7410,"introduced":7411,"happ":7412,"streng":7413,"igan":7414,"frequ":7415,"sus":7416,"flight":7417,"block":7418,"transfer":7419,"whose":7420,"ept":7421,"ault":7422,"priv":7423,"Mex":7424,"ication":7425,"Gold":7426,"ening":7427,"Jer":7428,"Tri":7429,"anal":7430,"Western":7431,"prevent":7432,"Hill":7433,"tom":7434,"edy":7435,"league":7436,"cul":7437,"changes":7438,"ases":7439,"ara":7440,"brother":7441,"recent":7442,"defeated":7443,"Bu":7444,"conf":7445,"pil":7446,"Pre":7447,"Sovi":7448,"sch":7449,"gold":7450,"election":7451,"berg":7452,"additional":7453,"jud":7454,"future":7455,"appl":7456,"Span":7457,"Grand":7458,"whom":7459,"poor":7460,"international":7461,"Met":7462,"photo":7463,"structure":7464,"Awards":7465,"exten":7466,"native":7467,"sem":7468,"center":7469,"corpor":7470,"changed":7471,"argu":7472,"evidence":7473,"Force":7474,"quickly":7475,"33":7476,"Day":7477,"already":7478,"radio":7479,"specific":7480,"market":7481,"river":7482,"That":7483,"ben":7484,"situ":7485,"umb":7486,"coach":7487,"atory":7488,"material":7489,"aint":7490,"Most":7491,"pet":7492,"emp":7493,"civil":7494,"agreed":7495,"arrived":7496,"dies":7497,"Britain":7498,"ctive":7499,"lies":7500,"itz":7501,"staff":7502,"slow":7503,"useum":7504,"likely":7505,"study":7506,"decision":7507,"Chin":7508,"Mill":7509,"lyr":7510,"course":7511,"Film":7512,"subject":7513,"spr":7514,"ded":7515,"hop":7516,"fleet":7517,"money":7518,"limited":7519,"might":7520,"sometimes":7521,"espe":7522,"Pac":7523,"female":7524,"surface":7525,"response":7526,"names":7527,"pan":7528,"icted":7529,"food":7530,"magazine":7531,"actions":7532,"Later":7533,"Victor":7534,"especially":7535,"estimated":7536,"Championship":7537,"flow":7538,"nation":7539,"36":7540,"carried":7541,"flood":7542,"bell":7543,"ples":7544,"broadcast":7545,"Over":7546,"Di":7547,"consider":7548,"Pat":7549,"liament":7550,"ena":7551,"community":7552,"worth":7553,"ror":7554,"guitar":7555,"shows":7556,"bot":7557,"prepar":7558,"paren":7559,"listed":7560,"uded":7561,"rate":7562,"plant":7563,"text":7564,"scenes":7565,"yl":7566,"size":7567,"eastern":7568,"37":7569,"musical":7570,"1999":7571,"ises":7572,"venue":7573,"remaining":7574,"isl":7575,"arrison":7576,"minor":7577,"related":7578,"division":7579,"Early":7580,"emer":7581,"Los":7582,"personal":7583,"natural":7584,"becoming":7585,"larger":7586,"latter":7587,"Virginia":7588,"media":7589,"favor":7590,"entered":7591,"object":7592,"police":7593,"suit":7594,"yard":7595,"rights":7596,"doc":7597,"summer":7598,"approxim":7599,"burg":7600,"pressure":7601,"teams":7602,"married":7603,"suggested":7604,"brief":7605,"liter":7606,"Year":7607,"adap":7608,"arrang":7609,"Just":7610,"investig":7611,"iter":7612,"surround":7613,"mor":7614,"kil":7615,"establish":7616,"daughter":7617,"tax":7618,"ari":7619,"exper":7620,"Jackson":7621,"Second":7622,"students":7623,"Ty":7624,"temporary":7625,"tons":7626,"38":7627,"effects":7628,"Tex":7629,"prior":7630,"woman":7631,"fit":7632,"Chic":7633,"Tour":7634,"Cal":7635,"Fle":7636,"episodes":7637,"If":7638,"Flor":7639,"clim":7640,"lymp":7641,"Louis":7642,"sett":7643,"destroyed":7644,"winning":7645,"avo":7646,"irth":7647,"32":7648,"49":7649,"Aust":7650,"leaving":7651,"mode":7652,"ny":7653,"Spanish":7654,"Green":7655,"Olymp":7656,"sons":7657,"viron":7658,"selves":7659,"tracks":7660,"join":7661,"equip":7662,"Club":7663,"Lord":7664,"vie":7665,"reli":7666,"fail":7667,"mocr":7668,"igade":7669,"provide":7670,"idents":7671,"relative":7672,"ander":7673,"Che":7674,"create":7675,"polic":7676,"territ":7677,"aries":7678,"intended":7679,"qual":7680,"spo":7681,"proposed":7682,"influence":7683,"captured":7684,"big":7685,"overall":7686,"ili":7687,"Party":7688,"verse":7689,"Im":7690,"distr":7691,"fully":7692,"moving":7693,"burn":7694,"running":7695,"Rob":7696,"artment":7697,"Super":7698,"occas":7699,"Soviet":7700,"supported":7701,"ato":7702,"lot":7703,"Association":7704,"thers":7705,"quarter":7706,"escap":7707,"abs":7708,"purch":7709,"Del":7710,"fell":7711,"mach":7712,"expected":7713,"han":7714,"ba":7715,"Chicago":7716,"nearly":7717,"forward":7718,"pread":7719,"Many":7720,"syn":7721,"ires":7722,"Chinese":7723,"Love":7724,"Lo":7725,"helped":7726,"Oper":7727,"movement":7728,"1998":7729,"stra":7730,"secut":7731,"bring":7732,"mixed":7733,"awarded":7734,"marked":7735,"Song":7736,"commercial":7737,"bey":7738,"nu":7739,"Council":7740,"closed":7741,"issued":7742,"dy":7743,"consist":7744,"experience":7745,"185":7746,"Ze":7747,"dark":7748,"Go":7749,"Record":7750,"stars":7751,"cit":7752,"fish":7753,"Edward":7754,"planned":7755,"dead":7756,"phen":7757,"Enter":7758,"bility":7759,"34":7760,"300":7761,"Kore":7762,"pow":7763,"legal":7764,"done":7765,"hood":7766,"joy":7767,"breed":7768,"iple":7769,"operation":7770,"fans":7771,"longer":7772,"Hu":7773,"wing":7774,"language":7775,"bon":7776,"attract":7777,"higher":7778,"dig":7779,"increasing":7780,"compared":7781,"bad":7782,"deep":7783,"leader":7784,"lor":7785,"touch":7786,"cele":7787,"1st":7788,"olk":7789,"Back":7790,"approximately":7791,"living":7792,"print":7793,"Bal":7794,"feature":7795,"Johnson":7796,"intens":7797,"Art":7798,"temper":7799,"fifth":7800,"themselves":7801,"ience":7802,"Ir":7803,"History":7804,"screen":7805,"Pacific":7806,"bury":7807,"producer":7808,"mostly":7809,"icles":7810,"48":7811,"ams":7812,"operations":7813,"rica":7814,"Billboard":7815,"wa":7816,"cu":7817,"think":7818,"defeat":7819,"orial":7820,"remains":7821,"Cro":7822,"chall":7823,"finan":7824,"Under":7825,"weap":7826,"appears":7827,"mitted":7828,"soldiers":7829,"aught":7830,"buildings":7831,"Mur":7832,"whether":7833,"weight":7834,"MS":7835,"probably":7836,"Squadron":7837,"plot":7838,"ked":7839,"ender":7840,"extended":7841,"Arch":7842,"copies":7843,"spired":7844,"complex":7845,"stream":7846,"heav":7847,"battles":7848,"roll":7849,"1997":7850,"voice":7851,"Since":7852,"pose":7853,"Tor":7854,"transport":7855,"shoot":7856,"lyrics":7857,"Queen":7858,"portr":7859,"deb":7860,"Atlantic":7861,"igr":7862,"mel":7863,"affe":7864,"fill":7865,"ert":7866,"ospital":7867,"los":7868,"Rad":7869,"FA":7870,"jected":7871,"suffered":7872,"ban":7873,"really":7874,"Big":7875,"countries":7876,"39":7877,"andon":7878,"carri":7879,"boy":7880,"cm":7881,"Lake":7882,"Tur":7883,"Test":7884,"Law":7885,"cting":7886,"Sever":7887,"demand":7888,"immediately":7889,"includes":7890,"Florida":7891,"Sci":7892,"health":7893,"cis":7894,"Both":7895,"issues":7896,"capital":7897,"goals":7898,"request":7899,"rich":7900,"Sea":7901,"Jim":7902,"colon":7903,"Jew":7904,"47":7905,"visit":7906,"private":7907,"Mat":7908,"amed":7909,"Leg":7910,"manager":7911,"officers":7912,"Bet":7913,"Fort":7914,"flag":7915,"target":7916,"ultim":7917,"Ot":7918,"leave":7919,"location":7920,"mat":7921,"removed":7922,"gas":7923,"aging":7924,"yards":7925,"bs":7926,"ado":7927,"flict":7928,"Trans":7929,"fast":7930,"expand":7931,"rd":7932,"Station":7933,"rat":7934,"increase":7935,"subsequently":7936,"Texas":7937,"mic":7938,"China":7939,"portion":7940,"birth":7941,"status":7942,"Mr":7943,"offered":7944,"ging":7945,"Old":7946,"Town":7947,"plans":7948,"always":7949,"Another":7950,"upper":7951,"confir":7952,"Studi":7953,"services":7954,"attacks":7955,"Mel":7956,"vey":7957,"ously":7958,"problems":7959,"evolution":7960,"How":7961,"iser":7962,"aker":7963,"reser":7964,"mas":7965,"shire":7966,"demon":7967,"instr":7968,"tainment":7969,"Earth":7970,"twent":7971,"habit":7972,"terms":7973,"forts":7974,"stitut":7975,"carry":7976,"aily":7977,"professional":7978,"something":7979,"phy":7980,"village":7981,"Boy":7982,"administr":7983,"takes":7984,"Pan":7985,"iles":7986,"contr":7987,"orning":7988,"castle":7989,"majority":7990,"Emp":7991,"RA":7992,"discovered":7993,"Bra":7994,"discover":7995,"Rail":7996,"Wood":7997,"neg":7998,"Center":7999,"vironment":8000,"mouth":8001,"job":8002,"makes":8003,"ranked":8004,"Canadian":8005,"Bow":8006,"cean":8007,"composed":8008,"assigned":8009,"beat":8010,"minute":8011,"Africa":8012,"adop":8013,"damaged":8014,"concept":8015,"oph":8016,"elected":8017,"ka":8018,"uries":8019,"otion":8020,"meeting":8021,"zz":8022,"adium":8023,"initial":8024,"ider":8025,"chester":8026,"atives":8027,"Its":8028,"onna":8029,"nes":8030,"ulated":8031,"DV":8032,"olic":8033,"individual":8034,"Russian":8035,"Highway":8036,"revealed":8037,"Van":8038,"itect":8039,"ti":8040,"raised":8041,"46":8042,"giving":8043,"inspired":8044,"Sir":8045,"ails":8046,"lived":8047,"mist":8048,"yet":8049,"necess":8050,"plays":8051,"attacked":8052,"Carol":8053,"inent":8054,"associated":8055,"Hot":8056,"heart":8057,"Hal":8058,"Kent":8059,"respectively":8060,"Central":8061,"grand":8062,"Martin":8063,"rout":8064,"actor":8065,"uter":8066,"anch":8067,"1995":8068,"numerous":8069,"needed":8070,"cers":8071,"Ver":8072,"Angeles":8073,"ulf":8074,"veh":8075,"stitute":8076,"Francis":8077,"cand":8078,"nature":8079,"2nd":8080,"launched":8081,"friends":8082,"impact":8083,"pool":8084,"Cle":8085,"domin":8086,"constructed":8087,"scient":8088,"stitution":8089,"conditions":8090,"step":8091,"distribut":8092,"occurred":8093,"attempted":8094,"Cy":8095,"uments":8096,"contains":8097,"tur":8098,"Bob":8099,"books":8100,"shown":8101,"information":8102,"ech":8103,"estival":8104,"exam":8105,"Congress":8106,"sales":8107,"uals":8108,"secur":8109,"ications":8110,"struction":8111,"piece":8112,"singer":8113,"critical":8114,"depression":8115,"Ru":8116,"Mont":8117,"Prince":8118,"Group":8119,"2016":8120,"whole":8121,"19th":8122,"dev":8123,"kind":8124,"Not":8125,"premi":8126,"1996":8127,"1950":8128,"mom":8129,"Fer":8130,"ioned":8131,"Empire":8132,"Out":8133,"cere":8134,"referred":8135,"ipp":8136,"marri":8137,"letter":8138,"earned":8139,"Produ":8140,"produce":8141,"bio":8142,"vic":8143,"Camp":8144,"Jose":8145,"vention":8146,"selected":8147,"amount":8148,"ski":8149,"Penn":8150,"fighting":8151,"umed":8152,"render":8153,"houses":8154,"distin":8155,"gain":8156,"numbers":8157,"inch":8158,"smaller":8159,"resulted":8160,"advan":8161,"finally":8162,"Sto":8163,"revol":8164,"chief":8165,"bank":8166,"wound":8167,"unit":8168,"grant":8169,"slight":8170,"Italian":8171,"1994":8172,"bul":8173,"celebr":8174,"captain":8175,"ellow":8176,"industry":8177,"words":8178,"largely":8179,"jun":8180,"Gar":8181,"Sol":8182,"coup":8183,"DVD":8184,"oil":8185,"Rh":8186,"ify":8187,"Corps":8188,"commented":8189,"ordin":8190,"55":8191,"dol":8192,"sched":8193,"Eli":8194,"Crit":8195,"gent":8196,"audience":8197,"izing":8198,"unable":8199,"acting":8200,"notes":8201,"spl":8202,"ift":8203,"traditional":8204,"trade":8205,"education":8206,"artist":8207,"legisl":8208,"iff":8209,"atest":8210,"positions":8211,"imm":8212,"directly":8213,"Michigan":8214,"Long":8215,"lif":8216,"improve":8217,"aland":8218,"Final":8219,"double":8220,"refused":8221,"Command":8222,"Viet":8223,"mos":8224,"180":8225,"attention":8226,"blood":8227,"sister":8228,"lock":8229,"ows":8230,"primary":8231,"dro":8232,"lav":8233,"method":8234,"secret":8235,"horse":8236,"below":8237,"newsp":8238,"quarters":8239,"ump":8240,"royal":8241,"ighter":8242,"achi":8243,"alle":8244,"web":8245,"Er":8246,"Wales":8247,"Hel":8248,"officer":8249,"spect":8250,"male":8251,"hero":8252,"train":8253,"Mass":8254,"declared":8255,"gradu":8256,"install":8257,"utch":8258,"enjoy":8259,"science":8260,"Sar":8261,"performances":8262,"hi":8263,"meant":8264,"Gi":8265,"va":8266,"religious":8267,"More":8268,"Republic":8269,"indic":8270,"commander":8271,"44":8272,"standard":8273,"undred":8274,"conflict":8275,"middle":8276,"ray":8277,"matches":8278,"Cath":8279,"Ox":8280,"owned":8281,"Care":8282,"pul":8283,"repe":8284,"Sup":8285,"orders":8286,"regard":8287,"ady":8288,"oo":8289,"mes":8290,"Democr":8291,"rated":8292,"Acad":8293,"records":8294,"wear":8295,"ipal":8296,"Team":8297,"die":8298,"thr":8299,"model":8300,"Lin":8301,"district":8302,"kes":8303,"progress":8304,"northeast":8305,"ya":8306,"uten":8307,"serious":8308,"competition":8309,"Lit":8310,"ett":8311,"ranch":8312,"Mem":8313,"Major":8314,"antasy":8315,"severe":8316,"session":8317,"drum":8318,"vocals":8319,"oft":8320,"abandon":8321,"Minister":8322,"viewers":8323,"Several":8324,"rapid":8325,"1992":8326,"nar":8327,"Tre":8328,"orm":8329,"bing":8330,"miral":8331,"document":8332,"wick":8333,"Chris":8334,"centre":8335,"atre":8336,"energy":8337,"65":8338,"cam":8339,"cases":8340,"Fore":8341,"forest":8342,"traff":8343,"continue":8344,"dut":8345,"atal":8346,"thes":8347,"ona":8348,"iled":8349,"Four":8350,"theme":8351,"Zealand":8352,"Sum":8353,"Fox":8354,"Time":8355,"determin":8356,"aware":8357,"ishop":8358,"itation":8359,"Bre":8360,"favour":8361,"Soci":8362,"writers":8363,"combat":8364,"Dar":8365,"highly":8366,"nearby":8367,"Mexico":8368,"separate":8369,"kin":8370,"log":8371,"urt":8372,"adult":8373,"effort":8374,"Wall":8375,"arts":8376,"metal":8377,"African":8378,"McC":8379,"culture":8380,"incorpor":8381,"rossing":8382,"osen":8383,"attended":8384,"reduced":8385,"annual":8386,"presented":8387,"20th":8388,"edition":8389,"omen":8390,"Haw":8391,"ogue":8392,"practice":8393,"1930":8394,"except":8395,"divided":8396,"rang":8397,"Dou":8398,"ria":8399,"levels":8400,"means":8401,"neigh":8402,"girl":8403,"contact":8404,"tried":8405,"umn":8406,"thick":8407,"oud":8408,"ole":8409,"movie":8410,"Madonna":8411,"stating":8412,"ands":8413,"Stone":8414,"architect":8415,"twenty":8416,"400":8417,"accepted":8418,"1993":8419,"responsible":8420,"1991":8421,"maxim":8422,"Fed":8423,"SA":8424,"marriage":8425,"ero":8426,"pick":8427,"serve":8428,"Moun":8429,"fru":8430,"bled":8431,"advance":8432,"aired":8433,"iding":8434,"ding":8435,"quality":8436,"candid":8437,"seem":8438,"direction":8439,"innings":8440,"charge":8441,"eve":8442,"rein":8443,"95":8444,"rating":8445,"Scotland":8446,"wealth":8447,"pit":8448,"pret":8449,"schools":8450,"Jones":8451,"psy":8452,"sides":8453,"illery":8454,"passing":8455,"Their":8456,"ieve":8457,"network":8458,"Infantry":8459,"Tim":8460,"ression":8461,"rare":8462,"lan":8463,"rif":8464,"Book":8465,"managed":8466,"function":8467,"Simp":8468,"award":8469,"Department":8470,"hus":8471,"lam":8472,"asion":8473,"college":8474,"efforts":8475,"Rol":8476,"ites":8477,"Ba":8478,"Fre":8479,"Greek":8480,"resulting":8481,"economic":8482,"paid":8483,"mountain":8484,"ram":8485,"murder":8486,"da":8487,"meaning":8488,"utenant":8489,"dem":8490,"dropped":8491,"iving":8492,"showed":8493,"guest":8494,"Kar":8495,"inside":8496,"Three":8497,"Men":8498,"Americ":8499,"voy":8500,"environment":8501,"Sur":8502,"osaur":8503,"cyclone":8504,"dan":8505,"peror":8506,"bly":8507,"allowing":8508,"hall":8509,"chap":8510,"Bost":8511,"cust":8512,"kept":8513,"morning":8514,"Creek":8515,"waters":8516,"Hor":8517,"nest":8518,"controver":8519,"Games":8520,"cin":8521,"pal":8522,"begins":8523,"sec":8524,"ceremon":8525,"winter":8526,"arrest":8527,"variety":8528,"settle":8529,"Commit":8530,"ceeded":8531,"thur":8532,"Mic":8533,"Up":8534,"Williams":8535,"schol":8536,"Service":8537,"inches":8538,"Alli":8539,"ores":8540,"cus":8541,"electric":8542,"BA":8543,"squadron":8544,"farm":8545,"airs":8546,"ami":8547,"activity":8548,"continues":8549,"titled":8550,"Post":8551,"drew":8552,"path":8553,"Records":8554,"Stan":8555,"rule":8556,"Far":8557,"Will":8558,"pitch":8559,"write":8560,"rot":8561,"dance":8562,"isation":8563,"symb":8564,"News":8565,"broke":8566,"ky":8567,"aven":8568,"SR":8569,"founded":8570,"source":8571,"Foot":8572,"restr":8573,"Parliament":8574,"Oh":8575,"metres":8576,"sole":8577,"parents":8578,"hundred":8579,"phere":8580,"Ire":8581,"78":8582,"1942":8583,"starting":8584,"concert":8585,"conducted":8586,"oon":8587,"your":8588,"ott":8589,"Egy":8590,"vised":8591,"strugg":8592,"presence":8593,"ounds":8594,"excl":8595,"64":8596,"ada":8597,"Bridge":8598,"Society":8599,"IS":8600,"plat":8601,"spot":8602,"Southern":8603,"crow":8604,"exhib":8605,"sequence":8606,"onic":8607,"Sil":8608,"iced":8609,"deliver":8610,"transferred":8611,"companies":8612,"Sat":8613,"things":8614,"eth":8615,"contrast":8616,"multiple":8617,"enemy":8618,"Arthur":8619,"Latin":8620,"Ram":8621,"pedo":8622,"selling":8623,"portun":8624,"sa":8625,"Ev":8626,"foreign":8627,"Committee":8628,"Hung":8629,"hu":8630,"Govern":8631,"collection":8632,"Georg":8633,"peaked":8634,"obtain":8635,"Captain":8636,"Cross":8637,"traffic":8638,"Joseph":8639,"content":8640,"recomm":8641,"ita":8642,"Oxford":8643,"mess":8644,"Like":8645,"becomes":8646,"Admiral":8647,"account":8648,"stories":8649,"Chief":8650,"loy":8651,"greater":8652,"vocal":8653,"thir":8654,"Den":8655,"scoring":8656,"PA":8657,"ito":8658,"calling":8659,"concluded":8660,"strength":8661,"Boston":8662,"federal":8663,"potential":8664,"41":8665,"attempts":8666,"Secret":8667,"Class":8668,"Harrison":8669,"relatively":8670,"Manchester":8671,"extens":8672,"76":8673,"Commission":8674,"sky":8675,"property":8676,"primarily":8677,"demonstr":8678,"birds":8679,"creation":8680,"fa":8681,"actually":8682,"sets":8683,"prise":8684,"observed":8685,"Egypt":8686,"financial":8687,"bles":8688,"Because":8689,"Before":8690,"animals":8691,"figure":8692,"Dire":8693,"Jeff":8694,"Battalion":8695,"Ken":8696,"stein":8697,"journal":8698,"repair":8699,"propos":8700,"Hurricane":8701,"Life":8702,"Swed":8703,"opportun":8704,"identified":8705,"42":8706,"tourn":8707,"olf":8708,"anna":8709,"poet":8710,"featuring":8711,"anger":8712,"withdraw":8713,"1944":8714,"ange":8715,"istics":8716,"scale":8717,"Dun":8718,"Little":8719,"mechan":8720,"85":8721,"situation":8722,"Fred":8723,"yer":8724,"prov":8725,"missed":8726,"Brad":8727,"annel":8728,"share":8729,"distance":8730,"150":8731,"versions":8732,"43":8733,"Gil":8734,"passeng":8735,"independent":8736,"extreme":8737,"resist":8738,"Ann":8739,"image":8740,"perial":8741,"thous":8742,"faced":8743,"BBC":8744,"slightly":8745,"lap":8746,"Paris":8747,"suppl":8748,"inking":8749,"inte":8750,"replac":8751,"cient":8752,"here":8753,"Series":8754,"collabor":8755,"Ca":8756,"concent":8757,"mob":8758,"torpedo":8759,"Line":8760,"Max":8761,"Wal":8762,"prop":8763,"color":8764,"colour":8765,"Pop":8766,"alleg":8767,"seconds":8768,"1990":8769,"trial":8770,"resh":8771,"vation":8772,"today":8773,"Bat":8774,"ki":8775,"ultimately":8776,"Histor":8777,"square":8778,"completely":8779,"Light":8780,"struck":8781,"tellig":8782,"proved":8783,"Croat":8784,"Vol":8785,"confirmed":8786,"maximum":8787,"behav":8788,"pack":8789,"naval":8790,"blue":8791,"sought":8792,"boat":8793,"cities":8794,"Gir":8795,"beth":8796,"Academy":8797,"1920":8798,"policy":8799,"Stephen":8800,"Museum":8801,"combined":8802,"master":8803,"1945":8804,"weather":8805,"cher":8806,"green":8807,"minim":8808,"serving":8809,"designated":8810,"1941":8811,"northwest":8812,"society":8813,"dise":8814,"mainly":8815,"border":8816,"Way":8817,"commissioned":8818,"officials":8819,"conver":8820,"Saint":8821,"din":8822,"astic":8823,"vessel":8824,"explained":8825,"influenced":8826,"illa":8827,"HL":8828,"ils":8829,"benef":8830,"powerful":8831,"batter":8832,"eval":8833,"alongside":8834,"CA":8835,"Lee":8836,"Brigade":8837,"bass":8838,"Entertainment":8839,"Italy":8840,"battleship":8841,"Week":8842,"Ob":8843,"visions":8844,"resol":8845,"ses":8846,"Americans":8847,"older":8848,"organization":8849,"Hy":8850,"ulations":8851,"gained":8852,"says":8853,"sources":8854,"mond":8855,"Spr":8856,"edge":8857,"successfully":8858,"lip":8859,"attend":8860,"orses":8861,"gency":8862,"Han":8863,"peace":8864,"background":8865,"industri":8866,"seg":8867,"seek":8868,"Regiment":8869,"princ":8870,"systems":8871,"Arab":8872,"ini":8873,"aga":8874,"capture":8875,"goti":8876,"Tod":8877,"ota":8878,"99":8879,"feed":8880,"adel":8881,"alone":8882,"ements":8883,"acu":8884,"artists":8885,"theory":8886,"nominated":8887,"aling":8888,"reaching":8889,"news":8890,"sust":8891,"promoted":8892,"dif":8893,"bud":8894,"stay":8895,"Avenue":8896,"elve":8897,"widely":8898,"problem":8899,"encour":8900,"Ireland":8901,"CD":8902,"SS":8903,"Middle":8904,"iano":8905,"sexual":8906,"husband":8907,"Live":8908,"results":8909,"invasion":8910,"brary":8911,"Fleet":8912,"smo":8913,"ols":8914,"travel":8915,"roads":8916,"Land":8917,"greatest":8918,"Os":8919,"vania":8920,"subsequent":8921,"offer":8922,"Bor":8923,"IV":8924,"albums":8925,"Mu":8926,"iron":8927,"arms":8928,"southeast":8929,"officially":8930,"Ray":8931,"tun":8932,"push":8933,"county":8934,"1989":8935,"sixth":8936,"Lie":8937,"fair":8938,"Wind":8939,"affected":8940,"Otto":8941,"Common":8942,"opin":8943,"1943":8944,"shell":8945,"spring":8946,"shortly":8947,"theless":8948,"armed":8949,"pilot":8950,"contest":8951,"expressed":8952,"causing":8953,"Victoria":8954,"doing":8955,"Mah":8956,"represented":8957,"MD":8958,"true":8959,"mind":8960,"reception":8961,"appearances":8962,"arent":8963,"Tropical":8964,"organized":8965,"aded":8966,"residents":8967,"defense":8968,"sense":8969,"Ry":8970,"core":8971,"pieces":8972,"capac":8973,"physical":8974,"arian":8975,"Catholic":8976,"tells":8977,"600":8978,"syl":8979,"seasons":8980,"laid":8981,"teach":8982,"Bus":8983,"dog":8984,"ansion":8985,"Valley":8986,"itude":8987,"negoti":8988,"intend":8989,"semb":8990,"hospital":8991,"floor":8992,"ufact":8993,"actors":8994,"growth":8995,"rey":8996,"bodies":8997,"ategory":8998,"icient":8999,"artillery":9000,"kg":9001,"avoid":9002,"Ash":9003,"77":9004,"pun":9005,"require":9006,"chair":9007,"Show":9008,"ached":9009,"Dutch":9010,"Though":9011,"3rd":9012,"fired":9013,"Top":9014,"focus":9015,"advant":9016,"visited":9017,"oul":9018,"Commun":9019,"Mountain":9020,"fellow":9021,"arg":9022,"weapons":9023,"Through":9024,"plement":9025,"inson":9026,"eas":9027,"ahead":9028,"atures":9029,"dition":9030,"Football":9031,"Good":9032,"vote":9033,"ares":9034,"Rog":9035,"Young":9036,"usual":9037,"Jul":9038,"marine":9039,"Hum":9040,"Tay":9041,"heavily":9042,"Kenn":9043,"ysis":9044,"ote":9045,"eigh":9046,"question":9047,"Gal":9048,"governor":9049,"Bul":9050,"Sub":9051,"1940":9052,"ingu":9053,"leaders":9054,"anta":9055,"1980s":9056,"Upon":9057,"Well":9058,"phil":9059,"pedition":9060,"apparent":9061,"spread":9062,"patter":9063,"student":9064,"ustr":9065,"studies":9066,"ronic":9067,"Def":9068,"wave":9069,"passes":9070,"kilomet":9071,"protest":9072,"ici":9073,"mile":9074,"sions":9075,"amber":9076,"Ele":9077,"executive":9078,"Ill":9079,"prominent":9080,"catch":9081,"agreement":9082,"setting":9083,"consisted":9084,"Daniel":9085,"debuted":9086,"cip":9087,"wit":9088,"condition":9089,"table":9090,"figures":9091,"rical":9092,"injury":9093,"defend":9094,"Bey":9095,"Home":9096,"equipment":9097,"begin":9098,"claims":9099,"believ":9100,"earth":9101,"ights":9102,"Of":9103,"rick":9104,"necessary":9105,"instrument":9106,"otes":9107,"istrict":9108,"66":9109,"matter":9110,"preser":9111,"Civil":9112,"graphic":9113,"negative":9114,"transl":9115,"Tele":9116,"arden":9117,"argued":9118,"dated":9119,"urban":9120,"glo":9121,"contemporary":9122,"Eliza":9123,"Tem":9124,"normal":9125,"returning":9126,"omy":9127,"opposed":9128,"Homer":9129,"Jon":9130,"lic":9131,"1970s":9132,"ube":9133,"rig":9134,"Main":9135,"Northern":9136,"pict":9137,"ani":9138,"famous":9139,"Ly":9140,"Pen":9141,"District":9142,"mut":9143,"deg":9144,"vor":9145,"maintained":9146,"deck":9147,"aces":9148,"1960s":9149,"frequently":9150,"couple":9151,"finish":9152,"kick":9153,"Dev":9154,"types":9155,"paper":9156,"von":9157,"acher":9158,"speech":9159,"Bond":9160,"mann":9161,"Ha":9162,"rum":9163,"TC":9164,"stations":9165,"activities":9166,"ij":9167,"criticized":9168,"sn":9169,"god":9170,"ockey":9171,"rect":9172,"toward":9173,"Marsh":9174,"machine":9175,"zy":9176,"heard":9177,"Ocean":9178,"Carolina":9179,"gam":9180,"reign":9181,"folk":9182,"drug":9183,"discuss":9184,"operated":9185,"occasion":9186,"tournament":9187,"acts":9188,"eye":9189,"reference":9190,"trees":9191,"else":9192,"planet":9193,"lers":9194,"Operation":9195,"citiz":9196,"ledge":9197,"senior":9198,"eway":9199,"coal":9200,"singles":9201,"1987":9202,"System":9203,"zer":9204,"medical":9205,"Scottish":9206,"worldwide":9207,"aspect":9208,"Government":9209,"trying":9210,"ano":9211,"achieve":9212,"1988":9213,"Writ":9214,"Colon":9215,"Field":9216,"awa":9217,"value":9218,"ker":9219,"Holly":9220,"territory":9221,"AC":9222,"heads":9223,"Governor":9224,"Kr":9225,"modif":9226,"ette":9227,"hands":9228,"holds":9229,"narr":9230,"zed":9231,"Background":9232,"sembly":9233,"rainfall":9234,"Jud":9235,"stre":9236,"Fantasy":9237,"treatment":9238,"historian":9239,"gate":9240,"horses":9241,"assault":9242,"Castle":9243,"96":9244,"views":9245,"imen":9246,"supply":9247,"honor":9248,"looking":9249,"championship":9250,"shap":9251,"accident":9252,"asket":9253,"crash":9254,"challeng":9255,"split":9256,"grew":9257,"university":9258,"mn":9259,"leaves":9260,"Short":9261,"therefore":9262,"Hard":9263,"chosen":9264,"incident":9265,"Duke":9266,"rael":9267,"ressed":9268,"Senate":9269,"shore":9270,"walls":9271,"gian":9272,"twice":9273,"reports":9274,"cance":9275,"stood":9276,"WW":9277,"offensive":9278,"Lew":9279,"Rod":9280,"Studios":9281,"consecut":9282,"esc":9283,"wounded":9284,"Polish":9285,"Bell":9286,"Dam":9287,"velopment":9288,"teenth":9289,"cou":9290,"escape":9291,"Eastern":9292,"steam":9293,"Mul":9294,"stock":9295,"acted":9296,"pursu":9297,"billion":9298,"prompt":9299,"rane":9300,"follows":9301,"Andrew":9302,"surrounding":9303,"manufact":9304,"launch":9305,"schedul":9306,"edom":9307,"oting":9308,"street":9309,"soundtrack":9310,"ucky":9311,"bat":9312,"editor":9313,"workers":9314,"Beat":9315,"contained":9316,"pton":9317,"decre":9318,"Christmas":9319,"Allied":9320,"fuel":9321,"degree":9322,"gal":9323,"Wel":9324,"herself":9325,"Mean":9326,"typically":9327,"Pennsyl":9328,"wart":9329,"uth":9330,"cies":9331,"servation":9332,"symp":9333,"Corn":9334,"tail":9335,"unknown":9336,"lives":9337,"Columb":9338,"rival":9339,"emphas":9340,"err":9341,"simply":9342,"Wilson":9343,"oration":9344,"fiction":9345,"ifying":9346,"Taylor":9347,"56":9348,"Down":9349,"dete":9350,"element":9351,"Joe":9352,"boats":9353,"regarded":9354,"drive":9355,"1986":9356,"railway":9357,"consecutive":9358,"Tech":9359,"currently":9360,"Head":9361,"casual":9362,"chance":9363,"chose":9364,"Fam":9365,"aud":9366,"Each":9367,"nothing":9368,"authority":9369,"adapt":9370,"cannot":9371,"Alexander":9372,"newly":9373,"growing":9374,"participated":9375,"cited":9376,"yle":9377,"throw":9378,"Bon":9379,"brown":9380,"Blue":9381,"isters":9382,"broken":9383,"roof":9384,"spirit":9385,"mentioned":9386,"strike":9387,"tree":9388,"creating":9389,"website":9390,"Ret":9391,"losing":9392,"newspaper":9393,"Storm":9394,"compar":9395,"grade":9396,"producers":9397,"adopted":9398,"extra":9399,"risk":9400,"capacity":9401,"experiment":9402,"advanced":9403,"disp":9404,"filming":9405,"What":9406,"ilies":9407,"advert":9408,"firm":9409,"imag":9410,"Festival":9411,"moment":9412,"Sound":9413,"oppon":9414,"clo":9415,"ola":9416,"Islands":9417,"Pennsylvania":9418,"opposition":9419,"door":9420,"ager":9421,"initi":9422,"Night":9423,"58":9424,"basis":9425,"oppos":9426,"sites":9427,"ables":9428,"council":9429,"Chart":9430,"chor":9431,"wel":9432,"plants":9433,"abandoned":9434,"fare":9435,"calls":9436,"azz":9437,"Liber":9438,"uce":9439,"oe":9440,"aved":9441,"Further":9442,"budget":9443,"illy":9444,"Reception":9445,"Mike":9446,"98":9447,"Irish":9448,"Ros":9449,"committee":9450,"phas":9451,"sections":9452,"tery":9453,"Bol":9454,"flying":9455,"inth":9456,"silver":9457,"tower":9458,"Harry":9459,"franch":9460,"bute":9461,"fly":9462,"homes":9463,"rush":9464,"umber":9465,"accompan":9466,"filmed":9467,"sail":9468,"Spain":9469,"otional":9470,"purpose":9471,"deploy":9472,"landing":9473,"Albert":9474,"encounter":9475,"Coast":9476,"Person":9477,"ners":9478,"wild":9479,"ounger":9480,"igg":9481,"sche":9482,"Ron":9483,"possibly":9484,"expansion":9485,"Jersey":9486,"auto":9487,"individuals":9488,"eration":9489,"apers":9490,"Pu":9491,"1990s":9492,"beyond":9493,"walk":9494,"lane":9495,"Square":9496,"measure":9497,"failure":9498,"killing":9499,"places":9500,"historical":9501,"multi":9502,"agg":9503,"Kel":9504,"draft":9505,"Origin":9506,"Sand":9507,"nick":9508,"sports":9509,"genus":9510,"1939":9511,"brid":9512,"paralle":9513,"ctic":9514,"intellig":9515,"occupied":9516,"ont":9517,"ques":9518,"achieved":9519,"believe":9520,"management":9521,"eds":9522,"Ven":9523,"roles":9524,"integr":9525,"Republ":9526,"Broad":9527,"Public":9528,"rooms":9529,"narrow":9530,"Elizabeth":9531,"Production":9532,"Israel":9533,"Sel":9534,"retired":9535,"Mir":9536,"wid":9537,"ko":9538,"ideas":9539,"Institute":9540,"perman":9541,"Si":9542,"seat":9543,"personnel":9544,"improved":9545,"hair":9546,"bom":9547,"ancy":9548,"1985":9549,"Due":9550,"disease":9551,"Doctor":9552,"briefly":9553,"Bart":9554,"Ul":9555,"Revolution":9556,"1968":9557,"gi":9558,"mounted":9559,"amin":9560,"effective":9561,"granted":9562,"Meanwhile":9563,"advantage":9564,"perfect":9565,"administration":9566,"kilometres":9567,"repeated":9568,"Republican":9569,"porters":9570,"Liver":9571,"Ten":9572,"infantry":9573,"Are":9574,"evacu":9575,"inf":9576,"hill":9577,"receive":9578,"turns":9579,"uff":9580,"Greg":9581,"rejected":9582,"crossing":9583,"iring":9584,"twelve":9585,"interchange":9586,"unique":9587,"gives":9588,"custom":9589,"rise":9590,"Jes":9591,"extensive":9592,"1970":9593,"Album":9594,"Clark":9595,"Ohio":9596,"leadership":9597,"52":9598,"Bud":9599,"avalry":9600,"experienced":9601,"iana":9602,"yst":9603,"straight":9604,"Cub":9605,"Sa":9606,"Ve":9607,"entr":9608,"champion":9609,"data":9610,"tend":9611,"zil":9612,"security":9613,"controlled":9614,"expanded":9615,"Board":9616,"Hon":9617,"NC":9618,"forming":9619,"abin":9620,"choice":9621,"Arm":9622,"describes":9623,"yellow":9624,"cé":9625,"iments":9626,"solo":9627,"note":9628,"fought":9629,"alty":9630,"afety":9631,"attribut":9632,"1984":9633,"Secretary":9634,"psych":9635,"iation":9636,"allows":9637,"explos":9638,"adelph":9639,"acquired":9640,"ivity":9641,"Rel":9642,"caught":9643,"sort":9644,"surrender":9645,"determined":9646,"animal":9647,"didn":9648,"lyn":9649,"credited":9650,"oma":9651,"ardi":9652,"kins":9653,"sac":9654,"Philadelph":9655,"families":9656,"Sher":9657,"Even":9658,"iday":9659,"vehicles":9660,"suggests":9661,"ike":9662,"800":9663,"oll":9664,"agan":9665,"venture":9666,"sle":9667,"ancient":9668,"titles":9669,"Gall":9670,"article":9671,"sand":9672,"Cambridge":9673,"mod":9674,"drama":9675,"guard":9676,"haps":9677,"Never":9678,"eyes":9679,"Georgia":9680,"burgh":9681,"88":9682,"comedy":9683,"acad":9684,"Hit":9685,"shark":9686,"commonly":9687,"seventh":9688,"iful":9689,"Philadelphia":9690,"nuclear":9691,"Es":9692,"Tro":9693,"prefer":9694,"holding":9695,"Ko":9696,"headquarters":9697,"powers":9698,"anning":9699,"connected":9700,"Also":9701,"authorities":9702,"labor":9703,"store":9704,"contain":9705,"restling":9706,"wise":9707,"attle":9708,"Kir":9709,"1967":9710,"Addition":9711,"islands":9712,"beaut":9713,"centuries":9714,"Point":9715,"DS":9716,"Chap":9717,"Ep":9718,"97":9719,"cultural":9720,"Russia":9721,"recently":9722,"120":9723,"ux":9724,"fields":9725,"protected":9726,"1980":9727,"FL":9728,"battalion":9729,"Among":9730,"estic":9731,"simple":9732,"umes":9733,"depict":9734,"Miss":9735,"Korean":9736,"turret":9737,"phone":9738,"Mos":9739,"Asia":9740,"ule":9741,"finds":9742,"Pers":9743,"iny":9744,"extr":9745,"Hay":9746,"Bas":9747,"Rose":9748,"wal":9749,"Nintend":9750,"hang":9751,"Ottoman":9752,"ounder":9753,"speak":9754,"Liverpool":9755,"Ka":9756,"reput":9757,"shop":9758,"Jun":9759,"erc":9760,"Rus":9761,"defence":9762,"singing":9763,"Lar":9764,"Nintendo":9765,"Ind":9766,"bands":9767,"cat":9768,"isa":9769,"existing":9770,"approved":9771,"aste":9772,"51":9773,"dollar":9774,"accompanied":9775,"Columbia":9776,"Burn":9777,"height":9778,"Jenn":9779,"Les":9780,"orche":9781,"entirely":9782,"Champion":9783,"touchdown":9784,"protect":9785,"containing":9786,"goes":9787,"MA":9788,"PC":9789,"scheduled":9790,"Jean":9791,"contributed":9792,"Prime":9793,"isers":9794,"conve":9795,"themes":9796,"Singap":9797,"analysis":9798,"sun":9799,"57":9800,"Lincol":9801,"Development":9802,"flooding":9803,"Lieutenant":9804,"Jewish":9805,"purchased":9806,"computer":9807,"provides":9808,"younger":9809,"Gulf":9810,"1983":9811,"performing":9812,"Brazil":9813,"prising":9814,"Op":9815,"awards":9816,"asketball":9817,"locations":9818,"headed":9819,"Mis":9820,"defensive":9821,"quite":9822,"aka":9823,"task":9824,"Die":9825,"mate":9826,"Office":9827,"outs":9828,"arrival":9829,"sport":9830,"Carey":9831,"anda":9832,"Radio":9833,"viewed":9834,"victim":9835,"engaged":9836,"End":9837,"1969":9838,"gather":9839,"resem":9840,"myth":9841,"Anderson":9842,"Francisco":9843,"filled":9844,"Singapore":9845,"ju":9846,"motion":9847,"People":9848,"intensity":9849,"illustr":9850,"1964":9851,"Order":9852,"expedition":9853,"formula":9854,"Lincoln":9855,"fresh":9856,"án":9857,"employed":9858,"cles":9859,"ceremony":9860,"philos":9861,"dedicated":9862,"54":9863,"ees":9864,"dry":9865,"Pet":9866,"Dark":9867,"joint":9868,"repl":9869,"Metro":9870,"Turn":9871,"HMS":9872,"etic":9873,"1914":9874,"structures":9875,"why":9876,"ura":9877,"Oli":9878,"sens":9879,"prepared":9880,"cock":9881,"Gro":9882,"1918":9883,"Disney":9884,"agement":9885,"Bank":9886,"ec":9887,"hydro":9888,"industrial":9889,"enge":9890,"motor":9891,"Walter":9892,"defined":9893,"recru":9894,"Six":9895,"1971":9896,"PlayStation":9897,"1982":9898,"charged":9899,"escort":9900,"closely":9901,"focused":9902,"consists":9903,"Brook":9904,"egg":9905,"drawn":9906,"1966":9907,"Lewis":9908,"1972":9909,"1979":9910,"Conference":9911,"product":9912,"Steve":9913,"Miller":9914,"protection":9915,"Brian":9916,"emb":9917,"comic":9918,"68":9919,"technology":9920,"izes":9921,"Blo":9922,"Mod":9923,"tact":9924,"piano":9925,"Sus":9926,"union":9927,"elimin":9928,"kee":9929,"cars":9930,"Byz":9931,"facilities":9932,"18th":9933,"iet":9934,"supporting":9935,"aly":9936,"preced":9937,"Once":9938,"recover":9939,"susp":9940,"criticism":9941,"strip":9942,"selection":9943,"rence":9944,"ilton":9945,"belong":9946,"Olympic":9947,"branch":9948,"uct":9949,"shooting":9950,"discus":9951,"visual":9952,"Emperor":9953,"advis":9954,"regions":9955,"Grant":9956,"ads":9957,"rear":9958,"1965":9959,"trail":9960,"Child":9961,"asc":9962,"Byzant":9963,"ries":9964,"earch":9965,"satis":9966,"tank":9967,"belief":9968,"atom":9969,"rupt":9970,"Railway":9971,"substant":9972,"hired":9973,"ii":9974,"receiving":9975,"knot":9976,"conference":9977,"ours":9978,"bac":9979,"94":9980,"Water":9981,"NHL":9982,"1975":9983,"recognized":9984,"opportunity":9985,"Kh":9986,"lb":9987,"display":9988,"correspond":9989,"possess":9990,"Summer":9991,"Tam":9992,"strengthen":9993,"notable":9994,"UN":9995,"iance":9996,"Jr":9997,"liber":9998,"trains":9999,"Hollywood":10000,"Bad":10001,"Loc":10002,"resident":10003,"Germans":10004,"composition":10005,"providing":10006,"agent":10007,"Only":10008,"tos":10009,"alternative":10010,"achu":10011,"ween":10012,"merch":10013,"rapidly":10014,"casualties":10015,"card":10016,"zen":10017,"exter":10018,"1974":10019,"desc":10020,"charts":10021,"Fall":10022,"Indu":10023,"Lan":10024,"southwest":10025,"Davis":10026,"inger":10027,"reaction":10028,"resc":10029,"1973":10030,"Cur":10031,"uan":10032,"Democratic":10033,"volume":10034,"steel":10035,"Pit":10036,"Serb":10037,"ES":10038,"digital":10039,"publication":10040,"ogy":10041,"67":10042,"abo":10043,"Dor":10044,"anth":10045,"shared":10046,"acks":10047,"constant":10048,"Rome":10049,"Daily":10050,"lake":10051,"unting":10052,"involve":10053,"Lind":10054,"Between":10055,"Lady":10056,"glass":10057,"rie":10058,"highlight":10059,"1976":10060,"missing":10061,"crimin":10062,"adding":10063,"economy":10064,"53":10065,"temperature":10066,"icial":10067,"label":10068,"IG":10069,"developing":10070,"Knight":10071,"intersection":10072,"reflect":10073,"Jour":10074,"inal":10075,"Naz":10076,"brand":10077,"Special":10078,"250":10079,"Mun":10080,"secondary":10081,"Mount":10082,"mast":10083,"emic":10084,"isol":10085,"nic":10086,"inspir":10087,"letters":10088,"IA":10089,"formal":10090,"getting":10091,"popularity":10092,"Nap":10093,"trip":10094,"symbol":10095,"injured":10096,"hed":10097,"raid":10098,"losses":10099,"Ri":10100,"eleven":10101,"painting":10102,"87":10103,"heim":10104,"ceived":10105,"hot":10106,"oncé":10107,"witness":10108,"itled":10109,"gro":10110,"exc":10111,"poll":10112,"semi":10113,"unte":10114,"franchise":10115,"significantly":10116,"portray":10117,"save":10118,"Women":10119,"decor":10120,"Arts":10121,"dram":10122,"math":10123,"knew":10124,"remo":10125,"ulate":10126,"abour":10127,"Muslim":10128,"arc":10129,"Der":10130,"Syd":10131,"ati":10132,"shape":10133,"Bern":10134,"grapher":10135,"literature":10136,"distinct":10137,"AD":10138,"roughly":10139,"evin":10140,"fash":10141,"actress":10142,"avig":10143,"Beyoncé":10144,"iers":10145,"brothers":10146,"Colonel":10147,"Press":10148,"cricket":10149,"anything":10150,"introduction":10151,"Nick":10152,"aer":10153,"ully":10154,"160":10155,"rog":10156,"projects":10157,"4th":10158,"regarding":10159,"BS":10160,"Ra":10161,"scientific":10162,"resistance":10163,"aug":10164,"cool":10165,"neighbor":10166,"mad":10167,"Ell":10168,"udes":10169,"bishop":10170,"arranged":10171,"annon":10172,"ias":10173,"asser":10174,"Prote":10175,"gameplay":10176,"Supreme":10177,"storyline":10178,"distingu":10179,"museum":10180,"Kentucky":10181,"59":10182,"plane":10183,"rhy":10184,"Prin":10185,"rules":10186,"reasons":10187,"itors":10188,"ulpt":10189,"daily":10190,"asty":10191,"BN":10192,"bid":10193,"1946":10194,"missions":10195,"shaped":10196,"Fair":10197,"1981":10198,"ridge":10199,"apt":10200,"cruiser":10201,"cells":10202,"awn":10203,"turning":10204,"stages":10205,"accur":10206,"watched":10207,"trou":10208,"recon":10209,"Dream":10210,"Mit":10211,"zo":10212,"setts":10213,"capable":10214,"perhaps":10215,"declined":10216,"acres":10217,"istry":10218,"converted":10219,"renamed":10220,"Ball":10221,"Base":10222,"Det":10223,"FC":10224,"laws":10225,"enjoyed":10226,"Gord":10227,"1950s":10228,"appre":10229,"ultural":10230,"opinion":10231,"Nel":10232,"estate":10233,"marks":10234,"1917":10235,"Norway":10236,"Massachu":10237,"poem":10238,"abilities":10239,"reputation":10240,"stable":10241,"dates":10242,"publish":10243,"Whit":10244,"Olympics":10245,"agric":10246,"ading":10247,"operating":10248,"Cir":10249,"rol":10250,"zone":10251,"replace":10252,"statement":10253,"retire":10254,"existence":10255,"Massachusetts":10256,"Run":10257,"Elect":10258,"genre":10259,"graded":10260,"buried":10261,"CE":10262,"agu":10263,"ride":10264,"producing":10265,"Philip":10266,"Vide":10267,"flat":10268,"collected":10269,"sie":10270,"exact":10271,"combination":10272,"knowledge":10273,"depth":10274,"Pict":10275,"limit":10276,"increasingly":10277,"scholar":10278,"iger":10279,"planning":10280,"lease":10281,"bling":10282,"approached":10283,"Gree":10284,"Pass":10285,"amond":10286,"responded":10287,"Airport":10288,"stadium":10289,"Independ":10290,"Golden":10291,"1948":10292,"swe":10293,"easily":10294,"aust":10295,"expect":10296,"rob":10297,"1960":10298,"settlement":10299,"sects":10300,"py":10301,"equal":10302,"Rac":10303,"exerc":10304,"About":10305,"ctors":10306,"succeeded":10307,"photograph":10308,"sustained":10309,"icks":10310,"platform":10311,"models":10312,"Ice":10313,"learned":10314,"safety":10315,"athan":10316,"Net":10317,"Simpsons":10318,"Earl":10319,"humans":10320,"borough":10321,"Init":10322,"1978":10323,"secure":10324,"Imperial":10325,"illi":10326,"carrying":10327,"AR":10328,"Stand":10329,"promotion":10330,"crowd":10331,"Vietnam":10332,"youth":10333,"700":10334,"owner":10335,"showing":10336,"baseball":10337,"ira":10338,"indicated":10339,"paint":10340,"Songs":10341,"89":10342,"exchange":10343,"ignment":10344,"uration":10345,"Hart":10346,"ji":10347,"ador":10348,"breeding":10349,"lasted":10350,"MTV":10351,"weakened":10352,"osis":10353,"Hugh":10354,"Cape":10355,"violence":10356,"Band":10357,"79":10358,"univers":10359,"icate":10360,"1915":10361,"Hun":10362,"seems":10363,"Jay":10364,"athlet":10365,"86":10366,"cruisers":10367,"cold":10368,"reck":10369,"designs":10370,"inton":10371,"tall":10372,"sculpt":10373,"ruled":10374,"freeway":10375,"Shortly":10376,"landfall":10377,"entry":10378,"trust":10379,"proceed":10380,"Form":10381,"earliest":10382,"Sydney":10383,"safe":10384,"ients":10385,"borne":10386,"hr":10387,"retained":10388,"Who":10389,"1977":10390,"Moore":10391,"Naval":10392,"Poland":10393,"description":10394,"none":10395,"istan":10396,"grounds":10397,"Maryland":10398,"Ari":10399,"assistant":10400,"issance":10401,"reserve":10402,"wich":10403,"seas":10404,"dial":10405,"applied":10406,"ental":10407,"programs":10408,"fix":10409,"serves":10410,"Bir":10411,"hits":10412,"coastal":10413,"resour":10414,"ophy":10415,"insula":10416,"ining":10417,"writes":10418,"page":10419,"Spring":10420,"playoff":10421,"ampions":10422,"virt":10423,"entrance":10424,"1963":10425,"domestic":10426,"Fire":10427,"neut":10428,"stret":10429,"battery":10430,"strate":10431,"delivered":10432,"onym":10433,"Matt":10434,"Tun":10435,"exclus":10436,"yo":10437,"lee":10438,"1916":10439,"elled":10440,"Rhodes":10441,"eff":10442,"stopped":10443,"gall":10444,"towns":10445,"heat":10446,"iverse":10447,"breaking":10448,"camera":10449,"candidate":10450,"wan":10451,"wr":10452,"gradually":10453,"items":10454,"aret":10455,"solid":10456,"politics":10457,"Edu":10458,"eman":10459,"lets":10460,"apped":10461,"warm":10462,"supplies":10463,"settled":10464,"ifications":10465,"Confed":10466,"details":10467,"independence":10468,"isms":10469,"interested":10470,"Sul":10471,"Cont":10472,"aine":10473,"distribution":10474,"Kim":10475,"cler":10476,"rose":10477,"fine":10478,"cinem":10479,"minister":10480,"pel":10481,"affect":10482,"Gordon":10483,"aki":10484,"equival":10485,"Mulder":10486,"Vo":10487,"61":10488,"72":10489,"foss":10490,"finding":10491,"engines":10492,"parties":10493,"appeal":10494,"decis":10495,"copy":10496,"Carl":10497,"1919":10498,"Stadium":10499,"phoon":10500,"Pur":10501,"refle":10502,"prisoners":10503,"mical":10504,"Here":10505,"ima":10506,"93":10507,"1962":10508,"Found":10509,"Space":10510,"campus":10511,"online":10512,"winner":10513,"entitled":10514,"62":10515,"Sav":10516,"Ur":10517,"extremely":10518,"regiment":10519,"iversary":10520,"izations":10521,"Adams":10522,"Philipp":10523,"Prof":10524,"correct":10525,"hear":10526,"Moon":10527,"stic":10528,"convin":10529,"agen":10530,"Theatre":10531,"investigation":10532,"evening":10533,"Premi":10534,"imet":10535,"decade":10536,"ester":10537,"fal":10538,"mine":10539,"acid":10540,"adapted":10541,"1938":10542,"cation":10543,"inary":10544,"bourne":10545,"offers":10546,"inois":10547,"fil":10548,"consum":10549,"studied":10550,"bought":10551,"religion":10552,"classified":10553,"sor":10554,"USA":10555,"survived":10556,"knots":10557,"uzz":10558,"Bowl":10559,"threatened":10560,"lad":10561,"voted":10562,"classic":10563,"iro":10564,"deaths":10565,"bottom":10566,"message":10567,"una":10568,"routes":10569,"Kat":10570,"relations":10571,"Justice":10572,"aked":10573,"relief":10574,"proposal":10575,"Constant":10576,"crown":10577,"revolution":10578,"Age":10579,"Let":10580,"download":10581,"installed":10582,"Instead":10583,"Research":10584,"Anth":10585,"Ant":10586,"tanks":10587,"phase":10588,"hun":10589,"kingdom":10590,"specifically":10591,"reduce":10592,"Nat":10593,"130":10594,"Por":10595,"Pa":10596,"ansas":10597,"males":10598,"ighters":10599,"69":10600,"fict":10601,"implement":10602,"ishes":10603,"happy":10604,"ora":10605,"send":10606,"Bos":10607,"recalled":10608,"portrayed":10609,"compon":10610,"controversy":10611,"duty":10612,"shel":10613,"servative":10614,"Beach":10615,"appropri":10616,"crossed":10617,"ento":10618,"diss":10619,"Iron":10620,"corner":10621,"wides":10622,"Power":10623,"meters":10624,"products":10625,"everything":10626,"causes":10627,"Tony":10628,"overs":10629,"arrested":10630,"references":10631,"faith":10632,"Alan":10633,"fi":10634,"importance":10635,"sufficient":10636,"san":10637,"express":10638,"typical":10639,"onia":10640,"advoc":10641,"Kong":10642,"1956":10643,"1930s":10644,"visible":10645,"NBA":10646,"Video":10647,"eu":10648,"angle":10649,"bringing":10650,"Director":10651,"entially":10652,"crop":10653,"Singles":10654,"invited":10655,"Rem":10656,"opher":10657,"presents":10658,"aints":10659,"starts":10660,"istered":10661,"Sl":10662,"opera":10663,"reading":10664,"otic":10665,"Ow":10666,"internal":10667,"admitted":10668,"volcan":10669,"IGN":10670,"ni":10671,"nomination":10672,"bra":10673,"Simon":10674,"equipped":10675,"Jane":10676,"prot":10677,"concerns":10678,"sequences":10679,"1936":10680,"Adam":10681,"DE":10682,"vard":10683,"amoun":10684,"Ku":10685,"armour":10686,"convoy":10687,"Engine":10688,"dream":10689,"ala":10690,"Critical":10691,"Wild":10692,"emies":10693,"actual":10694,"Hamilton":10695,"incorporated":10696,"ranean":10697,"principal":10698,"snow":10699,"images":10700,"Maria":10701,"cript":10702,"UTC":10703,"Your":10704,"ration":10705,"crime":10706,"recommended":10707,"remainder":10708,"Rand":10709,"Sky":10710,"shots":10711,"Plan":10712,"leton":10713,"Plot":10714,"journey":10715,"medal":10716,"assess":10717,"17th":10718,"cycle":10719,"thew":10720,"storms":10721,"Tit":10722,"mort":10723,"ader":10724,"rett":10725,"esh":10726,"price":10727,"consisting":10728,"ibility":10729,"1961":10730,"frag":10731,"funds":10732,"Death":10733,"ilation":10734,"promote":10735,"considerable":10736,"objects":10737,"Indones":10738,"Gram":10739,"appointment":10740,"charges":10741,"milit":10742,"composer":10743,"ingly":10744,"Donald":10745,"wed":10746,"Memorial":10747,"Walk":10748,"posted":10749,"females":10750,"Gun":10751,"ipated":10752,"Vill":10753,"mere":10754,"extension":10755,"AAF":10756,"Today":10757,"110":10758,"Pear":10759,"claiming":10760,"looked":10761,"WWE":10762,"1953":10763,"spons":10764,"Cas":10765,"til":10766,"casting":10767,"clean":10768,"Nether":10769,"5th":10770,"81":10771,"canal":10772,"generation":10773,"63":10774,"atus":10775,"duties":10776,"beach":10777,"Military":10778,"Hitler":10779,"nie":10780,"rural":10781,"someone":10782,"acre":10783,"Kennedy":10784,"Transport":10785,"Cleve":10786,"eighth":10787,"Harr":10788,"Pot":10789,"Sunday":10790,"hope":10791,"Norman":10792,"Leon":10793,"Howard":10794,"decades":10795,"driving":10796,"Bry":10797,"gone":10798,"perior":10799,"Indiana":10800,"ulture":10801,"apping":10802,"outer":10803,"challenge":10804,"afford":10805,"antly":10806,"connection":10807,"identity":10808,"Five":10809,"Ross":10810,"answ":10811,"Arsen":10812,"Norwe":10813,"occurs":10814,"permanent":10815,"mole":10816,"manner":10817,"brigade":10818,"Jord":10819,"sam":10820,"mud":10821,"inher":10822,"glas":10823,"7th":10824,"cens":10825,"scar":10826,"thesis":10827,"Jac":10828,"Cre":10829,"ician":10830,"Scully":10831,"freedom":10832,"entering":10833,"iques":10834,"sters":10835,"aspects":10836,"1947":10837,"lling":10838,"divisions":10839,"fashion":10840,"attached":10841,"liked":10842,"dub":10843,"1937":10844,"concerned":10845,"74":10846,"prin":10847,"noting":10848,"1958":10849,"slowly":10850,"classes":10851,"Brist":10852,"valu":10853,"junction":10854,"prised":10855,"Wars":10856,"hotel":10857,"Ak":10858,"nut":10859,"restaur":10860,"vessels":10861,"uni":10862,"resent":10863,"92":10864,"1910":10865,"grave":10866,"poly":10867,"Ryan":10868,"Hou":10869,"itage":10870,"oldest":10871,"owners":10872,"involving":10873,"seeing":10874,"supporters":10875,"enemies":10876,"department":10877,"icit":10878,"describing":10879,"1957":10880,"Turk":10881,"prey":10882,"Project":10883,"Science":10884,"91":10885,"iley":10886,"Assembly":10887,"purchase":10888,"intention":10889,"ione":10890,"ears":10891,"brain":10892,"armor":10893,"regon":10894,"equivalent":10895,"theatre":10896,"check":10897,"obtained":10898,"akers":10899,"debate":10900,"possibility":10901,"ynasty":10902,"Magazine":10903,"convent":10904,"parliament":10905,"Lau":10906,"regularly":10907,"Pier":10908,"aran":10909,"agonist":10910,"iven":10911,"basic":10912,"widespread":10913,"CR":10914,"pup":10915,"agues":10916,"certified":10917,"Rolling":10918,"decline":10919,"prede":10920,"committed":10921,"uge":10922,"scious":10923,"Card":10924,"Oregon":10925,"Corpor":10926,"sessions":10927,"deleg":10928,"Media":10929,"Gra":10930,"income":10931,"Master":10932,"populations":10933,"Cleveland":10934,"departure":10935,"constitut":10936,"Isa":10937,"Key":10938,"acknow":10939,"frame":10940,"accused":10941,"Illinois":10942,"recognition":10943,"Throughout":10944,"Jordan":10945,"Douglas":10946,"intr":10947,"ja":10948,"gers":10949,"icide":10950,"6th":10951,"derived":10952,"sequel":10953,"proto":10954,"circum":10955,"Weekly":10956,"segment":10957,"assumed":10958,"intelligence":10959,"shock":10960,"ML":10961,"stands":10962,"1959":10963,"Andy":10964,"wearing":10965,"fur":10966,"flank":10967,"hosted":10968,"Family":10969,"historic":10970,"torn":10971,"Alf":10972,"plate":10973,"survey":10974,"Stanley":10975,"skin":10976,"CO":10977,"ologist":10978,"Freder":10979,"Mas":10980,"pled":10981,"returns":10982,"citizens":10983,"temple":10984,"valley":10985,"link":10986,"parallel":10987,"Arsenal":10988,"Third":10989,"Mediter":10990,"clip":10991,"regional":10992,"terminus":10993,"literary":10994,"Roger":10995,"guil":10996,"lose":10997,"denied":10998,"inity":10999,"noon":11000,"Ira":11001,"transition":11002,"Rain":11003,"Ut":11004,"Bruce":11005,"animated":11006,"Mexican":11007,"Kevin":11008,"Recording":11009,"Ali":11010,"Mediterranean":11011,"Beatles":11012,"Glo":11013,"interpret":11014,"Ok":11015,"neck":11016,"altern":11017,"1954":11018,"graphics":11019,"thousands":11020,"thetic":11021,"supposed":11022,"1955":11023,"fruit":11024,"aced":11025,"ISBN":11026,"tex":11027,"Norwegian":11028,"Bristol":11029,"Treat":11030,"Now":11031,"trait":11032,"erald":11033,"Allen":11034,"mosphere":11035,"mates":11036,"count":11037,"thedr":11038,"strongly":11039,"circulation":11040,"wickets":11041,"Federal":11042,"sailed":11043,"address":11044,"raise":11045,"aboard":11046,"convict":11047,"Girl":11048,"Bush":11049,"Dig":11050,"impl":11051,"passengers":11052,"uous":11053,"16th":11054,"behavior":11055,"grass":11056,"82":11057,"Morgan":11058,"downtown":11059,"MI":11060,"races":11061,"knock":11062,"PS":11063,"fictional":11064,"magn":11065,"clubs":11066,"emerged":11067,"thirty":11068,"tied":11069,"conscious":11070,"Channel":11071,"commanded":11072,"conduct":11073,"establishment":11074,"emed":11075,"dict":11076,"abol":11077,"sud":11078,"replacement":11079,"instru":11080,"Tenn":11081,"kid":11082,"orb":11083,"vary":11084,"migr":11085,"orient":11086,"begun":11087,"norm":11088,"operate":11089,"assistance":11090,"cow":11091,"apart":11092,"destruction":11093,"exception":11094,"generated":11095,"Korea":11096,"Az":11097,"Row":11098,"rus":11099,"feeling":11100,"agn":11101,"rip":11102,"costs":11103,"dipl":11104,"atinum":11105,"moves":11106,"Color":11107,"telling":11108,"Forest":11109,"Bi":11110,"FI":11111,"Low":11112,"attributed":11113,"speaking":11114,"volunte":11115,"cos":11116,"anned":11117,"Within":11118,"13th":11119,"demol":11120,"finishing":11121,"driven":11122,"strateg":11123,"recovered":11124,"alleged":11125,"rub":11126,"sight":11127,"Additionally":11128,"stayed":11129,"unusual":11130,"iller":11131,"willing":11132,"appearing":11133,"Fame":11134,"Argent":11135,"opposite":11136,"joining":11137,"Lyn":11138,"shif":11139,"properties":11140,"institut":11141,"aza":11142,"Ever":11143,"1952":11144,"Bou":11145,"Lisa":11146,"astron":11147,"Nich":11148,"Confeder":11149,"inde":11150,"fled":11151,"Profess":11152,"Anton":11153,"fighter":11154,"Jam":11155,"atmosphere":11156,"alco":11157,"responsibility":11158,"71":11159,"chorus":11160,"ipe":11161,"Robinson":11162,"garrison":11163,"abled":11164,"occasionally":11165,"sid":11166,"Anne":11167,"fitted":11168,"Prior":11169,"micro":11170,"ige":11171,"Lenn":11172,"cavalry":11173,"opt":11174,"Murray":11175,"completion":11176,"dang":11177,"uit":11178,"84":11179,"cel":11180,"effectively":11181,"Morris":11182,"demo":11183,"Anim":11184,"surviving":11185,"73":11186,"Winter":11187,"sounds":11188,"1933":11189,"Temple":11190,"swim":11191,"methods":11192,"Television":11193,"scrap":11194,"Similar":11195,"Hawai":11196,"Somer":11197,"tie":11198,"quant":11199,"classical":11200,"province":11201,"Around":11202,"enses":11203,"Fish":11204,"Unlike":11205,"warning":11206,"materials":11207,"Fron":11208,"accom":11209,"Construction":11210,"technical":11211,"girls":11212,"erup":11213,"persu":11214,"attracted":11215,"boys":11216,"Av":11217,"fear":11218,"global":11219,"Web":11220,"keeping":11221,"mobile":11222,"Finn":11223,"Tal":11224,"alph":11225,"select":11226,"pure":11227,"climate":11228,"Nelson":11229,"classification":11230,"shar":11231,"Patrick":11232,"reform":11233,"tip":11234,"differences":11235,"rows":11236,"passage":11237,"ava":11238,"sequently":11239,"pir":11240,"bels":11241,"1935":11242,"association":11243,"neither":11244,"Sweden":11245,"weigh":11246,"oli":11247,"concer":11248,"code":11249,"basketball":11250,"poses":11251,"1949":11252,"gets":11253,"credit":11254,"reinforce":11255,"battleships":11256,"Welsh":11257,"Gill":11258,"ensure":11259,"massive":11260,"painted":11261,"Premier":11262,"1951":11263,"reality":11264,"ratings":11265,"Nations":11266,"map":11267,"oslav":11268,"TA":11269,"controversi":11270,"EC":11271,"ón":11272,"desire":11273,"Journal":11274,"Toronto":11275,"separated":11276,"votes":11277,"outbreak":11278,"agle":11279,"Ey":11280,"thors":11281,"infe":11282,"scape":11283,"requested":11284,"seemed":11285,"MP":11286,"carbon":11287,"historians":11288,"vehicle":11289,"predecess":11290,"revi":11291,"praise":11292,"uty":11293,"Matthew":11294,"picture":11295,"Sports":11296,"restored":11297,"memory":11298,"movements":11299,"Dog":11300,"MC":11301,"column":11302,"cha":11303,"Marine":11304,"soul":11305,"Byzantine":11306,"fee":11307,"Chron":11308,"hoped":11309,"Netherlands":11310,"Every":11311,"doub":11312,"funding":11313,"difficulty":11314,"convinced":11315,"umin":11316,"Bah":11317,"assem":11318,"programme":11319,"remember":11320,"Shar":11321,"bear":11322,"communities":11323,"tes":11324,"anny":11325,"Dean":11326,"Kin":11327,"ucks":11328,"thedral":11329,"Story":11330,"Jews":11331,"Iraq":11332,"dating":11333,"BI":11334,"Techn":11335,"premiere":11336,"loyd":11337,"delayed":11338,"Heart":11339,"Design":11340,"moral":11341,"discovery":11342,"mont":11343,"consult":11344,"Again":11345,"Hop":11346,"weapon":11347,"honour":11348,"Hero":11349,"Dri":11350,"ography":11351,"boil":11352,"oked":11353,"pattern":11354,"anniversary":11355,"inspiration":11356,"thy":11357,"1900":11358,"greatly":11359,"leads":11360,"injuries":11361,"Brun":11362,"solution":11363,"Bishop":11364,"oty":11365,"aux":11366,"otherwise":11367,"Sax":11368,"Oak":11369,"batting":11370,"accounts":11371,"Domin":11372,"Pow":11373,"vul":11374,"surrounded":11375,"spoke":11376,"9th":11377,"Ford":11378,"Free":11379,"ua":11380,"penalty":11381,"partner":11382,"stro":11383,"needs":11384,"throne":11385,"crosses":11386,"pson":11387,"Russell":11388,"erto":11389,"rates":11390,"strategy":11391,"sees":11392,"DNA":11393,"agree":11394,"ureau":11395,"elling":11396,"elev":11397,"comparison":11398,"Raj":11399,"colonial":11400,"architecture":11401,"vive":11402,"83":11403,"wrong":11404,"involvement":11405,"Bed":11406,"accompl":11407,"quir":11408,"12th":11409,"documentary":11410,"worst":11411,"Armen":11412,"Croatian":11413,"stan":11414,"remn":11415,"musicians":11416,"termine":11417,"Dick":11418,"vince":11419,"oles":11420,"infl":11421,"chairman":11422,"formally":11423,"determine":11424,"cement":11425,"asks":11426,"dismissed":11427,"falling":11428,"Thompson":11429,"Last":11430,"NFL":11431,"bond":11432,"category":11433,"forcing":11434,"Centre":11435,"Islam":11436,"lord":11437,"sale":11438,"gross":11439,"trained":11440,"lins":11441,"rine":11442,"adaptation":11443,"intense":11444,"oman":11445,"Carter":11446,"Var":11447,"fold":11448,"bron":11449,"Kelly":11450,"Hell":11451,"resources":11452,"horn":11453,"library":11454,"Ath":11455,"NBC":11456,"somewhat":11457,"interests":11458,"scheme":11459,"Hend":11460,"Holy":11461,"pregn":11462,"rhyth":11463,"immediate":11464,"Open":11465,"starred":11466,"sized":11467,"Puerto":11468,"Cop":11469,"Tar":11470,"commem":11471,"tack":11472,"Wy":11473,"ool":11474,"medieval":11475,"adults":11476,"alien":11477,"ardian":11478,"Sab":11479,"ugu":11480,"presidential":11481,"themat":11482,"legs":11483,"invent":11484,"Pak":11485,"learn":11486,"academic":11487,"unch":11488,"Beck":11489,"theat":11490,"Bang":11491,"Cra":11492,"faces":11493,"rome":11494,"fighters":11495,"modified":11496,"meets":11497,"Along":11498,"techniques":11499,"Labor":11500,"oring":11501,"elections":11502,"bean":11503,"attacking":11504,"streets":11505,"buy":11506,"frequent":11507,"profit":11508,"falls":11509,"audio":11510,"ninth":11511,"Hungarian":11512,"dock":11513,"electron":11514,"Niel":11515,"ios":11516,"difference":11517,"Modern":11518,"measures":11519,"Ban":11520,"superior":11521,"submarine":11522,"passenger":11523,"aming":11524,"1913":11525,"margin":11526,"reviewer":11527,"observ":11528,"Constitution":11529,"belt":11530,"interior":11531,"Bri":11532,"Ol":11533,"Wright":11534,"absence":11535,"vac":11536,"landed":11537,"Parker":11538,"Build":11539,"Benn":11540,"Cry":11541,"prec":11542,"arrangement":11543,"controversial":11544,"Thus":11545,"porter":11546,"archae":11547,"Tok":11548,"favorite":11549,"shut":11550,"firing":11551,"airport":11552,"ocated":11553,"engineer":11554,"Minn":11555,"premiered":11556,"convection":11557,"Wis":11558,"impressed":11559,"infr":11560,"Vis":11561,"deemed":11562,"talk":11563,"oxy":11564,"enters":11565,"romantic":11566,"Batman":11567,"Late":11568,"ware":11569,"wins":11570,"AI":11571,"1926":11572,"conclusion":11573,"Harris":11574,"Mot":11575,"1927":11576,"Steven":11577,"renew":11578,"aya":11579,"partn":11580,"continuing":11581,"Front":11582,"900":11583,"characteristics":11584,"Berlin":11585,"cloth":11586,"munic":11587,"pin":11588,"owed":11589,"Seven":11590,"afterwards":11591,"Eric":11592,"crete":11593,"myster":11594,"curren":11595,"ameter":11596,"itzer":11597,"facility":11598,"Library":11599,"colony":11600,"suffering":11601,"encouraged":11602,"giant":11603,"temperatures":11604,"Lam":11605,"cris":11606,"vy":11607,"secured":11608,"eggs":11609,"tenance":11610,"1934":11611,"retirement":11612,"1921":11613,"informed":11614,"everyone":11615,"oke":11616,"aire":11617,"biography":11618,"Dom":11619,"agas":11620,"Silver":11621,"ograph":11622,"legislation":11623,"Education":11624,"Commonwealth":11625,"ceased":11626,"toms":11627,"attempting":11628,"believes":11629,"styles":11630,"defended":11631,"Yan":11632,"Da":11633,"facing":11634,"asure":11635,"Dist":11636,"distributed":11637,"wings":11638,"authors":11639,"Police":11640,"judge":11641,"VI":11642,"roit":11643,"RAAF":11644,"dominated":11645,"Commander":11646,"Houston":11647,"pointed":11648,"rescue":11649,"apse":11650,"140":11651,"depicted":11652,"anyone":11653,"Palace":11654,"Hospital":11655,"Santa":11656,"teor":11657,"cancer":11658,"Ren":11659,"Rap":11660,"empt":11661,"iat":11662,"ixon":11663,"1912":11664,"standards":11665,"huge":11666,"TO":11667,"habitat":11668,"Jacob":11669,"carrier":11670,"acknowled":11671,"longest":11672,"unsuccessful":11673,"monarch":11674,"finals":11675,"thel":11676,"layer":11677,"adj":11678,"Track":11679,"dress":11680,"representing":11681,"biggest":11682,"stances":11683,"harmon":11684,"Yug":11685,"merged":11686,"Swedish":11687,"remix":11688,"sudden":11689,"Indians":11690,"Son":11691,"mac":11692,"Simpson":11693,"ultane":11694,"Reser":11695,"Offic":11696,"bone":11697,"1932":11698,"immigr":11699,"Gard":11700,"toll":11701,"abinet":11702,"uding":11703,"deployed":11704,"mart":11705,"changing":11706,"eless":11707,"Work":11708,"bridges":11709,"Wol":11710,"alo":11711,"veter":11712,"DC":11713,"dimen":11714,"comfort":11715,"AL":11716,"Wing":11717,"Cru":11718,"util":11719,"Corporation":11720,"releases":11721,"Warner":11722,"bats":11723,"hypo":11724,"convention":11725,"Social":11726,"irt":11727,"closer":11728,"beautiful":11729,"Dur":11730,"tern":11731,"retreat":11732,"eing":11733,"intent":11734,"formerly":11735,"comed":11736,"Author":11737,"RAF":11738,"Jason":11739,"hys":11740,"lik":11741,"moderate":11742,"aser":11743,"Anthony":11744,"Call":11745,"170":11746,"aska":11747,"Yugoslav":11748,"eller":11749,"trials":11750,"Win":11751,"Wat":11752,"emotional":11753,"assass":11754,"emergency":11755,"Get":11756,"Mort":11757,"Arn":11758,"siege":11759,"bright":11760,"journalist":11761,"hen":11762,"stab":11763,"influential":11764,"festival":11765,"successor":11766,"narrative":11767,"satisf":11768,"ee":11769,"questions":11770,"ugg":11771,"courts":11772,"acent":11773,"Detroit":11774,"cash":11775,"hunting":11776,"Croatia":11777,"Athen":11778,"aria":11779,"suitable":11780,"factory":11781,"treated":11782,"squad":11783,"owa":11784,"ocean":11785,"printed":11786,"handed":11787,"1929":11788,"Anna":11789,"1911":11790,"influences":11791,"Nic":11792,"novels":11793,"wooden":11794,"cia":11795,"bran":11796,"tone":11797,"insur":11798,"gay":11799,"excess":11800,"Staff":11801,"spin":11802,"diplom":11803,"stal":11804,"Network":11805,"Gaga":11806,"hanna":11807,"veget":11808,"phr":11809,"apparently":11810,"victims":11811,"Belg":11812,"executed":11813,"experiences":11814,"discussed":11815,"Chamber":11816,"childhood":11817,"detail":11818,"alcohol":11819,"founder":11820,"flash":11821,"Thor":11822,"iner":11823,"skill":11824,"watching":11825,"instruments":11826,"environmental":11827,"osaurus":11828,"jur":11829,"inhabit":11830,"offices":11831,"loan":11832,"Asian":11833,"jum":11834,"channel":11835,"coins":11836,"approval":11837,"depos":11838,"plus":11839,"15th":11840,"graduate":11841,"Ian":11842,"1931":11843,"Cel":11844,"hearing":11845,"1922":11846,"Spears":11847,"Hud":11848,"Clinton":11849,"Cooper":11850,"banks":11851,"arked":11852,"Horse":11853,"Princess":11854,"memor":11855,"Lim":11856,"Heavy":11857,"Melbourne":11858,"achment":11859,"Fri":11860,"factors":11861,"Xbox":11862,"exposed":11863,"Jesus":11864,"Ay":11865,"Vice":11866,"wet":11867,"wheel":11868,"turb":11869,"chain":11870,"normally":11871,"disput":11872,"Pope":11873,"existed":11874,"format":11875,"navig":11876,"icon":11877,"ila":11878,"igins":11879,"skills":11880,"hundreds":11881,"Nielsen":11882,"hatt":11883,"ien":11884,"Evans":11885,"Alb":11886,"resigned":11887,"EP":11888,"remin":11889,"memorial":11890,"gang":11891,"mam":11892,"Tower":11893,"chell":11894,"flew":11895,"reveals":11896,"coin":11897,"grav":11898,"Guy":11899,"drums":11900,"genetic":11901,"Nevertheless":11902,"prevented":11903,"enthus":11904,"vić":11905,"listing":11906,"pete":11907,"testing":11908,"pushed":11909,"understand":11910,"chapter":11911,"substantial":11912,"Category":11913,"iest":11914,"iliar":11915,"Hand":11916,"Organ":11917,"Stock":11918,"urs":11919,"Gib":11920,"dens":11921,"eat":11922,"linked":11923,"locom":11924,"tests":11925,"relationships":11926,"Mars":11927,"Real":11928,"Stewart":11929,"chemical":11930,"Bulgar":11931,"happened":11932,"opponents":11933,"preferred":11934,"calcul":11935,"stance":11936,"footage":11937,"liqu":11938,"animation":11939,"politan":11940,"reportedly":11941,"poetry":11942,"languages":11943,"Turkish":11944,"thereafter":11945,"Raw":11946,"thousand":11947,"imens":11948,"iva":11949,"commemor":11950,"deter":11951,"resign":11952,"Sarah":11953,"Austria":11954,"Lev":11955,"wreck":11956,"ods":11957,"Queens":11958,"notably":11959,"guide":11960,"Samuel":11961,"lists":11962,"icians":11963,"Express":11964,"pse":11965,"agents":11966,"device":11967,"helm":11968,"driver":11969,"visitors":11970,"Lane":11971,"Lennon":11972,"Colorado":11973,"teeth":11974,"employees":11975,"cad":11976,"interpre":11977,"Greece":11978,"arring":11979,"accompany":11980,"oster":11981,"factor":11982,"departed":11983,"Sulli":11984,"iling":11985,"favorable":11986,"Baltim":11987,"grown":11988,"Albums":11989,"Budd":11990,"extin":11991,"participate":11992,"usal":11993,"Malays":11994,"Baltimore":11995,"cod":11996,"pine":11997,"Clar":11998,"Carib":11999,"imprison":12000,"afternoon":12001,"Conne":12002,"dialogue":12003,"vals":12004,"Ark":12005,"residential":12006,"brick":12007,"orph":12008,"familiar":12009,"extent":12010,"mention":12011,"disci":12012,"draf":12013,"detailed":12014,"Writing":12015,"obl":12016,"instance":12017,"learning":12018,"Rick":12019,"Ta":12020,"evil":12021,"picked":12022,"Sullivan":12023,"covering":12024,"Bird":12025,"universe":12026,"periods":12027,"powered":12028,"Dave":12029,"appreci":12030,"Baby":12031,"Initially":12032,"Kn":12033,"Player":12034,"3D":12035,"Marshall":12036,"RO":12037,"easy":12038,"endment":12039,"Wrestling":12040,"hat":12041,"Foundation":12042,"Univers":12043,"10th":12044,"thin":12045,"irs":12046,"Marg":12047,"criminal":12048,"talent":12049,"tub":12050,"taught":12051,"territories":12052,"Frederick":12053,"logy":12054,"14th":12055,"reviewers":12056,"balance":12057,"gene":12058,"Horn":12059,"videos":12060,"AS":12061,"1928":12062,"covers":12063,"technique":12064,"prep":12065,"isolated":12066,"diameter":12067,"bases":12068,"Gilbert":12069,"Somerset":12070,"Mario":12071,"nik":12072,"icop":12073,"ethnic":12074,"WC":12075,"negotiations":12076,"itt":12077,"Having":12078,"ongo":12079,"withdrew":12080,"lon":12081,"divers":12082,"upgraded":12083,"lined":12084,"encountered":12085,"Nev":12086,"creative":12087,"rell":12088,"embr":12089,"athers":12090,"behavi":12091,"goods":12092,"dale":12093,"sleep":12094,"cong":12095,"Release":12096,"nations":12097,"1925":12098,"orous":12099,"Know":12100,"orter":12101,"collect":12102,"toon":12103,"Nar":12104,"satell":12105,"occupation":12106,"portions":12107,"scholars":12108,"dangerous":12109,"oz":12110,"simultane":12111,"Vin":12112,"cot":12113,"organizations":12114,"junior":12115,"loop":12116,"Edge":12117,"engineering":12118,"bay":12119,"excell":12120,"Anglo":12121,"shi":12122,"Mississ":12123,"Tan":12124,"soft":12125,"medium":12126,"specimens":12127,"olis":12128,"partly":12129,"Miami":12130,"uster":12131,"Giants":12132,"zes":12133,"lowest":12134,"oking":12135,"ende":12136,"jack":12137,"pole":12138,"crisis":12139,"pounds":12140,"uro":12141,"expression":12142,"fined":12143,"partially":12144,"spending":12145,"Alab":12146,"window":12147,"olas":12148,"1924":12149,"spher":12150,"indicate":12151,"prohib":12152,"Soon":12153,"bellion":12154,"stick":12155,"Seattle":12156,"monument":12157,"traveled":12158,"turrets":12159,"icy":12160,"etime":12161,"whereas":12162,"Championships":12163,"refers":12164,"Human":12165,"cott":12166,"weekend":12167,"Trek":12168,"rarely":12169,"1920s":12170,"designer":12171,"doctor":12172,"proced":12173,"icine":12174,"raising":12175,"Treaty":12176,"maintenance":12177,"doesn":12178,"Iowa":12179,"pitched":12180,"platinum":12181,"permission":12182,"deser":12183,"absor":12184,"Kal":12185,"LC":12186,"compete":12187,"clock":12188,"USS":12189,"advice":12190,"shear":12191,"employment":12192,"Alabama":12193,"intercept":12194,"Forces":12195,"friendly":12196,"criticised":12197,"representative":12198,"teacher":12199,"Guard":12200,"truth":12201,"ranking":12202,"march":12203,"Australians":12204,"Napole":12205,"difficulties":12206,"finale":12207,"ache":12208,"earning":12209,"mainstream":12210,"ders":12211,"uncertain":12212,"ori":12213,"policies":12214,"ordinary":12215,"personality":12216,"sop":12217,"amph":12218,"oren":12219,"Canal":12220,"closing":12221,"refuge":12222,"km2":12223,"Roc":12224,"vors":12225,"attered":12226,"concerts":12227,"aggress":12228,"Missou":12229,"comments":12230,"Buff":12231,"8th":12232,"fishing":12233,"orbit":12234,"recordings":12235,"gery":12236,"Country":12237,"Charlie":12238,"remove":12239,"understanding":12240,"Caribbean":12241,"ilst":12242,"dynam":12243,"uscript":12244,"hur":12245,"windows":12246,"anton":12247,"marry":12248,"Lawrence":12249,"Minnes":12250,"1923":12251,"Then":12252,"oftw":12253,"seats":12254,"drawing":12255,"ventures":12256,"Hindu":12257,"prompted":12258,"locomot":12259,"perspect":12260,"patch":12261,"poison":12262,"bin":12263,"housing":12264,"hid":12265,"divor":12266,"destroyers":12267,"Senator":12268,"Cher":12269,"tenth":12270,"Crown":12271,"citing":12272,"USD":12273,"examples":12274,"dynasty":12275,"Health":12276,"disturb":12277,"Cho":12278,"describe":12279,"Hamp":12280,"cular":12281,"patron":12282,"tox":12283,"string":12284,"Has":12285,"communication":12286,"minimum":12287,"bombers":12288,"Fel":12289,"Nazi":12290,"shall":12291,"Dance":12292,"Ministry":12293,"travelled":12294,"hockey":12295,"lov":12296,"celer":12297,"Polit":12298,"churches":12299,"false":12300,"Garden":12301,"Stud":12302,"Ass":12303,"nationally":12304,"Grammy":12305,"stall":12306,"Hungary":12307,"mines":12308,"11th":12309,"explo":12310,"neighborhood":12311,"tren":12312,"Bros":12313,"vies":12314,"idae":12315,"violent":12316,"Py":12317,"alions":12318,"Flight":12319,"nee":12320,"soil":12321,"cope":12322,"Benj":12323,"garden":12324,"nov":12325,"lift":12326,"expensive":12327,"credits":12328,"naissance":12329,"earn":12330,"catal":12331,"inaug":12332,"adjacent":12333,"displayed":12334,"Shakes":12335,"Return":12336,"angel":12337,"tribute":12338,"Belgium":12339,"tap":12340,"forth":12341,"collapse":12342,"restrict":12343,"Banks":12344,"Township":12345,"appropriate":12346,"grees":12347,"predict":12348,"oftware":12349,"forests":12350,"het":12351,"creator":12352,"benefit":12353,"Event":12354,"designation":12355,"Diego":12356,"nur":12357,"values":12358,"fung":12359,"partnership":12360,"possession":12361,"itim":12362,"option":12363,"protagonist":12364,"Shakespe":12365,"wine":12366,"moments":12367,"tag":12368,"Represent":12369,"aws":12370,"scientists":12371,"Medal":12372,"Dal":12373,"crews":12374,"interesting":12375,"Ag":12376,"Christopher":12377,"autom":12378,"solute":12379,"rounds":12380,"Children":12381,"vit":12382,"imeter":12383,"radar":12384,"instrumental":12385,"velt":12386,"Guardian":12387,"cryst":12388,"victories":12389,"dollars":12390,"Cold":12391,"oms":12392,"villages":12393,"1908":12394,"Apple":12395,"paintings":12396,"lah":12397,"NO":12398,"encing":12399,"treaty":12400,"restricted":12401,"Cred":12402,"Khan":12403,"uto":12404,"elsewhere":12405,"1905":12406,"survive":12407,"mature":12408,"Dead":12409,"armament":12410,"1909":12411,"minimal":12412,"eliminated":12413,"justice":12414,"anium":12415,"surprise":12416,"numbered":12417,"Legacy":12418,"Nik":12419,"priest":12420,"categ":12421,"enh":12422,"precip":12423,"jection":12424,"waves":12425,"Review":12426,"seeking":12427,"Minnesota":12428,"bath":12429,"emperor":12430,"Roose":12431,"21st":12432,"Mississipp":12433,"Hills":12434,"lla":12435,"purposes":12436,"arriving":12437,"suicide":12438,"helping":12439,"namese":12440,"Vietnamese":12441,"newspapers":12442,"Hockey":12443,"boards":12444,"stones":12445,"smooth":12446,"Alfred":12447,"allies":12448,"meter":12449,"occasions":12450,"cous":12451,"Interstate":12452,"Benjamin":12453,"unlike":12454,"munition":12455,"mental":12456,"Manhatt":12457,"Walker":12458,"Mes":12459,"dispute":12460,"rupted":12461,"mayor":12462,"Administr":12463,"Manhattan":12464,"Dol":12465,"orious":12466,"degrees":12467,"gor":12468,"coordin":12469,"legend":12470,"parent":12471,"Kurt":12472,"oen":12473,"Hong":12474,"tight":12475,"Hans":12476,"intensified":12477,"Trust":12478,"esis":12479,"sher":12480,"preserved":12481,"manuscript":12482,"schedule":12483,"struggle":12484,"backs":12485,"competed":12486,"Franklin":12487,"Peninsula":12488,"AT":12489,"OS":12490,"assisted":12491,"professor":12492,"clar":12493,"resumed":12494,"traits":12495,"Roosevelt":12496,"oxygen":12497,"Kansas":12498,"amounts":12499,"survivors":12500,"Imp":12501,"dess":12502,"pm":12503,"alignment":12504,"publicly":12505,"1907":12506,"helicop":12507,"atherine":12508,"Set":12509,"anne":12510,"electronic":12511,"ayer":12512,"Cole":12513,"adi":12514,"concrete":12515,"candidates":12516,"utter":12517,"prove":12518,"neighbour":12519,"rh":12520,"chron":12521,"rik":12522,"Race":12523,"functions":12524,"wrest":12525,"organised":12526,"Industry":12527,"VII":12528,"impossible":12529,"ishment":12530,"Portland":12531,"pilots":12532,"Fried":12533,"neutral":12534,"rede":12535,"tested":12536,"eme":12537,"qualified":12538,"wedding":12539,"Much":12540,"eros":12541,"ensu":12542,"Shel":12543,"acle":12544,"Ti":12545,"argument":12546,"Buck":12547,"hl":12548,"Satur":12549,"tunnel":12550,"gap":12551,"hem":12552,"Philippines":12553,"Nash":12554,"prosecut":12555,"rug":12556,"Lith":12557,"asking":12558,"teaching":12559,"Whe":12560,"jan":12561,"defeating":12562,"Hotel":12563,"Gate":12564,"tomb":12565,"Swe":12566,"remark":12567,"lights":12568,"Campbell":12569,"backing":12570,"igen":12571,"businesses":12572,"Building":12573,"Born":12574,"legitim":12575,"constitutional":12576,"sung":12577,"Native":12578,"miss":12579,"hull":12580,"owing":12581,"ounced":12582,"elabor":12583,"assists":12584,"pron":12585,"sevent":12586,"agricultural":12587,"CS":12588,"gard":12589,"foundation":12590,"opponent":12591,"Digital":12592,"diet":12593,"dense":12594,"Mississippi":12595,"submitted":12596,"discipl":12597,"switch":12598,"Pad":12599,"sunk":12600,"signing":12601,"Area":12602,"chi":12603,"affili":12604,"consistent":12605,"Rang":12606,"Ward":12607,"fifteen":12608,"Blues":12609,"household":12610,"beaten":12611,"signs":12612,"Tel":12613,"recur":12614,"behalf":12615,"voiced":12616,"sank":12617,"pler":12618,"andal":12619,"incial":12620,"Descri":12621,"railroad":12622,"elder":12623,"percentage":12624,"Alexand":12625,"symptoms":12626,"spiritual":12627,"Tennes":12628,"tha":12629,"ammunition":12630,"lob":12631,"racing":12632,"Shakespeare":12633,"registered":12634,"organisation":12635,"subjects":12636,"Kings":12637,"Mach":12638,"parish":12639,"Box":12640,"Halo":12641,"shells":12642,"Rober":12643,"rant":12644,"forty":12645,"imperial":12646,"situated":12647,"Athlet":12648,"amps":12649,"seed":12650,"recognised":12651,"conventional":12652,"Contro":12653,"Lad":12654,"repairs":12655,"Inc":12656,"illness":12657,"Fal":12658,"flights":12659,"360":12660,"mers":12661,"atically":12662,"resolution":12663,"ić":12664,"deliber":12665,"Margaret":12666,"ais":12667,"tornado":12668,"terror":12669,"fat":12670,"grey":12671,"sacrif":12672,"onymous":12673,"itated":12674,"tz":12675,"rolled":12676,"worn":12677,"Historic":12678,"attendance":12679,"NS":12680,"pace":12681,"Lucas":12682,"audiences":12683,"Mack":12684,"Guide":12685,"entertain":12686,"collaboration":12687,"fires":12688,"disaster":12689,"Egyptian":12690,"Ga":12691,"crest":12692,"restaurant":12693,"lieutenant":12694,"feelings":12695,"suspended":12696,"Warren":12697,"Dest":12698,"shield":12699,"underground":12700,"targets":12701,"affairs":12702,"threw":12703,"stell":12704,"exit":12705,"inners":12706,"Tag":12707,"operational":12708,"earthqu":12709,"Tennessee":12710,"RI":12711,"Ped":12712,"odge":12713,"worship":12714,"aimed":12715,"Wes":12716,"gry":12717,"armored":12718,"1906":12719,"Depression":12720,"Louisiana":12721,"thinking":12722,"affair":12723,"eties":12724,"Cer":12725,"rial":12726,"Critics":12727,"loved":12728,"funeral":12729,"igs":12730,"compilation":12731,"Labour":12732,"RS":12733,"keeper":12734,"UE":12735,"1904":12736,"measured":12737,"Montreal":12738,"filed":12739,"lia":12740,"circle":12741,"sector":12742,"Palest":12743,"poorly":12744,"documents":12745,"lanes":12746,"delay":12747,"Tot":12748,"Beg":12749,"Season":12750,"inea":12751,"hole":12752,"plain":12753,"Missouri":12754,"temporarily":12755,"represents":12756,"overe":12757,"netic":12758,"Sin":12759,"altar":12760,"Ship":12761,"eline":12762,"nucle":12763,"Program":12764,"lu":12765,"Jos":12766,"Ring":12767,"Dragon":12768,"ée":12769,"dia":12770,"Works":12771,"statue":12772,"Cze":12773,"explosion":12774,"ateur":12775,"athy":12776,"tension":12777,"oes":12778,"squ":12779,"entertainment":12780,"alliance":12781,"diver":12782,"Nine":12783,"rix":12784,"offering":12785,"meat":12786,"Billy":12787,"Fem":12788,"replacing":12789,"Mitchell":12790,"onomy":12791,"preparation":12792,"Ultim":12793,"fifty":12794,"engagement":12795,"vens":12796,"exh":12797,"Small":12798,"wore":12799,"feud":12800,"administrative":12801,"Independent":12802,"Cow":12803,"Snow":12804,"zona":12805,"Business":12806,"Czech":12807,"residence":12808,"restoration":12809,"roots":12810,"Report":12811,"charter":12812,"Graham":12813,"blocks":12814,"Shaw":12815,"scr":12816,"touring":12817,"reluct":12818,"collaps":12819,"reflected":12820,"rebuilt":12821,"venues":12822,"frig":12823,"Mik":12824,"prime":12825,"Michel":12826,"fatal":12827,"yd":12828,"rivers":12829,"surge":12830,"suggesting":12831,"Ye":12832,"cture":12833,"Dw":12834,"Maur":12835,"Ridge":12836,"inland":12837,"completing":12838,"mountains":12839,"amongst":12840,"phe":12841,"conservative":12842,"ylan":12843,"warn":12844,"horror":12845,"diction":12846,"eron":12847,"diagn":12848,"Cook":12849,"wonder":12850,"tribes":12851,"directors":12852,"Hem":12853,"utions":12854,"dramatic":12855,"looks":12856,"stores":12857,"escaped":12858,"pulled":12859,"Cuba":12860,"Hip":12861,"dish":12862,"cancelled":12863,"Gy":12864,"lacked":12865,"tellect":12866,"lemur":12867,"fallen":12868,"recommend":12869,"stretch":12870,"altered":12871,"wasn":12872,"coverage":12873,"clearly":12874,"patrol":12875,"ribute":12876,"argues":12877,"ingham":12878,"08":12879,"bombard":12880,"decides":12881,"predomin":12882,"colonies":12883,"fixed":12884,"Chand":12885,"mining":12886,"circuit":12887,"ownership":12888,"icken":12889,"distinguished":12890,"Sn":12891,"maneu":12892,"cargo":12893,"oxide":12894,"femin":12895,"steps":12896,"overeign":12897,"itter":12898,"patterns":12899,"adequ":12900,"artney":12901,"aks":12902,"Phoen":12903,"Files":12904,"Cin":12905,"Josh":12906,"Indies":12907,"drove":12908,"Persian":12909,"Tamil":12910,"valid":12911,"Len":12912,"remnants":12913,"perspective":12914,"merchant":12915,"faster":12916,"spoken":12917,"saved":12918,"wicket":12919,"Sony":12920,"characterized":12921,"excav":12922,"Arizona":12923,"mathemat":12924,"contributions":12925,"ras":12926,"Saturday":12927,"Bureau":12928,"Gab":12929,"poems":12930,"badly":12931,"Dylan":12932,"aqu":12933,"artistic":12934,"twin":12935,"Aff":12936,"aman":12937,"fastest":12938,"chapel":12939,"Grey":12940,"rever":12941,"urally":12942,"Shad":12943,"riders":12944,"Mess":12945,"Marie":12946,"playoffs":12947,"Denn":12948,"Las":12949,"Scout":12950,"shad":12951,"strict":12952,"hosts":12953,"militia":12954,"absolute":12955,"boundary":12956,"wait":12957,"UC":12958,"punk":12959,"notice":12960,"ranging":12961,"jazz":12962,"rising":12963,"severely":12964,"institutions":12965,"serial":12966,"ideal":12967,"explain":12968,"ME":12969,"spend":12970,"Bron":12971,"inations":12972,"idency":12973,"bulk":12974,"Confederate":12975,"Ton":12976,"retail":12977,"hears":12978,"xture":12979,"Na":12980,"ranks":12981,"context":12982,"lips":12983,"depending":12984,"inhabitants":12985,"ABC":12986,"aph":12987,"explains":12988,"distinctive":12989,"demonstrated":12990,"chamber":12991,"Barbar":12992,"boss":12993,"fest":12994,"vast":12995,"theater":12996,"bronze":12997,"Cycl":12998,"Oklah":12999,"09":13000,"RP":13001,"Ni":13002,"apy":13003,"oga":13004,"condem":13005,"elig":13006,"bowling":13007,"arrive":13008,"baby":13009,"closure":13010,"controls":13011,"Austrian":13012,"abund":13013,"flagship":13014,"dee":13015,"practices":13016,"HD":13017,"agency":13018,"obvious":13019,"Switzer":13020,"Amy":13021,"Liz":13022,"waiting":13023,"Broadway":13024,"sisters":13025,"wider":13026,"Kirk":13027,"Such":13028,"mund":13029,"vs":13030,"wants":13031,"1901":13032,"ighth":13033,"Harvey":13034,"evolved":13035,"Murphy":13036,"vulner":13037,"Econom":13038,"Switzerland":13039,"visiting":13040,"enger":13041,"placing":13042,"Mrs":13043,"acceler":13044,"dominant":13045,"spotted":13046,"Flo":13047,"conspir":13048,"exhibition":13049,"satellite":13050,"articles":13051,"northward":13052,"reaches":13053,"application":13054,"yield":13055,"synd":13056,"tent":13057,"Barry":13058,"cession":13059,"fortun":13060,"cores":13061,"surgery":13062,"Delaware":13063,"OC":13064,"nominations":13065,"uma":13066,"mphony":13067,"ffect":13068,"Mode":13069,"rescu":13070,"palace":13071,"prepare":13072,"leaf":13073,"Oklahoma":13074,"sper":13075,"protein":13076,"carriers":13077,"Federation":13078,"AP":13079,"Won":13080,"impression":13081,"heading":13082,"altit":13083,"ulating":13084,"helps":13085,"storage":13086,"motiv":13087,"subspecies":13088,"attained":13089,"households":13090,"predicted":13091,"Gary":13092,"vine":13093,"engage":13094,"ruption":13095,"bard":13096,"cliff":13097,"quer":13098,"descend":13099,"essential":13100,"beam":13101,"harm":13102,"typhoon":13103,"adventure":13104,"mistry":13105,"1903":13106,"intellect":13107,"1902":13108,"slaves":13109,"onom":13110,"ogan":13111,"kees":13112,"battalions":13113,"Original":13114,"Barr":13115,"cro":13116,"repeatedly":13117,"Juan":13118,"bombing":13119,"predecessor":13120,"izon":13121,"Lithuan":13122,"Fif":13123,"Hur":13124,"signal":13125,"Pi":13126,"peaking":13127,"Gam":13128,"Perry":13129,"Originally":13130,"striking":13131,"Joh":13132,"pretty":13133,"Morr":13134,"Gor":13135,"excellent":13136,"ogen":13137,"Leslie":13138,"philosophy":13139,"Baseball":13140,"westward":13141,"faction":13142,"vertical":13143,"alive":13144,"Jar":13145,"remarked":13146,"illegal":13147,"frustr":13148,"Tokyo":13149,"115":13150,"Hub":13151,"convers":13152,"bones":13153,"perceived":13154,"Lex":13155,"pension":13156,"biograph":13157,"matters":13158,"oid":13159,"proxim":13160,"circumstances":13161,"choose":13162,"sick":13163,"Denmark":13164,"inals":13165,"useful":13166,"meetings":13167,"seriously":13168,"Ple":13169,"impress":13170,"Jonathan":13171,"apartment":13172,"quiet":13173,"Kon":13174,"Prom":13175,"fu":13176,"reconnaissance":13177,"Pil":13178,"Rico":13179,"backed":13180,"sket":13181,"civilian":13182,"zing":13183,"Johnny":13184,"Players":13185,"span":13186,"Atlanta":13187,"drugs":13188,"iveness":13189,"Wolf":13190,"musician":13191,"Sciento":13192,"Campaign":13193,"mant":13194,"enna":13195,"jer":13196,"readers":13197,"haw":13198,"acou":13199,"clin":13200,"posit":13201,"planets":13202,"Territ":13203,"Rihanna":13204,"angular":13205,"Spot":13206,"Ky":13207,"democr":13208,"Gray":13209,"Spir":13210,"Sid":13211,"whilst":13212,"retain":13213,"Brig":13214,"enlisted":13215,"expo":13216,"Bernard":13217,"triple":13218,"Nixon":13219,"stim":13220,"similarly":13221,"juris":13222,"apolis":13223,"coat":13224,"retre":13225,"ller":13226,"Abbey":13227,"strengthened":13228,"moon":13229,"Rat":13230,"gau":13231,"pressing":13232,"placement":13233,"urer":13234,"demanded":13235,"Edwards":13236,"assembled":13237,"panel":13238,"Chel":13239,"legacy":13240,"connect":13241,"sharp":13242,"simultaneously":13243,"accurate":13244,"definite":13245,"cury":13246,"alternate":13247,"mingham":13248,"Pitts":13249,"jury":13250,"Theod":13251,"Wilhelm":13252,"Less":13253,"overw":13254,"shipping":13255,"insisted":13256,"shift":13257,"bombs":13258,"Arnold":13259,"Keith":13260,"dancing":13261,"athletes":13262,"texts":13263,"behaviour":13264,"estyle":13265,"pages":13266,"itted":13267,"partial":13268,"subsid":13269,"TS":13270,"och":13271,"promised":13272,"citizen":13273,"ghan":13274,"petition":13275,"demands":13276,"compass":13277,"mainland":13278,"virus":13279,"Jimmy":13280,"revenue":13281,"Cat":13282,"Laur":13283,"console":13284,"ruling":13285,"Iran":13286,"Madagas":13287,"continental":13288,"marketing":13289,"personally":13290,"propag":13291,"dubbed":13292,"loose":13293,"tempo":13294,"extend":13295,"confess":13296,"Cost":13297,"Sem":13298,"suburb":13299,"Prize":13300,"drivers":13301,"struggled":13302,"interpretation":13303,"regation":13304,"inian":13305,"elli":13306,"accum":13307,"definition":13308,"believing":13309,"guilty":13310,"lain":13311,"Internet":13312,"guitarist":13313,"iders":13314,"constitution":13315,"compens":13316,"pione":13317,"Universal":13318,"verte":13319,"orchestra":13320,"Lock":13321,"armies":13322,"secretary":13323,"audition":13324,"Rachel":13325,"fossil":13326,"olds":13327,"Neil":13328,"aus":13329,"cannon":13330,"artwork":13331,"guy":13332,"jobs":13333,"Mol":13334,"artific":13335,"ella":13336,"wire":13337,"Furthermore":13338,"demolished":13339,"compliment":13340,"Yankees":13341,"Tracy":13342,"Bach":13343,"markets":13344,"Lost":13345,"starring":13346,"amid":13347,"lavery":13348,"glac":13349,"Rud":13350,"cry":13351,"Railroad":13352,"rebound":13353,"adm":13354,"ressing":13355,"Birmingham":13356,"kW":13357,"azines":13358,"liner":13359,"feels":13360,"utical":13361,"Canter":13362,"profile":13363,"pursue":13364,"Eventually":13365,"05":13366,"acclaim":13367,"counties":13368,"bonus":13369,"gence":13370,"comprom":13371,"culmin":13372,"Obama":13373,"Eve":13374,"vices":13375,"tot":13376,"bearing":13377,"increases":13378,"zon":13379,"cutting":13380,"Ah":13381,"listen":13382,"Defence":13383,"Jup":13384,"chest":13385,"clothing":13386,"Dy":13387,"Wag":13388,"sq":13389,"erected":13390,"delivery":13391,"discovers":13392,"challenged":13393,"productions":13394,"tu":13395,"Mission":13396,"oral":13397,"elevation":13398,"Enterprise":13399,"Bobby":13400,"hind":13401,"succeed":13402,"Baker":13403,"laugh":13404,"Phoenix":13405,"tale":13406,"icing":13407,"Blood":13408,"bacter":13409,"Hom":13410,"Hudson":13411,"Morrison":13412,"tario":13413,"practical":13414,"Wayne":13415,"Prim":13416,"Impact":13417,"extract":13418,"Carr":13419,"barr":13420,"educational":13421,"hire":13422,"drink":13423,"overseas":13424,"renov":13425,"Pearl":13426,"gs":13427,"rice":13428,"ultan":13429,"doubt":13430,"funny":13431,"Sak":13432,"defences":13433,"Type":13434,"oblig":13435,"cticut":13436,"Connecticut":13437,"conversion":13438,"McCartney":13439,"deterior":13440,"Madagascar":13441,"Trail":13442,"founding":13443,"Peace":13444,"sitting":13445,"Dem":13446,"Rights":13447,"eland":13448,"mush":13449,"realized":13450,"edited":13451,"Todd":13452,"acknowledged":13453,"Mand":13454,"settlers":13455,"ensis":13456,"haul":13457,"spar":13458,"understood":13459,"cultiv":13460,"indicating":13461,"oker":13462,"Ontario":13463,"diamond":13464,"connecting":13465,"pale":13466,"solar":13467,"objective":13468,"rolling":13469,"Canterbury":13470,"vous":13471,"dressed":13472,"prises":13473,"highways":13474,"legislature":13475,"Community":13476,"atomic":13477,"Bac":13478,"communications":13479,"Friday":13480,"Trib":13481,"wrestling":13482,"Cand":13483,"maid":13484,"06":13485,"Lang":13486,"campaigns":13487,"Napoleon":13488,"Patt":13489,"Sig":13490,"Tu":13491,"compounds":13492,"Drive":13493,"07":13494,"ules":13495,"compound":13496,"aftermath":13497,"Allies":13498,"dogs":13499,"decisions":13500,"arrangements":13501,"initiated":13502,"Mint":13503,"raids":13504,"Goth":13505,"irty":13506,"concentration":13507,"Leonard":13508,"Maj":13509,"hydrogen":13510,"atropical":13511,"dissipated":13512,"aggressive":13513,"establishing":13514,"trouble":13515,"sar":13516,"spell":13517,"walking":13518,"liquid":13519,"rod":13520,"Foreign":13521,"wealthy":13522,"hidden":13523,"odd":13524,"TNA":13525,"danger":13526,"gon":13527,"riff":13528,"exactly":13529,"Rab":13530,"execution":13531,"confron":13532,"permitted":13533,"ciples":13534,"improvements":13535,"Pruss":13536,"considering":13537,"publications":13538,"Boys":13539,"Bot":13540,"Ted":13541,"aken":13542,"publishing":13543,"feeding":13544,"Windows":13545,"bare":13546,"asters":13547,"graduated":13548,"Mountains":13549,"evacuated":13550,"Bath":13551,"soldier":13552,"removal":13553,"Stu":13554,"lat":13555,"asant":13556,"rier":13557,"ported":13558,"metric":13559,"fewer":13560,"OT":13561,"fortress":13562,"celebrated":13563,"Publ":13564,"observations":13565,"uman":13566,"jet":13567,"irts":13568,"travels":13569,"aerial":13570,"Our":13571,"XX":13572,"membership":13573,"stationed":13574,"Outstanding":13575,"UEFA":13576,"nan":13577,"sang":13578,"Dall":13579,"couver":13580,"idal":13581,"ifer":13582,"Nu":13583,"nell":13584,"rebellion":13585,"Commer":13586,"requires":13587,"defending":13588,"okie":13589,"visits":13590,"strategic":13591,"originated":13592,"Vancouver":13593,"350":13594,"Sex":13595,"pard":13596,"origins":13597,"Ald":13598,"Lion":13599,"kiss":13600,"proof":13601,"105":13602,"drag":13603,"explan":13604,"Jupiter":13605,"putting":13606,"extratropical":13607,"conven":13608,"gray":13609,"magic":13610,"youngest":13611,"Portugu":13612,"theatrical":13613,"fantasy":13614,"Glen":13615,"assembly":13616,"approaching":13617,"quarterback":13618,"Spart":13619,"adier":13620,"shorter":13621,"feld":13622,"aurus":13623,"consol":13624,"Edin":13625,"announcement":13626,"magazines":13627,"donated":13628,"brilli":13629,"Administration":13630,"Lat":13631,"athe":13632,"Champions":13633,"ennium":13634,"Pakistan":13635,"monitor":13636,"spur":13637,"ongoing":13638,"Kam":13639,"exposure":13640,"cali":13641,"creek":13642,"Triple":13643,"warf":13644,"topped":13645,"amental":13646,"discussion":13647,"Ful":13648,"JT":13649,"eving":13650,"Bradman":13651,"tubes":13652,"Portuguese":13653,"agger":13654,"closest":13655,"LA":13656,"insects":13657,"Collins":13658,"strongest":13659,"Monte":13660,"evalu":13661,"Joy":13662,"colleagues":13663,"Potter":13664,"nom":13665,"identify":13666,"skull":13667,"flowers":13668,"phrase":13669,"Tai":13670,"withdrawal":13671,"gender":13672,"landscape":13673,"supplied":13674,"gathered":13675,"exhaust":13676,"Alice":13677,"volumes":13678,"scription":13679,"indicates":13680,"fault":13681,"Mans":13682,"united":13683,"Dwight":13684,"beats":13685,"vinces":13686,"collapsed":13687,"ashed":13688,"ologists":13689,"NCAA":13690,"Trophy":13691,"merely":13692,"Tax":13693,"osex":13694,"bast":13695,"mini":13696,"decide":13697,"Girls":13698,"solved":13699,"1893":13700,"confront":13701,"tick":13702,"stress":13703,"polar":13704,"radiation":13705,"cant":13706,"provision":13707,"queen":13708,"persons":13709,"interpreted":13710,"1896":13711,"density":13712,"vertebr":13713,"ois":13714,"ifies":13715,"rhythm":13716,"Dale":13717,"Fu":13718,"Meteor":13719,"limits":13720,"Fleming":13721,"dispatch":13722,"pa":13723,"debt":13724,"Kid":13725,"Say":13726,"aro":13727,"pill":13728,"specimen":13729,"Honor":13730,"Reserve":13731,"uncle":13732,"Inn":13733,"Marvel":13734,"ika":13735,"guaran":13736,"Years":13737,"outr":13738,"Oliver":13739,"municipal":13740,"stere":13741,"corps":13742,"weekly":13743,"concentrated":13744,"Fil":13745,"ulous":13746,"Hampshire":13747,"ske":13748,"eries":13749,"Afghan":13750,"salt":13751,"navy":13752,"annually":13753,"promotional":13754,"Edinburgh":13755,"iate":13756,"seized":13757,"astru":13758,"basin":13759,"Fis":13760,"trough":13761,"Those":13762,"respective":13763,"Swift":13764,"emphasis":13765,"ür":13766,"rocks":13767,"Flying":13768,"List":13769,"illing":13770,"duo":13771,"Charts":13772,"cuts":13773,"ranges":13774,"Bak":13775,"Cob":13776,"questioned":13777,"Roberts":13778,"HS":13779,"furn":13780,"electricity":13781,"vital":13782,"tooth":13783,"attending":13784,"currency":13785,"blind":13786,"1898":13787,"crops":13788,"Beng":13789,"stuff":13790,"parody":13791,"Nag":13792,"champions":13793,"Where":13794,"Secur":13795,"Kan":13796,"papers":13797,"Victorian":13798,"Natural":13799,"Ax":13800,"Abr":13801,"GM":13802,"finger":13803,"eneath":13804,"brig":13805,"investigate":13806,"Mong":13807,"Personal":13808,"proportion":13809,"offense":13810,"Karl":13811,"cub":13812,"anime":13813,"Finally":13814,"talking":13815,"flooded":13816,"imetres":13817,"unless":13818,"exercise":13819,"mour":13820,"adjust":13821,"Beaut":13822,"prize":13823,"Tig":13824,"ticket":13825,"Democrats":13826,"Turner":13827,"Maya":13828,"Scar":13829,"flows":13830,"Bio":13831,"Pam":13832,"elle":13833,"daughters":13834,"Yorkshire":13835,"Andre":13836,"Ralph":13837,"ucing":13838,"Performan":13839,"Bomb":13840,"itis":13841,"constit":13842,"ensus":13843,"advertising":13844,"adal":13845,"portrayal":13846,"Mother":13847,"nit":13848,"ographic":13849,"ante":13850,"pert":13851,"doors":13852,"icity":13853,"usive":13854,"spaces":13855,"uniform":13856,"kings":13857,"ugh":13858,"regime":13859,"birthday":13860,"Argentina":13861,"Village":13862,"scattered":13863,"underwent":13864,"Overall":13865,"external":13866,"Hunt":13867,"chord":13868,"conservation":13869,"attitude":13870,"photographs":13871,"cards":13872,"sending":13873,"1940s":13874,"azing":13875,"hitting":13876,"swimming":13877,"Comple":13878,"Convention":13879,"dimension":13880,"Brothers":13881,"Christianity":13882,"experimental":13883,"continuous":13884,"acoustic":13885,"software":13886,"terrain":13887,"Charac":13888,"commentary":13889,"analy":13890,"Lt":13891,"encies":13892,"coinc":13893,"Professor":13894,"Craig":13895,"overwhel":13896,"output":13897,"Deep":13898,"drinking":13899,"translation":13900,"1899":13901,"imagery":13902,"Jerry":13903,"liberal":13904,"Bab":13905,"Haz":13906,"Stat":13907,"ballad":13908,"Quar":13909,"aggreg":13910,"replied":13911,"wish":13912,"unclear":13913,"leges":13914,"penet":13915,"worthy":13916,"loyal":13917,"Chronicle":13918,"charted":13919,"fairly":13920,"lawyer":13921,"thirteen":13922,"Epis":13923,"utt":13924,"hammad":13925,"patri":13926,"empire":13927,"intim":13928,"blast":13929,"redes":13930,"cousin":13931,"representatives":13932,"branches":13933,"Pap":13934,"gel":13935,"nice":13936,"thet":13937,"Marge":13938,"Ama":13939,"pike":13940,"stops":13941,"iti":13942,"aches":13943,"Fund":13944,"marsh":13945,"angered":13946,"iciency":13947,"ayan":13948,"conceived":13949,"Auto":13950,"valuable":13951,"Queensland":13952,"Nation":13953,"Scre":13954,"courses":13955,"handle":13956,"slave":13957,"expert":13958,"enthusi":13959,"125":13960,"bag":13961,"duration":13962,"movies":13963,"Stre":13964,"Shak":13965,"Finland":13966,"failing":13967,"pictures":13968,"exclusive":13969,"Side":13970,"Lloyd":13971,"ogram":13972,"sect":13973,"identical":13974,"devast":13975,"stronger":13976,"accompanying":13977,"Howe":13978,"surrendered":13979,"lighting":13980,"arrives":13981,"friendship":13982,"embarked":13983,"Bour":13984,"Kap":13985,"jok":13986,"provincial":13987,"oor":13988,"Books":13989,"Hardy":13990,"reinforcements":13991,"Wii":13992,"tenure":13993,"Luc":13994,"Mason":13995,"Similarly":13996,"Bes":13997,"centers":13998,"gom":13999,"atever":14000,"Norfolk":14001,"reward":14002,"users":14003,"succession":14004,"reveal":14005,"components":14006,"labe":14007,"Fat":14008,"reverse":14009,"itals":14010,"See":14011,"suspect":14012,"Hawaii":14013,"disband":14014,"reducing":14015,"Boat":14016,"Heritage":14017,"Stevens":14018,"authorized":14019,"destroying":14020,"competing":14021,"Nicholas":14022,"Emer":14023,"Jama":14024,"makers":14025,"riors":14026,"resolved":14027,"dread":14028,"prices":14029,"puzz":14030,"thrown":14031,"ampton":14032,"Count":14033,"Services":14034,"trading":14035,"Burton":14036,"component":14037,"accommo":14038,"mechanical":14039,"exclusively":14040,"1850":14041,"Belgian":14042,"burned":14043,"watershed":14044,"bol":14045,"retro":14046,"cloud":14047,"Communist":14048,"slavery":14049,"thal":14050,"investment":14051,"hes":14052,"conce":14053,"Soul":14054,"publisher":14055,"voting":14056,"ptions":14057,"governments":14058,"Cart":14059,"Sign":14060,"Thunder":14061,"arrier":14062,"Dak":14063,"Ori":14064,"Vincent":14065,"Ki":14066,"imination":14067,"umph":14068,"considers":14069,"Rangers":14070,"gaining":14071,"org":14072,"precipitation":14073,"Catherine":14074,"pier":14075,"ön":14076,"tube":14077,"runner":14078,"varied":14079,"banned":14080,"server":14081,"mol":14082,"ista":14083,"counters":14084,"Training":14085,"developers":14086,"Davies":14087,"Medical":14088,"parks":14089,"Local":14090,"pus":14091,"Emmy":14092,"devices":14093,"traded":14094,"Credits":14095,"Link":14096,"Sud":14097,"contribution":14098,"Transportation":14099,"Tube":14100,"thunder":14101,"toured":14102,"MV":14103,"Pic":14104,"riding":14105,"labour":14106,"Execut":14107,"pound":14108,"waste":14109,"platforms":14110,"Liberal":14111,"Toy":14112,"handled":14113,"artificial":14114,"Living":14115,"mail":14116,"talks":14117,"burst":14118,"architectural":14119,"astructure":14120,"Hann":14121,"vet":14122,"fourteen":14123,"tours":14124,"Diamond":14125,"Darwin":14126,"rab":14127,"chant":14128,"colum":14129,"flex":14130,"frequency":14131,"abuse":14132,"quit":14133,"ffield":14134,"intersects":14135,"kills":14136,"Bennett":14137,"earthquake":14138,"Curt":14139,"Hey":14140,"prev":14141,"songwriter":14142,"humor":14143,"referring":14144,"electrical":14145,"Hughes":14146,"characteristic":14147,"1897":14148,"Yellow":14149,"aja":14150,"boilers":14151,"Scientology":14152,"bore":14153,"len":14154,"tribut":14155,"Guitar":14156,"Prix":14157,"proceeded":14158,"innov":14159,"profession":14160,"slip":14161,"aments":14162,"amateur":14163,"otions":14164,"Farm":14165,"illes":14166,"noble":14167,"Harvard":14168,"destroyer":14169,"Æthel":14170,"advised":14171,"uras":14172,"reviewed":14173,"connections":14174,"sin":14175,"acles":14176,"shares":14177,"qualifying":14178,"Apol":14179,"WA":14180,"accord":14181,"racial":14182,"Market":14183,"Must":14184,"Appe":14185,"improvement":14186,"rin":14187,"competitive":14188,"Hold":14189,"IC":14190,"Tow":14191,"bilities":14192,"igu":14193,"copper":14194,"mock":14195,"avi":14196,"legislative":14197,"licens":14198,"Saxon":14199,"Som":14200,"praising":14201,"thro":14202,"Harbor":14203,"uranium":14204,"forecast":14205,"ctoral":14206,"passion":14207,"Gallery":14208,"anner":14209,"Swiss":14210,"requirements":14211,"nose":14212,"sixteen":14213,"representation":14214,"Indonesia":14215,"samples":14216,"Antonio":14217,"Bull":14218,"recip":14219,"lide":14220,"charity":14221,"RT":14222,"theore":14223,"itarian":14224,"photography":14225,"translated":14226,"Moscow":14227,"Pir":14228,"brew":14229,"hook":14230,"cleared":14231,"tactics":14232,"Ric":14233,"Cameron":14234,"Ade":14235,"morph":14236,"JTWC":14237,"Yam":14238,"anyon":14239,"reduction":14240,"VIII":14241,"grossing":14242,"tru":14243,"construct":14244,"confidence":14245,"Kate":14246,"ulty":14247,"Upper":14248,"Mix":14249,"Oslo":14250,"Globe":14251,"Pittsburgh":14252,"Cad":14253,"avel":14254,"certainly":14255,"04":14256,"Next":14257,"bris":14258,"Geoff":14259,"ugal":14260,"Bis":14261,"exists":14262,"attor":14263,"marines":14264,"Quest":14265,"acing":14266,"Chance":14267,"axy":14268,"patients":14269,"exceed":14270,"minster":14271,"ruler":14272,"NL":14273,"Vic":14274,"jump":14275,"realistic":14276,"inspe":14277,"berry":14278,"posts":14279,"commenced":14280,"commanding":14281,"Pul":14282,"signature":14283,"Craw":14284,"Lem":14285,"ologies":14286,"tonnes":14287,"survival":14288,"RNA":14289,"shoulder":14290,"leans":14291,"transported":14292,"Rest":14293,"uki":14294,"uton":14295,"Mayor":14296,"nautical":14297,"Terry":14298,"reinforced":14299,"Ker":14300,"maker":14301,"Past":14302,"haz":14303,"Alaska":14304,"explicit":14305,"communist":14306,"electro":14307,"laps":14308,"ela":14309,"taxes":14310,"Wallace":14311,"opportunities":14312,"melody":14313,"Tul":14314,"hills":14315,"cules":14316,"climb":14317,"Micros":14318,"Daw":14319,"harbour":14320,"Abd":14321,"synthe":14322,"Vari":14323,"fant":14324,"Brand":14325,"Clay":14326,"enforce":14327,"relocated":14328,"pairs":14329,"accessible":14330,"burning":14331,"rand":14332,"zh":14333,"Peters":14334,"revolt":14335,"Pon":14336,"Aftermath":14337,"paras":14338,"revised":14339,"airing":14340,"manga":14341,"withdrawn":14342,"Microsoft":14343,"Yo":14344,"amen":14345,"user":14346,"thodox":14347,"ambers":14348,"Syria":14349,"programming":14350,"minority":14351,"indeed":14352,"lasting":14353,"commanders":14354,"voices":14355,"agh":14356,"shr":14357,"traveling":14358,"drafted":14359,"Cit":14360,"aco":14361,"provinces":14362,"Still":14363,"blues":14364,"warfare":14365,"1890":14366,"stroke":14367,"Nob":14368,"sovereign":14369,"Jefferson":14370,"pip":14371,"Near":14372,"cartoon":14373,"1000":14374,"aders":14375,"Reich":14376,"distant":14377,"carries":14378,"Malaysia":14379,"Pin":14380,"illo":14381,"keys":14382,"extending":14383,"biographer":14384,"Grace":14385,"Luke":14386,"judg":14387,"Security":14388,"Steel":14389,"Richmond":14390,"Ach":14391,"displaced":14392,"Sheffield":14393,"Meg":14394,"iga":14395,"promin":14396,"Israeli":14397,"acked":14398,"Larry":14399,"Officer":14400,"principles":14401,"Classic":14402,"tender":14403,"1895":14404,"autumn":14405,"prisoner":14406,"experiments":14407,"urricanes":14408,"Industri":14409,"shifted":14410,"GB":14411,"vig":14412,"oda":14413,"Bryan":14414,"Dallas":14415,"learns":14416,"Nam":14417,"cats":14418,"avia":14419,"towers":14420,"Guinea":14421,"Pictures":14422,"magnitude":14423,"atop":14424,"radical":14425,"relatives":14426,"sample":14427,"venge":14428,"Blu":14429,"rivalry":14430,"ented":14431,"blocked":14432,"Defense":14433,"osa":14434,"Together":14435,"approaches":14436,"Pas":14437,"atra":14438,"chore":14439,"imposed":14440,"Chile":14441,"Sega":14442,"Johnston":14443,"FBI":14444,"kar":14445,"porting":14446,"cyclones":14447,"Clarke":14448,"absent":14449,"Owen":14450,"Performance":14451,"Eis":14452,"Orange":14453,"ario":14454,"supplement":14455,"shelter":14456,"landers":14457,"Austin":14458,"transportation":14459,"Cyrus":14460,"warnings":14461,"None":14462,"cester":14463,"displays":14464,"Sle":14465,"uez":14466,"restore":14467,"pes":14468,"Province":14469,"routine":14470,"Pink":14471,"Woman":14472,"optim":14473,"doct":14474,"rebels":14475,"emble":14476,"adesh":14477,"physics":14478,"districts":14479,"Gw":14480,"inding":14481,"sings":14482,"scores":14483,"Studio":14484,"Wells":14485,"medicine":14486,"traditions":14487,"preparing":14488,"proposals":14489,"Continent":14490,"cum":14491,"gus":14492,"rebel":14493,"itious":14494,"Anti":14495,"participation":14496,"Zone":14497,"tort":14498,"Parsons":14499,"estimates":14500,"LP":14501,"desert":14502,"Ferr":14503,"essentially":14504,"crush":14505,"clothes":14506,"oriented":14507,"institution":14508,"multiplayer":14509,"interviews":14510,"powder":14511,"decorated":14512,"gren":14513,"assum":14514,"veloc":14515,"Greater":14516,"Wheel":14517,"unlikely":14518,"neth":14519,"protests":14520,"Armstrong":14521,"inhab":14522,"sile":14523,"Bren":14524,"diversity":14525,"diverse":14526,"Description":14527,"Chelsea":14528,"toler":14529,"simpl":14530,"salary":14531,"comfortable":14532,"wished":14533,"maintaining":14534,"Formation":14535,"intervention":14536,"ieth":14537,"Danish":14538,"cabinet":14539,"nered":14540,"ifest":14541,"ceded":14542,"collections":14543,"Brazilian":14544,"cinema":14545,"Beginning":14546,"utton":14547,"breast":14548,"promise":14549,"mediate":14550,"allied":14551,"drummer":14552,"adequate":14553,"Abu":14554,"Liter":14555,"reforms":14556,"noticed":14557,"Fourth":14558,"recovery":14559,"Actor":14560,"owski":14561,"astro":14562,"scope":14563,"arguing":14564,"Sac":14565,"Greatest":14566,"Sche":14567,"Rio":14568,"manage":14569,"Quebec":14570,"recurring":14571,"Kit":14572,"iy":14573,"balls":14574,"vant":14575,"funded":14576,"Kaiser":14577,"Agency":14578,"beneath":14579,"astery":14580,"tape":14581,"significance":14582,"vulnerable":14583,"03":14584,"Hav":14585,"dinosaur":14586,"consolid":14587,"Psy":14588,"Aren":14589,"afts":14590,"Authority":14591,"conquest":14592,"ultimate":14593,"Kane":14594,"advertis":14595,"Mob":14596,"eating":14597,"chronic":14598,"trick":14599,"achute":14600,"releg":14601,"iko":14602,"statistics":14603,"sponsored":14604,"Buffalo":14605,"emen":14606,"Spirit":14607,"Gay":14608,"Ivan":14609,"Jacqu":14610,"hin":14611,"Alban":14612,"Cathedral":14613,"Constantin":14614,"ths":14615,"Susan":14616,"McKin":14617,"Charlot":14618,"Plant":14619,"applications":14620,"squadrons":14621,"precise":14622,"metro":14623,"answer":14624,"Dub":14625,"Orleans":14626,"Avi":14627,"loaded":14628,"descent":14629,"surve":14630,"surprised":14631,"Cool":14632,"enzy":14633,"bears":14634,"unexpected":14635,"shallow":14636,"ipality":14637,"breaks":14638,"Magn":14639,"dium":14640,"colors":14641,"Junior":14642,"Falls":14643,"fate":14644,"avan":14645,"grandfather":14646,"Cultural":14647,"Stars":14648,"ashore":14649,"tribe":14650,"1861":14651,"kilome":14652,"mons":14653,"inclusion":14654,"airline":14655,"mobil":14656,"trend":14657,"stern":14658,"Tyler":14659,"Panzer":14660,"Utah":14661,"uri":14662,"organisms":14663,"Harold":14664,"summit":14665,"1889":14666,"juven":14667,"echo":14668,"flower":14669,"phal":14670,"Half":14671,"Serbian":14672,"FIFA":14673,"Move":14674,"rains":14675,"istoc":14676,"sugar":14677,"Cos":14678,"emotion":14679,"supervis":14680,"deeply":14681,"Stefan":14682,"240":14683,"holes":14684,"shops":14685,"educated":14686,"civilians":14687,"1894":14688,"Poly":14689,"Muhammad":14690,"potentially":14691,"ratio":14692,"Sweet":14693,"Had":14694,"penn":14695,"dancers":14696,"Newton":14697,"horizon":14698,"suspic":14699,"osexual":14700,"Us":14701,"theories":14702,"olen":14703,"crimes":14704,"Orche":14705,"structural":14706,"beauty":14707,"bie":14708,"beating":14709,"Stuart":14710,"Bald":14711,"ín":14712,"levard":14713,"Alph":14714,"processes":14715,"Republicans":14716,"cable":14717,"flies":14718,"ucker":14719,"segments":14720,"implemented":14721,"asha":14722,"Minor":14723,"Constantine":14724,"inge":14725,"pleased":14726,"addressed":14727,"sentence":14728,"onian":14729,"1891":14730,"fo":14731,"sword":14732,"reactions":14733,"villain":14734,"Hob":14735,"LS":14736,"knee":14737,"Freedom":14738,"streak":14739,"persuaded":14740,"Fighter":14741,"dles":14742,"smoke":14743,"Ce":14744,"heritage":14745,"Picture":14746,"sculpture":14747,"lian":14748,"CBS":14749,"inhib":14750,"decay":14751,"sailing":14752,"Herald":14753,"onica":14754,"counted":14755,"southeastern":14756,"Fro":14757,"enhan":14758,"plates":14759,"hatch":14760,"wake":14761,"1800":14762,"Hunter":14763,"Indonesian":14764,"accommodate":14765,"Duch":14766,"operates":14767,"Symphony":14768,"altitude":14769,"113":14770,"Din":14771,"feared":14772,"YouTube":14773,"Typhoon":14774,"seventeen":14775,"columns":14776,"Apollo":14777,"Pok":14778,"posing":14779,"Cricket":14780,"evident":14781,"presentation":14782,"Cardiff":14783,"Wiscons":14784,"followers":14785,"Amendment":14786,"agriculture":14787,"Wonder":14788,"Jess":14789,"Non":14790,"aes":14791,"1892":14792,"complained":14793,"requiring":14794,"pink":14795,"revers":14796,"rowed":14797,"01":14798,"ema":14799,"Watch":14800,"sad":14801,"devoted":14802,"Sultan":14803,"camps":14804,"Electric":14805,"m2":14806,"Any":14807,"cruc":14808,"error":14809,"affir":14810,"observation":14811,"capturing":14812,"Days":14813,"oh":14814,"interaction":14815,"Pete":14816,"strikes":14817,"Without":14818,"categories":14819,"fame":14820,"Aber":14821,"llor":14822,"writings":14823,"osed":14824,"Hope":14825,"Rey":14826,"Conservation":14827,"pregnant":14828,"opens":14829,"confusion":14830,"golden":14831,"judges":14832,"extinct":14833,"Wisconsin":14834,"Kyle":14835,"colog":14836,"planes":14837,"diplomatic":14838,"gé":14839,"Sox":14840,"voyage":14841,"uts":14842,"fab":14843,"avian":14844,"Until":14845,"statements":14846,"Brooks":14847,"suddenly":14848,"Princ":14849,"mythology":14850,"kidn":14851,"Danny":14852,"chase":14853,"umble":14854,"bred":14855,"1870":14856,"rowing":14857,"extensively":14858,"escorted":14859,"usalem":14860,"resort":14861,"truck":14862,"holiday":14863,"jurisdiction":14864,"nels":14865,"prog":14866,"Schum":14867,"advancing":14868,"Cavalry":14869,"manip":14870,"ometric":14871,"commenting":14872,"ospel":14873,"researchers":14874,"remote":14875,"Islamic":14876,"Johann":14877,"Tang":14878,"Section":14879,"steep":14880,"dust":14881,"Nature":14882,"gift":14883,"oured":14884,"similarities":14885,"Actress":14886,"Nas":14887,"rivals":14888,"mented":14889,"Jerusalem":14890,"girlfriend":14891,"Metropolitan":14892,"highlighted":14893,"nis":14894,"eligible":14895,"Fitz":14896,"neo":14897,"Attor":14898,"Fa":14899,"itate":14900,"lete":14901,"Agr":14902,"Ceme":14903,"Sean":14904,"Trade":14905,"Justin":14906,"drown":14907,"equally":14908,"knocked":14909,"Sie":14910,"Sug":14911,"Sonic":14912,"edia":14913,"amas":14914,"Grade":14915,"Airlines":14916,"Legisl":14917,"challenges":14918,"Bible":14919,"lington":14920,"sentenced":14921,"principle":14922,"infrastructure":14923,"ergy":14924,"iso":14925,"lett":14926,"organic":14927,"Edition":14928,"studying":14929,"Start":14930,"Boeing":14931,"gomery":14932,"Prest":14933,"usage":14934,"disturbance":14935,"Aar":14936,"2000s":14937,"lifetime":14938,"Tak":14939,"orange":14940,"1888":14941,"Burns":14942,"universal":14943,"Executive":14944,"Mall":14945,"Beau":14946,"gardens":14947,"Pep":14948,"anes":14949,"variation":14950,"Montgomery":14951,"Gang":14952,"Baron":14953,"traditionally":14954,"RC":14955,"locally":14956,"Patri":14957,"Ruth":14958,"resur":14959,"divorce":14960,"constitu":14961,"Bark":14962,"Based":14963,"unning":14964,"Barnes":14965,"Code":14966,"olia":14967,"Artic":14968,"warships":14969,"dealing":14970,"Evil":14971,"inherited":14972,"Pierre":14973,"Chad":14974,"Rou":14975,"eras":14976,"ocket":14977,"naming":14978,"predators":14979,"housed":14980,"Fun":14981,"Ran":14982,"pher":14983,"endor":14984,"epic":14985,"explaining":14986,"empty":14987,"Face":14988,"apolog":14989,"chemistry":14990,"Miles":14991,"boundaries":14992,"HC":14993,"Movie":14994,"happen":14995,"recruited":14996,"Fern":14997,"Vers":14998,"Spy":14999,"Independence":15000,"Mind":15001,"documented":15002,"Cemetery":15003,"idi":15004,"blow":15005,"Conf":15006,"wars":15007,"iciently":15008,"BO":15009,"enabled":15010,"osph":15011,"Century":15012,"1885":15013,"MacArthur":15014,"Saturn":15015,"02":15016,"raw":15017,"vamp":15018,"crashed":15019,"Slav":15020,"receives":15021,"Turkey":15022,"settlements":15023,"Rogers":15024,"sharks":15025,"bee":15026,"mospher":15027,"hostile":15028,"weakening":15029,"impressive":15030,"mals":15031,"wer":15032,"considerably":15033,"colours":15034,"sweet":15035,"Leaf":15036,"tasked":15037,"ups":15038,"Register":15039,"rescued":15040,"enos":15041,"travelling":15042,"garnered":15043,"commercially":15044,"dwarf":15045,"ashes":15046,"breath":15047,"explore":15048,"Scots":15049,"involves":15050,"Crus":15051,"tickets":15052,"Take":15053,"benefits":15054,"dying":15055,"substitute":15056,"Syn":15057,"volunteers":15058,"450":15059,"dimin":15060,"agers":15061,"mixture":15062,"Christians":15063,"options":15064,"Wa":15065,"pull":15066,"batted":15067,"pitcher":15068,"locked":15069,"Sherman":15070,"DJ":15071,"gri":15072,"ía":15073,"aching":15074,"disorder":15075,"proteins":15076,"tough":15077,"depicts":15078,"philosoph":15079,"Aud":15080,"Cass":15081,"dinner":15082,"prince":15083,"tracked":15084,"Baltic":15085,"detected":15086,"Ages":15087,"aze":15088,"Management":15089,"handling":15090,"burial":15091,"circular":15092,"conflicts":15093,"Krist":15094,"SH":15095,"clou":15096,"Judge":15097,"Fight":15098,"innoc":15099,"concerning":15100,"elaborate":15101,"wright":15102,"guards":15103,"Beth":15104,"Ott":15105,"Attorney":15106,"ERA":15107,"sible":15108,"pursuit":15109,"pursued":15110,"warned":15111,"Spider":15112,"imprisoned":15113,"Branch":15114,"pap":15115,"upset":15116,"Thames":15117,"gods":15118,"legitimate":15119,"heir":15120,"choos":15121,"Gon":15122,"teammate":15123,"Regional":15124,"lovak":15125,"Barbara":15126,"bach":15127,"usions":15128,"examination":15129,"favourite":15130,"opposing":15131,"rushing":15132,"virtually":15133,"satisfied":15134,"Heavyweight":15135,"aughter":15136,"troop":15137,"suspected":15138,"revival":15139,"Against":15140,"velocity":15141,"bull":15142,"editions":15143,"bypass":15144,"portrait":15145,"competitions":15146,"Brid":15147,"manufacturing":15148,"Charlotte":15149,"drain":15150,"eventual":15151,"tram":15152,"anticipated":15153,"Athens":15154,"Hearts":15155,"Reagan":15156,"1865":15157,"Representatives":15158,"220":15159,"elf":15160,"enda":15161,"orton":15162,"politicians":15163,"census":15164,"comics":15165,"renewed":15166,"amine":15167,"sures":15168,"iah":15169,"beliefs":15170,"taste":15171,"formations":15172,"Comedy":15173,"Romney":15174,"screenplay":15175,"urged":15176,"buff":15177,"produces":15178,"lengths":15179,"throwing":15180,"veteran":15181,"Kill":15182,"tong":15183,"links":15184,"slop":15185,"ED":15186,"abroad":15187,"apply":15188,"Cu":15189,"Got":15190,"Mang":15191,"Want":15192,"cann":15193,"dependent":15194,"complicated":15195,"universities":15196,"Nancy":15197,"aside":15198,"NATO":15199,"remembered":15200,"unve":15201,"grid":15202,"rings":15203,"Cris":15204,"thum":15205,"Crow":15206,"cattle":15207,"rehears":15208,"stolen":15209,"participants":15210,"bars":15211,"compre":15212,"ublin":15213,"Glas":15214,"sustain":15215,"interven":15216,"promoting":15217,"rendered":15218,"trench":15219,"medals":15220,"Nova":15221,"marking":15222,"confirm":15223,"Tribune":15224,"lier":15225,"trapped":15226,"caster":15227,"Ernest":15228,"Antar":15229,"McCar":15230,"isition":15231,"111":15232,"dor":15233,"uine":15234,"rible":15235,"thereby":15236,"Chester":15237,"bombardment":15238,"enberg":15239,"decreased":15240,"trailer":15241,"Mam":15242,"Cab":15243,"Jere":15244,"Tir":15245,"maps":15246,"Portugal":15247,"volcanic":15248,"Phys":15249,"cen":15250,"tissue":15251,"Elli":15252,"accidentally":15253,"sho":15254,"Marines":15255,"activated":15256,"costume":15257,"Maxim":15258,"Iceland":15259,"positively":15260,"Constantinople":15261,"isan":15262,"arest":15263,"productive":15264,"compositions":15265,"prototype":15266,"én":15267,"chlor":15268,"Newcastle":15269,"invaded":15270,"Draft":15271,"sav":15272,"indigen":15273,"biological":15274,"occasional":15275,"celebration":15276,"Sor":15277,"scop":15278,"ierce":15279,"ambass":15280,"Personnel":15281,"eding":15282,"Joint":15283,"hopes":15284,"lys":15285,"Normand":15286,"ridor":15287,"Magic":15288,"Others":15289,"chrom":15290,"colm":15291,"obsc":15292,"continent":15293,"phenomen":15294,"stom":15295,"Eddie":15296,"batteries":15297,"José":15298,"uters":15299,"ilda":15300,"hyper":15301,"panic":15302,"Chapel":15303,"restrial":15304,"killer":15305,"variations":15306,"hoping":15307,"integrated":15308,"evacuation":15309,"Affairs":15310,"Hg":15311,"Gibr":15312,"Fly":15313,"Saw":15314,"Tree":15315,"Od":15316,"1864":15317,"Tournam":15318,"Vick":15319,"eda":15320,"upcoming":15321,"occurring":15322,"Gibraltar":15323,"bomber":15324,"Laboratory":15325,"AM":15326,"jew":15327,"memo":15328,"Environment":15329,"Cornwall":15330,"Liberty":15331,"Voice":15332,"asa":15333,"eves":15334,"Merced":15335,"laboratory":15336,"neys":15337,"guests":15338,"lem":15339,"woods":15340,"sinking":15341,"retri":15342,"dozen":15343,"separation":15344,"indigenous":15345,"scandal":15346,"unders":15347,"goddess":15348,"Tol":15349,"strange":15350,"phant":15351,"easier":15352,"978":15353,"Case":15354,"Lower":15355,"ouch":15356,"lyric":15357,"provisions":15358,"Invest":15359,"patient":15360,"Filming":15361,"ao":15362,"adu":15363,"ferry":15364,"nickname":15365,"parliamentary":15366,"ng":15367,"Shah":15368,"gow":15369,"bitter":15370,"walks":15371,"rugby":15372,"refere":15373,"Stein":15374,"threats":15375,"consumption":15376,"Malcolm":15377,"avoided":15378,"asserted":15379,"Gabri":15380,"random":15381,"mixing":15382,"bowl":15383,"Meteorological":15384,"Bapt":15385,"lighter":15386,"genuine":15387,"supports":15388,"politician":15389,"Kenneth":15390,"Friends":15391,"rally":15392,"inser":15393,"asp":15394,"agles":15395,"rior":15396,"genres":15397,"Action":15398,"Zero":15399,"Energy":15400,"iously":15401,"progressed":15402,"Members":15403,"disputed":15404,"Titan":15405,"BL":15406,"PD":15407,"aple":15408,"Chi":15409,"speeds":15410,"Armenian":15411,"Cena":15412,"witch":15413,"nephe":15414,"confident":15415,"defenders":15416,"Leic":15417,"odies":15418,"agi":15419,"deputy":15420,"mounts":15421,"corporate":15422,"Protestant":15423,"Than":15424,"Room":15425,"particles":15426,"restrictions":15427,"Rush":15428,"arose":15429,"trunk":15430,"Bright":15431,"truly":15432,"nephew":15433,"ibn":15434,"Oscar":15435,"tum":15436,"tune":15437,"anx":15438,"Isaac":15439,"Boulevard":15440,"Hil":15441,"Thr":15442,"ovic":15443,"murdered":15444,"ashi":15445,"spokes":15446,"Orchestra":15447,"fro":15448,"contracts":15449,"dreadn":15450,"pig":15451,"onge":15452,"Il":15453,"PN":15454,"dual":15455,"oxid":15456,"Peng":15457,"stown":15458,"eastward":15459,"grades":15460,"Belle":15461,"customers":15462,"Chamberlain":15463,"Pedro":15464,"elite":15465,"ivals":15466,"othy":15467,"Bears":15468,"Wed":15469,"gear":15470,"lawsuit":15471,"efficient":15472,"Athletic":15473,"Dublin":15474,"gif":15475,"orship":15476,"ielder":15477,"Legend":15478,"Youth":15479,"lover":15480,"oples":15481,"1862":15482,"exile":15483,"timber":15484,"humanity":15485,"rational":15486,"lium":15487,"poster":15488,"cathedral":15489,"ER":15490,"corn":15491,"104":15492,"speculation":15493,"companion":15494,"Career":15495,"Continental":15496,"Pay":15497,"register":15498,"Nord":15499,"threatening":15500,"Robin":15501,"Bradley":15502,"touchdowns":15503,"lung":15504,"stad":15505,"prest":15506,"engineers":15507,"roe":15508,"Happ":15509,"Lud":15510,"angry":15511,"Chair":15512,"hide":15513,"leased":15514,"agrees":15515,"ressional":15516,"Cyclone":15517,"intellectual":15518,"debris":15519,"awak":15520,"disappointed":15521,"facts":15522,"industries":15523,"depicting":15524,"definitely":15525,"hail":15526,"ocy":15527,"Flag":15528,"kilogram":15529,"infection":15530,"Control":15531,"hence":15532,"encounters":15533,"undertaken":15534,"Tournament":15535,"tt":15536,"triumph":15537,"developments":15538,"gotten":15539,"revolutionary":15540,"convicted":15541,"Pel":15542,"thi":15543,"ignored":15544,"ranged":15545,"Rub":15546,"sta":15547,"Guild":15548,"sweep":15549,"aneous":15550,"vicinity":15551,"armoured":15552,"idia":15553,"percus":15554,"lyrical":15555,"Archbishop":15556,"mechanism":15557,"Eight":15558,"GS":15559,"Glee":15560,"uted":15561,"paying":15562,"decrease":15563,"absorbed":15564,"Sic":15565,"itime":15566,"incinn":15567,"conversation":15568,"Coal":15569,"109":15570,"championships":15571,"Future":15572,"bian":15573,"Inde":15574,"Place":15575,"judicial":15576,"112":15577,"Rear":15578,"wig":15579,"zero":15580,"rought":15581,"positioned":15582,"territorial":15583,"Ther":15584,"loud":15585,"yr":15586,"Reed":15587,"Collection":15588,"exhibit":15589,"license":15590,"Serbia":15591,"encer":15592,"metre":15593,"atoon":15594,"Alberta":15595,"Villa":15596,"contacted":15597,"Cincinn":15598,"coron":15599,"lacking":15600,"Tommy":15601,"reminis":15602,"Rosen":15603,"preserve":15604,"helicopter":15605,"Raid":15606,"boost":15607,"dropping":15608,"constantly":15609,"Uk":15610,"bish":15611,"compat":15612,"focuses":15613,"suspension":15614,"Marshal":15615,"decisive":15616,"sheep":15617,"counts":15618,"Springfield":15619,"mammals":15620,"inaugural":15621,"Twent":15622,"viewing":15623,"voters":15624,"facil":15625,"layers":15626,"Studies":15627,"isn":15628,"arena":15629,"manifest":15630,"declar":15631,"motif":15632,"Taiwan":15633,"Gates":15634,"Kes":15635,"erals":15636,"colored":15637,"honest":15638,"Churchill":15639,"farmers":15640,"Planet":15641,"predominantly":15642,"Joan":15643,"Mann":15644,"estone":15645,"boyfriend":15646,"101":15647,"relieved":15648,"Muslims":15649,"tees":15650,"feathers":15651,"desper":15652,"breeds":15653,"Mult":15654,"Pine":15655,"Friedrich":15656,"spots":15657,"Dec":15658,"Malta":15659,"collaborated":15660,"Jake":15661,"instant":15662,"admir":15663,"centered":15664,"Yugoslavia":15665,"Kaz":15666,"compiled":15667,"releasing":15668,"aided":15669,"thorough":15670,"Parks":15671,"Wagner":15672,"brilliant":15673,"Kay":15674,"oded":15675,"24th":15676,"Hood":15677,"zig":15678,"removing":15679,"itan":15680,"detect":15681,"conspiracy":15682,"Ancient":15683,"icking":15684,"sentiment":15685,"peninsula":15686,"Kil":15687,"swept":15688,"Maine":15689,"illustrated":15690,"quiry":15691,"Bh":15692,"Steam":15693,"Waters":15694,"cht":15695,"actively":15696,"castles":15697,"loading":15698,"attorney":15699,"Kur":15700,"kh":15701,"osy":15702,"Andr":15703,"linear":15704,"grows":15705,"resid":15706,"Shiva":15707,"rim":15708,"itched":15709,"Comics":15710,"Shield":15711,"explanation":15712,"Num":15713,"pum":15714,"butter":15715,"UB":15716,"conqu":15717,"dispers":15718,"knows":15719,"canceled":15720,"Cincinnati":15721,"Dud":15722,"Hull":15723,"Round":15724,"Ches":15725,"arks":15726,"roadway":15727,"reads":15728,"Burke":15729,"Normandy":15730,"independently":15731,"Olivia":15732,"ye":15733,"rels":15734,"Angelou":15735,"situations":15736,"Afghanistan":15737,"Dod":15738,"bapt":15739,"anced":15740,"enorm":15741,"itudes":15742,"Alliance":15743,"zi":15744,"tools":15745,"itable":15746,"bab":15747,"beer":15748,"clan":15749,"endors":15750,"Hein":15751,"Maced":15752,"calculated":15753,"verses":15754,"Vegas":15755,"mary":15756,"grat":15757,"buck":15758,"bott":15759,"varying":15760,"IN":15761,"marched":15762,"1887":15763,"possessed":15764,"fossils":15765,"asury":15766,"Chang":15767,"cane":15768,"rounded":15769,"itchen":15770,"swing":15771,"offshore":15772,"Madison":15773,"Chuck":15774,"Poké":15775,"infer":15776,"1880":15777,"azy":15778,"heimer":15779,"vance":15780,"és":15781,"outstanding":15782,"Twitter":15783,"itol":15784,"tical":15785,"reporting":15786,"clergy":15787,"hosp":15788,"rep":15789,"caution":15790,"width":15791,"114":15792,"prosper":15793,"couldn":15794,"117":15795,"Rot":15796,"Conservative":15797,"Edmund":15798,"1863":15799,"accommod":15800,"Lab":15801,"aku":15802,"disappeared":15803,"varies":15804,"expanding":15805,"Revolutionary":15806,"locomotives":15807,"lum":15808,"quoted":15809,"Former":15810,"1886":15811,"Gregory":15812,"iph":15813,"mospheric":15814,"overty":15815,"flour":15816,"Technology":15817,"JNA":15818,"FM":15819,"Rev":15820,"Leeds":15821,"Edmon":15822,"Herbert":15823,"cated":15824,"igger":15825,"hybrid":15826,"Serge":15827,"ministers":15828,"suggestion":15829,"CC":15830,"Mut":15831,"Vel":15832,"prints":15833,"celebrate":15834,"umberland":15835,"Tas":15836,"Tint":15837,"liver":15838,"holders":15839,"Spec":15840,"Schumacher":15841,"Morning":15842,"Prop":15843,"instein":15844,"phosph":15845,"flown":15846,"nevertheless":15847,"Brooklyn":15848,"finite":15849,"regulations":15850,"Orton":15851,"Mercury":15852,"fungus":15853,"Dennis":15854,"ét":15855,"submarines":15856,"taker":15857,"inducted":15858,"MLB":15859,"Julian":15860,"Floren":15861,"machin":15862,"leted":15863,"ritic":15864,"Leo":15865,"Helen":15866,"witnesses":15867,"Mau":15868,"anthem":15869,"attraction":15870,"eagle":15871,"ör":15872,"root":15873,"romance":15874,"faculty":15875,"Sri":15876,"reporter":15877,"stability":15878,"noise":15879,"voir":15880,"Myster":15881,"persist":15882,"Tra":15883,"reject":15884,"payment":15885,"Princeton":15886,"Tigers":15887,"cill":15888,"urity":15889,"cology":15890,"metals":15891,"inHg":15892,"enburg":15893,"Isle":15894,"gentle":15895,"retreated":15896,"McKinley":15897,"iary":15898,"acular":15899,"emission":15900,"Organization":15901,"pling":15902,"fortifications":15903,"parking":15904,"Browns":15905,"blamed":15906,"publicity":15907,"iki":15908,"cruise":15909,"Mak":15910,"PR":15911,"itic":15912,"stored":15913,"1884":15914,"Buddhist":15915,"Gas":15916,"spite":15917,"atively":15918,"connects":15919,"terminal":15920,"Historical":15921,"curve":15922,"conducting":15923,"fundamental":15924,"pseud":15925,"230":15926,"dell":15927,"ambush":15928,"annex":15929,"Et":15930,"pinn":15931,"icular":15932,"whatever":15933,"apes":15934,"este":15935,"raud":15936,"Luf":15937,"targeted":15938,"challenging":15939,"condemned":15940,"sulf":15941,"igation":15942,"NASA":15943,"progressive":15944,"Hubbard":15945,"Fab":15946,"semin":15947,"focusing":15948,"roster":15949,"Smack":15950,"harsh":15951,"reliable":15952,"Fisher":15953,"Brien":15954,"Cele":15955,"olph":15956,"servers":15957,"Solar":15958,"corresponding":15959,"Pos":15960,"shirt":15961,"studios":15962,"examined":15963,"recruit":15964,"pest":15965,"ardo":15966,"rage":15967,"winners":15968,"Opera":15969,"omon":15970,"dez":15971,"torpedoes":15972,"preceding":15973,"Tunes":15974,"Political":15975,"Eld":15976,"Father":15977,"hell":15978,"favored":15979,"Oil":15980,"magnetic":15981,"directing":15982,"confused":15983,"disbanded":15984,"Glasgow":15985,"mentions":15986,"drunk":15987,"Canucks":15988,"telephone":15989,"Devil":15990,"igious":15991,"convince":15992,"sheet":15993,"ennial":15994,"tourist":15995,"Holland":15996,"machines":15997,"Scient":15998,"arte":15999,"playable":16000,"Barcel":16001,"harvest":16002,"resignation":16003,"Hus":16004,"hurt":16005,"Inside":16006,"brings":16007,"spaw":16008,"Tests":16009,"insurance":16010,"XI":16011,"regiments":16012,"mount":16013,"Nak":16014,"oa":16015,"ulum":16016,"BCE":16017,"adopt":16018,"rebounds":16019,"sharing":16020,"usters":16021,"Strong":16022,"solely":16023,"SE":16024,"gary":16025,"Chan":16026,"Phillies":16027,"Austro":16028,"Walt":16029,"ghost":16030,"Montana":16031,"Khal":16032,"Millennium":16033,"plum":16034,"worse":16035,"thanks":16036,"surprising":16037,"McL":16038,"clay":16039,"trap":16040,"Celtic":16041,"Theodore":16042,"Hin":16043,"wo":16044,"Westminster":16045,"cotton":16046,"BM":16047,"lings":16048,"clad":16049,"creature":16050,"curved":16051,"Mega":16052,"Percy":16053,"bench":16054,"concepts":16055,"Denver":16056,"Fur":16057,"uv":16058,"spective":16059,"ampa":16060,"darker":16061,"rotation":16062,"frog":16063,"Musical":16064,"historically":16065,"routing":16066,"amphib":16067,"Tintin":16068,"Bun":16069,"dun":16070,"eter":16071,"diale":16072,"1877":16073,"scholarship":16074,"Basketball":16075,"sic":16076,"onso":16077,"Adventure":16078,"steadily":16079,"ceme":16080,"themed":16081,"printing":16082,"Fifth":16083,"anor":16084,"ailing":16085,"gusts":16086,"privi":16087,"1876":16088,"Dow":16089,"lux":16090,"logo":16091,"Poe":16092,"Southeast":16093,"prompting":16094,"theaters":16095,"atty":16096,"commitment":16097,"astronom":16098,"cemetery":16099,"summar":16100,"agencies":16101,"reconstruction":16102,"canon":16103,"myself":16104,"consideration":16105,"Mercedes":16106,"kids":16107,"Salt":16108,"consciousness":16109,"yers":16110,"acclaimed":16111,"fluor":16112,"Brah":16113,"Theater":16114,"abort":16115,"Manuel":16116,"Albany":16117,"Nevada":16118,"ewise":16119,"trio":16120,"Cox":16121,"spacecraft":16122,"Bulgarian":16123,"wartime":16124,"Mile":16125,"gates":16126,"shaft":16127,"worker":16128,"radius":16129,"messages":16130,"covery":16131,"pleasure":16132,"Glou":16133,"measuring":16134,"Additional":16135,"Ellen":16136,"Alpha":16137,"Tat":16138,"dent":16139,"hint":16140,"walked":16141,"Gothic":16142,"clouds":16143,"monastery":16144,"incidents":16145,
[...]
