{"[UNK]":0,"[CLS]":1,"[SEP]":2,"[PAD]":3,"[MASK]":4,"!":5,"\"":6,"#":7,"$":8,"%":9,"&":10,"'":11,"(":12,")":13,"*":14,"+":15,",":16,"-":17,".":18,"/":19,"0":20,"1":21,"2":22,"3":23,"4":24,"5":25,"6":26,"7":27,"8":28,"9":29,":":30,";":31,"<":32,"=":33,">":34,"?":35,"@":36,"A":37,"B":38,"C":39,"D":40,"E":41,"F":42,"G":43,"H":44,"I":45,"J":46,"K":47,"L":48,"M":49,"N":50,"O":51,"P":52,"Q":53,"R":54,"S":55,"T":56,"U":57,"V":58,"W":59,"X":60,"Y":61,"Z":62,"[":63,"\\":64,"]":65,"^":66,"_":67,"`":68,"a":69,"b":70,"c":71,"d":72,"e":73,"f":74,"g":75,"h":76,"i":77,"j":78,"k":79,"l":80,"m":81,"n":82,"o":83,"p":84,"q":85,"r":86,"s":87,"t":88,"u":89,"v":90,"w":91,"x":92,"y":93,"z":94,"{":95,"|":96,"}":97,"~":98,"¡":99,"¢":100,"£":101,"¤":102,"¥":103,"¦":104,"§":105,"¨":106,"©":107,"ª":108,"«":109,"¬":110,"®":111,"¯":112,"°":113,"±":114,"²":115,"³":116,"´":117,"µ":118,"¶":119,"·":120,"¸":121,"¹":122,"º":123,"»":124,"¼":125,"½":126,"¾":127,"¿":128,"Â":129,"Ã":130,"Ä":131,"Å":132,"Æ":133,"Ç":134,"È":135,"É":136,"Ê":137,"Ë":138,"Ì":139,"Í":140,"Î":141,"Ï":142,"Ð":143,"Ñ":144,"Ò":145,"Ó":146,"Ô":147,"Õ":148,"Ö":149,"×":150,"Ø":151,"Ù":152,"Ú":153,"Û":154,"Ü":155,"Þ":156,"ß":157,"à":158,"á":159,"â":160,"ã":161,"ä":162,"å":163,"æ":164,"ç":165,"è":166,"é":167,"ê":168,"ë":169,"ì":170,"í":171,"î":172,"ï":173,"ð":174,"Ā":175,"ā":176,"Ă":177,"ĉ":178,"Ċ":179,"ċ":180,"Č":181,"č":182,"ě":183,"Ġ":184,"ġ":185,"Ģ":186,"ģ":187,"Ĥ":188,"ĥ":189,"Ħ":190,"ħ":191,"Ĩ":192,"ĩ":193,"Ī":194,"ī":195,"Ĭ":196,"ĭ":197,"Į":198,"į":199,"İ":200,"ı":201,"Ĳ":202,"ĳ":203,"Ĵ":204,"ĵ":205,"Ķ":206,"ķ":207,"ĸ":208,"Ĺ":209,"ĺ":210,"Ļ":211,"ļ":212,"Ľ":213,"ľ":214,"Ŀ":215,"ŀ":216,"Ł":217,"ł":218,"Ń":219,"Ġthe":220,"ĠĠĠĠĠ":221,"Ġa":222,"in":223,"er":224,"tion":225,"Ġt":226,"re":227,"Ġof":228,"en":229,"Ġs":230,"Ġand":231,"at":232,"on":233,"or":234,"Ġc":235,"Ġw":236,"âĶĢâĶĢâĶĢâĶĢâĶĢâĶĢâĶĢâĶĢâĶĢâĶĢâĶĢâĶĢâĶĢâĶĢâĶĢâĶĢâĶĢâĶĢâĶĢâĶĢâĶĢâĶĢâĶĢâĶĢâĶĢâĶĢâĶĢâĶĢâĶĢâĶĢâĶĢâĶ":237,"is":238,"es":239,"ed":240,"al":241,"it":242,"an":243,"Ġp":244,"Ġf":245,"Ġb":246,"ou":247,"ing":248,"Ġin":249,"ar":250,"Ġm":251,"Ġd":252,"ic":253,"le":254,"Ġto":255,"Ġh":256,"as":257,"ro":258,"ent":259,"Ġth":260,"--------":261,"et":262,"Ġre":263,"el":264,"Ġn":265,"om":266,"Ġwith":267,"st":268,"ec":269,"il":270,"ac":271,"ĠTh":272,"Ġl":273,"Ġe":274,"ĠĠĠ":275,"ot":276,"ight":277,"id":278,"im":279,"Ġis":280,"Ġg":281,"Ġ(":282,"ol":283,"ve":284,"am":285,"ĠI":286,"ation":287,"Ġyou":288,"âĶĢâĶĢâĶĢâĶĢâĶĢâĶĢâĶĢâĶĢâĶĢâĶĢâĶĢâĶĢâĶ":289,"âĢ":290,"us":291,"ly":292,"Ġfor":293,"ow":294,"ĠS":295,"ĠĠĠĠĠĠĠĠĠĠĠĠĠĠĠ":296,"Ġthat":297,"Ġon":298,"ver":299,"ur":300,"ĠA":301,"ĠC":302,"un":303,"ad":304,"ut":305,"Ġst":306,"Ġbe":307,"ul":308,"Ġ1":309,"Ġwh":310,"ay":311,"ig":312,"if":313,"ce":314,"==========":315,"ter":316,"Ġcon":317,"os":318,"Ġfrom":319,"ch":320,"em":321,"Ġas":322,"Ġan":323,"ir":324,"od":325,"op":326,"Ġhave":327,"Ġ$":328,"Ġpro":329,"th":330,"ĊĠĠĠĠĠĠĠ":331,"ab":332,"um":333,"ate":334,"ould":335,"ag":336,"Ġit":337,"ĠM":338,"Ġv":339,"ri":340,"Ġal":341,"Ġ\"":342,"Ġ2":343,"ĠP":344,"res":345,"pp":346,"qu":347,"Ġcomp":348,"ct":349,"ain":350,"est":351,"ere":352,"Ġex":353,"Ġr":354,"Ġwas":355,"ist":356,"Ġor":357,"ers":358,"ĠB":359,"ion":360,"ant":361,"oc":362,"Ġ\\":363,"ect":364,"00":365,"Ġare":366,"se":367,"Ġ=":368,"Ġ-":369,"iv":370,"Ġsu":371,"ity":372,"Ġat":373,"ĠF":374,"ess":375,"ound":376,"ĠH":377,"ment":378,"ore":379,"out":380,"Ġby":381,"ĠD":382,"ill":383,"our":384,"Ġde":385,"and":386,"ĠW":387,"ĠThe":388,"ĠT":389,"Ġwhich":390,"Ġsh":391,"end":392,"Ġnot":393,"her":394,"ive":395,"ĠR":396,"ke":397,"The":398,"**":399,"ap":400,"ĠL":401,"ough":402,"ĠN":403,"Ġch":404,"Ġthis":405,"ew":406,"ĊĠĠĠ":407,"ort":408,"art":409,"âĢĻ":410,"Ġwe":411,"ud":412,"Ġus":413,"ial":414,"{\\":415,"ell":416,"ure":417,"Ġbetween":418,"ies":419,"ĠG":420,"ĠE":421,"ĊĠĠĠĠĠĠĠĠĠĠĠ":422,"Ġun":423,"ated":424,"Ġse":425,"Ġhe":426,"Ġup":427,"ype":428,"pl":429,"Ġo":430,"form":431,"ine":432,"Ġyear":433,"all":434,"Ġ0":435,"Ġtr":436,"Ġknow":437,"Ġle":438,"'s":439,"og":440,"ext":441,"Ġbecause":442,"Ġ*":443,"ge":444,"ical":445,"Ġdiffer":446,"nt":447,"ff":448,").":449,"Ġcan":450,"ĠO":451,"act":452,"Ġ3":453,"ust":454,"der":455,"ue":456,"ame":457,"Ġimp":458,"ome":459,"ÂłÂłÂłÂłÂłÂłÂłÂłÂłÂłÂłÂłÂłÂłÂłÂłÂłÂłÂłÂłÂłÂłÂłÂłÂłÂłÂłÂłÂłÂłÂłÂłÂłÂł":460,"Ġalso":461,"ib":462,"iz":463,"ĊĠ":464,"Ġres":465,"ction":466,"ase":467,"able":468,"lass":469,"are":470,"age":471,"Ġpatients":472,"Ġother":473,"ack":474,"Ġsp":475,"ard":476,"Ġj":477,"ult":478,"Ġabout":479,"ast":480,"łÂłÂłÂłÂłÂłÂłÂłÂłÂłÂłÂłÂłÂłÂłÂłÂłÂłÂłÂłÂłÂłÂłÂłÂłÂłÂłÂłÂłÂłÂłÂłÂłÂłÂ":481,"ublic":482,");":483,"ĠâĢľ":484,"Ġtime":485,"ook":486,"Ġ{":487,"ence":488,"Ġcont":489,"_{":490,"ost":491,"ĠIn":492,"ath":493,"ans":494,"ĠU":495,"Ġinclud":496,"Ġad":497,"ip":498,"Ġwere":499,"Ġpl":500,"ĠJ":501,"ep":502,"av":503,"=\"":504,".\"":505,"01":506,"ak":507,"Ġwork":508,"ign":509,"Ġall":510,"Ġfollow":511,"Ġ[":512,"per":513,"Ġint":514,"Ġpeople":515,"Ġ+":516,"Ġacc":517,"Ġcomm":518,"ition":519,"ens":520,"Ġhas":521,"Ġdo":522,"ach":523,"ire":524,"ide":525,"ft":526,"ind":527,"ary":528,"Ġne":529,"ous":530,"ice":531,"Ġ4":532,"Ġme":533,"one":534,"Ġtwo":535,"Ġsaid":536,"Ġapp":537,"Ġsystem":538,"Ġgroup":539,"Ġbut":540,"Ġdis":541,"ress":542,"ations":543,"du":544,"Ġreturn":545,"pt":546,"ru":547,"Ġwill":548,"int":549,"Ġlike":550,"ong":551,"Ġar":552,"ph":553,"),":554,"--":555,"Ġgo":556,"ile":557,"ĠĠ":558,"Ġ&":559,"ber":560,"Ċĉĉ":561,"ose":562,"Ġ5":563,"Ġfirst":564,"Ġ<":565,"ance":566,"Ġif":567,"Ġen":568,"Ġafter":569,"Ġper":570,"ia":571,"ef":572,"ely":573,"Ġout":574,"Ġpre":575,"ally":576,"ace":577,"ra":578,"ang":579,"ord":580,"ory":581,"Ġone":582,"Ġcl":583,"ĊĠĠĠĠĠĠĠĠĠĠĠĠĠĠĠ":584,"...":585,"ĊĠĠĠĠĠ":586,"Ġqu":587,"Ġhis":588,"Ġev":589,"Ġthey":590,"own":591,"Ġop":592,"âĢĿ":593,"ail":594,"ry":595,"ĠSt":596,"Ġso":597,"}\\":598,"Ġsignificant":599,"Ġdata":600,"bject":601,"ors":602,"//":603,"Ġpart":604,"Âł":605,"Ġmore":606,"Ġtheir":607,"ĠK":608,"Ġinter":609,"Ġthere":610,"Ġ$\\":611,"ys":612,"ake":613,"Ġfunction":614,"Ġag":615,"ond":616,"ents":617,"Ġdevelop":618,"Ġhigh":619,"ite":620,"very":621,"ield":622,"bs":623,"Ġmethod":624,"ĠĠĠĠ":625,"}$":626,"Ġyour":627,"ount":628,"ates":629,"Ġbeen":630,"erm":631,"Ġhad":632,"right":633,"ree":634,"frac":635,"Ġgener":636,"Ġ}":637,"ric":638,"Ġany":639,"Ġno":640,"cl":641,"ont":642,"Ġman":643,"Ġconsider":644,"Ġthrough":645,"Ġk":646,"Ġrec":647,"Ġwho":648,"Ġ\\[[@":649,"erv":650,"Ġass":651,"ll":652,"Ġ'":653,"ish":654,"te":655,"ĠV":656,"Ġwould":657,"Ġincre":658,"Ġwhen":659,"Ġ6":660,"Ġeffect":661,"In":662,"enc":663,"Ġproblem":664,"gr":665,"reat":666,"old":667,"Ġindividual":668,"Ġrep":669,"\\]":670,"^{":671,"Ġthan":672,"Ġexp":673,"Ġover":674,"Ġmy":675,"Ġdef":676,"ild":677,"Ġsc":678,"------------------------":679,"</":680,"row":681,"ub":682,"rib":683,"oth":684,"Ġ19":685,"Ġits":686,"owever":687,"}}":688,"'t":689,"math":690,"ink":691,"10":692,"lect":693,"Ġpossib":694,"ex":695,"vers":696,"Ġvari":697,"Ġpoint":698,"ie":699,"Ġ_":700,"ays":701,"get":702,"Ġsomething":703,"tions":704,"ons":705,"hat":706,"Ġnew":707,"ass":708,"ample":709,"Ġoff":710,"Ġam":711,"tr":712,"Ġsome":713,"]{}":714,"ater":715,"ode":716,"ied":717,"ings":718,"Ġnumber":719,"ĠCh":720,"ĠY":721,"lo":722,"com":723,"19":724,"ttp":725,"Ġbefore":726,"Ġunder":727,"Ġpr":728,"ick":729,"Ġact":730,"Ġcurrent":731,"Ġour":732,"Ġrel":733,"Ġvalue":734,"Ġget":735,"Ġemploy":736,"Ġdes":737,"Ġcourt":738,"Ġ7":739,"ov":740,"ref":741,"ative":742,"left":743,"ark":744,"Ġinto":745,"iss":746,"Ġstudy":747,"uc":748,"ĠIt":749,"Ġonly":750,"Ġdec":751,"ian":752,"Ġworld":753,"Ġmodel":754,"Ġmay":755,"ĠĠĠĠĠĠĠĠĠĠĠĠĠĠĠĠĠĠĠĠĠĠĠĠĠĠĠĠĠĠ":756,"Ġph":757,"ambda":758,"nd":759,"ĠâĢ":760,"vi":761,"](#":762,"Ġro":763,"Ġab":764,"aw":765,"ular":766,"ert":767,"ock":768,"Ġpresent":769,"ove":770,"Ġsec":771,"Ġinv":772,"eg":773,"12":774,"Ġmade":775,"Ġprocess":776,"Ġher":777,"Ġcharacter":778,"Ġreg":779,"Ġadd":780,"Ġ8":781,"Ġlevel":782,"Ġtrans":783,"Ġthem":784,"ma":785,"âĸĶâĸĶâĸĶâĸĶâĸĶâĸĶâĸĶâĸĶâĸĶâĸĶâĸĶâĸĶâĸĶ":786,"ĊĊ":787,"Ġsupport":788,"ĠAmeric":789,"Ġco":790,"Ġanalysis":791,"Ġmuch":792,"Ġwhat":793,"ear":794,"ĠThis":795,"Ġind":796,"anc":797,"ient":798,"Ġim":799,"Ġhelp":800,"Th":801,"ased":802,"Ġgr":803,"Ġsuch":804,"Ġform":805,"ne":806,"olog":807,"Ġ201":808,"ating":809,"Ġtechn":810,"itt":811,"Ġcol":812,"app":813,"ĠWe":814,"up":815,"Ġduring":816,"ix":817,"Ġthese":818,"Ġobtain":819,"Ġresp":820,"elf":821,"ility":822,"Ġ9":823,"Ġjust":824,"ym":825,"Ġ10":826,"Ġprov":827,"str":828,"sp":829,"ĠĠĠĠĠĠĠĠĠĠ":830,"Ġuse":831,"ox":832,"Ġwhere":833,"ific":834,"ss":835,"Ġdet":836,"ĠUniversity":837,"Ġthen":838,"ident":839,"ty":840,"Ġnetwork":841,"Ġneed":842,"Ġset":843,"Ġpol":844,"fer":845,"ution":846,"alpha":847,"Ġrequire":848,"ug":849,"Ġcells":850,"Ġclass":851,"Ġsmall":852,"Ġgovernment":853,"Ġcould":854,"ith":855,"ime":856,"Ġresult":857,"les":858,"Ġrem":859,"Ġagainst":860,"Ġcom":861,"ize":862,"Ġsimilar":863,"()":864,"Ġac":865,"[@":866,"Ġy":867,"11":868,"ĠUnited":869,"\",":870,"ions":871,"ange":872,"Ġsuggest":873,"he":874,"ise":875,"als":876,"ob":877,"Ġused":878,"Ġperson":879,"lement":880,"Ġcontrol":881,"ues":882,"20":883,"tern":884,"Ġsub":885,"Ġfe":886,"ual":887,"ning":888,"Ġbl":889,"Ġdirect":890,"Ċĉ":891,"Ġinformation":892,"Ġshow":893,"Ġsur":894,"->":895,"Ġfact":896,"Ġpotential":897,"ER":898,"Ġcor":899,"ax":900,"to":901,"ev":902,"Ġfl":903,"Ġdid":904,"Ġshould":905,"type":906,"red":907,"rop":908,"eta":909,"Ġfurther":910,"Ġatt":911,"\">":912,"Ġspec":913,"Ġend":914,"Ġresearch":915,"orm":916,"ull":917,"ced":918,"fig":919,"Ġdist":920,"Ġfamily":921,"000":922,"ower":923,"ĠHe":924,"ks":925,"ection":926,"its":927,"Ġstr":928,"io":929,"ren":930,"inal":931,"ON":932,"Ġestablish":933,"Ġcondition":934,"###":935,"Ġusing":936,"Ġmajor":937,"ities":938,"Ġavailable":939,"Ġ.":940,"ics":941,".,":942,"15":943,"ruct":944,"ause":945,"Ġsee":946,"ict":947,"Ġshe":948,"IN":949,"ement":950,"Ġschool":951,"rit":952,"Ġsince":953,"aintiff":954,"Category":955,"Ġmost":956,"Ġenergy":957,"Ġhealth":958,"Ġerr":959,"port":960,"ood":961,"Ġassociated":962,"){":963,"Ġlife":964,"Ġback":965,"Ġbusiness":966,")$":967,"13":968,"mathcal":969,"cription":970,"16":971,"Ġwell":972,"Ġem":973,"Ġparamet":974,"Ġtest":975,"Ġstat":976,"Ġclaim":977,"Ġ$$\\":978,"Ġi":979,"duct":980,"li":981,"Ġ:":982,"ures":983,"Ġanother":984,"Ġtreatment":985,"Ġhim":986,"Ġdifferent":987,"_{\\":988,"ational":989,"Ġright":990,"pos":991,"atch":992,"pr":993,"ven":994,"Ġgiven":995,"Ġocc":996,"ined":997,"Ġmonth":998,"Ġcase":999,"Ġeach":1000,"Ġenvironment":1001,"ograph":1002,"ute":1003,"arg":1004,"rom":1005,"alcul":1006,"Ġprogram":1007,"14":1008,"Ġcons":1009,"Ġalready":1010,"Ġdiscuss":1011,"âĢī":1012,"ected":1013,"ator":1014,"urn":1015,"label":1016,"Ġwant":1017,"ically":1018,"Ġmechanism":1019,"Ġhow":1020,"Ġinf":1021,"ized":1022,"(\\":1023,"Ġte":1024,"Ġdoes":1025,"imes":1026,"Ġent":1027,"Ġdifficult":1028,"Ġinst":1029,"Ġ[@":1030,"und":1031,"Ġsuccess":1032,"Ġconst":1033,"Ġmin":1034,"Ġapplic":1035,"over":1036,"Ġimportant":1037,"Ġmake":1038,"Ġauth":1039,"Ġespecially":1040,"Ġevidence":1041,"Ġpos":1042,"elta":1043,"Ġlimit":1044,"Ġsame":1045,"ee":1046,"ĠWh":1047,"Ġbr":1048,"ared":1049,"\"}":1050,"let":1051,"ret":1052,"val":1053,"par":1054,"]\\].":1055,"Ġwhether":1056,"Ġ200":1057,"yn":1058,"Ġevery":1059,"],":1060,"Ġeven":1061,"upp":1062,"Ġdi":1063,"ength":1064,"Ġyears":1065,"ES":1066,"put":1067,"ata":1068,"ases":1069,"Ġfind":1070,"18":1071,"Ġobserv":1072,"cript":1073,"Ġtri":1074,"cent":1075,"Ġcall":1076,"ants":1077,"Ġthose":1078,"air":1079,"Ġx":1080,"Ġlarge":1081,"Ġboth":1082,"con":1083,"Ġmed":1084,"sh":1085,"Ġpartic":1086,"ash":1087,"Ġ|":1088,"Ġway":1089,"Ġdescrib":1090,"Ġbetter":1091,"yl":1092,"St":1093,"âĪĴ":1094,"Ġnow":1095,"Ġsimp":1096,"Ġ12":1097,"Ġvery":1098,"Ġdon":1099,"yp":1100,"mathbb":1101,"Ġser":1102,"Ġ@":1103,"))":1104,"html":1105,"Ġrepresent":1106,"ense":1107,"ins":1108,"Ġel":1109,"ful":1110,"ason":1111,"Ġmeasure":1112,"ave":1113,"ages":1114,"ature":1115,"Ġlong":1116,"AT":1117,"===":1118,"ĠCom":1119,"pro":1120,"Ġke":1121,"Ġclear":1122,"Ġexper":1123,"eth":1124,"ward":1125,",\\":1126,"rm":1127,"cept":1128,"Ġfound":1129,"Ġbu":1130,"../../":1131,"led":1132,"oun":1133,"50":1134,"Ġloc":1135,"ole":1136,"Ġbel":1137,"}{":1138,"Ġbeing":1139,"Ġhere":1140,"Ġquestion":1141,"Ġlook":1142,"Ġplay":1143,"ression":1144,"ok":1145,"igned":1146,"ines":1147,"ale":1148,"ich":1149,"17":1150,"Ġview":1151,"Ġthink":1152,"Ġpublic":1153,"Ġcar":1154,"ting":1155,"Ġeconom":1156,"Ġmany":1157,"ĠQ":1158,"ments":1159,"Ġ/":1160,"oid":1161,"Ġval":1162,"aking":1163,"ved":1164,"the":1165,"ified":1166,"ively":1167,"ospital":1168,"30":1169,"line":1170,"sqrt":1171,"of":1172,"cer":1173,"?\"":1174,"Ġcirc":1175,"Ġgu":1176,"It":1177,"Ġext":1178,"ices":1179,"Ġstud":1180,"Ġfil":1181,"32":1182,"Ġuntil":1183,"',":1184,"Ġmultiple":1185,"Ġequ":1186,"Ġhaving":1187,"201":1188,"Ġreport":1189,"Ġmembers":1190,"ĠÂ":1191,"ner":1192,"ank":1193,"Ġprivate":1194,"Ġ//":1195,"Ġins":1196,"ik":1197,"Ġlittle":1198,"Ġcorrespond":1199,"\":":1200,"Ġsol":1201,"Ġbehavi":1202,"ms":1203,"ible":1204,"begin":1205,"Ġorder":1206,"Ġhuman":1207,"view":1208,"ĊĊĠĠĠ":1209,"Ġprevious":1210,"ĠFor":1211,"ody":1212,"Ġgood":1213,"Ġwhile":1214,"Ġeither":1215,"ĠĠĠĠĠĠĠĠ":1216,".âĢĿ":1217,"Ġalways":1218,"Ġterm":1219,"day":1220,"ness":1221,"Ġdemonstr":1222,"Ġhigher":1223,"ocument":1224,"::":1225,"not":1226,"Ġorgan":1227,"Ġweek":1228,"25":1229,"ministr":1230,"ĠThese":1231,"ps":1232,"ng":1233,"set":1234,"Ġmaterial":1235,"Ġname":1236,"Ġgen":1237,"Ġstart":1238,"We":1239,"Ġnon":1240,"Ġdown":1241,"ually":1242,"ision":1243,"oy":1244,"ld":1245,"ts":1246,"ĠLet":1247,"Ġserv":1248,"Ġcount":1249,"://":1250,"ĠIf":1251,"Ġfr":1252,"Ġrelationship":1253,"Ġreceived":1254,"AR":1255,"Ġtotal":1256,"ĠâĢĵ":1257,"Ġread":1258,"EN":1259,"Ġsingle":1260,"Ġdep":1261,"ality":1262,"af":1263,"ĠAl":1264,"Ġstandard":1265,"ource":1266,"Ċĉĉĉ":1267,"Ġsecond":1268,"Ġproject":1269,"Ġthree":1270,"fficient":1271,"Ġhand":1272,"ĠCourt":1273,"Ġchildren":1274,"Ġown":1275,"Ġapproach":1276,"************************":1277,"Ġseveral":1278,"ĠJohn":1279,"24":1280,"med":1281,"Ġunderstand":1282,"Ġwithout":1283,"Ġinvestig":1284,"br":1285,"Ġmod":1286,"OR":1287,"^{\\":1288,"any":1289,"Ġline":1290,"NA":1291,"ump":1292,"(-":1293,"amp":1294,"Ġstate":1295,"ST":1296,"\\[":1297,"Ġsl":1298,"aining":1299,"__":1300,"Ġprovid":1301,"ization":1302,"$,":1303,"$.":1304,"ify":1305,"Ġperiod":1306,",\"":1307,"ember":1308,"ception":1309,"Ġant":1310,"ĠAnd":1311,"80":1312,"way":1313,"eck":1314,"ystem":1315,"clude":1316,"man":1317,"Ġ20":1318,"ah":1319,"Ġactiv":1320,"ology":1321,"amples":1322,"Ġcre":1323,"ray":1324,"Ġmet":1325,"ather":1326,"ious":1327,"ability":1328,"ences":1329,"ency":1330,"Ġtarget":1331,"ĠPro":1332,"ork":1333,"ton":1334,"Ġperform":1335,"(\"":1336,"CR":1337,"ives":1338,"ead":1339,"ulation":1340,"Ġpres":1341,"Ġgreat":1342,"ists":1343,"What":1344,"Ġtype":1345,"atic":1346,"ĠBut":1347,"Ġoper":1348,"Ġproper":1349,"Ġresponse":1350,"Ġcertain":1351,"Ex":1352,"Ġcourse":1353,"ĠTr":1354,"Ġsign":1355,"ĠAs":1356,"Ġrisk":1357,"dd":1358,"au":1359,"ependent":1360,"ique":1361,"------------":1362,"Ġlast":1363,"40":1364,"ger":1365,"name":1366,"Ġ**":1367,"ism":1368,"Ġlead":1369,"Ġissue":1370,"CT":1371,"Ġpur":1372,"IT":1373,"Ġmust":1374,"arch":1375,"Ġpat":1376,"Ġtemperature":1377,"eb":1378,"String":1379,"Ġsay":1380,"Ġoften":1381,"Wh":1382,"Ġcap":1383,"Ġcontinu":1384,"Ġlaw":1385,"âĢľ":1386,"Ġbec":1387,"ĠThere":1388,"Ġet":1389,"Ġderiv":1390,"ron":1391,"ars":1392,"Ġtake":1393,"ĢâĶĢâĶĢâĶ":1394,"itive":1395,"ains":1396,"action":1397,"mission":1398,"Ġmatter":1399,"Ġ15":1400,"Ġrun":1401,"for":1402,"ention":1403,"22":1404,"Let":1405,"sigma":1406,"Ġfin":1407,"ann":1408,"Ġconf":1409,"ination":1410,"==============================":1411,"ane":1412,"Ġmain":1413,"Ġbre":1414,"arm":1415,"Ġcaus":1416,"alk":1417,"ces":1418,"Ġwr":1419,"bl":1420,"ross":1421,"Ġstill":1422,"Ġwomen":1423,"ames":1424,"Ġaccording":1425,"Ġbenef":1426,"Ġdisease":1427,"Ġnecessary":1428,"ouse":1429,"36":1430,"Ġestim":1431,"Ġdefendant":1432,"Ġear":1433,"ccording":1434,"augh":1435,"ule":1436,"Ġlet":1437,"agn":1438,"Ġcr":1439,"ĊĠĠ":1440,"ech":1441,"ets":1442,"ier":1443,"Ġelect":1444,"Ġchanges":1445,"ade":1446,"Ġexpl":1447,"Ġcent":1448,"Ġresults":1449,"View":1450,"ĠNew":1451,"wh":1452,"lex":1453,"].":1454,"Ġevalu":1455,"Ġinc":1456,"AL":1457,"ots":1458,"Ġthough":1459,"ci":1460,"Ġnormal":1461,"Ġmicro":1462,"Ġanswer":1463,"Ġident":1464,"35":1465,"Ġz":1466,"selves":1467,"27":1468,"Ġpost":1469,"Ġtogether":1470,"Ġstructure":1471,"ĠYou":1472,"Ġdeterm":1473,"Ġapproxim":1474,"az":1475,"Ġprobably":1476,"def":1477,"();":1478,"âĢĵ":1479,"ĠAn":1480,"Ġpublish":1481,"AN":1482,"05":1483,"Ġref":1484,"Ġday":1485,"Ġfriend":1486,"lease":1487,"Ġ18":1488,"ĠSh":1489,"200":1490,"ained":1491,"boldsymbol":1492,"atrix":1493,"Ġthird":1494,"ener":1495,"Ġfollowing":1496,"ool":1497,"ily":1498,"gamma":1499,"Ġaff":1500,"bf":1501,"ately":1502,"Ġsatisf":1503,"This":1504,"Ġallow":1505,"Ġjudgment":1506,"Ġed":1507,"duction":1508,"Ch":1509,"oup":1510,"ĠEurope":1511,"son":1512,"Ġlanguage":1513,"oot":1514,"hibit":1515,"45":1516,"Ġ16":1517,"Ġgoing":1518,"land":1519,"âĢĶ":1520,"text":1521,"sc":1522,"26":1523,"oint":1524,"Ġprotein":1525,"Ġreal":1526,"usepackage":1527,"Ġdrug":1528,"Ġprior":1529,"lection":1530,"Ġ,":1531,"var":1532,"be":1533,"Ġviol":1534,"Ġsurface":1535,"Ġwithin":1536,"Ġmark":1537,"Ġmoney":1538,")\\":1539,"www":1540,"partial":1541,"Ġcell":1542,"ural":1543,"epsilon":1544,"28":1545,"Ġprot":1546,"Ġsumm":1547,"ral":1548,"Ġdel":1549,"23":1550,"}(":1551,"ams":1552,"Ġmean":1553,"Ġinterest":1554,"Ġrecommend":1555,"ium":1556,"akes":1557,"Ġfrequ":1558,"ĠCalifornia":1559,"ID":1560,"Ġhappen":1561,"Ġcare":1562,",âĢĿ":1563,"less":1564,"Ġrequest":1565,"ouble":1566,"Ġbas":1567,"ote":1568,"oci":1569,"por":1570,"ters":1571,"},":1572,"Ġfocus":1573,"Ġadv":1574,"ĠX":1575,"Ġfield":1576,"we":1577,"Ġaddition":1578,"Ġinitial":1579,"ĊĠĠĠĠ":1580,"su":1581,"ãģ":1582,"Fig":1583,"Ġsocial":1584,"osed":1585,"Ġpass":1586,"ĠĠĠĠĠĠ":1587,"29":1588,"els":1589,"Ġversion":1590,"co":1591,"Ġrespect":1592,"Ġaround":1593,"Ġintegr":1594,"Ġexample":1595,"ĠAr":1596,"Ġ14":1597,"duced":1598,"ently":1599,"Ġfalse":1600,"vert":1601,"cont":1602,"ush":1603,"Ġothers":1604,"oss":1605,"ring":1606,"Ġpower":1607,"ĠHowever":1608,"Ġpar":1609,"37":1610,"rho":1611,"Ġarg":1612,"Ġtherap":1613,"SE":1614,"Ġcommun":1615,"Ġnumbers":1616,"Ã©":1617,"Ġarticle":1618,"Ġopen":1619,"Pro":1620,"Ġincluding":1621,"Ġlikely":1622,"ott":1623,"64":1624,"38":1625,"Ġrest":1626,"=\\":1627,"Ġlist":1628,"arent":1629,"by":1630,"pi":1631,"http":1632,"ĠEx":1633,"rel":1634,"Ġfuture":1635,"---":1636,"ĠZ":1637,"ury":1638,"reen":1639,"'m":1640,"Ġexperience":1641,"Ġtaken":1642,"ĠPh":1643,"reg":1644,"Ġu":1645,"99":1646,"read":1647,"}^{":1648,"Ġlo":1649,"equ":1650,"Ġtop":1651,"Ġlow":1652,"Ġ#":1653,"Ġmillion":1654,"Ġconcentr":1655,"Ġblood":1656,"Ġreally":1657,"Ġ\\[":1658,"ern":1659,"Ġ*/":1660,"min":1661,"Ġtry":1662,"Ġmight":1663,"lobal":1664,"Ġcontr":1665,"Ġanaly":1666,"IC":1667,"ĠNo":1668,"Ġless":1669,"Ġminutes":1670,"Ġhead":1671,"rict":1672,"Ġ</":1673,"('":1674,"34":1675,"60":1676,"sec":1677,")/":1678,"Ġhours":1679,"ĠInd":1680,"orth":1681,"Cont":1682,"Ġsupp":1683,"Ġsitu":1684,"Ġfew":1685,"mu":1686,"opy":1687,"ĠUn":1688,"Ġbased":1689,"Ġtoo":1690,"ey":1691,"Ġdevice":1692,"}_":1693,"angle":1694,"ĠApp":1695,"Ġself":1696,"RE":1697,"39":1698,"Ġbelieve":1699,"ĠJapan":1700,"roll":1701,"ector":1702,"21":1703,"eed":1704,"Ġsoftware":1705,"Ġrecord":1706,"ety":1707,"You":1708,"ension":1709,"ĠThey":1710,"ION":1711,"Ġindic":1712,"fore":1713,"^,":1714,"..":1715,"thing":1716,"Ġchange":1717,"Ġhalf":1718,"ĠAfter":1719,"Ġproduct":1720,"Ġimprove":1721,"Ġimmun":1722,"rem":1723,"igh":1724,"etic":1725,"Ġcustom":1726,"ĠOn":1727,"Ġpop":1728,"ised":1729,"widetilde":1730,"Ġfour":1731,"lu":1732,"org":1733,"infty":1734,"Ġhistory":1735,"Ġret":1736,"Ġaction":1737,"riv":1738,"Ġasked":1739,"Ġessential":1740,"Ġ11":1741,"vent":1742,"iver":1743,"$$":1744,"Ġ{#":1745,"ateg":1746,"Ġ30":1747,"Ġchallen":1748,"Ġvis":1749,"ĠSp":1750,"Ġsymptom":1751,"\\!\\!\\!\\!\\!\\!\\!":1752,"LE":1753,"Ġfile":1754,"ery":1755,"čĊč":1756,"leg":1757,"Ġleg":1758,"ĠIs":1759,"ĠWhat":1760,"lev":1761,"ĠDepartment":1762,"70":1763,"Ġcommon":1764,"Ġpath":1765,"Ġachie":1766,"ĠĠĠĠĠĠĠĠĠĠĠĠĠĠĠĠĠĠĠĠĠĠĠĠĠĠĠĠĠĠĠĠĠĠĠĠĠĠĠĠĠĠĠĠĠĠĠĠĠĠĠĠĠĠĠĠĠĠĠĠ":1767,"Ġplace":1768,"Ġfail":1769,"Ġnext":1770,"Omega":1771,"ault":1772,"Ġobject":1773,"ĠChrist":1774,"ydro":1775,"ĊĊĠ":1776,"box":1777,"Ġhome":1778,"Ġbest":1779,"self":1780,"Ġclinical":1781,"ĠAt":1782,"ĠSo":1783,"Ġvehic":1784,"Ġleft":1785,"Ġput":1786,"Ġbo":1787,"Ġconn":1788,"ited":1789,"Ġcorrect":1790,"omet":1791,"div":1792,"acy":1793,"Ġinvol":1794,"att":1795,"Ġpaper":1796,"Ġgrow":1797,"Ġprofession":1798,"}_{":1799,"add":1800,"ederal":1801,"Name":1802,"ĠCon":1803,"oll":1804,"ene":1805,"ired":1806,"75":1807,"omega":1808,"Ġparticular":1809,"Ġabove":1810,"aph":1811,"ems":1812,"'re":1813,"ĉĉ":1814,"Ġtrue":1815,"ĠCl":1816,"phi":1817,"AS":1818,"eal":1819,"mathfrak":1820,"urrent":1821,"90":1822,"Ġdisc":1823,"Ġeas":1824,"95":1825,"ĠĠĠĠĠĠĠ":1826,"To":1827,"Ġreason":1828,"Ġmotion":1829,"ification":1830,"Ġbi":1831,"Com":1832,"Ġattempt":1833,"Ġheld":1834,"ĠAll":1835,"Ġleast":1836,"Ġpossible":1837,"Ġnever":1838,"Ġofficial":1839,"iving":1840,"varepsilon":1841,"ĠUS":1842,"rightarrow":1843,"Ġpolicy":1844,"ope":1845,"Ġissues":1846,"sum":1847,"Ġconcern":1848,"Ġla":1849,"ror":1850,":**":1851,"ĠĠĠĠĠĠĠĠĠ":1852,"Ġwater":1853,"urs":1854,"ED":1855,"uck":1856,"Ġalmost":1857,"ĠPl":1858,"RO":1859,"Ġnothing":1860,"33":1861,"ending":1862,"ubuntu":1863,"Ġsk":1864,"Ġmov":1865,"tilde":1866,"IS":1867,"Ġbegin":1868,"raw":1869,"Ġidea":1870,"Tr":1871,"Ġrefer":1872,"Ġ!=":1873,"function":1874,"Ġdistribution":1875,"Ġposition":1876,"ĠFurthermore":1877,"Ġcampaign":1878,"itch":1879,"48":1880,"Ġsm":1881,"ological":1882,"aligned":1883,"Ġ==":1884,"cess":1885,"arn":1886,"ĠJanuary":1887,"Ġdue":1888,"cdot":1889,"Ġpay":1890,"Ġexpression":1891,"Ġlight":1892,"}$$":1893,"}^":1894,"Con":1895,"Ġappropriate":1896,"ET":1897,"ari":1898,"ĠâĢĶ":1899,"ina":1900,"aps":1901,"Ġrequires":1902,"Ġtrial":1903,"];":1904,"ĠSouth":1905,"Ġdisplay":1906,"ats":1907,"new":1908,"Ġdays":1909,"ĠTHE":1910,"Ġrecogn":1911,"Ġinj":1912,"eter":1913,"Ġstrength":1914,"Ġgive":1915,"If":1916,"Ġsize":1917,"ĠTo":1918,"Ġmilitary":1919,"Ġincreasing":1920,"Ġ%":1921,"Ġelement":1922,"AC":1923,"col":1924,"Ġcome":1925,"Ġmoment":1926,"Ġpredict":1927,"Ġden":1928,"ĠGr":1929,"Ġtyp":1930,"Ġcost":1931,"ior":1932,"Ġwords":1933,"uth":1934,"Ġ{\\":1935,"Ġ25":1936,"Ġaverage":1937,"Ġmon":1938,"Ġexperiment":1939,"ream":1940,"As":1941,"Ġlocal":1942,"Ġthings":1943,"Ġ17":1944,"ributed":1945,"Ġfree":1946,"yt":1947,"ister":1948,"atory":1949,"Ġbig":1950,"Ġmanufact":1951,"Ġnucle":1952,"clusion":1953,"-\\":1954,"Ġcases":1955,"Ġprom":1956,"ances":1957,"Ġ--":1958,"Ġoriginal":1959,"though":1960,"ules":1961,"ĊĠĠĠĠĠĠĠĠĠĠĠĠĠĠĠĠĠĠĠ":1962,"Ġeffort":1963,"Ġpe":1964,"ffer":1965,"Ġ)":1966,"Ġcode":1967,"data":1968,"ĊĠĠĠĠĠĠĠĠĠ":1969,"ĠState":1970,"mitted":1971,"44":1972,"Ġproperties":1973,"Ġphysical":1974,"Ġshown":1975,"gen":1976,"ication":1977,"Ġdr":1978,"ries":1979,"Ġmolec":1980,"nal":1981,"ĠFr":1982,"ĠStates":1983,"Ġelse":1984,"Ġcomplete":1985,"Ġtumor":1986,"Ġpolitical":1987,"Ġ13":1988,"Ġvol":1989,"Ġpressure":1990,"Type":1991,"chem":1992,"Id":1993,"width":1994,"ask":1995,"ables":1996,"Ġteam":1997,"Ġpsych":1998,"Value":1999,"erc":2000,"Ġprovide":2001,"Ã¿Ã¿Ã¿":2002,"Ġgot":2003,"ital":2004,"inc":2005,"Ġsusp":2006,"oper":2007,"ape":2008,"ĠRes":2009,"Ġgeneral":2010,"Ġoutside":2011,"Ġsuper":2012,"68":2013,"Ġreplac":2014,"ended":2015,"Ġalgorith":2016,"\"/>":2017,"Ġrandom":2018,"eq":2019,"98":2020,"Ġsubstantial":2021,"Ġagain":2022,"Ġcomb":2023,"Ġturn":2024,"duce":2025,"Ġgame":2026,"Ġknown":2027,"Ġsw":2028,"Ġspecific":2029,"Ġbuild":2030,"Ġcalled":2031,"Ġdirection":2032,"erg":2033,"CONCLUSION":2034,"Ġrate":2035,"ruction":2036,"Ġcounsel":2037,"ney":2038,"Ġkeep":2039,"emocr":2040,"For":2041,"ymmet":2042,"Ġfeel":2043,"):":2044,"67":2045,"uss":2046,"cle":2047,"Ġspace":2048,"Ġradi":2049,"Ġsequence":2050,"lambda":2051,"beta":2052,"But":2053,"back":2054,"hip":2055,"04":2056,"Ġcur":2057,"Ġdiv":2058,"oph":2059,"Ġbro":2060,"mon":2061,"Ġmaxim":2062,"iddle":2063,"ides":2064,"Ġobvious":2065,"pm":2066,"so":2067,"Ġaut":2068,"ison":2069,"\\_":2070,"Ġprimary":2071,"65":2072,"UL":2073,"ayer":2074,"Ġ24":2075,"ait":2076,"Ġimmediately":2077,"aces":2078,"Ġwon":2079,"97":2080,"Ġplan":2081,"Ġfeatures":2082,"Ġvalues":2083,"Ġjurisdiction":2084,"{{\\":2085,"Ġable":2086,"ided":2087,"bar":2088,"ibr":2089,"Ġmass":2090,"osis":2091,"Ġstudies":2092,"Ġknowledge":2093,"Ġ>":2094,"Ġmeans":2095,"Ġabs":2096,"ured":2097,"ators":2098,"ther":2099,"itude":2100,"Ġweeks":2101,"ĠOctober":2102,"essage":2103,"Ġquestions":2104,"ĠSuppose":2105,"file":2106,"></":2107,"Ġarea":2108,"fl":2109,"Ġneg":2110,"ĠLicense":2111,"Ġcontinue":2112,"0000":2113,"INTRODUCTION":2114,"this":2115,"other":2116,"_\\":2117,"})":2118,"Ġopportunity":2119,"Cl":2120,"ĠNovember":2121,"Ġfull":2122,"Ġmove":2123,"aff":2124,"ressed":2125,"ĠWashington":2126,"Ġappear":2127,"Ġreview":2128,"ĠThat":2129,"Ġcho":2130,"mod":2131,"ĠĠĠĠĠĠĠĠĠĠĠĠ":2132,"ĠSeptember":2133,"Ġcrit":2134,"Ġlater":2135,"Ġid":2136,"pon":2137,"Ġrevealed":2138,"fo":2139,"Ġnatural":2140,"ĠObama":2141,"AP":2142,"import":2143,"lected":2144,"td":2145,"Ġbeautiful":2146,"Ġwhy":2147,"ĠPresident":2148,"Ġfavor":2149,"He":2150,"Ġdri":2151,"Ġavoid":2152,"Ġtimes":2153,"AM":2154,"aring":2155,"Ġfamil":2156,"Ġsens":2157,"Ġbody":2158,"Ġhold":2159,"Ġreported":2160,"Ġliquid":2161,"ser":2162,"ici":2163,"And":2164,"Ġmem":2165,"ges":2166,"Ġvideo":2167,"ĠRe":2168,"ored":2169,"Ġage":2170,"Ġdom":2171,"Ġgroups":2172,"Ġapplied":2173,"Ġhard":2174,"Ġshort":2175,"](":2176,"ĊĊĠĠĠĠĠĠĠ":2177,"Ġagreement":2178,"Ġlower":2179,"$\\":2180,"ume":2181,"!\\!\\!\\!\\!\\!\\!\\":2182,"ands":2183,"uring":2184,"Ġside":2185,"irst":2186,"nonumber":2187,"ince":2188,"itle":2189,"ising":2190,"Ġexist":2191,"Ġaccess":2192,"31":2193,"âĸĶâĸĶâĸĶâĸĶâĸĶâĸĶ":2194,"ends":2195,"Ġerror":2196,"Suppose":2197,"69":2198,"Ġlot":2199,"Ġ100":2200,"imal":2201,"ounds":2202,"umn":2203,"Ġamount":2204,"Ġfar":2205,"ift":2206,"Ġtre":2207,"UT":2208,"ivity":2209,"Ġ=>":2210,"!\"":2211,"ĠWhen":2212,"yle":2213,"stit":2214,"Ġdatabase":2215,"itor":2216,"ĠFebruary":2217,"><":2218,"OD":2219,"enn":2220,"On":2221,"ler":2222,"indow":2223,"Ġbehind":2224,"Ġrequired":2225,"class":2226,"Ġamong":2227,"Ġtestimony":2228,"go":2229,"^{-":2230,"ĠCommittee":2231,"ĠCol":2232,"ĠShe":2233,"Ġsent":2234,"Ġtext":2235,"Ġwritten":2236,"Ġwar":2237,"Ġstrong":2238,"Ġdone":2239,"Ġlevels":2240,"AD":2241,"Ġpract":2242,"ĠWorld":2243,"pone":2244,"Ġcompared":2245,"Ġterms":2246,"Ġnear":2247,"47":2248,"Ġlab":2249,"Ġdidn":2250,"Ġfac":2251,"Res":2252,"'ve":2253,"Ġcomponent":2254,"Ġart":2255,"Is":2256,"ling":2257,"time":2258,"sequ":2259,"Ġlink":2260,"%)":2261,"table":2262,"AG":2263,"log":2264,"Ġsure":2265,"Ġalong":2266,"ĊĠĠĠĠĠĠ":2267,"88":2268,"Ġsubject":2269,"Ġkey":2270,"Ġ50":2271,"Ġpercent":2272,"Ġsecurity":2273,"ĠFlorida":2274,"Ġfinal":2275,"Ġliter":2276,"Ġpurpose":2277,"amm":2278,"ĠCounty":2279,"utions":2280,"ãĥ":2281,"Ġdevelopment":2282,"olution":2283,"Ġactivity":2284,"ites":2285,"ese":2286,"ĠAd":2287,"ores":2288,"Ġ${\\":2289,"------------------------------------------------":2290,"ãĤ":2291,"ĠCo":2292,"orn":2293,"Ġhowever":2294,"ival":2295,"big":2296,"Ġdesign":2297,"100":2298,"Ġmen":2299,"Ġincreased":2300,"ĠOr":2301,"Ġclean":2302,"Ġstep":2303,"use":2304,"Ġproposed":2305,"Ġpiec":2306,"emplate":2307,"An":2308,"85":2309,"96":2310,"Ġdynam":2311,"}{\\":2312,"Ġmanag":2313,"Ġâ":2314,"de":2315,"Ġargument":2316,"Ġsal":2317,"Ġchar":2318,"Ġfund":2319,"ered":2320,"Ġaccount":2321,"Ġcontent":2322,"eople":2323,"Al":2324,"Ġparticip":2325,"Ġsays":2326,"ducing":2327,"Ġcover":2328,"Ġevent":2329,"ories":2330,"Ġpack":2331,"ĠGeneral":2332,"Ġcheck":2333,"Ġrece":2334,"Ar":2335,"ids":2336,"Un":2337,"Ġrole":2338,"Ġeng":2339,"Ġgirl":2340,"Ġmaking":2341,"Ġcompl":2342,"Ġpoor":2343,"Ġkind":2344,"Ġair":2345,"Ġworking":2346,"Ġcy":2347,"Ġdensity":2348,"Ġcomponents":2349,"Ġincrease":2350,"load":2351,"Ġmonths":2352,"Ġsim":2353,"iff":2354,"Ġaway":2355,"Ġauthor":2356,"vention":2357,"ung":2358,"Ġcancer":2359,"order":2360,"test":2361,"Ġbecome":2362,"Ġcomput":2363,"bo":2364,"aster":2365,"ife":2366,"]\\]":2367,"return":2368,"Ġfactors":2369,"Ġfore":2370,"Ġdegree":2371,"Ġfood":2372,"'ll":2373,"ĠIN":2374,"ley":2375,"Ġquant":2376,"Ġinclude":2377,"Ġcannot":2378,"IM":2379,"ava":2380,"Ġprovided":2381,"08":2382,"Ġtold":2383,"Ġrange":2384,"Ġthing":2385,"List":2386,"ably":2387,"Ġuseful":2388,"Ġrespons":2389,"Ġexc":2390,"Ġfinancial":2391,"App":2392,"Ġpast":2393,"Ġmult":2394,"ects":2395,"Ġes":2396,"94":2397,"ĠRep":2398,"key":2399,"date":2400,"Ġneighb":2401,"ĠSch":2402,"Ġorigin":2403,"OT":2404,"Ġlarger":2405,"ivers":2406,"Ġpretty":2407,"Ġ`":2408,"Ġperfect":2409,"aint":2410,"ves":2411,"Ġeffects":2412,"UR":2413,"55":2414,"Sh":2415,"ources":2416,"ĠMed":2417,"}}\\":2418,"Ġenc":2419,"ĠJune":2420,"ief":2421,"Ġblock":2422,"Ġupon":2423,"Ġtell":2424,"IG":2425,"Ġold":2426,"Ġcircumstances":2427,"ipp":2428,"Ġobserved":2429,"Ġacknowled":2430,"Ġdetail":2431,"Ġenough":2432,"ml":2433,"Ġseen":2434,"Ġhyper":2435,"Ġproceed":2436,"ĠLe":2437,"irm":2438,"Ġconduct":2439,"Ġservice":2440,"inter":2441,"Ġsection":2442,"Ġcalcul":2443,"66":2444,"ought":2445,"ij":2446,"CH":2447,"Ġdefinition":2448,"Ġlog":2449,"Ġdoesn":2450,"ĠâĢĺ":2451,"inary":2452,"Ġregard":2453,"istic":2454,"Ġcompanies":2455,"OM":2456,"Ġproperty":2457,"Ġtradition":2458,"string":2459,"Ġann":2460,"bu":2461,"ĠAss":2462,"ament":2463,"Ġconditions":2464,"Ġpositive":2465,"ĠCanad":2466,"Ġfixed":2467,"Ġcomplex":2468,"known":2469,"ĠSc":2470,"ĠÎ":2471,"02":2472,"Ġtechniques":2473,"07":2474,"olic":2475,"Ġopt":2476,"Ġinterpret":2477,"Ġhttp":2478,"Ġmiss":2479,"There":2480,"II":2481,"Ġmor":2482,"\")":2483,"Ġregion":2484,"ering":2485,"Ġdecre":2486,"Ġuser":2487,"ING":2488,"ground":2489,"atter":2490,"figuration":2491,"off":2492,"iles":2493,".)":2494,"leq":2495,"Ġsepar":2496,"Ġwoman":2497,"Ġtax":2498,"________________":2499,"]).":2500,"Ġbase":2501,"comp":2502,")*":2503,"Ġcoupl":2504,"Ġap":2505,"Ġ([@":2506,"Ġcountry":2507,"Ġlove":2508,"xi":2509,"Ġmus":2510,"ĠHealth":2511,"ĠĠĠĠĠĠĠĠĠĠĠ":2512,"Ġtalk":2513,"ĠAND":2514,"ĠSee":2515,"ective":2516,"09":2517,"77":2518,"At":2519,"ĊĠĠĠĠĠĠĠĠĠĠĠĠĠĠĠĠĠĠĠĠĠĠĠĠĠĠĠĠĠĠ":2520,"Ġtissue":2521,"Ġpick":2522,"Ġdeath":2523,"Ġperformed":2524,"Ġstop":2525,"Ġillustr":2526,"âĢ¦":2527,"Ġbook":2528,"Ġratio":2529,"Ġep":2530,"den":2531,"ensive":2532,"ware":2533,"Ġcut":2534,"lim":2535,"ĠApril":2536,"raft":2537,"Ġflu":2538,"Col":2539,"AB":2540,"apt":2541,"Ġspecial":2542,"Ġcreate":2543,"Ġrather":2544,"No":2545,"ai":2546,"Ġprob":2547,"Ġcult":2548,"see":2549,"Ġdoing":2550,"mp":2551,"Ġdefined":2552,"Ġvir":2553,"span":2554,"Ġpoints":2555,"Ġdescribed":2556,"Ġindustry":2557,"Ġcompletely":2558,"Ġseason":2559,"Ġfootball":2560,"nbsp":2561,"Ġearly":2562,"OP":2563,"ĠJuly":2564,"Ġopinion":2565,"Ġphot":2566,"osc":2567,"umer":2568,"Ġjo":2569,"verse":2570,"Ġearlier":2571,"ished":2572,"roid":2573,"ĠMar":2574,"Ġdecl":2575,"Ġeducation":2576,"Ġcandid":2577,"Ġenjoy":2578,"ĠWednesday":2579,"+\\":2580,"plic":2581,"exp":2582,"Ġpatient":2583,"ried":2584,"03":2585,"ĠSupreme":2586,"Ġsaf":2587,"Ġcompany":2588,"ched":2589,"Ġnecessarily":2590,"57":2591,"dis":2592,"ĠMay":2593,"emb":2594,"ĠEnglish":2595,"Ġreasons":2596,"mm":2597,"irect":2598,"Ġassess":2599,"Ġshowed":2600,"Ġdem":2601,"ĠSec":2602,"head":2603,"cluded":2604,"So":2605,"ram":2606,"ĠGoogle":2607,"Ġimage":2608,"imensional":2609,"Ġnull":2610,"ession":2611,"ender":2612,"Ġacross":2613,"Ġaccept":2614,"Ġrelevant":2615,"ining":2616,"Ġmix":2617,"Ġq":2618,"Gamma":2619,"IL":2620,"Ġbit":2621,"Ġ([":2622,"Ġ&&":2623,"ĠSu":2624,"ĠPr":2625,"bit":2626,"material":2627,"Ġweight":2628,"Ġreach":2629,"OS":2630,"year":2631,"Ġobtained":2632,"cal":2633,"Error":2634,"Ġmeet":2635,"ĠCircuit":2636,"Ġ$(":2637,"Ġcontrib":2638,"ino":2639,"ĠAmerican":2640,"resh":2641,"Ġactually":2642,"Ġfive":2643,"84":2644,"Ġadjust":2645,"omes":2646,"ibility":2647,"Ġexecut":2648,"ones":2649,"Ġbar":2650,"ĠCent":2651,"Ġwhole":2652,"cy":2653,"etition":2654,"osure":2655,"Ġgl":2656,"Ġbelow":2657,"Ġlearning":2658,"Ġvoid":2659,"OL":2660,"Ġconsidered":2661,"ĠFig":2662,"ogen":2663,"Ġchanged":2664,"^\\":2665,"Ġmakes":2666,"Ġvarious":2667,"ero":2668,"Ġstring":2669,"Ġbreak":2670,"PE":2671,"Ġproteins":2672,"Ġwriting":2673,"Ġsource":2674,"Ġshows":2675,"Ġrelated":2676,"ache":2677,"Ġonce":2678,"ĠĊ":2679,"Ġstates":2680,"003":2681,"Ġinternational":2682,"ĠBr":2683,"Ġsynthes":2684,"Ġspe":2685,"onal":2686,"Ġra":2687,"Ġthought":2688,"upplementary":2689,"Ġanalyses":2690,"Ġbegan":2691,"Ġrespectively":2692,"Ġincluded":2693,"Ġadded":2694,"ĠAm":2695,"~~~":2696,"la":2697,"Ġbuilt":2698,"nu":2699,"circ":2700,"Ġver":2701,"Ġdevices":2702,"42":2703,"Ġchild":2704,"queuebot":2705,"na":2706,"US":2707,"ocal":2708,"Ġdam":2709,")}":2710,"Ġsurgery":2711,"Ġcard":2712,"Ġsolution":2713,"ĠAugust":2714,"Ġoccur":2715,"\"}).":2716,"ĠJesus":2717,"icrosoft":2718,"Ġwidth":2719,"Ġexam":2720,")(":2721,"ĠDistrict":2722,"Ġprincip":2723,"Ġdeal":2724,"ĠCar":2725,"Ġarrest":2726,"Ġmarket":2727,"Ġsignificantly":2728,"Ġapplication":2729,"ĠPat":2730,"value":2731,"bt":2732,"Ġprocedure":2733,"49":2734,"ĠOF":2735,"Ġfully":2736,"Ġfactor":2737,"Ġeyes":2738,"ĠBl":2739,"Ġprogress":2740,"CC":2741,"Ġsex":2742,"Ġbeyond":2743,"ENT":2744,"86":2745,"sl":2746,"Ġcounter":2747,"ean":2748,"001":2749,"Ġsubs":2750,"ĠOne":2751,"Ġmaint":2752,"illed":2753,"no":2754,"ĠÂ§":2755,"Ġanti":2756,"87":2757,"Ġstruct":2758,"ĠDecember":2759,"ĠAdd":2760,"Ġsignal":2761,"gg":2762,"RESULTS":2763,"Ġsystems":2764,"theta":2765,"Ġseries":2766,"/*":2767,"odes":2768,"ĠMETHODS":2769,"Ġtook":2770,"ĠWith":2771,"'d":2772,"Ġtowards":2773,"Ġsite":2774,"Ġmar":2775,"Ġwebsite":2776,"Ġutil":2777,"Ġ...":2778,"Figure":2779,"net":2780,"tract":2781,"Ġyet":2782,"Ġconsist":2783,"Ph":2784,"Ġever":2785,"Ġplaintiff":2786,"Ġcame":2787,"ternal":2788,"ĠMr":2789,"Ġland":2790,"Ġrelatively":2791,"Ġroom":2792,"Ġexactly":2793,"Ġcommunity":2794,"Ġspect":2795,"Ġred":2796,"tau":2797,"ĠCouncil":2798,"lation":2799,"Ġloss":2800,"code":2801,"Ġbirth":2802,"ulated":2803,"Ġcause":2804,"Ġdecision":2805,"ips":2806,"Ġcouple":2807,"Ġadministration":2808,"\");":2809,"mathbf":2810,"Ġhref":2811,"Ġhouse":2812,"ymbol":2813,"Ġexperiments":2814,"oh":2815,"46":2816,"')":2817,"dom":2818,"Ġtem":2819,"reed":2820,"ĠMoreover":2821,"ider":2822,"Ġdiagn":2823,"Ġaddress":2824,"Ġsearch":2825,"ving":2826,"times":2827,"Ġhusband":2828,"ops":2829,"Ġinfluence":2830,"ĠBecause":2831,"ĠFacebook":2832,"olve":2833,"TR":2834,"delta":2835,"EL":2836,"Ġupper":2837,"operatorname":2838,"Ġ21":2839,"ĠThen":2840,"ck":2841,"Ġfelt":2842,"Ġnight":2843,"Data":2844,"body":2845,"Ġmagn":2846,"83":2847,"ĠAct":2848,"mit":2849,"umb":2850,"Ġparents":2851,"rangle":2852,"trans":2853,"used":2854,"Gr":2855,"Ġsix":2856,"Ġbound":2857,"ĠDefendant":2858,"Ġcircuit":2859,"Ġphosph":2860,"Ġcontract":2861,"Ġanything":2862,"Ġvictim":2863,"Ġbinding":2864,"size":2865,"ises":2866,"Ġ27":2867,"93":2868,"Ġmethods":2869,"iction":2870,"Ġmind":2871,"Ġyoung":2872,"âĶľâĶĢâĶĢâĶĢâĶĢâĶĢâĶĢâĶĢâĶĢâĶĢâĶĢâĶĢâĶĢâĶĢâĶĢâĶĢâĶ¼âĶĢâĶĢâĶĢâĶĢâĶĢâĶĢâĶĢâĶĢâĶĢâĶĢâĶĢâĶĢâĶĢâĶĢâĶĢâĶĢâĶĢâĶĢâĶĢâĶĢâĶĢâĶĢâĶĢâĶĢâĶĢâĶĢâĶĢâĶĢâĶĢâĶĢâĶĢâĶĢâĶĢâĶĢâĶĢâĶĢâĶĢâĶĢâĶĢâĶĢâĶĢâĶĢâĶĢâĶĢâĶĢâĶĢâĶĢâĶĢâĶĢâĶĢâĶĢâĶĢâĶĢâĶĢâĶĢâĶĢâĶĢâĶĢâĶĢâĶĢâĶĢâĶĢâĶ¤":2873,"aging":2874,"ĠGovernment":2875,"Ġ(*":2876,"Ġreleased":2877,"Ġattack":2878,"cc":2879,"Ġalleged":2880,"Ġvar":2881,"igr":2882,"Ġensure":2883,"SS":2884,"Ġservices":2885,"rim":2886,"Ġadditional":2887,"Ġtherefore":2888,"ĠIsrael":2889,"Ġwrote":2890,"ĠGod":2891,"izing":2892,"aj":2893,"Ġtable":2894,"rol":2895,"lying":2896,"Ġimplement":2897,"Ġtown":2898,"Ġbill":2899,"ged":2900,"After":2901,"Ġcelebr":2902,"Ġob":2903,"Ġtravel":2904,"Ġdifference":2905,"aged":2906,"Ġtoday":2907,"opt":2908,"ervice":2909,"}$,":2910,"Ġresistance":2911,"Ġentire":2912,"ĠThus":2913,"anch":2914,"Ġotherwise":2915,"Ġpers":2916,"ĠÂ±":2917,"Ġtrying":2918,"Ġthus":2919,"ĠBe":2920,"Sp":2921,"Ġclose":2922,"Ġportion":2923,"ĠAfric":2924,"Ã³n":2925,"Ġquickly":2926,"Ġneeded":2927,"Ġhypothes":2928,"06":2929,"Ġmachine":2930,"Ġlength":2931,"actions":2932,"89":2933,"Ġcomparison":2934,"Ġalgebra":2935,"^*":2936,"mer":2937,"param":2938,"uff":2939,"Ġsimple":2940,"rew":2941,"Ġcross":2942,"atus":2943,"ĠResearch":2944,"witter":2945,"Ġvia":2946,"ĠĠĠĠĠĠĠĠĠĠĠĠĠĠ":2947,"![":2948,"Ġintro":2949,"DE":2950,"Ġmot":2951,"UN":2952,"Ġir":2953,"define":2954,"Ġmatch":2955,"older":2956,"Ġgene":2957,"ĠInc":2958,"Ġpaid":2959,"Ġremoved":2960,"position":2961,"Ġpattern":2962,"Ġ(-":2963,"Ġcontact":2964,"do":2965,"pre":2966,"ales":2967,"Ġneeds":2968,"ients":2969,"}$.":2970,"alse":2971,"ĊĊĊ":2972,"ĠCity":2973,"itting":2974,"ĠInternational":2975,"Ġbottom":2976,"ike":2977,"Index":2978,"Ġfun":2979,"ilities":2980,"Ġsometimes":2981,"ĠĠĠĠĠĠĠĠĠĠĠĠĠ":2982,"Ġ(\\[":2983,"but":2984,"|\\":2985,"Key":2986,"Ġ^":2987,"Ġquality":2988,"asc":2989,"Im":2990,"Ġinvolved":2991,"Ġcapacity":2992,"Ġmut":2993,"Ġdig":2994,"41":2995,"face":2996,"Ġseem":2997,"Ġiniti":2998,"ference":2999,"atur":3000,"Ġstudents":3001,"Ġang":3002,"ĠAustral":3003,"Ġparty":3004,"ĠMc":3005,"Ġcharacteristics":3006,"------":3007,"92":3008,"],[@":3009,"Set":3010,"ĠBoard":3011,"ĠCont":3012,"Ġmodels":3013,"iber":3014,"])":3015,"ĠĠĠĠĠĠĠĠĠĠĠĠĠĠĠĠĠĠĠĠĠĠĠĠĠĠĠĠĠĠĠĠĠĠĠĠĠĠĠĠĠĠĠĠĠ":3016,"vironment":3017,"43":3018,"Ġjob":3019,"56":3020,"mathrm":3021,"struct":3022,"Ġwitness":3023,"ĠMy":3024,"field":3025,"Ġpopulation":3026,"based":3027,"Ġpain":3028,"vec":3029,"Ġperformance":3030,"Ġwent":3031,"Ġface":3032,"Ġ26":3033,"my":3034,"Ġfigure":3035,"omorph":3036,"unch":3037,"ption":3038,"Ġgetting":3039,"Ġrecent":3040,"Ġque":3041,"Ġhapp":3042,"Ġexpected":3043,"Ġflow":3044,"ti":3045,"ĠSe":3046,"Ġgrowth":3047,"Ġ\\\\":3048,"Ġ40":3049,"Ġchannel":3050,"IR":3051,"ĠEn":3052,"IV":3053,"idence":3054,"Ġindependent":3055,"Ġinflamm":3056,"Ġlooking":3057,"Ð¾Ð":3058,"ived":3059,"rc":3060,"Ġpolice":3061,"Ġcorrel":3062,"Ġfunctions":3063,"ĠInterest":3064,"Ġalcohol":3065,"Ġwin":3066,"ĠMin":3067,"Ġproblems":3068,"Ġrights":3069,"\\])":3070,"91":3071,"imilar":3072,"Ġflo":3073,"\\\\":3074,"Ġcomes":3075,"ential":3076,"dev":3077,"Ġmedia":3078,"erve":3079,"Ġprof":3080,"Ġcredit":3081,"*,":3082,"Ġpan":3083,"Override":3084,"Ġexpect":3085,"Ġexperienced":3086,"EM":3087,"ĠNULL":3088,"Ġdestroy":3089,"bib":3090,"ethod":3091,"vel":3092,"Ġur":3093,"ĠMichael":3094,"Ġplaced":3095,"Ġcryst":3096,"Ġcity":3097,"Ġ28":3098,"miss":3099,"ĠNot":3100,"Ġbrief":3101,"ĠDevelopment":3102,"ĠBy":3103,"Ġmyself":3104,"mediate":3105,"Ġseems":3106,"That":3107,"Ġdaily":3108,"Ġtouch":3109,"Ġtool":3110,"When":3111,"path":3112,"ĠCD":3113,"Ġproduction":3114,"Ġinput":3115,"Ġcivil":3116,"Ġ22":3117,"CL":3118,"icon":3119,"Refer":3120,"ĠmiR":3121,"acter":3122,"come":3123,"anks":3124,"ple":3125,"Ġstory":3126,"list":3127,"ience":3128,"Ġprovides":3129,"ously":3130,"Ġ$$":3131,"Delta":3132,"Ġmeasures":3133,"ony":3134,"Ġheart":3135,"Ġnamed":3136,"Ġalternative":3137,"state":3138,"Ġcal":3139,"Ġhost":3140,"Ġchem":3141,"Ġemployees":3142,"How":3143,"Ġconflict":3144,"Ġinstead":3145,"Simplify":3146,"anding":3147,"Table":3148,"Ġofficer":3149,"Ġprec":3150,"Ġtaking":3151,"Ġsimply":3152,"anced":3153,"oma":3154,"psi":3155,"Object":3156,"Â±":3157,"err":3158,"With":3159,"Get":3160,"ject":3161,"ĊĠĠĠĠĠĠĠĠĠĠĠĠĠĠĠĠĠĠĠĠĠĠĠ":3162,"Ġstrategy":3163,"ĠTrump":3164,"Ġsurvival":3165,"king":3166,"Ġlearn":3167,"Ġexercise":3168,"Ġblack":3169,"Ġsleep":3170,"des":3171,"Ġtheory":3172,"Manager":3173,"ds":3174,"iting":3175,"ĠRo":3176,"ging":3177,"**]{},":3178,"Ġminimum":3179,"ĠDo":3180,"Ġimpact":3181,"PS":3182,"include":3183,"uments":3184,"induced":3185,"EC":3186,"FL":3187,"Ġimport":3188,"normal":3189,"Ġevents":3190,"Ġcoordin":3191,"Ġspecifically":3192,"\";":3193,"Ġsomeone":3194,"Ġhundred":3195,"Ġrapid":3196,"\\*":3197,"Ġtw":3198,"Ġstarted":3199,"All":3200,"astroenterology":3201,"Ġmentioned":3202,"Ġplatform":3203,"Ġpage":3204,"By":3205,"po":3206,"wo":3207,"rown":3208,"fr":3209,"Ġcolor":3210,"Ġfall":3211,"point":3212,"ĠNational":3213,"hydr":3214,"cm":3215,"Ġstraight":3216,"Ġwor":3217,"ental":3218,"light":3219,"with":3220,"Ġphenomen":3221,"lin":3222,"74":3223,"Ġvalid":3224,"Ġ23":3225,"Ġload":3226,"Ġprepared":3227,"ĠCor":3228,"Ġsamples":3229,"ronic":3230,"init":3231,"Ġconfirmed":3232,"Ġdespite":3233,"https":3234,"down":3235,"Ġwatch":3236,"arr":3237,"Ġcoll":3238,"uk":3239,"oles":3240,"Ġjud":3241,"umber":3242,"ements":3243,"Ġbasis":3244,"Ġproducts":3245,"Add":3246,"En":3247,"76":3248,"Ġconv":3249,"Ġclos":3250,"Ġlines":3251,"Ġ},":3252,"PC":3253,"Ġimpro":3254,"astic":3255,"where":3256,"Ġframework":3257,"Ġpresented":3258,"Ġcriminal":3259,"link":3260,"));":3261,"Ġfollows":3262,"Ġdepend":3263,"Ġparameters":3264,"58":3265,"usion":3266,"ethyl":3267,"char":3268,"ĠPaul":3269,"unt":3270,"Re":3271,"Ġsample":3272,"ĠÐ":3273,"Ġbad":3274,"rip":3275,"Ġdetermined":3276,"MS":3277,"Ġdetermine":3278,"Ġstorage":3279,"Ġlack":3280,"ĠMan":3281,"Ġstatic":3282,"Ġcommercial":3283,"ĠDr":3284,"Ġhom":3285,"like":3286,"My":3287,"Ġshall":3288,"fort":3289,"work":3290,"ocol":3291,"top":3292,"Ġmedical":3293,"Ġindex":3294,"Ġeffective":3295,"atal":3296,"Ġanalyzed":3297,"Ġproliferation":3298,"Ġmap":3299,"Ġlive":3300,"ĠÃ":3301,"Ġnews":3302,"Ġemb":3303,"Ġdate":3304,"Ġformer":3305,"59":3306,"Ġpersonal":3307,"Ġpresence":3308,"Ġsociety":3309,"Ġidentified":3310,"Ġforce":3311,"Ġide":3312,"Ġassociation":3313,"Ġprinciples":3314,"Ġgenes":3315,"ĠâĪĴ":3316,"Ġsqu":3317,"SD":3318,"Ġfemale":3319,"//////////////////////////":3320,"reate":3321,"CD":3322,"63":3323,"outh":3324,"Ġprint":3325,"Ġphys":3326,"ython":3327,"Sc":3328,"PI":3329,"Ġitself":3330,"Ġdegrees":3331,"Ġattorney":3332,"}=":3333,"Ġsmooth":3334,"ying":3335,"Ġvelocity":3336,"ĠNorth":3337,"ĠCalculate":3338,"Ġfilm":3339,"Model":3340,"eff":3341,"62":3342,"ĠDavid":3343,"ana":3344,"Ġox":3345,"ĠAg":3346,"Ġappellant":3347,"Ġest":3348,"Ġdocument":3349,"Ġcitizens":3350,"Ġsil":3351,"Ġphase":3352,"Ġadvantage":3353,"ros":3354,"$-":3355,"Ġefficiency":3356,"error":3357,"Ġcontext":3358,"ĠYork":3359,"54":3360,"Ġfront":3361,"ĠWilli":3362,"Ġlonger":3363,"Ġdim":3364,"Ġofficers":3365,"Ġcopy":3366,"group":3367,"word":3368,"Ġrender":3369,"ula":3370,"Ġconstant":3371,"}^{\\":3372,"Ġtypes":3373,"ĠComp":3374,"TH":3375,"Ġtransfer":3376,"ĠPennsylvania":3377,"ills":3378,"Ġperhaps":3379,"Ġworks":3380,"sim":3381,"Ġscript":3382,"Ġstatement":3383,"Ġparallel":3384,"Dis":3385,"Ġground":3386,")=":3387,"72":3388,"Ġstatus":3389,"53":3390,"ĠInt":3391,"++":3392,"Ġsevere":3393,"Ġeverything":3394,"ening":3395,"Ġsense":3396,"Ġdraw":3397,"Ġanimals":3398,"Ġinvest":3399,"Ġelements":3400,"ĠBrazil":3401,"79":3402,"Ġfruit":3403,"roph":3404,"ulations":3405,"78":3406,"osition":3407,"Ġwrong":3408,"Param":3409,"Ġbiggest":3410,"Ġsyndrome":3411,"Ġprevent":3412,"px":3413,"fully":3414,"Ġmis":3415,"Ġhist":3416,"ults":3417,"ĠAb":3418,"ĠCongress":3419,"ploy":3420,"hibition":3421,"ĠString":3422,"Ġremain":3423,"Ġrunning":3424,"Ed":3425,"Ġcharg":3426,"Ġpurposes":3427,"Ġscreen":3428,"Ġoutput":3429,"Ã¡":3430,"File":3431,"Ġconstit":3432,"Ġrad":3433,"ux":3434,"ÃŃ":3435,"Ġassert":3436,"Ps":3437,"Ġunit":3438,"Ġcreated":3439,"Ġdanger":3440,"Pl":3441,"mbox":3442,"Ġacid":3443,"Ġbur":3444,"Ġbring":3445,"Ġhuge":3446,"Ġtherapeutic":3447,"Ġ2012":3448,"itation":3449,"ĠII":3450,"Ġarray":3451,"Ġsem":3452,"ards":3453,"Ġmember":3454,"varphi":3455,"PA":3456,"me":3457,"Ġnode":3458,"utes":3459,"82":3460,"Int":3461,"aving":3462,"mail":3463,"Ġlikelihood":3464,"Ġrespond":3465,"Ġcamera":3466,"msg":3467,"Ġtraining":3468,"Ġquite":3469,"Ġinstall":3470,"urch":3471,"mun":3472,"Ġinsurance":3473,"Ġwalk":3474,"=======":3475,"oud":3476,"Ġdeep":3477,"ague":3478,"Ġvs":3479,"ĠPar":3480,"acc":3481,"Ġoil":3482,"Ġmobile":3483,"ĠGeorge":3484,"ĠWARRANT":3485,"Ġeasy":3486,"Ġconventional":3487,"Ġareas":3488,"Ġnational":3489,"Ġinside":3490,"Ġlayer":3491,"Ġdistrict":3492,"Ġple":3493,"Ġexchange":3494,"Ġslightly":3495,"ĠPart":3496,"Ġrates":3497,"imate":3498,"Ġselect":3499,"52":3500,"ever":3501,"ections":3502,"######":3503,"NS":3504,"erson":3505,"efore":3506,"ades":3507,"ĠTherefore":3508,"ĠIm":3509,"Ġimpl":3510,"Ġcreat":3511,"aves":3512,"ission":3513,"\"><":3514,"ĠGu":3515,"aven":3516,"Not":3517,"ĊĠĠĠĠĠĠĠĠĠĠĠĠĠ":3518,"Ġgas":3519,"Ġrelease":3520,"place":3521,"Text":3522,"Ġsomew":3523,"Calculate":3524,"73":3525,"Ġequivalent":3526,"Ġvector":3527,"ĊĠĠĠĠĠĠĠĠ":3528,"ĠInstitute":3529,"Ġclaims":3530,"user":3531,"iet":3532,"lege":3533,"ĠGerm":3534,"Ġwanted":3535,"gn":3536,"]{":3537,"ocytes":3538,"Ġcontroll":3539,"ĠOur":3540,"isions":3541,"ians":3542,"atives":3543,"ĠChicago":3544,"Ġdirectly":3545,"aut":3546,"artment":3547,"Ġnearest":3548,"($":3549,"eat":3550,"Ġtransform":3551,"ĠHow":3552,"51":3553,"ĠPhys":3554,"CA":3555,"Ġago":3556,"*]{}":3557,"Ġrepresents":3558,"Ġ2013":3559,"from":3560,"71":3561,"Ġlimited":3562,"ĠFin":3563,"Ġcontain":3564,"ha":3565,"Ġmer":3566,"Ġneighborhood":3567,"Ġisn":3568,"public":3569,"Ġ/>":3570,"Ġfaith":3571,"ĠChinese":3572,"Ġstay":3573,"Ġability":3574,"subset":3575,"play":3576,"Ġarbitr":3577,"ners":3578,"const":3579,"prime":3580,"Ġsqrt":3581,"Ġ--------":3582,"ĠWestern":3583,"sk":3584,"Ġreduced":3585,"Ġlymph":3586,"Ġ[**":3587,"Ġdeveloped":3588,"ĠBritish":3589,"langle":3590,"Ċĉĉĉĉĉ":3591,"Ġ?":3592,"clus":3593,"Ġcook":3594,"elling":3595,"RNA":3596,"specific":3597,"81":3598,"ags":3599,"iveness":3600,"Ġpicture":3601,"ze":3602,"Ġlatest":3603,"ications":3604,"Ġnegative":3605,"write":3606,"void":3607,"array":3608,"EX":3609,"omy":3610,"ĠRuss":3611,"Ġcriteria":3612,"perty":3613,"Ġdistinct":3614,"Ġpreviously":3615,"Ġaccur":3616,"Ġgreater":3617,"ĠFoundation":3618,"Ġlicense":3619,"Ġrule":3620,"Or":3621,"Ġarchitect":3622,"OC":3623,"Ġforward":3624,"Ġsurround":3625,"oo":3626,"Ġoption":3627,"que":3628,"Ġincludes":3629,"Ġsett":3630,"max":3631,"Bu":3632,"rows":3633,"Ġinteger":3634,"Ġcup":3635,"orem":3636,"Ġincorpor":3637,"Ġ;":3638,"ocation":3639,"Request":3640,"Ċĉĉĉĉ":3641,"Ġneuro":3642,"Ġshare":3643,"Ġexpress":3644,"ĠLondon":3645,"bi":3646,"ï¼":3647,"Ġenzym":3648,"Ġproportion":3649,"Ġmurder":3650,"Ġmechan":3651,"Ġbehavior":3652,"ster":3653,"Ġport":3654,"IF":3655,"pen":3656,"version":3657,"Ġfire":3658,"Ġgraph":3659,"Ġdoubt":3660,"Ġprop":3661,"Ġhot":3662,"term":3663,"cluding":3664,"rial":3665,"ken":3666,"}(\\":3667,"Ġvoice":3668,"ML":3669,"Ġsequ":3670,"Ġlargest":3671,"Ġannounced":3672,"Ġarrang":3673,"reet":3674,"Ġabsolutely":3675,"čĊĠĠĠ":3676,"Ġwhite":3677,"Ġrepeated":3678,"ĠFriday":3679,"Ġaccom":3680,"Ġsn":3681,"Ġinstance":3682,"Ġcolumn":3683,"Ġvoltage":3684,"Ġstatist":3685,"ept":3686,"ĠAttorney":3687,"GF":3688,"ii":3689,"ĠHere":3690,"part":3691,"unction":3692,"Ġdefault":3693,"Ġmemory":3694,"wide":3695,"Ġmice":3696,"Ġpair":3697,"Ġgames":3698,"abor":3699,"ĠRec":3700,"itted":3701,"requ":3702,"oring":3703,"Ġball":3704,"Ġer":3705,"Ġ29":3706,"ribute":3707,")$.":3708,"otion":3709,"Ġcompet":3710,"Ġ);":3711,"ĠJust":3712,"plit":3713,"lock":3714,"ĠSystem":3715,"cur":3716,"Ġwhatever":3717,"61":3718,"sub":3719,"ĠDis":3720,"Ġfindings":3721,"\\<":3722,"Â°":3723,"Ġgenerally":3724,"IP":3725,"js":3726,"Ġcateg":3727,"Ġeye":3728,"ĠPer":3729,"ville":3730,"Sec":3731,"Ġetc":3732,"Ġ60":3733,"Ġlost":3734,"ĠCir":3735,"Ġresid":3736,"Ġfollowed":3737,"Ġgrant":3738,"print":3739,"Ġtitle":3740,"Ġcarbon":3741,"Ġappeal":3742,"Ġusually":3743,"Ġtreated":3744,"Ġaim":3745,"omic":3746,"Ġreceptor":3747,"ĠHis":3748,"Ġword":3749,"Ġpresident":3750,"Ġcompleted":3751,"Ġreference":3752,"Ġmatrix":3753,"ĠId":3754,"Ġcorresponding":3755,"sm":3756,"Ġefficacy":3757,"ĠST":3758,"Ġoutcomes":3759,"nabla":3760,"ened":3761,"Ġsugar":3762,"Ġillegal":3763,"Ġglobal":3764,"Ġ32":3765,"ĠSince":3766,"Ġlinear":3767,"Ġparticularly":3768,"Ġrev":3769,"Ġempty":3770,"...\"":3771,"Ġdelivery":3772,"Ġ[*":3773,"ĠTexas":3774,"Ġplayers":3775,"ĠAfghanistan":3776,"Ġstrugg":3777,"ĠDe":3778,"github":3779,"Ġguilty":3780,"ĠBar":3781,"Ġcoming":3782,"Ġge":3783,"Ġdifferences":3784,"ĠSm":3785,"alt":3786,"ped":3787,"Ġplasma":3788,"Ġinvention":3789,"oke":3790,"Ġfight":3791,"lib":3792,"ĠMonday":3793,"ĠChina":3794,"ĠPol":3795,"Ġspectrum":3796,"Ġnote":3797,"Ġbuilding":3798,"\".":3799,"ĠWhile":3800,"Ġhospital":3801,"Ġdiseases":3802,"ĠMarch":3803,"Ġderivative":3804,"ano":3805,"otic":3806,"oscopic":3807,"Ġactive":3808,"ĠDes":3809,"active":3810,"bert":3811,"Ġprimarily":3812,"Ġautomatically":3813,"Ġguidelines":3814,"Ġonline":3815,"urb":3816,"Ġequipment":3817,"kappa":3818,"Ġexplicit":3819,"eless":3820,"Ġregular":3821,"Ġ2014":3822,"Ġgrad":3823,"['":3824,"alysis":3825,"istry":3826,"Ġmessage":3827,"((":3828,"Ġinhibit":3829,"().":3830,"Ġcommittee":3831,"eline":3832,"ĠReg":3833,"MA":3834,"Ġwait":3835,"Ġrout":3836,"df":3837,"Ġfailed":3838,"ially":3839,"oes":3840,"stein":3841,"Ġwhose":3842,"Ġoffice":3843,"ĠFirst":3844,"Ġconstruct":3845,"Ġappeared":3846,"lor":3847,"Ġsaw":3848,"Ġwrite":3849,"Ġsensitivity":3850,"Ġ-->":3851,"Ġtherapy":3852,"ĠTechn":3853,"Ġlate":3854,"ours":3855,"Ġstyle":3856,"Ġopportunities":3857,"Controller":3858,"Ġleave":3859,"iable":3860,"Ġsyn":3861,"Def":3862,"Ġcosts":3863,"bre":3864,"Ġstimul":3865,"Ġalthough":3866,"ĠPakistan":3867,"Ġpurch":3868,"ued":3869,"Ġheat":3870,"summary":3871,"Ġmortality":3872,"fil":3873,"Ġpractice":3874,"Ġsituation":3875,"Ġcharge":3876,"Ġsaying":3877,"Ġscheme":3878,"orizontal":3879,"ĠWITH":3880,"Ġoffer":3881,"Ġcountries":3882,"quad":3883,"onic":3884,"Ġquarter":3885,"Ġtakes":3886,"Ġheavy":3887,"OW":3888,"Ġrelative":3889,"Ġsubstrate":3890,"Ġlegal":3891,"ancy":3892,"mark":3893,"ĠOR":3894,"Ġfat":3895,"ĠDNA":3896,"sw":3897,"Class":3898,"eng":3899,"Ġmixture":3900,"ĠHouse":3901,"Ġwall":3902,"çļĦ":3903,"âĢĲ":3904,"Ġrecently":3905,"idge":3906,"Ġdriving":3907,"Ġuniform":3908,"}_{\\":3909,"Ġprefer":3910,"ĠIran":3911,"BC":3912,"db":3913,"ĠCons":3914,"Ġuncertain":3915,"Ġasp":3916,"Ġrot":3917,"Path":3918,"Ġsufficient":3919,"ankruptcy":3920,"==":3921,"âĢ¢":3922,"Ġhousing":3923,"ĠEd":3924,"source":3925,"Ġvot":3926,"Ġteach":3927,"vey":3928,"Ġintr":3929,"arrow":3930,"Ġmargin":3931,"itable":3932,"esis":3933,"ĠDef":3934,"pped":3935,"cap":3936,"Ġgives":3937,"chi":3938,"Ġjournal":3939,"Ġ2016":3940,"Ġste":3941,"Ġcenter":3942,"Ð°Ð":3943,"Ġsubsequent":3944,"Ġintelligence":3945,"unc":3946,"utrition":3947,"Ġnature":3948,"Ġserious":3949,"ĠQu":3950,"Qu":3951,"lete":3952,"asing":3953,"ĠVirginia":3954,"Ad":3955,"Ġguarant":3956,"igen":3957,"Ġdefendants":3958,"Ġstage":3959,"ĠAmerica":3960,"anging":3961,"Ġspecies":3962,"';":3963,"Ġprime":3964,"Ġidentify":3965,"Ġorg":3966,"Ġenh":3967,"Ġ31":3968,"ĠIS":3969,"Ġtried":3970,"\\].":3971,"ĠSome":3972,"Ġappro":3973,"Ġbalance":3974,"American":3975,"Ġanyone":3976,"gl":3977,"Ġappreci":3978,"Ġhydro":3979,"Ġimages":3980,"Ġeveryone":3981,"Ġlibrary":3982,"ĠTuesday":3983,"protobuf":3984,"Ġfeed":3985,"ĠUsing":3986,"illing":3987,"Se":3988,"Ġdouble":3989,"Ġtrack":3990,"pat":3991,"Ġ2015":3992,"ĠOff":3993,"Ġjury":3994,"Ġliving":3995,"adem":3996,"Ġult":3997,"^[@":3998,"cell":3999,"Ġunique":4000,"aries":4001,"BS":4002,"One":4003,"ĠWar":4004,"Ġles":4005,"omb":4006,"Ġantibodies":4007,"Ġhope":4008,"rec":4009,"prop":4010,"Ġindividuals":4011,"encies":4012,"Ġord":4013,"Ġ/*":4014,"Ġbroad":4015,")-":4016,"ils":4017,"Ġselected":4018,"\\;\\;\\;\\;":4019,"Ġwarrant":4020,"map":4021,"Ġscale":4022,"Ġextremely":4023,"Ġvers":4024,"Ġchoice":4025,"Ġfederal":4026,"ayout":4027,"izes":4028,"Ġspirit":4029,"ball":4030,"Ġways":4031,"Ġmeasured":4032,"gy":4033,"Ġprocedures":4034,"Ġissued":4035,"mand":4036,"Ġ///":4037,"Ġchosen":4038,"Ġdiss":4039,"Ġassum":4040,"Ġdesigned":4041,"Ġduty":4042,"PL":4043,"\\'":4044,"Ġoperation":4045,"čĊĠ":4046,"Ġthousands":4047,"Ġallowed":4048,"pack":4049,"Test":4050,"]^":4051,"uel":4052,"otherapy":4053,"iring":4054,"asis":4055,"Ġhighly":4056,"ĠAlthough":4057,"room":4058,"Ġthemselves":4059,"}}$":4060,"Ġparties":4061,"uthor":4062,"Ġisolated":4063,"ĠJudge":4064,"Ġspeed":4065,"Ġdetails":4066,"Ġfit":4067,"Time":4068,"hand":4069,"Ġmembrane":4070,"Ġfreedom":4071,"Ġpublished":4072,"ĠSen":4073,"Ġbecame":4074,"info":4075,"Ġassist":4076,"Ġdoct":4077,"cast":4078,"Lambda":4079,"Ġfailure":4080,"ĠSer":4081,"ae":4082,"bm":4083,"ĠNow":4084,"Ġfib":4085,"inity":4086,"length":4087,"Ġ2010":4088,"iation":4089,"apter":4090,"Ġmetabol":4091,"Ðµ":4092,"Ġbox":4093,"stance":4094,"ĠThursday":4095,"ĠMichigan":4096,"cd":4097,"ett":4098,"Ġpolicies":4099,"Of":4100,"Ġcomment":4101,"item":4102,"Ġcomposite":4103,"crib":4104,"enses":4105,".\\":4106,"Ġdiabetes":4107,"index":4108,"Ġduration":4109,"node":4110,")$,":4111,"Ġ:=":4112,"Ġ2011":4113,"Ġintensity":4114,"ä¸":4115,"inated":4116,"Ġprice":4117,"Ġhospitals":4118,"Ġvisit":4119,"She":4120,"Ġbleeding":4121,"ĠMERCHANTABILITY":4122,"Ġstress":4123,"Ġexpressed":4124,"Ġgoal":4125,"ĠScience":4126,"ĠFrench":4127,"CE":4128,"ilit":4129,"Ġexpansion":4130,"count":4131,"Ġround":4132,"Ġcentral":4133,"Ġtechnology":4134,"Ġsort":4135,"abled":4136,"Ġnotice":4137,"Ġinfrastructure":4138,"Ġhar":4139,"');":4140,"Ġcurrently":4141,"ĠAc":4142,"Ġequal":4143,"Ġleading":4144,"ĠSunday":4145,"Ġrecovery":4146,"burg":4147,"^+":4148,"EST":4149,"amespace":4150,"Ġ35":4151,"Ġecho":4152,"Ġelection":4153,"ography":4154,"ĠAM":4155,"base":4156,"ĠCal":4157,"Ġtransition":4158,"Ġfast":4159,"Ġequation":4160,"ube":4161,"ĠInternet":4162,"Ġcrucial":4163,"Des":4164,"Ġpred":4165,"Ġled":4166,"Ġoptions":4167,"ui":4168,"Ġanalog":4169,"ico":4170,"Ġwindow":4171,"owing":4172,"igation":4173,"Ġeasily":4174,"());":4175,"Ġcaused":4176,"ird":4177,"Ġbudget":4178,"Ġemerg":4179,"ecting":4180,"ĠSw":4181,"that":4182,"Ġoverall":4183,"ica":4184,"Ġsoon":4185,"Ġcommand":4186,"ĠStud":4187,"Ġ\\<":4188,"Ġinjury":4189,"Ġpolynomial":4190,"FF":4191,"iness":4192,"Ġgave":4193,"Ġpush":4194,"Ġscore":4195,"Ġmeaning":4196,"Ġmanagement":4197,"Ġbackground":4198,"ĠEl":4199,"Ġhimself":4200,"Ġentitled":4201,"Ġproof":4202,"Ġve":4203,"ulate":4204,"Ġfiled":4205,"ĠRepublic":4206,"Ġten":4207,"Ġconnection":4208,"Ġpull":4209,"Ġfair":4210,"oul":4211,"Exception":4212,"Ġlimits":4213,"Ġaw":4214,"Ġweak":4215,"ĠNone":4216,"ĠTe":4217,"ĠDetermine":4218,"Ġgalax":4219,"Ġgovern":4220,"itis":4221,"och":4222,"Ġthreat":4223,"ĠMatthew":4224,"iated":4225,"ama":4226,"ris":4227,"CP":4228,"Ġbrain":4229,"Ġextra":4230,"Ġallows":4231,"Ġparameter":4232,"Ġbelieved":4233,"Ġhit":4234,"Ġlocation":4235,"Ġche":4236,"Ġswitch":4237,"ĠFurther":4238,"align":4239,"TP":4240,"icated":4241,"Ġalone":4242,"iding":4243,"ĠAmazon":4244,"Ġacqu":4245,"Ġapply":4246,"Ġdenominator":4247,"Ġstated":4248,"Ġclearly":4249,"Ġfriends":4250,"Ġcritical":4251,"fn":4252,"ether":4253,"ails":4254,"Ġdistance":4255,"oding":4256,"Ġbuy":4257,"Ġprices":4258,"ĠCopyright":4259,"};":4260,"Ġ00":4261,"duc":4262,"document":4263,"Ġthreshold":4264,"ecutive":4265,"ÑĤ":4266,"Ġvariable":4267,"Ġ($":4268,"Ġreduce":4269,"Exp":4270,"âĢĬ":4271,"Ġheight":4272,"},\\":4273,"%,":4274,"lem":4275,"čĊĠĠĠĠĠ":4276,"Ġ2017":4277,"Ġfeature":4278,"ĠTrans":4279,"Ġelectro":4280,"ersion":4281,"Ġcardiovascular":4282,"Ġwonder":4283,"New":4284,"ĠAssociation":4285,"Ab":4286,"Ġreligious":4287,"SC":4288,"static":4289,"ĠVal":4290,"BA":4291,"Ġask":4292,"rier":4293,"Ġleaders":4294,"osing":4295,"opl":4296,"ulf":4297,"Ġestablished":4298,"force":4299,"(),":4300,"ares":4301,"Ġtemperatures":4302,"SP":4303,"Now":4304,"icial":4305,"Ġones":4306,"Ġvirtual":4307,")).":4308,"using":4309,"encing":4310,"Ġbaby":4311,"athemat":4312,"Ġboard":4313,"here":4314,"ãĢ":4315,"Ġneither":4316,"icles":4317,"inf":4318,"Ġ2008":4319,"Ġbenefits":4320,"Ġreduction":4321,"Ġdeb":4322,"Ġparticipants":4323,"Ġmulti":4324,"Ġfields":4325,"ĠHamilton":4326,"oe":4327,"stream":4328,"Ġexcept":4329,"._":4330,"They":4331,"umption":4332,"Ġstri":4333,"Ġrecip":4334,"ĠEngland":4335,"Ġusers":4336,"Ġregarding":4337,"asion":4338,"čĊ":4339,"Ġengine":4340,"Ġphilosoph":4341,"cin":4342,"Ġactual":4343,"Ġknew":4344,"Ġparts":4345,"Ġposs":4346,"Ġingredients":4347,"Ġhighest":4348,"hold":4349,"sf":4350,"Ġexcellent":4351,"ĠIslam":4352,"Ġdiscl":4353,"oad":4354,"ester":4355,"ĠRev":4356,"Ġdatas":4357,"Ġtrigger":4358,"ĠLa":4359,"Ġfiles":4360,"Ġsuffer":4361,"Ġremains":4362,"Ġlocated":4363,"Ġcontaining":4364,"Ġfundamental":4365,"overline":4366,"Ġfrequency":4367,"cons":4368,"Ġpen":4369,"True":4370,"Ġcontains":4371,"Ġsupported":4372,"Ġserver":4373,"âĢĥ":4374,"Ġinstrument":4375,"Ġgenerated":4376,"inate":4377,"Ġattention":4378,"ios":4379,"ĠWindows":4380,"ĠSaturday":4381,"Ġunderstanding":4382,"Ġappears":4383,"Ġreceive":4384,"ptions":4385,"Ġoppos":4386,"Ġslow":4387,"TER":4388,"Ġax":4389,"Ġactivities":4390,"Ġsolid":4391,"Ġwidely":4392,"Ġdog":4393,"Ġtumors":4394,")**":4395,"Ġfinding":4396,"vis":4397,"unk":4398,"Ġfine":4399,"]--[@":4400,"']":4401,"Ġweb":4402,"geq":4403,"Ġdisp":4404,"From":4405,"ĠIL":4406,"ĠSyri":4407,"ATE":4408,"Ġpress":4409,"Ġremember":4410,"Ġ2009":4411,"ensuremath":4412,"Ġworth":4413,"Ġeconomic":4414,"Ġsites":4415,"Ġaud":4416,"Ġhop":4417,"ĠWest":4418,"target":4419,"Ġdu":4420,"Ġnumer":4421,"Ġunivers":4422,"Label":4423,"jpg":4424,"Ġinform":4425,"ĠAD":4426,"ĠCenter":4427,"Ġdeclared":4428,"inger":4429,"rep":4430,"ĠSchool":4431,"Ġtrust":4432,"hal":4433,"Ġnor":4434,"ĠAN":4435,"Rec":4436,"Ġcontrast":4437,"Ġspeak":4438,"Ġmid":4439,"tx":4440,"Ġdiscovered":4441,"Ġscenario":4442,"Ġvariables":4443,"Ġwasn":4444,"}.":4445,"Ġqual":4446,"Ġcapt":4447,"ĠAccording":4448,"Ġstar":4449,"Ġdistinguish":4450,"*-":4451,"ĠEm":4452,"Ġmaintenance":4453,"Ġreaction":4454,"Ġsum":4455,"Ġconcentration":4456,"ado":4457,"Ġmarijuana":4458,"Ġgoes":4459,"Ġschol":4460,"Ġson":4461,"Ġsenior":4462,"Ġfabric":4463,"Ġlegisl":4464,"Ġtim":4465,"Fr":4466,"call":4467,"Ġill":4468,"Ġplease":4469,"Ġenter":4470,"Ġculture":4471,"Ġauthors":4472,"pan":4473,"ĠIndia":4474,"Ġoxygen":4475,"Ġconstraints":4476,"image":4477,"Ġtraffic":4478,"Ġrules":4479,"ĠData":4480,"ĠMark":4481,"Ġinstructions":4482,"Ġsweet":4483,"Ġpo":4484,"¿Ã¿Ã¿Ã":4485,"Ġstore":4486,"Ġhon":4487,"Ġprevalence":4488,"Ġconc":4489,"PR":4490,"Ġuses":4491,"Ġbecoming":4492,"Ġapparatus":4493,"oddsidemargin":4494,"Ġapplications":4495,"Ġreports":4496,"Handler":4497,"Ġcop":4498,"Ġtheoretical":4499,"............":4500,"Ġdaughter":4501,"CS":4502,"Ġhearing":4503,"Ġsurpr":4504,"ql":4505,"Ġ]":4506,"Ġinsp":4507,"rich":4508,"Ġmother":4509,"Ġoperator":4510,"Ġinterview":4511,"Ġinteresting":4512,"Ġbecomes":4513,"related":4514,"oon":4515,"unn":4516,"Ġsetting":4517,"Ġdocuments":4518,"Form":4519,"ĠOf":4520,"ĠUSA":4521,"otal":4522,"Ġhands":4523,"edd":4524,"ham":4525,"Ġrestaur":4526,"ĠMassachusetts":4527,"BD":4528,"Ġdead":4529,"Ġshowing":4530,"Ġconstruction":4531,"Ġsampling":4532,"Ġinn":4533,"Ġstrategies":4534,"[]":4535,"Ġitems":4536,"Ġpolymer":4537,"ellow":4538,"Ġhybrid":4539,"ĠAngeles":4540,"ĠHar":4541,"color":4542,"Ġsmaller":4543,"Ġsurgical":4544,"icip":4545,"Ġeight":4546,"Ġresulting":4547,"oses":4548,"ĠDemocr":4549,"Ġyield":4550,"ensions":4551,"Ġmajority":4552,"Ġneurons":4553,"Ġclust":4554,"Ġimmigr":4555,"Ġcorrection":4556,"Item":4557,"erved":4558,"pa":4559,"Ġpolit":4560,"Ġstaff":4561,"Ġcognitive":4562,"object":4563,"Ġmanuscript":4564,"Ġ||":4565,"Ġdomain":4566,"enced":4567,"Ġregions":4568,"Ġcoefficients":4569,"iter":4570,"Ġ<<":4571,"*.":4572,"Ġproduce":4573,"Ġtissues":4574,"Ġsymmetry":4575,"Ġinjuries":4576,"formation":4577,"ĠĠĠĠĠĠĠĠĠĠĠĠĠĠĠĠĠĠĠĠĠĠĠĠĠĠĠĠĠĠĠĠĠĠĠĠĠĠĠĠĠĠĠĠĠĠĠĠĠĠĠĠĠĠĠĠĠĠĠĠĠĠĠĠĠĠĠĠĠĠĠĠĠĠĠĠĠĠĠĠĠĠĠĠĠĠĠĠĠĠĠĠĠĠĠĠĠĠĠĠĠĠĠĠĠĠĠĠĠĠĠĠĠĠĠĠĠĠĠĠ":4578,"ĠNe":4579,"Disclosure":4580,"Ġstock":4581,"Ġvolume":4582,"side":4583,"resent":4584,"Ġdefinitely":4585,"rying":4586,"ĠPhiladelphia":4587,"Ġtransport":4588,"Ct":4589,"Ġconsequ":4590,"Ġreasonable":4591,"fortunately":4592,"Ġproduced":4593,"Ġ45":4594,"Ġinstit":4595,"rypt":4596,"Ġmedium":4597,"Ġadjacent":4598,"Ġindicated":4599,"Ġturned":4600,"Ġextr":4601,"Ġskin":4602,"Ġsafety":4603,"reated":4604,"script":4605,"Ġdefense":4606,"Ġlooks":4607,"Ġstarting":4608,"Ġdivided":4609,"ĠMedicine":4610,"ĠPublic":4611,"attle":4612,"AIMS":4613,"Ġreading":4614,"State":4615,"Ġdecided":4616,"Ġatmosphere":4617,"Ass":4618,"Ġcontinues":4619,"Ġsound":4620,"atric":4621,"Ġforms":4622,"\\,":4623,"Ġpetition":4624,"Ġgets":4625,"ani":4626,"Ġsup":4627,"Ġ80":4628,"Ġlabor":4629,"Ġvitro":4630,"Ġbrought":4631,"ĠTH":4632,"bb":4633,"ĠFrom":4634,"orts":4635,"ponent":4636,"ls":4637,"Ġexists":4638,"ĠBu":4639,"Ġbed":4640,"Ġworked":4641,"='":4642,"ĊĠĠĠĠĠĠĠĠĠĠĠĠĠĠĠĠĠĠĠĠĠĠĠĠĠĠĠ":4643,"zz":4644,"Î²":4645,"Ġdark":4646,"ĠCO":4647,"Ġdefine":4648,"){#":4649,"Ġdiscretion":4650,"*(":4651,"Ġcomprehensive":4652,"Ġfix":4653,"EG":4654,"ĠInstead":4655,"Ġstand":4656,"Ġfraud":4657,"}-":4658,"Ġmaterials":4659,"enz":4660,"ĠHuman":4661,"':":4662,"ĠTable":4663,"alth":4664,"Ġinteraction":4665,"Ġroad":4666,"ceed":4667,"\\|":4668,"free":4669,"Ġmaximum":4670,"pper":4671,"Ġpromot":4672,"TYPE":4673,"anguage":4674,"Ġstd":4675,"Ġroot":4676,"Ġmg":4677,"/(":4678,"Ġcomputer":4679,"google":4680,"Ġextract":4681,"under":4682,"Ġfacts":4683,"Ġunderstood":4684,"ĠArizona":4685,"Ġ95":4686,"book":4687,"Ġzero":4688,"Ġseparate":4689,"Ġmanifest":4690,"Ġitem":4691,"ĠChar":4692,"elle":4693,"Ġnoted":4694,"_.":4695,"Ġ->":4696,"Ġnorm":4697,"Ġconcerning":4698,"Ġlov":4699,"Ġneut":4700,"now":4701,"ights":4702,"Ġdrive":4703,"fe":4704,"Ġplayed":4705,"Ġliability":4706,"py":4707,"Ġdoor":4708,"Ġ90":4709,"Ġtaste":4710,"Ġattached":4711,"Ġabsolute":4712,"Ġinternal":4713,"Ġthroughout":4714,"%%%%%%%%%%%%%%%%%%%%%%%%%%":4715,"tt":4716,"len":4717,"Ġgun":4718,"Ġbasic":4719,"olecules":4720,"Ġ!":4721,"check":4722,"Ġprocesses":4723,"MR":4724,"ĠMod":4725,"Ġeth":4726,"Ġachieve":4727,"AA":4728,"Ġsources":4729,"ĠIraq":4730,"Ġdiscipl":4731,"Ġtreat":4732,"ĠSection":4733,"ns":4734,"inant":4735,"Ġhealthy":4736,"Ġagree":4737,"Ġformation":4738,"Node":4739,"Ġmagnetic":4740,"Ġtotally":4741,"Ġchannels":4742,"Ġcool":4743,"Ġcollect":4744,"Ġprosecut":4745,"omas":4746,"ĠIllinois":4747,"Info":4748,"ifier":4749,"004":4750,"Ġdrop":4751,"Ġtests":4752,"Ġmode":4753,"Ġplayer":4754,"Ġheard":4755,"Ġimpossible":4756,"ishing":4757,"Ġtruly":4758,"Ġdest":4759,"Ġwrit":4760,"Ġdeliver":4761,"Ġfunctional":4762,"Ġsymptoms":4763,"Ġmessages":4764,"Event":4765,"lic":4766,"agr":4767,"ampionship":4768,"Ġconnected":4769,"duces":4770,"Ġactions":4771,"Ġconducted":4772,"Ġmarriage":4773,"Ġformed":4774,"imb":4775,"aling":4776,"Ġtoxic":4777,"Ġreceptors":4778,"Ġpreparation":4779,"zeta":4780,"Ġ});":4781,"Ġassembly":4782,"Ġremove":4783,"Ġcollection":4784,"Us":4785,"Ġfresh":4786,"Ġkn":4787,"eph":4788,"Ġreflect":4789,"approx":4790,"upport":4791,"Ġready":4792,"Ġcombination":4793,"SA":4794,"Ġaward":4795,"Vert":4796,"Ġdiagnosis":4797,"Ġcrazy":4798,"============================================================":4799,"Ġmilk":4800,"Ġlives":4801,"Ġconcept":4802,"Ġclosed":4803,"Ġ33":4804,"lob":4805,"det":4806,"--------------------------------":4807,"ĠCH":4808,"private":4809,"wedge":4810,"Ġwide":4811,"Ġsets":4812,"Ġsold":4813,"Ġmount":4814,"friend":4815,"Ġ48":4816,"which":4817,"uses":4818,"lt":4819,"Ġincreases":4820,"Ġaware":4821,"Ġ/**":4822,"Ġscientific":4823,"SU":4824,"Ġ\"\"":4825,"Ġphone":4826,"rad":4827,"title":4828,".[":4829,"enu":4830,"Ġri":4831,"ĠMore":4832,"Ġpictures":4833,"Le":4834,"Ġpoly":4835,"Ġplaying":4836,"Ġgastrointestinal":4837,")^":4838,"PD":4839,"umin":4840,"Ġseven":4841,"Context":4842,"Ġlif":4843,"Ġrace":4844,"Ġ37":4845,"Ġresources":4846,"olved":4847,"Ġsudden":4848,"Ġcrisis":4849,"grad":4850,"SM":4851,"start":4852,"ĠID":4853,"Ġconfig":4854,"Ġsimultaneously":4855,"FA":4856,"Ġcalculated":4857,"isation":4858,"oto":4859,"ĠGe":4860,"ways":4861,"Ġdescription":4862,"Ġsemiconductor":4863,"Ġbow":4864,"Ġdiameter":4865,"Ġdemonstrated":4866,"Ġsteps":4867,"irt":4868,"Ġquantum":4869,"conn":4870,"aine":4871,"HT":4872,"gener":4873,"Ġspin":4874,"berg":4875,"Ġprogression":4876,"Ġhum":4877,"Ġlooked":4878,"Ġlargely":4879,"rick":4880,"jo":4881,"ebug":4882,"Ġmoved":4883,"float":4884,"Ġequilibrium":4885,"ustom":4886,"Ġchoose":4887,"armaceutical":4888,"}}_":4889,"ponse":4890,"parent":4891,"Ġparent":4892,"iced":4893,"Ġmeeting":4894,"Ġlaser":4895,"wise":4896,"Another":4897,"Î±":4898,"Ġtoward":4899,"Ġign":4900,"Ġhappened":4901,"Ġpackage":4902,"Ġmonitoring":4903,"Ġpor":4904,"Ġprove":4905,"Ġproviding":4906,"Ġcapital":4907,"Ġperipheral":4908,"Ġmorning":4909,".'":4910,"Ġsegment":4911,"||":4912,"Ġfather":4913,"ĠRed":4914,"Ġplant":4915,"Filter":4916,"PO":4917,"ract":4918,"ĠLaw":4919,"Ġmoving":4920,"Ġfamiliar":4921,"Ġexposure":4922,"ĠClinton":4923,"jection":4924,"Ġconsistent":4925,"Ġthermal":4926,"Ġthinking":4927,"Ġdelay":4928,"Here":4929,"input":4930,"Ġshape":4931,"Ġ(\\":4932,"Ġmanifold":4933,")/(-":4934,"Ġgauge":4935,"xy":4936,"Ġsignificance":4937,"stitution":4938,"Out":4939,"Ġ\\,":4940,"Ġbul":4941,"gs":4942,"style":4943,"Ġpow":4944,"Ġpriv":4945,"Ġcontinuous":4946,"iam":4947,"Ġgiving":4948,"Ġvivo":4949,"Ġâī¥":4950,"Ġdamage":4951,"tered":4952,"Ġhttps":4953,"ĠEq":4954,"Ġcoach":4955,"Ġtablespoons":4956,"Ġtask":4957,"Ġcardiac":4958,"abs":4959,"oz":4960,"ĠList":4961,"Ġremoval":4962,"({":4963,"urity":4964,"Ġpeak":4965,"orrect":4966,"False":4967,"Big":4968,"empt":4969,"ĠGet":4970,"Ġgonna":4971,"ĠMinnesota":4972,"ada":4973,"Ġscheduled":4974,"ĠCR":4975,"ĠFl":4976,"Ġdetected":4977,"rence":4978,"ĠKorea":4979,"Ġfamilies":4980,"otype":4981,"ĊĊĠĠĠĠĠĠĠĠĠĠĠ":4982,"Ġpul":4983,"^{(":4984,"Ġharm":4985,"à¤":4986,"aly":4987,"Log":4988,"hy":4989,"vest":4990,"Ġobs":4991,"\\],":4992,"Ġindicate":4993,"Ġnearly":4994,"acellular":4995,"Ġtelevision":4996,"apping":4997,"ĠIndian":4998,"Ġamazing":4999,"Ġuns":5000,"Ġmusic":5001,"Ġtelephone":5002,"Ġembodiment":5003,"Ġmiddle":5004,"Ġdollars":5005,"asm":5006,"ĊĊĉ":5007,"avascript":5008,"Ġsecret":5009,"Ġblog":5010,"Sigma":5011,"ĠTest":5012,"Ġ2018":5013,"host":5014,"Ġcholesterol":5015,"002":5016,"Ġruling":5017,"Ġprem":5018,"true":5019,"čĊĠĠĠĠĠĠĠ":5020,"ocket":5021,"Ġhyp":5022,"Ġantibody":5023,"ĠAL":5024,"ĊĠĠĠĠĠĠĠĠĠĠĠĠĠĠĠĠĠĠĠĠĠĠĠĠĠĠĠĠĠĠĠĠĠĠĠĠĠĠĠĠĠĠĠĠĠ":5025,"Ġmetal":5026,"Ġtasks":5027,"/(-":5028,"Ġconspiracy":5029,"pol":5030,"ford":5031,"enty":5032,"Ġdistributed":5033,"Ġconversation":5034,"ĠKing":5035,"acing":5036,"}=\\":5037,"Ġworkers":5038,"EP":5039,"range":5040,"ĠHigh":5041,"ectors":5042,"Ġvehicle":5043,"Ġmac":5044,"Ġhear":5045,"}}(":5046,"ĠSocial":5047,"ainer":5048,"ĠHer":5049,"cles":5050,"ĊĊĠĠĠĠĠ":5051,"Ġnil":5052,",\\*^,":5053,"case":5054,"Ġexisting":5055,"Ġpopular":5056,"Ġcoefficient":5057,"IA":5058,"Ġlip":5059,"Ġrob":5060,"Ġcomments":5061,"esh":5062,"Ġbenefit":5063,"ĠFigure":5064,"RDPCSTX":5065,"ĠPost":5066,"Ġsuggested":5067,"Ġdiscussed":5068,"run":5069,"going":5070,"eah":5071,"Ġband":5072,"AV":5073,"IB":5074,"())":5075,"ka":5076,"Ġchance":5077,"\"></":5078,"ration":5079,"Ġadopted":5080,"Ġpot":5081,"Ġfoot":5082,"=============":5083,"Ġroll":5084,"ĠServices":5085,"ename":5086,"Ġcert":5087,"icians":5088,"Ġ((":5089,"ĠSan":5090,"Ġmedicine":5091,"Ġcorpor":5092,"Ġmag":5093,"Ġfinally":5094,"ĠSOFTWARE":5095,"]:":5096,"Ġmm":5097,"ĠHol":5098,"Ġimag":5099,"ĠAlso":5100,"Ġouter":5101,"ĠDivision":5102,"Ġapparently":5103,"ĠAppellant":5104,"Ġ34":5105,"Ġhor":5106,"atively":5107,"ĠIR":5108,"Ġwithdraw":5109,"Ġsafe":5110,"Ġafraid":5111,"Ġadministered":5112,"##":5113,"Ġbundle":5114,"amin":5115,"iqu":5116,"Ġlabel":5117,"\\/":5118,"ĠMus":5119,"Ġregul":5120,"ĠPark":5121,"Color":5122,"UM":5123,"cos":5124,"rest":5125,"ĠMe":5126,"Ġ70":5127,"Ġforeign":5128,"met":5129,"Ġinfection":5130,"Ġletter":5131,"Ġactivation":5132,"Ġexperiences":5133,"Ġcolon":5134,"Ġtesting":5135,"pert":5136,"Ġbank":5137,"Ġdiff":5138,"ldots":5139,"VER":5140,"Ġnation":5141,"Ġgreen":5142,"ming":5143,"Ġincome":5144,"Ġdev":5145,"Ġperspective":5146,"Ġunits":5147,"ĠCommission":5148,"Ġbreast":5149,"php":5150,"Trans":5151,"long":5152,"Ġmanner":5153,"ĠUK":5154,"gu":5155,"Box":5156,"Ġemail":5157,"Ġsummary":5158,"urt":5159,"Ġsend":5160,"Ġwa":5161,"Ġdrugs":5162,"Oh":5163,"Ġorganizations":5164,"board":5165,"ager":5166,"space":5167,"ned":5168,"config":5169,"Ġstudied":5170,"Ġfinite":5171,"Ġ36":5172,"Element":5173,"Ġtree":5174,"ĠSoftware":5175,"Ġavailability":5176,"ping":5177,"Ġfashion":5178,"ĠAnother":5179,"ĠEarth":5180,"ĠWhite":5181,"Ġdiscovery":5182,"olf":5183,"message":5184,"ĠEven":5185,"java":5186,"Ġclick":5187,"Ġyourself":5188,"Ġresponsible":5189,"Ġprobability":5190,"uate":5191,"Ð¸":5192,"Ġshooting":5193,"ĠSecretary":5194,"Ġfear":5195,"ĠRNA":5196,"Ġunlikely":5197,"ba":5198,"Ġtrade":5199,"ĠJapanese":5200,"CM":5201,"Ġbodies":5202,"aterials":5203,"Ġhem":5204,"ĠĠĠĠĠĠĠĠĠĠĠĠĠĠĠĠ":5205,"airs":5206,"Ġapproximately":5207,"ĠSpec":5208,"ĠTO":5209,"Ġsexual":5210,"Ġendothelial":5211,"Ġobjects":5212,"fa":5213,"idden":5214,"Ġneglig":5215,"ĠFrancis":5216,"Ġshot":5217,"Inter":5218,"Ġdomestic":5219,"[\\":5220,"pass":5221,"icle":5222,"Ġpancreatic":5223,"Ġinvestigation":5224,"Ġmale":5225,"Array":5226,"ble":5227,"ĠAnt":5228,"Ġstation":5229,"Ġprograms":5230,"Ġdenied":5231,"Ġmovement":5232,"ĠLouis":5233,"Ġ2000":5234,"Ġlayers":5235,"rupt":5236,"ĠRel":5237,"ĠPM":5238,"Ġcaught":5239,"Ġpanel":5240,"OU":5241,"Ġaccordance":5242,"ĠSebastian":5243,"Ġrecords":5244,"Ġcompar":5245,"Ġvariety":5246,"pe":5247,"idget":5248,"Ġ=\\":5249,"Ġcontinued":5250,"Ġstructures":5251,"[^":5252,"Ġwife":5253,"Ġjuice":5254,"Ġtomorrow":5255,"âĢ²":5256,"ĠOther":5257,"User":5258,"aker":5259,"Ġ42":5260,"Ġpassed":5261,"Ġwave":5262,"ESS":5263,"ĠView":5264,"Ġcompr":5265,"ky":5266,"ĠSim":5267,"Ġbeginning":5268,"Size":5269,"Ġsave":5270,"Ġcontrovers":5271,"Ġcarried":5272,"ara":5273,"TS":5274,"aper":5275,")?":5276,"Ġunnecessary":5277,"*~":5278,"Ġbacter":5279,"Ġgastric":5280,"Ġassume":5281,"dep":5282,"Ġacceler":5283,"iers":5284,"ĠMon":5285,"ĠCancer":5286,"Ġliver":5287,"ĠCode":5288,"ifferent":5289,"Ġsing":5290,"orb":5291,"Ġexperimental":5292,"struction":5293,"Ġseed":5294,"ĠCarolina":5295,"Ġborder":5296,"Ġdischarge":5297,"Ġoptim":5298,"Ġthick":5299,"Ġprocessing":5300,"ĠJewish":5301,"Ġcatch":5302,"ili":5303,"Read":5304,"ĠCan":5305,"Ġut":5306,"Ġelectrical":5307,"ests":5308,"Ġnovel":5309,"Ġpseud":5310,"ĠRef":5311,"Ġtalking":5312,"Ġfigures":5313,"Ġemotional":5314,"aim":5315,"Ġstuff":5316,"Ġstatute":5317,"olid":5318,"ĠSur":5319,"Ġconver":5320,"Ġexception":5321,"Ġdetection":5322,"CO":5323,"Ġhappy":5324,"Ġarrived":5325,"Ġinflu":5326,"Up":5327,"Ġupdated":5328,"Ġinduced":5329,"ĠHospital":5330,"otimes":5331,"Ġvan":5332,"Ġsuccessful":5333,"Ġrefriger":5334,"ĠCON":5335,"Ġcorrelation":5336,"ĠStat":5337,"ading":5338,"Ġcompliance":5339,"ĠJournal":5340,"Ġremaining":5341,"AY":5342,"Ġpark":5343,"Ġkin":5344,"Ġcore":5345,"ĠDonald":5346,"TC":5347,"Ġprofessional":5348,"Ġsell":5349,"Ġagg":5350,"Ġsorry":5351,"inding":5352,"Ġtested":5353,"Ġkilled":5354,"ĠGen":5355,"etroleum":5356,"Ġcolleagues":5357,"ĠTR":5358,"ĠOhio":5359,"Call":5360,"Ġselection":5361,"Ġbond":5362,"Ġshift":5363,"Ġminor":5364,"Ġreached":5365,"ĠLemma":5366,"AaÃĢÃłÃģÃ¡ÃĤÃ¢ÃĥÃ£ÃĦÃ¤ÃħÃ¥ÄĢÄģÄĤÄĥÄĦÄħÇįÇİÇŀÇŁÇłÇ¡ÇºÇ»ÈĢÈģÈĤÈĥÈ¦È§á¸Ģá¸ģáºļáºłáº¡áº¢áº£áº¤áº¥áº¦áº§áº¨áº©áºªáº«áº¬áºŃáº®áº¯áº°áº±áº²áº³áº´áºµáº¶áº·BbÆĢÆģÉĵÆĤÆĥá¸Ĥá¸ĥá¸Ħá¸ħá¸Ĩá¸ĩCcÃĩÃ§ÄĨÄĩÄĪÄīÄĬÄĭÄĮÄįÆĩÆĪÉķá¸Īá¸īDdÄİÄıÄĲÄĳÆĬÉĹÆĭÆĮÇħÇ²È¡Éĸá¸Ĭá¸ĭá¸Įá¸įá¸İá¸ıá¸Ĳá¸ĳá¸Ĵá¸ĵEeÃĪÃ¨ÃīÃ©ÃĬÃªÃĭÃ«ÄĴÄĵÄĶÄķÄĸÄĹÄĺÄĻÄļÄĽÈĦÈħÈĨÈĩÈ¨È©á¸Ķá¸ķá¸ĸá¸Ĺá¸ĺá¸Ļá¸ļá¸Ľá¸ľá¸Ŀáº¸áº¹áººáº»áº¼áº½áº¾áº¿á»Ģá»ģá»Ĥá»ĥá»Ħá»ħá»Ĩá»ĩFfÆĳÆĴá¸ŀá¸ŁGgÄľÄĿÄŀÄŁÄłÄ¡Ä¢Ä£ÆĵÉłÇ¤Ç¥Ç¦Ç§Ç´Çµá¸łá¸¡HhÄ¤Ä¥Ä¦Ä§ÈŀÈŁÉ¦á¸¢á¸£á¸¤á¸¥á¸¦á¸§á¸¨á¸©á¸ªá¸«áºĸIiÃĮÃ¬ÃįÃŃÃİÃ®ÃıÃ¯Ä¨Ä©ÄªÄ«Ä¬ÄŃÄ®Ä¯Ä°ÆĹÉ¨ÇıÇĲÈĪÈīÈĬÈĭá¸¬á¸Ńá¸®á¸¯á»Īá»īá»Ĭá»ĭJjÄ´ÄµÇ°ÊĿKkÄ¶Ä·ÆĺÆĻÇ¨Ç©á¸°á¸±á¸²á¸³á¸´á¸µLlÄ¹ÄºÄ»Ä¼Ä½Ä¾Ä¿ÅĢÅģÅĤÆļÇĪÈ´É«É¬ÉŃá¸¶á¸·á¸¸á¸¹á¸ºá¸»á¸¼á¸½MmÉ±á¸¾á¸¿á¹Ģá¹ģá¹Ĥá¹ĥNnÃĳÃ±ÅĥÅĦÅħÅĨÅĩÅĪÆĿÉ²ÆŀÈłÇĭÇ¸Ç¹ÈµÉ³á¹Ħá¹ħá¹Ĩá¹ĩá¹Īá¹īá¹Ĭá¹ĭOoÃĴÃ²ÃĵÃ³ÃĶÃ´ÃķÃµÃĸÃ¶ÃĺÃ¸ÅĮÅįÅİÅıÅĲÅĳÆŁÆłÆ¡ÇĳÇĴÇªÇ«Ç¬ÇŃÇ¾Ç¿ÈĮÈįÈİÈıÈªÈ«È¬ÈŃÈ®È¯È°È±á¹Įá¹įá¹İá¹ıá¹Ĳá¹ĳá¹Ĵá¹ĵá»Įá»įá»İá»ıá»Ĳá»ĳá»Ĵá»ĵá»Ķá»ķá»ĸá»Ĺá»ĺá»Ļá»ļá»Ľá»ľá»Ŀá»ŀá»Łá»łá»¡á»¢á»£PpÆ¤Æ¥á¹Ķá¹ķá¹ĸá¹ĹQqÊłRrÅĶÅķÅĸÅĹÅĺÅĻÈĲÈĳÈĴÈĵÉ¼É½É¾á¹ĺá¹Ļá¹ļá¹Ľá¹ľá¹Ŀá¹ŀá¹ŁSsÅļÅĽÅľÅĿÅŀÅŁÅłÅ¡ÈĺÈĻÊĤá¹łá¹¡á¹¢á¹£á¹¤á¹¥á¹¦á¹§á¹¨á¹©TtÅ¢Å£Å¤Å¥Å¦Å§Æ«Æ¬ÆŃÆ®ÊĪÈļÈĽÈ¶á¹ªá¹«á¹¬á¹Ńá¹®á¹¯á¹°á¹±áºĹUuÃĻÃ¹ÃļÃºÃĽÃ»ÃľÃ¼Å¨Å©ÅªÅ«Å¬ÅŃÅ®Å¯Å°Å±Å²Å³Æ¯Æ°ÇĵÇĶÇķÇĸÇĹÇĺÇĻÇļÇĽÇľÈĶÈķÈĸÈĹá¹²á¹³á¹´á¹µá¹¶á¹·á¹¸á¹¹á¹ºá¹»á»¤á»¥á»¦á»§á»¨á»©á»ªá»«á»¬á»Ńá»®á»¯á»°á»±VvÆ²Êĭá¹¼á¹½á¹¾á¹¿WwÅ´ÅµáºĢáºģáºĤáºĥáºĦáºħáºĨáºĩáºĪáºīáºĺXxáºĬáºĭáºĮáºįYyÃĿÃ½Ã¿Å¸Å¶Å·Æ³Æ´È²È³áºİáºıáºĻá»²á»³á»´á»µá»¶á»·á»¸á»¹ZzÅ¹ÅºÅ»Å¼Å½Å¾ÆµÆ¶È¤È¥ÊĲÊĳáºĲáºĳáºĴáºĵáºĶáºķáºķ":5367,"Val":5368,"\"},":5369,"sur":5370,"Ġcombined":5371,"udes":5372,"Ġtend":5373,"actor":5374,"Ġreturned":5375,"Ġupdate":5376,"Ġelectric":5377,"Ġdiagnostic":5378,"oney":5379,"ync":5380,":\\":5381,"Ġclasses":5382,"Ġjudge":5383,"Ġtruth":5384,"ĠNote":5385,"ship":5386,"Ġimproved":5387,"car":5388,"Ġframe":5389,"Ġrat":5390,"Ġwants":5391,"Ġserve":5392,"Ġsolutions":5393,"Ġonto":5394,"Ġthrow":5395,"Ġstroke":5396,"Ġfirm":5397,"Ġsuggests":5398,"block":5399,"Ġcareer":5400,"Ġepisode":5401,"Ġconstitutional":5402,"Ġmaybe":5403,"Ġvacuum":5404,"Yes":5405,"Ġcamp":5406,"Ġchallenge":5407,"Ġ2006":5408,"Ġoscill":5409,"Ġrelation":5410,"Ġreplacement":5411,"Ġwavelength":5412,"Ġhour":5413,"dot":5414,"Ġofficials":5415,"section":5416,"Ġcontrols":5417,"**^":5418,"Ġsentence":5419,"Ġunless":5420,"ATION":5421,"Ċĉĉĉĉĉĉĉĉĉĉĉ":5422,"Ġ${":5423,"Ġ---":5424,"ĠMartin":5425,"ench":5426,"Ġleads":5427,"Ġtypically":5428,"arc":5429,"ĠArt":5430,"Ġultimately":5431,"Ġampl":5432,"Ġwhereas":5433,"Pr":5434,"Ġagreed":5435,"after":5436,"Ġexplain":5437,"aud":5438,"Ġcommit":5439,"ifying":5440,"Ġ2007":5441,"ĠNevertheless":5442,"DR":5443,"Per":5444,"itz":5445,"Ġderived":5446,"Ġcompensation":5447,"Ġdied":5448,"atin":5449,"Ġraised":5450,"Ġepithelial":5451,"Ġoccurred":5452,"Ġpursuant":5453,"orescence":5454,"kg":5455,"ĠInter":5456,"Ġdecreased":5457,"Ġpicked":5458,"Ġdiversity":5459,"Ġship":5460,"Ġinequality":5461,"Ġdistributions":5462,"Ġded":5463,"option":5464,"&&":5465,"ocyte":5466,"Ġlegislation":5467,"anded":5468,"ius":5469,"Ġtal":5470,"Ġspread":5471,"Dec":5472,"ĠNOT":5473,"Ġdismiss":5474,"PP":5475,"Ġregister":5476,"lication":5477,"Ġaffected":5478,"Ġbillion":5479,"ĠSimilarly":5480,"Code":5481,"Ġrare":5482,"yr":5483,"Rep":5484,"agement":5485,"Ġnuclear":5486,"Method":5487,"Ġgrowing":5488,"Ġautom":5489,"level":5490,"Ġrow":5491,"ĠDec":5492,"Ġedge":5493,"ĠGroup":5494,"}}{":5495,"stract":5496,"Ġbuffer":5497,"Ġnames":5498,"Ġsugges":5499,"ĠAppeals":5500,"Ġdiscrimination":5501,"ĠAdditionally":5502,"Ġdie":5503,"api":5504,"Ġplans":5505,"Ġtools":5506,"build":5507,"Ġmo":5508,"Ġsustain":5509,"Count":5510,"hel":5511,"Ġgeneration":5512,"Ġkid":5513,"Ġchemical":5514,"ĠReturn":5515,"hibits":5516,"Ġwild":5517,"Ġspent":5518,"Ġadequate":5519,"Ġod":5520,"Ġclient":5521,"dec":5522,"iant":5523,"({\\":5524,"Ġwish":5525,"Ġrepresentation":5526,"ĠEast":5527,"ĠEuropean":5528,"Ġmolecular":5529,"Service":5530,"Ġdebt":5531,"Ġcohort":5532,"Ġcalls":5533,"Ġasympt":5534,"Ġfeet":5535,"inflammatory":5536,"EXPECTED":5537,"Do":5538,"Su":5539,"čĊĉ":5540,"open":5541,"Image":5542,"atabase":5543,"main":5544,"ĠMost":5545,"ĊĠĠĠĠĠĠĠĠĠĠĠĠĠĠĠĠĠ":5546,"Ġalgorithm":5547,"Ġsubjects":5548,"Ġestimated":5549,"500":5550,"Ġnone":5551,"Ġdisadvant":5552,"ĠTV":5553,"ographic":5554,"Ġloop":5555,"Field":5556,"yd":5557,"Any":5558,"ĠTennessee":5559,"Ġplaces":5560,"Ġ__":5561,"Ġmigration":5562,"nutrients":5563,"ĠPal":5564,"ptr":5565,"Why":5566,"ignment":5567,"Ġprotect":5568,"ometry":5569,"Fl":5570,"Ġherself":5571,"ĠRichard":5572,"Ġmoderate":5573,"KeyWord":5574,"Ġintroduced":5575,"ingly":5576,"Ġprim":5577,"Ġsoft":5578,"actory":5579,"Ġefforts":5580,"ÑĢ":5581,"Ġter":5582,"Ġhandle":5583,"Ġdiscussion":5584,"Ġplanned":5585,"Ġnet":5586,"Ġblue":5587,"ĠPARTICULAR":5588,"release":5589,"Ġnice":5590,"Ġprotocol":5591,"ressive":5592,"QL":5593,"Ġandroid":5594,"olean":5595,"TA":5596,"Ġvent":5597,"Ġ&\\":5598,"Department":5599,"Ġcytok":5600,"Ġdrink":5601,"Ġexplanation":5602,"ĠBro":5603,"Ġletters":5604,"Comp":5605,"Ġdiet":5606,"ires":5607,"Ġapoptosis":5608,"Ġmitochond":5609,"Ġlock":5610,"Ġvote":5611,"Ġprotection":5612,"inner":5613,"ĠYour":5614,"Act":5615,"types":5616,"ĠNS":5617,"Ġdescribe":5618,"Ġcouldn":5619,"Ġvisual":5620,"Because":5621,"ĠArmy":5622,"ĠER":5623,"ĠPlaintiff":5624,"ĠDon":5625,"Ġunderwent":5626,"Ġsurveillance":5627,"Ġ2005":5628,"Ġmodern":5629,"*)":5630,"Ġoutcome":5631,"Ġdropped":5632,"core":5633,"Ġserum":5634,"ĠDirector":5635,"ĠâĨĴ":5636,"NF":5637,"create":5638,"**(-":5639,"Ġarm":5640,"Ġcrowd":5641,"Ġâī¤":5642,";\\;\\;\\;\\":5643,"Ġ38":5644,"prefix":5645,"Ġmetabolic":5646,"See":5647,"Ġcoconut":5648,"!!":5649,"Ġcollected":5650,"Ġaffect":5651,"Ġevaluated":5652,"hes":5653,"Ġmental":5654,"Ġadapt":5655,"Ġplate":5656,"Ġemphas":5657,"BI":5658,"Ġplus":5659,"kay":5660,"Ġtechnique":5661,"]\\],":5662,"ĠBank":5663,"sequently":5664,"anged":5665,"gt":5666,"Ġ(**":5667,"Ġmovie":5668,"Ġanswers":5669,"Ġweapons":5670,"Ġstudent":5671,"Builder":5672,"Ġtrauma":5673,"Ġmissing":5674,"Ġsurv":5675,"ĠSuper":5676,"ston":5677,"Ġcertainly":5678,"Ġmillions":5679,"Ġ~":5680,"Ġwouldn":5681,"Ġ()":5682,"Ġlinks":5683,"pc":5684,"Ġacademic":5685,"icensed":5686,"Ġdisorders":5687,"ĠPC":5688,"well":5689,"Ġcommunication":5690,"$]{};":5691,"ĠSociety":5692,"Ġexplained":5693,"resp":5694,"Ġ(!":5695,"Ġtempor":5696,"Ã³":5697,"Mod":5698,"result":5699,"Ġprojects":5700,"Ġvolunte":5701,"GC":5702,"ĠEnd":5703,"ĠĊĠĠĠĠĠĠĠĠĠĠĠĠĠĠĠ":5704,"Ġefficient":5705,"Ġoperations":5706,"ĠOver":5707,"Ġencour":5708,"Ġcred":5709,"Ġeconomy":5710,"Ġabsence":5711,"Return":5712,"```":5713,"url":5714,"ĠAT":5715,"gram":5716,"ubl":5717,"Ġvertical":5718,"ĠNews":5719,"De":5720,"Ġinvolvement":5721,"Ġverdict":5722,"Ġtransl":5723,"abil":5724,"cussion":5725,"Ġmoments":5726,"Ġexternal":5727,"'.":5728,"Ġhair":5729,"Ġforces":5730,"Ġbus":5731,"While":5732,"Ġlaws":5733,"Ġreligion":5734,"local":5735,"bor":5736,"xml":5737,"Ġcm":5738,"**,":5739,"Ġkept":5740,"itional":5741,"Ġnetworks":5742,"even":5743,"Ġaccepted":5744,"Ġsupply":5745,"Ġvideos":5746,"Ġprepare":5747,"DA":5748,"Ġsurfaces":5749,"ÂłÂłÂłÂłÂł":5750,"Ġdecrease":5751,"Ġpun":5752,"ĠCPU":5753,"Style":5754,"ĠCommun":5755,"CON":5756,"2015":5757,"Ġjobs":5758,"iled":5759,"Ser":5760,"Ġkids":5761,"ih":5762,"Be":5763,"false":5764,"Ġmist":5765,"Ġelectron":5766,"Ġscience":5767,"Ġchronic":5768,"rl":5769,"ialog":5770,"Ġresponses":5771,"Ġfarm":5772,"ows":5773,"Ġenforcement":5774,"Ġnegoti":5775,"Ġauthority":5776,"Reg":5777,"Ġflex":5778,"Ġmotor":5779,"amily":5780,"model":5781,"Ġdisapp":5782,"Ġcouncil":5783,"ien":5784,"lear":5785,"Ġadenocarcinoma":5786,"before":5787,"Ġcast":5788,"Ñģ":5789,"osh":5790,"Ġkitchen":5791,"Ġintended":5792,"ĠBoston":5793,"}+":5794,"olt":5795,"\\!\\!":5796,"iller":5797,"Ġbrowser":5798,"Ġstatutory":5799,"Ġoccup":5800,"ĠNet":5801,"Ġrequirements":5802,"content":5803,"Ġmucos":5804,".$$":5805,"/**":5806,"Ġsy":5807,"ĠClass":5808,"Ġadding":5809,"ypes":5810,"âĢĿ.":5811,"Ġserved":5812,"Ġagent":5813,"Ġideas":5814,"Ġhistor":5815,"Ġchain":5816,"earch":5817,"Ġentry":5818,"Ġtour":5819,"icted":5820,"Ġbelong":5821,"Ġguy":5822,"Ġtraditional":5823,".[@":5824,"Our":5825,"illa":5826,"Ġprejud":5827,"Ġextent":5828,"Ġjava":5829,"cr":5830,"Ġapplies":5831,"Ġglucose":5832,"Ġexpert":5833,"Ġcreating":5834,"Ġjoint":5835,"Ġholds":5836,"oted":5837,"ĠFOR":5838,"ramework":5839,"Ġmortgage":5840,"ĠEducation":5841,"uted":5842,"ĠAmendment":5843,"Ġflav":5844,",-":5845,"Ġinterests":5846,"Ġfemales":5847,"Ġchrom":5848,"Ġteams":5849,"Ġwhom":5850,"nam":5851,"Ġtrend":5852,"Ġfragment":5853,"orter":5854,"Ġguess":5855,"Ġinterval":5856,"Map":5857,"Ġalpha":5858,"First":5859,"iot":5860,"Ġanxiety":5861,"Ġpermanent":5862,"MC":5863,"ĠWell":5864,"Ġfeeling":5865,"Ġsauce":5866,"Ġequations":5867,"MP":5868,"rot":5869,"Ġcycle":5870,"ĠGiven":5871,"Ġspokes":5872,".](":5873,"^âĪĴ":5874,"pping":5875,"Ġdirector":5876,"ynamic":5877,"TO":5878,"post":5879,"Ġec":5880,"Ġevolution":5881,"ĠGermany":5882,"Ġcurve":5883,"Ġsouth":5884,"Ġinterface":5885,"context":5886,"Ġsharp":5887,"Equ":5888,"eters":5889,"$(":5890,"Ġseverity":5891,")/(":5892,"Ġelevated":5893,"Ġrepro":5894,"!--":5895,"Att":5896,"ĠAir":5897,"ĠEach":5898,"Ġgrand":5899,"amb":5900,"ĠAny":5901,"Ġassessment":5902,"Ġpolymorph":5903,"-(":5904,"DL":5905,"Ġinteractions":5906,"ĠSub":5907,"une":5908,"Ġentered":5909,"Ġdiagram":5910,"last":5911,"Ġrecon":5912,"ĠYoung":5913,"\\{":5914,"amer":5915,"Ġwind":5916,"dt":5917,"bound":5918,"Ġdose":5919,"ĠURL":5920,"Ġeat":5921,"Ġelim":5922,"Ġguys":5923,"System":5924,"}|":5925,"Ġmal":5926,"valid":5927,"Ġconcentrations":5928,"FLAGS":5929,"inite":5930,"more":5931,"rap":5932,"Ġcyt":5933,"OUT":5934,"cor":5935,"ilt":5936,"Ġcauses":5937,"ĠGreen":5938,"ini":5939,"Br":5940,"ologies":5941,"ĠCanada":5942,"ALL":5943,"Ġradio":5944,"Ġspatial":5945,"Ġaircraft":5946,"font":5947,"nav":5948,"iral":5949,"Ġmodule":5950,"Ġrequiring":5951,"Ġescape":5952,"Ġimplic":5953,"ĠAR":5954,"dir":5955,"ĠRem":5956,"istent":5957,"agon":5958,"ĠMor":5959,"ny":5960,"inder":5961,"Token":5962,"Ġvaluable":5963,"SI":5964,"Ġconfirm":5965,"ĠCommonwealth":5966,"lets":5967,"However":5968,"ĠCL":5969,"Ġproposal":5970,"Well":5971,"wards":5972,"Ã£o":5973,"Ġstretch":5974,"ĠâĶĤ":5975,"ĠDespite":5976,"ca":5977,"Ġrejected":5978,"Property":5979,"Ġfilter":5980,"Ġproperly":5981,"ĠSuch":5982,"Ġpatterns":5983,"BL":5984,"how":5985,"anges":5986,"Can":5987,"ĠTwo":5988,"Ġestimate":5989,"Ġrestric":5990,"care":5991,"icate":5992,"ĠĠĠĠĠĠĠĠĠĠĠĠĠĠĠĠĠ":5993,"ĠON":5994,"Ġmechanisms":5995,"Ġheterogene":5996,"Ġstream":5997,"Ġexec":5998,"aved":5999,"ABLE":6000,"else":6001,"Ġevaluate":6002,"Ġ};":6003,"Ġpiece":6004,"Ġbegins":6005,"child":6006,"while":6007,"ĠÎ¼":6008,"Empty":6009,"Ġvictory":6010,"eps":6011,"ĠBoth":6012,"iling":6013,"Ġ(\"":6014,"Ġ{{\\":6015,"doc":6016,"ailed":6017,"spec":6018,"Finally":6019,"Ġcharges":6020,"Ġund":6021,"etween":6022,"rough":6023,"Ġrestricted":6024,"Ġannounce":6025,"0001":6026,"ensor":6027,"Ġcrime":6028,"ME":6029,"just":6030,"iny":6031,"UE":6032,"Some":6033,"ĠCA":6034,"Ġstatements":6035,"Ġfrozen":6036,"ivariate":6037,"ello":6038,"Ġformula":6039,"rey":6040,"util":6041,"ĠOklahoma":6042,"Ġnorth":6043,"Ġindicates":6044,"Connection":6045,"SH":6046,"ĠGNU":6047,"Ġens":6048,"Ġ\"[":6049,"Ġcontained":6050,"Ġmel":6051,"Ġorganization":6052,"Ġinvalid":6053,"Ġalleg":6054,"Ġrecorded":6055,"Ġconscious":6056,"Ġconclusion":6057,"Ġunemployment":6058,"Ġinterested":6059,"Ġcontrolled":6060,"Date":6061,"Ġ++":6062,"Ġoffered":6063,"ĠCatholic":6064,"itions":6065,"Ġpossibility":6066,"Ġphen":6067,"default":6068,"Width":6069,"src":6070,"ĠSte":6071,"ato":6072,"Ġresolution":6073,"Ġexistence":6074,"Group":6075,"aciÃ³n":6076,"Ġrisks":6077,"=&":6078,"Ġnodes":6079,"Ġathlet":6080,"Ġschedule":6081,"Ġgold":6082,"Ġaren":6083,"Ġlib":6084,"Ġ44":6085,"Source":6086,"Ġgone":6087,"Ġquick":6088,"Ġfluid":6089,"ĠOrgan":6090,"Ġbasketball":6091,"ĠOlymp":6092,"Ġantimicrobial":6093,"Ġconserv":6094,".*":6095,"KE":6096,"Ġindustrial":6097,"uation":6098,"Ġgoals":6099,"Ġinvariant":6100,"ĠTokyo":6101,"android":6102,"ĠUnder":6103,"Ġreferred":6104,"Ġturning":6105,"Ġgain":6106,"Ġbehalf":6107,"current":6108,"Ġdriver":6109,"ĠJackson":6110,"di":6111,"Ġvacc":6112,"query":6113,"Ġcomfortable":6114,"izer":6115,"Ġchicken":6116,"})$":6117,"tag":6118,"Ġconvert":6119,"Ġintellectual":6120,"yg":6121,"Ġstars":6122,")*(":6123,"ĠEv":6124,"John":6125,"rete":6126,"stant":6127,"STR":6128,"Ġfloor":6129,"first":6130,"Ġholding":6131,"Provider":6132,"OX":6133,"Ġom":6134,"Ġsale":6135,"Ġ43":6136,"Ġsummer":6137,"Ġliterature":6138,"Ġagents":6139,"Ġcollege":6140,"widehat":6141,"******":6142,"rine":6143,"Ġolder":6144,"Ġoffers":6145,"Ġteaspoon":6146,"Ent":6147,"ĠMexico":6148,"ested":6149,"ĠHT":6150,"ĠEr":6151,"''":6152,"Ġprecisely":6153,"Ġanalysed":6154,"Ġcolorectal":6155,"DS":6156,"Ã¶":6157,"Ġgenerate":6158,"world":6159,"ĠTime":6160,"Ġ500":6161,"ĠSH":6162,"udd":6163,"Ġwire":6164,"Ġbranch":6165,"CN":6166,"can":6167,"wood":6168,"Ġimportance":6169,"ouch":6170,"Ġdeveloping":6171,"Ġconsum":6172,"Ġsin":6173,"Ġconfiguration":6174,"-------------":6175,"yphermox":6176,"Ġbreath":6177,"Ġidentity":6178,"was":6179,"Ġabuse":6180,"Ġextended":6181,"ĠExp":6182,"Ġexamples":6183,"weight":6184,"Ġsalt":6185,"Ġhappens":6186,"night":6187,"Ġ39":6188,"Ġprison":6189,"Ġbattery":6190,"ĠCEO":6191,"ĠFROM":6192,"Ġextreme":6193,"bin":6194,"Ġrise":6195,"Ġscal":6196,"Ġthank":6197,"omething":6198,"Ġstimulation":6199,"dimensional":6200,"ĠAP":6201,"Ġexamined":6202,"ĠBlack":6203,"bottom":6204,"Ġfamous":6205,"Ġoblig":6206,"Ġrecover":6207,"Ġformat":6208,"Ġerrors":6209,"ln":6210,"aced":6211,"img":6212,"ĠSolve":6213,"ĠPeople":6214,"Ġyesterday":6215,"Ġcharacters":6216,"Ġentreprene":6217,"dr":6218,"ĠPre":6219,"Ġcompounds":6220,"event":6221,"Ġbinary":6222,"ipped":6223,"dist":6224,"ĠMal":6225,"flow":6226,"ĠWH":6227,"Ġspeech":6228,"xx":6229,"Ġcharged":6230,"ĠBusiness":6231,"Ġparticles":6232,"Ġmax":6233,"\").":6234,"Ġschools":6235,"Ġpenalty":6236,"Ġcold":6237,"Ġprosp":6238,"Ġsales":6239,"ĊĊĠĠĠĠĠĠ":6240,"oms":6241,"âĸĶâĸĶâĸĶ":6242,"olar":6243,"Ġmorph":6244,"ĠDet":6245,"ancing":6246,"Ġcoverage":6247,"Ġsquare":6248,";\\":6249,"ĠAtlant":6250,"Ġprofile":6251,"Don":6252,"Ġreturns":6253,"reek":6254,"ĠBritain":6255,"ĠToronto":6256,"Ġinner":6257,"Ġcategory":6258,"Ġevaluation":6259,"Ġlanguages":6260,"ĠSet":6261,"ĠTheorem":6262,"ĠMedical":6263,"Ġsuscept":6264,"select":6265,"Ġmuscle":6266,"ĠKe":6267,"Ġpayment":6268,"Back":6269,"ĠDel":6270,"anda":6271,"Ġclin":6272,"Ġpartners":6273,"Ġhighlight":6274,"Ġspecified":6275,"tes":6276,"Ġdimension":6277,"ĠForm":6278,"Ġ05":6279,"Ġmeant":6280,"Ġclub":6281,"apped":6282,"num":6283,"PH":6284,"cel":6285,"Ġvascular":6286,"othing":6287,"Ġstable":6288,"Ġnaturally":6289,"icity":6290,"Ġsequences":6291,"LC":6292,"Ġinvestigated":6293,"abilities":6294,"ĠCambridge":6295,"LO":6296,"ĠEvery":6297,"Ġexact":6298,"**)":6299,"Ġnamely":6300,"evel":6301,"Ġdigit":6302,"ECT":6303,"Ġmetast":6304,"match":6305,"Par":6306,"Ġgoogle":6307,"------------------------------------------------------------------------------------------------":6308,"Ġmatrices":6309,"Ġchamber":6310,"Bar":6311,"ulating":6312,"Ġfifth":6313,"Ġshared":6314,"Ġmeasurement":6315,"Ġdemand":6316,"Ġmeasuring":6317,"(\\[":6318,"Ġtransplant":6319,"Ġcarcinoma":6320,"Ġdry":6321,"Ġ2004":6322,"Ġconcerns":6323,"GA":6324,"Ġsmoking":6325,"ĠService":6326,"Ġconclude":6327,"Ġmeasurements":6328,"Ġreality":6329,"ĠGerman":6330,"Ġpercentage":6331,"Ġwestern":6332,"std":6333,"005":6334,"Ġsigned":6335,"Ġsuit":6336,"Ġrepresented":6337,"Ġoptical":6338,"kin":6339,"Ġahead":6340,"ODE":6341,"Ġpure":6342,"Ġachieved":6343,"Ġ46":6344,"Ġopening":6345,"Ġpositions":6346,"Ġcoffee":6347,"MT":6348,"UD":6349,"ĠWhy":6350,"ĠUnion":6351,"Ġrank":6352,"2010":6353,"2017":6354,"Ġpapers":6355,"Ġgarden":6356,"ummary":6357,"Integer":6358,"ears":6359,"ĠSecond":6360,"ads":6361,"Ġ55":6362,"**]{}":6363,"Ġ${{\\":6364,"css":6365,"ĠBer":6366,"Ġknows":6367,"Ġreceiving":6368,"Ġimplementation":6369,"gent":6370,"Ġcomposition":6371,"Ġmaintain":6372,"andard":6373,"2013":6374,"operative":6375,"Ġdigital":6376,"ĠFe":6377,"ĠFrance":6378,"Ġreve":6379,"ĠCa":6380,"Ġstrict":6381,"ĠMet":6382,"oprotein":6383,"ĠCollege":6384,"Phi":6385,"End":6386,"abb":6387,"ĠRead":6388,"Ġtaught":6389,"Ġoperating":6390,"Ġsucceed":6391,"Ġlaunched":6392,"Ġpharmac":6393,"Ġagency":6394,"Ġfourth":6395,"ias":6396,"Ġdraft":6397,"ĠRom":6398,"Ġallowing":6399,"Ġconvenient":6400,"Ġ75":6401,"inations":6402,"Ġplants":6403,"AF":6404,"--------------":6405,"Ġwelcome":6406,"Ġscenarios":6407,"Ġshop":6408,"Ġcustomers":6409,"ĠWilson":6410,"Ġowners":6411,"Ġcarry":6412,"ASS":6413,"%.":6414,"mic":6415,"ĠBre":6416,"ĠUN":6417,"Ġviolence":6418,"Ġdys":6419,"Ġquery":6420,"Ġowner":6421,"Ġinsulin":6422,"scopic":6423,"Ġsanctions":6424,"Message":6425,"Ġ41":6426,"Ġkernel":6427,"ĠCell":6428,"ĠFinally":6429,"Ġgoverning":6430,"Sub":6431,"lands":6432,"ĠĠĠĠĠĠĠĠĠĠĠĠĠĠĠĠĠĠ":6433,"Ġhelped":6434,"(&":6435,"ĠOut":6436,"ĠAmericans":6437,"center":6438,"Handle":6439,"Ġabandon":6440,"arian":6441,"Ġwidespread":6442,"Ġ64":6443,"Ġder":6444,"Ġextension":6445,"aneous":6446,"sd":6447,"Ġattract":6448,"According":6449,"Ġdesired":6450,"Ġleaves":6451,"strong":6452,"Ġrac":6453,"ĠMac":6454,"ĠDep":6455,"ository":6456,"Gu":6457,"ĠCI":6458,"Ġdecisions":6459,"refer":6460,"Ġvulnerable":6461,"Ġgranted":6462,"ĠĠĠĠĠĠĠĠĠĠĠĠĠĠĠĠĠĠĠ":6463,"rency":6464,"Ġsat":6465,"Ġestimates":6466,"ĠStreet":6467,"Ġconnect":6468,"iance":6469,"uint":6470,"Ġadministrative":6471,"Ġacts":6472,"ĠIII":6473,"ĠChurch":6474,"Ġsupplement":6475,"Ġinsert":6476,"Ġcalcium":6477,"Ġglass":6478,"âĢĶâĢĶ":6479,"Ġcovered":6480,"ĠLeague":6481,"Ġoverride":6482,"PT":6483,"Ġinvestigate":6484,"MOESM":6485,"1534735419827098":6486,"cs":6487,"Ġgly":6488,"Ġeasier":6489,"Ġrevenue":6490,"Ġpurchase":6491,"ĠEnergy":6492,"amssymb":6493,"Ġtestified":6494,"AND":6495,"Ġassessed":6496,"eful":6497,"CHECK":6498,"Ġunderlying":6499,"Ġcond":6500,"amine":6501,"Ġchurch":6502,"Ġruns":6503,"ĠJames":6504,"Ġattorneys":6505,"../":6506,"Ġsun":6507,"Ġsections":6508,"Ġoccurs":6509,"END":6510,"yan":6511,"Ġanimal":6512,"ĠBay":6513,"Â·":6514,"Ġ49":6515,"Ġaccuracy":6516,"Ġteacher":6517,"Ġregulation":6518,"âĪ":6519,"ĠUse":6520,"ifications":6521,"ĠChristian":6522,"ĠCivil":6523,"Ġsimpl":6524,"mar":6525,"Ġeduc":6526,"Ġhab":6527,"ĠOpen":6528,"Ġskills":6529,"Ġ47":6530,"Ġemployee":6531,"Ġcoronavirus":6532,"ĠCONDITIONS":6533,"Ġdesc":6534,"Ġstrongly":6535,"mathrsfs":6536,"ĠPort":6537,"Ġstick":6538,"osp":6539,"Ġvinegar":6540,"ĠGaussian":6541,"itative":6542,"Ġincident":6543,"Ġintervals":6544,"Ġsurvey":6545,"ĠSmith":6546,"*\\":6547,"ĠBitcoin":6548,"Ġpip":6549,"Ġpool":6550,"}}_{":6551,"func":6552,"Ġrich":6553,"Ġoverl":6554,"page":6555,"elled":6556,"Ġleader":6557,".</":6558,"ĠAS":6559,"Ġbutton":6560,"ĠToday":6561,"BP":6562,"ĠĊĠ":6563,"ĠMo":6564,"Ġ56":6565,"Ġpert":6566,"Ġnav":6567,"Ġresource":6568,"Ġpowerful":6569,"ymmetric":6570,"ĠLegisl":6571,"101":6572,"Over":6573,"ĠMany":6574,"Ġstories":6575,"Ġalter":6576,"ĠMajor":6577,"Ġwarm":6578,"âĢĿ,":6579,"Ġapproved":6580,"ĠDavis":6581,"REFERENCES":6582,"\\[[@":6583,"Ġinquiry":6584,"ĠBel":6585,"cp":6586,"ometric":6587,"ua":6588,"Ġinsufficient":6589,"Ġpossibly":6590,"---------------":6591,"Ġpathway":6592,"Ġhaven":6593,"ĠSal":6594,"Ġtransmission":6595,"Ġlimitations":6596,"Ġdeviation":6597,"Then":6598,"Ġapproaches":6599,"ude":6600,"akers":6601,"Ġraise":6602,":\"":6603,"Ġthread":6604,"ports":6605,"ĠDay":6606,"Rel":6607,"Ġdepends":6608,"isms":6609,"ĠDi":6610,"ICENSE":6611,"Bl":6612,"Ġmostly":6613,"Ac":6614,"uts":6615,"=\"../../":6616,"arily":6617,"forall":6618,"Ġdetermination":6619,"rs":6620,"Ġlifetime":6621,"Ġindependence":6622,"EF":6623,"^-":6624,"ĠWomen":6625,"Ġjourney":6626,"Solve":6627,"mt":6628,"Ġban":6629,"Ġbag":6630,"oster":6631,"Ġlattice":6632,"Gener":6633,"Ġremainder":6634,"ĠChristmas":6635,"letion":6636,"Ġsrc":6637,"orks":6638,"Ġlung":6639,"Ġkill":6640,"Ġdetailed":6641,"negative":6642,"Ġprotected":6643,"NULL":6644,"TT":6645,"Ġcash":6646,"dependent":6647,"Ġcompare":6648,"Ġintestinal":6649,"Ġpregnancy":6650,"pilasengine":6651,"BM":6652,"Ġ65":6653,"Ġauto":6654,"Ġbelieves":6655,"ĠGeorgia":6656,"Line":6657,"coming":6658,"Ġ_{":6659,"Ġmixed":6660,"rd":6661,"Ġdepth":6662,"Ġlisted":6663,"Ġlearned":6664,"author":6665,"win":6666,"ĠEngine":6667,"ĠAdministration":6668,"Ġappoint":6669,"za":6670,"Ġaccident":6671,"Ġrecru":6672,"/\\":6673,"Ġinvestment":6674,"ĠBur":6675,"ĠDuring":6676,"Ġunclear":6677,"Ġupdates":6678,"Ġrespiratory":6679,"ĠSingapore":6680,"etch":6681,"Ġremark":6682,"IO":6683,"template":6684,"Ġcommitted":6685,"Ġflat":6686,"Ġsecondary":6687,"ĠUbuntu":6688,"Ġvertex":6689,";&":6690,"stall":6691,"Ġthorough":6692,"bul":6693,"Ð°":6694,"Ġsymbol":6695,"Ġborn":6696,"otes":6697,"ĠCorporation":6698,"Ġcitizen":6699,"EE":6700,"Ġplays":6701,"Ġtrials":6702,"Ġcatal":6703,"standing":6704,"ĠAre":6705,"ITY":6706,"ï¼ļ":6707,"ĠEgypt":6708,"Ġmaster":6709,"Ġafford":6710,"ĠCompany":6711,"Since":6712,"ya":6713,"Ġhole":6714,"Ġrelief":6715,"Ġimprovement":6716,"iment":6717,"Cell":6718,"Ġ+=":6719,"Ġenvironmental":6720,"Ġplanning":6721,"These":6722,"Ġarguments":6723,"Ġcommunities":6724,"Ġcat":6725,"Ġapplicable":6726,"Ġopened":6727,"chema":6728,"Ġlatter":6729,"Ġvary":6730,"Ġbooks":6731,"Ġresulted":6732,"Ġgreatest":6733,"ugin":6734,"ART":6735,"DF":6736,"ki":6737,"ä»":6738,":#":6739,"Ġresist":6740,"Ġacute":6741,"Ġyes":6742,"Ġbelief":6743,"Ġafternoon":6744,"][":6745,"mut":6746,"Ġbio":6747,"ĠYes":6748,"Ġmachines":6749,"Ġabsorption":6750,"Ġisol":6751,"PV":6752,"Ġunknown":6753,"Ġ2019":6754,"Ġfocused":6755,"ĠCr":6756,"Ġfavour":6757,"Med":6758,"Ġmetric":6759,"Ġgenetic":6760,"Ġexhibit":6761,"ĠTwitter":6762,"Ġconsidering":6763,"oscopy":6764,"ortion":6765,"break":6766,"ifer":6767,"ĠCounsel":6768,"Ġthin":6769,"ĠPRO":6770,"\\]).":6771,"isher":6772,"elly":6773,"***":6774,"Ġassuming":6775,"Ġgar":6776,"2012":6777,"Query":6778,"Ġdoub":6779,"ker":6780,"ĠWisconsin":6781,"next":6782,"Ġtypical":6783,"Ġspot":6784,"Ġ52":6785,"height":6786,"CV":6787,"Ġadvanced":6788,"Ġfunds":6789,"Ġfuel":6790,"che":6791,"ĠHill":6792,"Ġdirected":6793,"Start":6794,"Ġviews":6795,"organ":6796,"Ġdepending":6797,"olicy":6798,"ita":6799,"Ġmouse":6800,"ĠBrown":6801,"ette":6802,"Ġpersonnel":6803,"leqslant":6804,"2000":6805,"RS":6806,"Ð½":6807,"prot":6808,"month":6809,"Ġsettings":6810,"Ġsignals":6811,"ĠDefendants":6812,"aus":6813,"Ġchanging":6814,"Ġsustained":6815,"More":6816,"iler":6817,"Ġcalling":6818,"Ġadult":6819,"Ġeventually":6820,"ĠRussian":6821,"Ġsuitable":6822,"Ġplaintiffs":6823,"ĠAgreement":6824,"Ġreact":6825,"....":6826,"Ġvessel":6827,"]),":6828,"Ġtight":6829,"anes":6830,"Ġintervention":6831,"Ġdual":6832,"Ġvirus":6833,"Input":6834,"Ġ72":6835,"annel":6836,"ĠSciences":6837,"ĠPacific":6838,"ophageal":6839,"Î¼":6840,"Ġterror":6841,"Ġexcess":6842,"bling":6843,"ura":6844,"Ġleaving":6845,"Ġsensor":6846,"ilateral":6847,"Ġadvantages":6848,"owed":6849,"ĠFree":6850,"Ġboy":6851,"Ġforced":6852,"Ġconclusions":6853,"?âĢĿ":6854,"UC":6855,"Ġsignaling":6856,"ĠRussia":6857,"onymous":6858,"Co":6859,"utor":6860,"ĠPress":6861,"Ġseemed":6862,"Ġadvert":6863,"Ġsmart":6864,"Ġthousand":6865,"dslc":6866,"Ġlawyer":6867,"ald":6868,"ece":6869,"ĠTaylor":6870,"status":6871,"Ġburden":6872,"Ġscores":6873,"Ġmanager":6874,"Ġstored":6875,"Ġcandidate":6876,"ĠJerusalem":6877,"ĠTom":6878,"Ġshock":6879,"Ġring":6880,"Ġfrequently":6881,"week":6882,"ĠUkr":6883,"Ġ120":6884,"ban":6885,"ipping":6886,"gathered":6887,"Ġwheel":6888,"Ġattributes":6889,"hood":6890,"Ġplot":6891,"Ġpreliminary":6892,"ĠBen":6893,"Ġnoise":6894,"Ġcompetition":6895,"Ġstatistical":6896,"CI":6897,"Window":6898,"Ġtwice":6899,"ĠAcademy":6900,"pmb":6901,"EW":6902,"ĠAng":6903,"${":6904,"Ġ*)":6905,"ropri":6906,"Ġfruits":6907,"Ġnecess":6908,"Ġchecks":6909,"NO":6910,"Ġcle":6911,"ĠGo":6912,"omal":6913,"Ġdetect":6914,"iverse":6915,"Ġruled":6916,"Ġretrosp":6917,"400":6918,"ĠProposition":6919,"Ġdivisor":6920,"aren":6921,"Ġmotiv":6922,"Ġempirical":6923,"}\\,":6924,"Ġinvolving":6925,"clusive":6926,"ĠJoseph":6927,"ĠOfficer":6928,"Ġbool":6929,"Ġrent":6930,"essor":6931,"dots":6932,"ĠRule":6933,"acle":6934,"Ġ51":6935,"Ġcontribution":6936,"rh":6937,"ĠBo":6938,"Ġparagraph":6939,"EV":6940,"Ġtrip":6941,"asp":6942,"Ġassoci":6943,"Ġscientists":6944,"ĠRodriguez":6945,"omer":6946,"Ġradiation":6947,"KPX":6948,"Ġremoving":6949,"Ġdatabases":6950,"Ġnan":6951,"Ġplane":6952,"Ġunf":6953,"Ġadults":6954,"istory":6955,"Ġexamination":6956,"urthermore":6957,"Ġsides":6958,"ĠMS":6959,"Ġweren":6960,"Ġimaging":6961,"Ġmolecules":6962,"Ġuint":6963,"dagger":6964,"Ġpilot":6965,"Ġrevers":6966,"ĠNor":6967,"Ġwilling":6968,"Ġlesions":6969,"Ġfill":6970,"Ġstandards":6971,"Ġcentury":6972,"Ġroughly":6973,"Header":6974,"ĠĠĠĠĠĠĠĠĠĠĠĠĠĠĠĠĠĠĠĠ":6975,"has":6976,"Ġ2002":6977,"Ġfinished":6978,"Ġseasons":6979,"associated":6980,"cf":6981,"rog":6982,"Ġspaces":6983,"2016":6984,"Ġindeed":6985,"Ġ54":6986,"Ġreverse":6987,"Ġseeing":6988,"Ġappeals":6989,"oded":6990,"ĠGood":6991,"Ġoperators":6992,"cdots":6993,"most":6994,"Ġhel":6995,"ĠAp":6996,"ĠPe":6997,"Ġaccum":6998,"Ġminim":6999,"007":7000,"Ġordered":7001,"ediatric":7002,"ĠGl":7003,"GL":7004,"json":7005,"ician":7006,"Ġnom":7007,"Ġtunnel":7008,"Ġpneumonia":7009,"Ġrelationships":7010,"Ġimmune":7011,"Ġconsult":7012,"Ġ2003":7013,"Ġsupposed":7014,"Ġlongitudinal":7015,"aa":7016,"cup":7017,"Ġjump":7018,"Ġthanks":7019,"}^\\":7020,"Ġsession":7021,")=\\":7022,"Ġextends":7023,"button":7024,"Just":7025,"media":7026,"Ġintent":7027,"Ġindicating":7028,"Ġdemonstrate":7029,"Ġlose":7030,"Ġtranscription":7031,"2009":7032,"del":7033,"groups":7034,"Result":7035,"Ġjoin":7036,"Ð¾":7037,"assert":7038,"Ġmission":7039,"ĠSenate":7040,"Ġnine":7041,"ERS":7042,"Ġconsent":7043,"sin":7044,"Ġtuberculosis":7045,"Ġwash":7046,"format":7047,"Ġrecall":7048,"Ġrelates":7049,"FR":7050,"aming":7051,"Ġstre":7052,"Ġconcerned":7053,"ogenesis":7054,"Ġformal":7055,"Ġmainly":7056,"Ġpieces":7057,"Ġfraction":7058,"Ġdepartment":7059,"Ġattacks":7060,"Ġarter":7061,"Ġincubated":7062,"Ġwood":7063,"ander":7064,"endif":7065,"ĠUp":7066,"Ġfinish":7067,"Ġplurality":7068,"ĊĊĠĠĠĠĠĠĠĠĠĠĠĠĠĠĠ":7069,"\\)":7070,"display":7071,"Ġboundary":7072,"Ġsacr":7073,"Ġvessels":7074,"oxy":7075,"Ġion":7076,"only":7077,"ala":7078,"Ġinstant":7079,"Ġwww":7080,"Ġbeauty":7081,"ĠLinux":7082,"Ġ_,_":7083,"Rem":7084,"Ġfunding":7085,"ĠFederation":7086,"Ġweapon":7087,"kins":7088,"split":7089,"Ġmand":7090,"ĠParty":7091,"ĠOffice":7092,"Am":7093,"yst":7094,"FI":7095,"ictions":7096,"reatment":7097,"Ġorientation":7098,"ĠPATIENTS":7099,"300":7100,"Ġprosecution":7101,"Ġpix":7102,"ĠOnly":7103,"AGE":7104,"Ġoxid":7105,"Ġscene":7106,"Ġopinions":7107,"Ġepisodes":7108,"Ġasking":7109,"Ġinterpretation":7110,"uls":7111,"ERROR":7112,"IST":7113,"Ġspend":7114,"_{{\\":7115,"graph":7116,"Ġscan":7117,"Ġfees":7118,"rior":7119,"ĠWork":7120,"Ġagricult":7121,"Ġposterior":7122,"fix":7123,"rite":7124,"}+\\":7125,"Ġfans":7126,"Ġlaugh":7127,"Ġargues":7128,"ritten":7129,"Me":7130,"card":7131,"Ġdil":7132,"ĠSN":7133,"----":7134,"Ġchallenges":7135,"Ġenhance":7136,"Ġversus":7137,"Ġton":7138,"ĠmRNA":7139,"category":7140,"Ġfavorite":7141,"Ġconference":7142,"Ġadvice":7143,"simeq":7144,"Ġphosphorylation":7145,"Ġpolar":7146,"2008":7147,"Ġcycl":7148,"Ġtrain":7149,"Ġangle":7150,"Ġforth":7151,"ĠAnn":7152,"Net":7153,"Pre":7154,"Ġsector":7155,"ctor":7156,"Ġ+/-":7157,"lang":7158,"Ġreplace":7159,"Ġassay":7160,"column":7161,"ĠFederal":7162,"Ġmedian":7163,"\":\"":7164,"Ġbias":7165,"ĠFollowing":7166,"Ġinterventions":7167,"Ġeligible":7168,"OK":7169,"ĠHall":7170,".**":7171,"law":7172,"ifies":7173,"Ġ2001":7174,"2014":7175,"gers":7176,"----------------":7177,"Ġ53":7178,"Ġpotentially":7179,"Ġclaimed":7180,"Ġinher":7181,"Ġspring":7182,"ĊĊĊĊ":7183,"Ġconfidence":7184,"floor":7185,"Ġsessions":7186,"Ġhouses":7187,"Ġrecurrence":7188,"Ġacquisition":7189,"ument":7190,"ĠMA":7191,"Ġdegradation":7192,"Ġhelps":7193,"Ġrecognized":7194,"Ġestate":7195,"you":7196,"ady":7197,"uting":7198,"obile":7199,"ĠFinancial":7200,"Ġemployed":7201,"Ġcapable":7202,"ĠPhil":7203,"Evaluate":7204,"Ġcompact":7205,"ĠRob":7206,"Ġadvance":7207,"Button":7208,"FC":7209,"hi":7210,"Ġmention":7211,"Ġvill":7212,"ijms":7213,"Ġhence":7214,"Ġlit":7215,"Ġscattering":7216,"ĠStr":7217,"Ġtit":7218,"icious":7219,"Ġha":7220,"00000000":7221,"vt":7222,"amed":7223,"Min":7224,"defined":7225,"ĠAustralia":7226,"supplementary":7227,"opath":7228,"Ġcourts":7229,"Client":7230,"ĠThompson":7231,"TD":7232,"Ġ101":7233,"ĠMont":7234,"ĠGreat":7235,"ertain":7236,"Ġlig":7237,"ĠClinical":7238,"Settings":7239,"Ġsynchron":7240,"Ġarch":7241,"exec":7242,">&":7243,"Ġcos":7244,"Ġfilms":7245,"Ġmarked":7246,"Ġimplies":7247,"Ġgap":7248,"Click":7249,"han":7250,"Ġpitch":7251,"2018":7252,"degree":7253,"Ġchocolate":7254,"ĠAddress":7255,"bon":7256,"ĠPlease":7257,"Ġusual":7258,"Ġrelax":7259,"Ġgrav":7260,"\",\"":7261,"Ġresponsibility":7262,"Ġdamages":7263,"ĠRoyal":7264,"Ġmaps":7265,"ĠPH":7266,")]":7267,"pdf":7268,"Ġscreening":7269,"Ġbiological":7270,"Ġabundance":7271,"Ġincredibly":7272,"ohistochem":7273,"ĠMississippi":7274,"hr":7275,"}}}":7276,"Ġegg":7277,"Ġsmallest":7278,"Ġaccurate":7279,"Ġconfront":7280,"Ġvac":7281,"Ġoffense":7282,"house":7283,"ta":7284,"ĠField":7285,"Contact":7286,"dx":7287,"Ġpal":7288,"asure":7289,"Ġsolely":7290,"Ġrats":7291,"uccess":7292,"Ġcontribute":7293,"proposed":7294,"Ġpossession":7295,"âģĦ":7296,"\"),":7297,"output":7298,"apache":7299,"ĠJan":7300,"Ġdecide":7301,"Ġdownload":7302,"uch":7303,"enter":7304,"Ġrect":7305,"ĠĠĠĠĠĠĠĠĠĠĠĠĠĠĠĠĠĠĠĠĠ":7306,"Ġshut":7307,"linear":7308,"Ġarticles":7309,"UG":7310,"ums":7311,"Ġmeat":7312,"ĠMary":7313,"Ġexposed":7314,"Ġwaiting":7315,"Target":7316,"SR":7317,"Ġce":7318,"Ġmethyl":7319,"Ġperceived":7320,"cing":7321,"{{":7322,"Ġmir":7323,"Ġlens":7324,"Ġlik":7325,"}}{\\":7326,"equal":7327,"Ġhippocamp":7328,"Ġrelations":7329,"Ġseek":7330,"Ġstanding":7331,"Ġpartial":7332,"Ġcritic":7333,"Version":7334,"ĠHence":7335,"emia":7336,"ĠDC":7337,"rate":7338,"DB":7339,"Ġ300":7340,"âĦ¢":7341,"Ġbirds":7342,"Spec":7343,"ĠSaudi":7344,"DC":7345,"ĊĠĠĠĠĠĠĠĠĠĠĠĠĠĠ":7346,"2011":7347,"Man":7348,"ashed":7349,"References":7350,"Go":7351,"åı":7352,"Ġ150":7353,"ĠType":7354,"Ġvariation":7355,"Ġprovision":7356,"Ġaccomplish":7357,"ez":7358,"mem":7359,"ĠIP":7360,"URL":7361,"ĠPsych":7362,"Ġmyocardial":7363,"rist":7364,"ĠTur":7365,"Last":7366,"hbox":7367,"aints":7368,"SL":7369,"itrogen":7370,"Ġheavily":7371,"ĠGive":7372,"Ġelectronic":7373,"iders":7374,"Ġremained":7375,"ĠFIG":7376,"Ġmunicipal":7377,"Ġsodium":7378,"Ġsplit":7379,"ĠCap":7380,"aded":7381,"Ġveget":7382,"Ã¼":7383,"osph":7384,"Ġspending":7385,"Which":7386,"Ġancient":7387,"Ġprognostic":7388,"łÂ":7389,"$)":7390,"Ġannual":7391,"ĠBill":7392,"ĠWeb":7393,"\"}.":7394,"Check":7395,"men":7396,"Ġpartner":7397,"ĠCT":7398,"Ġgender":7399,"ĠGold":7400,"ĠOnce":7401,"Ġexponential":7402,"ĠJavaScript":7403,"Ġfold":7404,"Ġstability":7405,"**(":7406,"aked":7407,"ERT":7408,"ĠIndeed":7409,"Ġcomplaint":7410,"&\\":7411,"uro":7412,"ä½":7413,"rive":7414,"Ġ58":7415,"Ġtechnical":7416,"Content":7417,"ounter":7418,"snap":7419,"bal":7420,"non":7421,"Ġdynamics":7422,"Ġfre":7423,"Ġamendment":7424,"Ġhypertension":7425,"uous":7426,"ĠBi":7427,"acks":7428,"Ġfacilit":7429,"Ġaccompanied":7430,"stat":7431,"Ġcommission":7432,"Ġenthusi":7433,">>":7434,")^{":7435,"Ġthereby":7436,"Ġends":7437,"Ġcustomer":7438,"UI":7439,"Ġice":7440,"Ġaxis":7441,"Right":7442,"æľ":7443,"====================":7444,"BR":7445,"Create":7446,"EA":7447,"ĠBMI":7448,"Ġran":7449,"Ġopposite":7450,"Ġemployment":7451,"Ġlaunch":7452,"Ġconcluded":7453,"Ġiter":7454,"change":7455,"Ġconsideration":7456,"Ġconsensus":7457,"Ġfibroblasts":7458,"Ġstarts":7459,"Ġbaseline":7460,"Ġworse":7461,"Ġindividually":7462,"Action":7463,"ĊĠĠĠĠĠĠĠĠĠĠĠĠ":7464,"ORT":7465,"Ġdoctor":7466,"Ġcourses":7467,"Number":7468,"ĠEX":7469,"find":7470,"urer":7471,"Ġoral":7472,"Control":7473,"Ġepidem":7474,"high":7475,"icks":7476,"Ġaspects":7477,"Ġnumerous":7478,"request":7479,"Ġdramatically":7480,"aria":7481,"Ġrock":7482,"Ġsubstit":7483,"Ġclothes":7484,"ĠChildren":7485,"Ġsuggesting":7486,"Ġmodified":7487,"Ġdowntown":7488,"HS":7489,"Ġnarrow":7490,"Ġcommonly":7491,"txt":7492,"ees":7493,"mL":7494,"mg":7495,"Ġol":7496,"Ġdifferential":7497,"ĠVictor":7498,"stylesheet":7499,"Ref":7500,"Ġtheorem":7501,"Ġpersons":7502,"artifactId":7503,"fs":7504,"Ġclar":7505,"append":7506,"Ġrequirement":7507,"ĠMicro":7508,"Ġknee":7509,"Ġretirement":7510,"power":7511,"Ġseconds":7512,"Ġstopped":7513,"UP":7514,"Ġpossess":7515,"Ġseeking":7516,"real":7517,"ĠSpr":7518,"Part":7519,"road":7520,"Ġnotes":7521,"Ġphoto":7522,"Ġaltern":7523,"Ġtransf":7524,"INE":7525,"Ġearth":7526,"Ġexhaust":7527,"Ġgenuine":7528,"ĠZealand":7529,"ikipedia":7530,"ĠPR":7531,"andom":7532,"Ġrecommended":7533,"%),":7534,"GR":7535,"Ġsupporting":7536,"Ġoccasion":7537,"Ġpopulations":7538,"ibrary":7539,"COM":7540,"Ġsuccessfully":7541,"edy":7542,"ĠDen":7543,"translation":7544,"ĠAfrica":7545,"Ġnervous":7546,"ignificant":7547,"Ġabdominal":7548,"Ġfluctuations":7549,"dim":7550,"à®":7551,"overn":7552,"ĠRepublican":7553,"method":7554,"eld":7555,"ĠâĢ¦":7556,"Ġtroops":7557,"Ġprognosis":7558,"ĠJews":7559,"Ġhomogeneous":7560,"null":7561,"Ġchief":7562,"process":7563,"ĠANY":7564,"Your":7565,"ĠSl":7566,"INT":7567,"Ġincidence":7568,"ĠDaniel":7569,"ĠItalian":7570,"eness":7571,"Ġenable":7572,"Ġsigns":7573,"vas":7574,"equiv":7575,">(":7576,"PM":7577,"Ġfiber":7578,"Config":7579,"Ġdependent":7580,"Ġstupid":7581,"Ġdesirable":7582,"HR":7583,"Ġprev":7584,"Ġpractices":7585,"Ġemergency":7586,"120":7587,"Ġstrain":7588,"posed":7589,"Ġintegral":7590,"Ġideal":7591,"110":7592,"ek":7593,"ĠTheir":7594,"Ġdollar":7595,"ĠCaptain":7596,"Ġunusual":7597,"ÃĹ":7598,"ursor":7599,"Ġreplaced":7600,"args":7601,"ĠJersey":7602,"Ġoverwhel":7603,"ao":7604,"sg":7605,"Ġcort":7606,"Ġtoler":7607,"ĠSpanish":7608,"Ġoffset":7609,"Ġended":7610,"ĠMad":7611,"ĠJustice":7612,"Ġtumour":7613,"Ġconj":7614,"Ġbeat":7615,"Ġconsumption":7616,"frame":7617,"Ġenemy":7618,"Ġenergies":7619,"activ":7620,"]$":7621,"romagnetic":7622,"Ġmiles":7623,"2019":7624,"irty":7625,"Ġcellular":7626,"Ġhierarch":7627,"ACT":7628,"uster":7629,"conf":7630,"small":7631,"Ġinteract":7632,"Ġì":7633,"ĠEqu":7634,"weet":7635,"Ġanterior":7636,"SELECT":7637,"|{\\":7638,"Ind":7639,"Ġguide":7640,"Ġfish":7641,"Ġ57":7642,"Ġviolation":7643,"push":7644,"war":7645,"ĠFour":7646,"Ġpulmonary":7647,"SON":7648,"lar":7649,"obs":7650,"Ġsolve":7651,"LA":7652,"riers":7653,"ĠColumbia":7654,"Ġgirls":7655,"Off":7656,"ida":7657,"olecular":7658,"aped":7659,"apse":7660,"Ġinstitution":7661,"Ġcart":7662,"ĠSand":7663,"empl":7664,"scale":7665,"Ġentirely":7666,"Ġaforementioned":7667,"Ġca":7668,"star":7669,"Ġsupra":7670,"vo":7671,"ena":7672,"Ġappearance":7673,"Ġamounts":7674,"rons":7675,"Ġpoverty":7676,"ultiple":7677,"Ġspecimens":7678,"Ġelderly":7679,"Base":7680,"asy":7681,"ĠLike":7682,"..\\":7683,"Ġpromote":7684,"').":7685,"SO":7686,"Ġtag":7687,"Ġsit":7688,"ĠFile":7689,"Ġeffectively":7690,"ĠMethods":7691,"ĠAssembly":7692,"ĠĠĠĠĠĠĠĠĠĠĠĠĠĠĠĠĠĠĠĠĠĠ":7693,"urd":7694,"\\]),":7695,"Ġreporting":7696,"ĠMinister":7697,"Ġfont":7698,"ĠIll":7699,"ĠHD":7700,"Ġadmitted":7701,"âĶĢâĶĢâĶĢâĶĢâĶĢâĶĢâĶĢâĶĢâĶĢâĶĢâĶĢâĶĢâĶĢâĶĢâĶĢâĶĢâĶĢâĶĢâĶĢâĶĢâĶĢâĶĢâĶĢâĶĢâĶĢâĶĢâĶĢâĶĢâĶĢâĶĢâĶĢâĶĢâĶĢâĶĢâĶĢâĶĢâĶĢâĶĢâĶĢâĶĢâĶĢâĶĢâĶĢâĶĢâĶĢâĶĢâĶĢâĶĢâĶĢâĶĢâĶĢâĶĢâĶĢâĶĢâĶĢâĶĢâĶĢâĶĢâĶĢâĶĢâĶĢâĶĢâĶ":7702,"tab":7703,"ste":7704,"ĠIV":7705,"ĠSant":7706,"grade":7707,"control":7708,"Ġteaching":7709,"0363546518815159":7710,"Ġscope":7711,"sofia":7712,"Ġliberal":7713,"Ġsteady":7714,"Are":7715,"Ġsym":7716,"Ġlos":7717,"roduction":7718,"Ġunion":7719,"čĊĉĉĉ":7720,"Ġbehaviour":7721,"Ġorganic":7722,"$_":7723,"++)":7724,"Two":7725,"lines":7726,"Ġpadding":7727,"Ġcerebral":7728,"uns":7729,"ĠTimes":7730,"Ġgrid":7731,"product":7732,"ĠCentral":7733,"GB":7734,"Ġbattle":7735,"Ġassumed":7736,"May":7737,"Ġunable":7738,"Ġinfo":7739,"fit":7740,"Ġregression":7741,"Ġstruck":7742,"rid":7743,"rian":7744,"ĠLie":7745,"ĠGal":7746,"mat":7747,"Ġalt":7748,"Ġjustice":7749,"Ext":7750,"ĠPlan":7751,"Ġkeeping":7752,"Ġassistance":7753,"emporary":7754,"Ġcooperation":7755,"Ġpump":7756,"Ġcompound":7757,"]\\":7758,"#:":7759,"Note":7760,"erry":7761,"ori":7762,"Ġdecades":7763,"Ġobservations":7764,"Ġcocaine":7765,"Ġresonance":7766,"Ġadolescents":7767,"Ġcentrifug":7768,"ĠAPI":7769,"Ġuna":7770,"orters":7771,"Ġstreet":7772,"ĠĠĠĠĠĠĠĠĠĠĠĠĠĠĠĠĠĠĠĠĠĠĠĠ":7773,"Ġpeace":7774,"Ġtables":7775,"ĠEastern":7776,"Ġphrase":7777,"Ġlawsuit":7778,"Ġparticle":7779,"md":7780,"Ġ59":7781,"called":7782,"Ġcharacterized":7783,"Ġsought":7784,"Ġcoupling":7785,"Please":7786,"ĠAlex":7787,"apes":7788,"ĠPURPOSE":7789,"Ġplastic":7790,"Ġfingers":7791,"ondition":7792,"Ġresearchers":7793,"Ġmassive":7794,"ytes":7795,"Ġidx":7796,"Ġpropag":7797,"ï½¡":7798,"Ġduties":7799,"cut":7800,"Ġreform":7801,"zer":7802,"Ġbone":7803,"Ġdisk":7804,"ĠRad":7805,"ogn":7806,"Ġgrade":7807,"ĠÎ²":7808,"bec":7809,"acement":7810,"Ġsuppl":7811,"ĠWARRANTIES":7812,"Ġdistinguished":7813,"Ġbright":7814,"ĠSam":7815,"Ġ{}":7816,"Ġassigned":7817,"Ġobjective":7818,"element":7819,"thers":7820,"ye":7821,"ĠIF":7822,"Ġdispl":7823,"Ġcontainer":7824,"Ġresidents":7825,"Ġacting":7826,"Ġprominent":7827,"agen":7828,"ĠJud":7829,"Ġ[[":7830,"Str":7831,"cribe":7832,"Ġpronoun":7833,"iate":7834,"ĠWill":7835,"Ġcontributions":7836,"Ġstructural":7837,"Ġmerely":7838,"Ġrig":7839,"ĠRE":7840,"Ġ99":7841,"Ġtrivial":7842,"ĠENDOSCOP":7843,"####################################":7844,"oration":7845,"property":7846,"Ġrefuge":7847,"*^":7848,"erves":7849,"Ġmanaged":7850,"Although":7851,"Ġadm":7852,"ollow":7853,"nanomaterials":7854,"Ġbal":7855,"ords":7856,"Ġinjection":7857,"rr":7858,"anger":7859,"Ġguard":7860,"ĠJohnson":7861,"ogenic":7862,"Ġorders":7863,"Ġwear":7864,"tool":7865,"Ġlinked":7866,"Ġcovari":7867,"ĠSpecifically":7868,"ooking":7869,"ĠJones":7870,"ULT":7871,"Ġinhibition":7872,"ĠObject":7873,"Select":7874,"si":7875,"Ġcluster":7876,"Ġbiopsy":7877,"isc":7878,"ytic":7879,"location":7880,"Ġminute":7881,"Ġprincipal":7882,"OV":7883,"Ġeditor":7884,"oral":7885,"imer":7886,"Ġ\\>":7887,"ĠArab":7888,"Ġbroken":7889,"Ġsandwich":7890,"Ġcannabis":7891,"Ġcomplications":7892,")}\\":7893,"egr":7894,"emp":7895,"Ġpredicted":7896,"Ġnewspaper":7897,"ĠSeveral":7898,"})\\":7899,"png":7900,"endant":7901,"Ġimm":7902,"ĠNav":7903,"Ġinformed":7904,"{(":7905,"ĠStar":7906,"lectric":7907,"Ġauthorities":7908,"Ġprinciple":7909,"DP":7910,"Cons":7911,"idential":7912,"Buffer":7913,"Ġidentification":7914,"ĠPetitioner":7915,"ĠPalestin":7916,"GE":7917,"Ġpp":7918,"iciency":7919,"missions":7920,"Ġproximity":7921,"Where":7922,"otted":7923,"Ġretriev":7924,".-":7925,"rief":7926,"Ġpin":7927,"Ġregistration":7928,"norm":7929,"ĠMath":7930,"package":7931,"Ġsensitive":7932,"Ġsegments":7933,"Ġdistinction":7934,"Ġlowest":7935,"Ġaid":7936,"root":7937,"Ġrein":7938,"Ġfan":7939,"imation":7940,"aching":7941,"Ġapart":7942,"fast":7943,"Ġsecure":7944,"urop":7945,"itors":7946,"Ġbug":7947,"Ġcorner":7948,"ĠĊĠĠĠ":7949,"Ġ1999":7950,"Ġfaster":7951,"ĠWal":7952,"FO":7953,"web":7954,"Ġconviction":7955,"thm":7956,"Ġconsole":7957,"sa":7958,"ourse":7959,"Ġarms":7960,"####":7961,"jwatson":7962,"ĠBaltimore":7963,"Post":7964,"straint":7965,"icular":7966,"ĊĠĠĠĠĠĠĠĠĠĠ":7967,"Ġsupports":7968,"contin":7969,"Ġcandidates":7970,"Ġinnov":7971,"mbfa":7972,"Supp":7973,"Ġfell":7974,"Ġreducing":7975,"Ġtrajectory":7976,"XX":7977,"astro":7978,"Stat":7979,"Ġknock":7980,"Ġdisagree":7981,"Ġinfer":7982,"Ġfloat":7983,"Ġhumans":7984,"Ġclassical":7985,"Ġuniversity":7986,"äº":7987,"ups":7988,"Status":7989,"ĠHenry":7990,"FIG":7991,"Ġirrelevant":7992,"ĠNa":7993,"Ġinvolves":7994,"human":7995,"iary":7996,"Ġfilled":7997,"rie":7998,"ï¼Į":7999,"ĠIT":8000,"bionic":8001,"Ġ\"\\":8002,"ĠLabor":8003,"]^.":8004,"MENT":8005,"ysis":8006,"Ġexpensive":8007,"Ġmathematical":8008,"Load":8009,"Ġwarn":8010,"ĠVol":8011,"layout":8012,"uto":8013,"Instance":8014,"Ġfacilities":8015,"ĠFITNESS":8016,"Ġtick":8017,"Ġmic":8018,"Ġven":8019,"ria":8020,"Ġchair":8021,"buffer":8022,"Ġclosely":8023,"rolled":8024,"cat":8025,"Ġnarrative":8026,"Ġmicroscopy":8027,"Ġawesome":8028,"ĠPan":8029,"Ġexceed":8030,"aken":8031,"150":8032,"filter":8033,"Ġmouth":8034,"Ġenhanced":8035,"æĺ¯":8036,"Ġstomach":8037,"GO":8038,"ubb":8039,"Ġdetermining":8040,"ponents":8041,"ĊĠĠĠĠĠĠĠĠĠĠĠĠĠĠĠĠĠĠĠĠĠĠĠĠĠĠĠĠĠĠĠ":8042,"aired":8043,"Ġrepl":8044,"ĠĠĠĠĠĠĠĠĠĠĠĠĠĠĠĠĠĠĠĠĠĠĠ":8045,"ĠLife":8046,"ãĢĤ":8047,"([":8048,"]);":8049,"Ġbottle":8050,"istribution":8051,"FS":8052,"Ġtrail":8053,"ĠUs":8054,"ORD":8055,"Ġblocks":8056,"Ġfolks":8057,"Ġcompatible":8058,"Â¶":8059,"Ġtub":8060,"ĠFund":8061,"ĠApple":8062,"Ġmarried":8063,"ither":8064,"Ġbath":8065,"Ġeating":8066,"idd":8067,"Ġminimal":8068,"Component":8069,"Ġcorrectly":8070,"Ġhundreds":8071,"edding":8072,"ais":8073,"Ġreads":8074,"Ġzone":8075,"Ġsitting":8076,"ented":8077,"Ġassets":8078,"Ġguidance":8079,"Ġassault":8080,"Ã¤":8081,"common":8082,"Ġprovisions":8083,"Ġmatters":8084,"Ġdecreasing":8085,"Ġpregnant":8086,"Ġyouth":8087,"Ġforg":8088,"Ġinstalled":8089,"La":8090,"Ġ110":8091,"Ġcounts":8092,"Ġpeptide":8093,"Ġlibraries":8094,")))":8095,"Ġputting":8096,"Ġroute":8097,"Ut":8098,"unit":8099,"search":8100,"ĠColorado":8101,"Ġcities":8102,"ĠPittsburgh":8103,"cribed":8104,"/>":8105,"Ġstack":8106,"Ġintention":8107,"Ġhtml":8108,"Ġcancers":8109,"Ġobesity":8110,"Ġcomparisons":8111,"Ġrational":8112,"ĠBig":8113,"module":8114,"ĠRobert":8115,"ĠThomas":8116,"ĠFib":8117,"Ġextend":8118,"ĠÃĹ":8119,"ĠHouston":8120,"ressRouteCircu":8121,"Point":8122,"Ġmes":8123,"ĠLord":8124,"Ġargued":8125,"Thanks":8126,"ota":8127,"Ġpackages":8128,"Ġcas":8129,"Ġpages":8130,"ĠCN":8131,"addr":8132,"Ġbrother":8133,"phone":8134,")}{":8135,"earing":8136,"Ġdynamic":8137,"Find":8138,"Psi":8139,"=(":8140,"number":8141,"ĠSD":8142,"ĠSk":8143,"Ġpassing":8144,"arXiv":8145,"Identifier":8146,"mid":8147,"entry":8148,"ĠPut":8149,"Ġembarrass":8150,"MD":8151,"ĠÎ±":8152,"tic":8153,"iki":8154,"Ġinitially":8155,"Ġaccounts":8156,"Ġ],":8157,"Ġlifestyle":8158,"Ob":8159,"Ġjoined":8160,"ĠÂł":8161,"Ġspl":8162,"ĠMag":8163,"Ġcoronary":8164,")\"":8165,"FP":8166,"sens":8167,"ola":8168,"ĠMem":8169,"ĠFind":8170,"Ġrequested":8171,"Ġaccompanying":8172,"*/":8173,"Ġcreation":8174,"Ġembedded":8175,"Ġmagazine":8176,"life":8177,"Ġhal":8178,"Ġpractical":8179,"phasis":8180,"Ġinternet":8181,"msgstr":8182,"Ġpredominant":8183,"Ġleague":8184,"raz":8185,"Sim":8186,"ĠFrank":8187,"msgid":8188,"Ġdeficit":8189,"Ġquestionnaire":8190,"LS":8191,"čĊĉĉ":8192,"Ġdisorder":8193,"expected":8194,"Ġdelivered":8195,"ERE":8196,"ĠScott":8197,"çĶ¨":8198,"Ġconfigurations":8199,"El":8200,"Ġmess":8201,"Ġreviewed":8202,"ĠHaw":8203,"endar":8204,"Resource":8205,"Ġschemes":8206,"ooks":8207,"ĠPCR":8208,"Ġcounty":8209,"ĠMcC":8210,"Ġalle":8211,"Ġaffidavit":8212,"Ġ------------------------":8213,"Ġgotten":8214,"{\"":8215,"Ġasc":8216,"Ġtranscript":8217,"brack":8218,"Ge":8219,"ruption":8220,"Ġpreced":8221,"Ġclients":8222,"ĠInsurance":8223,"hydro":8224,"Ġburn":8225,"Em":8226,"pers":8227,"Ġgather":8228,"Ġcollabor":8229,"GG":8230,"obj":8231,"ycl":8232,"enyl":8233,"Ġseat":8234,"čĊĠĠĠĠĠĠĠĠĠĠĠ":8235,"Ġfacility":8236,"ĠParis":8237,"Ġstrategic":8238,"inn":8239,"ĠHel":8240,"Ġrepair":8241,"Ġcrystal":8242,"Ġorthogonal":8243,"Sch":8244,"Ġ1990":8245,"Ġwatching":8246,"ĠIreland":8247,"ĠDaily":8248,"Ġdeploy":8249,"Ġdepart":8250,"Ġvisible":8251,"Ġoptimal":8252,"Ġscreens":8253,"Ġbutter":8254,"Ġconsists":8255,"ko":8256,"ras":8257,"ĠHIV":8258,"ĠWhich":8259,"Ġserving":8260,"Ġinflammatory":8261,"setminus":8262,"ĠYouTube":8263,"bel":8264,"});":8265,"Ġforget":8266,"Ġcausing":8267,"Char":8268,"Ag":8269,"attr":8270,"Ġpig":8271,"ĠLog":8272,"Ġaspect":8273,"Fe":8274,"Ġvision":8275,"ĠEV":8276,"Ġassumptions":8277,"Despite":8278,"ĠBack":8279,"sup":8280,"xef":8281,"ACK":8282,"Ġobviously":8283,"Ġexecutive":8284,"Ġdangerous":8285,"Ġseal":8286,"Ġpret":8287,"neq":8288,"}/":8289,"Ġtail":8290,"00000":8291,"Ġapparent":8292,"Ġ85":8293,"ibration":8294,"}...\\":8295,"istics":8296,"///":8297,"Ġsolar":8298,"Ġleadership":8299,"Ġuncertainties":8300,"iological":8301,"ĠProject":8302,"Ġridicul":8303,"Ġpetitioner":8304,"Ġterritory":8305,"Ġlie":8306,"ĠNO":8307,"oked":8308,"Ġimplied":8309,"Ġpowder":8310,"Ġmanage":8311,"Ġsynthesis":8312,"ĠMuslim":8313,"Ġfranchise":8314,"Ġinadequate":8315,"Ġhomes":8316,"ĠFore":8317,"\"})":8318,"options":8319,"ĠMer":8320,"Ġposted":8321,"Ġargue":8322,"Ġproved":8323,"Ġtreatments":8324,"Ġturns":8325,"RI":8326,"fold":8327,"Ġearn":8328,"Ġimplemented":8329,"Ġborrow":8330,"Ġdeemed":8331,"LR":8332,"Ġrenal":8333,"ella":8334,"perties":8335,"nic":8336,"scope":8337,"License":8338,"ĠRiemann":8339,"Hz":8340,"PRO":8341,"cover":8342,"Ġ97":8343,"materials":8344,"Ġaffirmed":8345,"values":8346,"asic":8347,"ĠSun":8348,"Ġ61":8349,"Ġsituations":8350,"limits":8351,"Ġchopped":8352,"icide":8353,"ĠNon":8354,"Ġwaste":8355,"Ġlocations":8356,"server":8357,"^+^":8358,"]]":8359,"Ġil":8360,"update":8361,"Ġweekend":8362,"chain":8363,"Ġsubset":8364,"gence":8365,"Ġcumulative":8366,"ideo":8367,"Ġsubmitted":8368,"Ġbrand":8369,"Ġobservation":8370,"gebra":8371,"Ġcooking":8372,"\\\"":8373,"iability":8374,"ĠCamp":8375,"Ġneutral":8376,"Ġvertices":8377,"Ġnutri":8378,"ĊĊĠĠ":8379,"Default":8380,"Te":8381,"Ġlas":8382,"header":8383,"Ġconform":8384,"Ġclock":8385,"Ġ1998":8386,"Ġlived":8387,"Ġcorrelated":8388,"Sm":8389,"etr":8390,"Ġ68":8391,"Ġhonest":8392,"ĠConnecticut":8393,"dat":8394,"ĠpH":8395,"outs":8396,"Ġ66":8397,"Ġthoughts":8398,"Ġinflammation":8399,"Ġwealth":8400,"ĠMel":8401,"Ġpathways":8402,"Ġpolitics":8403,"Ġconsequences":8404,"Ġsophisticated":8405,"\\}":8406,"oting":8407,"client":8408,"Ġattend":8409,"Ġposit":8410,"Ġcategories":8411,"Ġobligation":8412,"Ġagenda":8413,"ĠPerhaps":8414,"ĠPo":8415,"ĠIts":8416,"igarettes":8417,"Ġdischarged":8418,"%).":8419,"Every":8420,"ĠTre":8421,"Ġaffirm":8422,"ĠSecurity":8423,"Ġ63":8424,"ĠChief":8425,"Ġbiom":8426,".@{":8427,"Ġpreparing":8428,"OH":8429,"Run":8430,"}},":8431,"Ġpointed":8432,"Stream":8433,"afe":8434,"Ġobj":8435,"Ġantibiotic":8436,"Ġspectroscopy":8437,"Ġpayments":8438,"Ġpairs":8439,"Before":8440,"Ġast":8441,"Ġwalking":8442,"Ġdepos":8443,"Ġcloser":8444,"Ġ----------------":8445,"ressing":8446,"Ġloved":8447,"Ġpri":8448,"Ġ96":8449,"Ġwrt":8450,"Det":8451,"Ã¨":8452,"Ġneck":8453,"ĠCup":8454,"ĠMil":8455,"arks":8456,"Ġsheet":8457,"ococcus":8458,"IND":8459,"Ġvirt":8460,"Ġdebate":8461,"ĠSil":8462,"thetic":8463,"Ġrail":8464,"Ġpublication":8465,"ĠCOPYRIGHT":8466,"Mr":8467,"Ġpod":8468,"Ġeigen":8469,"verage":8470,"ĠCare":8471,"Ġtra":8472,"Ġtransformation":8473,"Ġmorbidity":8474,"ĠSwitzerland":8475,"ĠLong":8476,"Ne":8477,"Panel":8478,"Today":8479,"Ġinstruments":8480,"Ġartificial":8481,"axis":8482,"Ġfeedback":8483,"Options":8484,"Page":8485,"Ð»":8486,"Ġstages":8487,"2006":8488,"Ġpunishment":8489,"Ġessentially":8490,":(":8491,"Ġpeculiar":8492,"[\"":8493,"Ġhelpful":8494,"ĠAtt":8495,"Ġ1997":8496,"ĠProf":8497,"\\.":8498,"Ġcrypt":8499,"ingle":8500,"ĠDI":8501,"ĠPA":8502,"006":8503,"Ġ2020":8504,"Ġbiosynthesis":8505,"ĠMur":8506,"Ġdream":8507,"Ġrecording":8508,"Ġtrees":8509,"bigg":8510,"FONT":8511,"Ġexclusively":8512,"Ġtobacco":8513,"ĠOntario":8514,"Ġhomosexual":8515,"Column":8516,"BO":8517,"åĪ":8518,"Ġlies":8519,"Ġinches":8520,"./":8521,"Ġ62":8522,"Ġregime":8523,"ĠWhere":8524,"ĠArray":8525,"gorithm":8526,"inating":8527,"eller":8528,"leted":8529,"ĠmÃ¡s":8530,"ĠSweden":8531,"{-":8532,"ached":8533,"<\\":8534,"inet":8535,"ĠIM":8536,"ceptions":8537,"English":8538,"ĠQue":8539,"Ġsomewhat":8540,"Layout":8541,"ĠÂµ":8542,"Ġantibiotics":8543,"Ġlegitimate":8544,"QU":8545,"HL":8546,"ellig":8547,"Ġmaintained":8548,"Ġnurses":8549,"Ġ\"âĻª":8550,"YS":8551,"apl":8552,"Ġdescribes":8553,"Ġspectra":8554,"Ġgift":8555,"osa":8556,"command":8557,")+":8558,"ertion":8559,"Ġtor":8560,"iration":8561,"Ġ67":8562,"Ġ76":8563,"ĠReview":8564,"Ġpowers":8565,"liament":8566,"Ġpatent":8567,"ĠImmun":8568,"amsfonts":8569,"Open":8570,"rin":8571,"ĠOS":8572,"Ġattempts":8573,"Ġsurrounding":8574,"anoate":8575,"Ġrecipe":8576,"pose":8577,"ATA":8578,"ĠJordan":8579,"Ġembryos":8580,"springframework":8581,"Ġ1996":8582,"Ġrecognition":8583,"Ġpulled":8584,"window":8585,"ora":8586,"Ġaccused":8587,"Ġidentical":8588,"Ġdrives":8589,")[":8590,"Ġgenome":8591,"Supplementary":8592,"Ġcru":8593,"ĠIC":8594,"Ġbeam":8595,"ĠMicrosoft":8596,"ĠFire":8597,"Ġindictment":8598,"ĠDetroit":8599,"Ġlots":8600,"ĠRiver":8601,"ulture":8602,"Ġhelping":8603,"Next":8604,"ĠCall":8605,"Ġbigger":8606,"Device":8607,"Ġholiday":8608,"Ġceremony":8609,"igarette":8610,"Ġarthritis":8611,"Hel":8612,"Ġadj":8613,"idents":8614,"isted":8615,"ĠDemocratic":8616,"ĠSometimes":8617,"Use":8618,"sch":8619,"buf":8620,"Rev":8621,"second":8622,"Ġapproval":8623,"Ġstem":8624,"Ġpicking":8625,"112":8626,"Ġtelling":8627,"Ġsemi":8628,"upgreek":8629,"amsbsy":8630,"wasysym":8631,"DI":8632,"ques":8633,"ĠEth":8634,"Ġje":8635,"Ġcharacteristic":8636,"atural":8637,"Ġpassword":8638,"Ġsuperior":8639,"Ġreputation":8640,"Ġsi":8641,"Ġrh":8642,"ĠAfrican":8643,"Mar":8644,"orage":8645,"Ġcontents":8646,"Ġdifferentiation":8647,"debug":8648,"Ġlay":8649,"Ġalloc":8650,"Ġdesire":8651,"sign":8652,"ĠFil":8653,"ĠKim":8654,"ĠProt":8655,"Ġuptake":8656,"uv":8657,"emon":8658,"Mode":8659,"Ġluck":8660,"ayers":8661,"ĠPeter":8662,"mann":8663,"Package":8664,"ĠYanke":8665,"Tex":8666,"ctx":8667,"ĠInformation":8668,"}}^{":8669,"Ġdirectory":8670,"ĉĉĉ":8671,"InCallScreen":8672,"direct":8673,"Ġgate":8674,"Ġsea":8675,"riter":8676,"ktop":8677,"Ġinduction":8678,"Ġbusinesses":8679,"Ġinfiltr":8680,"BB":8681,"Ġdemocr":8682,"ifts":8683,"ĠPatients":8684,"Ġstatistics":8685,"Ġtough":8686,"omatic":8687,"Ġterminal":8688,"Ġloan":8689,"ournals":8690,"Ġacids":8691,"Ġdisplayed":8692,"Ġconstructed":8693,"Ġulcer":8694,"Ġfragments":8695,"None":8696,"rt":8697,"stack":8698,"Ġ79":8699,"Ġrapidly":8700,"PCR":8701,"Ġmail":8702,"Ġchart":8703,"Ġmodify":8704,"ĠProv":8705,"Ġvictims":8706,"Ġagreements":8707,"Ġintrinsic":8708,"Ġinfluenza":8709,"Ġalgebras":8710,"Ġdepression":8711,"Yeah":8712,"Ġemployer":8713,"Ġsetup":8714,"Ġcolumns":8715,"ĠVietnam":8716,"2001":8717,"ĠWilliam":8718,"Ġscr":8719,"Ġfilename":8720,"Ġiron":8721,"ĠLittle":8722,"mi":8723,"ĠRh":8724,"oggle":8725,"WH":8726,"odd":8727,"III":8728,"Ġhypothesis":8729,"ĠPolice":8730,"Ġav":8731,"inance":8732,"Ġsounds":8733,"Ġhepat":8734,"Ġ400":8735,"Ġdimensions":8736,"ĠDemocrats":8737,"ĠIowa":8738,"Ġinvasive":8739,"treated":8740,"Ġtrouble":8741,"Ġexperts":8742,"Ġfurniture":8743,"BE":8744,"Ġsports":8745,"Ġing":8746,"ologic":8747,"Ġinstruction":8748,"Ġintegrated":8749,"Ġcopyright":8750,"About":8751,"square":8752,"Ġfiscal":8753,"ootstrap":8754,"dc":8755,"Ġmarkets":8756,"Ġbind":8757,"Ġbeta":8758,"ĠCount":8759,"Ġparticipate":8760,"PATH":8761,"SIZE":8762,"Acknowledg":8763,"Ġhydraulic":8764,"ĠElizabeth":8765,"Ġtemplate":8766,"Ġske":8767,"Ġraw":8768,"ucks":8769,"GS":8770,"Ġmob":8771,"ĊĠĠĠĠĠĠĠĠĠĠĠĠĠĠĠĠĠĠĠĠĠ":8772,"conduct":8773,"ĠArch":8774,"Results":8775,"Ġhol":8776,"ĠDev":8777,"Phys":8778,"Ġexpendit":8779,"ĠVietnamese":8780,"RT":8781,"Ġ),":8782,"eto":8783,"isting":8784,"Ġexamine":8785,"Ġpet":8786,"Ġmit":8787,"Ġ69":8788,"Ġimmediate":8789,"Ġadvoc":8790,"Oper":8791,"Ġtow":8792,"Ġnative":8793,"ĠSE":8794,"ĠPower":8795,"Ġ84":8796,"ĠKentucky":8797,"ĠConfeder":8798,"zing":8799,"ĠThose":8800,"Ġstir":8801,"oxid":8802,"ACE":8803,")*(-":8804,"Account":8805,"Other":8806,"Ġclassification":8807,"Ġendoscopic":8808,"flu":8809,"eting":8810,"Ġreactions":8811,"Ġgam":8812,"Ġassign":8813,"perimental":8814,"Ġpursue":8815,"Function":8816,"Ġpars":8817,"roc":8818,"Ġplain":8819,"PAR":8820,"ĠLink":8821,"Ġ88":8822,"Ġmoves":8823,"Ġtells":8824,"Ġdramatic":8825,"da":8826,"Ġ1000":8827,"ĠReal":8828,"subs":8829,"Ġtopic":8830,"Ġspeaking":8831,"October":8832,"ĠVenezuel":8833,"mond":8834,"arly":8835,"alloc":8836,"ĠÂ£":8837,"Ġinconsistent":8838,"\"]":8839,"Ġdeaths":8840,")}$":8841,"ĠMiami":8842,"ĠEntertainment":8843,"Ġcups":8844,"etric":8845,"ĠCS":8846,"Ġvit":8847,"Ġxml":8848,"Ġfighting":8849,"uing":8850,"xf":8851,"Ġreplic":8852,"ĠLos":8853,"claim":8854,"Ġexplore":8855,"ĠCorp":8856,"Ġbarely":8857,"band":8858,"iology":8859,"Ġtube":8860,"ona":8861,"Local":8862,"ampl":8863,"Ġexcluded":8864,"Ġengaged":8865,"Ġregional":8866,"Ġdiagonal":8867,"Ġlandscape":8868,"TE":8869,"ĠMs":8870,"ĠMean":8871,"Ġpoll":8872,"Ġdenote":8873,"Ġphotos":8874,"Vector":8875,"zen":8876,"Ġrows":8877,"Ġretail":8878,"Ġdiagnosed":8879,"ĠControl":8880,"Ġfibrosis":8881,"amps":8882,"Ġshoot":8883,"Ġassumption":8884,"Ġremote":8885,"Ġrespective":8886,"Ġsubstantially":8887,"Ġdivision":8888,"esthesia":8889,"Ġmosquit":8890,"Ġcomplicated":8891,"cancers":8892,"istor":8893,"erman":8894,"Ġcalculation":8895,"ido":8896,"Ġadverse":8897,"2007":8898,"Ġdogs":8899,"Ġstellar":8900,"ĠTaiwan":8901,"Ġimprisonment":8902,"Ġnormally":8903,"loc":8904,"Ġhate":8905,"Ġintroduce":8906,"Ġpreferred":8907,"Ġsavings":8908,"incipal":8909,"ĠScotland":8910,"Ġtaxes":8911,"ski":8912,"DD":8913,"VAL":8914,"Ġkick":8915,"positive":8916,"]{}\\":8917,"Ġcustody":8918,"Ġaccomplished":8919,"Ġbought":8920,"Ġincreasingly":8921,"Ġtens":8922,"ĠPet":8923,"Ġrepresentative":8924,"Directory":8925,"Ġrealize":8926,"Arg":8927,"Ġsocioeconomic":8928,"Ġpy":8929,"160":8930,"Format":8931,"People":8932,"Ġweather":8933,".âĢĻ":8934,"Ġapplying":8935,"task":8936,"Ġfle":8937,"Ġworst":8938,"home":8939,"ormal":8940,"ĠAsia":8941,"varpi":8942,"foo":8943,"Michael":8944,"ĠMissouri":8945,"Ġbureaucr":8946,"foot":8947,"Ġbars":8948,"ĠDE":8949,"Ġmales":8950,"Ġ[]":8951,"Ġcultural":8952,"Ġrotation":8953,"ĠKorean":8954,"Vis":8955,"Ġlen":8956,"ĠMartinez":8957,"vs":8958,"erver":8959,"Ġpaint":8960,"Ġnm":8961,"teen":8962,"Ġoffering":8963,"Ġrealized":8964,"čĊčĊ":8965,"Ġarrested":8966,"Rearrange":8967,"court":8968,"âĶ":8969,"iner":8970,"Ġsick":8971,"ĠAcc":8972,"Ġroles":8973,"ĠTrust":8974,"%;":8975,"Ġprobe":8976,"Ġ['":8977,"Ġregardless":8978,"Ġtremendous":8979,"ĠMax":8980,"ĠFre":8981,"ĠName":8982,"ĠNov":8983,"Ġentity":8984,"ĠClub":8985,"internal":8986,"Ġplea":8987,"Ġsubstances":8988,"Ġdeclaration":8989,"Ġmacrophages":8990,"Ġcylindrical":8991,"180":8992,"Ġurl":8993,"linewidth":8994,"Block":8995,"files":8996,"ĠLo":8997,"Ġcontrary":8998,"]-[@":8999,"Ġprivilege":9000,"ĠDate":9001,"ĠTw":9002,"Ġking":9003,"ĠVer":9004,"Ġoriginally":9005,"points":9006,"Ġsuffered":9007,"Ġfellow":9008,"ĠHome":9009,"Ġfelony":9010,"Definition":9011,"ĠIDE":9012,"ĠOb":9013,"Ġinvasion":9014,"Ġcoal":9015,"ĠReport":9016,"Ġawait":9017,"HE":9018,"ĊĊĉĉ":9019,"Ġtip":9020,"ICE":9021,"Ġcurves":9022,"ĠAmong":9023,"ĠAvenue":9024,"Ġcircuits":9025,"Ġmine":9026,"____":9027,"Ġtargets":9028,"Ġseparated":9029,"ĠSupp":9030,"settings":9031,"Ġrecruitment":9032,"\\^":9033,"Ġtherm":9034,"Ġposts":9035,"Ġhappening":9036,"Ġdrawn":9037,"Current":9038,"Â»":9039,":**<":9040,"ĠSoviet":9041,"develop":9042,"Ġcirrhosis":9043,"aters":9044,"\\|_{":9045,"sql":9046,"isk":9047,"Ġ78":9048,"chemical":9049,"Ġfairly":9050,"Ġgrateful":9051,"--+--+--+--+--+--+--+--+--+":9052,"Ġgrounds":9053,"Ġforming":9054,"rome":9055,"Ġwarning":9056,"Pol":9057,"Ġbet":9058,"Ġspr":9059,"gun":9060,"adata":9061,"ĠWood":9062,"ĠTim":9063,"ĠLee":9064,"Ġproceedings":9065,"Output":9066,"pop":9067,"ran":9068,"Ñĥ":9069,"Ġnutrition":9070,"ĠThanks":9071,"rule":9072,"Ġ74":9073,"Ġhousehold":9074,"Ġquadr":9075,"Ġfrustr":9076,"Ġtournament":9077,"Ġromantic":9078,"CF":9079,"ĠCard":9080,"Ġster":9081,"Ġregulations":9082,"Ġgrown":9083,"Ġmomentum":9084,"Ġ-\\":9085,"click":9086,"Ke":9087,"Ġconversion":9088,"Ġirreducible":9089,"oder":9090,"Ġ71":9091,"region":9092,"Ġconnections":9093,"Response":9094,"Ġmutations":9095,"ĠSarah":9096,",'":9097,"Many":9098,"ni":9099,"uh":9100,"Ġprompt":9101,"Ġdrivers":9102,"ĠCruz":9103,"Ġemissions":9104,"Ġinappropriate":9105,"Dr":9106,"Ġemission":9107,"ema":9108,"show":9109,"blog":9110,"ãģ®":9111,"$$\\":9112,"NOT":9113,"low":9114,"Ġreliable":9115,"anned":9116,"ĠInstagram":9117,"acket":9118,"Ġkinds":9119,"Ġstatistically":9120,"Ms":9121,"Ġč":9122,"105":9123,"Ġnoticed":9124,"Ġ[$\\":9125,"romise":9126,"Ġloyal":9127,"ĠTarget":9128,"Ġceramic":9129,"service":9130,"Ġshell":9131,"born":9132,"Ġknowing":9133,"ĠIns":9134,"Ġregistered":9135,"Ġ77":9136,"Link":9137,"Ġaside":9138,"Ġordinary":9139,"Ġprediction":9140,"ĠAff":9141,"adow":9142,"Ġneur":9143,"Ġlisten":9144,"Ġmenu":9145,"Null":9146,"xe":9147,"isters":9148,"Ġinfections":9149,"Ġprojected":9150,"ĠSpirit":9151,"Listener":9152,"embers":9153,"ubs":9154,"Ġsport":9155,"=\"#":9156,"Process":9157,"IVE":9158,"Ġtransferred":9159,"ĠAuthority":9160,"0269216315602590":9161,"Pat":9162,"ĠGener":9163,"Ġsoil":9164,"CTION":9165,"Ġworry":9166,"mode":9167,"Ġextensive":9168,"Ġfaculty":9169,"ela":9170,"fact":9171,"greg":9172,"have":9173,"Ġsizes":9174,"Ġ$(\\":9175,"Ġmanip":9176,"Ġcertificate":9177,"Ġportfolio":9178,"Ġmeth":9179,"**:":9180,"ĠLab":9181,"ĠCheck":9182,"iger":9183,"Ġsuffering":9184,"Ġstyles":9185,"'$":9186,"(*":9187,"NC":9188,"store":9189,"ĠGO":9190,"oids":9191,"2002":9192,"ĠHarris":9193,"Ġimpairment":9194,"Ġincredible":9195,"ĠRoberts":9196,"inals":9197,"ĠThree":9198,"Ġperm":9199,"Ġexcited":9200,"ĠModel":9201,"GT":9202,"uke":9203,"Ġpatch":9204,"Ġsubstance":9205,"Ġcontroller":9206,"Ġacquired":9207,"Max":9208,"ĠArm":9209,"regulated":9210,"Ġhotel":9211,"Ġfeels":9212,"Ġlawyers":9213,"cmaloney":9214,"Ġboolean":9215,"Ġspoke":9216,"achment":9217,"ANT":9218,"Ġfemin":9219,"controller":9220,"ga":9221,"Ġalk":9222,"Debug":9223,"water":9224,"Ġ89":9225,"ĠWilliams":9226,"World":9227,"Ġappellate":9228,"ĠDouglas":9229,"ĊČ":9230,"Ġpermission":9231,"rapper":9232,"ĠAccordingly":9233,"mo":9234,"asi":9235,"Ġcorporate":9236,"ĠKansas":9237,"Ġcriterion":9238,"nov":9239,"unct":9240,"YP":9241,"Ġ------------------------------------------------":9242,"Ġlob":9243,"ĠĠĠĠĠĠĠĠĠĠĠĠĠĠĠĠĠĠĠĠĠĠĠĠĠ":9244,"Ġcompute":9245,"ĠGame":9246,"Ġinstruct":9247,"Ġwebsites":9248,"Ġarrays":9249,"ĠMa":9250,")_":9251,"vector":9252,"including":9253,"enes":9254,"Ġcrack":9255,"Ġhepatic":9256,"oli":9257,"Ġagencies":9258,"Ġamb":9259,"Ġaddressed":9260,"Ġfee":9261,"ĠIsland":9262,"Ġmechanical":9263,"IZ":9264,"][@":9265,"Ġdimensional":9266,"Ġhall":9267,"140":9268,"criptions":9269,"Even":9270,"_>":9271,"Ġcalculate":9272,"Ġlogic":9273,"Ġlaboratory":9274,"Ġaver":9275,"Ġswe":9276,"river":9277,"Ġopposition":9278,"Ġfault":9279,"Ġincomp":9280,"ulti":9281,"ĠJo":9282,"Ġcoupled":9283,"Ġcards":9284,"Ġyounger":9285,"Ġmalignant":9286,"Ġpredetermined":9287,"Ġstrains":9288,"ĠWho":9289,"Command":9290,"cpp":9291,"system":9292,"Ġkilling":9293,"Ġexpand":9294,"Ġcarrying":9295,"Ġexplo":9296,"Ġrefused":9297,"ÃŃa":9298,"Ġdedicated":9299,"Given":9300,"Ġ111":9301,"Ġsuff":9302,"Ġsubsequently":9303,"Child":9304,"Ġcomputed":9305,"Ġluminosity":9306,"TL":9307,"step":9308,"rug":9309,"Ġadvis":9310,"TEST":9311,"Ġvast":9312,"}-\\":9313,"Ġhidden":9314,"Ġrepresenting":9315,"Ġpromise":9316,"Ġcalculations":9317,"Frame":9318,"Ġdecomposition":9319,"ĠAlabama":9320,"Ġchromosome":9321,"Ġtrafficking":9322,"Ġcentre":9323,"Ġrecognize":9324,"Ġmigr":9325,"ĠPD":9326,"Also":9327,"Ġdealing":9328,"omorphism":9329,"Float":9330,"Ġos":9331,"Ġsatisfied":9332,".;":9333,"ader":9334,"ĠWall":9335,"aka":9336,"Ġdried":9337,"ND":9338,"draw":9339,"Ġintermediate":9340,"acer":9341,"Ġsteel":9342,"join":9343,"Ġbacteria":9344,"ÎºB":9345,"ĠMexican":9346,"'_":9347,"kes":9348,"Ġ73":9349,"125":9350,"Ġcrash":9351,"Ġrequests":9352,"ĠâĪ":9353,"Ġcutting":9354,"Ġslowly":9355,"ĠMat":9356,"Ġfinds":9357,"Ġinjured":9358,"Ġcoordinates":9359,"æķ°":9360,"600":9361,"ĠSum":9362,"ucle":9363,"ĠCanadian":9364,"Ġimagine":9365,"Ġrehabilitation":9366,"Ġconce":9367,"Ġversions":9368,"Ġfirms":9369,"available":9370,"âĢĺ":9371,"Ġamplitude":9372,"Cal":9373,"ĠIg":9374,"Ġchest":9375,"}^{-":9376,"Ġillness":9377,"Ġconsequence":9378,"reasonable":9379,"Ġcircles":9380,"Ġthromb":9381,"Ġbreaking":9382,"Ġbasically":9383,"Ġattempted":9384,"Length":9385,"Sort":9386,"Ġrenew":9387,"Ġ(âĢľ":9388,"Ġongoing":9389,"Ġinvent":9390,"Ġcavity":9391,"Ġcanonical":9392,"Ġincubation":9393,"mean":9394,"Ġtort":9395,"Ġstrip":9396,"ĠLeg":9397,"Ġfails":9398,"Ġdependence":9399,"Ġvoters":9400,"Ġholes":9401,"ĠOper":9402,"ĠYet":9403,"Ġflag":9404,"ĠHREF":9405,"etics":9406,"ĠAv":9407,"ĠText":9408,"Ġchapter":9409,"Ġherein":9410,"Ġaimed":9411,"Ġaggreg":9412,"ockMQTTClientObject":9413,"ARY":9414,"Ġemotions":9415,"ĠRespond":9416,"ĠJonathan":9417,"pin":9418,"Â®":9419,"etal":9420,"usr":9421,"Ġamino":9422,"Ġradical":9423,"sv":9424,"Ġfo":9425,"Ġhurt":9426,"ĠDisease":9427,"ĠVEGF":9428,"Ġenterprise":9429,"Ġbench":9430,"ĠSP":9431,"ĠDO":9432,"ĠTop":9433,"Ġsleeve":9434,"Ġpancreatitis":9435,"HA":9436,"Ġgro":9437,"Thank":9438,"Ġment":9439,"ima":9440,"ancer":9441,"ĠMedia":9442,"VID":9443,"ĠSU":9444,"Ġstands":9445,"Ġstores":9446,"Ġcomplement":9447,"ĠLight":9448,"ipe":9449,"ilder":9450,"ĠSM":9451,"============":9452,"ĠBush":9453,"Ġpermit":9454,"Ġclimate":9455,"}}^":9456,"Ġaudience":9457,"stop":9458,"Ġalert":9459,"rup":9460,"ĠVan":9461,"Ġgran":9462,"Ġbacterial":9463,"Ġenrichment":9464,"Ġ:)":9465,"Ġnecrosis":9466,"Ġtrajectories":9467,"mathsf":9468,"Ġdriven":9469,"har":9470,"utch":9471,"ĠProgram":9472,"Ġflux":9473,"Ġfinger":9474,"ĠSol":9475,"^{-\\":9476,"Ġ1995":9477,"Ġpresentation":9478,"Ġterrible":9479,"Ġventricular":9480,"ĠCOM":9481,"Ġusage":9482,"aches":9483,"107":9484,"Ġ1980":9485,"Ġabnormal":9486,"Ġdifficulty":9487,"Ġpaying":9488,"ĠDiego":9489,"ãģĹãģ":9490,"Ġ250":9491,"Ġ>=":9492,"Ġmoral":9493,"Ġinstitutions":9494,"ellee":9495,"zero":9496,"Ġmill":9497,"Ġdict":9498,"Ġevident":9499,"ĠItaly":9500,"Ġdecline":9501,"Ġconsumer":9502,"Ġabsorb":9503,"potential":9504,"Ġtransaction":9505,"ellants":9506,"Ġoven":9507,"Ġcontributed":9508,"ĠVis":9509,"Ġ82":9510,"Ġ98":9511,"Ġcomparable":9512,"Ġconvenience":9513,"ali":9514,"Ġpel":9515,"ĠCM":9516,"Ġfoods":9517,">\\":9518,"Ġlim":9519,"Ġsharing":9520,"ãĥ¼":9521,"ynamics":9522,"ĠCOURT":9523,"Tag":9524,"asia":9525,"Ġenabled":9526,"prod":9527,"Ġapproximation":9528,"ĠShow":9529,"Ġenzyme":9530,"parallel":9531,".$":9532,"GET":9533,"ĠDeb":9534,"ĠUC":9535,"Ġevening":9536,"offset":9537,"ĠRoad":9538,"access":9539,"Ġoperate":9540,"Who":9541,"umor":9542,"Ġfantastic":9543,"Ġconvinced":9544,"Url":9545,"}^{(":9546,"device":9547,"idel":9548,"Ġvectors":9549,"Ġchoices":9550,"Ã§":9551,"esides":9552,"Ġproducing":9553,"ĠHand":9554,"textrm":9555,"ĠMaybe":9556,"Ġelections":9557,"Ġprivacy":9558,"Ġheadquarters":9559,"iod":9560,"Ġbrown":9561,"response":9562,"Ġourselves":9563,"Ġclassified":9564,"Ġsettlement":9565,"Ġdrove":9566,"Ġhormone":9567,"Ġtrained":9568,"awa":9569,"Ġintegration":9570,"wait":9571,"report":9572,"Ġtranslation":9573,"Ġconversations":9574,"CIT":9575,"Work":9576,"ĠKar":9577,"ĠAnalysis":9578,"ĠLast":9579,"Ġdecade":9580,"\\*\\*":9581,"Update":9582,"ĠJul":9583,"prov":9584,"Ġmodes":9585,"2003":9586,"Ġwalked":9587,"Ġdistricts":9588,"Ġveter":9589,"ORE":9590,"Down":9591,"Factory":9592,"Ġprecise":9593,"ĠOregon":9594,"Ġartifacts":9595,".]":9596,"Cor":9597,"atform":9598,"ĠOld":9599,"Ġmarkers":9600,"Ġ\\;":9601,"Ġquiet":9602,"Ġanywhere":9603,"ĠYOU":9604,"Ġroutine":9605,"Ġdensities":9606,"Ġdeterior":9607,"Protocol":9608,"support":9609,"then":9610,"ĠGrand":9611,"Ġsimulation":9612,"Ġsingular":9613,"otypes":9614,"eman":9615,"Ġimposed":9616,"Ġanyway":9617,"Ġnewly":9618,"Theta":9619,"ĠNokia":9620,"ĠKevin":9621,"Ġindustries":9622,"LL":9623,"Range":9624,"å®":9625,"ĠEU":9626,"Ġrepeat":9627,"Ġtheme":9628,"Ġfacing":9629,"Ġwinning":9630,"front":9631,"emic":9632,"ĠJeff":9633,"Ġdish":9634,"Ġcath":9635,"Ġduck":9636,"Init":9637,"Ġcrew":9638,"'),":9639,"ĠBlo":9640,"ĠFort":9641,"Web":9642,"Ġcreates":9643,"Ġshaft":9644,"yes":9645,"enant":9646,"berry":9647,"128":9648,"ĠRepublicans":9649,"Ġwonderful":9650,"Ingredients":9651,"TM":9652,"Ġcircum":9653,"*]{},":9654,"Ġrevenues":9655,"ĠFootball":9656,"ĠLewis":9657,"ĠEmpire":9658,"Ġoccasions":9659,"Â§":9660,"Ġcontends":9661,"raise":9662,"ĠVersion":9663,"Like":9664,"ĠPO":9665,"Ġplanet":9666,"Ġregulatory":9667,"Health":9668,"outheast":9669,"ĠQuestionnaire":9670,"DNA":9671,"tra":9672,"ĠOK":9673,"1999":9674,"Ġgoods":9675,"Ev":9676,"Ġsoul":9677,"Ġdelete":9678,"Ġanomaly":9679,"Ġtank":9680,"imum":9681,"about":9682,"Ġtruck":9683,"Ġsatisfy":9684,"ĠConstitution":9685,"ji":9686,"Ġthr":9687,"ĠFox":9688,"ĠFood":9689,"ĠÂ«":9690,"ĠProtein":9691,"etry":9692,"istant":9693,"Ġ91":9694,"Ġpara":9695,"Ġinvolve":9696,"Car":9697,"ĠPath":9698,"ĠAnthony":9699,"Ġstraightforward":9700,"ĠHollywood":9701,"Case":9702,"Ġgel":9703,"umps":9704,"ophag":9705,"fg":9706,"nc":9707,"amination":9708,"Ġ116":9709,"ĠBern":9710,"Ġpurchased":9711,"Ġextracted":9712,"Bundle":9713,"âĤ¬":9714,"ĠFuture":9715,"å¤":9716,"AMP":9717,"Ġencoding":9718,"Ġdocumentation":9719,"Ġdisclosed":9720,"copy":9721,"vol":9722,"Ġess":9723,"Ġmissed":9724,"eds":9725,"Ġresc":9726,"Ġaged":9727,"Ġradius":9728,"Put":9729,"itations":9730,"Ġowned":9731,"Ġcommunications":9732,"Ġintroduction":9733,"Ġindependently":9734,"Ġobserve":9735,"ĠBureau":9736,"mathscr":9737,"Ġsatellite":9738,"Ġacoustic":9739,"UST":9740,"iro":9741,"enal":9742,"Ġmask":9743,"Ġlegs":9744,"Ġhell":9745,"Ġlat":9746,"Ġedges":9747,"Ġnursing":9748,".^[@":9749,"Ġ\\{":9750,"ĠHR":9751,"Ġcarrier":9752,"2004":9753,"ĠKey":9754,"Ġdiscover":9755,"Ġabundant":9756,"Ġentertainment":9757,"Ġencountered":9758,"Ġsubmucosal":9759,"Ġng":9760,"Ġrain":9761,"erving":9762,"Ġbowl":9763,"idad":9764,"ĠBase":9765,"ĠInvest":9766,"ĠKn":9767,"Ġheader":9768,"Ġperfectly":9769,"Ġinhibitor":9770,"wa":9771,"she":9772,"Ġchose":9773,"Ġnurse":9774,"Top":9775,"ted":9776,"Ġsong":9777,"close":9778,"cludes":9779,"Ġ1992":9780,"Ġstrike":9781,"Ġsummar":9782,"Ġstronger":9783,"Ġancest":9784,"ynchron":9785,"Ġinnocent":9786,"Ġdoc":9787,"======":9788,"Ġcorresponds":9789,"Ġ===":9790,"Ġyields":9791,"Ġwelfare":9792,"January":9793,"lie":9794,"}:":9795,"ĠUt":9796,"Ġ1994":9797,"Ġ94":9798,"era":9799,"ĠBased":9800,"example":9801,"Ġcars":9802,"Ġmarginal":9803,"Most":9804,"umes":9805,"Ġfrequent":9806,"Ġmanufacturing":9807,"ĠArkansas":9808,"gress":9809,"project":9810,"Ġtemporary":9811,"Ġshouldn":9812,"Ġcarefully":9813,"Ġrounded":9814,"Ġtab":9815,"Ġhazard":9816,"ĠNetherlands":9817,"ĠAppendix":9818,"some":9819,"zo":9820,"Ġmeta":9821,"illion":9822,"Mark":9823,"Sl":9824,"ione":9825,"shot":9826,"meta":9827,"Ġcomplexity":9828,"Ġimproving":9829,"infinity":9830,"Ġbulk":9831,"Ġtroubles":9832,"ĠVancouver":9833,"BV":9834,"iag":9835,"ĠPT":9836,"anted":9837,"}_\\":9838,"Ġmagnitude":9839,"Ġanalytical":9840,"va":9841,"Ġselling":9842,"Ġ115":9843,"Ġtele":9844,"2005":9845,"Under":9846,"oplus":9847,"anol":9848,"Ġexerc":9849,"ictionary":9850,"Ġdataset":9851,"Ġfriction":9852,"Ġaggrav":9853,"ĠLIABILITY":9854,"rat":9855,"ĠIr":9856,"iana":9857,"Ġperforming":9858,"Ġprofiles":9859,"Ġopposed":9860,"ja":9861,"expression":9862,"ĠÃ©":9863,"ĠĠĠĠĠĠĠĠĠĠĠĠĠĠĠĠĠĠĠĠĠĠĠĠĠĠ":9864,"NAME":9865,"Ġseparation":9866,"ĠSpecial":9867,"make":9868,"ira":9869,"ĠGM":9870,"should":9871,"Ġmaternal":9872,"ĠHAVE":9873,"iform":9874,"Ġcomparing":9875,"','":9876,"ĠOrder":9877,"Ġseriously":9878,"Widget":9879,"aterial":9880,"Ġbringing":9881,"Ġexplicitly":9882,"Memory":9883,"Ġrelevance":9884,"Ġfeasible":9885,"Ġdiagrams":9886,"={":9887,"Ġmild":9888,"\"}),":9889,"Ġparticipation":9890,"Ġquantity":9891,"Ġdoctors":9892,"Ġsurprising":9893,"Left":9894,"bro":9895,"retion":9896,"otox":9897,"Ġ83":9898,"Ġaccommod":9899,"Ġsufficiently":9900,"atisf":9901,"Ġyeast":9902,"Red":9903,"Script":9904,"ĠUV":9905,"Ġ87":9906,"Ġtransparency":9907,"bell":9908,"ĠMike":9909,"Ġequally":9910,"Ġmetall":9911,"ĠBuild":9912,"Î³":9913,"Ġokay":9914,"Ġinstances":9915,"agan":9916,"Ġalb":9917,"008":9918,"ĠFed":9919,"Ġperp":9920,"Ġreader":9921,"Ġdomains":9922,"Ġcapture":9923,"ĠHilbert":9924,"(_":9925,"020":9926,"vin":9927,"actic":9928,"Ġwherein":9929,"holder":9930,"ĠMD":9931,"Configuration":9932,"EXT":9933,"ĠBGCOLOR":9934,"dl":9935,"Ġcomfort":9936,"brace":9937,"Ġperiods":9938,"Ġwriter":9939,"ĠDigital":9940,"}\"":9941,"ĠRam":9942,"ĠOh":9943,"ixed":9944,"Ġdisturb":9945,"Ġconsecutive":9946,";</":9947,"fi":9948,"ĠSC":9949,"Ġwhenever":9950,"ĠCohen":9951,"ĠMedicare":9952,"VERSION":9953,"Vertex":9954,")),":9955,"Ġmapping":9956,"thread":9957,"ĠBow":9958,"ĠTor":9959,"ilation":9960,"Ġactivated":9961,"ĠPrime":9962,"Ġmutation":9963,"Does":9964,"Hey":9965,"ĠCase":9966,"Ġprote":9967,"Once":9968,"ĠDoes":9969,"ropolitan":9970,"Dep":9971,"person":9972,"uit":9973,"Ġelected":9974,"Ġrely":9975,"ĠSO":9976,"Ġ112":9977,"ĠLib":9978,"ĠCrohn":9979,"Ġ**(":9980,"Ġreferences":9981,"Did":9982,"Location":9983,"Ġarmy":9984,"Ġsignature":9985,"Ġcrimes":9986,"Ġcontradict":9987,"kt":9988,"two":9989,"Ġresolve":9990,"Ġvehicles":9991,"AME":9992,"especially":9993,"His":9994,"Ġbin":9995,"Ġbear":9996,"Ġstolen":9997,"Ġenemies":9998,"ĠStephen":9999,"DOCTYPE":10000,"ĠSource":10001,"ĠNFL":10002,"\"}](":10003,"Ġtargeted":10004,"Ġsuspect":10005,"Collection":10006,"Ġcited":10007,"imated":10008,"Ġgall":10009,"ĠĠĠĠĠĠĠĠĠĠĠĠĠĠĠĠĠĠĠĠĠĠĠĠĠĠĠ":10010,"Ġ\"(":10011,"Conn":10012,"000000":10013,"Ġsurprise":10014,"Ġaluminum":10015,"ĠDVD":10016,"February":10017,"Good":10018,"echn":10019,"Ġchecked":10020,"plus":10021,"ĠInit":10022,"Ġauthent":10023,"inson":10024,"ĠMoscow":10025,"mes":10026,"Ġthrows":10027,"ĠStudies":10028,"auth":10029,"Ġinclusion":10030,"ropy":10031,"Donald":10032,"itr":10033,"ĠMich":10034,"ĠEff":10035,"Ġprovider":10036,"Nav":10037,"ador":10038,"izations":10039,"Ġcircle":10040,"Ġboost":10041,"omorphic":10042,"Ġneutrino":10043,"gi":10044,"Ġbuying":10045,"Ġpassage":10046,"Container":10047,"Ġdirections":10048,"Ġlipid":10049,"Ġsister":10050,"ipher":10051,"Ġmasses":10052,"Ġforest":10053,"ĠTechnology":10054,"Further":10055,"havior":10056,"jango":10057,"INCLUD":10058,"Ġsyntax":10059,"adi":10060,"ĠED":10061,"such":10062,"Ġdominant":10063,"hol":10064,"Ġwound":10065,"Ġproven":10066,"description":10067,"Ġwisdom":10068,"Ġanticipated":10069,"west":10070,"ĠMake":10071,"Ġok":10072,"irection":10073,"Ġ600":10074,"Ġdrain":10075,"Ġubiqu":10076,"Ġreservoir":10077,">,":10078,"Bo":10079,"Ġbatch":10080,"ĠLand":10081,"Ġvariations":10082,"!âĢĿ":10083,"pace":10084,"åĲ":10085,"ibly":10086,"Ġverify":10087,"Ġtwenty":10088,"Japan":10089,"Ġbuttons":10090,"Appellant":10091,"NR":10092,"Sw":10093,"ĠAF":10094,"Ġviral":10095,"Ġparadigm":10096,"Ġwine":10097,"Ġnum":10098,"Ġresection":10099,"Ġmixing":10100,"ĠNetwork":10101,"ĠFourier":10102,"Ġshrink":10103,"ĠScientific":10104,"Ġsulf":10105,"Ġfig":10106,"Ġinduce":10107,"âĢħ":10108,"Total":10109,"Ġexit":10110,"ĠNumber":10111,"Ġjson":10112,"Ġimprovements":10113,"help":10114,"Ġpartnership":10115,"Ġarrival":10116,"Ġvoluntary":10117,"ĠRights":10118,"Ġplenty":10119,"Ġdiscrim":10120,"Ġsad":10121,"External":10122,"when":10123,"remove":10124,"Only":10125,"Ġconsumers":10126,"Ġtangent":10127,"Ġproximal":10128,"ĠLi":10129,"Attribute":10130,"ĠLincoln":10131,"Tab":10132,"ĠAC":10133,"=======================":10134,"ĠEst":10135,"Ġ{{":10136,"Ġ86":10137,"Build":10138,"Ġcameras":10139,"Ġgrabbed":10140,"363774430":10141,"ĠManagement":10142,"Ġclusters":10143,"URE":10144,"nm":10145,"ila":10146,"Ġ130":10147,"ĠHam":10148,"vious":10149,"Ġcream":10150,"Ġsignatures":10151,"DEBUG":10152,"Ġmachinery":10153,"aid":10154,"Ġcab":10155,"Ġclassic":10156,"lier":10157,"Ġfatty":10158,"ĠJac":10159,"Ġtechnologies":10160,"Ġbridge":10161,"ĠForce":10162,"Ġapartment":10163,"&=&":10164,"Ġtrib":10165,"oman":10166,"Ġ$-":10167,"Ġreserved":10168,"mediated":10169,"Ñĭ":10170,"Ġinit":10171,"Ġ$[":10172,"Ġ$|":10173,"ĠEvent":10174,"))/(":10175,"ĠNelson":10176,"olds":10177,"Ġarbitrary":10178,"Ġrobust":10179,"Ġresponded":10180,"Ġcommitment":10181,"ifndef":10182,"Ġrobbery":10183,"Ġhun":10184,"Ġ92":10185,"Ġcareful":10186,"Ġawareness":10187,"Ġreduces":10188,"ĠPS":10189,"ĠRight":10190,"Ġsoci":10191,"Ġ93":10192,"Ã©s":10193,"ĠÃł":10194,"Ġrestaurant":10195,"Ġcongressional":10196,"Ġbomb":10197,"Ġlift":10198,"orship":10199,"Ġheads":10200,"Ġmonitor":10201,"Ġextraction":10202,"Ġmonitored":10203,"double":10204,"Ġ1993":10205,"Ġindirect":10206,"Ġhealthcare":10207,"Ġchallenging":10208,"Ġloaded":10209,"Ġphysics":10210,"ocutusOfBorg":10211,"Ġpour":10212,"Ġdisability":10213,"Ġattribute":10214,"Ġbarrier":10215,"Ġfibrin":10216,"Section":10217,"Ġtrace":10218,"rave":10219,"Ġthereof":10220,"Ġgreatly":10221,"Ġsurprised":10222,"ologically":10223,"Ġmothers":10224,"ASE":10225,"Ġstaining":10226,"Ġchlor":10227,"Ġremind":10228,"Ġbuildings":10229,"Ġcopies":10230,"Ġnanoparticles":10231,"FD":10232,"ectomy":10233,"Ġhasn":10234,"render":10235,"ĠConn":10236,"Ġscalar":10237,"Ġsuspicion":10238,",$$":10239,"oved":10240,"Ġcaps":10241,"icing":10242,"ĠSign":10243,"ĠRock":10244,"ĠEll":10245,"awn":10246,"Ġengage":10247,"Ġenabling":10248,"typename":10249,"Ġsubtle":10250,"---|---":10251,"conscious":10252,"Ġcurriculum":10253,"Draw":10254,"Mon":10255,"Ġalive":10256,"Ġ\"#":10257,"ĠStart":10258,"loop":10259,"Ġminister":10260,"1000":10261,"Ġplug":10262,"Ġhash":10263,"Second":10264,"Ġelectrode":10265,"ĠDallas":10266,"CRIPT":10267,"Ġpeaceful":10268,"<?":10269,"High":10270,"Pa":10271,"ĠSi":10272,"ĠMiddle":10273,"ivid":10274,"Ġintake":10275,"127":10276,"ĠHurricane":10277,"lam":10278,"Ġreward":10279,"uri":10280,"thal":10281,"ĠDan":10282,"aks":10283,"territory":10284,"Ġexperiencing":10285,"Ġmanufacturers":10286,"Ġmembranes":10287,"HC":10288,"Tool":10289,"tmp":10290,"xb":10291,"Ġheter":10292,"Ġlosing":10293,"avel":10294,"Ġ81":10295,"Ġblind":10296,"INTER":10297,"Ġcuts":10298,"LY":10299,"Ġwal":10300,"ĠCu":10301,"ĠBefore":10302,"Ġ&=&":10303,"eger":10304,"Ġhandling":10305,"anna":10306,"Ġargs":10307,"establ":10308,"Ġisopropyl":10309,"qquad":10310,"Ġtom":10311,"Ġnerve":10312,"osomes":10313,"Ġcolors":10314,"Core":10315,"xff":10316,"Ġstabil":10317,"Ġboys":10318,"Ġteachers":10319,"WS":10320,"them":10321,"Ġyellow":10322,"130":10323,"Ġpresents":10324,"Ġfunc":10325,"ĠAgain":10326,"Ġunprecedented":10327,"ĠVALUES":10328,"eral":10329,"env":10330,"Ġsaved":10331,"ĠEnt":10332,"Ġbrings":10333,"Ġcovering":10334,"Ġmetabolism":10335,"ÂĢÂ":10336,"Ġproducer":10337,"800":10338,"ando":10339,"Ġpursu":10340,"Ġhydrogen":10341,"Ġthickness":10342,"Ġreveal":10343,"){\\":10344,"family":10345,"Ġdecay":10346,"ĠEconomic":10347,"Ġspontaneous":10348,"Ġsubstrates":10349,"Ġequivalence":10350,":=":10351,"Ġeast":10352,"ĠSix":10353,"formed":10354,"Ġreviews":10355,"ĠEmploy":10356,"Server":10357,"Custom":10358,"OG":10359,"cb":10360,"Ġwinter":10361,"ĠColl":10362,"there":10363,"Ġvalve":10364,"Ġhistorical":10365,"Ġtackle":10366,"emperature":10367,"Ġstood":10368,"oped":10369,"Ġcomplet":10370,"Ġ})":10371,"jrwren":10372,"getElementById":10373,"Ġlb":10374,"Ġ180":10375,"ĠBook":10376,"ĠJim":10377,"015":10378,"ĠCommand":10379,"ĠAsian":10380,"Ġdivide":10381,"Ġhardware":10382,"Ġirregular":10383,"NAMESPACE":10384,"fire":10385,"ĠBY":10386,"ĠLine":10387,"Ġrefers":10388,"LD":10389,"Ġbanks":10390,"Ġdump":10391,"âĢ¯":10392,"Ġonset":10393,"Ġmeal":10394,"exists":10395,"Ġfiling":10396,"GROUP":10397,"ĠOxford":10398,"Ġfort":10399,"ĠCurrent":10400,"Ġpartially":10401,"Ġscored":10402,"IME":10403,"IGN":10404,"OB":10405,"uan":10406,"Ġtheories":10407,"Ġnic":10408,"Ġlic":10409,"Ġisland":10410,"011":10411,")$$":10412,"Ġmarketing":10413,"overset":10414,"Ġproposals":10415,"Ġpsychiatric":10416,"Ġatmospheric":10417,"ille":10418,"omp":10419,"Ġ((-":10420,"ĠMiller":10421,"Ġ\\\"":10422,"Ġserial":10423,"Ġfewer":10424,"ĠSquare":10425,"Non":10426,"Ġbankruptcy":10427,"ĠmM":10428,"Ġdinner":10429,"Ġundert":10430,"Ġsuppress":10431,"FT":10432,"een":10433,"ĠMass":10434,"viously":10435,"ĠAdv":10436,"Ġsomewhere":10437,"ĠELISA":10438,"Ġbytes":10439,"}\\\\":10440,"]{},":10441,"Ġexecuted":10442,"Ġwatched":10443,"Ġomitted":10444,"bool":10445,"vision":10446,"ĠAust":10447,"AST":10448,"NP":10449,"iments":10450,"ĠRun":10451,"Ġwearing":10452,"Ġflight":10453,"Change":10454,"Ġodd":10455,"Ġsed":10456,"ĠCustom":10457,"Ġ\\*":10458,"ĠFM":10459,"Ġdeposition":10460,"ĠTown":10461,"Ġanymore":10462,"Ġprofit":10463,"ĠHTML":10464,"ĠNY":10465,"avi":10466,"216":10467,"master":10468,"imp":10469,").$$":10470,"014":10471,"ĠCommunity":10472,"Ġexecution":10473,"ĠSafety":10474,"ĠAntonio":10475,"Ġgravitational":10476,"PK":10477,"ĠPage":10478,"Ġmatching":10479,"Ġnumerical":10480,"ĠFunction":10481,"ĠGlobal":10482,"ĊĉĠĠĠ":10483,"Ġwhilst":10484,"ĠPremier":10485,"Ġcollateral":10486,"Ġatheroscler":10487,"ogether":10488,"Ġpriority":10489,"Ġnewspapers":10490,"erk":10491,"Ġreceiver":10492,"Ġconservative":10493,")|":10494,"gment":10495,"Menu":10496,"aze":10497,"published":10498,"Ġtutorial":10499,"ĠBanach":10500,"Ġspoken":10501,"Op":10502,"uction":10503,"Ġfed":10504,"employ":10505,"Ġexpanded":10506,".(":10507,"SV":10508,"Ġbits":10509,"imen":10510,"udio":10511,"Application":10512,"Ġbounded":10513,"Ġoutdoor":10514,"Ġsoluble":10515,"ĠProcedure":10516,"Ġrefusal":10517,"Long":10518,"ĠSyria":10519,"Ġseeds":10520,"inic":10521,"orial":10522,"ĠPa":10523,"ĠPers":10524,"Ġconvex":10525,"Ġdecedent":10526,"Search":10527,"elect":10528,"req":10529,"ĠMot":10530,"Ġserves":10531,"Ġseparately":10532,"rees":10533,"ĠSL":10534,"quis":10535,"ocus":10536,"Ġvariance":10537,"container":10538,"otropic":10539,"Ġischemia":10540,"ĠIoT":10541,"ĠManchester":10542,"istical":10543,"ETH":10544,"UID":10545,"yy":10546,"cean":10547,"ĠNext":10548,"ĠUser":10549,"Ġpassion":10550,"Ġpeer":10551,"Ġcomputation":10552,"Pointer":10553,"ĠSydney":10554,"Ġdivorce":10555,"Ġpermitted":10556,"Ġdecreases":10557,"ĠmiRNA":10558,"Ġwindows":10559,"Ġriver":10560,"250":10561,"virtual":10562,"ĠGovernor":10563,"Ġenormous":10564,"Ġoutlined":10565,"mate":10566,"Ġdust":10567,"ĠMount":10568,"ĠRet":10569,"Ġ<-":10570,"Ġyards":10571,"Ġlocally":10572,"Ġbread":10573,"ĠAustralian":10574,"orted":10575,"Ġneural":10576,"Ġphotograph":10577,"ĠBlue":10578,"Graph":10579,"Ġwitnesses":10580,"mercial":10581,"Ġjavax":10582,"Ġadequately":10583,"Ġentrance":10584,"Will":10585,"Ã¿":10586,"edge":10587,"ĠCur":10588,"),\\":10589,"ONE":10590,"Ġdiver":10591,"Ġpresidential":10592,"ĠTeam":10593,"tw":10594,"Ġcod":10595,"Ġresolved":10596,"016":10597,"Ġwrapped":10598,".\\[[@":10599,"/_":10600,"OUR":10601,"total":10602,"åħ":10603,"Ġfulf":10604,"asty":10605,"Ġadmission":10606,"Ġflash":10607,"Ġwalls":10608,"Ġepithelium":10609,"enth":10610,"Ġproud":10611,"Ġuniversal":10612,"Ġdialogue":10613,"University":10614,"Ġsan":10615,"outer":10616,"utable":10617,"igin":10618,"ĠBest":10619,"Ġ<!--":10620,"ervation":10621,"OCK":10622,"Mart":10623,"look":10624,"enders":10625,"angular":10626,"Ġflour":10627,"David":10628,"ĠGonz":10629,"Ġpresumably":10630,"Ġcurvature":10631,"Ġhydrophobic":10632,"ĠLett":10633,"ĠPlay":10634,"Ġrestrictions":10635,"ycle":10636,"Ġintra":10637,"ĠChem":10638,"Ġ105":10639,"Ġsuppose":10640,"upload":10641,"ĠFifth":10642,"apolis":10643,"mapsto":10644,"Row":10645,"reams":10646,"Ġfake":10647,"Height":10648,"Ġmatches":10649,"'}":10650,"Ġrib":10651,"Ġinhibitors":10652,"Ġkinase":10653,"phantom":10654,"rystal":10655,"TV":10656,"ĠDist":10657,"ĠGa":10658,"export":10659,"Ġmovies":10660,"Ġportions":10661,"During":10662,"Ġicon":10663,"Ġgay":10664,"1998":10665,"Ġcapac":10666,"Ġoccurrence":10667,"empty":10668,"Ġmeasurable":10669,"ĠBangladesh":10670,"tim":10671,"Ġ04":10672,"Ġ102":10673,"Ġsubgroup":10674,"params":10675,"Ġcontinuing":10676,"Ġinvestors":10677,"Ġguarantee":10678,"Ġpushed":10679,"Ġcheap":10680,"Ġprospective":10681,"ĠBE":10682,"iva":10683,"**.":10684,"ĠEC":10685,"Ġcenters":10686,"Ġsimulations":10687,"Ġadherence":10688,"PG":10689,"Ġml":10690,"Ġweigh":10691,"Ġjet":10692,"ĠSpain":10693,"Ġadjusted":10694,"çĽ£çĿ£":10695,"dig":10696,"will":10697,"Ġcache":10698,"ĠPL":10699,"ieve":10700,"123":10701,"Queue":10702,"oute":10703,"ĠElect":10704,"Thread":10705,"Ġphenomenon":10706,"ĠImage":10707,"Ġgalaxies":10708,"xsd":10709,"ĠJr":10710,"\\_[":10711,"jackson":10712,"ilinear":10713,"Ġprohibited":10714,"ĠDeputy":10715,"ĠPhoenix":10716,"~~~~~~~~~~~~~~~~~~~~~":10717,"stone":10718,"Ġcomposed":10719,"ĠObs":10720,"regulation":10721,"sy":10722,"Ġfired":10723,"angers":10724,"Ġcomo":10725,"ĠSpace":10726,"Ġtalked":10727,"åľ¨":10728,"ĠBASIS":10729,"Ġdiabetic":10730,"tn":10731,"Ġforum":10732,"ĠPay":10733,"ĠBob":10734,"ional":10735,"Ġads":10736,"Ġblank":10737,"they":10738,"!\\!\\":10739,"lat":10740,"Ġuncertainty":10741,"Warning":10742,"Ġconstrued":10743,"ÑĤÑĮ":10744,"Ġhorizon":10745,"Pi":10746,"ses":10747,"Ġsen":10748,"Ġgrew":10749,"Ġ114":10750,"Ġshares":10751,"Ġinfinite":10752,"ascular":10753,"Ġmistake":10754,"fd":10755,"uz":10756,"usp":10757,"ocial":10758,"Ġkeys":10759,"Ġconcomitant":10760,"ĠNintendo":10761,"DM":10762,"oning":10763,"Ġattr":10764,"ĠRos":10765,"ĠLake":10766,"Ġcoast":10767,"Ġgeometry":10768,"DIR":10769,"feed":10770,"æĪ":10771,"Ġinterf":10772,"dy":10773,"ĠĠĠĠĠĠĠĠĠĠĠĠĠĠĠĠĠĠĠĠĠĠĠĠĠĠĠĠĠ":10774,"Ġcompletion":10775,"ĠLocal":10776,"Ġunw":10777,"129":10778,"ĠÂĹ":10779,"Ġdiffraction":10780,"mol":10781,"Ġdiverse":10782,"Project":10783,"Ġmetastasis":10784,"Ġeducational":10785,"Following":10786,"ffffff":10787,"Ġundoubtedly":10788,"changed":10789,"ĠTal":10790,"Ġprevention":10791,"Ġscrew":10792,"108":10793,"Ġthinks":10794,"Ġmacro":10795,"Prop":10796,"hab":10797,"what":10798,"ĠJoe":10799,"Ġ..":10800,"margin":10801,"Ġrecombinant":10802,"nowledge":10803,"pres":10804,"Ġupload":10805,"Ġcontracts":10806,"----------------------------------------":10807,"hspace":10808,"Ġdb":10809,"ĠHig":10810,"note":10811,"Ġdeclare":10812,"Ġallegations":10813,"Ġ&=":10814,"Ġexpectations":10815,"}.$$":10816,"Ġtalks":10817,"Each":10818,"ĠBas":10819,"Ġtiming":10820,"Using":10821,"iac":10822,"Ġfer":10823,"ĠHy":10824,"111":10825,"Ġvalidity":10826,"uct":10827,"Ġfa":10828,"ĠSQL":10829,"Ġ1991":10830,"Ġmodul":10831,"Ġelsewhere":10832,"Ġflexible":10833,"cul":10834,"molecules":10835,"keep":10836,"Ġmarker":10837,"Ġadvent":10838,"Ġcourage":10839,"Ġcervical":10840,"Ġreleases":10841,"Ġadhesion":10842,"emptyset":10843,"found":10844,"matrix":10845,"ensity":10846,"Ġdefines":10847,"}})":10848,"Ġpacket":10849,"Ġspectral":10850,"Several":10851,"Ġunstable":10852,"Ġ^{":10853,"Ġsomehow":10854,"Ġdeliber":10855,"Ġfailing":10856,"Ġspecificity":10857,"ĠCharles":10858,"Ġsymmetric":10859,"102":10860,"versely":10861,"Ġspiritual":10862,"Equal":10863,"Ġnucleotide":10864,"Ġfluorescent":10865,"Ġjuvenile":10866,"priv":10867,"Ġ($\\":10868,"Ġcoli":10869,"Ġcheese":10870,"Ġcrop":10871,"Ġwest":10872,"Ġorb":10873,"ĠRest":10874,"Ġincorporated":10875,"010":10876,"Ġorganized":10877,"ARD":10878,"Ġrecommendations":10879,"ĠResults":10880,"_+":10881,"Ġ}\\":10882,"Ġfly":10883,"Ġrevolution":10884,"Ġmultipl":10885,"western":10886,"ĠHotel":10887,"Ġqueries":10888,"Ġtwelve":10889,"fall":10890,"ho":10891,"connect":10892,"Cache":10893,"ĠRT":10894,"ĠEp":10895,"Ġfaced":10896,"Ġanchor":10897,"dependency":10898,"ÏĢ":10899,"oured":10900,"ĠIBD":10901,"plot":10902,"Ġquantitative":10903,"offs":10904,"Ġmaintaining":10905,"Ġcollective":10906,"Ġdiffusion":10907,"ĠOl":10908,"Ġarchitecture":10909,"Ġforgotten":10910,"uals":10911,"AE":10912,"full":10913,"ĠWater":10914,"Ġclimb":10915,"Ġdeputy":10916,"ograms":10917,"layer":10918,"etary":10919,"emble":10920,"jects":10921,"mons":10922,"Ġjur":10923,"aws":10924,"Ġacet":10925,"Ġmodification":10926,"Ġfeelings":10927,"Ġperturb":10928,"Ġbrilliant":10929,"Ġuncomfortable":10930,"è¿":10931,"Ġoc":10932,"ĠCast":10933,"uclear":10934,"Ġproviders":10935,"Ġdenial":10936,"Ġpromoter":10937,"Ġrestriction":10938,"~,":10939,"Ġnearby":10940,"Ġdispute":10941,"BU":10942,"Free":10943,"final":10944,"ĠCross":10945,"arding":10946,"iously":10947,"Ġphysicians":10948,"ĠRoman":10949,"uzz":10950,"Ġ119":10951,"ĠFamily":10952,"izz":10953,"Ġinfected":10954,"Ġderivatives":10955,"Ġ\"\"\"":10956,"original":10957,"Ġinfectious":10958,"years":10959,"ãĢģ":10960,"}]":10961,"Ġsight":10962,"ĠHE":10963,"acking":10964,"}}(\\":10965,"ĊĠĠĠĠĠĠĠĠĠĠĠĠĠĠĠĠĠĠĠĠĠĠĠĠĠĠĠĠĠĠĠĠĠĠĠ":10966,"Reference":10967,"padding":10968,"Ġaqueous":10969,"Ġineffective":10970,"ãģĦãģ":10971,"ĠPUBLIC":10972,"+--+--+--+--+--+--+--+--+--":10973,"namespace":10974,"Ġtoken":10975,"Ġcontrolling":10976,"impl":10977,"Ġinfinity":10978,"Ġloading":10979,"Ġhonor":10980,"government":10981,"angasek":10982,"Ġpartition":10983,"Ġexpenses":10984,"Ġoperated":10985,"Ġtopological":10986,"ĠUnivers":10987,"ĠRoosevelt":10988,"Option":10989,"Ġcodes":10990,"ĠAction":10991,"istence":10992,"ervices":10993,"conv":10994,"profile":10995,"Ġconvicted":10996,"ĠDescription":10997,"Ġfeeding":10998,"Ġprocedural":10999,"ĠWalker":11000,"Ġencompass":11001,"dehyde":11002,"fill":11003,"hom":11004,"åŃ":11005,"ĠĠĠĠĠĠĠĠĠĠĠĠĠĠĠĠĠĠĠĠĠĠĠĠĠĠĠĠĠĠĠĠĠ":11006,"Ġ&&&&":11007,"Port":11008,"æĸ":11009,"Ġsa":11010,"Ġ113":11011,"Ġmedi":11012,"Ġlosses":11013,"Ġscholars":11014,"Meanwhile":11015,"WIDTH":11016,"sys":11017,"onom":11018,"Ġshoulder":11019,"insert":11020,"ILL":11021,"oop":11022,"Ġmamm":11023,"Ġgeneric":11024,"Ġpersonally":11025,"legate":11026,"ĠRepresent":11027,"ĠKingdom":11028,"MM":11029,"SQL":11030,"acity":11031,"Ġchip":11032,"ĠGar":11033,"Ġgenerating":11034,"ĠWITHOUT":11035,"Ġmonoclonal":11036,"hep":11037,"Ãº":11038,"enger":11039,"images":11040,"ailing":11041,"Ġcoinc":11042,"oxide":11043,"Ġglut":11044,"Sorry":11045,"Ġelucid":11046,"pad":11047,"eties":11048,"ĠDam":11049,"Ġadds":11050,"ergic":11051,"Ġurban":11052,"Expand":11053,"Ġpulse":11054,"Ġconverted":11055,"Ñı":11056,"ĠSW":11057,"Ġreaders":11058,"Ġgentle":11059,"_[":11060,"orph":11061,"Ġdat":11062,"oline":11063,"Ġaden":11064,"ĠCentre":11065,"Description":11066,"Valid":11067,"Ġencourage":11068,"sip":11069,"Ġcleaning":11070,"Ġignore":11071,"ĠError":11072,"Password":11073,"Ġbenign":11074,"~\\":11075,"Ġped":11076,"Ġgod":11077,"ĠPolicy":11078,"Ġworker":11079,"Ġrepresentations":11080,"Order":11081,"ĠEnterprise":11082,"<!--":11083,"Ã¢":11084,"ĠWil":11085,"ĠJava":11086,"leton":11087,"Ġcurrency":11088,"iii":11089,"Ġcomprises":11090,"Ġutility":11091,"Ġproducers":11092,"allenge":11093,"Ġdiamond":11094,"Ġbiopsies":11095,"biomolecules":11096,"ĠMilwaukee":11097,"Ġstrings":11098,"ĠTer":11099,"Ġuniverse":11100,"Ġpredictive":11101,"Ġadvertising":11102,"Ġaboard":11103,"Ġhopefully":11104,"ãĥ¢ãĥĩãĥ«ãģ®ãģ¿ãĤŃãĥĥãĥĪãģ¯éĥ¨åĵģãģĮè¶£åĳ³ãģ®ãĥĦãĥ¼ãĥ«ãĤĴä½¿çĶ¨ãģĽãģļãģ«éģ®æĸŃãģĻãĤĭãģĵãģ¨ãģĮåı¯èĥ½ãģªçī¹åĪ¥ãģªãĥ©ãĥ³ãĥĬãĥ¼ãģĮä»ĺå±ŀãģ¨ãģĹãģ¦å®ĮæĪĲåĵģãĤĴå¾ĹãĤĭãģĵãģ¨ãģ¯éĿŀå¸¸ãģ«åŁºæľ¬çļĦãģªãĤ¢ãĤ»ãĥ³ãĥĸãĥªãģ®ãĤ¹ãĤŃãĥ«ãĤĴå¿ħè¦ģãģ¨ãģĻãĤĭãĤŃãĥĥãĥĪ":11105,"nes":11106,"Ġbeer":11107,"sex":11108,"}}}\\":11109,"116":11110,"ĠAndroid":11111,"through":11112,"ĠChapter":11113,"Store":11114,"Ġreasonably":11115,"Ġconsisting":11116,"ĠMrs":11117,"Ġirradiation":11118,"ISCUSSION":11119,"RA":11120,"Types":11121,"-----":11122,"ĠFramework":11123,"Ġautoimmune":11124,"Ðº":11125,"}}}$":11126,"ĠFrancisco":11127,"ĠCriminal":11128,"ĠiPhone":11129,"Ġextraordinary":11130,"Copy":11131,"Ġatoms":11132,"Ġgovernments":11133,"Ġentering":11134,"ĠAssoci":11135,"his":11136,"uler":11137,"ĠPop":11138,"ĠCho":11139,"Ġjunior":11140,"Ġfeaturing":11141,"Ġhypoxia":11142,"PN":11143,"lan":11144,"Ġalign":11145,"ĠDom":11146,"Ġintern":11147,"ocks":11148,"white":11149,"Ġanalyze":11150,"]\"":11151,"ĠRyan":11152,"Ġconsiderable":11153,"Ġprotest":11154,"Ġbusy":11155,"Ġownership":11156,"Ġswimming":11157,"Ġboot":11158,"ington":11159,"Ġtrick":11160,"ĠJack":11161,"November":11162,"Ġultrasound":11163,"ĠStandard":11164,"Ġbeneficial":11165,"Ġsky":11166,"Address":11167,"late":11168,"van":11169,"Ġvo":11170,"Ġtrav":11171,"Ġ1970":11172,"erty":11173,"ologist":11174,"Ġeverywhere":11175,"Ġcomputing":11176,"Ġchemotherapy":11177,"Ġclosing":11178,"Ġbowel":11179,"{}^*\\":11180,"approved":11181,"ĠChakotay":11182,"Ġsand":11183,"Ġmarks":11184,"Ġqualified":11185,"Rad":11186,"Ġethyl":11187,"esc":11188,"Ġrural":11189,"Ġfoundation":11190,"piece":11191,"Ġprolonged":11192,"ĠGordon":11193,"Ġride":11194,"Ġovercome":11195,"cience":11196,"ĊĠĠĠĠĊĠĠĠ":11197,"Ġbroadcast":11198,"AK":11199,"Ã±":11200,"ĠPK":11201,"ĠSudan":11202,"ĠRAssian":11203,"Ġsurveys":11204,"Ġextensively":11205,"ito":11206,"entity":11207,"ĠCook":11208,"Ġcompens":11209,"Ġrush":11210,"Ġ1988":11211,"Ġsubmit":11212,"ĠComput":11213,"enna":11214,"Ġcontacts":11215,"ADVERTISEMENT":11216,"450":11217,"GD":11218,"nl":11219,"è¯":11220,"idal":11221,"Ġtract":11222,"Ġesc":11223,"driven":11224,"ĠNCAA":11225,"Ġsubmarine":11226,"ĠWittgenstein":11227,"hard":11228,"Ġsending":11229,"ati":11230,"Ġwaves":11231,"Ġboat":11232,"ĠValley":11233,"Ġcaptured":11234,"pred":11235,"ĠSher":11236,"ĠMC":11237,"ĠTotal":11238,"ĠStan":11239,"Ġassignment":11240,"Ġ104":11241,"Ġdiscussions":11242,"ĠApplication":11243,"Ġconstitute":11244,"Ġsovere":11245,"International":11246,"Ġcoordination":11247,"geqslant":11248,"Mo":11249,"super":11250,"Ġbroke":11251,"Expression":11252,"ĠMid":11253,"Ġrice":11254,"Ġteen":11255,"Ġreflection":11256,"Ġjudicial":11257,"Ġregularly":11258,"Ġunsigned":11259,"Ġdisappoint":11260,"Ġthroat":11261,"Ġmethamphetamine":11262,"Ġmas":11263,"imm":11264,"Ġstorm":11265,"Ġevil":11266,"VE":11267,"Ġ).":11268,"Ġcable":11269,"Ġlists":11270,"ĠDown":11271,"}}^{\\":11272,"Ġprocessed":11273,"parse":11274,"Ġlateral":11275,"Ġresidues":11276,"Ġtomatoes":11277,"Ġhemorrhage":11278,"dict":11279,"Ġtips":11280,"Ġgut":11281,"ĠWin":11282,"Ġimplications":11283,"Num":11284,"Ġfuck":11285,"imately":11286,"Ġvice":11287,"Ġentries":11288,"Ġexplains":11289,"Ġexcit":11290,"ELL":11291,"Ġdrinking":11292,"ĠSteve":11293,"Ġcenturies":11294,"Ġecosystem":11295,"Ġasthma":11296,"making":11297,"Ġhur":11298,"ĠFar":11299,"ĠChris":11300,"Product":11301,"ĠExt":11302,"Ġlarvae":11303,"ĠLagrangian":11304,"game":11305,"pret":11306,"Ġreaching":11307,"Ġtongue":11308,"Ġscandal":11309,";\">":11310,"leep":11311,"eling":11312,"ĠConference":11313,"Ġprecision":11314,"Ġawarded":11315,"+^":11316,"hash":11317,"ĠRoger":11318,"Ġdefeated":11319,"Attributes":11320,"ĠCharlotte":11321,"site":11322,"Ġtiny":11323,"Ġbon":11324,"ĠLtd":11325,"Ġtargeting":11326,"Ġpreserve":11327,"Ġdoctrine":11328,"dem":11329,"gmail":11330,"ucl":11331,"009":11332,"endor":11333,"Thus":11334,"Ġviewed":11335,"Ġsequencing":11336,"Private":11337,"Ġborders":11338,"'],":11339,"hex":11340,"Ġconsistently":11341,"Ġhabit":11342,"otyp":11343,"cher":11344,"Ġexclusive":11345,"Ġarmed":11346,"Ġpasses":11347,"Ġkeeps":11348,"Ġsuddenly":11349,"âī¥":11350,"ĠHunter":11351,"Ġenlarg":11352,"Ġtablespoon":11353,"ĠUI":11354,"103":11355,"104":11356,"icker":11357,"Ġpepper":11358,"Ġrising":11359,"Ġassays":11360,"Ġcultures":11361,"ĠOTHER":11362,"fect":11363,"acet":11364,"Ġvariants":11365,"background":11366,"ĠContin":11367,"reference":11368,"MB":11369,"Ġfaces":11370,"Ġfolder":11371,"Ġlemon":11372,"Ġhero":11373,"eek":11374,"ĠWhether":11375,"Ġphysician":11376,"Ġunlawful":11377,"Ġattitudes":11378,"Sign":11379,"Ġaer":11380,"oug":11381,"ĠHal":11382,"apply":11383,"Ġ117":11384,"ĠTra":11385,"Ġcompeting":11386,"oriented":11387,"Ġbargaining":11388,"Ġintegers":11389,"Ġintelligent":11390,"ĠKennedy":11391,"Ġsimplicity":11392,"pay":11393,"Ġtensor":11394,"arp":11395,"Ġabortion":11396,"ĠUnit":11397,"backs":11398,"Ġexpressions":11399,"Ġartery":11400,"ĠNBA":11401,"Ġtrading":11402,"ĠSouthern":11403,"Ġmolecule":11404,"ĠMilitary":11405,"Ġroyal":11406,"Ġdendritic":11407,"WR":11408,"olver":11409,"Ġships":11410,"commun":11411,"redit":11412,"Ġsatisfies":11413,"underline":11414,"Ġcord":11415,"urities":11416,"ruit":11417,"STAT":11418,"handle":11419,"ĠApache":11420,"VC":11421,"{$":11422,"idx":11423,"ĠMap":11424,"riz":11425,"Ġsimilarly":11426,"Ġviolent":11427,"Ġdemands":11428,"Ġallegedly":11429,"ĠÐ¿":11430,"Ġdismissed":11431,"Ġaccumulation":11432,"ĠPuerto":11433,"Ġelev":11434,"keys":11435,"ĠGi":11436,"aste":11437,"Ġreturning":11438,"who":11439,"Ġmovements":11440,"Ġmutant":11441,"ï¿½":11442,"Ġseverely":11443,"Ġplasmid":11444,"Ġnevertheless":11445,"ĠNietzsche":11446,"cam":11447,"Ġà¤":11448,"ĠSupport":11449,"ĠAut":11450,"Ġinterior":11451,"Ġalgorithms":11452,"Ġcompetitive":11453,"ĠValue":11454,"\"\"":11455,"Ġnotion":11456,"106":11457,"Ġmedication":11458,"textbf":11459,"Ġnucleus":11460,"Ġvotes":11461,"Ġkidney":11462,"ĠIMPLIED":11463,"IX":11464,"à¥":11465,"Ġfilling":11466,"Ġdip":11467,"Ġclause":11468,"FOR":11469,"IAL":11470,"try":11471,"ws":11472,"Ġlin":11473,"Ġproduces":11474,"argo":11475,"Ġliterally":11476,"Ġappropriately":11477,"ĠHarvard":11478,"âľĵâľĵâľĵâľĵâľĵ":11479,"Ġdates":11480,"ĠLow":11481,"Ġ1989":11482,"ĠAndrew":11483,"API":11484,"Ġcrystall":11485,"Ġhypothetical":11486,"Okay":11487,"Ġsatur":11488,"Ġmonthly":11489,"Ġcombine":11490,"ĠMinistry":11491,"Ġgradient":11492,"Parser":11493,"Ġpeptides":11494,"Ġoriented":11495,"ĠOMX":11496,"Ġphylogen":11497,"npm":11498,"Ġmere":11499,"ĠTake":11500,"Ġarc":11501,"ĠTrue":11502,"Ġhoping":11503,"Ġlayout":11504,"Ġgang":11505,"cho":11506,"Ġcomplexes":11507,"Ġpoliticians":11508,"Ġsoldiers":11509,"Ġvillage":11510,"July":11511,"frequency":11512,"kernel":11513,"ĠVegas":11514,"Ġreceipt":11515,"patch":11516,"Ġheating":11517,"()->":11518,"Ġmultip":11519,"Level":11520,"drop":11521,"Ġfasc":11522,"Ġfusion":11523,"Ġdress":11524,"adium":11525,"Ġspons":11526,"Ġsystematic":11527,"ĠAnderson":11528,"fields":11529,"Ġgalaxy":11530,"Ġhockey":11531,"??":11532,"ifting":11533,"Ġrough":11534,"Ġorth":11535,"Ġunconstitutional":11536,"Ġarise":11537,"ocker":11538,"))/":11539,"IGHT":11540,"plete":11541,"rooms":11542,"Entry":11543,"Ġcytoplasm":11544,"ĠPhilippines":11545,"Doc":11546,"Ġhorizontal":11547,"ĊĠĠĠĠĠĠĠĠĠĠĠĠĠĠĠĠĠĠĠĠĠĠĠĠĠĠĠĠĠĠĠĠĠĠĠĠĠĠĠĠĠĠĠĠĠĠĠĠĠĠĠĠĠĠĠĠĠĠĠĠĠĠĠĠĠĠĠĠĠĠĠĠĠĠĠ":11548,"Ġeverybody":11549,"watch":11550,"Ġwet":11551,"ĠGard":11552,"oves":11553,"Ġcylinder":11554,"Ġpertinent":11555,"ĠCreate":11556,"Ġenables":11557,"Ġvalidation":11558,"Ġerred":11559,"Ġwireless":11560,"iol":11561,"ĠĠĠĠĠĠĠĠĠĠĠĠĠĠĠĠĠĠĠĠĠĠĠĠĠĠĠĠ":11562,"ĠVari":11563,"Ġstruggle":11564,"Ġlaptop":11565,"olymer":11566,"Ġpassengers":11567,"Dialog":11568,"Json":11569,"Vari":11570,"Ġcoding":11571,"forms":11572,"Ġcolour":11573,"ymers":11574,"Ġpaths":11575,"Ġlegislative":11576,"Ġflavor":11577,"Ġtyrosine":11578,"Ð¼":11579,"itar":11580,"lean":11581,"Ġ<=":11582,"Ġsnow":11583,"Ġresidual":11584,"Ġvaccine":11585,"Ġdysfunction":11586,"DEFAULT":11587,"kn":11588,"rell":11589,"ĠPE":11590,"Ġrelating":11591,"Ġviolated":11592,"Ġaddresses":11593,"Ġultimate":11594,"Ġdelayed":11595,"Ġratios":11596,"Ġeggs":11597,"NT":11598,"press":11599,"berries":11600,"Ġacceptable":11601,"ĠAbout":11602,"Ġera":11603,"President":11604,"Ġchampion":11605,"TRIBUT":11606,"Ġinstrumental":11607,"201803868":11608,"'\\":11609,"ĠMain":11610,"Ġtopics":11611,"Ġsensors":11612,"Ġinterpreted":11613,"Ġconstantly":11614,"handler":11615,"\"))":11616,"LT":11617,"OO":11618,"pool":11619,"Ġterr":11620,"Ġ135":11621,"Ġspan":11622,"Exec":11623,"==========================================================================================":11624,"Ġstreets":11625,"ĠMuseum":11626,"Perhaps":11627,"tar":11628,"Ġë":11629,"Ġinverse":11630,"Ġ(@":11631,"Ġ1984":11632,"Ġoffensive":11633,"}({\\":11634,"Ġcategor":11635,"Ġidentifying":11636,"ĠFaculty":11637,"DH":11638,"igate":11639,"Ġeffectiveness":11640,"Ġcorporation":11641,"ĠVladimir":11642,"Ġwake":11643,"ĠThank":11644,"Ġaltered":11645,"ĠPres":11646,"Ġjoy":11647,"Ġcloud":11648,"Ġworldwide":11649,"Ġaffects":11650,"Ġintegrity":11651,"Ġparas":11652,"Ġfalling":11653,"iliary":11654,"Dir":11655,"Ġeff":11656,"Ġstuck":11657,"ĠPoint":11658,"formance":11659,"ĠYear":11660,"ĠPatent":11661,"Ġneurological":11662,"ĠLIMITED":11663,"Ġunfortunate":11664,"Match":11665,"Ro":11666,"reh":11667,"Ġreb":11668,"Ġstudying":11669,"Ġequality":11670,"being":11671,"Ċĉĉĉĉĉĉ":11672,"Ġbounds":11673,"ulin":11674,"Ġinterference":11675,"Ġsomebody":11676,"ova":11677,"Google":11678,"Sur":11679,"\\>":11680,"channel":11681,"uming":11682,"ĠBC":11683,"ructure":11684,"Ġframes":11685,"Ġracial":11686,"Ġrhetoric":11687,"bibr":11688,"ĠAh":11689,"Ġ140":11690,"ĠKelly":11691,"Ġdecent":11692,"ÂĹ":11693,"atically":11694,"Ġbic":11695,"pton":11696,"ĠIslamic":11697,"tree":11698,"ĠDar":11699,"Ġ108":11700,"Ġslight":11701,"Ġclosest":11702,"Ġcampus":11703,"Ġtrends":11704,"Ġtouched":11705,"ĠTrilby":11706,"iprofloxacin":11707,"Ġlease":11708,"Ġbless":11709,"Ġfluorescence":11710,"Ġtape":11711,"Ġturb":11712,"ĠDirect":11713,"ĠLead":11714,"Ġpixel":11715,"lipse":11716,"Ġmoisture":11717,"gan":11718,"hot":11719,"Ġpas":11720,"address":11721,"Ġsmile":11722,"Ġdrag":11723,"Enc":11724,"Ġarrangement":11725,"bold":11726,"ĠPur":11727,"=\"../":11728,"spect":11729,"pmatrix":11730,"Ġaccessible":11731,"ĠĠĠĠĠĠĠĠĠĠĠĠĠĠĠĠĠĠĠĠĠĠĠĠĠĠĠĠĠĠĠĠĠĠĠĠĠĠĠĠĠĠĠĠĠĠĠĠĠĠĠĠĠĠĠĠĠĠĠĠĠĠĠĠĠĠĠĠĠĠĠĠĠĠĠĠĠĠĠĠĠĠĠĠĠĠĠĠĠĠĠĠĠĠĠĠĠĠĠĠĠĠĠĠĠĠĠĠĠĠĠĠĠĠĠĠĠĠĠĠĠĠĠĠĠĠĠĠĠĠĠĠĠĠĠĠĠĠĠĠĠĠĠĠĠĠĠĠĠĠĠĠĠĠĠĠĠĠĠĠĠĠĠĠĠĠĠĠĠĠĠĠĠĠĠĠĠĠĠĠĠĠĠĠĠĠĠĠĠĠĠĠĠĠĠĠĠĠĠĠĠĠĠĠĠĠĠĠĠĠĠĠĠĠĠĠĠĠĠĠĠĠĠĠĠĠĠĠĠĠĠĠĠĠĠĠĠĠĠĠ":11732,"journal":11733,"Ġfatigue":11734,"ACKGROUND":11735,"uis":11736,"ĠMah":11737,"Ġimmunity":11738,"Ġabsent":11739,"missible":11740,"Ġimproper":11741,"Ġmounted":11742,"Ġcomprising":11743,"Ġparking":11744,"Ġstrictly":11745,"Ġvegetables":11746,"Come":11747,"Del":11748,"vm":11749,"Ġglo":11750,"Ġinfl":11751,"SET":11752,"Instead":11753,"Ġsciences":11754,"Ġlawmakers":11755,"Ġresponsibilities":11756,"ĠIntelligence":11757,"Ġassemblies":11758,"wall":11759,"ĠCP":11760,"Ġrape":11761,"ĠHon":11762,"Ġ106":11763,"Ġmodules":11764,"Ġlabels":11765,"------------------------------------------------------------------------":11766,"Mesh":11767,"ĠElement":11768,"ĠIndex":11769,"Ġconcrete":11770,"ĠBruce":11771,"ĠLGBT":11772,"Ġinfrared":11773,"ea":11774,"ĠCost":11775,"Ġ-------":11776,"ĠDM":11777,"ĠTurn":11778,"Ġsurge":11779,"Ġextrem":11780,"256":11781,"Ġsuspected":11782,"Ġauthorized":11783,"ĠSeries":11784,"Ġengineering":11785,"Ġeosinoph":11786,"fin":11787,"git":11788,"environment":11789,"analysis":11790,"Ġnotation":11791,"Ġleaf":11792,"derived":11793,"ishes":11794,"117":11795,"Ġprofessor":11796,"Ġdisregard":11797,"Ġmicrobial":11798,"aser":11799,"agger":11800,"ĠBa":11801,"Ġprogramming":11802,"Ġprotective":11803,"Ġmeetings":11804,"ĠCarl":11805,"Ġdebug":11806,"Mc":11807,"javascript":11808,"ĠSa":11809,"ĠDid":11810,"ĠNF":11811,"Ġdiscrete":11812,"Ġangi":11813,"Ġenzymes":11814,"Ġdestruction":11815,"Ġischemic":11816,"ĠNASA":11817,"ĠBuffalo":11818,"Ġelectrophoresis":11819,"1008476":11820,"Ġvarying":11821,"Look":11822,"Ġbands":11823,"acon":11824,"Ġranging":11825,"Ġenjoyed":11826,"Ġinevitable":11827,"ĠBuddh":11828,"Ġ[âĢ¦]":11829,"Ġenriched":11830,"ertificate":11831,"Ġcondemn":11832,"Cs":11833,"CODE":11834,"Http":11835,"RP":11836,"anth":11837,"Ġfung":11838,"Ġvital":11839,"ĠFL":11840,"Ġperf":11841,"uality":11842,"Ġ125":11843,"Ġindication":11844,"Ġautomatic":11845,"Ġodds":11846,"bp":11847,"rect":11848,"Ġchr":11849,"black":11850,"bullet":11851,"Prefix":11852,"UPDATE":11853,"OF":11854,"Ġmesh":11855,"ĠAge":11856,"ĠRequ":11857,"ĠProb":11858,"Ġnations":11859,"ĠThough":11860,"Ġjail":11861,"comment":11862,"Ġdestroyed":11863,"ĠÐ²":11864,"Params":11865,"Ġreversed":11866,"Ġfacilitate":11867,"ĠReference":11868,"NET":11869,"language":11870,"orse":11871,"ĠGre":11872,"Ġfrequencies":11873,"Ġcoordinate":11874,"Ġoxide":11875,"Reader":11876,"xt":11877,"ĠĊĠĠĠĠĠĠĠ":11878,"oned":11879,"Ġlunch":11880,"osomal":11881,"Ġproceeding":11882,"Ġappreciate":11883,"Ġflesh":11884,"Ġglobally":11885,"adjusted":11886,"Ġspherical":11887,"Ġechocardi":11888,",$":11889,"Ste":11890,"email":11891,"ĠChampionship":11892,"Ġdifficulties":11893,"Ġlimitation":11894,"Ġmaximal":11895,"Ġdrawing":11896,"Ġgorgeous":11897,"aryngeal":11898,"ĠOrthodox":11899,"cond":11900,"irus":11901,"ĠConsequently":11902,"Engine":11903,"Ġluxury":11904,"Title":11905,"gp":11906,"iy":11907,"install":11908,"iano":11909,"Ġinvestigations":11910,"Ġdamaged":11911,"BT":11912,"Main":11913,"[$":11914,"\\}$":11915,"inct":11916,"sts":11917,"irth":11918,"ĠMiss":11919,"ĠPass":11920,"Ġending":11921,"Ġreflected":11922,"Ġfunny":11923,"Ġangular":11924,"represent":11925,"ĠChairman":11926,"Ġformulas":11927,"ĠANOVA":11928,"Ġsacrifice":11929,"dp":11930,"uated":11931,"adder":11932,"ĠMir":11933,"Ġrub":11934,"ogens":11935,"Ġteeth":11936,"Ġearned":11937,"energy":11938,"Ġsupers":11939,"ĠPlaintiffs":11940,"April":11941,"Ġdosage":11942,"Ġadministrator":11943,"Ġerroneous":11944,"119":11945,"HD":11946,"SER":11947,"gov":11948,"Ġbunch":11949,"Ġda":11950,"Ġ$\\{":11951,"amente":11952,".).":11953,"PRE":11954,"dest":11955,"each":11956,"Ġ(%)":11957,"ĠExper":11958,"ĠDoctor":11959,"THE":11960,"ĠfibM":11961,"Ġappointed":11962,"ï»¿":11963,"Ġrose":11964,"ennis":11965,"cmd":11966,"diff":11967,"ĠLar":11968,"Ġspecify":11969,"Ġnormalized":11970,"Ġchecking":11971,"docs":11972,"ĠHepat":11973,"Ġassembled":11974,"smallcaps":11975,"Ġteaspoons":11976,"ĠAbbVie":11977,".),":11978,"cache":11979,"iest":11980,"pgen":11981,"Ġbid":11982,"Ġsees":11983,"Ġages":11984,"]{}]{}":11985,"criptor":11986,"Ġretain":11987,"Ġsubjected":11988,"SK":11989,"Ġip":11990,"Ġ118":11991,"ĠFA":11992,"illary":11993,"Ġdecor":11994,"Ġcovers":11995,"Ġestimation":11996,"Ġpromising":11997,"Ġobjection":11998,"Ġsampled":11999,"Ġprosper":12000,"ĠJenkins":12001,"Ġharassment":12002,"Auth":12003,"Has":12004,"dated":12005,"ĠCF":12006,"oving":12007,"Ġcycles":12008,"Impl":12009,"ĠHampshire":12010,"lers":12011,"}%":12012,"ĶâĢ":12013,"Ġdegener":12014,"ĠNode":12015,"trl":12016,"token":12017,"Ġshopping":12018,"Ġhesit":12019,"*(-":12020,"lower":12021,"|^":12022,"iser":12023,"Ġstone":12024,"ĠWild":12025,"Ġscales":12026,"Ġ103":12027,"Ġ109":12028,"Ġattitude":12029,"Ġbreach":12030,"ViewController":12031,"Ġdesigns":12032,">.":12033,"^)":12034,"roy":12035,"ĠFC":12036,"Ġprofessionals":12037,"ĠAgency":12038,"************************************************************************":12039,"Ġcryptocur":12040,"Ġquestionnaires":12041,"ĠMelbourne":12042,"Ġdiaphragm":12043,"istance":12044,"ĠDem":12045,"Ġpsychological":12046,"ogenous":12047,"Ġaudio":12048,"Miss":12049,"uration":12050,"ologists":12051,"Ġphenotype":12052,"Ġcake":12053,"Ġ{@":12054,"Ġovernight":12055,"Ġrepeatedly":12056,"Ġtolerance":12057,"Ġna":12058,"Ġ132":12059,"ĠOct":12060,"1997":12061,"genic":12062,"delete":12063,"Ġcreative":12064,"Ġugly":12065,"Ġcommerce":12066,"Ġdozens":12067,"Ġprevalent":12068,"Ġretrieve":12069,"ĠMedicaid":12070,"ulator":12071,"fileID":12072,"Ġlesion":12073,"Ġeliminate":12074,"Ġconjug":12075,"ĠSon":12076,"Ġdefensive":12077,"United":12078,"Ġvoted":12079,"trivial":12080,"Ġsiblings":12081,"ãĤŃãĥ£ãĥ©ãĤ¯ãĤ¿ãĥ¼ãĥĩãĤ¶ãĤ¤ãĥ³":12082,"methyl":12083,"Ġalignment":12084,"ĠGR":12085,"Ġscoring":12086,"Ġ1985":12087,"Ġpreventing":12088,"Ġvoting":12089,"ĠSn":12090,"gex":12091,"Ġexplos":12092,"ĠMitchell":12093,"Ġseventh":12094,"Ġoverseas":12095,"Ġreflux":12096,"!)":12097,"TG":12098,"Ġconvey":12099,"ĠLove":12100,"cli":12101,"ĠWeek":12102,"ugg":12103,"ĠStudy":12104,"ĠManhattan":12105,"USE":12106,"ht":12107,"Ġbull":12108,"Ġmom":12109,"usc":12110,"Ġru":12111,"ante":12112,"encia":12113,"ĠÂ°":12114,"aptic":12115,"Iterator":12116,"Ġellip":12117,"Ġpylori":12118,"Ġcompassion":12119,"ensitivity":12120,"ãģ£ãģ":12121,"!\\":12122,"JS":12123,"Ġtone":12124,"elt":12125,"ĠRa":12126,"Ġharvest":12127,"\"));":12128,"Ġfalls":12129,"tikz":12130,"Ġvapor":12131,"ĠAlternatively":12132,"ĠBeijing":12133,"atopoietic":12134,"ĠMediterranean":12135,"Ġtun":12136,"olly":12137,"ĠCC":12138,"antly":12139,"Ġscaling":12140,"Ġdenotes":12141,"Ġrooms":12142,"inch":12143,"Ġtender":12144,"Ġinjected":12145,"Ġforever":12146,"Ġexhibited":12147,"ĠSingh":12148,"NE":12149,"session":12150,"onomic":12151,"ami":12152,"Ġdeals":12153,"ĠLuc":12154,"Ġphases":12155,"Ġqueue":12156,"Ġphysically":12157,"Ġaims":12158,"ĠNorwegian":12159,"Make":12160,"border":12161,"zi":12162,"Ġlys":12163,"144":12164,"notation":12165,"Ġrandomly":12166,"CHAR":12167,"ĠSurgery":12168,"Ġtact":12169,"Ġboss":12170,"Ġshorter":12171,"Ġgenerator":12172,"component":12173,"Ġlaid":12174,"Ġutilized":12175,"Have":12176,"Ġcraft":12177,"Ġpython":12178,"Ġgiant":12179,"ĠFair":12180,"ĠDR":12181,"Ġimper":12182,"away":12183,"Ġstrange":12184,"Grid":12185,"primary":12186,"Ġstakeholders":12187,"VM":12188,"~)":12189,"Ġli":12190,"documentclass":12191,"Ġlean":12192,"Ġadmit":12193,"Ġ''":12194,"118":12195,"Ġrabbit":12196,"Ġdebris":12197,"Ġmystery":12198,"ĠOrleans":12199,"Position":12200,"supp":12201,"}}$,":12202,"imon":12203,"ĠFBI":12204,"Ġputs":12205,"Ġpropose":12206,"Ġinevitably":12207,"Support":12208,"opes":12209,"ĠMun":12210,"aping":12211,"Ġroots":12212,"echo":12213,"Module":12214,"Ġbatteries":12215,"210":12216,"pb":12217,"uid":12218,"yard":12219,"Â½":12220,"acker":12221,"Ġfriendly":12222,"Ġsentencing":12223,"ãĤ¢ãĥĭãĥ¡":12224,"VP":12225,"olving":12226,"Ġfavorable":12227,"Editor":12228,"Ġtalent":12229,"Ġligand":12230,"Ġfraudulent":12231,"ĠKaepernick":12232,"Aut":12233,"iffer":12234,"126":12235,"Ġincorrect":12236,"ĠExample":12237,"Ġskill":12238,"Ġinserted":12239,"Dig":12240,"las":12241,"0018":12242,"Ġcontin":12243,"Ġ[$":12244,"Ġdisabled":12245,"Ġfocusing":12246,"Background":12247,"Ġreimburs":12248,"ĠFestival":12249,"Write":12250,"inates":12251,"arma":12252,"Ġjs":12253,"115":12254,"050":12255,"WD":12256,"deg":12257,"send":12258,"sample":12259,"olk":12260,"ĠBal":12261,"ĠRA":12262,"ĠJSON":12263,"figure":12264,"ĠIntroduction":12265,"Ġlabeled":12266,"Activity":12267,"Ġtonight":12268,"plugins":12269,"Ġhorrible":12270,"Ant":12271,"oups":12272,"Ġhide":12273,"ĠRather":12274,"aki":12275,"Ġkg":12276,"Ġtea":12277,"Hello":12278,"eh":12279,"ĠSA":12280,"ĠCOL":12281,"Ġmodeling":12282,"(){":12283,"Ġsubsid":12284,"Ġkilomet":12285,"Ġinfarction":12286,"Ġdisappeared":12287,"ĠTurkish":12288,"Ġquasipart":12289,"ĠâĻª\"":12290,"Ġobstacles":12291,"Ġmat":12292,"ĠProp":12293,"closure":12294,"Ġgrass":12295,"Ġattributed":12296,"Ġoccurring":12297,"patient":12298,"=\"../../../../":12299,"Created":12300,"\\;":12301,"Ġconstr":12302,"ĠHard":12303,"ĠRub":12304,"Three":12305,"Ġsilver":12306,"Western":12307,"Ġbeneath":12308,"2040620719882822":12309,"ĊĊĠĠĠĠĠĠĠĠĠĠĠĠĠĠĠĠĠĠĠĠĠĠĠĠĠĠĠĠĠĠ":12310,"Ġsystemic":12311,"Ġobtaining":12312,"okes":12313,"255":12314,"cipl":12315,"Ġaffecting":12316,"aska":12317,"Show":12318,"Ġinspired":12319,"Ġtemporal":12320,"ĠBrooklyn":12321,"-*":12322,"atile":12323,"Ġfits":12324,"Ġclamp":12325,"Ġyeah":12326,"Ġtexture":12327,"Ġobstruction":12328,"orandum":12329,"Ġnodded":12330,"pragma":12331,"137":12332,"Ġdescribing":12333,"Ġlights":12334,"apsed":12335,"Ãª":12336,"čĊĠĠĠĠĠĠĠĠĠĠĠĠĠĠĠ":12337,"Ġstations":12338,"Ġprojection":12339,"Ġprocessor":12340,"Ġdeeply":12341,"Ġholidays":12342,"ascii":12343,"ĠSwedish":12344,"ĠZimbabwe":12345,"Ġperspectives":12346,"custom":12347,"uber":12348,"Ġpa":12349,"Ġ01":12350,"ĠProcess":12351,"Ġaccurately":12352,"Ġrarely":12353,"ĠMatt":12354,"1996":12355,"Ġabstract":12356,"Ġindices":12357,"shift":12358,"blue":12359,"}^*":12360,"Ġdefinitions":12361,"Edit":12362,"Ġthyroid":12363,"Names":12364,"Ġ('":12365,"ĠTa":12366,"Ġfactory":12367,"Ġexecute":12368,"gin":12369,"pur":12370,"ĠRound":12371,"Ġattended":12372,"oking":12373,"Ġantigen":12374,"ĠUnfortunately":12375,"Ġtransitions":12376,"ĠProgramm":12377,"uce":12378,"abstract":12379,"Ġ\\+":12380,"Ġdisput":12381,"Stack":12382,"Ġdonor":12383,"Ġparse":12384,"Ġhardly":12385,"Tree":12386,"bind":12387,"idity":12388,"anti":12389,"ĠKen":12390,"Ġ::":12391,"attribute":12392,"Ġsmoke":12393,"Ġpotatoes":12394,"orable":12395,"Ġgained":12396,"ĠSym":12397,"Ġbyte":12398,"Ġleuk":12399,"Ġappend":12400,"Ġvariant":12401,"Ġinsight":12402,"Ġsalary":12403,"UNT":12404,"GP":12405,"UV":12406,"bn":12407,"days":12408,"orous":12409,"Ġhy":12410,"Ġpanels":12411,"rophy":12412,"ĠMurphy":12413,"replace":12414,"ĠThird":12415,"Ġmanual":12416,"ĠIsraeli":12417,"700":12418,"hour":12419,"Ġtall":12420,"Ġele":12421,"ĠSat":12422,"ĠServer":12423,"Ġrecovered":12424,"Ġshelter":12425,"Ġpenalties":12426,"AAAAAAAAAAAAAAAAAAAAAAAAAAAAAAAAAAAAAAAAAAAAAAAAAAAAAAAAAAAAABBBBBBBBBBBBBCCCCCCCCCCCCCCCCCDDDDDDDDDDDDDDDDDDDDDDDDEEEEEEEEEEEEEEEEEEEEEEEEEEEEEEEEEEEEEEEEEEEEEEEEEEEEFFFFFFGGGGGGGGGGGGGGGGGGGGHHHHHHHHHHHHHHHHHHHHIIIIIIIIIIIIIIIIIIIIIIIIIIIIIIIIIIIJJJJJJKKKKKKKKKKKKKKLLLLLLLLLLLLLLLLLLLLLLLLLLMMMMMMMMMNNNNNNNNNNNNNNNNNNNNNNNNNNNOOOOOOOOOOOOOOOOOOOOOOOOOOOOOOOOOOOOOOOOOOOOOOOOOOOOOOOOOOOOOOOOOOOOOOOOOOOPPPPPPPPQQQRRRRRRRRRRRRRRRRRRRRRRRSSSSSSSSSSSSSSSSSSSSSSSTTTTTTTTTTTTTTTTTTTTTTTTTUUUUUUUUUUUUUUUUUUUUUUUUUUUUUUUUUUUUUUUUUUUUUUUUUUUUUUUUUUUUUUVVVVVVVVWWWWWWWWWWWWWWWXXXXXXYYYYYYYYYYYYYYYYYYYYYYYZZZZZZZZZZZZZZZZZZZZZ":12427,"ario":12428,"ĠRich":12429,"riving":12430,"Ġmanufacturer":12431,"Ġ![":12432,"ummy":12433,"Ġshots":12434,"ĠGL":12435,"because":12436,"ĠClearly":12437,"Ġlemma":12438,"ĠLorentz":12439,"Ġunacceptable":12440,"1744806918781259":12441,"~*":12442,"ĠAB":12443,"ĠDB":12444,"izable":12445,"Ġroof":12446,"rench":12447,"Expr":12448,"Ġexpectation":12449,"ĠTHIS":12450,"Ġignored":12451,"etter":12452,"illy":12453,"Ġ+\\":12454,"Ġdevelopers":12455,"grid":12456,"Ġreadily":12457,"ĠBrad":12458,"Ġsoccer":12459,"Ġdessert":12460,"ĠAIDS":12461,"ĠRowBox":12462,"Ġintimid":12463,",{\\":12464,"may":12465,"Ġbenz":12466,"Ġactor":12467,"Ġantagon":12468,"Ġmuscles":12469,"Ġprosecutor":12470,"Entity":12471,">();":12472,"Author":12473,"omial":12474,"ĠLim":12475,"Ġtracking":12476,"held":12477,"IFLA":12478,"ĠNATO":12479,"Ġincent":12480,"Ġhang":12481,"also":12482,"ĠÂ»":12483,"Ġcorrelations":12484,"Ġarranged":12485,"[[":12486,"ĠAsh":12487,"Ġrid":12488,"ocon":12489,"109":12490,"Ġamended":12491,"Ġblow":12492,"Ġsnap":12493,"Ġdeviations":12494,"ĠarXiv":12495,"Ġundesirable":12496,".*]{}":12497,"menu":12498,"Ġ,\\":12499,"amd":12500,"ĠTri":12501,"Ġelectrons":12502,"Express":12503,"rank":12504,"widget":12505,"ĠHay":12506,"eway":12507,"Ġtransportation":12508,"Ġlapar":12509,"Ġstimulated":12510,"Ġovarian":12511,"oglobin":12512,"Insert":12513,"NM":12514,"zy":12515,"Ġreject":12516,"Ġplates":12517,"Ġfibers":12518,"Access":12519,"Jo":12520,"mult":12521,"Ġtel":12522,"ĠTax":12523,"Ġunlike":12524,"ĠProduct":12525,"Ġartist":12526,"ĠPolit":12527,"Ġaugment":12528,"ĠTbsp":12529,"Ġpreparations":12530,"Ġquarters":12531,"binding":12532,"round":12533,"}'":12534,"čĊĠĠĠĠ":12535,"Ġble":12536,"Ġcancel":12537,"Ġanswered":12538,"Ġvisits":12539,"Ġfitness":12540,"WE":12541,"Ïģ":12542,"ĠME":12543,"Ġ\\#":12544,"ogram":12545,"Ġadopt":12546,"Ġslices":12547,"haus":12548,"Ġattractive":12549,"Ġvelocities":12550,"TrcFlag":12551,"Ġschizophren":12552,"âĢĭâĢĭâĢĭâĢĭâĢĭâĢĭâĢĭâĢĭâĢĭâĢĭâĢĭâĢĭ":12553,"045":12554,"Ġpm":12555,"ĠML":12556,"ĠHa":12557,"ensing":12558,"raham":12559,"Ġ128":12560,"Ġcombat":12561,"Ġsearching":12562,"Ġpeaks":12563,"bolic":12564,"Ġmock":12565,"ĠAz":12566,"ĠBell":12567,"_{-":12568,"appy":12569,"Ġcombinations":12570,"Ġchildhood":12571,"ĠDesign":12572,"Ġstromal":12573,"rencies":12574,"Ġcombustion":12575,"Ġanniversary":12576,"Ġdescriptions":12577,"Font":12578,"{$\\":12579,"Ġ134":12580,"ĠHistory":12581,"ĠLev":12582,"Ġdoors":12583,"CRE":12584,"Ġinstallation":12585,"Ġhopes":12586,"bottleneck":12587,"čĊĉĉĉĉ":12588,"Ġdehydr":12589,"ĊĠĠĠĠĠĠĠĠĠĠĠĠĠĠĠĠĠĠĠĠĠĠĠĠĠ":12590,"Ġsole":12591,"Ġphones":12592,"Ġmini":12593,"ĠGrant":12594,"ĠNorthern":12595,"Ġknife":12596,"Ġadapted":12597,"Ġprojections":12598,"Ġchaos":12599,"Ġchunks":12600,"Ġnod":12601,"acher":12602,"Ġnobody":12603,"ĊĊĊĊĊ":12604,"Ġdenying":12605,"Hi":12606,"worth":12607,"Ġnit":12608,"amil":12609,"Ġquot":12610,"Ġexciting":12611,"Ġillustrated":12612,"ĠGuard":12613,"Ġinequalities":12614,"Ġhorses":12615,"Ġamygd":12616,"Ġincurred":12617,")}*+":12618,"Ġredistribute":12619,"ĠAlzheimer":12620,"ĠGlasgow":12621,"fake":12622,"Ġsaving":12623,"omed":12624,"ĠFlo":12625,"Ġhadn":12626,"olding":12627,"ĠĠĠĠĠĠĠĠĠĠĠĠĠĠĠĠĠĠĠĠĠĠĠĠĠĠĠĠĠĠĠĠĠĠ":12628,"Ġtransparent":12629,"Ġconstants":12630,"Ġpublicly":12631,"Ġdeclined":12632,"cycl":12633,"ĠEnvironment":12634,"ä¸Ģ":12635,"Ġdestination":12636,"DER":12637,"Ġum":12638,"Ġwing":12639,"ĠMeg":12640,"Ġsizeof":12641,"Ġchoosing":12642,"Welcome":12643,"@\"":12644,"Ġsink":12645,"arse":12646,"iley":12647,"Ġ1983":12648,"Ġnonlinear":12649,"240":12650,"Users":12651,"Ġreflects":12652,"Ġinline":12653,"ĠThrough":12654,"Ġproph":12655,"ĠTNF":12656,"Ġtrig":12657,"Ġdipl":12658,"ĠReact":12659,"Ġcomputers":12660,"Ġblocked":12661,"Ġprogressive":12662,"licenses":12663,"Equals":12664,"Ġisolation":12665,"Ġprotesters":12666,"Ġsimultaneous":12667,"ĠPrimary":12668,"Ca":12669,"zed":12670,"ìĿ":12671,"Ġ$.":12672,"resource":12673,"ialize":12674,"Ġregulated":12675,"shell":12676,"Ã©e":12677,"Ġrendered":12678,"MAX":12679,"Values":12680,"Ġdescending":12681,"Ang":12682,"NG":12683,"ĠMen":12684,"ĠRelations":12685,"Ġsidew":12686,"lysis":12687,"ĠCraig":12688,"ĠCleveland":12689,"ĠNetflix":12690,"ĠCongressional":12691,"Advertisement":12692,"ĠMontgomery":12693,"ĠSacramento":12694,"FE":12695,"save":12696,"Ġ\"/":12697,"Ġshapes":12698,"ĠNA":12699,"Ġpermissions":12700,"ORY":12701,"Ġvisited":12702,"Ġsuspension":12703,"Ġsupplied":12704,"Ġrip":12705,"Ġbab":12706,"ĠPI":12707,"ĠGreek":12708,"Ġjunction":12709,"Ġvaried":12710,"ounce":12711,"Ġprinting":12712,"BEGIN":12713,"Ġpockets":12714,"Ġfermion":12715,"ĠUntil":12716,"ĠReuters":12717,"GM":12718,"uer":12719,"rent":12720,"isp":12721,"Ġhits":12722,"stage":12723,"Ġ07":12724,"angel":12725,"}}}(":12726,"Ġ107":12727,"ometer":12728,"Ġaggressive":12729,"Ġdietary":12730,"Ġsurvive":12731,"Ġblo":12732,"ĠSK":12733,"ĠBio":12734,"ĠGC":12735,"Ġkm":12736,"Ġkit":12737,"Ġdifferently":12738,"Ġprogramme":12739,"ĠWithout":12740,"ĠQuant":12741,"Ġswitching":12742,"circle":12743,"ĠHousing":12744,"Ġantioxidant":12745,"Ġroutinely":12746,"Ġbilirubin":12747,"ĠHausdorff":12748,"Î¸":12749,"ĠHave":12750,"ĊĉĠ":12751,"Ġbaseball":12752,"ĠSystems":12753,"Ġimmigration":12754,"Ġsupplies":12755,"/.":12756,"Task":12757,"arious":12758,"Ġdoses":12759,"Ġbonds":12760,"respond":12761,"Ġbeside":12762,"Ġcontaminated":12763,"Ġemerge":12764,"ĠPoisson":12765,"Ġdehydrogenase":12766,"SF":12767,"Ġhat":12768,"ĠDue":12769,"andy":12770,"ĠKat":12771,"114":12772,"ikes":12773,"Ġelectrodes":12774,"Ġmagic":12775,"Ġbird":12776,"rose":12777,"ĠMess":12778,"izers":12779,"phen":12780,"ĊĠĠĠĠĠĠĠĠĠĠĠĠĠĠĠĠĠĠĠĠ":12781,"âĪŀ":12782,"Ġdisplays":12783,"Ġfestival":12784,"aque":12785,"Ġoste":12786,"screen":12787,"ĠIndust":12788,"Ġcomplaints":12789,"ĠAdditional":12790,"ĠImages":12791,"Ġconcepts":12792,"VvCYP":12793,"cadherin":12794,"?)":12795,"ILE":12796,"Ġsatisfaction":12797,"Ġreasoning":12798,"ĠDefense":12799,"Ġinfluenced":12800,"ĠLearning":12801,"éĢ":12802,"Ġ136":12803,"Ġperception":12804,"1995":12805,"short":12806,"ĠPlace":12807,"Parameter":12808,"eno":12809,"Ġwedding":12810,"isen":12811,"ĠPrior":12812,"âĢĻ.":12813,"Stud":12814,"Ġconfident":12815,"Ġparticipated":12816,"Ġraising":12817,"Ġtoxicity":12818,"Sometimes":12819,"Ġdropping":12820,"ĠFreedom":12821,"Rule":12822,"Ġattempting":12823,"Ġquantities":12824,"Ġwondering":12825,"green":12826,"Ġundefined":12827,"ĠHead":12828,"Ġblocking":12829,"Ġpneum":12830,"Ġfertil":12831,"Ġbubble":12832,"Ġtokens":12833,"ĠHitler":12834,"Ġamplitudes":12835,"Ġvoluntarily":12836,"coll":12837,"wx":12838,"Ġlying":12839,"irk":12840,"Ġrs":12841,"antic":12842,"013":12843,"aware":12844,"medi":12845,"Ġpromoting":12846,"Ġmellitus":12847,"oxobutanoate":12848,"$).":12849,"Bytes":12850,"km":12851,"Ġsew":12852,"Ġbatt":12853,"ĠÂ¶":12854,"Ġrandomized":12855,"Ġweights":12856,"Ġinputs":12857,"Ġcotton":12858,"encephal":12859,"Ġcolleges":12860,"NdrFcShort":12861,")_{":12862,"DK":12863,"vy":12864,"ĠmL":12865,"Ġmath":12866,"Ġease":12867,"Ġanal":12868,"ĠGames":12869,"activity":12870,"Ġbrush":12871,"ĠProperty":12872,"season":12873,"ĠDocument":12874,"Ġshipping":12875,"Ġtransmitted":12876,"Ġtransactions":12877,"135":12878,"minimal":12879,"Ġcultured":12880,"Ġeryth":12881,"Ġolfactory":12882,"itoneal":12883,"Ġhungry":12884,"clinical":12885,"Ġexponent":12886,"Ġendeav":12887,"bc":12888,"four":12889,"Ġions":12890,"Ġinduces":12891,"oping":12892,"Ġ\\|":12893,"========":12894,"Ġbeliefs":12895,"}}$.":12896,"emale":12897,"ĠWat":12898,"012":12899,"Ġ1987":12900,"parison":12901,"Ġuniquely":12902,"rig":12903,"Ġregarded":12904,"Ġsilicon":12905,"Ġbizarre":12906,"ĠTherapy":12907,"Ġphosphorylated":12908,"utils":12909,"ĠMaster":12910,"ĠResource":12911,"Ġdeeper":12912,"Ġtreating":12913,"à¯į":12914,"Ġmelanoma":12915,"'+":12916,"Ġbaking":12917,"ifiers":12918,"ĠDiv":12919,"ĠOUT":12920,"Ġresidence":12921,"131":12922,"Ġdenoted":12923,"TABLE":12924,"Ġcub":12925,"Ġfif":12926,"iden":12927,"agent":12928,"ĠFeb":12929,"Ġmembership":12930,"Ġangry":12931,"queue":12932,"Ġwrites":12933,"Ġmountain":12934,"ĠSanta":12935,"mysql":12936,"arcoma":12937,"Ġtoilet":12938,"ĠWagner":12939,"Ġmerchandise":12940,"Ġhelicopter":12941,"Ġpill":12942,"area":12943,"Ġenact":12944,"Ġundergo":12945,"Ġprinted":12946,"Document":12947,"xc":12948,"Ġhint":12949,"Ġpreference":12950,"ĊĠĠĠĠĠĠĠĠĠĠĠĠĠĠĠĠ":12951,"Ġparticipating":12952,"Ġpersu":12953,"Ġharder":12954,"Ġduplic":12955,"Ġminority":12956,"Ġresistant":12957,"Î¹Î":12958,"ĠLiberal":12959,"Ġgrocery":12960,"}[":12961,"enum":12962,"Ġ\\-":12963,"Ġhealing":12964,"athy":12965,"Ġinvited":12966,"Ġrecipes":12967,"HTML":12968,"Ġassociations":12969,"Ġcinnamon":12970,"tk":12971,"Ġstent":12972,"aya":12973,"Ġcontest":12974,"Ġinterfer":12975,"Ġ1986":12976,"ĠComb":12977,"ĠBelfast":12978,"Ġpocket":12979,"ĠSir":12980,"Ġunexpected":12981,"Ġintense":12982,"133":12983,"Ġlimiting":12984,"Ġdimin":12985,"rical":12986,"Ġtur":12987,"ĠSF":12988,"aga":12989,"ĠFisher":12990,"Ġtransit":12991,"113":12992,"riting":12993,"Ġeveryday":12994,"Ġfract":12995,"Ġadjustment":12996,"pntd":12997,"ĠðŁ":12998,"Ġcarbohydr":12999,"Ġsupernat":13000,"ĠParticipants":13001,"Ġundisputed":13002,"Ġcry":13003,"phosph":13004,"Ġclosure":13005,"ĠChild":13006,"prob":13007,"Ġfounded":13008,"Ġpredictions":13009,"ĠExpression":13010,"enable":13011,"Ġdur":13012,"ĠJun":13013,"Ġdefect":13014,"Ġselective":13015,"connected":13016,"Ġprospect":13017,"sensors":13018,"[\\*](#":13019,"ĠVillage":13020,"unnumbered":13021,"Her":13022,"lay":13023,"rb":13024,"Ġgest":13025,"opol":13026,"Ġ\",":13027,"Ġpray":13028,"etheless":13029,"ilibrium":13030,"ĠJeremy":13031,"ĠQUESTION":13032,"uity":13033,"aco":13034,"ĠPriv":13035,"Ġsecured":13036,"Example":13037,"Ġsouthern":13038,"Ġliked":13039,"youtube":13040,"ĠâĤ¬":13041,"Ġcredentials":13042,"Gen":13043,"Ġloud":13044,"ĠSort":13045,"ĠFat":13046,"Ġreveals":13047,"ĠNavy":13048,"Ġtension":13049,"standard":13050,"admin":13051,"Ġvariability":13052,"domain":13053,"Ġmatched":13054,"Ġreconstruction":13055,"unsigned":13056,"Ġconjecture":13057,"Ġalumni":13058,"Ġentanglement":13059,"ĠINTRODUCTION":13060,"Ð¿Ð¿Ð¿Ð¿Ð¿Ð¿Ð¿Ð¿Ð¿Ð¿Ð¿Ð¿Ð¿Ð¿Ð¿Ð¿Ð¿Ð¿Ð¿Ð¿":13061,"hang":13062,"ols":13063,"ĠAward":13064,"ĠMP":13065,"ĠPython":13066,"Ġune":13067,"Ġdefend":13068,"ĠĠĠĠĠĠĠĠĠĠĠĠĠĠĠĠĠĠĠĠĠĠĠĠĠĠĠĠĠĠĠĠ":13069,"Ġcoat":13070,"Ġequipped":13071,"joint":13072,"nn":13073,"ĠPack":13074,"ĠGOP":13075,"ĠOw":13076,"icket":13077,"124":13078,"Ġrifle":13079,"ĠTODO":13080,"ĠStewart":13081,"ãĤ·ãĥ":13082,"/-":13083,"Ver":13084,"je":13085,"utors":13086,"Ġbearing":13087,"Ġanger":13088,"ĠLA":13089,"Ġexport":13090,"Ġguest":13091,"ĠUnless":13092,"reme":13093,"Ġtemp":13094,"Ġinterviews":13095,"ĠTivahr":13096,"PER":13097,"don":13098,"ĠFall":13099,"Ġ1981":13100,"apper":13101,"Ġenvironments":13102,"ĠSpe":13103,"Ġsuspended":13104,"Ġmagnet":13105,"Ġdesperate":13106,"Ġheritage":13107,"Ġextinction":13108,"AddRtAttr":13109,"âĸĶâĸĶâĸĶâĸĶâĸĶâĸĶâĸĶâĸĶâĸĶâĸĶâĸĶâĸĶâĸĶâĸĶâĸĶâĸĶâĸĶâĸĶâĸĶâĸĶâĸĶâĸĶâĸĶâĸĶ":13110,"aire":13111,"oco":13112,"ĠES":13113,"ĠPrice":13114,"Ġultr":13115,"Ġphilosophy":13116,"execute":13117,"Maybe":13118,"-$":13119,":</":13120,"=>":13121,"Gastroenterology":13122,"Ġtied":13123,"Ġ02":13124,"Ġdefining":13125,"Ġregulate":13126,"Ġestablishing":13127,"Common":13128,"Ġpromotion":13129,"Unit":13130,"ĠAccess":13131,"Ġmirror":13132,"00978":13133,"Ġpermeability":13134,"Ġtaxpayer":13135,"ĠSeyfert":13136,"Rect":13137,"dm":13138,"dash":13139,"Ãł":13140,"ĠPot":13141,"overrightarrow":13142,"Ġbehaviors":13143,"Ġdiscount":13144,"Ġengagement":13145,"auto":13146,"ĠSTAT":13147,"vn":13148,"Ġpending":13149,"aron":13150,"Ġthirty":13151,"Ġnamespace":13152,"Ġplacement":13153,"Ġasset":13154,"Ġblame":13155,"Ġprobable":13156,"ĠInterestingly":13157,"pulse":13158,"Ġexterior":13159,"Ġrocks":13160,"ĠChristopher":13161,"Ġlongevity":13162,"ASHINGTON":13163,"320":13164,"gly":13165,"onomy":13166,"Ġdent":13167,"irl":13168,"words":13169,"Ġpointer":13170,"Ġimplicit":13171,"Ġolig":13172,"=-":13173,"Layer":13174,"ele":13175,"Ġren":13176,"stand":13177,"ĠImp":13178,"ĠInternal":13179,"ĠAppl":13180,"Ġplacebo":13181,"clear":13182,"btn":13183,"Ġtimely":13184,"Ġproportions":13185,"ĠPharmaceuticals":13186,"Ġgarbage":13187,"ç±»åŀĭ":13188,"kind":13189,"mal":13190,"inv":13191,"eled":13192,"ados":13193,"Ġconcur":13194,"agment":13195,"ĠNE":13196,"asted":13197,"Ġintens":13198,"obacter":13199,"Ġendoscopy":13200,"Ġbike":13201,"Ġcookies":13202,"Ġproportional":13203,"Ġpremium":13204,"LV":13205,"Ġtired":13206,"aton":13207,"Ġgraft":13208,"Ġimpaired":13209,"Ġarising":13210,"Ġentities":13211,"rett":13212,"Step":13213,"entially":13214,"Ġphysiological":13215,"Ġprolifer":13216,"ĠszÃ³tag":13217,"Ġvulnerability":13218,"Ġsubscriber":13219,"ButterKnifeProcessor":13220,"member":13221,"Ġtill":13222,"Ġwages":13223,"urg":13224,"agic":13225,"Ġspray":13226,"Ġ{\"":13227,"ATED":13228,"Ġextending":13229,"Christ":13230,"Ġ>>":13231,"Ġpushing":13232,"aro":13233,"ĠOs":13234,"Ġjustify":13235,"ools":13236,"Ġbills":13237,"Ġguns":13238,"Ġpotent":13239,"Ġfantasy":13240,"Ġseizure":13241,"Session":13242,"Take":13243,"Ġ------------------------------------------------------------------------------------------------":13244,"Ġtweet":13245,"Ġhex":13246,"Ġtrim":13247,"0164222":13248,"Ġdiarrhea":13249,"Symbiodinium":13250,"BF":13251,"Bank":13252,"jud":13253,"works":13254,"è¡":13255,"Ġpounds":13256,"Ġsphere":13257,"017":13258,"Ġdeveloper":13259,"Ġguests":13260,"party":13261,"Ġconvincing":13262,"Eff":13263,"Head":13264,"Ġdating":13265,"rob":13266,"ĠTitle":13267,"arts":13268,"Ġseats":13269,"achine":13270,"Ġcarriers":13271,"echan":13272,"Ġexpressing":13273,"Ġthreatened":13274,"PF":13275,"[**":13276,"atar":13277,"Ġdies":13278,"ĠStill":13279,"Ġ}}":13280,"Ġtransient":13281,"():":13282,"Ġchallenged":13283,"ĠGraph":13284,"Ġparticipant":13285,"ĠBeach":13286,"clusions":13287,"September":13288,"olerance":13289,"Internet":13290,"Ġgenuinely":13291,"global":13292,"åĬ":13293,"ĠSem":13294,"Ġresident":13295,"Ġbreaks":13296,"Ġclinic":13297,"Ġlikes":13298,"({{\\":13299,"MAP":13300,"move":13301,"ĠTM":13302,"ancies":13303,"Ġacceptance":13304,"Ġmethylation":13305,"Facebook":13306,"ĠSamsung":13307,"Ġexchanges":13308,"Ġantigens":13309,"Met":13310,"atum":13311,"three":13312,"ĠHas":13313,"Ġshoes":13314,"ĠRay":13315,"ĠOp":13316,"asts":13317,"Ġsupporters":13318,"Methods":13319,"Ġsurvived":13320,"Ġemploys":13321,"Both":13322,"shall":13323,"},$$":13324,"byte":13325,"Ġaffordable":13326,"Mutex":13327,"puppet":13328,"ëĭ¤":13329,"Ġsurvivors":13330,"Ġchromatography":13331,"225":13332,"|_{":13333,"ogs":13334,"Ġresidential":13335,"Ġagon":13336,"Ġconserved":13337,"Ġsolved":13338,"ãĥ³":13339,"Ġbarriers":13340,"Ġmeaningful":13341,"NOW":13342,"had":13343,"rated":13344,"ptic":13345,"Ġconnecting":13346,"airo":13347,"Ċĉĉĉĉĉĉĉ":13348,"Sequence":13349,"ĠMathematics":13350,"Ġcoherent":13351,"Ġalphabet":13352,"ĠGitHub":13353,"ĠCaribbean":13354,"tor":13355,"Ġorbit":13356,"sey":13357,"Ġdecimal":13358,"Convert":13359,"Ġworried":13360,"ĠHamiltonian":13361,"Ġelectricity":13362,"Ġbelongs":13363,")</":13364,"Lim":13365,"NL":13366,"mb":13367,"Î´":13368,"anal":13369,"udo":13370,"Ġlect":13371,"Ġimpressive":13372,"Ġdemonstrates":13373,"Ġconsistency":13374,"eatures":13375,"Ġconvergence":13376,"Ġpricing":13377,"ĠGospel":13378,"StaticResource":13379,"ĠCommerce":13380,"XML":13381,"`,":13382,"bus":13383,"tp":13384,"Ġmsg":13385,"Ġleak":13386,"Ġseeks":13387,"Ġretro":13388,"Ġwelcomed":13389,"ĠLebanon":13390,"HO":13391,"çĶ":13392,"Ġmood":13393,"ensus":13394,"ĠĠĠĠĠĠĠĠĠĠĠĠĠĠĠĠĠĠĠĠĠĠĠĠĠĠĠĠĠĠĠĠĠĠĠ":13395,"Ġtries":13396,"Ġshortly":13397,"Import":13398,"igenous":13399,"Ġenvelope":13400,"ernandez":13401,"Ġmixtures":13402,"Ġcounterparts":13403,"ĠMitkanos":13404,"Ġcontention":13405,"1991":13406,"Ġattenu":13407,"amsmath":13408,"Ġrestrict":13409,"desc":13410,"Ġconstitu":13411,"Ġinhibited":13412,"mM":13413,"mask":13414,"sen":13415,"oro":13416,"seq":13417,"Ġarrive":13418,"oxic":13419,"Ġreferring":13420,"Ġneighbors":13421,"Ġintracellular":13422,"Ġappreciated":13423,"Ġassistant":13424,"Ġprotocols":13425,"Ġinstitutional":13426,"Utils":13427,"Ġmargins":13428,"ĠThailand":13429,"Ġpolyps":13430,"Ġintravenous":13431,"Ġpotassium":13432,"MAT":13433,"Ġgross":13434,"Ġreporter":13435,"Ġacted":13436,"}{-":13437,"Ġsentenced":13438,"++;":13439,"ĠRadio":13440,"Based":13441,"random":13442,"Ġwage":13443,"Ġpit":13444,"Ġmilit":13445,"Ġexpense":13446,"))?":13447,"Ġprescribed":13448,"Ġstimulus":13449,"01758":13450,"ĠPractice":13451,"Pos":13452,"Ġpap":13453,"Ġdense":13454,"Ġbeach":13455,"Ġorange":13456,"ĠInf":13457,"ugs":13458,"Ġblot":13459,"Ġdistances":13460,"transform":13461,"Member":13462,"TF":13463,"ĠMethod":13464,"ĠFarm":13465,"ĠHim":13466,"ĠGreg":13467,"018":13468,"phenyl":13469,"Ġaging":13470,"Ġ_<":13471,"Ġreliability":13472,"Ġmediated":13473,"Ġparam":13474,"Ġrestore":13475,"Ġemerging":13476,"BASE":13477,"Ġwashed":13478,"Analysis":13479,"Court":13480,"rceil":13481,"Ġexacerb":13482,"Ġcorpus":13483,"ijerph":13484,"ĠCam":13485,"Ġsteal":13486,"oser":13487,"Ġ$('":13488,"qual":13489,"Ġfunded":13490,"ĊĠĠĠĠĠĠĠĠĠĠĠĠĠĠĠĠĠĠĠĠĠĠĠĠĠĠĠĠĠĠĠĠĠĠĠĠĠĠĠ":13491,"Ġdocumented":13492,"ĠÑģ":13493,"Ġfitting":13494,"ĠLibrary":13495,"ĊĠĠĠĠĠĠĠĠĠĠĠĠĠĠĠĠĠĠĠĠĠĠĠĠĠĠĠĠĠĠĠĠĠĠĠĠĠĠĠĠĠĠĠĠĠĠĠĠĠĠĠĠĠĠĠĠĠĠĠĠ":13496,"ĠĠĠĠĠĠĠĠĠĠĠĠĠĠĠĠĠĠĠĠĠĠĠĠĠĠĠĠĠĠĠĠĠĠĠĠĠ":13497,"Ġedit":13498,"Ġpleas":13499,"Ġfarmers":13500,"Ġdairy":13501,"protein":13502,"Wednesday":13503,"Ġmunicipality":13504,"ĠAmsterdam":13505,"Ġhook":13506,"etc":13507,"Ġestablishment":13508,"ynth":13509,")\\,":13510,"Ġdeny":13511,"ymmetry":13512,"Ġexisted":13513,"ĠOverall":13514,"General":13515,"Ġexcessive":13516,"Ð´":13517,"Ġtags":13518,"ĠSoc":13519,"ĠMg":13520,"ĠFull":13521,"ĠWay":13522,"ĠEs":13523,"1993":13524,"Ġcharacterization":13525,"0002":13526,"Ġcallback":13527,"Ġloans":13528,"ĠScale":13529,"Ġprofits":13530,"ĠCLASS":13531,"Ġounces":13532,"ĠSusan":13533,"Ġplausible":13534,"Body":13535,"ĠâĢĻ":13536,"Ġbuck":13537,"Ġthrown":13538,"ĠCAN":13539,"Ġquote":13540,"health":13541,"Ġemphasis":13542,"Ġinitiated":13543,"Ġconstitution":13544,"Found":13545,"NN":13546,"cence":13547,"good":13548,"Ġtends":13549,"ĠHop":13550,"Ġ1960":13551,"Ġdiscloses":13552,"rupted":13553,"Ġdebtor":13554,"Ġcytokines":13555,"threshold":13556,"ĠFALSE":13557,"SY":13558,"Sk":13559,"fc":13560,"ĠTerm":13561,"ĠGall":13562,"Ġreset":13563,"Ġ[],":13564,"iah":13565,"Ġdefects":13566,"Ġbelie":13567,"Ġlistening":13568,"--------------------------------------------------------":13569,"Ġdisclosure":13570,"315":13571,"Na":13572,"mates":13573,"Ġcere":13574,"omics":13575,"ĠSS":13576,"ĠLy":13577,"setlength":13578,"}$$\\":13579,"Ġacknowledge":13580,"Ġcooked":13581,"Ġvisitors":13582,"LINK":13583,"Ġtariff":13584,"Ġstunning":13585,"Ġintentions":13586,"brousch":13587,"Ġsupervised":13588,"ScoreDistribution":13589,"mus":13590,"np":13591,"inth":13592,"itter":13593,"Ġanybody":13594,"Ġweekly":13595,"Ġ160":13596,"Ġcopper":13597,"determ":13598,"ĠTurkey":13599,"Ġ145":13600,"Ġconfer":13601,"Ġsuicide":13602,"Ġenrolled":13603,"ĠAdam":13604,"Ġcorporations":13605,"Upload":13606,"ĠSERVICES":13607,"itarian":13608,"Ġmad":13609,"Ġ\"<":13610,"ĠTan":13611,"1990":13612,"}{{\\":13613,"Ġequity":13614,"Ġreceives":13615,"ĠDu":13616,"Ġgenerations":13617,"Ġcoating":13618,"shop":13619,"Ġtopology":13620,"Ġcomputational":13621,"Ġbirths":13622,"Ġbriefly":13623,"ĠArticle":13624,"Ġmotions":13625,"ĠHillary":13626,"Ġorchest":13627,"Ġtrademark":13628,"ĠMalaysia":13629,"220":13630,"900":13631,"Bs":13632,"Îµ":13633,"ÎĶ":13634,"Ġtech":13635,"oupl":13636,"igma":13637,"Ġpresenting":13638,"Ġdetermines":13639,"Cap":13640,"_,":13641,"čĊĠĠĠĠĠĠĠĠĠ":13642,"Ġsir":13643,"Ġ(âĪĴ":13644,"atever":13645,"oga":13646,"ERR":13647,"Ġcapabilities":13648,"360":13649,"Ġsettled":13650,"Ġstriking":13651,"Ġvolunteers":13652,"Ġflexibility":13653,"Ġscanning":13654,"Ġtertiary":13655,"Ġmurine":13656,"ĠDakota":13657,"Ġpermanently":13658,"Ptr":13659,"Root":13660,"Ġproposition":13661,"Ġplugin":13662,"Ġapps":13663,"âĢĿ)":13664,"}}}}":13665,"Ġbron":13666,"vertical":13667,"Ġmanaging":13668,"cost":13669,"lbrack":13670,"ä¹":13671,"Ġrating":13672,"Ġ123":13673,"Ġdesignated":13674,"Ġnegligence":13675,"Interface":13676,"Ġsubstitute":13677,"FROM":13678,"Ġlazy":13679,"Ġgotta":13680,"ĠHangul":13681,"ĠUrban":13682,"Conflict":13683,"Fore":13684,"á»":13685,"Ġsle":13686,"ĠHo":13687,"ĠDer":13688,"Ġmanually":13689,"132":13690,"register":13691,"Ġ$${\\":13692,"ĠManager":13693,"Ġpositively":13694,"Ġvirtually":13695,"Save":13696,"Ġbases":13697,"Ġbother":13698,"ĠSports":13699,"Ġconstraint":13700,"ago":13701,"Ġplots":13702,"Ġfunctionality":13703,"Ġdefeat":13704,"rowth":13705,"ãģ«":13706,"Ġacknowledged":13707,"interface":13708,"Additional":13709,"Ġthreats":13710,"Ġduct":13711,"Ġsuggestions":13712,"Ġgarlic":13713,"ĠSpring":13714,"aeda":13715,"Ġbundles":13716,"ographer":13717,"Ġoutrage":13718,"Ġambiguous":13719,"aintenance":13720,"ĠMas":13721,"Star":13722,"Ġrepresentatives":13723,"printf":13724,"println":13725,"sun":13726,"Ġcow":13727,"Ġ09":13728,"Ġtherein":13729,"}$-":13730,"letter":13731,"Ġhumanity":13732,"ĊĊĠĠĠĠ":13733,"Ġedition":13734,"Ġheading":13735,"ISH":13736,"Ġorgans":13737,"Ġcontroversial":13738,"KEY":13739,"Ġcriticism":13740,"Ġlogarith":13741,"Ġmisleading":13742,"ĠCollaboration":13743,"Ġaneurys":13744,"Template":13745,"made":13746,"Ġ^{\\":13747,"ĠTour":13748,"ĠLC":13749,"ready":13750,"Ġsynthetic":13751,"$]{}":13752,"Cost":13753,"Ġcul":13754,"Ġbra":13755,"Ġms":13756,"Ġ137":13757,"ãģ§":13758,"Release":13759,"Ġstayed":13760,"ĠHoly":13761,"Ġelegant":13762,"ĠCitiz":13763,"Ġcooperate":13764,"Ġwhatsoever":13765,"Ġfeasibility":13766,"apeutic":13767,"instance":13768,"ulg":13769,"ĠFord":13770,"Ġchampionship":13771,"âĢĻ,":13772,"Ġ800":13773,"Ġevaluating":13774,"Changed":13775,"flags":13776,"Ġpersistent":13777,"subseteq":13778,"ĠALL":13779,"Ġremarkable":13780,"Ġmotivation":13781,"Ġcollaboration":13782,"ĠMargaret":13783,"RES":13784,"condition":13785,"Ġexclude":13786,"ĠTen":13787,"ĠKr":13788,"Ġintersection":13789,"ĠYeah":13790,"lessly":13791,"Ġmuseum":13792,"cases":13793,"Ġatom":13794,"Inc":13795,"Ġpersonality":13796,"Ġcorruption":13797,"ĠShould":13798,"ĠSea":13799,"record":13800,"BY":13801,"hd":13802,"iat":13803,"ĠdÃ©":13804,"etime":13805,"ĠSearch":13806,"ĠLook":13807,"Ġweird":13808,"verted":13809,"Ġprevented":13810,"Ġconstructor":13811,"password":13812,"Ġenhancement":13813,"Ġlubric":13814,"ĠImperial":13815,"ĠAadhaar":13816,"Ġarrhythm":13817,"Ġamyloid":13818,"039":13819,"bas":13820,"isa":13821,"ĠSav":13822,"Ġrelies":13823,"atories":13824,"GI":13825,"Ga":13826,"Parent":13827,"jar":13828,"zone":13829,"}>":13830,"ĠFri":13831,"Ġcommands":13832,"expr":13833,"Ġclaiming":13834,"Ġpublications":13835,"ĠPhot":13836,"Ġvaccination":13837,"opathy":13838,"Ġticket":13839,"coholic":13840,"Ġimplantation":13841,"VI":13842,"uf":13843,"Ð²":13844,"Ġfurn":13845,"Ġdance":13846,"ensation":13847,"Ġdelicious":13848,"Ġobjectives":13849,"Ġencounter":13850,"Ġhydrocarbons":13851,"Av":13852,"Ġsched":13853,"ĠPerson":13854,"ĠLD":13855,"ĠNaz":13856,"Ġintact":13857,"ĠVector":13858,"ENCE":13859,"Ġadvised":13860,"Ġcompete":13861,"Ġnorthern":13862,"ĠCNN":13863,"Human":13864,"ĠMueller":13865,"ĠBDNF":13866,"ĠJOIN":13867,"Ġspectrometry":13868,"BN":13869,"Ġgym":13870,"Ġstating":13871,"ĠNations":13872,"ĠGP":13873,"ĠĠĠĠĠĠĠĠĠĠĠĠĠĠĠĠĠĠĠĠĠĠĠĠĠĠĠĠĠĠĠ":13874,"INFO":13875,"Ġsatisfying":13876,"Ġparliament":13877,"important":13878,"ĠCoast":13879,"Ġattacked":13880,"Ġrespondent":13881,"Files":13882,"lg":13883,"Ñĩ":13884,
[...]
