{"[UNK]":0,"[CLS]":1,"[SEP]":2,"[PAD]":3,"[MASK]":4,"!":5,"\"":6,"#":7,"$":8,"%":9,"&":10,"'":11,"(":12,")":13,"*":14,"+":15,",":16,"-":17,".":18,"/":19,"0":20,"1":21,"2":22,"3":23,"4":24,"5":25,"6":26,"7":27,"8":28,"9":29,":":30,";":31,"<":32,"=":33,">":34,"?":35,"@":36,"A":37,"B":38,"C":39,"D":40,"E":41,"F":42,"G":43,"H":44,"I":45,"J":46,"K":47,"L":48,"M":49,"N":50,"O":51,"P":52,"Q":53,"R":54,"S":55,"T":56,"U":57,"V":58,"W":59,"X":60,"Y":61,"Z":62,"[":63,"\\":64,"]":65,"^":66,"_":67,"`":68,"a":69,"b":70,"c":71,"d":72,"e":73,"f":74,"g":75,"h":76,"i":77,"j":78,"k":79,"l":80,"m":81,"n":82,"o":83,"p":84,"q":85,"r":86,"s":87,"t":88,"u":89,"v":90,"w":91,"x":92,"y":93,"z":94,"{":95,"|":96,"}":97,"~":98,"¡":99,"¢":100,"£":101,"¤":102,"¥":103,"¦":104,"§":105,"¨":106,"©":107,"ª":108,"«":109,"¬":110,"®":111,"¯":112,"°":113,"±":114,"²":115,"³":116,"´":117,"µ":118,"¶":119,"·":120,"¸":121,"¹":122,"º":123,"»":124,"¼":125,"½":126,"¾":127,"¿":128,"Â":129,"Ã":130,"Ä":131,"Å":132,"Æ":133,"Ç":134,"È":135,"É":136,"Ê":137,"Ë":138,"Ì":139,"Í":140,"Î":141,"Ï":142,"Ð":143,"Ñ":144,"Ò":145,"Ó":146,"Ô":147,"Õ":148,"Ö":149,"×":150,"Ø":151,"Ù":152,"Ú":153,"Û":154,"Ü":155,"Þ":156,"ß":157,"à":158,"á":159,"â":160,"ã":161,"ä":162,"å":163,"æ":164,"ç":165,"è":166,"é":167,"ê":168,"ë":169,"ì":170,"í":171,"î":172,"ï":173,"ð":174,"Ā":175,"ā":176,"Ă":177,"ĉ":178,"Ċ":179,"ċ":180,"Č":181,"č":182,"ě":183,"Ġ":184,"ġ":185,"Ģ":186,"ģ":187,"Ĥ":188,"ĥ":189,"Ħ":190,"ħ":191,"Ĩ":192,"ĩ":193,"Ī":194,"ī":195,"Ĭ":196,"ĭ":197,"Į":198,"į":199,"İ":200,"ı":201,"Ĳ":202,"ĳ":203,"Ĵ":204,"ĵ":205,"Ķ":206,"ķ":207,"ĸ":208,"Ĺ":209,"ĺ":210,"Ļ":211,"ļ":212,"Ľ":213,"ľ":214,"Ŀ":215,"ŀ":216,"Ł":217,"ł":218,"Ń":219,"Ġthe":220,"ĠĠĠĠĠ":221,"Ġa":222,"in":223,"er":224,"tion":225,"Ġt":226,"re":227,"Ġof":228,"en":229,"Ġs":230,"Ġand":231,"at":232,"on":233,"or":234,"Ġc":235,"Ġw":236,"âĶĢâĶĢâĶĢâĶĢâĶĢâĶĢâĶĢâĶĢâĶĢâĶĢâĶĢâĶĢâĶĢâĶĢâĶĢâĶĢâĶĢâĶĢâĶĢâĶĢâĶĢâĶĢâĶĢâĶĢâĶĢâĶĢâĶĢâĶĢâĶĢâĶĢâĶĢâĶ":237,"is":238,"es":239,"ed":240,"al":241,"it":242,"an":243,"Ġp":244,"Ġf":245,"Ġb":246,"ou":247,"ing":248,"Ġin":249,"ar":250,"Ġm":251,"Ġd":252,"ic":253,"le":254,"Ġto":255,"Ġh":256,"as":257,"ro":258,"ent":259,"Ġth":260,"--------":261,"et":262,"Ġre":263,"el":264,"Ġn":265,"om":266,"Ġwith":267,"st":268,"ec":269,"il":270,"ac":271,"ĠTh":272,"Ġl":273,"Ġe":274,"ĠĠĠ":275,"ot":276,"ight":277,"id":278,"im":279,"Ġis":280,"Ġg":281,"Ġ(":282,"ol":283,"ve":284,"am":285,"ĠI":286,"ation":287,"Ġyou":288,"âĶĢâĶĢâĶĢâĶĢâĶĢâĶĢâĶĢâĶĢâĶĢâĶĢâĶĢâĶĢâĶ":289,"âĢ":290,"us":291,"ly":292,"Ġfor":293,"ow":294,"ĠS":295,"ĠĠĠĠĠĠĠĠĠĠĠĠĠĠĠ":296,"Ġthat":297,"Ġon":298,"ver":299,"ur":300,"ĠA":301,"ĠC":302,"un":303,"ad":304,"ut":305,"Ġst":306,"Ġbe":307,"ul":308,"Ġ1":309,"Ġwh":310,"ay":311,"ig":312,"if":313,"ce":314,"==========":315,"ter":316,"Ġcon":317,"os":318,"Ġfrom":319,"ch":320,"em":321,"Ġas":322,"Ġan":323,"ir":324,"od":325,"op":326,"Ġhave":327,"Ġ$":328,"Ġpro":329,"th":330,"ĊĠĠĠĠĠĠĠ":331,"ab":332,"um":333,"ate":334,"ould":335,"ag":336,"Ġit":337,"ĠM":338,"Ġv":339,"ri":340,"Ġal":341,"Ġ\"":342,"Ġ2":343,"ĠP":344,"res":345,"pp":346,"qu":347,"Ġcomp":348,"ct":349,"ain":350,"est":351,"ere":352,"Ġex":353,"Ġr":354,"Ġwas":355,"ist":356,"Ġor":357,"ers":358,"ĠB":359,"ion":360,"ant":361,"oc":362,"Ġ\\":363,"ect":364,"00":365,"Ġare":366,"se":367,"Ġ=":368,"Ġ-":369,"iv":370,"Ġsu":371,"ity":372,"Ġat":373,"ĠF":374,"ess":375,"ound":376,"ĠH":377,"ment":378,"ore":379,"out":380,"Ġby":381,"ĠD":382,"ill":383,"our":384,"Ġde":385,"and":386,"ĠW":387,"ĠThe":388,"ĠT":389,"Ġwhich":390,"Ġsh":391,"end":392,"Ġnot":393,"her":394,"ive":395,"ĠR":396,"ke":397,"The":398,"**":399,"ap":400,"ĠL":401,"ough":402,"ĠN":403,"Ġch":404,"Ġthis":405,"ew":406,"ĊĠĠĠ":407,"ort":408,"art":409,"âĢĻ":410,"Ġwe":411,"ud":412,"Ġus":413,"ial":414,"{\\":415,"ell":416,"ure":417,"Ġbetween":418,"ies":419,"ĠG":420,"ĠE":421,"ĊĠĠĠĠĠĠĠĠĠĠĠ":422,"Ġun":423,"ated":424,"Ġse":425,"Ġhe":426,"Ġup":427,"ype":428,"pl":429,"Ġo":430,"form":431,"ine":432,"Ġyear":433,"all":434,"Ġ0":435,"Ġtr":436,"Ġknow":437,"Ġle":438,"'s":439,"og":440,"ext":441,"Ġbecause":442,"Ġ*":443,"ge":444,"ical":445,"Ġdiffer":446,"nt":447,"ff":448,").":449,"Ġcan":450,"ĠO":451,"act":452,"Ġ3":453,"ust":454,"der":455,"ue":456,"ame":457,"Ġimp":458,"ome":459,"ÂłÂłÂłÂłÂłÂłÂłÂłÂłÂłÂłÂłÂłÂłÂłÂłÂłÂłÂłÂłÂłÂłÂłÂłÂłÂłÂłÂłÂłÂłÂłÂłÂłÂł":460,"Ġalso":461,"ib":462,"iz":463,"ĊĠ":464,"Ġres":465,"ction":466,"ase":467,"able":468,"lass":469,"are":470,"age":471,"Ġpatients":472,"Ġother":473,"ack":474,"Ġsp":475,"ard":476,"Ġj":477,"ult":478,"Ġabout":479,"ast":480,"łÂłÂłÂłÂłÂłÂłÂłÂłÂłÂłÂłÂłÂłÂłÂłÂłÂłÂłÂłÂłÂłÂłÂłÂłÂłÂłÂłÂłÂłÂłÂłÂłÂłÂ":481,"ublic":482,");":483,"ĠâĢľ":484,"Ġtime":485,"ook":486,"Ġ{":487,"ence":488,"Ġcont":489,"_{":490,"ost":491,"ĠIn":492,"ath":493,"ans":494,"ĠU":495,"Ġinclud":496,"Ġad":497,"ip":498,"Ġwere":499,"Ġpl":500,"ĠJ":501,"ep":502,"av":503,"=\"":504,".\"":505,"01":506,"ak":507,"Ġwork":508,"ign":509,"Ġall":510,"Ġfollow":511,"Ġ[":512,"per":513,"Ġint":514,"Ġpeople":515,"Ġ+":516,"Ġacc":517,"Ġcomm":518,"ition":519,"ens":520,"Ġhas":521,"Ġdo":522,"ach":523,"ire":524,"ide":525,"ft":526,"ind":527,"ary":528,"Ġne":529,"ous":530,"ice":531,"Ġ4":532,"Ġme":533,"one":534,"Ġtwo":535,"Ġsaid":536,"Ġapp":537,"Ġsystem":538,"Ġgroup":539,"Ġbut":540,"Ġdis":541,"ress":542,"ations":543,"du":544,"Ġreturn":545,"pt":546,"ru":547,"Ġwill":548,"int":549,"Ġlike":550,"ong":551,"Ġar":552,"ph":553,"),":554,"--":555,"Ġgo":556,"ile":557,"ĠĠ":558,"Ġ&":559,"ber":560,"Ċĉĉ":561,"ose":562,"Ġ5":563,"Ġfirst":564,"Ġ<":565,"ance":566,"Ġif":567,"Ġen":568,"Ġafter":569,"Ġper":570,"ia":571,"ef":572,"ely":573,"Ġout":574,"Ġpre":575,"ally":576,"ace":577,"ra":578,"ang":579,"ord":580,"ory":581,"Ġone":582,"Ġcl":583,"ĊĠĠĠĠĠĠĠĠĠĠĠĠĠĠĠ":584,"...":585,"ĊĠĠĠĠĠ":586,"Ġqu":587,"Ġhis":588,"Ġev":589,"Ġthey":590,"own":591,"Ġop":592,"âĢĿ":593,"ail":594,"ry":595,"ĠSt":596,"Ġso":597,"}\\":598,"Ġsignificant":599,"Ġdata":600,"bject":601,"ors":602,"//":603,"Ġpart":604,"Âł":605,"Ġmore":606,"Ġtheir":607,"ĠK":608,"Ġinter":609,"Ġthere":610,"Ġ$\\":611,"ys":612,"ake":613,"Ġfunction":614,"Ġag":615,"ond":616,"ents":617,"Ġdevelop":618,"Ġhigh":619,"ite":620,"very":621,"ield":622,"bs":623,"Ġmethod":624,"ĠĠĠĠ":625,"}$":626,"Ġyour":627,"ount":628,"ates":629,"Ġbeen":630,"erm":631,"Ġhad":632,"right":633,"ree":634,"frac":635,"Ġgener":636,"Ġ}":637,"ric":638,"Ġany":639,"Ġno":640,"cl":641,"ont":642,"Ġman":643,"Ġconsider":644,"Ġthrough":645,"Ġk":646,"Ġrec":647,"Ġwho":648,"Ġ\\[[@":649,"erv":650,"Ġass":651,"ll":652,"Ġ'":653,"ish":654,"te":655,"ĠV":656,"Ġwould":657,"Ġincre":658,"Ġwhen":659,"Ġ6":660,"Ġeffect":661,"In":662,"enc":663,"Ġproblem":664,"gr":665,"reat":666,"old":667,"Ġindividual":668,"Ġrep":669,"\\]":670,"^{":671,"Ġthan":672,"Ġexp":673,"Ġover":674,"Ġmy":675,"Ġdef":676,"ild":677,"Ġsc":678,"------------------------":679,"</":680,"row":681,"ub":682,"rib":683,"oth":684,"Ġ19":685,"Ġits":686,"owever":687,"}}":688,"'t":689,"math":690,"ink":691,"10":692,"lect":693,"Ġpossib":694,"ex":695,"vers":696,"Ġvari":697,"Ġpoint":698,"ie":699,"Ġ_":700,"ays":701,"get":702,"Ġsomething":703,"tions":704,"ons":705,"hat":706,"Ġnew":707,"ass":708,"ample":709,"Ġoff":710,"Ġam":711,"tr":712,"Ġsome":713,"]{}":714,"ater":715,"ode":716,"ied":717,"ings":718,"Ġnumber":719,"ĠCh":720,"ĠY":721,"lo":722,"com":723,"19":724,"ttp":725,"Ġbefore":726,"Ġunder":727,"Ġpr":728,"ick":729,"Ġact":730,"Ġcurrent":731,"Ġour":732,"Ġrel":733,"Ġvalue":734,"Ġget":735,"Ġemploy":736,"Ġdes":737,"Ġcourt":738,"Ġ7":739,"ov":740,"ref":741,"ative":742,"left":743,"ark":744,"Ġinto":745,"iss":746,"Ġstudy":747,"uc":748,"ĠIt":749,"Ġonly":750,"Ġdec":751,"ian":752,"Ġworld":753,"Ġmodel":754,"Ġmay":755,"ĠĠĠĠĠĠĠĠĠĠĠĠĠĠĠĠĠĠĠĠĠĠĠĠĠĠĠĠĠĠ":756,"Ġph":757,"ambda":758,"nd":759,"ĠâĢ":760,"vi":761,"](#":762,"Ġro":763,"Ġab":764,"aw":765,"ular":766,"ert":767,"ock":768,"Ġpresent":769,"ove":770,"Ġsec":771,"Ġinv":772,"eg":773,"12":774,"Ġmade":775,"Ġprocess":776,"Ġher":777,"Ġcharacter":778,"Ġreg":779,"Ġadd":780,"Ġ8":781,"Ġlevel":782,"Ġtrans":783,"Ġthem":784,"ma":785,"âĸĶâĸĶâĸĶâĸĶâĸĶâĸĶâĸĶâĸĶâĸĶâĸĶâĸĶâĸĶâĸĶ":786,"ĊĊ":787,"Ġsupport":788,"ĠAmeric":789,"Ġco":790,"Ġanalysis":791,"Ġmuch":792,"Ġwhat":793,"ear":794,"ĠThis":795,"Ġind":796,"anc":797,"ient":798,"Ġim":799,"Ġhelp":800,"Th":801,"ased":802,"Ġgr":803,"Ġsuch":804,"Ġform":805,"ne":806,"olog":807,"Ġ201":808,"ating":809,"Ġtechn":810,"itt":811,"Ġcol":812,"app":813,"ĠWe":814,"up":815,"Ġduring":816,"ix":817,"Ġthese":818,"Ġobtain":819,"Ġresp":820,"elf":821,"ility":822,"Ġ9":823,"Ġjust":824,"ym":825,"Ġ10":826,"Ġprov":827,"str":828,"sp":829,"ĠĠĠĠĠĠĠĠĠĠ":830,"Ġuse":831,"ox":832,"Ġwhere":833,"ific":834,"ss":835,"Ġdet":836,"ĠUniversity":837,"Ġthen":838,"ident":839,"ty":840,"Ġnetwork":841,"Ġneed":842,"Ġset":843,"Ġpol":844,"fer":845,"ution":846,"alpha":847,"Ġrequire":848,"ug":849,"Ġcells":850,"Ġclass":851,"Ġsmall":852,"Ġgovernment":853,"Ġcould":854,"ith":855,"ime":856,"Ġresult":857,"les":858,"Ġrem":859,"Ġagainst":860,"Ġcom":861,"ize":862,"Ġsimilar":863,"()":864,"Ġac":865,"[@":866,"Ġy":867,"11":868,"ĠUnited":869,"\",":870,"ions":871,"ange":872,"Ġsuggest":873,"he":874,"ise":875,"als":876,"ob":877,"Ġused":878,"Ġperson":879,"lement":880,"Ġcontrol":881,"ues":882,"20":883,"tern":884,"Ġsub":885,"Ġfe":886,"ual":887,"ning":888,"Ġbl":889,"Ġdirect":890,"Ċĉ":891,"Ġinformation":892,"Ġshow":893,"Ġsur":894,"->":895,"Ġfact":896,"Ġpotential":897,"ER":898,"Ġcor":899,"ax":900,"to":901,"ev":902,"Ġfl":903,"Ġdid":904,"Ġshould":905,"type":906,"red":907,"rop":908,"eta":909,"Ġfurther":910,"Ġatt":911,"\">":912,"Ġspec":913,"Ġend":914,"Ġresearch":915,"orm":916,"ull":917,"ced":918,"fig":919,"Ġdist":920,"Ġfamily":921,"000":922,"ower":923,"ĠHe":924,"ks":925,"ection":926,"its":927,"Ġstr":928,"io":929,"ren":930,"inal":931,"ON":932,"Ġestablish":933,"Ġcondition":934,"###":935,"Ġusing":936,"Ġmajor":937,"ities":938,"Ġavailable":939,"Ġ.":940,"ics":941,".,":942,"15":943,"ruct":944,"ause":945,"Ġsee":946,"ict":947,"Ġshe":948,"IN":949,"ement":950,"Ġschool":951,"rit":952,"Ġsince":953,"aintiff":954,"Category":955,"Ġmost":956,"Ġenergy":957,"Ġhealth":958,"Ġerr":959,"port":960,"ood":961,"Ġassociated":962,"){":963,"Ġlife":964,"Ġback":965,"Ġbusiness":966,")$":967,"13":968,"mathcal":969,"cription":970,"16":971,"Ġwell":972,"Ġem":973,"Ġparamet":974,"Ġtest":975,"Ġstat":976,"Ġclaim":977,"Ġ$$\\":978,"Ġi":979,"duct":980,"li":981,"Ġ:":982,"ures":983,"Ġanother":984,"Ġtreatment":985,"Ġhim":986,"Ġdifferent":987,"_{\\":988,"ational":989,"Ġright":990,"pos":991,"atch":992,"pr":993,"ven":994,"Ġgiven":995,"Ġocc":996,"ined":997,"Ġmonth":998,"Ġcase":999,"Ġeach":1000,"Ġenvironment":1001,"ograph":1002,"ute":1003,"arg":1004,"rom":1005,"alcul":1006,"Ġprogram":1007,"14":1008,"Ġcons":1009,"Ġalready":1010,"Ġdiscuss":1011,"âĢī":1012,"ected":1013,"ator":1014,"urn":1015,"label":1016,"Ġwant":1017,"ically":1018,"Ġmechanism":1019,"Ġhow":1020,"Ġinf":1021,"ized":1022,"(\\":1023,"Ġte":1024,"Ġdoes":1025,"imes":1026,"Ġent":1027,"Ġdifficult":1028,"Ġinst":1029,"Ġ[@":1030,"und":1031,"Ġsuccess":1032,"Ġconst":1033,"Ġmin":1034,"Ġapplic":1035,"over":1036,"Ġimportant":1037,"Ġmake":1038,"Ġauth":1039,"Ġespecially":1040,"Ġevidence":1041,"Ġpos":1042,"elta":1043,"Ġlimit":1044,"Ġsame":1045,"ee":1046,"ĠWh":1047,"Ġbr":1048,"ared":1049,"\"}":1050,"let":1051,"ret":1052,"val":1053,"par":1054,"]\\].":1055,"Ġwhether":1056,"Ġ200":1057,"yn":1058,"Ġevery":1059,"],":1060,"Ġeven":1061,"upp":1062,"Ġdi":1063,"ength":1064,"Ġyears":1065,"ES":1066,"put":1067,"ata":1068,"ases":1069,"Ġfind":1070,"18":1071,"Ġobserv":1072,"cript":1073,"Ġtri":1074,"cent":1075,"Ġcall":1076,"ants":1077,"Ġthose":1078,"air":1079,"Ġx":1080,"Ġlarge":1081,"Ġboth":1082,"con":1083,"Ġmed":1084,"sh":1085,"Ġpartic":1086,"ash":1087,"Ġ|":1088,"Ġway":1089,"Ġdescrib":1090,"Ġbetter":1091,"yl":1092,"St":1093,"âĪĴ":1094,"Ġnow":1095,"Ġsimp":1096,"Ġ12":1097,"Ġvery":1098,"Ġdon":1099,"yp":1100,"mathbb":1101,"Ġser":1102,"Ġ@":1103,"))":1104,"html":1105,"Ġrepresent":1106,"ense":1107,"ins":1108,"Ġel":1109,"ful":1110,"ason":1111,"Ġmeasure":1112,"ave":1113,"ages":1114,"ature":1115,"Ġlong":1116,"AT":1117,"===":1118,"ĠCom":1119,"pro":1120,"Ġke":1121,"Ġclear":1122,"Ġexper":1123,"eth":1124,"ward":1125,",\\":1126,"rm":1127,"cept":1128,"Ġfound":1129,"Ġbu":1130,"../../":1131,"led":1132,"oun":1133,"50":1134,"Ġloc":1135,"ole":1136,"Ġbel":1137,"}{":1138,"Ġbeing":1139,"Ġhere":1140,"Ġquestion":1141,"Ġlook":1142,"Ġplay":1143,"ression":1144,"ok":1145,"igned":1146,"ines":1147,"ale":1148,"ich":1149,"17":1150,"Ġview":1151,"Ġthink":1152,"Ġpublic":1153,"Ġcar":1154,"ting":1155,"Ġeconom":1156,"Ġmany":1157,"ĠQ":1158,"ments":1159,"Ġ/":1160,"oid":1161,"Ġval":1162,"aking":1163,"ved":1164,"the":1165,"ified":1166,"ively":1167,"ospital":1168,"30":1169,"line":1170,"sqrt":1171,"of":1172,"cer":1173,"?\"":1174,"Ġcirc":1175,"Ġgu":1176,"It":1177,"Ġext":1178,"ices":1179,"Ġstud":1180,"Ġfil":1181,"32":1182,"Ġuntil":1183,"',":1184,"Ġmultiple":1185,"Ġequ":1186,"Ġhaving":1187,"201":1188,"Ġreport":1189,"Ġmembers":1190,"ĠÂ":1191,"ner":1192,"ank":1193,"Ġprivate":1194,"Ġ//":1195,"Ġins":1196,"ik":1197,"Ġlittle":1198,"Ġcorrespond":1199,"\":":1200,"Ġsol":1201,"Ġbehavi":1202,"ms":1203,"ible":1204,"begin":1205,"Ġorder":1206,"Ġhuman":1207,"view":1208,"ĊĊĠĠĠ":1209,"Ġprevious":1210,"ĠFor":1211,"ody":1212,"Ġgood":1213,"Ġwhile":1214,"Ġeither":1215,"ĠĠĠĠĠĠĠĠ":1216,".âĢĿ":1217,"Ġalways":1218,"Ġterm":1219,"day":1220,"ness":1221,"Ġdemonstr":1222,"Ġhigher":1223,"ocument":1224,"::":1225,"not":1226,"Ġorgan":1227,"Ġweek":1228,"25":1229,"ministr":1230,"ĠThese":1231,"ps":1232,"ng":1233,"set":1234,"Ġmaterial":1235,"Ġname":1236,"Ġgen":1237,"Ġstart":1238,"We":1239,"Ġnon":1240,"Ġdown":1241,"ually":1242,"ision":1243,"oy":1244,"ld":1245,"ts":1246,"ĠLet":1247,"Ġserv":1248,"Ġcount":1249,"://":1250,"ĠIf":1251,"Ġfr":1252,"Ġrelationship":1253,"Ġreceived":1254,"AR":1255,"Ġtotal":1256,"ĠâĢĵ":1257,"Ġread":1258,"EN":1259,"Ġsingle":1260,"Ġdep":1261,"ality":1262,"af":1263,"ĠAl":1264,"Ġstandard":1265,"ource":1266,"Ċĉĉĉ":1267,"Ġsecond":1268,"Ġproject":1269,"Ġthree":1270,"fficient":1271,"Ġhand":1272,"ĠCourt":1273,"Ġchildren":1274,"Ġown":1275,"Ġapproach":1276,"************************":1277,"Ġseveral":1278,"ĠJohn":1279,"24":1280,"med":1281,"Ġunderstand":1282,"Ġwithout":1283,"Ġinvestig":1284,"br":1285,"Ġmod":1286,"OR":1287,"^{\\":1288,"any":1289,"Ġline":1290,"NA":1291,"ump":1292,"(-":1293,"amp":1294,"Ġstate":1295,"ST":1296,"\\[":1297,"Ġsl":1298,"aining":1299,"__":1300,"Ġprovid":1301,"ization":1302,"$,":1303,"$.":1304,"ify":1305,"Ġperiod":1306,",\"":1307,"ember":1308,"ception":1309,"Ġant":1310,"ĠAnd":1311,"80":1312,"way":1313,"eck":1314,"ystem":1315,"clude":1316,"man":1317,"Ġ20":1318,"ah":1319,"Ġactiv":1320,"ology":1321,"amples":1322,"Ġcre":1323,"ray":1324,"Ġmet":1325,"ather":1326,"ious":1327,"ability":1328,"ences":1329,"ency":1330,"Ġtarget":1331,"ĠPro":1332,"ork":1333,"ton":1334,"Ġperform":1335,"(\"":1336,"CR":1337,"ives":1338,"ead":1339,"ulation":1340,"Ġpres":1341,"Ġgreat":1342,"ists":1343,"What":1344,"Ġtype":1345,"atic":1346,"ĠBut":1347,"Ġoper":1348,"Ġproper":1349,"Ġresponse":1350,"Ġcertain":1351,"Ex":1352,"Ġcourse":1353,"ĠTr":1354,"Ġsign":1355,"ĠAs":1356,"Ġrisk":1357,"dd":1358,"au":1359,"ependent":1360,"ique":1361,"------------":1362,"Ġlast":1363,"40":1364,"ger":1365,"name":1366,"Ġ**":1367,"ism":1368,"Ġlead":1369,"Ġissue":1370,"CT":1371,"Ġpur":1372,"IT":1373,"Ġmust":1374,"arch":1375,"Ġpat":1376,"Ġtemperature":1377,"eb":1378,"String":1379,"Ġsay":1380,"Ġoften":1381,"Wh":1382,"Ġcap":1383,"Ġcontinu":1384,"Ġlaw":1385,"âĢľ":1386,"Ġbec":1387,"ĠThere":1388,"Ġet":1389,"Ġderiv":1390,"ron":1391,"ars":1392,"Ġtake":1393,"ĢâĶĢâĶĢâĶ":1394,"itive":1395,"ains":1396,"action":1397,"mission":1398,"Ġmatter":1399,"Ġ15":1400,"Ġrun":1401,"for":1402,"ention":1403,"22":1404,"Let":1405,"sigma":1406,"Ġfin":1407,"ann":1408,"Ġconf":1409,"ination":1410,"==============================":1411,"ane":1412,"Ġmain":1413,"Ġbre":1414,"arm":1415,"Ġcaus":1416,"alk":1417,"ces":1418,"Ġwr":1419,"bl":1420,"ross":1421,"Ġstill":1422,"Ġwomen":1423,"ames":1424,"Ġaccording":1425,"Ġbenef":1426,"Ġdisease":1427,"Ġnecessary":1428,"ouse":1429,"36":1430,"Ġestim":1431,"Ġdefendant":1432,"Ġear":1433,"ccording":1434,"augh":1435,"ule":1436,"Ġlet":1437,"agn":1438,"Ġcr":1439,"ĊĠĠ":1440,"ech":1441,"ets":1442,"ier":1443,"Ġelect":1444,"Ġchanges":1445,"ade":1446,"Ġexpl":1447,"Ġcent":1448,"Ġresults":1449,"View":1450,"ĠNew":1451,"wh":1452,"lex":1453,"].":1454,"Ġevalu":1455,"Ġinc":1456,"AL":1457,"ots":1458,"Ġthough":1459,"ci":1460,"Ġnormal":1461,"Ġmicro":1462,"Ġanswer":1463,"Ġident":1464,"35":1465,"Ġz":1466,"selves":1467,"27":1468,"Ġpost":1469,"Ġtogether":1470,"Ġstructure":1471,"ĠYou":1472,"Ġdeterm":1473,"Ġapproxim":1474,"az":1475,"Ġprobably":1476,"def":1477,"();":1478,"âĢĵ":1479,"ĠAn":1480,"Ġpublish":1481,"AN":1482,"05":1483,"Ġref":1484,"Ġday":1485,"Ġfriend":1486,"lease":1487,"Ġ18":1488,"ĠSh":1489,"200":1490,"ained":1491,"boldsymbol":1492,"atrix":1493,"Ġthird":1494,"ener":1495,"Ġfollowing":1496,"ool":1497,"ily":1498,"gamma":1499,"Ġaff":1500,"bf":1501,"ately":1502,"Ġsatisf":1503,"This":1504,"Ġallow":1505,"Ġjudgment":1506,"Ġed":1507,"duction":1508,"Ch":1509,"oup":1510,"ĠEurope":1511,"son":1512,"Ġlanguage":1513,"oot":1514,"hibit":1515,"45":1516,"Ġ16":1517,"Ġgoing":1518,"land":1519,"âĢĶ":1520,"text":1521,"sc":1522,"26":1523,"oint":1524,"Ġprotein":1525,"Ġreal":1526,"usepackage":1527,"Ġdrug":1528,"Ġprior":1529,"lection":1530,"Ġ,":1531,"var":1532,"be":1533,"Ġviol":1534,"Ġsurface":1535,"Ġwithin":1536,"Ġmark":1537,"Ġmoney":1538,")\\":1539,"www":1540,"partial":1541,"Ġcell":1542,"ural":1543,"epsilon":1544,"28":1545,"Ġprot":1546,"Ġsumm":1547,"ral":1548,"Ġdel":1549,"23":1550,"}(":1551,"ams":1552,"Ġmean":1553,"Ġinterest":1554,"Ġrecommend":1555,"ium":1556,"akes":1557,"Ġfrequ":1558,"ĠCalifornia":1559,"ID":1560,"Ġhappen":1561,"Ġcare":1562,",âĢĿ":1563,"less":1564,"Ġrequest":1565,"ouble":1566,"Ġbas":1567,"ote":1568,"oci":1569,"por":1570,"ters":1571,"},":1572,"Ġfocus":1573,"Ġadv":1574,"ĠX":1575,"Ġfield":1576,"we":1577,"Ġaddition":1578,"Ġinitial":1579,"ĊĠĠĠĠ":1580,"su":1581,"ãģ":1582,"Fig":1583,"Ġsocial":1584,"osed":1585,"Ġpass":1586,"ĠĠĠĠĠĠ":1587,"29":1588,"els":1589,"Ġversion":1590,"co":1591,"Ġrespect":1592,"Ġaround":1593,"Ġintegr":1594,"Ġexample":1595,"ĠAr":1596,"Ġ14":1597,"duced":1598,"ently":1599,"Ġfalse":1600,"vert":1601,"cont":1602,"ush":1603,"Ġothers":1604,"oss":1605,"ring":1606,"Ġpower":1607,"ĠHowever":1608,"Ġpar":1609,"37":1610,"rho":1611,"Ġarg":1612,"Ġtherap":1613,"SE":1614,"Ġcommun":1615,"Ġnumbers":1616,"Ã©":1617,"Ġarticle":1618,"Ġopen":1619,"Pro":1620,"Ġincluding":1621,"Ġlikely":1622,"ott":1623,"64":1624,"38":1625,"Ġrest":1626,"=\\":1627,"Ġlist":1628,"arent":1629,"by":1630,"pi":1631,"http":1632,"ĠEx":1633,"rel":1634,"Ġfuture":1635,"---":1636,"ĠZ":1637,"ury":1638,"reen":1639,"'m":1640,"Ġexperience":1641,"Ġtaken":1642,"ĠPh":1643,"reg":1644,"Ġu":1645,"99":1646,"read":1647,"}^{":1648,"Ġlo":1649,"equ":1650,"Ġtop":1651,"Ġlow":1652,"Ġ#":1653,"Ġmillion":1654,"Ġconcentr":1655,"Ġblood":1656,"Ġreally":1657,"Ġ\\[":1658,"ern":1659,"Ġ*/":1660,"min":1661,"Ġtry":1662,"Ġmight":1663,"lobal":1664,"Ġcontr":1665,"Ġanaly":1666,"IC":1667,"ĠNo":1668,"Ġless":1669,"Ġminutes":1670,"Ġhead":1671,"rict":1672,"Ġ</":1673,"('":1674,"34":1675,"60":1676,"sec":1677,")/":1678,"Ġhours":1679,"ĠInd":1680,"orth":1681,"Cont":1682,"Ġsupp":1683,"Ġsitu":1684,"Ġfew":1685,"mu":1686,"opy":1687,"ĠUn":1688,"Ġbased":1689,"Ġtoo":1690,"ey":1691,"Ġdevice":1692,"}_":1693,"angle":1694,"ĠApp":1695,"Ġself":1696,"RE":1697,"39":1698,"Ġbelieve":1699,"ĠJapan":1700,"roll":1701,"ector":1702,"21":1703,"eed":1704,"Ġsoftware":1705,"Ġrecord":1706,"ety":1707,"You":1708,"ension":1709,"ĠThey":1710,"ION":1711,"Ġindic":1712,"fore":1713,"^,":1714,"..":1715,"thing":1716,"Ġchange":1717,"Ġhalf":1718,"ĠAfter":1719,"Ġproduct":1720,"Ġimprove":1721,"Ġimmun":1722,"rem":1723,"igh":1724,"etic":1725,"Ġcustom":1726,"ĠOn":1727,"Ġpop":1728,"ised":1729,"widetilde":1730,"Ġfour":1731,"lu":1732,"org":1733,"infty":1734,"Ġhistory":1735,"Ġret":1736,"Ġaction":1737,"riv":1738,"Ġasked":1739,"Ġessential":1740,"Ġ11":1741,"vent":1742,"iver":1743,"$$":1744,"Ġ{#":1745,"ateg":1746,"Ġ30":1747,"Ġchallen":1748,"Ġvis":1749,"ĠSp":1750,"Ġsymptom":1751,"\\!\\!\\!\\!\\!\\!\\!":1752,"LE":1753,"Ġfile":1754,"ery":1755,"čĊč":1756,"leg":1757,"Ġleg":1758,"ĠIs":1759,"ĠWhat":1760,"lev":1761,"ĠDepartment":1762,"70":1763,"Ġcommon":1764,"Ġpath":1765,"Ġachie":1766,"ĠĠĠĠĠĠĠĠĠĠĠĠĠĠĠĠĠĠĠĠĠĠĠĠĠĠĠĠĠĠĠĠĠĠĠĠĠĠĠĠĠĠĠĠĠĠĠĠĠĠĠĠĠĠĠĠĠĠĠĠ":1767,"Ġplace":1768,"Ġfail":1769,"Ġnext":1770,"Omega":1771,"ault":1772,"Ġobject":1773,"ĠChrist":1774,"ydro":1775,"ĊĊĠ":1776,"box":1777,"Ġhome":1778,"Ġbest":1779,"self":1780,"Ġclinical":1781,"ĠAt":1782,"ĠSo":1783,"Ġvehic":1784,"Ġleft":1785,"Ġput":1786,"Ġbo":1787,"Ġconn":1788,"ited":1789,"Ġcorrect":1790,"omet":1791,"div":1792,"acy":1793,"Ġinvol":1794,"att":1795,"Ġpaper":1796,"Ġgrow":1797,"Ġprofession":1798,"}_{":1799,"add":1800,"ederal":1801,"Name":1802,"ĠCon":1803,"oll":1804,"ene":1805,"ired":1806,"75":1807,"omega":1808,"Ġparticular":1809,"Ġabove":1810,"aph":1811,"ems":1812,"'re":1813,"ĉĉ":1814,"Ġtrue":1815,"ĠCl":1816,"phi":1817,"AS":1818,"eal":1819,"mathfrak":1820,"urrent":1821,"90":1822,"Ġdisc":1823,"Ġeas":1824,"95":1825,"ĠĠĠĠĠĠĠ":1826,"To":1827,"Ġreason":1828,"Ġmotion":1829,"ification":1830,"Ġbi":1831,"Com":1832,"Ġattempt":1833,"Ġheld":1834,"ĠAll":1835,"Ġleast":1836,"Ġpossible":1837,"Ġnever":1838,"Ġofficial":1839,"iving":1840,"varepsilon":1841,"ĠUS":1842,"rightarrow":1843,"Ġpolicy":1844,"ope":1845,"Ġissues":1846,"sum":1847,"Ġconcern":1848,"Ġla":1849,"ror":1850,":**":1851,"ĠĠĠĠĠĠĠĠĠ":1852,"Ġwater":1853,"urs":1854,"ED":1855,"uck":1856,"Ġalmost":1857,"ĠPl":1858,"RO":1859,"Ġnothing":1860,"33":1861,"ending":1862,"ubuntu":1863,"Ġsk":1864,"Ġmov":1865,"tilde":1866,"IS":1867,"Ġbegin":1868,"raw":1869,"Ġidea":1870,"Tr":1871,"Ġrefer":1872,"Ġ!=":1873,"function":1874,"Ġdistribution":1875,"Ġposition":1876,"ĠFurthermore":1877,"Ġcampaign":1878,"itch":1879,"48":1880,"Ġsm":1881,"ological":1882,"aligned":1883,"Ġ==":1884,"cess":1885,"arn":1886,"ĠJanuary":1887,"Ġdue":1888,"cdot":1889,"Ġpay":1890,"Ġexpression":1891,"Ġlight":1892,"}$$":1893,"}^":1894,"Con":1895,"Ġappropriate":1896,"ET":1897,"ari":1898,"ĠâĢĶ":1899,"ina":1900,"aps":1901,"Ġrequires":1902,"Ġtrial":1903,"];":1904,"ĠSouth":1905,"Ġdisplay":1906,"ats":1907,"new":1908,"Ġdays":1909,"ĠTHE":1910,"Ġrecogn":1911,"Ġinj":1912,"eter":1913,"Ġstrength":1914,"Ġgive":1915,"If":1916,"Ġsize":1917,"ĠTo":1918,"Ġmilitary":1919,"Ġincreasing":1920,"Ġ%":1921,"Ġelement":1922,"AC":1923,"col":1924,"Ġcome":1925,"Ġmoment":1926,"Ġpredict":1927,"Ġden":1928,"ĠGr":1929,"Ġtyp":1930,"Ġcost":1931,"ior":1932,"Ġwords":1933,"uth":1934,"Ġ{\\":1935,"Ġ25":1936,"Ġaverage":1937,"Ġmon":1938,"Ġexperiment":1939,"ream":1940,"As":1941,"Ġlocal":1942,"Ġthings":1943,"Ġ17":1944,"ributed":1945,"Ġfree":1946,"yt":1947,"ister":1948,"atory":1949,"Ġbig":1950,"Ġmanufact":1951,"Ġnucle":1952,"clusion":1953,"-\\":1954,"Ġcases":1955,"Ġprom":1956,"ances":1957,"Ġ--":1958,"Ġoriginal":1959,"though":1960,"ules":1961,"ĊĠĠĠĠĠĠĠĠĠĠĠĠĠĠĠĠĠĠĠ":1962,"Ġeffort":1963,"Ġpe":1964,"ffer":1965,"Ġ)":1966,"Ġcode":1967,"data":1968,"ĊĠĠĠĠĠĠĠĠĠ":1969,"ĠState":1970,"mitted":1971,"44":1972,"Ġproperties":1973,"Ġphysical":1974,"Ġshown":1975,"gen":1976,"ication":1977,"Ġdr":1978,"ries":1979,"Ġmolec":1980,"nal":1981,"ĠFr":1982,"ĠStates":1983,"Ġelse":1984,"Ġcomplete":1985,"Ġtumor":1986,"Ġpolitical":1987,"Ġ13":1988,"Ġvol":1989,"Ġpressure":1990,"Type":1991,"chem":1992,"Id":1993,"width":1994,"ask":1995,"ables":1996,"Ġteam":1997,"Ġpsych":1998,"Value":1999,"erc":2000,"Ġprovide":2001,"Ã¿Ã¿Ã¿":2002,"Ġgot":2003,"ital":2004,"inc":2005,"Ġsusp":2006,"oper":2007,"ape":2008,"ĠRes":2009,"Ġgeneral":2010,"Ġoutside":2011,"Ġsuper":2012,"68":2013,"Ġreplac":2014,"ended":2015,"Ġalgorith":2016,"\"/>":2017,"Ġrandom":2018,"eq":2019,"98":2020,"Ġsubstantial":2021,"Ġagain":2022,"Ġcomb":2023,"Ġturn":2024,"duce":2025,"Ġgame":2026,"Ġknown":2027,"Ġsw":2028,"Ġspecific":2029,"Ġbuild":2030,"Ġcalled":2031,"Ġdirection":2032,"erg":2033,"CONCLUSION":2034,"Ġrate":2035,"ruction":2036,"Ġcounsel":2037,"ney":2038,"Ġkeep":2039,"emocr":2040,"For":2041,"ymmet":2042,"Ġfeel":2043,"):":2044,"67":2045,"uss":2046,"cle":2047,"Ġspace":2048,"Ġradi":2049,"Ġsequence":2050,"lambda":2051,"beta":2052,"But":2053,"back":2054,"hip":2055,"04":2056,"Ġcur":2057,"Ġdiv":2058,"oph":2059,"Ġbro":2060,"mon":2061,"Ġmaxim":2062,"iddle":2063,"ides":2064,"Ġobvious":2065,"pm":2066,"so":2067,"Ġaut":2068,"ison":2069,"\\_":2070,"Ġprimary":2071,"65":2072,"UL":2073,"ayer":2074,"Ġ24":2075,"ait":2076,"Ġimmediately":2077,"aces":2078,"Ġwon":2079,"97":2080,"Ġplan":2081,"Ġfeatures":2082,"Ġvalues":2083,"Ġjurisdiction":2084,"{{\\":2085,"Ġable":2086,"ided":2087,"bar":2088,"ibr":2089,"Ġmass":2090,"osis":2091,"Ġstudies":2092,"Ġknowledge":2093,"Ġ>":2094,"Ġmeans":2095,"Ġabs":2096,"ured":2097,"ators":2098,"ther":2099,"itude":2100,"Ġweeks":2101,"ĠOctober":2102,"essage":2103,"Ġquestions":2104,"ĠSuppose":2105,"file":2106,"></":2107,"Ġarea":2108,"fl":2109,"Ġneg":2110,"ĠLicense":2111,"Ġcontinue":2112,"0000":2113,"INTRODUCTION":2114,"this":2115,"other":2116,"_\\":2117,"})":2118,"Ġopportunity":2119,"Cl":2120,"ĠNovember":2121,"Ġfull":2122,"Ġmove":2123,"aff":2124,"ressed":2125,"ĠWashington":2126,"Ġappear":2127,"Ġreview":2128,"ĠThat":2129,"Ġcho":2130,"mod":2131,"ĠĠĠĠĠĠĠĠĠĠĠĠ":2132,"ĠSeptember":2133,"Ġcrit":2134,"Ġlater":2135,"Ġid":2136,"pon":2137,"Ġrevealed":2138,"fo":2139,"Ġnatural":2140,"ĠObama":2141,"AP":2142,"import":2143,"lected":2144,"td":2145,"Ġbeautiful":2146,"Ġwhy":2147,"ĠPresident":2148,"Ġfavor":2149,"He":2150,"Ġdri":2151,"Ġavoid":2152,"Ġtimes":2153,"AM":2154,"aring":2155,"Ġfamil":2156,"Ġsens":2157,"Ġbody":2158,"Ġhold":2159,"Ġreported":2160,"Ġliquid":2161,"ser":2162,"ici":2163,"And":2164,"Ġmem":2165,"ges":2166,"Ġvideo":2167,"ĠRe":2168,"ored":2169,"Ġage":2170,"Ġdom":2171,"Ġgroups":2172,"Ġapplied":2173,"Ġhard":2174,"Ġshort":2175,"](":2176,"ĊĊĠĠĠĠĠĠĠ":2177,"Ġagreement":2178,"Ġlower":2179,"$\\":2180,"ume":2181,"!\\!\\!\\!\\!\\!\\!\\":2182,"ands":2183,"uring":2184,"Ġside":2185,"irst":2186,"nonumber":2187,"ince":2188,"itle":2189,"ising":2190,"Ġexist":2191,"Ġaccess":2192,"31":2193,"âĸĶâĸĶâĸĶâĸĶâĸĶâĸĶ":2194,"ends":2195,"Ġerror":2196,"Suppose":2197,"69":2198,"Ġlot":2199,"Ġ100":2200,"imal":2201,"ounds":2202,"umn":2203,"Ġamount":2204,"Ġfar":2205,"ift":2206,"Ġtre":2207,"UT":2208,"ivity":2209,"Ġ=>":2210,"!\"":2211,"ĠWhen":2212,"yle":2213,"stit":2214,"Ġdatabase":2215,"itor":2216,"ĠFebruary":2217,"><":2218,"OD":2219,"enn":2220,"On":2221,"ler":2222,"indow":2223,"Ġbehind":2224,"Ġrequired":2225,"class":2226,"Ġamong":2227,"Ġtestimony":2228,"go":2229,"^{-":2230,"ĠCommittee":2231,"ĠCol":2232,"ĠShe":2233,"Ġsent":2234,"Ġtext":2235,"Ġwritten":2236,"Ġwar":2237,"Ġstrong":2238,"Ġdone":2239,"Ġlevels":2240,"AD":2241,"Ġpract":2242,"ĠWorld":2243,"pone":2244,"Ġcompared":2245,"Ġterms":2246,"Ġnear":2247,"47":2248,"Ġlab":2249,"Ġdidn":2250,"Ġfac":2251,"Res":2252,"'ve":2253,"Ġcomponent":2254,"Ġart":2255,"Is":2256,"ling":2257,"time":2258,"sequ":2259,"Ġlink":2260,"%)":2261,"table":2262,"AG":2263,"log":2264,"Ġsure":2265,"Ġalong":2266,"ĊĠĠĠĠĠĠ":2267,"88":2268,"Ġsubject":2269,"Ġkey":2270,"Ġ50":2271,"Ġpercent":2272,"Ġsecurity":2273,"ĠFlorida":2274,"Ġfinal":2275,"Ġliter":2276,"Ġpurpose":2277,"amm":2278,"ĠCounty":2279,"utions":2280,"ãĥ":2281,"Ġdevelopment":2282,"olution":2283,"Ġactivity":2284,"ites":2285,"ese":2286,"ĠAd":2287,"ores":2288,"Ġ${\\":2289,"------------------------------------------------":2290,"ãĤ":2291,"ĠCo":2292,"orn":2293,"Ġhowever":2294,"ival":2295,"big":2296,"Ġdesign":2297,"100":2298,"Ġmen":2299,"Ġincreased":2300,"ĠOr":2301,"Ġclean":2302,"Ġstep":2303,"use":2304,"Ġproposed":2305,"Ġpiec":2306,"emplate":2307,"An":2308,"85":2309,"96":2310,"Ġdynam":2311,"}{\\":2312,"Ġmanag":2313,"Ġâ":2314,"de":2315,"Ġargument":2316,"Ġsal":2317,"Ġchar":2318,"Ġfund":2319,"ered":2320,"Ġaccount":2321,"Ġcontent":2322,"eople":2323,"Al":2324,"Ġparticip":2325,"Ġsays":2326,"ducing":2327,"Ġcover":2328,"Ġevent":2329,"ories":2330,"Ġpack":2331,"ĠGeneral":2332,"Ġcheck":2333,"Ġrece":2334,"Ar":2335,"ids":2336,"Un":2337,"Ġrole":2338,"Ġeng":2339,"Ġgirl":2340,"Ġmaking":2341,"Ġcompl":2342,"Ġpoor":2343,"Ġkind":2344,"Ġair":2345,"Ġworking":2346,"Ġcy":2347,"Ġdensity":2348,"Ġcomponents":2349,"Ġincrease":2350,"load":2351,"Ġmonths":2352,"Ġsim":2353,"iff":2354,"Ġaway":2355,"Ġauthor":2356,"vention":2357,"ung":2358,"Ġcancer":2359,"order":2360,"test":2361,"Ġbecome":2362,"Ġcomput":2363,"bo":2364,"aster":2365,"ife":2366,"]\\]":2367,"return":2368,"Ġfactors":2369,"Ġfore":2370,"Ġdegree":2371,"Ġfood":2372,"'ll":2373,"ĠIN":2374,"ley":2375,"Ġquant":2376,"Ġinclude":2377,"Ġcannot":2378,"IM":2379,"ava":2380,"Ġprovided":2381,"08":2382,"Ġtold":2383,"Ġrange":2384,"Ġthing":2385,"List":2386,"ably":2387,"Ġuseful":2388,"Ġrespons":2389,"Ġexc":2390,"Ġfinancial":2391,"App":2392,"Ġpast":2393,"Ġmult":2394,"ects":2395,"Ġes":2396,"94":2397,"ĠRep":2398,"key":2399,"date":2400,"Ġneighb":2401,"ĠSch":2402,"Ġorigin":2403,"OT":2404,"Ġlarger":2405,"ivers":2406,"Ġpretty":2407,"Ġ`":2408,"Ġperfect":2409,"aint":2410,"ves":2411,"Ġeffects":2412,"UR":2413,"55":2414,"Sh":2415,"ources":2416,"ĠMed":2417,"}}\\":2418,"Ġenc":2419,"ĠJune":2420,"ief":2421,"Ġblock":2422,"Ġupon":2423,"Ġtell":2424,"IG":2425,"Ġold":2426,"Ġcircumstances":2427,"ipp":2428,"Ġobserved":2429,"Ġacknowled":2430,"Ġdetail":2431,"Ġenough":2432,"ml":2433,"Ġseen":2434,"Ġhyper":2435,"Ġproceed":2436,"ĠLe":2437,"irm":2438,"Ġconduct":2439,"Ġservice":2440,"inter":2441,"Ġsection":2442,"Ġcalcul":2443,"66":2444,"ought":2445,"ij":2446,"CH":2447,"Ġdefinition":2448,"Ġlog":2449,"Ġdoesn":2450,"ĠâĢĺ":2451,"inary":2452,"Ġregard":2453,"istic":2454,"Ġcompanies":2455,"OM":2456,"Ġproperty":2457,"Ġtradition":2458,"string":2459,"Ġann":2460,"bu":2461,"ĠAss":2462,"ament":2463,"Ġconditions":2464,"Ġpositive":2465,"ĠCanad":2466,"Ġfixed":2467,"Ġcomplex":2468,"known":2469,"ĠSc":2470,"ĠÎ":2471,"02":2472,"Ġtechniques":2473,"07":2474,"olic":2475,"Ġopt":2476,"Ġinterpret":2477,"Ġhttp":2478,"Ġmiss":2479,"There":2480,"II":2481,"Ġmor":2482,"\")":2483,"Ġregion":2484,"ering":2485,"Ġdecre":2486,"Ġuser":2487,"ING":2488,"ground":2489,"atter":2490,"figuration":2491,"off":2492,"iles":2493,".)":2494,"leq":2495,"Ġsepar":2496,"Ġwoman":2497,"Ġtax":2498,"________________":2499,"]).":2500,"Ġbase":2501,"comp":2502,")*":2503,"Ġcoupl":2504,"Ġap":2505,"Ġ([@":2506,"Ġcountry":2507,"Ġlove":2508,"xi":2509,"Ġmus":2510,"ĠHealth":2511,"ĠĠĠĠĠĠĠĠĠĠĠ":2512,"Ġtalk":2513,"ĠAND":2514,"ĠSee":2515,"ective":2516,"09":2517,"77":2518,"At":2519,"ĊĠĠĠĠĠĠĠĠĠĠĠĠĠĠĠĠĠĠĠĠĠĠĠĠĠĠĠĠĠĠ":2520,"Ġtissue":2521,"Ġpick":2522,"Ġdeath":2523,"Ġperformed":2524,"Ġstop":2525,"Ġillustr":2526,"âĢ¦":2527,"Ġbook":2528,"Ġratio":2529,"Ġep":2530,"den":2531,"ensive":2532,"ware":2533,"Ġcut":2534,"lim":2535,"ĠApril":2536,"raft":2537,"Ġflu":2538,"Col":2539,"AB":2540,"apt":2541,"Ġspecial":2542,"Ġcreate":2543,"Ġrather":2544,"No":2545,"ai":2546,"Ġprob":2547,"Ġcult":2548,"see":2549,"Ġdoing":2550,"mp":2551,"Ġdefined":2552,"Ġvir":2553,"span":2554,"Ġpoints":2555,"Ġdescribed":2556,"Ġindustry":2557,"Ġcompletely":2558,"Ġseason":2559,"Ġfootball":2560,"nbsp":2561,"Ġearly":2562,"OP":2563,"ĠJuly":2564,"Ġopinion":2565,"Ġphot":2566,"osc":2567,"umer":2568,"Ġjo":2569,"verse":2570,"Ġearlier":2571,"ished":2572,"roid":2573,"ĠMar":2574,"Ġdecl":2575,"Ġeducation":2576,"Ġcandid":2577,"Ġenjoy":2578,"ĠWednesday":2579,"+\\":2580,"plic":2581,"exp":2582,"Ġpatient":2583,"ried":2584,"03":2585,"ĠSupreme":2586,"Ġsaf":2587,"Ġcompany":2588,"ched":2589,"Ġnecessarily":2590,"57":2591,"dis":2592,"ĠMay":2593,"emb":2594,"ĠEnglish":2595,"Ġreasons":2596,"mm":2597,"irect":2598,"Ġassess":2599,"Ġshowed":2600,"Ġdem":2601,"ĠSec":2602,"head":2603,"cluded":2604,"So":2605,"ram":2606,"ĠGoogle":2607,"Ġimage":2608,"imensional":2609,"Ġnull":2610,"ession":2611,"ender":2612,"Ġacross":2613,"Ġaccept":2614,"Ġrelevant":2615,"ining":2616,"Ġmix":2617,"Ġq":2618,"Gamma":2619,"IL":2620,"Ġbit":2621,"Ġ([":2622,"Ġ&&":2623,"ĠSu":2624,"ĠPr":2625,"bit":2626,"material":2627,"Ġweight":2628,"Ġreach":2629,"OS":2630,"year":2631,"Ġobtained":2632,"cal":2633,"Error":2634,"Ġmeet":2635,"ĠCircuit":2636,"Ġ$(":2637,"Ġcontrib":2638,"ino":2639,"ĠAmerican":2640,"resh":2641,"Ġactually":2642,"Ġfive":2643,"84":2644,"Ġadjust":2645,"omes":2646,"ibility":2647,"Ġexecut":2648,"ones":2649,"Ġbar":2650,"ĠCent":2651,"Ġwhole":2652,"cy":2653,"etition":2654,"osure":2655,"Ġgl":2656,"Ġbelow":2657,"Ġlearning":2658,"Ġvoid":2659,"OL":2660,"Ġconsidered":2661,"ĠFig":2662,"ogen":2663,"Ġchanged":2664,"^\\":2665,"Ġmakes":2666,"Ġvarious":2667,"ero":2668,"Ġstring":2669,"Ġbreak":2670,"PE":2671,"Ġproteins":2672,"Ġwriting":2673,"Ġsource":2674,"Ġshows":2675,"Ġrelated":2676,"ache":2677,"Ġonce":2678,"ĠĊ":2679,"Ġstates":2680,"003":2681,"Ġinternational":2682,"ĠBr":2683,"Ġsynthes":2684,"Ġspe":2685,"onal":2686,"Ġra":2687,"Ġthought":2688,"upplementary":2689,"Ġanalyses":2690,"Ġbegan":2691,"Ġrespectively":2692,"Ġincluded":2693,"Ġadded":2694,"ĠAm":2695,"~~~":2696,"la":2697,"Ġbuilt":2698,"nu":2699,"circ":2700,"Ġver":2701,"Ġdevices":2702,"42":2703,"Ġchild":2704,"queuebot":2705,"na":2706,"US":2707,"ocal":2708,"Ġdam":2709,")}":2710,"Ġsurgery":2711,"Ġcard":2712,"Ġsolution":2713,"ĠAugust":2714,"Ġoccur":2715,"\"}).":2716,"ĠJesus":2717,"icrosoft":2718,"Ġwidth":2719,"Ġexam":2720,")(":2721,"ĠDistrict":2722,"Ġprincip":2723,"Ġdeal":2724,"ĠCar":2725,"Ġarrest":2726,"Ġmarket":2727,"Ġsignificantly":2728,"Ġapplication":2729,"ĠPat":2730,"value":2731,"bt":2732,"Ġprocedure":2733,"49":2734,"ĠOF":2735,"Ġfully":2736,"Ġfactor":2737,"Ġeyes":2738,"ĠBl":2739,"Ġprogress":2740,"CC":2741,"Ġsex":2742,"Ġbeyond":2743,"ENT":2744,"86":2745,"sl":2746,"Ġcounter":2747,"ean":2748,"001":2749,"Ġsubs":2750,"ĠOne":2751,"Ġmaint":2752,"illed":2753,"no":2754,"ĠÂ§":2755,"Ġanti":2756,"87":2757,"Ġstruct":2758,"ĠDecember":2759,"ĠAdd":2760,"Ġsignal":2761,"gg":2762,"RESULTS":2763,"Ġsystems":2764,"theta":2765,"Ġseries":2766,"/*":2767,"odes":2768,"ĠMETHODS":2769,"Ġtook":2770,"ĠWith":2771,"'d":2772,"Ġtowards":2773,"Ġsite":2774,"Ġmar":2775,"Ġwebsite":2776,"Ġutil":2777,"Ġ...":2778,"Figure":2779,"net":2780,"tract":2781,"Ġyet":2782,"Ġconsist":2783,"Ph":2784,"Ġever":2785,"Ġplaintiff":2786,"Ġcame":2787,"ternal":2788,"ĠMr":2789,"Ġland":2790,"Ġrelatively":2791,"Ġroom":2792,"Ġexactly":2793,"Ġcommunity":2794,"Ġspect":2795,"Ġred":2796,"tau":2797,"ĠCouncil":2798,"lation":2799,"Ġloss":2800,"code":2801,"Ġbirth":2802,"ulated":2803,"Ġcause":2804,"Ġdecision":2805,"ips":2806,"Ġcouple":2807,"Ġadministration":2808,"\");":2809,"mathbf":2810,"Ġhref":2811,"Ġhouse":2812,"ymbol":2813,"Ġexperiments":2814,"oh":2815,"46":2816,"')":2817,"dom":2818,"Ġtem":2819,"reed":2820,"ĠMoreover":2821,"ider":2822,"Ġdiagn":2823,"Ġaddress":2824,"Ġsearch":2825,"ving":2826,"times":2827,"Ġhusband":2828,"ops":2829,"Ġinfluence":2830,"ĠBecause":2831,"ĠFacebook":2832,"olve":2833,"TR":2834,"delta":2835,"EL":2836,"Ġupper":2837,"operatorname":2838,"Ġ21":2839,"ĠThen":2840,"ck":2841,"Ġfelt":2842,"Ġnight":2843,"Data":2844,"body":2845,"Ġmagn":2846,"83":2847,"ĠAct":2848,"mit":2849,"umb":2850,"Ġparents":2851,"rangle":2852,"trans":2853,"used":2854,"Gr":2855,"Ġsix":2856,"Ġbound":2857,"ĠDefendant":2858,"Ġcircuit":2859,"Ġphosph":2860,"Ġcontract":2861,"Ġanything":2862,"Ġvictim":2863,"Ġbinding":2864,"size":2865,"ises":2866,"Ġ27":2867,"93":2868,"Ġmethods":2869,"iction":2870,"Ġmind":2871,"Ġyoung":2872,"âĶľâĶĢâĶĢâĶĢâĶĢâĶĢâĶĢâĶĢâĶĢâĶĢâĶĢâĶĢâĶĢâĶĢâĶĢâĶĢâĶ¼âĶĢâĶĢâĶĢâĶĢâĶĢâĶĢâĶĢâĶĢâĶĢâĶĢâĶĢâĶĢâĶĢâĶĢâĶĢâĶĢâĶĢâĶĢâĶĢâĶĢâĶĢâĶĢâĶĢâĶĢâĶĢâĶĢâĶĢâĶĢâĶĢâĶĢâĶĢâĶĢâĶĢâĶĢâĶĢâĶĢâĶĢâĶĢâĶĢâĶĢâĶĢâĶĢâĶĢâĶĢâĶĢâĶĢâĶĢâĶĢâĶĢâĶĢâĶĢâĶĢâĶĢâĶĢâĶĢâĶĢâĶĢâĶĢâĶĢâĶĢâĶĢâĶĢâĶ¤":2873,"aging":2874,"ĠGovernment":2875,"Ġ(*":2876,"Ġreleased":2877,"Ġattack":2878,"cc":2879,"Ġalleged":2880,"Ġvar":2881,"igr":2882,"Ġensure":2883,"SS":2884,"Ġservices":2885,"rim":2886,"Ġadditional":2887,"Ġtherefore":2888,"ĠIsrael":2889,"Ġwrote":2890,"ĠGod":2891,"izing":2892,"aj":2893,"Ġtable":2894,"rol":2895,"lying":2896,"Ġimplement":2897,"Ġtown":2898,"Ġbill":2899,"ged":2900,"After":2901,"Ġcelebr":2902,"Ġob":2903,"Ġtravel":2904,"Ġdifference":2905,"aged":2906,"Ġtoday":2907,"opt":2908,"ervice":2909,"}$,":2910,"Ġresistance":2911,"Ġentire":2912,"ĠThus":2913,"anch":2914,"Ġotherwise":2915,"Ġpers":2916,"ĠÂ±":2917,"Ġtrying":2918,"Ġthus":2919,"ĠBe":2920,"Sp":2921,"Ġclose":2922,"Ġportion":2923,"ĠAfric":2924,"Ã³n":2925,"Ġquickly":2926,"Ġneeded":2927,"Ġhypothes":2928,"06":2929,"Ġmachine":2930,"Ġlength":2931,"actions":2932,"89":2933,"Ġcomparison":2934,"Ġalgebra":2935,"^*":2936,"mer":2937,"param":2938,"uff":2939,"Ġsimple":2940,"rew":2941,"Ġcross":2942,"atus":2943,"ĠResearch":2944,"witter":2945,"Ġvia":2946,"ĠĠĠĠĠĠĠĠĠĠĠĠĠĠ":2947,"![":2948,"Ġintro":2949,"DE":2950,"Ġmot":2951,"UN":2952,"Ġir":2953,"define":2954,"Ġmatch":2955,"older":2956,"Ġgene":2957,"ĠInc":2958,"Ġpaid":2959,"Ġremoved":2960,"position":2961,"Ġpattern":2962,"Ġ(-":2963,"Ġcontact":2964,"do":2965,"pre":2966,"ales":2967,"Ġneeds":2968,"ients":2969,"}$.":2970,"alse":2971,"ĊĊĊ":2972,"ĠCity":2973,"itting":2974,"ĠInternational":2975,"Ġbottom":2976,"ike":2977,"Index":2978,"Ġfun":2979,"ilities":2980,"Ġsometimes":2981,"ĠĠĠĠĠĠĠĠĠĠĠĠĠ":2982,"Ġ(\\[":2983,"but":2984,"|\\":2985,"Key":2986,"Ġ^":2987,"Ġquality":2988,"asc":2989,"Im":2990,"Ġinvolved":2991,"Ġcapacity":2992,"Ġmut":2993,"Ġdig":2994,"41":2995,"face":2996,"Ġseem":2997,"Ġiniti":2998,"ference":2999,"atur":3000,"Ġstudents":3001,"Ġang":3002,"ĠAustral":3003,"Ġparty":3004,"ĠMc":3005,"Ġcharacteristics":3006,"------":3007,"92":3008,"],[@":3009,"Set":3010,"ĠBoard":3011,"ĠCont":3012,"Ġmodels":3013,"iber":3014,"])":3015,"ĠĠĠĠĠĠĠĠĠĠĠĠĠĠĠĠĠĠĠĠĠĠĠĠĠĠĠĠĠĠĠĠĠĠĠĠĠĠĠĠĠĠĠĠĠ":3016,"vironment":3017,"43":3018,"Ġjob":3019,"56":3020,"mathrm":3021,"struct":3022,"Ġwitness":3023,"ĠMy":3024,"field":3025,"Ġpopulation":3026,"based":3027,"Ġpain":3028,"vec":3029,"Ġperformance":3030,"Ġwent":3031,"Ġface":3032,"Ġ26":3033,"my":3034,"Ġfigure":3035,"omorph":3036,"unch":3037,"ption":3038,"Ġgetting":3039,"Ġrecent":3040,"Ġque":3041,"Ġhapp":3042,"Ġexpected":3043,"Ġflow":3044,"ti":3045,"ĠSe":3046,"Ġgrowth":3047,"Ġ\\\\":3048,"Ġ40":3049,"Ġchannel":3050,"IR":3051,"ĠEn":3052,"IV":3053,"idence":3054,"Ġindependent":3055,"Ġinflamm":3056,"Ġlooking":3057,"Ð¾Ð":3058,"ived":3059,"rc":3060,"Ġpolice":3061,"Ġcorrel":3062,"Ġfunctions":3063,"ĠInterest":3064,"Ġalcohol":3065,"Ġwin":3066,"ĠMin":3067,"Ġproblems":3068,"Ġrights":3069,"\\])":3070,"91":3071,"imilar":3072,"Ġflo":3073,"\\\\":3074,"Ġcomes":3075,"ential":3076,"dev":3077,"Ġmedia":3078,"erve":3079,"Ġprof":3080,"Ġcredit":3081,"*,":3082,"Ġpan":3083,"Override":3084,"Ġexpect":3085,"Ġexperienced":3086,"EM":3087,"ĠNULL":3088,"Ġdestroy":3089,"bib":3090,"ethod":3091,"vel":3092,"Ġur":3093,"ĠMichael":3094,"Ġplaced":3095,"Ġcryst":3096,"Ġcity":3097,"Ġ28":3098,"miss":3099,"ĠNot":3100,"Ġbrief":3101,"ĠDevelopment":3102,"ĠBy":3103,"Ġmyself":3104,"mediate":3105,"Ġseems":3106,"That":3107,"Ġdaily":3108,"Ġtouch":3109,"Ġtool":3110,"When":3111,"path":3112,"ĠCD":3113,"Ġproduction":3114,"Ġinput":3115,"Ġcivil":3116,"Ġ22":3117,"CL":3118,"icon":3119,"Refer":3120,"ĠmiR":3121,"acter":3122,"come":3123,"anks":3124,"ple":3125,"Ġstory":3126,"list":3127,"ience":3128,"Ġprovides":3129,"ously":3130,"Ġ$$":3131,"Delta":3132,"Ġmeasures":3133,"ony":3134,"Ġheart":3135,"Ġnamed":3136,"Ġalternative":3137,"state":3138,"Ġcal":3139,"Ġhost":3140,"Ġchem":3141,"Ġemployees":3142,"How":3143,"Ġconflict":3144,"Ġinstead":3145,"Simplify":3146,"anding":3147,"Table":3148,"Ġofficer":3149,"Ġprec":3150,"Ġtaking":3151,"Ġsimply":3152,"anced":3153,"oma":3154,"psi":3155,"Object":3156,"Â±":3157,"err":3158,"With":3159,"Get":3160,"ject":3161,"ĊĠĠĠĠĠĠĠĠĠĠĠĠĠĠĠĠĠĠĠĠĠĠĠ":3162,"Ġstrategy":3163,"ĠTrump":3164,"Ġsurvival":3165,"king":3166,"Ġlearn":3167,"Ġexercise":3168,"Ġblack":3169,"Ġsleep":3170,"des":3171,"Ġtheory":3172,"Manager":3173,"ds":3174,"iting":3175,"ĠRo":3176,"ging":3177,"**]{},":3178,"Ġminimum":3179,"ĠDo":3180,"Ġimpact":3181,"PS":3182,"include":3183,"uments":3184,"induced":3185,"EC":3186,"FL":3187,"Ġimport":3188,"normal":3189,"Ġevents":3190,"Ġcoordin":3191,"Ġspecifically":3192,"\";":3193,"Ġsomeone":3194,"Ġhundred":3195,"Ġrapid":3196,"\\*":3197,"Ġtw":3198,"Ġstarted":3199,"All":3200,"astroenterology":3201,"Ġmentioned":3202,"Ġplatform":3203,"Ġpage":3204,"By":3205,"po":3206,"wo":3207,"rown":3208,"fr":3209,"Ġcolor":3210,"Ġfall":3211,"point":3212,"ĠNational":3213,"hydr":3214,"cm":3215,"Ġstraight":3216,"Ġwor":3217,"ental":3218,"light":3219,"with":3220,"Ġphenomen":3221,"lin":3222,"74":3223,"Ġvalid":3224,"Ġ23":3225,"Ġload":3226,"Ġprepared":3227,"ĠCor":3228,"Ġsamples":3229,"ronic":3230,"init":3231,"Ġconfirmed":3232,"Ġdespite":3233,"https":3234,"down":3235,"Ġwatch":3236,"arr":3237,"Ġcoll":3238,"uk":3239,"oles":3240,"Ġjud":3241,"umber":3242,"ements":3243,"Ġbasis":3244,"Ġproducts":3245,"Add":3246,"En":3247,"76":3248,"Ġconv":3249,"Ġclos":3250,"Ġlines":3251,"Ġ},":3252,"PC":3253,"Ġimpro":3254,"astic":3255,"where":3256,"Ġframework":3257,"Ġpresented":3258,"Ġcriminal":3259,"link":3260,"));":3261,"Ġfollows":3262,"Ġdepend":3263,"Ġparameters":3264,"58":3265,"usion":3266,"ethyl":3267,"char":3268,"ĠPaul":3269,"unt":3270,"Re":3271,"Ġsample":3272,"ĠÐ":3273,"Ġbad":3274,"rip":3275,"Ġdetermined":3276,"MS":3277,"Ġdetermine":3278,"Ġstorage":3279,"Ġlack":3280,"ĠMan":3281,"Ġstatic":3282,"Ġcommercial":3283,"ĠDr":3284,"Ġhom":3285,"like":3286,"My":3287,"Ġshall":3288,"fort":3289,"work":3290,"ocol":3291,"top":3292,"Ġmedical":3293,"Ġindex":3294,"Ġeffective":3295,"atal":3296,"Ġanalyzed":3297,"Ġproliferation":3298,"Ġmap":3299,"Ġlive":3300,"ĠÃ":3301,"Ġnews":3302,"Ġemb":3303,"Ġdate":3304,"Ġformer":3305,"59":3306,"Ġpersonal":3307,"Ġpresence":3308,"Ġsociety":3309,"Ġidentified":3310,"Ġforce":3311,"Ġide":3312,"Ġassociation":3313,"Ġprinciples":3314,"Ġgenes":3315,"ĠâĪĴ":3316,"Ġsqu":3317,"SD":3318,"Ġfemale":3319,"//////////////////////////":3320,"reate":3321,"CD":3322,"63":3323,"outh":3324,"Ġprint":3325,"Ġphys":3326,"ython":3327,"Sc":3328,"PI":3329,"Ġitself":3330,"Ġdegrees":3331,"Ġattorney":3332,"}=":3333,"Ġsmooth":3334,"ying":3335,"Ġvelocity":3336,"ĠNorth":3337,"ĠCalculate":3338,"Ġfilm":3339,"Model":3340,"eff":3341,"62":3342,"ĠDavid":3343,"ana":3344,"Ġox":3345,"ĠAg":3346,"Ġappellant":3347,"Ġest":3348,"Ġdocument":3349,"Ġcitizens":3350,"Ġsil":3351,"Ġphase":3352,"Ġadvantage":3353,"ros":3354,"$-":3355,"Ġefficiency":3356,"error":3357,"Ġcontext":3358,"ĠYork":3359,"54":3360,"Ġfront":3361,"ĠWilli":3362,"Ġlonger":3363,"Ġdim":3364,"Ġofficers":3365,"Ġcopy":3366,"group":3367,"word":3368,"Ġrender":3369,"ula":3370,"Ġconstant":3371,"}^{\\":3372,"Ġtypes":3373,"ĠComp":3374,"TH":3375,"Ġtransfer":3376,"ĠPennsylvania":3377,"ills":3378,"Ġperhaps":3379,"Ġworks":3380,"sim":3381,"Ġscript":3382,"Ġstatement":3383,"Ġparallel":3384,"Dis":3385,"Ġground":3386,")=":3387,"72":3388,"Ġstatus":3389,"53":3390,"ĠInt":3391,"++":3392,"Ġsevere":3393,"Ġeverything":3394,"ening":3395,"Ġsense":3396,"Ġdraw":3397,"Ġanimals":3398,"Ġinvest":3399,"Ġelements":3400,"ĠBrazil":3401,"79":3402,"Ġfruit":3403,"roph":3404,"ulations":3405,"78":3406,"osition":3407,"Ġwrong":3408,"Param":3409,"Ġbiggest":3410,"Ġsyndrome":3411,"Ġprevent":3412,"px":3413,"fully":3414,"Ġmis":3415,"Ġhist":3416,"ults":3417,"ĠAb":3418,"ĠCongress":3419,"ploy":3420,"hibition":3421,"ĠString":3422,"Ġremain":3423,"Ġrunning":3424,"Ed":3425,"Ġcharg":3426,"Ġpurposes":3427,"Ġscreen":3428,"Ġoutput":3429,"Ã¡":3430,"File":3431,"Ġconstit":3432,"Ġrad":3433,"ux":3434,"ÃŃ":3435,"Ġassert":3436,"Ps":3437,"Ġunit":3438,"Ġcreated":3439,"Ġdanger":3440,"Pl":3441,"mbox":3442,"Ġacid":3443,"Ġbur":3444,"Ġbring":3445,"Ġhuge":3446,"Ġtherapeutic":3447,"Ġ2012":3448,"itation":3449,"ĠII":3450,"Ġarray":3451,"Ġsem":3452,"ards":3453,"Ġmember":3454,"varphi":3455,"PA":3456,"me":3457,"Ġnode":3458,"utes":3459,"82":3460,"Int":3461,"aving":3462,"mail":3463,"Ġlikelihood":3464,"Ġrespond":3465,"Ġcamera":3466,"msg":3467,"Ġtraining":3468,"Ġquite":3469,"Ġinstall":3470,"urch":3471,"mun":3472,"Ġinsurance":3473,"Ġwalk":3474,"=======":3475,"oud":3476,"Ġdeep":3477,"ague":3478,"Ġvs":3479,"ĠPar":3480,"acc":3481,"Ġoil":3482,"Ġmobile":3483,"ĠGeorge":3484,"ĠWARRANT":3485,"Ġeasy":3486,"Ġconventional":3487,"Ġareas":3488,"Ġnational":3489,"Ġinside":3490,"Ġlayer":3491,"Ġdistrict":3492,"Ġple":3493,"Ġexchange":3494,"Ġslightly":3495,"ĠPart":3496,"Ġrates":3497,"imate":3498,"Ġselect":3499,"52":3500,"ever":3501,"ections":3502,"######":3503,"NS":3504,"erson":3505,"efore":3506,"ades":3507,"ĠTherefore":3508,"ĠIm":3509,"Ġimpl":3510,"Ġcreat":3511,"aves":3512,"ission":3513,"\"><":3514,"ĠGu":3515,"aven":3516,"Not":3517,"ĊĠĠĠĠĠĠĠĠĠĠĠĠĠ":3518,"Ġgas":3519,"Ġrelease":3520,"place":3521,"Text":3522,"Ġsomew":3523,"Calculate":3524,"73":3525,"Ġequivalent":3526,"Ġvector":3527,"ĊĠĠĠĠĠĠĠĠ":3528,"ĠInstitute":3529,"Ġclaims":3530,"user":3531,"iet":3532,"lege":3533,"ĠGerm":3534,"Ġwanted":3535,"gn":3536,"]{":3537,"ocytes":3538,"Ġcontroll":3539,"ĠOur":3540,"isions":3541,"ians":3542,"atives":3543,"ĠChicago":3544,"Ġdirectly":3545,"aut":3546,"artment":3547,"Ġnearest":3548,"($":3549,"eat":3550,"Ġtransform":3551,"ĠHow":3552,"51":3553,"ĠPhys":3554,"CA":3555,"Ġago":3556,"*]{}":3557,"Ġrepresents":3558,"Ġ2013":3559,"from":3560,"71":3561,"Ġlimited":3562,"ĠFin":3563,"Ġcontain":3564,"ha":3565,"Ġmer":3566,"Ġneighborhood":3567,"Ġisn":3568,"public":3569,"Ġ/>":3570,"Ġfaith":3571,"ĠChinese":3572,"Ġstay":3573,"Ġability":3574,"subset":3575,"play":3576,"Ġarbitr":3577,"ners":3578,"const":3579,"prime":3580,"Ġsqrt":3581,"Ġ--------":3582,"ĠWestern":3583,"sk":3584,"Ġreduced":3585,"Ġlymph":3586,"Ġ[**":3587,"Ġdeveloped":3588,"ĠBritish":3589,"langle":3590,"Ċĉĉĉĉĉ":3591,"Ġ?":3592,"clus":3593,"Ġcook":3594,"elling":3595,"RNA":3596,"specific":3597,"81":3598,"ags":3599,"iveness":3600,"Ġpicture":3601,"ze":3602,"Ġlatest":3603,"ications":3604,"Ġnegative":3605,"write":3606,"void":3607,"array":3608,"EX":3609,"omy":3610,"ĠRuss":3611,"Ġcriteria":3612,"perty":3613,"Ġdistinct":3614,"Ġpreviously":3615,"Ġaccur":3616,"Ġgreater":3617,"ĠFoundation":3618,"Ġlicense":3619,"Ġrule":3620,"Or":3621,"Ġarchitect":3622,"OC":3623,"Ġforward":3624,"Ġsurround":3625,"oo":3626,"Ġoption":3627,"que":3628,"Ġincludes":3629,"Ġsett":3630,"max":3631,"Bu":3632,"rows":3633,"Ġinteger":3634,"Ġcup":3635,"orem":3636,"Ġincorpor":3637,"Ġ;":3638,"ocation":3639,"Request":3640,"Ċĉĉĉĉ":3641,"Ġneuro":3642,"Ġshare":3643,"Ġexpress":3644,"ĠLondon":3645,"bi":3646,"ï¼":3647,"Ġenzym":3648,"Ġproportion":3649,"Ġmurder":3650,"Ġmechan":3651,"Ġbehavior":3652,"ster":3653,"Ġport":3654,"IF":3655,"pen":3656,"version":3657,"Ġfire":3658,"Ġgraph":3659,"Ġdoubt":3660,"Ġprop":3661,"Ġhot":3662,"term":3663,"cluding":3664,"rial":3665,"ken":3666,"}(\\":3667,"Ġvoice":3668,"ML":3669,"Ġsequ":3670,"Ġlargest":3671,"Ġannounced":3672,"Ġarrang":3673,"reet":3674,"Ġabsolutely":3675,"čĊĠĠĠ":3676,"Ġwhite":3677,"Ġrepeated":3678,"ĠFriday":3679,"Ġaccom":3680,"Ġsn":3681,"Ġinstance":3682,"Ġcolumn":3683,"Ġvoltage":3684,"Ġstatist":3685,"ept":3686,"ĠAttorney":3687,"GF":3688,"ii":3689,"ĠHere":3690,"part":3691,"unction":3692,"Ġdefault":3693,"Ġmemory":3694,"wide":3695,"Ġmice":3696,"Ġpair":3697,"Ġgames":3698,"abor":3699,"ĠRec":3700,"itted":3701,"requ":3702,"oring":3703,"Ġball":3704,"Ġer":3705,"Ġ29":3706,"ribute":3707,")$.":3708,"otion":3709,"Ġcompet":3710,"Ġ);":3711,"ĠJust":3712,"plit":3713,"lock":3714,"ĠSystem":3715,"cur":3716,"Ġwhatever":3717,"61":3718,"sub":3719,"ĠDis":3720,"Ġfindings":3721,"\\<":3722,"Â°":3723,"Ġgenerally":3724,"IP":3725,"js":3726,"Ġcateg":3727,"Ġeye":3728,"ĠPer":3729,"ville":3730,"Sec":3731,"Ġetc":3732,"Ġ60":3733,"Ġlost":3734,"ĠCir":3735,"Ġresid":3736,"Ġfollowed":3737,"Ġgrant":3738,"print":3739,"Ġtitle":3740,"Ġcarbon":3741,"Ġappeal":3742,"Ġusually":3743,"Ġtreated":3744,"Ġaim":3745,"omic":3746,"Ġreceptor":3747,"ĠHis":3748,"Ġword":3749,"Ġpresident":3750,"Ġcompleted":3751,"Ġreference":3752,"Ġmatrix":3753,"ĠId":3754,"Ġcorresponding":3755,"sm":3756,"Ġefficacy":3757,"ĠST":3758,"Ġoutcomes":3759,"nabla":3760,"ened":3761,"Ġsugar":3762,"Ġillegal":3763,"Ġglobal":3764,"Ġ32":3765,"ĠSince":3766,"Ġlinear":3767,"Ġparticularly":3768,"Ġrev":3769,"Ġempty":3770,"...\"":3771,"Ġdelivery":3772,"Ġ[*":3773,"ĠTexas":3774,"Ġplayers":3775,"ĠAfghanistan":3776,"Ġstrugg":3777,"ĠDe":3778,"github":3779,"Ġguilty":3780,"ĠBar":3781,"Ġcoming":3782,"Ġge":3783,"Ġdifferences":3784,"ĠSm":3785,"alt":3786,"ped":3787,"Ġplasma":3788,"Ġinvention":3789,"oke":3790,"Ġfight":3791,"lib":3792,"ĠMonday":3793,"ĠChina":3794,"ĠPol":3795,"Ġspectrum":3796,"Ġnote":3797,"Ġbuilding":3798,"\".":3799,"ĠWhile":3800,"Ġhospital":3801,"Ġdiseases":3802,"ĠMarch":3803,"Ġderivative":3804,"ano":3805,"otic":3806,"oscopic":3807,"Ġactive":3808,"ĠDes":3809,"active":3810,"bert":3811,"Ġprimarily":3812,"Ġautomatically":3813,"Ġguidelines":3814,"Ġonline":3815,"urb":3816,"Ġequipment":3817,"kappa":3818,"Ġexplicit":3819,"eless":3820,"Ġregular":3821,"Ġ2014":3822,"Ġgrad":3823,"['":3824,"alysis":3825,"istry":3826,"Ġmessage":3827,"((":3828,"Ġinhibit":3829,"().":3830,"Ġcommittee":3831,"eline":3832,"ĠReg":3833,"MA":3834,"Ġwait":3835,"Ġrout":3836,"df":3837,"Ġfailed":3838,"ially":3839,"oes":3840,"stein":3841,"Ġwhose":3842,"Ġoffice":3843,"ĠFirst":3844,"Ġconstruct":3845,"Ġappeared":3846,"lor":3847,"Ġsaw":3848,"Ġwrite":3849,"Ġsensitivity":3850,"Ġ-->":3851,"Ġtherapy":3852,"ĠTechn":3853,"Ġlate":3854,"ours":3855,"Ġstyle":3856,"Ġopportunities":3857,"Controller":3858,"Ġleave":3859,"iable":3860,"Ġsyn":3861,"Def":3862,"Ġcosts":3863,"bre":3864,"Ġstimul":3865,"Ġalthough":3866,"ĠPakistan":3867,"Ġpurch":3868,"ued":3869,"Ġheat":3870,"summary":3871,"Ġmortality":3872,"fil":3873,"Ġpractice":3874,"Ġsituation":3875,"Ġcharge":3876,"Ġsaying":3877,"Ġscheme":3878,"orizontal":3879,"ĠWITH":3880,"Ġoffer":3881,"Ġcountries":3882,"quad":3883,"onic":3884,"Ġquarter":3885,"Ġtakes":3886,"Ġheavy":3887,"OW":3888,"Ġrelative":3889,"Ġsubstrate":3890,"Ġlegal":3891,"ancy":3892,"mark":3893,"ĠOR":3894,"Ġfat":3895,"ĠDNA":3896,"sw":3897,"Class":3898,"eng":3899,"Ġmixture":3900,"ĠHouse":3901,"Ġwall":3902,"çļĦ":3903,"âĢĲ":3904,"Ġrecently":3905,"idge":3906,"Ġdriving":3907,"Ġuniform":3908,"}_{\\":3909,"Ġprefer":3910,"ĠIran":3911,"BC":3912,"db":3913,"ĠCons":3914,"Ġuncertain":3915,"Ġasp":3916,"Ġrot":3917,"Path":3918,"Ġsufficient":3919,"ankruptcy":3920,"==":3921,"âĢ¢":3922,"Ġhousing":3923,"ĠEd":3924,"source":3925,"Ġvot":3926,"Ġteach":3927,"vey":3928,"Ġintr":3929,"arrow":3930,"Ġmargin":3931,"itable":3932,"esis":3933,"ĠDef":3934,"pped":3935,"cap":3936,"Ġgives":3937,"chi":3938,"Ġjournal":3939,"Ġ2016":3940,"Ġste":3941,"Ġcenter":3942,"Ð°Ð":3943,"Ġsubsequent":3944,"Ġintelligence":3945,"unc":3946,"utrition":3947,"Ġnature":3948,"Ġserious":3949,"ĠQu":3950,"Qu":3951,"lete":3952,"asing":3953,"ĠVirginia":3954,"Ad":3955,"Ġguarant":3956,"igen":3957,"Ġdefendants":3958,"Ġstage":3959,"ĠAmerica":3960,"anging":3961,"Ġspecies":3962,"';":3963,"Ġprime":3964,"Ġidentify":3965,"Ġorg":3966,"Ġenh":3967,"Ġ31":3968,"ĠIS":3969,"Ġtried":3970,"\\].":3971,"ĠSome":3972,"Ġappro":3973,"Ġbalance":3974,"American":3975,"Ġanyone":3976,"gl":3977,"Ġappreci":3978,"Ġhydro":3979,"Ġimages":3980,"Ġeveryone":3981,"Ġlibrary":3982,"ĠTuesday":3983,"protobuf":3984,"Ġfeed":3985,"ĠUsing":3986,"illing":3987,"Se":3988,"Ġdouble":3989,"Ġtrack":3990,"pat":3991,"Ġ2015":3992,"ĠOff":3993,"Ġjury":3994,"Ġliving":3995,"adem":3996,"Ġult":3997,"^[@":3998,"cell":3999,"Ġunique":4000,"aries":4001,"BS":4002,"One":4003,"ĠWar":4004,"Ġles":4005,"omb":4006,"Ġantibodies":4007,"Ġhope":4008,"rec":4009,"prop":4010,"Ġindividuals":4011,"encies":4012,"Ġord":4013,"Ġ/*":4014,"Ġbroad":4015,")-":4016,"ils":4017,"Ġselected":4018,"\\;\\;\\;\\;":4019,"Ġwarrant":4020,"map":4021,"Ġscale":4022,"Ġextremely":4023,"Ġvers":4024,"Ġchoice":4025,"Ġfederal":4026,"ayout":4027,"izes":4028,"Ġspirit":4029,"ball":4030,"Ġways":4031,"Ġmeasured":4032,"gy":4033,"Ġprocedures":4034,"Ġissued":4035,"mand":4036,"Ġ///":4037,"Ġchosen":4038,"Ġdiss":4039,"Ġassum":4040,"Ġdesigned":4041,"Ġduty":4042,"PL":4043,"\\'":4044,"Ġoperation":4045,"čĊĠ":4046,"Ġthousands":4047,"Ġallowed":4048,"pack":4049,"Test":4050,"]^":4051,"uel":4052,"otherapy":4053,"iring":4054,"asis":4055,"Ġhighly":4056,"ĠAlthough":4057,"room":4058,"Ġthemselves":4059,"}}$":4060,"Ġparties":4061,"uthor":4062,"Ġisolated":4063,"ĠJudge":4064,"Ġspeed":4065,"Ġdetails":4066,"Ġfit":4067,"Time":4068,"hand":4069,"Ġmembrane":4070,"Ġfreedom":4071,"Ġpublished":4072,"ĠSen":4073,"Ġbecame":4074,"info":4075,"Ġassist":4076,"Ġdoct":4077,"cast":4078,"Lambda":4079,"Ġfailure":4080,"ĠSer":4081,"ae":4082,"bm":4083,"ĠNow":4084,"Ġfib":4085,"inity":4086,"length":4087,"Ġ2010":4088,"iation":4089,"apter":4090,"Ġmetabol":4091,"Ðµ":4092,"Ġbox":4093,"stance":4094,"ĠThursday":4095}