{"[UNK]":0,"[CLS]":1,"[SEP]":2,"[PAD]":3,"[MASK]":4,"!":5,"\"":6,"#":7,"$":8,"%":9,"&":10,"'":11,"(":12,")":13,"*":14,"+":15,",":16,"-":17,".":18,"/":19,"0":20,"1":21,"2":22,"3":23,"4":24,"5":25,"6":26,"7":27,"8":28,"9":29,":":30,";":31,"<":32,"=":33,">":34,"?":35,"@":36,"A":37,"B":38,"C":39,"D":40,"E":41,"F":42,"G":43,"H":44,"I":45,"J":46,"K":47,"L":48,"M":49,"N":50,"O":51,"P":52,"Q":53,"R":54,"S":55,"T":56,"U":57,"V":58,"W":59,"X":60,"Y":61,"Z":62,"[":63,"\\":64,"]":65,"^":66,"_":67,"`":68,"a":69,"b":70,"c":71,"d":72,"e":73,"f":74,"g":75,"h":76,"i":77,"j":78,"k":79,"l":80,"m":81,"n":82,"o":83,"p":84,"q":85,"r":86,"s":87,"t":88,"u":89,"v":90,"w":91,"x":92,"y":93,"z":94,"{":95,"|":96,"}":97,"~":98,"¡":99,"¢":100,"£":101,"¤":102,"¥":103,"¦":104,"§":105,"¨":106,"©":107,"ª":108,"«":109,"¬":110,"®":111,"¯":112,"°":113,"±":114,"²":115,"³":116,"´":117,"µ":118,"¶":119,"·":120,"¸":121,"¹":122,"º":123,"»":124,"¼":125,"½":126,"¾":127,"¿":128,"Â":129,"Ã":130,"Ä":131,"Å":132,"Æ":133,"Ç":134,"È":135,"É":136,"Ê":137,"Ë":138,"Ì":139,"Í":140,"Î":141,"Ï":142,"Ð":143,"Ñ":144,"Ò":145,"Ó":146,"Ô":147,"Õ":148,"Ö":149,"×":150,"Ø":151,"Ù":152,"Ú":153,"Û":154,"Ü":155,"Þ":156,"ß":157,"à":158,"á":159,"â":160,"ã":161,"ä":162,"å":163,"æ":164,"ç":165,"è":166,"é":167,"ê":168,"ë":169,"ì":170,"í":171,"î":172,"ï":173,"ð":174,"Ā":175,"ā":176,"Ă":177,"ĉ":178,"Ċ":179,"ċ":180,"Č":181,"č":182,"ě":183,"Ġ":184,"ġ":185,"Ģ":186,"ģ":187,"Ĥ":188,"ĥ":189,"Ħ":190,"ħ":191,"Ĩ":192,"ĩ":193,"Ī":194,"ī":195,"Ĭ":196,"ĭ":197,"Į":198,"į":199,"İ":200,"ı":201,"Ĳ":202,"ĳ":203,"Ĵ":204,"ĵ":205,"Ķ":206,"ķ":207,"ĸ":208,"Ĺ":209,"ĺ":210,"Ļ":211,"ļ":212,"Ľ":213,"ľ":214,"Ŀ":215,"ŀ":216,"Ł":217,"ł":218,"Ń":219,"Ġthe":220,"ĠĠĠĠĠ":221,"Ġa":222,"in":223,"er":224,"tion":225,"Ġt":226,"re":227,"Ġof":228,"en":229,"Ġs":230,"Ġand":231,"at":232,"on":233,"or":234,"Ġc":235,"Ġw":236,"âĶĢâĶĢâĶĢâĶĢâĶĢâĶĢâĶĢâĶĢâĶĢâĶĢâĶĢâĶĢâĶĢâĶĢâĶĢâĶĢâĶĢâĶĢâĶĢâĶĢâĶĢâĶĢâĶĢâĶĢâĶĢâĶĢâĶĢâĶĢâĶĢâĶĢâĶĢâĶ":237,"is":238,"es":239,"ed":240,"al":241,"it":242,"an":243,"Ġp":244,"Ġf":245,"Ġb":246,"ou":247,"ing":248,"Ġin":249,"ar":250,"Ġm":251,"Ġd":252,"ic":253,"le":254,"Ġto":255,"Ġh":256,"as":257,"ro":258,"ent":259,"Ġth":260,"--------":261,"et":262,"Ġre":263,"el":264,"Ġn":265,"om":266,"Ġwith":267,"st":268,"ec":269,"il":270,"ac":271,"ĠTh":272,"Ġl":273,"Ġe":274,"ĠĠĠ":275,"ot":276,"ight":277,"id":278,"im":279,"Ġis":280,"Ġg":281,"Ġ(":282,"ol":283,"ve":284,"am":285,"ĠI":286,"ation":287,"Ġyou":288,"âĶĢâĶĢâĶĢâĶĢâĶĢâĶĢâĶĢâĶĢâĶĢâĶĢâĶĢâĶĢâĶ":289,"âĢ":290,"us":291,"ly":292,"Ġfor":293,"ow":294,"ĠS":295,"ĠĠĠĠĠĠĠĠĠĠĠĠĠĠĠ":296,"Ġthat":297,"Ġon":298,"ver":299,"ur":300,"ĠA":301,"ĠC":302,"un":303,"ad":304,"ut":305,"Ġst":306,"Ġbe":307,"ul":308,"Ġ1":309,"Ġwh":310,"ay":311,"ig":312,"if":313,"ce":314,"==========":315,"ter":316,"Ġcon":317,"os":318,"Ġfrom":319,"ch":320,"em":321,"Ġas":322,"Ġan":323,"ir":324,"od":325,"op":326,"Ġhave":327,"Ġ$":328,"Ġpro":329,"th":330,"ĊĠĠĠĠĠĠĠ":331,"ab":332,"um":333,"ate":334,"ould":335,"ag":336,"Ġit":337,"ĠM":338,"Ġv":339,"ri":340,"Ġal":341,"Ġ\"":342,"Ġ2":343,"ĠP":344,"res":345,"pp":346,"qu":347,"Ġcomp":348,"ct":349,"ain":350,"est":351,"ere":352,"Ġex":353,"Ġr":354,"Ġwas":355,"ist":356,"Ġor":357,"ers":358,"ĠB":359,"ion":360,"ant":361,"oc":362,"Ġ\\":363,"ect":364,"00":365,"Ġare":366,"se":367,"Ġ=":368,"Ġ-":369,"iv":370,"Ġsu":371,"ity":372,"Ġat":373,"ĠF":374,"ess":375,"ound":376,"ĠH":377,"ment":378,"ore":379,"out":380,"Ġby":381,"ĠD":382,"ill":383,"our":384,"Ġde":385,"and":386,"ĠW":387,"ĠThe":388,"ĠT":389,"Ġwhich":390,"Ġsh":391,"end":392,"Ġnot":393,"her":394,"ive":395,"ĠR":396,"ke":397,"The":398,"**":399,"ap":400,"ĠL":401,"ough":402,"ĠN":403,"Ġch":404,"Ġthis":405,"ew":406,"ĊĠĠĠ":407,"ort":408,"art":409,"âĢĻ":410,"Ġwe":411,"ud":412,"Ġus":413,"ial":414,"{\\":415,"ell":416,"ure":417,"Ġbetween":418,"ies":419,"ĠG":420,"ĠE":421,"ĊĠĠĠĠĠĠĠĠĠĠĠ":422,"Ġun":423,"ated":424,"Ġse":425,"Ġhe":426,"Ġup":427,"ype":428,"pl":429,"Ġo":430,"form":431,"ine":432,"Ġyear":433,"all":434,"Ġ0":435,"Ġtr":436,"Ġknow":437,"Ġle":438,"'s":439,"og":440,"ext":441,"Ġbecause":442,"Ġ*":443,"ge":444,"ical":445,"Ġdiffer":446,"nt":447,"ff":448,").":449,"Ġcan":450,"ĠO":451,"act":452,"Ġ3":453,"ust":454,"der":455,"ue":456,"ame":457,"Ġimp":458,"ome":459,"ÂłÂłÂłÂłÂłÂłÂłÂłÂłÂłÂłÂłÂłÂłÂłÂłÂłÂłÂłÂłÂłÂłÂłÂłÂłÂłÂłÂłÂłÂłÂłÂłÂłÂł":460,"Ġalso":461,"ib":462,"iz":463,"ĊĠ":464,"Ġres":465,"ction":466,"ase":467,"able":468,"lass":469,"are":470,"age":471,"Ġpatients":472,"Ġother":473,"ack":474,"Ġsp":475,"ard":476,"Ġj":477,"ult":478,"Ġabout":479,"ast":480,"łÂłÂłÂłÂłÂłÂłÂłÂłÂłÂłÂłÂłÂłÂłÂłÂłÂłÂłÂłÂłÂłÂłÂłÂłÂłÂłÂłÂłÂłÂłÂłÂłÂłÂ":481,"ublic":482,");":483,"ĠâĢľ":484,"Ġtime":485,"ook":486,"Ġ{":487,"ence":488,"Ġcont":489,"_{":490,"ost":491,"ĠIn":492,"ath":493,"ans":494,"ĠU":495,"Ġinclud":496,"Ġad":497,"ip":498,"Ġwere":499,"Ġpl":500,"ĠJ":501,"ep":502,"av":503,"=\"":504,".\"":505,"01":506,"ak":507,"Ġwork":508,"ign":509,"Ġall":510,"Ġfollow":511,"Ġ[":512,"per":513,"Ġint":514,"Ġpeople":515,"Ġ+":516,"Ġacc":517,"Ġcomm":518,"ition":519,"ens":520,"Ġhas":521,"Ġdo":522,"ach":523,"ire":524,"ide":525,"ft":526,"ind":527,"ary":528,"Ġne":529,"ous":530,"ice":531,"Ġ4":532,"Ġme":533,"one":534,"Ġtwo":535,"Ġsaid":536,"Ġapp":537,"Ġsystem":538,"Ġgroup":539,"Ġbut":540,"Ġdis":541,"ress":542,"ations":543,"du":544,"Ġreturn":545,"pt":546,"ru":547,"Ġwill":548,"int":549,"Ġlike":550,"ong":551,"Ġar":552,"ph":553,"),":554,"--":555,"Ġgo":556,"ile":557,"ĠĠ":558,"Ġ&":559,"ber":560,"Ċĉĉ":561,"ose":562,"Ġ5":563,"Ġfirst":564,"Ġ<":565,"ance":566,"Ġif":567,"Ġen":568,"Ġafter":569,"Ġper":570,"ia":571,"ef":572,"ely":573,"Ġout":574,"Ġpre":575,"ally":576,"ace":577,"ra":578,"ang":579,"ord":580,"ory":581,"Ġone":582,"Ġcl":583,"ĊĠĠĠĠĠĠĠĠĠĠĠĠĠĠĠ":584,"...":585,"ĊĠĠĠĠĠ":586,"Ġqu":587,"Ġhis":588,"Ġev":589,"Ġthey":590,"own":591,"Ġop":592,"âĢĿ":593,"ail":594,"ry":595,"ĠSt":596,"Ġso":597,"}\\":598,"Ġsignificant":599,"Ġdata":600,"bject":601,"ors":602,"//":603,"Ġpart":604,"Âł":605,"Ġmore":606,"Ġtheir":607,"ĠK":608,"Ġinter":609,"Ġthere":610,"Ġ$\\":611,"ys":612,"ake":613,"Ġfunction":614,"Ġag":615,"ond":616,"ents":617,"Ġdevelop":618,"Ġhigh":619,"ite":620,"very":621,"ield":622,"bs":623,"Ġmethod":624,"ĠĠĠĠ":625,"}$":626,"Ġyour":627,"ount":628,"ates":629,"Ġbeen":630,"erm":631,"Ġhad":632,"right":633,"ree":634,"frac":635,"Ġgener":636,"Ġ}":637,"ric":638,"Ġany":639,"Ġno":640,"cl":641,"ont":642,"Ġman":643,"Ġconsider":644,"Ġthrough":645,"Ġk":646,"Ġrec":647,"Ġwho":648,"Ġ\\[[@":649,"erv":650,"Ġass":651,"ll":652,"Ġ'":653,"ish":654,"te":655,"ĠV":656,"Ġwould":657,"Ġincre":658,"Ġwhen":659,"Ġ6":660,"Ġeffect":661,"In":662,"enc":663,"Ġproblem":664,"gr":665,"reat":666,"old":667,"Ġindividual":668,"Ġrep":669,"\\]":670,"^{":671,"Ġthan":672,"Ġexp":673,"Ġover":674,"Ġmy":675,"Ġdef":676,"ild":677,"Ġsc":678,"------------------------":679,"</":680,"row":681,"ub":682,"rib":683,"oth":684,"Ġ19":685,"Ġits":686,"owever":687,"}}":688,"'t":689,"math":690,"ink":691,"10":692,"lect":693,"Ġpossib":694,"ex":695,"vers":696,"Ġvari":697,"Ġpoint":698,"ie":699,"Ġ_":700,"ays":701,"get":702,"Ġsomething":703,"tions":704,"ons":705,"hat":706,"Ġnew":707,"ass":708,"ample":709,"Ġoff":710,"Ġam":711,"tr":712,"Ġsome":713,"]{}":714,"ater":715,"ode":716,"ied":717,"ings":718,"Ġnumber":719,"ĠCh":720,"ĠY":721,"lo":722,"com":723,"19":724,"ttp":725,"Ġbefore":726,"Ġunder":727,"Ġpr":728,"ick":729,"Ġact":730,"Ġcurrent":731,"Ġour":732,"Ġrel":733,"Ġvalue":734,"Ġget":735,"Ġemploy":736,"Ġdes":737,"Ġcourt":738,"Ġ7":739,"ov":740,"ref":741,"ative":742,"left":743,"ark":744,"Ġinto":745,"iss":746,"Ġstudy":747,"uc":748,"ĠIt":749,"Ġonly":750,"Ġdec":751,"ian":752,"Ġworld":753,"Ġmodel":754,"Ġmay":755,"ĠĠĠĠĠĠĠĠĠĠĠĠĠĠĠĠĠĠĠĠĠĠĠĠĠĠĠĠĠĠ":756,"Ġph":757,"ambda":758,"nd":759,"ĠâĢ":760,"vi":761,"](#":762,"Ġro":763,"Ġab":764,"aw":765,"ular":766,"ert":767,"ock":768,"Ġpresent":769,"ove":770,"Ġsec":771,"Ġinv":772,"eg":773,"12":774,"Ġmade":775,"Ġprocess":776,"Ġher":777,"Ġcharacter":778,"Ġreg":779,"Ġadd":780,"Ġ8":781,"Ġlevel":782,"Ġtrans":783,"Ġthem":784,"ma":785,"âĸĶâĸĶâĸĶâĸĶâĸĶâĸĶâĸĶâĸĶâĸĶâĸĶâĸĶâĸĶâĸĶ":786,"ĊĊ":787,"Ġsupport":788,"ĠAmeric":789,"Ġco":790,"Ġanalysis":791,"Ġmuch":792,"Ġwhat":793,"ear":794,"ĠThis":795,"Ġind":796,"anc":797,"ient":798,"Ġim":799,"Ġhelp":800,"Th":801,"ased":802,"Ġgr":803,"Ġsuch":804,"Ġform":805,"ne":806,"olog":807,"Ġ201":808,"ating":809,"Ġtechn":810,"itt":811,"Ġcol":812,"app":813,"ĠWe":814,"up":815,"Ġduring":816,"ix":817,"Ġthese":818,"Ġobtain":819,"Ġresp":820,"elf":821,"ility":822,"Ġ9":823,"Ġjust":824,"ym":825,"Ġ10":826,"Ġprov":827,"str":828,"sp":829,"ĠĠĠĠĠĠĠĠĠĠ":830,"Ġuse":831,"ox":832,"Ġwhere":833,"ific":834,"ss":835,"Ġdet":836,"ĠUniversity":837,"Ġthen":838,"ident":839,"ty":840,"Ġnetwork":841,"Ġneed":842,"Ġset":843,"Ġpol":844,"fer":845,"ution":846,"alpha":847,"Ġrequire":848,"ug":849,"Ġcells":850,"Ġclass":851,"Ġsmall":852,"Ġgovernment":853,"Ġcould":854,"ith":855,"ime":856,"Ġresult":857,"les":858,"Ġrem":859,"Ġagainst":860,"Ġcom":861,"ize":862,"Ġsimilar":863,"()":864,"Ġac":865,"[@":866,"Ġy":867,"11":868,"ĠUnited":869,"\",":870,"ions":871,"ange":872,"Ġsuggest":873,"he":874,"ise":875,"als":876,"ob":877,"Ġused":878,"Ġperson":879,"lement":880,"Ġcontrol":881,"ues":882,"20":883,"tern":884,"Ġsub":885,"Ġfe":886,"ual":887,"ning":888,"Ġbl":889,"Ġdirect":890,"Ċĉ":891,"Ġinformation":892,"Ġshow":893,"Ġsur":894,"->":895,"Ġfact":896,"Ġpotential":897,"ER":898,"Ġcor":899,"ax":900,"to":901,"ev":902,"Ġfl":903,"Ġdid":904,"Ġshould":905,"type":906,"red":907,"rop":908,"eta":909,"Ġfurther":910,"Ġatt":911,"\">":912,"Ġspec":913,"Ġend":914,"Ġresearch":915,"orm":916,"ull":917,"ced":918,"fig":919,"Ġdist":920,"Ġfamily":921,"000":922,"ower":923,"ĠHe":924,"ks":925,"ection":926,"its":927,"Ġstr":928,"io":929,"ren":930,"inal":931,"ON":932,"Ġestablish":933,"Ġcondition":934,"###":935,"Ġusing":936,"Ġmajor":937,"ities":938,"Ġavailable":939,"Ġ.":940,"ics":941,".,":942,"15":943,"ruct":944,"ause":945,"Ġsee":946,"ict":947,"Ġshe":948,"IN":949,"ement":950,"Ġschool":951,"rit":952,"Ġsince":953,"aintiff":954,"Category":955,"Ġmost":956,"Ġenergy":957,"Ġhealth":958,"Ġerr":959,"port":960,"ood":961,"Ġassociated":962,"){":963,"Ġlife":964,"Ġback":965,"Ġbusiness":966,")$":967,"13":968,"mathcal":969,"cription":970,"16":971,"Ġwell":972,"Ġem":973,"Ġparamet":974,"Ġtest":975,"Ġstat":976,"Ġclaim":977,"Ġ$$\\":978,"Ġi":979,"duct":980,"li":981,"Ġ:":982,"ures":983,"Ġanother":984,"Ġtreatment":985,"Ġhim":986,"Ġdifferent":987,"_{\\":988,"ational":989,"Ġright":990,"pos":991,"atch":992,"pr":993,"ven":994,"Ġgiven":995,"Ġocc":996,"ined":997,"Ġmonth":998,"Ġcase":999,"Ġeach":1000,"Ġenvironment":1001,"ograph":1002,"ute":1003,"arg":1004,"rom":1005,"alcul":1006,"Ġprogram":1007,"14":1008,"Ġcons":1009,"Ġalready":1010,"Ġdiscuss":1011,"âĢī":1012,"ected":1013,"ator":1014,"urn":1015,"label":1016,"Ġwant":1017,"ically":1018,"Ġmechanism":1019,"Ġhow":1020,"Ġinf":1021,"ized":1022,"(\\":1023,"Ġte":1024,"Ġdoes":1025,"imes":1026,"Ġent":1027,"Ġdifficult":1028,"Ġinst":1029,"Ġ[@":1030,"und":1031,"Ġsuccess":1032,"Ġconst":1033,"Ġmin":1034,"Ġapplic":1035,"over":1036,"Ġimportant":1037,"Ġmake":1038,"Ġauth":1039,"Ġespecially":1040,"Ġevidence":1041,"Ġpos":1042,"elta":1043,"Ġlimit":1044,"Ġsame":1045,"ee":1046,"ĠWh":1047,"Ġbr":1048,"ared":1049,"\"}":1050,"let":1051,"ret":1052,"val":1053,"par":1054,"]\\].":1055,"Ġwhether":1056,"Ġ200":1057,"yn":1058,"Ġevery":1059,"],":1060,"Ġeven":1061,"upp":1062,"Ġdi":1063,"ength":1064,"Ġyears":1065,"ES":1066,"put":1067,"ata":1068,"ases":1069,"Ġfind":1070,"18":1071,"Ġobserv":1072,"cript":1073,"Ġtri":1074,"cent":1075,"Ġcall":1076,"ants":1077,"Ġthose":1078,"air":1079,"Ġx":1080,"Ġlarge":1081,"Ġboth":1082,"con":1083,"Ġmed":1084,"sh":1085,"Ġpartic":1086,"ash":1087,"Ġ|":1088,"Ġway":1089,"Ġdescrib":1090,"Ġbetter":1091,"yl":1092,"St":1093,"âĪĴ":1094,"Ġnow":1095,"Ġsimp":1096,"Ġ12":1097,"Ġvery":1098,"Ġdon":1099,"yp":1100,"mathbb":1101,"Ġser":1102,"Ġ@":1103,"))":1104,"html":1105,"Ġrepresent":1106,"ense":1107,"ins":1108,"Ġel":1109,"ful":1110,"ason":1111,"Ġmeasure":1112,"ave":1113,"ages":1114,"ature":1115,"Ġlong":1116,"AT":1117,"===":1118,"ĠCom":1119,"pro":1120,"Ġke":1121,"Ġclear":1122,"Ġexper":1123,"eth":1124,"ward":1125,",\\":1126,"rm":1127,"cept":1128,"Ġfound":1129,"Ġbu":1130,"../../":1131,"led":1132,"oun":1133,"50":1134,"Ġloc":1135,"ole":1136,"Ġbel":1137,"}{":1138,"Ġbeing":1139,"Ġhere":1140,"Ġquestion":1141,"Ġlook":1142,"Ġplay":1143,"ression":1144,"ok":1145,"igned":1146,"ines":1147,"ale":1148,"ich":1149,"17":1150,"Ġview":1151,"Ġthink":1152,"Ġpublic":1153,"Ġcar":1154,"ting":1155,"Ġeconom":1156,"Ġmany":1157,"ĠQ":1158,"ments":1159,"Ġ/":1160,"oid":1161,"Ġval":1162,"aking":1163,"ved":1164,"the":1165,"ified":1166,"ively":1167,"ospital":1168,"30":1169,"line":1170,"sqrt":1171,"of":1172,"cer":1173,"?\"":1174,"Ġcirc":1175,"Ġgu":1176,"It":1177,"Ġext":1178,"ices":1179,"Ġstud":1180,"Ġfil":1181,"32":1182,"Ġuntil":1183,"',":1184,"Ġmultiple":1185,"Ġequ":1186,"Ġhaving":1187,"201":1188,"Ġreport":1189,"Ġmembers":1190,"ĠÂ":1191,"ner":1192,"ank":1193,"Ġprivate":1194,"Ġ//":1195,"Ġins":1196,"ik":1197,"Ġlittle":1198,"Ġcorrespond":1199,"\":":1200,"Ġsol":1201,"Ġbehavi":1202,"ms":1203,"ible":1204,"begin":1205,"Ġorder":1206,"Ġhuman":1207,"view":1208,"ĊĊĠĠĠ":1209,"Ġprevious":1210,"ĠFor":1211,"ody":1212,"Ġgood":1213,"Ġwhile":1214,"Ġeither":1215,"ĠĠĠĠĠĠĠĠ":1216,".âĢĿ":1217,"Ġalways":1218,"Ġterm":1219,"day":1220,"ness":1221,"Ġdemonstr":1222,"Ġhigher":1223,"ocument":1224,"::":1225,"not":1226,"Ġorgan":1227,"Ġweek":1228,"25":1229,"ministr":1230,"ĠThese":1231,"ps":1232,"ng":1233,"set":1234,"Ġmaterial":1235,"Ġname":1236,"Ġgen":1237,"Ġstart":1238,"We":1239,"Ġnon":1240,"Ġdown":1241,"ually":1242,"ision":1243,"oy":1244,"ld":1245,"ts":1246,"ĠLet":1247,"Ġserv":1248,"Ġcount":1249,"://":1250,"ĠIf":1251,"Ġfr":1252,"Ġrelationship":1253,"Ġreceived":1254,"AR":1255,"Ġtotal":1256,"ĠâĢĵ":1257,"Ġread":1258,"EN":1259,"Ġsingle":1260,"Ġdep":1261,"ality":1262,"af":1263,"ĠAl":1264,"Ġstandard":1265,"ource":1266,"Ċĉĉĉ":1267,"Ġsecond":1268,"Ġproject":1269,"Ġthree":1270,"fficient":1271,"Ġhand":1272,"ĠCourt":1273,"Ġchildren":1274,"Ġown":1275,"Ġapproach":1276,"************************":1277,"Ġseveral":1278,"ĠJohn":1279,"24":1280,"med":1281,"Ġunderstand":1282,"Ġwithout":1283,"Ġinvestig":1284,"br":1285,"Ġmod":1286,"OR":1287,"^{\\":1288,"any":1289,"Ġline":1290,"NA":1291,"ump":1292,"(-":1293,"amp":1294,"Ġstate":1295,"ST":1296,"\\[":1297,"Ġsl":1298,"aining":1299,"__":1300,"Ġprovid":1301,"ization":1302,"$,":1303,"$.":1304,"ify":1305,"Ġperiod":1306,",\"":1307,"ember":1308,"ception":1309,"Ġant":1310,"ĠAnd":1311,"80":1312,"way":1313,"eck":1314,"ystem":1315,"clude":1316,"man":1317,"Ġ20":1318,"ah":1319,"Ġactiv":1320,"ology":1321,"amples":1322,"Ġcre":1323,"ray":1324,"Ġmet":1325,"ather":1326,"ious":1327,"ability":1328,"ences":1329,"ency":1330,"Ġtarget":1331,"ĠPro":1332,"ork":1333,"ton":1334,"Ġperform":1335,"(\"":1336,"CR":1337,"ives":1338,"ead":1339,"ulation":1340,"Ġpres":1341,"Ġgreat":1342,"ists":1343,"What":1344,"Ġtype":1345,"atic":1346,"ĠBut":1347,"Ġoper":1348,"Ġproper":1349,"Ġresponse":1350,"Ġcertain":1351,"Ex":1352,"Ġcourse":1353,"ĠTr":1354,"Ġsign":1355,"ĠAs":1356,"Ġrisk":1357,"dd":1358,"au":1359,"ependent":1360,"ique":1361,"------------":1362,"Ġlast":1363,"40":1364,"ger":1365,"name":1366,"Ġ**":1367,"ism":1368,"Ġlead":1369,"Ġissue":1370,"CT":1371,"Ġpur":1372,"IT":1373,"Ġmust":1374,"arch":1375,"Ġpat":1376,"Ġtemperature":1377,"eb":1378,"String":1379,"Ġsay":1380,"Ġoften":1381,"Wh":1382,"Ġcap":1383,"Ġcontinu":1384,"Ġlaw":1385,"âĢľ":1386,"Ġbec":1387,"ĠThere":1388,"Ġet":1389,"Ġderiv":1390,"ron":1391,"ars":1392,"Ġtake":1393,"ĢâĶĢâĶĢâĶ":1394,"itive":1395,"ains":1396,"action":1397,"mission":1398,"Ġmatter":1399,"Ġ15":1400,"Ġrun":1401,"for":1402,"ention":1403,"22":1404,"Let":1405,"sigma":1406,"Ġfin":1407,"ann":1408,"Ġconf":1409,"ination":1410,"==============================":1411,"ane":1412,"Ġmain":1413,"Ġbre":1414,"arm":1415,"Ġcaus":1416,"alk":1417,"ces":1418,"Ġwr":1419,"bl":1420,"ross":1421,"Ġstill":1422,"Ġwomen":1423,"ames":1424,"Ġaccording":1425,"Ġbenef":1426,"Ġdisease":1427,"Ġnecessary":1428,"ouse":1429,"36":1430,"Ġestim":1431,"Ġdefendant":1432,"Ġear":1433,"ccording":1434,"augh":1435,"ule":1436,"Ġlet":1437,"agn":1438,"Ġcr":1439,"ĊĠĠ":1440,"ech":1441,"ets":1442,"ier":1443,"Ġelect":1444,"Ġchanges":1445,"ade":1446,"Ġexpl":1447,"Ġcent":1448,"Ġresults":1449,"View":1450,"ĠNew":1451,"wh":1452,"lex":1453,"].":1454,"Ġevalu":1455,"Ġinc":1456,"AL":1457,"ots":1458,"Ġthough":1459,"ci":1460,"Ġnormal":1461,"Ġmicro":1462,"Ġanswer":1463,"Ġident":1464,"35":1465,"Ġz":1466,"selves":1467,"27":1468,"Ġpost":1469,"Ġtogether":1470,"Ġstructure":1471,"ĠYou":1472,"Ġdeterm":1473,"Ġapproxim":1474,"az":1475,"Ġprobably":1476,"def":1477,"();":1478,"âĢĵ":1479,"ĠAn":1480,"Ġpublish":1481,"AN":1482,"05":1483,"Ġref":1484,"Ġday":1485,"Ġfriend":1486,"lease":1487,"Ġ18":1488,"ĠSh":1489,"200":1490,"ained":1491,"boldsymbol":1492,"atrix":1493,"Ġthird":1494,"ener":1495,"Ġfollowing":1496,"ool":1497,"ily":1498,"gamma":1499,"Ġaff":1500,"bf":1501,"ately":1502,"Ġsatisf":1503,"This":1504,"Ġallow":1505,"Ġjudgment":1506,"Ġed":1507,"duction":1508,"Ch":1509,"oup":1510,"ĠEurope":1511,"son":1512,"Ġlanguage":1513,"oot":1514,"hibit":1515,"45":1516,"Ġ16":1517,"Ġgoing":1518,"land":1519,"âĢĶ":1520,"text":1521,"sc":1522,"26":1523,"oint":1524,"Ġprotein":1525,"Ġreal":1526,"usepackage":1527,"Ġdrug":1528,"Ġprior":1529,"lection":1530,"Ġ,":1531,"var":1532,"be":1533,"Ġviol":1534,"Ġsurface":1535,"Ġwithin":1536,"Ġmark":1537,"Ġmoney":1538,")\\":1539,"www":1540,"partial":1541,"Ġcell":1542,"ural":1543,"epsilon":1544,"28":1545,"Ġprot":1546,"Ġsumm":1547,"ral":1548,"Ġdel":1549,"23":1550,"}(":1551,"ams":1552,"Ġmean":1553,"Ġinterest":1554,"Ġrecommend":1555,"ium":1556,"akes":1557,"Ġfrequ":1558,"ĠCalifornia":1559,"ID":1560,"Ġhappen":1561,"Ġcare":1562,",âĢĿ":1563,"less":1564,"Ġrequest":1565,"ouble":1566,"Ġbas":1567,"ote":1568,"oci":1569,"por":1570,"ters":1571,"},":1572,"Ġfocus":1573,"Ġadv":1574,"ĠX":1575,"Ġfield":1576,"we":1577,"Ġaddition":1578,"Ġinitial":1579,"ĊĠĠĠĠ":1580,"su":1581,"ãģ":1582,"Fig":1583,"Ġsocial":1584,"osed":1585,"Ġpass":1586,"ĠĠĠĠĠĠ":1587,"29":1588,"els":1589,"Ġversion":1590,"co":1591,"Ġrespect":1592,"Ġaround":1593,"Ġintegr":1594,"Ġexample":1595,"ĠAr":1596,"Ġ14":1597,"duced":1598,"ently":1599,"Ġfalse":1600,"vert":1601,"cont":1602,"ush":1603,"Ġothers":1604,"oss":1605,"ring":1606,"Ġpower":1607,"ĠHowever":1608,"Ġpar":1609,"37":1610,"rho":1611,"Ġarg":1612,"Ġtherap":1613,"SE":1614,"Ġcommun":1615,"Ġnumbers":1616,"Ã©":1617,"Ġarticle":1618,"Ġopen":1619,"Pro":1620,"Ġincluding":1621,"Ġlikely":1622,"ott":1623,"64":1624,"38":1625,"Ġrest":1626,"=\\":1627,"Ġlist":1628,"arent":1629,"by":1630,"pi":1631,"http":1632,"ĠEx":1633,"rel":1634,"Ġfuture":1635,"---":1636,"ĠZ":1637,"ury":1638,"reen":1639,"'m":1640,"Ġexperience":1641,"Ġtaken":1642,"ĠPh":1643,"reg":1644,"Ġu":1645,"99":1646,"read":1647,"}^{":1648,"Ġlo":1649,"equ":1650,"Ġtop":1651,"Ġlow":1652,"Ġ#":1653,"Ġmillion":1654,"Ġconcentr":1655,"Ġblood":1656,"Ġreally":1657,"Ġ\\[":1658,"ern":1659,"Ġ*/":1660,"min":1661,"Ġtry":1662,"Ġmight":1663,"lobal":1664,"Ġcontr":1665,"Ġanaly":1666,"IC":1667,"ĠNo":1668,"Ġless":1669,"Ġminutes":1670,"Ġhead":1671,"rict":1672,"Ġ</":1673,"('":1674,"34":1675,"60":1676,"sec":1677,")/":1678,"Ġhours":1679,"ĠInd":1680,"orth":1681,"Cont":1682,"Ġsupp":1683,"Ġsitu":1684,"Ġfew":1685,"mu":1686,"opy":1687,"ĠUn":1688,"Ġbased":1689,"Ġtoo":1690,"ey":1691,"Ġdevice":1692,"}_":1693,"angle":1694,"ĠApp":1695,"Ġself":1696,"RE":1697,"39":1698,"Ġbelieve":1699,"ĠJapan":1700,"roll":1701,"ector":1702,"21":1703,"eed":1704,"Ġsoftware":1705,"Ġrecord":1706,"ety":1707,"You":1708,"ension":1709,"ĠThey":1710,"ION":1711,"Ġindic":1712,"fore":1713,"^,":1714,"..":1715,"thing":1716,"Ġchange":1717,"Ġhalf":1718,"ĠAfter":1719,"Ġproduct":1720,"Ġimprove":1721,"Ġimmun":1722,"rem":1723,"igh":1724,"etic":1725,"Ġcustom":1726,"ĠOn":1727,"Ġpop":1728,"ised":1729,"widetilde":1730,"Ġfour":1731,"lu":1732,"org":1733,"infty":1734,"Ġhistory":1735,"Ġret":1736,"Ġaction":1737,"riv":1738,"Ġasked":1739,"Ġessential":1740,"Ġ11":1741,"vent":1742,"iver":1743,"$$":1744,"Ġ{#":1745,"ateg":1746,"Ġ30":1747,"Ġchallen":1748,"Ġvis":1749,"ĠSp":1750,"Ġsymptom":1751,"\\!\\!\\!\\!\\!\\!\\!":1752,"LE":1753,"Ġfile":1754,"ery":1755,"čĊč":1756,"leg":1757,"Ġleg":1758,"ĠIs":1759,"ĠWhat":1760,"lev":1761,"ĠDepartment":1762,"70":1763,"Ġcommon":1764,"Ġpath":1765,"Ġachie":1766,"ĠĠĠĠĠĠĠĠĠĠĠĠĠĠĠĠĠĠĠĠĠĠĠĠĠĠĠĠĠĠĠĠĠĠĠĠĠĠĠĠĠĠĠĠĠĠĠĠĠĠĠĠĠĠĠĠĠĠĠĠ":1767,"Ġplace":1768,"Ġfail":1769,"Ġnext":1770,"Omega":1771,"ault":1772,"Ġobject":1773,"ĠChrist":1774,"ydro":1775,"ĊĊĠ":1776,"box":1777,"Ġhome":1778,"Ġbest":1779,"self":1780,"Ġclinical":1781,"ĠAt":1782,"ĠSo":1783,"Ġvehic":1784,"Ġleft":1785,"Ġput":1786,"Ġbo":1787,"Ġconn":1788,"ited":1789,"Ġcorrect":1790,"omet":1791,"div":1792,"acy":1793,"Ġinvol":1794,"att":1795,"Ġpaper":1796,"Ġgrow":1797,"Ġprofession":1798,"}_{":1799,"add":1800,"ederal":1801,"Name":1802,"ĠCon":1803,"oll":1804,"ene":1805,"ired":1806,"75":1807,"omega":1808,"Ġparticular":1809,"Ġabove":1810,"aph":1811,"ems":1812,"'re":1813,"ĉĉ":1814,"Ġtrue":1815,"ĠCl":1816,"phi":1817,"AS":1818,"eal":1819,"mathfrak":1820,"urrent":1821,"90":1822,"Ġdisc":1823,"Ġeas":1824,"95":1825,"ĠĠĠĠĠĠĠ":1826,"To":1827,"Ġreason":1828,"Ġmotion":1829,"ification":1830,"Ġbi":1831,"Com":1832,"Ġattempt":1833,"Ġheld":1834,"ĠAll":1835,"Ġleast":1836,"Ġpossible":1837,"Ġnever":1838,"Ġofficial":1839,"iving":1840,"varepsilon":1841,"ĠUS":1842,"rightarrow":1843,"Ġpolicy":1844,"ope":1845,"Ġissues":1846,"sum":1847,"Ġconcern":1848,"Ġla":1849,"ror":1850,":**":1851,"ĠĠĠĠĠĠĠĠĠ":1852,"Ġwater":1853,"urs":1854,"ED":1855,"uck":1856,"Ġalmost":1857,"ĠPl":1858,"RO":1859,"Ġnothing":1860,"33":1861,"ending":1862,"ubuntu":1863,"Ġsk":1864,"Ġmov":1865,"tilde":1866,"IS":1867,"Ġbegin":1868,"raw":1869,"Ġidea":1870,"Tr":1871,"Ġrefer":1872,"Ġ!=":1873,"function":1874,"Ġdistribution":1875,"Ġposition":1876,"ĠFurthermore":1877,"Ġcampaign":1878,"itch":1879,"48":1880,"Ġsm":1881,"ological":1882,"aligned":1883,"Ġ==":1884,"cess":1885,"arn":1886,"ĠJanuary":1887,"Ġdue":1888,"cdot":1889,"Ġpay":1890,"Ġexpression":1891,"Ġlight":1892,"}$$":1893,"}^":1894,"Con":1895,"Ġappropriate":1896,"ET":1897,"ari":1898,"ĠâĢĶ":1899,"ina":1900,"aps":1901,"Ġrequires":1902,"Ġtrial":1903,"];":1904,"ĠSouth":1905,"Ġdisplay":1906,"ats":1907,"new":1908,"Ġdays":1909,"ĠTHE":1910,"Ġrecogn":1911,"Ġinj":1912,"eter":1913,"Ġstrength":1914,"Ġgive":1915,"If":1916,"Ġsize":1917,"ĠTo":1918,"Ġmilitary":1919,"Ġincreasing":1920,"Ġ%":1921,"Ġelement":1922,"AC":1923,"col":1924,"Ġcome":1925,"Ġmoment":1926,"Ġpredict":1927,"Ġden":1928,"ĠGr":1929,"Ġtyp":1930,"Ġcost":1931,"ior":1932,"Ġwords":1933,"uth":1934,"Ġ{\\":1935,"Ġ25":1936,"Ġaverage":1937,"Ġmon":1938,"Ġexperiment":1939,"ream":1940,"As":1941,"Ġlocal":1942,"Ġthings":1943,"Ġ17":1944,"ributed":1945,"Ġfree":1946,"yt":1947,"ister":1948,"atory":1949,"Ġbig":1950,"Ġmanufact":1951,"Ġnucle":1952,"clusion":1953,"-\\":1954,"Ġcases":1955,"Ġprom":1956,"ances":1957,"Ġ--":1958,"Ġoriginal":1959,"though":1960,"ules":1961,"ĊĠĠĠĠĠĠĠĠĠĠĠĠĠĠĠĠĠĠĠ":1962,"Ġeffort":1963,"Ġpe":1964,"ffer":1965,"Ġ)":1966,"Ġcode":1967,"data":1968,"ĊĠĠĠĠĠĠĠĠĠ":1969,"ĠState":1970,"mitted":1971,"44":1972,"Ġproperties":1973,"Ġphysical":1974,"Ġshown":1975,"gen":1976,"ication":1977,"Ġdr":1978,"ries":1979,"Ġmolec":1980,"nal":1981,"ĠFr":1982,"ĠStates":1983,"Ġelse":1984,"Ġcomplete":1985,"Ġtumor":1986,"Ġpolitical":1987,"Ġ13":1988,"Ġvol":1989,"Ġpressure":1990,"Type":1991,"chem":1992,"Id":1993,"width":1994,"ask":1995,"ables":1996,"Ġteam":1997,"Ġpsych":1998,"Value":1999,"erc":2000,"Ġprovide":2001,"Ã¿Ã¿Ã¿":2002,"Ġgot":2003,"ital":2004,"inc":2005,"Ġsusp":2006,"oper":2007,"ape":2008,"ĠRes":2009,"Ġgeneral":2010,"Ġoutside":2011,"Ġsuper":2012,"68":2013,"Ġreplac":2014,"ended":2015,"Ġalgorith":2016,"\"/>":2017,"Ġrandom":2018,"eq":2019,"98":2020,"Ġsubstantial":2021,"Ġagain":2022,"Ġcomb":2023,"Ġturn":2024,"duce":2025,"Ġgame":2026,"Ġknown":2027,"Ġsw":2028,"Ġspecific":2029,"Ġbuild":2030,"Ġcalled":2031,"Ġdirection":2032,"erg":2033,"CONCLUSION":2034,"Ġrate":2035,"ruction":2036,"Ġcounsel":2037,"ney":2038,"Ġkeep":2039,"emocr":2040,"For":2041,"ymmet":2042,"Ġfeel":2043,"):":2044,"67":2045,"uss":2046,"cle":2047,"Ġspace":2048,"Ġradi":2049,"Ġsequence":2050,"lambda":2051,"beta":2052,"But":2053,"back":2054,"hip":2055,"04":2056,"Ġcur":2057,"Ġdiv":2058,"oph":2059,"Ġbro":2060,"mon":2061,"Ġmaxim":2062,"iddle":2063,"ides":2064,"Ġobvious":2065,"pm":2066,"so":2067,"Ġaut":2068,"ison":2069,"\\_":2070,"Ġprimary":2071,"65":2072,"UL":2073,"ayer":2074,"Ġ24":2075,"ait":2076,"Ġimmediately":2077,"aces":2078,"Ġwon":2079,"97":2080,"Ġplan":2081,"Ġfeatures":2082,"Ġvalues":2083,"Ġjurisdiction":2084,"{{\\":2085,"Ġable":2086,"ided":2087,"bar":2088,"ibr":2089,"Ġmass":2090,"osis":2091,"Ġstudies":2092,"Ġknowledge":2093,"Ġ>":2094,"Ġmeans":2095,"Ġabs":2096,"ured":2097,"ators":2098,"ther":2099,"itude":2100,"Ġweeks":2101,"ĠOctober":2102,"essage":2103,"Ġquestions":2104,"ĠSuppose":2105,"file":2106,"></":2107,"Ġarea":2108,"fl":2109,"Ġneg":2110,"ĠLicense":2111,"Ġcontinue":2112,"0000":2113,"INTRODUCTION":2114,"this":2115,"other":2116,"_\\":2117,"})":2118,"Ġopportunity":2119,"Cl":2120,"ĠNovember":2121,"Ġfull":2122,"Ġmove":2123,"aff":2124,"ressed":2125,"ĠWashington":2126,"Ġappear":2127,"Ġreview":2128,"ĠThat":2129,"Ġcho":2130,"mod":2131,"ĠĠĠĠĠĠĠĠĠĠĠĠ":2132,"ĠSeptember":2133,"Ġcrit":2134,"Ġlater":2135,"Ġid":2136,"pon":2137,"Ġrevealed":2138,"fo":2139,"Ġnatural":2140,"ĠObama":2141,"AP":2142,"import":2143,"lected":2144,"td":2145,"Ġbeautiful":2146,"Ġwhy":2147,"ĠPresident":2148,"Ġfavor":2149,"He":2150,"Ġdri":2151,"Ġavoid":2152,"Ġtimes":2153,"AM":2154,"aring":2155,"Ġfamil":2156,"Ġsens":2157,"Ġbody":2158,"Ġhold":2159,"Ġreported":2160,"Ġliquid":2161,"ser":2162,"ici":2163,"And":2164,"Ġmem":2165,"ges":2166,"Ġvideo":2167,"ĠRe":2168,"ored":2169,"Ġage":2170,"Ġdom":2171,"Ġgroups":2172,"Ġapplied":2173,"Ġhard":2174,"Ġshort":2175,"](":2176,"ĊĊĠĠĠĠĠĠĠ":2177,"Ġagreement":2178,"Ġlower":2179,"$\\":2180,"ume":2181,"!\\!\\!\\!\\!\\!\\!\\":2182,"ands":2183,"uring":2184,"Ġside":2185,"irst":2186,"nonumber":2187,"ince":2188,"itle":2189,"ising":2190,"Ġexist":2191,"Ġaccess":2192,"31":2193,"âĸĶâĸĶâĸĶâĸĶâĸĶâĸĶ":2194,"ends":2195,"Ġerror":2196,"Suppose":2197,"69":2198,"Ġlot":2199,"Ġ100":2200,"imal":2201,"ounds":2202,"umn":2203,"Ġamount":2204,"Ġfar":2205,"ift":2206,"Ġtre":2207,"UT":2208,"ivity":2209,"Ġ=>":2210,"!\"":2211,"ĠWhen":2212,"yle":2213,"stit":2214,"Ġdatabase":2215,"itor":2216,"ĠFebruary":2217,"><":2218,"OD":2219,"enn":2220,"On":2221,"ler":2222,"indow":2223,"Ġbehind":2224,"Ġrequired":2225,"class":2226,"Ġamong":2227,"Ġtestimony":2228,"go":2229,"^{-":2230,"ĠCommittee":2231,"ĠCol":2232,"ĠShe":2233,"Ġsent":2234,"Ġtext":2235,"Ġwritten":2236,"Ġwar":2237,"Ġstrong":2238,"Ġdone":2239,"Ġlevels":2240,"AD":2241,"Ġpract":2242,"ĠWorld":2243,"pone":2244,"Ġcompared":2245,"Ġterms":2246,"Ġnear":2247,"47":2248,"Ġlab":2249,"Ġdidn":2250,"Ġfac":2251,"Res":2252,"'ve":2253,"Ġcomponent":2254,"Ġart":2255,"Is":2256,"ling":2257,"time":2258,"sequ":2259,"Ġlink":2260,"%)":2261,"table":2262,"AG":2263,"log":2264,"Ġsure":2265,"Ġalong":2266,"ĊĠĠĠĠĠĠ":2267,"88":2268,"Ġsubject":2269,"Ġkey":2270,"Ġ50":2271,"Ġpercent":2272,"Ġsecurity":2273,"ĠFlorida":2274,"Ġfinal":2275,"Ġliter":2276,"Ġpurpose":2277,"amm":2278,"ĠCounty":2279,"utions":2280,"ãĥ":2281,"Ġdevelopment":2282,"olution":2283,"Ġactivity":2284,"ites":2285,"ese":2286,"ĠAd":2287,"ores":2288,"Ġ${\\":2289,"------------------------------------------------":2290,"ãĤ":2291,"ĠCo":2292,"orn":2293,"Ġhowever":2294,"ival":2295,"big":2296,"Ġdesign":2297,"100":2298,"Ġmen":2299,"Ġincreased":2300,"ĠOr":2301,"Ġclean":2302,"Ġstep":2303,"use":2304,"Ġproposed":2305,"Ġpiec":2306,"emplate":2307,"An":2308,"85":2309,"96":2310,"Ġdynam":2311,"}{\\":2312,"Ġmanag":2313,"Ġâ":2314,"de":2315,"Ġargument":2316,"Ġsal":2317,"Ġchar":2318,"Ġfund":2319,"ered":2320,"Ġaccount":2321,"Ġcontent":2322,"eople":2323,"Al":2324,"Ġparticip":2325,"Ġsays":2326,"ducing":2327,"Ġcover":2328,"Ġevent":2329,"ories":2330,"Ġpack":2331,"ĠGeneral":2332,"Ġcheck":2333,"Ġrece":2334,"Ar":2335,"ids":2336,"Un":2337,"Ġrole":2338,"Ġeng":2339,"Ġgirl":2340,"Ġmaking":2341,"Ġcompl":2342,"Ġpoor":2343,"Ġkind":2344,"Ġair":2345,"Ġworking":2346,"Ġcy":2347,"Ġdensity":2348,"Ġcomponents":2349,"Ġincrease":2350,"load":2351,"Ġmonths":2352,"Ġsim":2353,"iff":2354,"Ġaway":2355,"Ġauthor":2356,"vention":2357,"ung":2358,"Ġcancer":2359,"order":2360,"test":2361,"Ġbecome":2362,"Ġcomput":2363,"bo":2364,"aster":2365,"ife":2366,"]\\]":2367,"return":2368,"Ġfactors":2369,"Ġfore":2370,"Ġdegree":2371,"Ġfood":2372,"'ll":2373,"ĠIN":2374,"ley":2375,"Ġquant":2376,"Ġinclude":2377,"Ġcannot":2378,"IM":2379,"ava":2380,"Ġprovided":2381,"08":2382,"Ġtold":2383,"Ġrange":2384,"Ġthing":2385,"List":2386,"ably":2387,"Ġuseful":2388,"Ġrespons":2389,"Ġexc":2390,"Ġfinancial":2391,"App":2392,"Ġpast":2393,"Ġmult":2394,"ects":2395,"Ġes":2396,"94":2397,"ĠRep":2398,"key":2399,"date":2400,"Ġneighb":2401,"ĠSch":2402,"Ġorigin":2403,"OT":2404,"Ġlarger":2405,"ivers":2406,"Ġpretty":2407,"Ġ`":2408,"Ġperfect":2409,"aint":2410,"ves":2411,"Ġeffects":2412,"UR":2413,"55":2414,"Sh":2415,"ources":2416,"ĠMed":2417,"}}\\":2418,"Ġenc":2419,"ĠJune":2420,"ief":2421,"Ġblock":2422,"Ġupon":2423,"Ġtell":2424,"IG":2425,"Ġold":2426,"Ġcircumstances":2427,"ipp":2428,"Ġobserved":2429,"Ġacknowled":2430,"Ġdetail":2431,"Ġenough":2432,"ml":2433,"Ġseen":2434,"Ġhyper":2435,"Ġproceed":2436,"ĠLe":2437,"irm":2438,"Ġconduct":2439,"Ġservice":2440,"inter":2441,"Ġsection":2442,"Ġcalcul":2443,"66":2444,"ought":2445,"ij":2446,"CH":2447,"Ġdefinition":2448,"Ġlog":2449,"Ġdoesn":2450,"ĠâĢĺ":2451,"inary":2452,"Ġregard":2453,"istic":2454,"Ġcompanies":2455,"OM":2456,"Ġproperty":2457,"Ġtradition":2458,"string":2459,"Ġann":2460,"bu":2461,"ĠAss":2462,"ament":2463,"Ġconditions":2464,"Ġpositive":2465,"ĠCanad":2466,"Ġfixed":2467,"Ġcomplex":2468,"known":2469,"ĠSc":2470,"ĠÎ":2471,"02":2472,"Ġtechniques":2473,"07":2474,"olic":2475,"Ġopt":2476,"Ġinterpret":2477,"Ġhttp":2478,"Ġmiss":2479,"There":2480,"II":2481,"Ġmor":2482,"\")":2483,"Ġregion":2484,"ering":2485,"Ġdecre":2486,"Ġuser":2487,"ING":2488,"ground":2489,"atter":2490,"figuration":2491,"off":2492,"iles":2493,".)":2494,"leq":2495,"Ġsepar":2496,"Ġwoman":2497,"Ġtax":2498,"________________":2499,"]).":2500,"Ġbase":2501,"comp":2502,")*":2503,"Ġcoupl":2504,"Ġap":2505,"Ġ([@":2506,"Ġcountry":2507,"Ġlove":2508,"xi":2509,"Ġmus":2510,"ĠHealth":2511,"ĠĠĠĠĠĠĠĠĠĠĠ":2512,"Ġtalk":2513,"ĠAND":2514,"ĠSee":2515,"ective":2516,"09":2517,"77":2518,"At":2519,"ĊĠĠĠĠĠĠĠĠĠĠĠĠĠĠĠĠĠĠĠĠĠĠĠĠĠĠĠĠĠĠ":2520,"Ġtissue":2521,"Ġpick":2522,"Ġdeath":2523,"Ġperformed":2524,"Ġstop":2525,"Ġillustr":2526,"âĢ¦":2527,"Ġbook":2528,"Ġratio":2529,"Ġep":2530,"den":2531,"ensive":2532,"ware":2533,"Ġcut":2534,"lim":2535,"ĠApril":2536,"raft":2537,"Ġflu":2538,"Col":2539,"AB":2540,"apt":2541,"Ġspecial":2542,"Ġcreate":2543,"Ġrather":2544,"No":2545,"ai":2546,"Ġprob":2547,"Ġcult":2548,"see":2549,"Ġdoing":2550,"mp":2551,"Ġdefined":2552,"Ġvir":2553,"span":2554,"Ġpoints":2555,"Ġdescribed":2556,"Ġindustry":2557,"Ġcompletely":2558,"Ġseason":2559,"Ġfootball":2560,"nbsp":2561,"Ġearly":2562,"OP":2563,"ĠJuly":2564,"Ġopinion":2565,"Ġphot":2566,"osc":2567,"umer":2568,"Ġjo":2569,"verse":2570,"Ġearlier":2571,"ished":2572,"roid":2573,"ĠMar":2574,"Ġdecl":2575,"Ġeducation":2576,"Ġcandid":2577,"Ġenjoy":2578,"ĠWednesday":2579,"+\\":2580,"plic":2581,"exp":2582,"Ġpatient":2583,"ried":2584,"03":2585,"ĠSupreme":2586,"Ġsaf":2587,"Ġcompany":2588,"ched":2589,"Ġnecessarily":2590,"57":2591,"dis":2592,"ĠMay":2593,"emb":2594,"ĠEnglish":2595,"Ġreasons":2596,"mm":2597,"irect":2598,"Ġassess":2599,"Ġshowed":2600,"Ġdem":2601,"ĠSec":2602,"head":2603,"cluded":2604,"So":2605,"ram":2606,"ĠGoogle":2607,"Ġimage":2608,"imensional":2609,"Ġnull":2610,"ession":2611,"ender":2612,"Ġacross":2613,"Ġaccept":2614,"Ġrelevant":2615,"ining":2616,"Ġmix":2617,"Ġq":2618,"Gamma":2619,"IL":2620,"Ġbit":2621,"Ġ([":2622,"Ġ&&":2623,"ĠSu":2624,"ĠPr":2625,"bit":2626,"material":2627,"Ġweight":2628,"Ġreach":2629,"OS":2630,"year":2631,"Ġobtained":2632,"cal":2633,"Error":2634,"Ġmeet":2635,"ĠCircuit":2636,"Ġ$(":2637,"Ġcontrib":2638,"ino":2639,"ĠAmerican":2640,"resh":2641,"Ġactually":2642,"Ġfive":2643,"84":2644,"Ġadjust":2645,"omes":2646,"ibility":2647,"Ġexecut":2648,"ones":2649,"Ġbar":2650,"ĠCent":2651,"Ġwhole":2652,"cy":2653,"etition":2654,"osure":2655,"Ġgl":2656,"Ġbelow":2657,"Ġlearning":2658,"Ġvoid":2659,"OL":2660,"Ġconsidered":2661,"ĠFig":2662,"ogen":2663,"Ġchanged":2664,"^\\":2665,"Ġmakes":2666,"Ġvarious":2667,"ero":2668,"Ġstring":2669,"Ġbreak":2670,"PE":2671,"Ġproteins":2672,"Ġwriting":2673,"Ġsource":2674,"Ġshows":2675,"Ġrelated":2676,"ache":2677,"Ġonce":2678,"ĠĊ":2679,"Ġstates":2680,"003":2681,"Ġinternational":2682,"ĠBr":2683,"Ġsynthes":2684,"Ġspe":2685,"onal":2686,"Ġra":2687,"Ġthought":2688,"upplementary":2689,"Ġanalyses":2690,"Ġbegan":2691,"Ġrespectively":2692,"Ġincluded":2693,"Ġadded":2694,"ĠAm":2695,"~~~":2696,"la":2697,"Ġbuilt":2698,"nu":2699,"circ":2700,"Ġver":2701,"Ġdevices":2702,"42":2703,"Ġchild":2704,"queuebot":2705,"na":2706,"US":2707,"ocal":2708,"Ġdam":2709,")}":2710,"Ġsurgery":2711,"Ġcard":2712,"Ġsolution":2713,"ĠAugust":2714,"Ġoccur":2715,"\"}).":2716,"ĠJesus":2717,"icrosoft":2718,"Ġwidth":2719,"Ġexam":2720,")(":2721,"ĠDistrict":2722,"Ġprincip":2723,"Ġdeal":2724,"ĠCar":2725,"Ġarrest":2726,"Ġmarket":2727,"Ġsignificantly":2728,"Ġapplication":2729,"ĠPat":2730,"value":2731,"bt":2732,"Ġprocedure":2733,"49":2734,"ĠOF":2735,"Ġfully":2736,"Ġfactor":2737,"Ġeyes":2738,"ĠBl":2739,"Ġprogress":2740,"CC":2741,"Ġsex":2742,"Ġbeyond":2743,"ENT":2744,"86":2745,"sl":2746,"Ġcounter":2747,"ean":2748,"001":2749,"Ġsubs":2750,"ĠOne":2751,"Ġmaint":2752,"illed":2753,"no":2754,"ĠÂ§":2755,"Ġanti":2756,"87":2757,"Ġstruct":2758,"ĠDecember":2759,"ĠAdd":2760,"Ġsignal":2761,"gg":2762,"RESULTS":2763,"Ġsystems":2764,"theta":2765,"Ġseries":2766,"/*":2767,"odes":2768,"ĠMETHODS":2769,"Ġtook":2770,"ĠWith":2771,"'d":2772,"Ġtowards":2773,"Ġsite":2774,"Ġmar":2775,"Ġwebsite":2776,"Ġutil":2777,"Ġ...":2778,"Figure":2779,"net":2780,"tract":2781,"Ġyet":2782,"Ġconsist":2783,"Ph":2784,"Ġever":2785,"Ġplaintiff":2786,"Ġcame":2787,"ternal":2788,"ĠMr":2789,"Ġland":2790,"Ġrelatively":2791,"Ġroom":2792,"Ġexactly":2793,"Ġcommunity":2794,"Ġspect":2795,"Ġred":2796,"tau":2797,"ĠCouncil":2798,"lation":2799,"Ġloss":2800,"code":2801,"Ġbirth":2802,"ulated":2803,"Ġcause":2804,"Ġdecision":2805,"ips":2806,"Ġcouple":2807,"Ġadministration":2808,"\");":2809,"mathbf":2810,"Ġhref":2811,"Ġhouse":2812,"ymbol":2813,"Ġexperiments":2814,"oh":2815,"46":2816,"')":2817,"dom":2818,"Ġtem":2819,"reed":2820,"ĠMoreover":2821,"ider":2822,"Ġdiagn":2823,"Ġaddress":2824,"Ġsearch":2825,"ving":2826,"times":2827,"Ġhusband":2828,"ops":2829,"Ġinfluence":2830,"ĠBecause":2831,"ĠFacebook":2832,"olve":2833,"TR":2834,"delta":2835,"EL":2836,"Ġupper":2837,"operatorname":2838,"Ġ21":2839,"ĠThen":2840,"ck":2841,"Ġfelt":2842,"Ġnight":2843,"Data":2844,"body":2845,"Ġmagn":2846,"83":2847,"ĠAct":2848,"mit":2849,"umb":2850,"Ġparents":2851,"rangle":2852,"trans":2853,"used":2854,"Gr":2855,"Ġsix":2856,"Ġbound":2857,"ĠDefendant":2858,"Ġcircuit":2859,"Ġphosph":2860,"Ġcontract":2861,"Ġanything":2862,"Ġvictim":2863,"Ġbinding":2864,"size":2865,"ises":2866,"Ġ27":2867,"93":2868,"Ġmethods":2869,"iction":2870,"Ġmind":2871,"Ġyoung":2872,"âĶľâĶĢâĶĢâĶĢâĶĢâĶĢâĶĢâĶĢâĶĢâĶĢâĶĢâĶĢâĶĢâĶĢâĶĢâĶĢâĶ¼âĶĢâĶĢâĶĢâĶĢâĶĢâĶĢâĶĢâĶĢâĶĢâĶĢâĶĢâĶĢâĶĢâĶĢâĶĢâĶĢâĶĢâĶĢâĶĢâĶĢâĶĢâĶĢâĶĢâĶĢâĶĢâĶĢâĶĢâĶĢâĶĢâĶĢâĶĢâĶĢâĶĢâĶĢâĶĢâĶĢâĶĢâĶĢâĶĢâĶĢâĶĢâĶĢâĶĢâĶĢâĶĢâĶĢâĶĢâĶĢâĶĢâĶĢâĶĢâĶĢâĶĢâĶĢâĶĢâĶĢâĶĢâĶĢâĶĢâĶĢâĶĢâĶĢâĶ¤":2873,"aging":2874,"ĠGovernment":2875,"Ġ(*":2876,"Ġreleased":2877,"Ġattack":2878,"cc":2879,"Ġalleged":2880,"Ġvar":2881,"igr":2882,"Ġensure":2883,"SS":2884,"Ġservices":2885,"rim":2886,"Ġadditional":2887,"Ġtherefore":2888,"ĠIsrael":2889,"Ġwrote":2890,"ĠGod":2891,"izing":2892,"aj":2893,"Ġtable":2894,"rol":2895,"lying":2896,"Ġimplement":2897,"Ġtown":2898,"Ġbill":2899,"ged":2900,"After":2901,"Ġcelebr":2902,"Ġob":2903,"Ġtravel":2904,"Ġdifference":2905,"aged":2906,"Ġtoday":2907,"opt":2908,"ervice":2909,"}$,":2910,"Ġresistance":2911,"Ġentire":2912,"ĠThus":2913,"anch":2914,"Ġotherwise":2915,"Ġpers":2916,"ĠÂ±":2917,"Ġtrying":2918,"Ġthus":2919,"ĠBe":2920,"Sp":2921,"Ġclose":2922,"Ġportion":2923,"ĠAfric":2924,"Ã³n":2925,"Ġquickly":2926,"Ġneeded":2927,"Ġhypothes":2928,"06":2929,"Ġmachine":2930,"Ġlength":2931,"actions":2932,"89":2933,"Ġcomparison":2934,"Ġalgebra":2935,"^*":2936,"mer":2937,"param":2938,"uff":2939,"Ġsimple":2940,"rew":2941,"Ġcross":2942,"atus":2943,"ĠResearch":2944,"witter":2945,"Ġvia":2946,"ĠĠĠĠĠĠĠĠĠĠĠĠĠĠ":2947,"![":2948,"Ġintro":2949,"DE":2950,"Ġmot":2951,"UN":2952,"Ġir":2953,"define":2954,"Ġmatch":2955,"older":2956,"Ġgene":2957,"ĠInc":2958,"Ġpaid":2959,"Ġremoved":2960,"position":2961,"Ġpattern":2962,"Ġ(-":2963,"Ġcontact":2964,"do":2965,"pre":2966,"ales":2967,"Ġneeds":2968,"ients":2969,"}$.":2970,"alse":2971,"ĊĊĊ":2972,"ĠCity":2973,"itting":2974,"ĠInternational":2975,"Ġbottom":2976,"ike":2977,"Index":2978,"Ġfun":2979,"ilities":2980,"Ġsometimes":2981,"ĠĠĠĠĠĠĠĠĠĠĠĠĠ":2982,"Ġ(\\[":2983,"but":2984,"|\\":2985,"Key":2986,"Ġ^":2987,"Ġquality":2988,"asc":2989,"Im":2990,"Ġinvolved":2991,"Ġcapacity":2992,"Ġmut":2993,"Ġdig":2994,"41":2995,"face":2996,"Ġseem":2997,"Ġiniti":2998,"ference":2999,"atur":3000,"Ġstudents":3001,"Ġang":3002,"ĠAustral":3003,"Ġparty":3004,"ĠMc":3005,"Ġcharacteristics":3006,"------":3007,"92":3008,"],[@":3009,"Set":3010,"ĠBoard":3011,"ĠCont":3012,"Ġmodels":3013,"iber":3014,"])":3015,"ĠĠĠĠĠĠĠĠĠĠĠĠĠĠĠĠĠĠĠĠĠĠĠĠĠĠĠĠĠĠĠĠĠĠĠĠĠĠĠĠĠĠĠĠĠ":3016,"vironment":3017,"43":3018,"Ġjob":3019,"56":3020,"mathrm":3021,"struct":3022,"Ġwitness":3023,"ĠMy":3024,"field":3025,"Ġpopulation":3026,"based":3027,"Ġpain":3028,"vec":3029,"Ġperformance":3030,"Ġwent":3031,"Ġface":3032,"Ġ26":3033,"my":3034,"Ġfigure":3035,"omorph":3036,"unch":3037,"ption":3038,"Ġgetting":3039,"Ġrecent":3040,"Ġque":3041,"Ġhapp":3042,"Ġexpected":3043,"Ġflow":3044,"ti":3045,"ĠSe":3046,"Ġgrowth":3047,"Ġ\\\\":3048,"Ġ40":3049,"Ġchannel":3050,"IR":3051,"ĠEn":3052,"IV":3053,"idence":3054,"Ġindependent":3055,"Ġinflamm":3056,"Ġlooking":3057,"Ð¾Ð":3058,"ived":3059,"rc":3060,"Ġpolice":3061,"Ġcorrel":3062,"Ġfunctions":3063,"ĠInterest":3064,"Ġalcohol":3065,"Ġwin":3066,"ĠMin":3067,"Ġproblems":3068,"Ġrights":3069,"\\])":3070,"91":3071,"imilar":3072,"Ġflo":3073,"\\\\":3074,"Ġcomes":3075,"ential":3076,"dev":3077,"Ġmedia":3078,"erve":3079,"Ġprof":3080,"Ġcredit":3081,"*,":3082,"Ġpan":3083,"Override":3084,"Ġexpect":3085,"Ġexperienced":3086,"EM":3087,"ĠNULL":3088,"Ġdestroy":3089,"bib":3090,"ethod":3091,"vel":3092,"Ġur":3093,"ĠMichael":3094,"Ġplaced":3095,"Ġcryst":3096,"Ġcity":3097,"Ġ28":3098,"miss":3099,"ĠNot":3100,"Ġbrief":3101,"ĠDevelopment":3102,"ĠBy":3103,"Ġmyself":3104,"mediate":3105,"Ġseems":3106,"That":3107,"Ġdaily":3108,"Ġtouch":3109,"Ġtool":3110,"When":3111,"path":3112,"ĠCD":3113,"Ġproduction":3114,"Ġinput":3115,"Ġcivil":3116,"Ġ22":3117,"CL":3118,"icon":3119,"Refer":3120,"ĠmiR":3121,"acter":3122,"come":3123,"anks":3124,"ple":3125,"Ġstory":3126,"list":3127,"ience":3128,"Ġprovides":3129,"ously":3130,"Ġ$$":3131,"Delta":3132,"Ġmeasures":3133,"ony":3134,"Ġheart":3135,"Ġnamed":3136,"Ġalternative":3137,"state":3138,"Ġcal":3139,"Ġhost":3140,"Ġchem":3141,"Ġemployees":3142,"How":3143,"Ġconflict":3144,"Ġinstead":3145,"Simplify":3146,"anding":3147,"Table":3148,"Ġofficer":3149,"Ġprec":3150,"Ġtaking":3151,"Ġsimply":3152,"anced":3153,"oma":3154,"psi":3155,"Object":3156,"Â±":3157,"err":3158,"With":3159,"Get":3160,"ject":3161,"ĊĠĠĠĠĠĠĠĠĠĠĠĠĠĠĠĠĠĠĠĠĠĠĠ":3162,"Ġstrategy":3163,"ĠTrump":3164,"Ġsurvival":3165,"king":3166,"Ġlearn":3167,"Ġexercise":3168,"Ġblack":3169,"Ġsleep":3170,"des":3171,"Ġtheory":3172,"Manager":3173,"ds":3174,"iting":3175,"ĠRo":3176,"ging":3177,"**]{},":3178,"Ġminimum":3179,"ĠDo":3180,"Ġimpact":3181,"PS":3182,"include":3183,"uments":3184,"induced":3185,"EC":3186,"FL":3187,"Ġimport":3188,"normal":3189,"Ġevents":3190,"Ġcoordin":3191,"Ġspecifically":3192,"\";":3193,"Ġsomeone":3194,"Ġhundred":3195,"Ġrapid":3196,"\\*":3197,"Ġtw":3198,"Ġstarted":3199,"All":3200,"astroenterology":3201,"Ġmentioned":3202,"Ġplatform":3203,"Ġpage":3204,"By":3205,"po":3206,"wo":3207,"rown":3208,"fr":3209,"Ġcolor":3210,"Ġfall":3211,"point":3212,"ĠNational":3213,"hydr":3214,"cm":3215,"Ġstraight":3216,"Ġwor":3217,"ental":3218,"light":3219,"with":3220,"Ġphenomen":3221,"lin":3222,"74":3223,"Ġvalid":3224,"Ġ23":3225,"Ġload":3226,"Ġprepared":3227,"ĠCor":3228,"Ġsamples":3229,"ronic":3230,"init":3231,"Ġconfirmed":3232,"Ġdespite":3233,"https":3234,"down":3235,"Ġwatch":3236,"arr":3237,"Ġcoll":3238,"uk":3239,"oles":3240,"Ġjud":3241,"umber":3242,"ements":3243,"Ġbasis":3244,"Ġproducts":3245,"Add":3246,"En":3247,"76":3248,"Ġconv":3249,"Ġclos":3250,"Ġlines":3251,"Ġ},":3252,"PC":3253,"Ġimpro":3254,"astic":3255,"where":3256,"Ġframework":3257,"Ġpresented":3258,"Ġcriminal":3259,"link":3260,"));":3261,"Ġfollows":3262,"Ġdepend":3263,"Ġparameters":3264,"58":3265,"usion":3266,"ethyl":3267,"char":3268,"ĠPaul":3269,"unt":3270,"Re":3271,"Ġsample":3272,"ĠÐ":3273,"Ġbad":3274,"rip":3275,"Ġdetermined":3276,"MS":3277,"Ġdetermine":3278,"Ġstorage":3279,"Ġlack":3280,"ĠMan":3281,"Ġstatic":3282,"Ġcommercial":3283,"ĠDr":3284,"Ġhom":3285,"like":3286,"My":3287,"Ġshall":3288,"fort":3289,"work":3290,"ocol":3291,"top":3292,"Ġmedical":3293,"Ġindex":3294,"Ġeffective":3295,"atal":3296,"Ġanalyzed":3297,"Ġproliferation":3298,"Ġmap":3299,"Ġlive":3300,"ĠÃ":3301,"Ġnews":3302,"Ġemb":3303,"Ġdate":3304,"Ġformer":3305,"59":3306,"Ġpersonal":3307,"Ġpresence":3308,"Ġsociety":3309,"Ġidentified":3310,"Ġforce":3311,"Ġide":3312,"Ġassociation":3313,"Ġprinciples":3314,"Ġgenes":3315,"ĠâĪĴ":3316,"Ġsqu":3317,"SD":3318,"Ġfemale":3319,"//////////////////////////":3320,"reate":3321,"CD":3322,"63":3323,"outh":3324,"Ġprint":3325,"Ġphys":3326,"ython":3327,"Sc":3328,"PI":3329,"Ġitself":3330,"Ġdegrees":3331,"Ġattorney":3332,"}=":3333,"Ġsmooth":3334,"ying":3335,"Ġvelocity":3336,"ĠNorth":3337,"ĠCalculate":3338,"Ġfilm":3339,"Model":3340,"eff":3341,"62":3342,"ĠDavid":3343,"ana":3344,"Ġox":3345,"ĠAg":3346,"Ġappellant":3347,"Ġest":3348,"Ġdocument":3349,"Ġcitizens":3350,"Ġsil":3351,"Ġphase":3352,"Ġadvantage":3353,"ros":3354,"$-":3355,"Ġefficiency":3356,"error":3357,"Ġcontext":3358,"ĠYork":3359,"54":3360,"Ġfront":3361,"ĠWilli":3362,"Ġlonger":3363,"Ġdim":3364,"Ġofficers":3365,"Ġcopy":3366,"group":3367,"word":3368,"Ġrender":3369,"ula":3370,"Ġconstant":3371,"}^{\\":3372,"Ġtypes":3373,"ĠComp":3374,"TH":3375,"Ġtransfer":3376,"ĠPennsylvania":3377,"ills":3378,"Ġperhaps":3379,"Ġworks":3380,"sim":3381,"Ġscript":3382,"Ġstatement":3383,"Ġparallel":3384,"Dis":3385,"Ġground":3386,")=":3387,"72":3388,"Ġstatus":3389,"53":3390,"ĠInt":3391,"++":3392,"Ġsevere":3393,"Ġeverything":3394,"ening":3395,"Ġsense":3396,"Ġdraw":3397,"Ġanimals":3398,"Ġinvest":3399,"Ġelements":3400,"ĠBrazil":3401,"79":3402,"Ġfruit":3403,"roph":3404,"ulations":3405,"78":3406,"osition":3407,"Ġwrong":3408,"Param":3409,"Ġbiggest":3410,"Ġsyndrome":3411,"Ġprevent":3412,"px":3413,"fully":3414,"Ġmis":3415,"Ġhist":3416,"ults":3417,"ĠAb":3418,"ĠCongress":3419,"ploy":3420,"hibition":3421,"ĠString":3422,"Ġremain":3423,"Ġrunning":3424,"Ed":3425,"Ġcharg":3426,"Ġpurposes":3427,"Ġscreen":3428,"Ġoutput":3429,"Ã¡":3430,"File":3431,"Ġconstit":3432,"Ġrad":3433,"ux":3434,"ÃŃ":3435,"Ġassert":3436,"Ps":3437,"Ġunit":3438,"Ġcreated":3439,"Ġdanger":3440,"Pl":3441,"mbox":3442,"Ġacid":3443,"Ġbur":3444,"Ġbring":3445,"Ġhuge":3446,"Ġtherapeutic":3447,"Ġ2012":3448,"itation":3449,"ĠII":3450,"Ġarray":3451,"Ġsem":3452,"ards":3453,"Ġmember":3454,"varphi":3455,"PA":3456,"me":3457,"Ġnode":3458,"utes":3459,"82":3460,"Int":3461,"aving":3462,"mail":3463,"Ġlikelihood":3464,"Ġrespond":3465,"Ġcamera":3466,"msg":3467,"Ġtraining":3468,"Ġquite":3469,"Ġinstall":3470,"urch":3471,"mun":3472,"Ġinsurance":3473,"Ġwalk":3474,"=======":3475,"oud":3476,"Ġdeep":3477,"ague":3478,"Ġvs":3479,"ĠPar":3480,"acc":3481,"Ġoil":3482,"Ġmobile":3483,"ĠGeorge":3484,"ĠWARRANT":3485,"Ġeasy":3486,"Ġconventional":3487,"Ġareas":3488,"Ġnational":3489,"Ġinside":3490,"Ġlayer":3491,"Ġdistrict":3492,"Ġple":3493,"Ġexchange":3494,"Ġslightly":3495,"ĠPart":3496,"Ġrates":3497,"imate":3498,"Ġselect":3499,"52":3500,"ever":3501,"ections":3502,"######":3503,"NS":3504,"erson":3505,"efore":3506,"ades":3507,"ĠTherefore":3508,"ĠIm":3509,"Ġimpl":3510,"Ġcreat":3511,"aves":3512,"ission":3513,"\"><":3514,"ĠGu":3515,"aven":3516,"Not":3517,"ĊĠĠĠĠĠĠĠĠĠĠĠĠĠ":3518,"Ġgas":3519,"Ġrelease":3520,"place":3521,"Text":3522,"Ġsomew":3523,"Calculate":3524,"73":3525,"Ġequivalent":3526,"Ġvector":3527,"ĊĠĠĠĠĠĠĠĠ":3528,"ĠInstitute":3529,"Ġclaims":3530,"user":3531,"iet":3532,"lege":3533,"ĠGerm":3534,"Ġwanted":3535,"gn":3536,"]{":3537,"ocytes":3538,"Ġcontroll":3539,"ĠOur":3540,"isions":3541,"ians":3542,"atives":3543,"ĠChicago":3544,"Ġdirectly":3545,"aut":3546,"artment":3547,"Ġnearest":3548,"($":3549,"eat":3550,"Ġtransform":3551,"ĠHow":3552,"51":3553,"ĠPhys":3554,"CA":3555,"Ġago":3556,"*]{}":3557,"Ġrepresents":3558,"Ġ2013":3559,"from":3560,"71":3561,"Ġlimited":3562,"ĠFin":3563,"Ġcontain":3564,"ha":3565,"Ġmer":3566,"Ġneighborhood":3567,"Ġisn":3568,"public":3569,"Ġ/>":3570,"Ġfaith":3571,"ĠChinese":3572,"Ġstay":3573,"Ġability":3574,"subset":3575,"play":3576,"Ġarbitr":3577,"ners":3578,"const":3579,"prime":3580,"Ġsqrt":3581,"Ġ--------":3582,"ĠWestern":3583,"sk":3584,"Ġreduced":3585,"Ġlymph":3586,"Ġ[**":3587,"Ġdeveloped":3588,"ĠBritish":3589,"langle":3590,"Ċĉĉĉĉĉ":3591,"Ġ?":3592,"clus":3593,"Ġcook":3594,"elling":3595,"RNA":3596,"specific":3597,"81":3598,"ags":3599,"iveness":3600,"Ġpicture":3601,"ze":3602,"Ġlatest":3603,"ications":3604,"Ġnegative":3605,"write":3606,"void":3607,"array":3608,"EX":3609,"omy":3610,"ĠRuss":3611,"Ġcriteria":3612,"perty":3613,"Ġdistinct":3614,"Ġpreviously":3615,"Ġaccur":3616,"Ġgreater":3617,"ĠFoundation":3618,"Ġlicense":3619,"Ġrule":3620,"Or":3621,"Ġarchitect":3622,"OC":3623,"Ġforward":3624,"Ġsurround":3625,"oo":3626,"Ġoption":3627,"que":3628,"Ġincludes":3629,"Ġsett":3630,"max":3631,"Bu":3632,"rows":3633,"Ġinteger":3634,"Ġcup":3635,"orem":3636,"Ġincorpor":3637,"Ġ;":3638,"ocation":3639,"Request":3640,"Ċĉĉĉĉ":3641,"Ġneuro":3642,"Ġshare":3643,"Ġexpress":3644,"ĠLondon":3645,"bi":3646,"ï¼":3647,"Ġenzym":3648,"Ġproportion":3649,"Ġmurder":3650,"Ġmechan":3651,"Ġbehavior":3652,"ster":3653,"Ġport":3654,"IF":3655,"pen":3656,"version":3657,"Ġfire":3658,"Ġgraph":3659,"Ġdoubt":3660,"Ġprop":3661,"Ġhot":3662,"term":3663,"cluding":3664,"rial":3665,"ken":3666,"}(\\":3667,"Ġvoice":3668,"ML":3669,"Ġsequ":3670,"Ġlargest":3671,"Ġannounced":3672,"Ġarrang":3673,"reet":3674,"Ġabsolutely":3675,"čĊĠĠĠ":3676,"Ġwhite":3677,"Ġrepeated":3678,"ĠFriday":3679,"Ġaccom":3680,"Ġsn":3681,"Ġinstance":3682,"Ġcolumn":3683,"Ġvoltage":3684,"Ġstatist":3685,"ept":3686,"ĠAttorney":3687,"GF":3688,"ii":3689,"ĠHere":3690,"part":3691,"unction":3692,"Ġdefault":3693,"Ġmemory":3694,"wide":3695,"Ġmice":3696,"Ġpair":3697,"Ġgames":3698,"abor":3699,"ĠRec":3700,"itted":3701,"requ":3702,"oring":3703,"Ġball":3704,"Ġer":3705,"Ġ29":3706,"ribute":3707,")$.":3708,"otion":3709,"Ġcompet":3710,"Ġ);":3711,"ĠJust":3712,"plit":3713,"lock":3714,"ĠSystem":3715,"cur":3716,"Ġwhatever":3717,"61":3718,"sub":3719,"ĠDis":3720,"Ġfindings":3721,"\\<":3722,"Â°":3723,"Ġgenerally":3724,"IP":3725,"js":3726,"Ġcateg":3727,"Ġeye":3728,"ĠPer":3729,"ville":3730,"Sec":3731,"Ġetc":3732,"Ġ60":3733,"Ġlost":3734,"ĠCir":3735,"Ġresid":3736,"Ġfollowed":3737,"Ġgrant":3738,"print":3739,"Ġtitle":3740,"Ġcarbon":3741,"Ġappeal":3742,"Ġusually":3743,"Ġtreated":3744,"Ġaim":3745,"omic":3746,"Ġreceptor":3747,"ĠHis":3748,"Ġword":3749,"Ġpresident":3750,"Ġcompleted":3751,"Ġreference":3752,"Ġmatrix":3753,"ĠId":3754,"Ġcorresponding":3755,"sm":3756,"Ġefficacy":3757,"ĠST":3758,"Ġoutcomes":3759,"nabla":3760,"ened":3761,"Ġsugar":3762,"Ġillegal":3763,"Ġglobal":3764,"Ġ32":3765,"ĠSince":3766,"Ġlinear":3767,"Ġparticularly":3768,"Ġrev":3769,"Ġempty":3770,"...\"":3771,"Ġdelivery":3772,"Ġ[*":3773,"ĠTexas":3774,"Ġplayers":3775,"ĠAfghanistan":3776,"Ġstrugg":3777,"ĠDe":3778,"github":3779,"Ġguilty":3780,"ĠBar":3781,"Ġcoming":3782,"Ġge":3783,"Ġdifferences":3784,"ĠSm":3785,"alt":3786,"ped":3787,"Ġplasma":3788,"Ġinvention":3789,"oke":3790,"Ġfight":3791,"lib":3792,"ĠMonday":3793,"ĠChina":3794,"ĠPol":3795,"Ġspectrum":3796,"Ġnote":3797,"Ġbuilding":3798,"\".":3799,"ĠWhile":3800,"Ġhospital":3801,"Ġdiseases":3802,"ĠMarch":3803,"Ġderivative":3804,"ano":3805,"otic":3806,"oscopic":3807,"Ġactive":3808,"ĠDes":3809,"active":3810,"bert":3811,"Ġprimarily":3812,"Ġautomatically":3813,"Ġguidelines":3814,"Ġonline":3815,"urb":3816,"Ġequipment":3817,"kappa":3818,"Ġexplicit":3819,"eless":3820,"Ġregular":3821,"Ġ2014":3822,"Ġgrad":3823,"['":3824,"alysis":3825,"istry":3826,"Ġmessage":3827,"((":3828,"Ġinhibit":3829,"().":3830,"Ġcommittee":3831,"eline":3832,"ĠReg":3833,"MA":3834,"Ġwait":3835,"Ġrout":3836,"df":3837,"Ġfailed":3838,"ially":3839,"oes":3840,"stein":3841,"Ġwhose":3842,"Ġoffice":3843,"ĠFirst":3844,"Ġconstruct":3845,"Ġappeared":3846,"lor":3847,"Ġsaw":3848,"Ġwrite":3849,"Ġsensitivity":3850,"Ġ-->":3851,"Ġtherapy":3852,"ĠTechn":3853,"Ġlate":3854,"ours":3855,"Ġstyle":3856,"Ġopportunities":3857,"Controller":3858,"Ġleave":3859,"iable":3860,"Ġsyn":3861,"Def":3862,"Ġcosts":3863,"bre":3864,"Ġstimul":3865,"Ġalthough":3866,"ĠPakistan":3867,"Ġpurch":3868,"ued":3869,"Ġheat":3870,"summary":3871,"Ġmortality":3872,"fil":3873,"Ġpractice":3874,"Ġsituation":3875,"Ġcharge":3876,"Ġsaying":3877,"Ġscheme":3878,"orizontal":3879,"ĠWITH":3880,"Ġoffer":3881,"Ġcountries":3882,"quad":3883,"onic":3884,"Ġquarter":3885,"Ġtakes":3886,"Ġheavy":3887,"OW":3888,"Ġrelative":3889,"Ġsubstrate":3890,"Ġlegal":3891,"ancy":3892,"mark":3893,"ĠOR":3894,"Ġfat":3895,"ĠDNA":3896,"sw":3897,"Class":3898,"eng":3899,"Ġmixture":3900,"ĠHouse":3901,"Ġwall":3902,"çļĦ":3903,"âĢĲ":3904,"Ġrecently":3905,"idge":3906,"Ġdriving":3907,"Ġuniform":3908,"}_{\\":3909,"Ġprefer":3910,"ĠIran":3911,"BC":3912,"db":3913,"ĠCons":3914,"Ġuncertain":3915,"Ġasp":3916,"Ġrot":3917,"Path":3918,"Ġsufficient":3919,"ankruptcy":3920,"==":3921,"âĢ¢":3922,"Ġhousing":3923,"ĠEd":3924,"source":3925,"Ġvot":3926,"Ġteach":3927,"vey":3928,"Ġintr":3929,"arrow":3930,"Ġmargin":3931,"itable":3932,"esis":3933,"ĠDef":3934,"pped":3935,"cap":3936,"Ġgives":3937,"chi":3938,"Ġjournal":3939,"Ġ2016":3940,"Ġste":3941,"Ġcenter":3942,"Ð°Ð":3943,"Ġsubsequent":3944,"Ġintelligence":3945,"unc":3946,"utrition":3947,"Ġnature":3948,"Ġserious":3949,"ĠQu":3950,"Qu":3951,"lete":3952,"asing":3953,"ĠVirginia":3954,"Ad":3955,"Ġguarant":3956,"igen":3957,"Ġdefendants":3958,"Ġstage":3959,"ĠAmerica":3960,"anging":3961,"Ġspecies":3962,"';":3963,"Ġprime":3964,"Ġidentify":3965,"Ġorg":3966,"Ġenh":3967,"Ġ31":3968,"ĠIS":3969,"Ġtried":3970,"\\].":3971,"ĠSome":3972,"Ġappro":3973,"Ġbalance":3974,"American":3975,"Ġanyone":3976,"gl":3977,"Ġappreci":3978,"Ġhydro":3979,"Ġimages":3980,"Ġeveryone":3981,"Ġlibrary":3982,"ĠTuesday":3983,"protobuf":3984,"Ġfeed":3985,"ĠUsing":3986,"illing":3987,"Se":3988,"Ġdouble":3989,"Ġtrack":3990,"pat":3991,"Ġ2015":3992,"ĠOff":3993,"Ġjury":3994,"Ġliving":3995,"adem":3996,"Ġult":3997,"^[@":3998,"cell":3999,"Ġunique":4000,"aries":4001,"BS":4002,"One":4003,"ĠWar":4004,"Ġles":4005,"omb":4006,"Ġantibodies":4007,"Ġhope":4008,"rec":4009,"prop":4010,"Ġindividuals":4011,"encies":4012,"Ġord":4013,"Ġ/*":4014,"Ġbroad":4015,")-":4016,"ils":4017,"Ġselected":4018,"\\;\\;\\;\\;":4019,"Ġwarrant":4020,"map":4021,"Ġscale":4022,"Ġextremely":4023,"Ġvers":4024,"Ġchoice":4025,"Ġfederal":4026,"ayout":4027,"izes":4028,"Ġspirit":4029,"ball":4030,"Ġways":4031,"Ġmeasured":4032,"gy":4033,"Ġprocedures":4034,"Ġissued":4035,"mand":4036,"Ġ///":4037,"Ġchosen":4038,"Ġdiss":4039,"Ġassum":4040,"Ġdesigned":4041,"Ġduty":4042,"PL":4043,"\\'":4044,"Ġoperation":4045,"čĊĠ":4046,"Ġthousands":4047,"Ġallowed":4048,"pack":4049,"Test":4050,"]^":4051,"uel":4052,"otherapy":4053,"iring":4054,"asis":4055,"Ġhighly":4056,"ĠAlthough":4057,"room":4058,"Ġthemselves":4059,"}}$":4060,"Ġparties":4061,"uthor":4062,"Ġisolated":4063,"ĠJudge":4064,"Ġspeed":4065,"Ġdetails":4066,"Ġfit":4067,"Time":4068,"hand":4069,"Ġmembrane":4070,"Ġfreedom":4071,"Ġpublished":4072,"ĠSen":4073,"Ġbecame":4074,"info":4075,"Ġassist":4076,"Ġdoct":4077,"cast":4078,"Lambda":4079,"Ġfailure":4080,"ĠSer":4081,"ae":4082,"bm":4083,"ĠNow":4084,"Ġfib":4085,"inity":4086,"length":4087,"Ġ2010":4088,"iation":4089,"apter":4090,"Ġmetabol":4091,"Ðµ":4092,"Ġbox":4093,"stance":4094,"ĠThursday":4095,"ĠMichigan":4096,"cd":4097,"ett":4098,"Ġpolicies":4099,"Of":4100,"Ġcomment":4101,"item":4102,"Ġcomposite":4103,"crib":4104,"enses":4105,".\\":4106,"Ġdiabetes":4107,"index":4108,"Ġduration":4109,"node":4110,")$,":4111,"Ġ:=":4112,"Ġ2011":4113,"Ġintensity":4114,"ä¸":4115,"inated":4116,"Ġprice":4117,"Ġhospitals":4118,"Ġvisit":4119,"She":4120,"Ġbleeding":4121,"ĠMERCHANTABILITY":4122,"Ġstress":4123,"Ġexpressed":4124,"Ġgoal":4125,"ĠScience":4126,"ĠFrench":4127,"CE":4128,"ilit":4129,"Ġexpansion":4130,"count":4131,"Ġround":4132,"Ġcentral":4133,"Ġtechnology":4134,"Ġsort":4135,"abled":4136,"Ġnotice":4137,"Ġinfrastructure":4138,"Ġhar":4139,"');":4140,"Ġcurrently":4141,"ĠAc":4142,"Ġequal":4143,"Ġleading":4144,"ĠSunday":4145,"Ġrecovery":4146,"burg":4147,"^+":4148,"EST":4149,"amespace":4150,"Ġ35":4151,"Ġecho":4152,"Ġelection":4153,"ography":4154,"ĠAM":4155,"base":4156,"ĠCal":4157,"Ġtransition":4158,"Ġfast":4159,"Ġequation":4160,"ube":4161,"ĠInternet":4162,"Ġcrucial":4163,"Des":4164,"Ġpred":4165,"Ġled":4166,"Ġoptions":4167,"ui":4168,"Ġanalog":4169,"ico":4170,"Ġwindow":4171,"owing":4172,"igation":4173,"Ġeasily":4174,"());":4175,"Ġcaused":4176,"ird":4177,"Ġbudget":4178,"Ġemerg":4179,"ecting":4180,"ĠSw":4181,"that":4182,"Ġoverall":4183,"ica":4184,"Ġsoon":4185,"Ġcommand":4186,"ĠStud":4187,"Ġ\\<":4188,"Ġinjury":4189,"Ġpolynomial":4190,"FF":4191,"iness":4192,"Ġgave":4193,"Ġpush":4194,"Ġscore":4195,"Ġmeaning":4196,"Ġmanagement":4197,"Ġbackground":4198,"ĠEl":4199,"Ġhimself":4200,"Ġentitled":4201,"Ġproof":4202,"Ġve":4203,"ulate":4204,"Ġfiled":4205,"ĠRepublic":4206,"Ġten":4207,"Ġconnection":4208,"Ġpull":4209,"Ġfair":4210,"oul":4211,"Exception":4212,"Ġlimits":4213,"Ġaw":4214,"Ġweak":4215,"ĠNone":4216,"ĠTe":4217,"ĠDetermine":4218,"Ġgalax":4219,"Ġgovern":4220,"itis":4221,"och":4222,"Ġthreat":4223,"ĠMatthew":4224,"iated":4225,"ama":4226,"ris":4227,"CP":4228,"Ġbrain":4229,"Ġextra":4230,"Ġallows":4231,"Ġparameter":4232,"Ġbelieved":4233,"Ġhit":4234,"Ġlocation":4235,"Ġche":4236,"Ġswitch":4237,"ĠFurther":4238,"align":4239,"TP":4240,"icated":4241,"Ġalone":4242,"iding":4243,"ĠAmazon":4244,"Ġacqu":4245,"Ġapply":4246,"Ġdenominator":4247,"Ġstated":4248,"Ġclearly":4249,"Ġfriends":4250,"Ġcritical":4251,"fn":4252,"ether":4253,"ails":4254,"Ġdistance":4255,"oding":4256,"Ġbuy":4257,"Ġprices":4258,"ĠCopyright":4259,"};":4260,"Ġ00":4261,"duc":4262,"document":4263,"Ġthreshold":4264,"ecutive":4265,"ÑĤ":4266,"Ġvariable":4267,"Ġ($":4268,"Ġreduce":4269,"Exp":4270,"âĢĬ":4271,"Ġheight":4272,"},\\":4273,"%,":4274,"lem":4275,"čĊĠĠĠĠĠ":4276,"Ġ2017":4277,"Ġfeature":4278,"ĠTrans":4279,"Ġelectro":4280,"ersion":4281,"Ġcardiovascular":4282,"Ġwonder":4283,"New":4284,"ĠAssociation":4285,"Ab":4286,"Ġreligious":4287,"SC":4288,"static":4289,"ĠVal":4290,"BA":4291,"Ġask":4292,"rier":4293,"Ġleaders":4294,"osing":4295,"opl":4296,"ulf":4297,"Ġestablished":4298,"force":4299,"(),":4300,"ares":4301,"Ġtemperatures":4302,"SP":4303,"Now":4304,"icial":4305,"Ġones":4306,"Ġvirtual":4307,")).":4308,"using":4309,"encing":4310,"Ġbaby":4311,"athemat":4312,"Ġboard":4313,"here":4314,"ãĢ":4315,"Ġneither":4316,"icles":4317,"inf":4318,"Ġ2008":4319,"Ġbenefits":4320,"Ġreduction":4321,"Ġdeb":4322,"Ġparticipants":4323,"Ġmulti":4324,"Ġfields":4325,"ĠHamilton":4326,"oe":4327,"stream":4328,"Ġexcept":4329,"._":4330,"They":4331,"umption":4332,"Ġstri":4333,"Ġrecip":4334,"ĠEngland":4335,"Ġusers":4336,"Ġregarding":4337,"asion":4338,"čĊ":4339,"Ġengine":4340,"Ġphilosoph":4341,"cin":4342,"Ġactual":4343,"Ġknew":4344,"Ġparts":4345,"Ġposs":4346,"Ġingredients":4347,"Ġhighest":4348,"hold":4349,"sf":4350,"Ġexcellent":4351,"ĠIslam":4352,"Ġdiscl":4353,"oad":4354,"ester":4355,"ĠRev":4356,"Ġdatas":4357,"Ġtrigger":4358,"ĠLa":4359,"Ġfiles":4360,"Ġsuffer":4361,"Ġremains":4362,"Ġlocated":4363,"Ġcontaining":4364,"Ġfundamental":4365,"overline":4366,"Ġfrequency":4367,"cons":4368,"Ġpen":4369,"True":4370,"Ġcontains":4371,"Ġsupported":4372,"Ġserver":4373,"âĢĥ":4374,"Ġinstrument":4375,"Ġgenerated":4376,"inate":4377,"Ġattention":4378,"ios":4379,"ĠWindows":4380,"ĠSaturday":4381,"Ġunderstanding":4382,"Ġappears":4383,"Ġreceive":4384,"ptions":4385,"Ġoppos":4386,"Ġslow":4387,"TER":4388,"Ġax":4389,"Ġactivities":4390,"Ġsolid":4391,"Ġwidely":4392,"Ġdog":4393,"Ġtumors":4394,")**":4395,"Ġfinding":4396,"vis":4397,"unk":4398,"Ġfine":4399,"]--[@":4400,"']":4401,"Ġweb":4402,"geq":4403,"Ġdisp":4404,"From":4405,"ĠIL":4406,"ĠSyri":4407,"ATE":4408,"Ġpress":4409,"Ġremember":4410,"Ġ2009":4411,"ensuremath":4412,"Ġworth":4413,"Ġeconomic":4414,"Ġsites":4415,"Ġaud":4416,"Ġhop":4417,"ĠWest":4418,"target":4419,"Ġdu":4420,"Ġnumer":4421,"Ġunivers":4422,"Label":4423,"jpg":4424,"Ġinform":4425,"ĠAD":4426,"ĠCenter":4427,"Ġdeclared":4428,"inger":4429,"rep":4430,"ĠSchool":4431,"Ġtrust":4432,"hal":4433,"Ġnor":4434,"ĠAN":4435,"Rec":4436,"Ġcontrast":4437,"Ġspeak":4438,"Ġmid":4439,"tx":4440,"Ġdiscovered":4441,"Ġscenario":4442,"Ġvariables":4443,"Ġwasn":4444,"}.":4445,"Ġqual":4446,"Ġcapt":4447,"ĠAccording":4448,"Ġstar":4449,"Ġdistinguish":4450,"*-":4451,"ĠEm":4452,"Ġmaintenance":4453,"Ġreaction":4454,"Ġsum":4455,"Ġconcentration":4456,"ado":4457,"Ġmarijuana":4458,"Ġgoes":4459,"Ġschol":4460,"Ġson":4461,"Ġsenior":4462,"Ġfabric":4463,"Ġlegisl":4464,"Ġtim":4465,"Fr":4466,"call":4467,"Ġill":4468,"Ġplease":4469,"Ġenter":4470,"Ġculture":4471,"Ġauthors":4472,"pan":4473,"ĠIndia":4474,"Ġoxygen":4475,"Ġconstraints":4476,"image":4477,"Ġtraffic":4478,"Ġrules":4479,"ĠData":4480,"ĠMark":4481,"Ġinstructions":4482,"Ġsweet":4483,"Ġpo":4484,"¿Ã¿Ã¿Ã":4485,"Ġstore":4486,"Ġhon":4487,"Ġprevalence":4488,"Ġconc":4489,"PR":4490,"Ġuses":4491,"Ġbecoming":4492,"Ġapparatus":4493,"oddsidemargin":4494,"Ġapplications":4495,"Ġreports":4496,"Handler":4497,"Ġcop":4498,"Ġtheoretical":4499,"............":4500,"Ġdaughter":4501,"CS":4502,"Ġhearing":4503,"Ġsurpr":4504,"ql":4505,"Ġ]":4506,"Ġinsp":4507,"rich":4508,"Ġmother":4509,"Ġoperator":4510,"Ġinterview":4511,"Ġinteresting":4512,"Ġbecomes":4513,"related":4514,"oon":4515,"unn":4516,"Ġsetting":4517,"Ġdocuments":4518,"Form":4519,"ĠOf":4520,"ĠUSA":4521,"otal":4522,"Ġhands":4523,"edd":4524,"ham":4525,"Ġrestaur":4526,"ĠMassachusetts":4527,"BD":4528,"Ġdead":4529,"Ġshowing":4530,"Ġconstruction":4531,"Ġsampling":4532,"Ġinn":4533,"Ġstrategies":4534,"[]":4535,"Ġitems":4536,"Ġpolymer":4537,"ellow":4538,"Ġhybrid":4539,"ĠAngeles":4540,"ĠHar":4541,"color":4542,"Ġsmaller":4543,"Ġsurgical":4544,"icip":4545,"Ġeight":4546,"Ġresulting":4547,"oses":4548,"ĠDemocr":4549,"Ġyield":4550,"ensions":4551,"Ġmajority":4552,"Ġneurons":4553,"Ġclust":4554,"Ġimmigr":4555,"Ġcorrection":4556,"Item":4557,"erved":4558,"pa":4559,"Ġpolit":4560,"Ġstaff":4561,"Ġcognitive":4562,"object":4563,"Ġmanuscript":4564,"Ġ||":4565,"Ġdomain":4566,"enced":4567,"Ġregions":4568,"Ġcoefficients":4569,"iter":4570,"Ġ<<":4571,"*.":4572,"Ġproduce":4573,"Ġtissues":4574,"Ġsymmetry":4575,"Ġinjuries":4576,"formation":4577,"ĠĠĠĠĠĠĠĠĠĠĠĠĠĠĠĠĠĠĠĠĠĠĠĠĠĠĠĠĠĠĠĠĠĠĠĠĠĠĠĠĠĠĠĠĠĠĠĠĠĠĠĠĠĠĠĠĠĠĠĠĠĠĠĠĠĠĠĠĠĠĠĠĠĠĠĠĠĠĠĠĠĠĠĠĠĠĠĠĠĠĠĠĠĠĠĠĠĠĠĠĠĠĠĠĠĠĠĠĠĠĠĠĠĠĠĠĠĠĠĠ":4578,"ĠNe":4579,"Disclosure":4580,"Ġstock":4581,"Ġvolume":4582,"side":4583,"resent":4584,"Ġdefinitely":4585,"rying":4586,"ĠPhiladelphia":4587,"Ġtransport":4588,"Ct":4589,"Ġconsequ":4590,"Ġreasonable":4591,"fortunately":4592,"Ġproduced":4593,"Ġ45":4594,"Ġinstit":4595,"rypt":4596,"Ġmedium":4597,"Ġadjacent":4598,"Ġindicated":4599,"Ġturned":4600,"Ġextr":4601,"Ġskin":4602,"Ġsafety":4603,"reated":4604,"script":4605,"Ġdefense":4606,"Ġlooks":4607,"Ġstarting":4608,"Ġdivided":4609,"ĠMedicine":4610,"ĠPublic":4611,"attle":4612,"AIMS":4613,"Ġreading":4614,"State":4615,"Ġdecided":4616,"Ġatmosphere":4617,"Ass":4618,"Ġcontinues":4619,"Ġsound":4620,"atric":4621,"Ġforms":4622,"\\,":4623,"Ġpetition":4624,"Ġgets":4625,"ani":4626,"Ġsup":4627,"Ġ80":4628,"Ġlabor":4629,"Ġvitro":4630,"Ġbrought":4631,"ĠTH":4632,"bb":4633,"ĠFrom":4634,"orts":4635,"ponent":4636,"ls":4637,"Ġexists":4638,"ĠBu":4639,"Ġbed":4640,"Ġworked":4641,"='":4642,"ĊĠĠĠĠĠĠĠĠĠĠĠĠĠĠĠĠĠĠĠĠĠĠĠĠĠĠĠ":4643,"zz":4644,"Î²":4645,"Ġdark":4646,"ĠCO":4647,"Ġdefine":4648,"){#":4649,"Ġdiscretion":4650,"*(":4651,"Ġcomprehensive":4652,"Ġfix":4653,"EG":4654,"ĠInstead":4655,"Ġstand":4656,"Ġfraud":4657,"}-":4658,"Ġmaterials":4659,"enz":4660,"ĠHuman":4661,"':":4662,"ĠTable":4663,"alth":4664,"Ġinteraction":4665,"Ġroad":4666,"ceed":4667,"\\|":4668,"free":4669,"Ġmaximum":4670,"pper":4671,"Ġpromot":4672,"TYPE":4673,"anguage":4674,"Ġstd":4675,"Ġroot":4676,"Ġmg":4677,"/(":4678,"Ġcomputer":4679,"google":4680,"Ġextract":4681,"under":4682,"Ġfacts":4683,"Ġunderstood":4684,"ĠArizona":4685,"Ġ95":4686,"book":4687,"Ġzero":4688,"Ġseparate":4689,"Ġmanifest":4690,"Ġitem":4691,"ĠChar":4692,"elle":4693,"Ġnoted":4694,"_.":4695,"Ġ->":4696,"Ġnorm":4697,"Ġconcerning":4698,"Ġlov":4699,"Ġneut":4700,"now":4701,"ights":4702,"Ġdrive":4703,"fe":4704,"Ġplayed":4705,"Ġliability":4706,"py":4707,"Ġdoor":4708,"Ġ90":4709,"Ġtaste":4710,"Ġattached":4711,"Ġabsolute":4712,"Ġinternal":4713,"Ġthroughout":4714,"%%%%%%%%%%%%%%%%%%%%%%%%%%":4715,"tt":4716,"len":4717,"Ġgun":4718,"Ġbasic":4719,"olecules":4720,"Ġ!":4721,"check":4722,"Ġprocesses":4723,"MR":4724,"ĠMod":4725,"Ġeth":4726,"Ġachieve":4727,"AA":4728,"Ġsources":4729,"ĠIraq":4730,"Ġdiscipl":4731,"Ġtreat":4732,"ĠSection":4733,"ns":4734,"inant":4735,"Ġhealthy":4736,"Ġagree":4737,"Ġformation":4738,"Node":4739,"Ġmagnetic":4740,"Ġtotally":4741,"Ġchannels":4742,"Ġcool":4743,"Ġcollect":4744,"Ġprosecut":4745,"omas":4746,"ĠIllinois":4747,"Info":4748,"ifier":4749,"004":4750,"Ġdrop":4751,"Ġtests":4752,"Ġmode":4753,"Ġplayer":4754,"Ġheard":4755,"Ġimpossible":4756,"ishing":4757,"Ġtruly":4758,"Ġdest":4759,"Ġwrit":4760,"Ġdeliver":4761,"Ġfunctional":4762,"Ġsymptoms":4763,"Ġmessages":4764,"Event":4765,"lic":4766,"agr":4767,"ampionship":4768,"Ġconnected":4769,"duces":4770,"Ġactions":4771,"Ġconducted":4772,"Ġmarriage":4773,"Ġformed":4774,"imb":4775,"aling":4776,"Ġtoxic":4777,"Ġreceptors":4778,"Ġpreparation":4779,"zeta":4780,"Ġ});":4781,"Ġassembly":4782,"Ġremove":4783,"Ġcollection":4784,"Us":4785,"Ġfresh":4786,"Ġkn":4787,"eph":4788,"Ġreflect":4789,"approx":4790,"upport":4791,"Ġready":4792,"Ġcombination":4793,"SA":4794,"Ġaward":4795,"Vert":4796,"Ġdiagnosis":4797,"Ġcrazy":4798,"============================================================":4799,"Ġmilk":4800,"Ġlives":4801,"Ġconcept":4802,"Ġclosed":4803,"Ġ33":4804,"lob":4805,"det":4806,"--------------------------------":4807,"ĠCH":4808,"private":4809,"wedge":4810,"Ġwide":4811,"Ġsets":4812,"Ġsold":4813,"Ġmount":4814,"friend":4815,"Ġ48":4816,"which":4817,"uses":4818,"lt":4819,"Ġincreases":4820,"Ġaware":4821,"Ġ/**":4822,"Ġscientific":4823,"SU":4824,"Ġ\"\"":4825,"Ġphone":4826,"rad":4827,"title":4828,".[":4829,"enu":4830,"Ġri":4831,"ĠMore":4832,"Ġpictures":4833,"Le":4834,"Ġpoly":4835,"Ġplaying":4836,"Ġgastrointestinal":4837,")^":4838,"PD":4839,"umin":4840,"Ġseven":4841,"Context":4842,"Ġlif":4843,"Ġrace":4844,"Ġ37":4845,"Ġresources":4846,"olved":4847,"Ġsudden":4848,"Ġcrisis":4849,"grad":4850,"SM":4851,"start":4852,"ĠID":4853,"Ġconfig":4854,"Ġsimultaneously":4855,"FA":4856,"Ġcalculated":4857,"isation":4858,"oto":4859,"ĠGe":4860,"ways":4861,"Ġdescription":4862,"Ġsemiconductor":4863,"Ġbow":4864,"Ġdiameter":4865,"Ġdemonstrated":4866,"Ġsteps":4867,"irt":4868,"Ġquantum":4869,"conn":4870,"aine":4871,"HT":4872,"gener":4873,"Ġspin":4874,"berg":4875,"Ġprogression":4876,"Ġhum":4877,"Ġlooked":4878,"Ġlargely":4879,"rick":4880,"jo":4881,"ebug":4882,"Ġmoved":4883,"float":4884,"Ġequilibrium":4885,"ustom":4886,"Ġchoose":4887,"armaceutical":4888,"}}_":4889,"ponse":4890,"parent":4891,"Ġparent":4892,"iced":4893,"Ġmeeting":4894,"Ġlaser":4895,"wise":4896,"Another":4897,"Î±":4898,"Ġtoward":4899,"Ġign":4900,"Ġhappened":4901,"Ġpackage":4902,"Ġmonitoring":4903,"Ġpor":4904,"Ġprove":4905,"Ġproviding":4906,"Ġcapital":4907,"Ġperipheral":4908,"Ġmorning":4909,".'":4910,"Ġsegment":4911,"||":4912,"Ġfather":4913,"ĠRed":4914,"Ġplant":4915,"Filter":4916,"PO":4917,"ract":4918,"ĠLaw":4919,"Ġmoving":4920,"Ġfamiliar":4921,"Ġexposure":4922,"ĠClinton":4923,"jection":4924,"Ġconsistent":4925,"Ġthermal":4926,"Ġthinking":4927,"Ġdelay":4928,"Here":4929,"input":4930,"Ġshape":4931,"Ġ(\\":4932,"Ġmanifold":4933,")/(-":4934,"Ġgauge":4935,"xy":4936,"Ġsignificance":4937,"stitution":4938,"Out":4939,"Ġ\\,":4940,"Ġbul":4941,"gs":4942,"style":4943,"Ġpow":4944,"Ġpriv":4945,"Ġcontinuous":4946,"iam":4947,"Ġgiving":4948,"Ġvivo":4949,"Ġâī¥":4950,"Ġdamage":4951,"tered":4952,"Ġhttps":4953,"ĠEq":4954,"Ġcoach":4955,"Ġtablespoons":4956,"Ġtask":4957,"Ġcardiac":4958,"abs":4959,"oz":4960,"ĠList":4961,"Ġremoval":4962,"({":4963,"urity":4964,"Ġpeak":4965,"orrect":4966,"False":4967,"Big":4968,"empt":4969,"ĠGet":4970,"Ġgonna":4971,"ĠMinnesota":4972,"ada":4973,"Ġscheduled":4974,"ĠCR":4975,"ĠFl":4976,"Ġdetected":4977,"rence":4978,"ĠKorea":4979,"Ġfamilies":4980,"otype":4981,"ĊĊĠĠĠĠĠĠĠĠĠĠĠ":4982,"Ġpul":4983,"^{(":4984,"Ġharm":4985,"à¤":4986,"aly":4987,"Log":4988,"hy":4989,"vest":4990,"Ġobs":4991,"\\],":4992,"Ġindicate":4993,"Ġnearly":4994,"acellular":4995,"Ġtelevision":4996,"apping":4997,"ĠIndian":4998,"Ġamazing":4999,"Ġuns":5000,"Ġmusic":5001,"Ġtelephone":5002,"Ġembodiment":5003,"Ġmiddle":5004,"Ġdollars":5005,"asm":5006,"ĊĊĉ":5007,"avascript":5008,"Ġsecret":5009,"Ġblog":5010,"Sigma":5011,"ĠTest":5012,"Ġ2018":5013,"host":5014,"Ġcholesterol":5015,"002":5016,"Ġruling":5017,"Ġprem":5018,"true":5019,"čĊĠĠĠĠĠĠĠ":5020,"ocket":5021,"Ġhyp":5022,"Ġantibody":5023,"ĠAL":5024,"ĊĠĠĠĠĠĠĠĠĠĠĠĠĠĠĠĠĠĠĠĠĠĠĠĠĠĠĠĠĠĠĠĠĠĠĠĠĠĠĠĠĠĠĠĠĠ":5025,"Ġmetal":5026,"Ġtasks":5027,"/(-":5028,"Ġconspiracy":5029,"pol":5030,"ford":5031,"enty":5032,"Ġdistributed":5033,"Ġconversation":5034,"ĠKing":5035,"acing":5036,"}=\\":5037,"Ġworkers":5038,"EP":5039,"range":5040,"ĠHigh":5041,"ectors":5042,"Ġvehicle":5043,"Ġmac":5044,"Ġhear":5045,"}}(":5046,"ĠSocial":5047,"ainer":5048,"ĠHer":5049,"cles":5050,"ĊĊĠĠĠĠĠ":5051,"Ġnil":5052,",\\*^,":5053,"case":5054,"Ġexisting":5055,"Ġpopular":5056,"Ġcoefficient":5057,"IA":5058,"Ġlip":5059,"Ġrob":5060,"Ġcomments":5061,"esh":5062,"Ġbenefit":5063,"ĠFigure":5064,"RDPCSTX":5065,"ĠPost":5066,"Ġsuggested":5067,"Ġdiscussed":5068,"run":5069,"going":5070,"eah":5071,"Ġband":5072,"AV":5073,"IB":5074,"())":5075,"ka":5076,"Ġchance":5077,"\"></":5078,"ration":5079,"Ġadopted":5080,"Ġpot":5081,"Ġfoot":5082,"=============":5083,"Ġroll":5084,"ĠServices":5085,"ename":5086,"Ġcert":5087,"icians":5088,"Ġ((":5089,"ĠSan":5090,"Ġmedicine":5091,"Ġcorpor":5092,"Ġmag":5093,"Ġfinally":5094,"ĠSOFTWARE":5095,"]:":5096,"Ġmm":5097,"ĠHol":5098,"Ġimag":5099,"ĠAlso":5100,"Ġouter":5101,"ĠDivision":5102,"Ġapparently":5103,"ĠAppellant":5104,"Ġ34":5105,"Ġhor":5106,"atively":5107,"ĠIR":5108,"Ġwithdraw":5109,"Ġsafe":5110,"Ġafraid":5111,"Ġadministered":5112,"##":5113,"Ġbundle":5114,"amin":5115,"iqu":5116,"Ġlabel":5117,"\\/":5118,"ĠMus":5119,"Ġregul":5120,"ĠPark":5121,"Color":5122,"UM":5123,"cos":5124,"rest":5125,"ĠMe":5126,"Ġ70":5127,"Ġforeign":5128,"met":5129,"Ġinfection":5130,"Ġletter":5131,"Ġactivation":5132,"Ġexperiences":5133,"Ġcolon":5134,"Ġtesting":5135,"pert":5136,"Ġbank":5137,"Ġdiff":5138,"ldots":5139,"VER":5140,"Ġnation":5141,"Ġgreen":5142,"ming":5143,"Ġincome":5144,"Ġdev":5145,"Ġperspective":5146,"Ġunits":5147,"ĠCommission":5148,"Ġbreast":5149,"php":5150,"Trans":5151,"long":5152,"Ġmanner":5153,"ĠUK":5154,"gu":5155,"Box":5156,"Ġemail":5157,"Ġsummary":5158,"urt":5159,"Ġsend":5160,"Ġwa":5161,"Ġdrugs":5162,"Oh":5163,"Ġorganizations":5164,"board":5165,"ager":5166,"space":5167,"ned":5168,"config":5169,"Ġstudied":5170,"Ġfinite":5171,"Ġ36":5172,"Element":5173,"Ġtree":5174,"ĠSoftware":5175,"Ġavailability":5176,"ping":5177,"Ġfashion":5178,"ĠAnother":5179,"ĠEarth":5180,"ĠWhite":5181,"Ġdiscovery":5182,"olf":5183,"message":5184,"ĠEven":5185,"java":5186,"Ġclick":5187,"Ġyourself":5188,"Ġresponsible":5189,"Ġprobability":5190,"uate":5191,"Ð¸":5192,"Ġshooting":5193,"ĠSecretary":5194,"Ġfear":5195,"ĠRNA":5196,"Ġunlikely":5197,"ba":5198,"Ġtrade":5199,"ĠJapanese":5200,"CM":5201,"Ġbodies":5202,"aterials":5203,"Ġhem":5204,"ĠĠĠĠĠĠĠĠĠĠĠĠĠĠĠĠ":5205,"airs":5206,"Ġapproximately":5207,"ĠSpec":5208,"ĠTO":5209,"Ġsexual":5210,"Ġendothelial":5211,"Ġobjects":5212,"fa":5213,"idden":5214,"Ġneglig":5215,"ĠFrancis":5216,"Ġshot":5217,"Inter":5218,"Ġdomestic":5219,"[\\":5220,"pass":5221,"icle":5222,"Ġpancreatic":5223,"Ġinvestigation":5224,"Ġmale":5225,"Array":5226,"ble":5227,"ĠAnt":5228,"Ġstation":5229,"Ġprograms":5230,"Ġdenied":5231,"Ġmovement":5232,"ĠLouis":5233,"Ġ2000":5234,"Ġlayers":5235,"rupt":5236,"ĠRel":5237,"ĠPM":5238,"Ġcaught":5239,"Ġpanel":5240,"OU":5241,"Ġaccordance":5242,"ĠSebastian":5243,"Ġrecords":5244,"Ġcompar":5245,"Ġvariety":5246,"pe":5247,"idget":5248,"Ġ=\\":5249,"Ġcontinued":5250,"Ġstructures":5251,"[^":5252,"Ġwife":5253,"Ġjuice":5254,"Ġtomorrow":5255,"âĢ²":5256,"ĠOther":5257,"User":5258,"aker":5259,"Ġ42":5260,"Ġpassed":5261,"Ġwave":5262,"ESS":5263,"ĠView":5264,"Ġcompr":5265,"ky":5266,"ĠSim":5267,"Ġbeginning":5268,"Size":5269,"Ġsave":5270,"Ġcontrovers":5271,"Ġcarried":5272,"ara":5273,"TS":5274,"aper":5275,")?":5276,"Ġunnecessary":5277,"*~":5278,"Ġbacter":5279,"Ġgastric":5280,"Ġassume":5281,"dep":5282,"Ġacceler":5283,"iers":5284,"ĠMon":5285,"ĠCancer":5286,"Ġliver":5287,"ĠCode":5288,"ifferent":5289,"Ġsing":5290,"orb":5291,"Ġexperimental":5292,"struction":5293,"Ġseed":5294,"ĠCarolina":5295,"Ġborder":5296,"Ġdischarge":5297,"Ġoptim":5298,"Ġthick":5299,"Ġprocessing":5300,"ĠJewish":5301,"Ġcatch":5302,"ili":5303,"Read":5304,"ĠCan":5305,"Ġut":5306,"Ġelectrical":5307,"ests":5308,"Ġnovel":5309,"Ġpseud":5310,"ĠRef":5311,"Ġtalking":5312,"Ġfigures":5313,"Ġemotional":5314,"aim":5315,"Ġstuff":5316,"Ġstatute":5317,"olid":5318,"ĠSur":5319,"Ġconver":5320,"Ġexception":5321,"Ġdetection":5322,"CO":5323,"Ġhappy":5324,"Ġarrived":5325,"Ġinflu":5326,"Up":5327,"Ġupdated":5328,"Ġinduced":5329,"ĠHospital":5330,"otimes":5331,"Ġvan":5332,"Ġsuccessful":5333,"Ġrefriger":5334,"ĠCON":5335,"Ġcorrelation":5336,"ĠStat":5337,"ading":5338,"Ġcompliance":5339,"ĠJournal":5340,"Ġremaining":5341,"AY":5342,"Ġpark":5343,"Ġkin":5344,"Ġcore":5345,"ĠDonald":5346,"TC":5347,"Ġprofessional":5348,"Ġsell":5349,"Ġagg":5350,"Ġsorry":5351,"inding":5352,"Ġtested":5353,"Ġkilled":5354,"ĠGen":5355,"etroleum":5356,"Ġcolleagues":5357,"ĠTR":5358,"ĠOhio":5359,"Call":5360,"Ġselection":5361,"Ġbond":5362,"Ġshift":5363,"Ġminor":5364,"Ġreached":5365,"ĠLemma":5366,"AaÃĢÃłÃģÃ¡ÃĤÃ¢ÃĥÃ£ÃĦÃ¤ÃħÃ¥ÄĢÄģÄĤÄĥÄĦÄħÇįÇİÇŀÇŁÇłÇ¡ÇºÇ»ÈĢÈģÈĤÈĥÈ¦È§á¸Ģá¸ģáºļáºłáº¡áº¢áº£áº¤áº¥áº¦áº§áº¨áº©áºªáº«áº¬áºŃáº®áº¯áº°áº±áº²áº³áº´áºµáº¶áº·BbÆĢÆģÉĵÆĤÆĥá¸Ĥá¸ĥá¸Ħá¸ħá¸Ĩá¸ĩCcÃĩÃ§ÄĨÄĩÄĪÄīÄĬÄĭÄĮÄįÆĩÆĪÉķá¸Īá¸īDdÄİÄıÄĲÄĳÆĬÉĹÆĭÆĮÇħÇ²È¡Éĸá¸Ĭá¸ĭá¸Įá¸įá¸İá¸ıá¸Ĳá¸ĳá¸Ĵá¸ĵEeÃĪÃ¨ÃīÃ©ÃĬÃªÃĭÃ«ÄĴÄĵÄĶÄķÄĸÄĹÄĺÄĻÄļÄĽÈĦÈħÈĨÈĩÈ¨È©á¸Ķá¸ķá¸ĸá¸Ĺá¸ĺá¸Ļá¸ļá¸Ľá¸ľá¸Ŀáº¸áº¹áººáº»áº¼áº½áº¾áº¿á»Ģá»ģá»Ĥá»ĥá»Ħá»ħá»Ĩá»ĩFfÆĳÆĴá¸ŀá¸ŁGgÄľÄĿÄŀÄŁÄłÄ¡Ä¢Ä£ÆĵÉłÇ¤Ç¥Ç¦Ç§Ç´Çµá¸łá¸¡HhÄ¤Ä¥Ä¦Ä§ÈŀÈŁÉ¦á¸¢á¸£á¸¤á¸¥á¸¦á¸§á¸¨á¸©á¸ªá¸«áºĸIiÃĮÃ¬ÃįÃŃÃİÃ®ÃıÃ¯Ä¨Ä©ÄªÄ«Ä¬ÄŃÄ®Ä¯Ä°ÆĹÉ¨ÇıÇĲÈĪÈīÈĬÈĭá¸¬á¸Ńá¸®á¸¯á»Īá»īá»Ĭá»ĭJjÄ´ÄµÇ°ÊĿKkÄ¶Ä·ÆĺÆĻÇ¨Ç©á¸°á¸±á¸²á¸³á¸´á¸µLlÄ¹ÄºÄ»Ä¼Ä½Ä¾Ä¿ÅĢÅģÅĤÆļÇĪÈ´É«É¬ÉŃá¸¶á¸·á¸¸á¸¹á¸ºá¸»á¸¼á¸½MmÉ±á¸¾á¸¿á¹Ģá¹ģá¹Ĥá¹ĥNnÃĳÃ±ÅĥÅĦÅħÅĨÅĩÅĪÆĿÉ²ÆŀÈłÇĭÇ¸Ç¹ÈµÉ³á¹Ħá¹ħá¹Ĩá¹ĩá¹Īá¹īá¹Ĭá¹ĭOoÃĴÃ²ÃĵÃ³ÃĶÃ´ÃķÃµÃĸÃ¶ÃĺÃ¸ÅĮÅįÅİÅıÅĲÅĳÆŁÆłÆ¡ÇĳÇĴÇªÇ«Ç¬ÇŃÇ¾Ç¿ÈĮÈįÈİÈıÈªÈ«È¬ÈŃÈ®È¯È°È±á¹Įá¹įá¹İá¹ıá¹Ĳá¹ĳá¹Ĵá¹ĵá»Įá»įá»İá»ıá»Ĳá»ĳá»Ĵá»ĵá»Ķá»ķá»ĸá»Ĺá»ĺá»Ļá»ļá»Ľá»ľá»Ŀá»ŀá»Łá»łá»¡á»¢á»£PpÆ¤Æ¥á¹Ķá¹ķá¹ĸá¹ĹQqÊłRrÅĶÅķÅĸÅĹÅĺÅĻÈĲÈĳÈĴÈĵÉ¼É½É¾á¹ĺá¹Ļá¹ļá¹Ľá¹ľá¹Ŀá¹ŀá¹ŁSsÅļÅĽÅľÅĿÅŀÅŁÅłÅ¡ÈĺÈĻÊĤá¹łá¹¡á¹¢á¹£á¹¤á¹¥á¹¦á¹§á¹¨á¹©TtÅ¢Å£Å¤Å¥Å¦Å§Æ«Æ¬ÆŃÆ®ÊĪÈļÈĽÈ¶á¹ªá¹«á¹¬á¹Ńá¹®á¹¯á¹°á¹±áºĹUuÃĻÃ¹ÃļÃºÃĽÃ»ÃľÃ¼Å¨Å©ÅªÅ«Å¬ÅŃÅ®Å¯Å°Å±Å²Å³Æ¯Æ°ÇĵÇĶÇķÇĸÇĹÇĺÇĻÇļÇĽÇľÈĶÈķÈĸÈĹá¹²á¹³á¹´á¹µá¹¶á¹·á¹¸á¹¹á¹ºá¹»á»¤á»¥á»¦á»§á»¨á»©á»ªá»«á»¬á»Ńá»®á»¯á»°á»±VvÆ²Êĭá¹¼á¹½á¹¾á¹¿WwÅ´ÅµáºĢáºģáºĤáºĥáºĦáºħáºĨáºĩáºĪáºīáºĺXxáºĬáºĭáºĮáºįYyÃĿÃ½Ã¿Å¸Å¶Å·Æ³Æ´È²È³áºİáºıáºĻá»²á»³á»´á»µá»¶á»·á»¸á»¹ZzÅ¹ÅºÅ»Å¼Å½Å¾ÆµÆ¶È¤È¥ÊĲÊĳáºĲáºĳáºĴáºĵáºĶáºķáºķ":5367,"Val":5368,"\"},":5369,"sur":5370,"Ġcombined":5371,"udes":5372,"Ġtend":5373,"actor":5374,"Ġreturned":5375,"Ġupdate":5376,"Ġelectric":5377,"Ġdiagnostic":5378,"oney":5379,"ync":5380,":\\":5381,"Ġclasses":5382,"Ġjudge":5383,"Ġtruth":5384,"ĠNote":5385,"ship":5386,"Ġimproved":5387,"car":5388,"Ġframe":5389,"Ġrat":5390,"Ġwants":5391,"Ġserve":5392,"Ġsolutions":5393,"Ġonto":5394,"Ġthrow":5395,"Ġstroke":5396,"Ġfirm":5397,"Ġsuggests":5398,"block":5399,"Ġcareer":5400,"Ġepisode":5401,"Ġconstitutional":5402,"Ġmaybe":5403,"Ġvacuum":5404,"Yes":5405,"Ġcamp":5406,"Ġchallenge":5407,"Ġ2006":5408,"Ġoscill":5409,"Ġrelation":5410,"Ġreplacement":5411,"Ġwavelength":5412,"Ġhour":5413,"dot":5414,"Ġofficials":5415,"section":5416,"Ġcontrols":5417,"**^":5418,"Ġsentence":5419,"Ġunless":5420,"ATION":5421,"Ċĉĉĉĉĉĉĉĉĉĉĉ":5422,"Ġ${":5423,"Ġ---":5424,"ĠMartin":5425,"ench":5426,"Ġleads":5427,"Ġtypically":5428,"arc":5429,"ĠArt":5430,"Ġultimately":5431,"Ġampl":5432,"Ġwhereas":5433,"Pr":5434,"Ġagreed":5435,"after":5436,"Ġexplain":5437,"aud":5438,"Ġcommit":5439,"ifying":5440,"Ġ2007":5441,"ĠNevertheless":5442,"DR":5443,"Per":5444,"itz":5445,"Ġderived":5446,"Ġcompensation":5447,"Ġdied":5448,"atin":5449,"Ġraised":5450,"Ġepithelial":5451,"Ġoccurred":5452,"Ġpursuant":5453,"orescence":5454,"kg":5455,"ĠInter":5456,"Ġdecreased":5457,"Ġpicked":5458,"Ġdiversity":5459,"Ġship":5460,"Ġinequality":5461,"Ġdistributions":5462,"Ġded":5463,"option":5464,"&&":5465,"ocyte":5466,"Ġlegislation":5467,"anded":5468,"ius":5469,"Ġtal":5470,"Ġspread":5471,"Dec":5472,"ĠNOT":5473,"Ġdismiss":5474,"PP":5475,"Ġregister":5476,"lication":5477,"Ġaffected":5478,"Ġbillion":5479,"ĠSimilarly":5480,"Code":5481,"Ġrare":5482,"yr":5483,"Rep":5484,"agement":5485,"Ġnuclear":5486,"Method":5487,"Ġgrowing":5488,"Ġautom":5489,"level":5490,"Ġrow":5491,"ĠDec":5492,"Ġedge":5493,"ĠGroup":5494,"}}{":5495,"stract":5496,"Ġbuffer":5497,"Ġnames":5498,"Ġsugges":5499,"ĠAppeals":5500,"Ġdiscrimination":5501,"ĠAdditionally":5502,"Ġdie":5503,"api":5504,"Ġplans":5505,"Ġtools":5506,"build":5507,"Ġmo":5508,"Ġsustain":5509,"Count":5510,"hel":5511,"Ġgeneration":5512,"Ġkid":5513,"Ġchemical":5514,"ĠReturn":5515,"hibits":5516,"Ġwild":5517,"Ġspent":5518,"Ġadequate":5519,"Ġod":5520,"Ġclient":5521,"dec":5522,"iant":5523,"({\\":5524,"Ġwish":5525,"Ġrepresentation":5526,"ĠEast":5527,"ĠEuropean":5528,"Ġmolecular":5529,"Service":5530,"Ġdebt":5531,"Ġcohort":5532,"Ġcalls":5533,"Ġasympt":5534,"Ġfeet":5535,"inflammatory":5536,"EXPECTED":5537,"Do":5538,"Su":5539,"čĊĉ":5540,"open":5541,"Image":5542,"atabase":5543,"main":5544,"ĠMost":5545,"ĊĠĠĠĠĠĠĠĠĠĠĠĠĠĠĠĠĠ":5546,"Ġalgorithm":5547,"Ġsubjects":5548,"Ġestimated":5549,"500":5550,"Ġnone":5551,"Ġdisadvant":5552,"ĠTV":5553,"ographic":5554,"Ġloop":5555,"Field":5556,"yd":5557,"Any":5558,"ĠTennessee":5559,"Ġplaces":5560,"Ġ__":5561,"Ġmigration":5562,"nutrients":5563,"ĠPal":5564,"ptr":5565,"Why":5566,"ignment":5567,"Ġprotect":5568,"ometry":5569,"Fl":5570,"Ġherself":5571,"ĠRichard":5572,"Ġmoderate":5573,"KeyWord":5574,"Ġintroduced":5575,"ingly":5576,"Ġprim":5577,"Ġsoft":5578,"actory":5579,"Ġefforts":5580,"ÑĢ":5581,"Ġter":5582,"Ġhandle":5583,"Ġdiscussion":5584,"Ġplanned":5585,"Ġnet":5586,"Ġblue":5587,"ĠPARTICULAR":5588,"release":5589,"Ġnice":5590,"Ġprotocol":5591,"ressive":5592,"QL":5593,"Ġandroid":5594,"olean":5595,"TA":5596,"Ġvent":5597,"Ġ&\\":5598,"Department":5599,"Ġcytok":5600,"Ġdrink":5601,"Ġexplanation":5602,"ĠBro":5603,"Ġletters":5604,"Comp":5605,"Ġdiet":5606,"ires":5607,"Ġapoptosis":5608,"Ġmitochond":5609,"Ġlock":5610,"Ġvote":5611,"Ġprotection":5612,"inner":5613,"ĠYour":5614,"Act":5615,"types":5616,"ĠNS":5617,"Ġdescribe":5618,"Ġcouldn":5619,"Ġvisual":5620,"Because":5621,"ĠArmy":5622,"ĠER":5623,"ĠPlaintiff":5624,"ĠDon":5625,"Ġunderwent":5626,"Ġsurveillance":5627,"Ġ2005":5628,"Ġmodern":5629,"*)":5630,"Ġoutcome":5631,"Ġdropped":5632,"core":5633,"Ġserum":5634,"ĠDirector":5635,"ĠâĨĴ":5636,"NF":5637,"create":5638,"**(-":5639,"Ġarm":5640,"Ġcrowd":5641,"Ġâī¤":5642,";\\;\\;\\;\\":5643,"Ġ38":5644,"prefix":5645,"Ġmetabolic":5646,"See":5647,"Ġcoconut":5648,"!!":5649,"Ġcollected":5650,"Ġaffect":5651,"Ġevaluated":5652,"hes":5653,"Ġmental":5654,"Ġadapt":5655,"Ġplate":5656,"Ġemphas":5657,"BI":5658,"Ġplus":5659,"kay":5660,"Ġtechnique":5661,"]\\],":5662,"ĠBank":5663,"sequently":5664,"anged":5665,"gt":5666,"Ġ(**":5667,"Ġmovie":5668,"Ġanswers":5669,"Ġweapons":5670,"Ġstudent":5671,"Builder":5672,"Ġtrauma":5673,"Ġmissing":5674,"Ġsurv":5675,"ĠSuper":5676,"ston":5677,"Ġcertainly":5678,"Ġmillions":5679,"Ġ~":5680,"Ġwouldn":5681,"Ġ()":5682,"Ġlinks":5683,"pc":5684,"Ġacademic":5685,"icensed":5686,"Ġdisorders":5687,"ĠPC":5688,"well":5689,"Ġcommunication":5690,"$]{};":5691,"ĠSociety":5692,"Ġexplained":5693,"resp":5694,"Ġ(!":5695,"Ġtempor":5696,"Ã³":5697,"Mod":5698,"result":5699,"Ġprojects":5700,"Ġvolunte":5701,"GC":5702,"ĠEnd":5703,"ĠĊĠĠĠĠĠĠĠĠĠĠĠĠĠĠĠ":5704,"Ġefficient":5705,"Ġoperations":5706,"ĠOver":5707,"Ġencour":5708,"Ġcred":5709,"Ġeconomy":5710,"Ġabsence":5711,"Return":5712,"```":5713,"url":5714,"ĠAT":5715,"gram":5716,"ubl":5717,"Ġvertical":5718,"ĠNews":5719,"De":5720,"Ġinvolvement":5721,"Ġverdict":5722,"Ġtransl":5723,"abil":5724,"cussion":5725,"Ġmoments":5726,"Ġexternal":5727,"'.":5728,"Ġhair":5729,"Ġforces":5730,"Ġbus":5731,"While":5732,"Ġlaws":5733,"Ġreligion":5734,"local":5735,"bor":5736,"xml":5737,"Ġcm":5738,"**,":5739,"Ġkept":5740,"itional":5741,"Ġnetworks":5742,"even":5743,"Ġaccepted":5744,"Ġsupply":5745,"Ġvideos":5746,"Ġprepare":5747,"DA":5748,"Ġsurfaces":5749,"ÂłÂłÂłÂłÂł":5750,"Ġdecrease":5751,"Ġpun":5752,"ĠCPU":5753,"Style":5754,"ĠCommun":5755,"CON":5756,"2015":5757,"Ġjobs":5758,"iled":5759,"Ser":5760,"Ġkids":5761,"ih":5762,"Be":5763,"false":5764,"Ġmist":5765,"Ġelectron":5766,"Ġscience":5767,"Ġchronic":5768,"rl":5769,"ialog":5770,"Ġresponses":5771,"Ġfarm":5772,"ows":5773,"Ġenforcement":5774,"Ġnegoti":5775,"Ġauthority":5776,"Reg":5777,"Ġflex":5778,"Ġmotor":5779,"amily":5780,"model":5781,"Ġdisapp":5782,"Ġcouncil":5783,"ien":5784,"lear":5785,"Ġadenocarcinoma":5786,"before":5787,"Ġcast":5788,"Ñģ":5789,"osh":5790,"Ġkitchen":5791,"Ġintended":5792,"ĠBoston":5793,"}+":5794,"olt":5795,"\\!\\!":5796,"iller":5797,"Ġbrowser":5798,"Ġstatutory":5799,"Ġoccup":5800,"ĠNet":5801,"Ġrequirements":5802,"content":5803,"Ġmucos":5804,".$$":5805,"/**":5806,"Ġsy":5807,"ĠClass":5808,"Ġadding":5809,"ypes":5810,"âĢĿ.":5811,"Ġserved":5812,"Ġagent":5813,"Ġideas":5814,"Ġhistor":5815,"Ġchain":5816,"earch":5817,"Ġentry":5818,"Ġtour":5819,"icted":5820,"Ġbelong":5821,"Ġguy":5822,"Ġtraditional":5823,".[@":5824,"Our":5825,"illa":5826,"Ġprejud":5827,"Ġextent":5828,"Ġjava":5829,"cr":5830,"Ġapplies":5831,"Ġglucose":5832,"Ġexpert":5833,"Ġcreating":5834,"Ġjoint":5835,"Ġholds":5836,"oted":5837,"ĠFOR":5838,"ramework":5839,"Ġmortgage":5840,"ĠEducation":5841,"uted":5842,"ĠAmendment":5843,"Ġflav":5844,",-":5845,"Ġinterests":5846,"Ġfemales":5847,"Ġchrom":5848,"Ġteams":5849,"Ġwhom":5850,"nam":5851,"Ġtrend":5852,"Ġfragment":5853,"orter":5854,"Ġguess":5855,"Ġinterval":5856,"Map":5857,"Ġalpha":5858,"First":5859,"iot":5860,"Ġanxiety":5861,"Ġpermanent":5862,"MC":5863,"ĠWell":5864,"Ġfeeling":5865,"Ġsauce":5866,"Ġequations":5867,"MP":5868,"rot":5869,"Ġcycle":5870,"ĠGiven":5871,"Ġspokes":5872,".](":5873,"^âĪĴ":5874,"pping":5875,"Ġdirector":5876,"ynamic":5877,"TO":5878,"post":5879,"Ġec":5880,"Ġevolution":5881,"ĠGermany":5882,"Ġcurve":5883,"Ġsouth":5884,"Ġinterface":5885,"context":5886,"Ġsharp":5887,"Equ":5888,"eters":5889,"$(":5890,"Ġseverity":5891,")/(":5892,"Ġelevated":5893,"Ġrepro":5894,"!--":5895,"Att":5896,"ĠAir":5897,"ĠEach":5898,"Ġgrand":5899,"amb":5900,"ĠAny":5901,"Ġassessment":5902,"Ġpolymorph":5903,"-(":5904,"DL":5905,"Ġinteractions":5906,"ĠSub":5907,"une":5908,"Ġentered":5909,"Ġdiagram":5910,"last":5911,"Ġrecon":5912,"ĠYoung":5913,"\\{":5914,"amer":5915,"Ġwind":5916,"dt":5917,"bound":5918,"Ġdose":5919,"ĠURL":5920,"Ġeat":5921,"Ġelim":5922,"Ġguys":5923,"System":5924,"}|":5925,"Ġmal":5926,"valid":5927,"Ġconcentrations":5928,"FLAGS":5929,"inite":5930,"more":5931,"rap":5932,"Ġcyt":5933,"OUT":5934,"cor":5935,"ilt":5936,"Ġcauses":5937,"ĠGreen":5938,"ini":5939,"Br":5940,"ologies":5941,"ĠCanada":5942,"ALL":5943,"Ġradio":5944,"Ġspatial":5945,"Ġaircraft":5946,"font":5947,"nav":5948,"iral":5949,"Ġmodule":5950,"Ġrequiring":5951,"Ġescape":5952,"Ġimplic":5953,"ĠAR":5954,"dir":5955,"ĠRem":5956,"istent":5957,"agon":5958,"ĠMor":5959,"ny":5960,"inder":5961,"Token":5962,"Ġvaluable":5963,"SI":5964,"Ġconfirm":5965,"ĠCommonwealth":5966,"lets":5967,"However":5968,"ĠCL":5969,"Ġproposal":5970,"Well":5971,"wards":5972,"Ã£o":5973,"Ġstretch":5974,"ĠâĶĤ":5975,"ĠDespite":5976,"ca":5977,"Ġrejected":5978,"Property":5979,"Ġfilter":5980,"Ġproperly":5981,"ĠSuch":5982,"Ġpatterns":5983,"BL":5984,"how":5985,"anges":5986,"Can":5987,"ĠTwo":5988,"Ġestimate":5989,"Ġrestric":5990,"care":5991,"icate":5992,"ĠĠĠĠĠĠĠĠĠĠĠĠĠĠĠĠĠ":5993,"ĠON":5994,"Ġmechanisms":5995,"Ġheterogene":5996,"Ġstream":5997,"Ġexec":5998,"aved":5999,"ABLE":6000,"else":6001,"Ġevaluate":6002,"Ġ};":6003,"Ġpiece":6004,"Ġbegins":6005,"child":6006,"while":6007,"ĠÎ¼":6008,"Empty":6009,"Ġvictory":6010,"eps":6011,"ĠBoth":6012,"iling":6013,"Ġ(\"":6014,"Ġ{{\\":6015,"doc":6016,"ailed":6017,"spec":6018,"Finally":6019,"Ġcharges":6020,"Ġund":6021,"etween":6022,"rough":6023,"Ġrestricted":6024,"Ġannounce":6025,"0001":6026,"ensor":6027,"Ġcrime":6028,"ME":6029,"just":6030,"iny":6031,"UE":6032,"Some":6033,"ĠCA":6034,"Ġstatements":6035,"Ġfrozen":6036,"ivariate":6037,"ello":6038,"Ġformula":6039,"rey":6040,"util":6041,"ĠOklahoma":6042,"Ġnorth":6043,"Ġindicates":6044,"Connection":6045,"SH":6046,"ĠGNU":6047,"Ġens":6048,"Ġ\"[":6049,"Ġcontained":6050,"Ġmel":6051,"Ġorganization":6052,"Ġinvalid":6053,"Ġalleg":6054,"Ġrecorded":6055,"Ġconscious":6056,"Ġconclusion":6057,"Ġunemployment":6058,"Ġinterested":6059,"Ġcontrolled":6060,"Date":6061,"Ġ++":6062,"Ġoffered":6063,"ĠCatholic":6064,"itions":6065,"Ġpossibility":6066,"Ġphen":6067,"default":6068,"Width":6069,"src":6070,"ĠSte":6071,"ato":6072,"Ġresolution":6073,"Ġexistence":6074,"Group":6075,"aciÃ³n":6076,"Ġrisks":6077,"=&":6078,"Ġnodes":6079,"Ġathlet":6080,"Ġschedule":6081,"Ġgold":6082,"Ġaren":6083,"Ġlib":6084,"Ġ44":6085,"Source":6086,"Ġgone":6087,"Ġquick":6088,"Ġfluid":6089,"ĠOrgan":6090,"Ġbasketball":6091,"ĠOlymp":6092,"Ġantimicrobial":6093,"Ġconserv":6094,".*":6095,"KE":6096,"Ġindustrial":6097,"uation":6098,"Ġgoals":6099,"Ġinvariant":6100,"ĠTokyo":6101,"android":6102,"ĠUnder":6103,"Ġreferred":6104,"Ġturning":6105,"Ġgain":6106,"Ġbehalf":6107,"current":6108,"Ġdriver":6109,"ĠJackson":6110,"di":6111,"Ġvacc":6112,"query":6113,"Ġcomfortable":6114,"izer":6115,"Ġchicken":6116,"})$":6117,"tag":6118,"Ġconvert":6119,"Ġintellectual":6120,"yg":6121,"Ġstars":6122,")*(":6123,"ĠEv":6124,"John":6125,"rete":6126,"stant":6127,"STR":6128,"Ġfloor":6129,"first":6130,"Ġholding":6131,"Provider":6132,"OX":6133,"Ġom":6134,"Ġsale":6135,"Ġ43":6136,"Ġsummer":6137,"Ġliterature":6138,"Ġagents":6139,"Ġcollege":6140,"widehat":6141,"******":6142,"rine":6143,"Ġolder":6144,"Ġoffers":6145,"Ġteaspoon":6146,"Ent":6147,"ĠMexico":6148,"ested":6149,"ĠHT":6150,"ĠEr":6151,"''":6152,"Ġprecisely":6153,"Ġanalysed":6154,"Ġcolorectal":6155,"DS":6156,"Ã¶":6157,"Ġgenerate":6158,"world":6159,"ĠTime":6160,"Ġ500":6161,"ĠSH":6162,"udd":6163,"Ġwire":6164,"Ġbranch":6165,"CN":6166,"can":6167,"wood":6168,"Ġimportance":6169,"ouch":6170,"Ġdeveloping":6171,"Ġconsum":6172,"Ġsin":6173,"Ġconfiguration":6174,"-------------":6175,"yphermox":6176,"Ġbreath":6177,"Ġidentity":6178,"was":6179,"Ġabuse":6180,"Ġextended":6181,"ĠExp":6182,"Ġexamples":6183,"weight":6184,"Ġsalt":6185,"Ġhappens":6186,"night":6187,"Ġ39":6188,"Ġprison":6189,"Ġbattery":6190,"ĠCEO":6191,"ĠFROM":6192,"Ġextreme":6193,"bin":6194,"Ġrise":6195,"Ġscal":6196,"Ġthank":6197,"omething":6198,"Ġstimulation":6199,"dimensional":6200,"ĠAP":6201,"Ġexamined":6202,"ĠBlack":6203,"bottom":6204,"Ġfamous":6205,"Ġoblig":6206,"Ġrecover":6207,"Ġformat":6208,"Ġerrors":6209,"ln":6210,"aced":6211,"img":6212,"ĠSolve":6213,"ĠPeople":6214,"Ġyesterday":6215,"Ġcharacters":6216,"Ġentreprene":6217,"dr":6218,"ĠPre":6219,"Ġcompounds":6220,"event":6221,"Ġbinary":6222,"ipped":6223,"dist":6224,"ĠMal":6225,"flow":6226,"ĠWH":6227,"Ġspeech":6228,"xx":6229,"Ġcharged":6230,"ĠBusiness":6231,"Ġparticles":6232,"Ġmax":6233,"\").":6234,"Ġschools":6235,"Ġpenalty":6236,"Ġcold":6237,"Ġprosp":6238,"Ġsales":6239,"ĊĊĠĠĠĠĠĠ":6240,"oms":6241,"âĸĶâĸĶâĸĶ":6242,"olar":6243,"Ġmorph":6244,"ĠDet":6245,"ancing":6246,"Ġcoverage":6247,"Ġsquare":6248,";\\":6249,"ĠAtlant":6250,"Ġprofile":6251,"Don":6252,"Ġreturns":6253,"reek":6254,"ĠBritain":6255,"ĠToronto":6256,"Ġinner":6257,"Ġcategory":6258,"Ġevaluation":6259,"Ġlanguages":6260,"ĠSet":6261,"ĠTheorem":6262,"ĠMedical":6263,"Ġsuscept":6264,"select":6265,"Ġmuscle":6266,"ĠKe":6267,"Ġpayment":6268,"Back":6269,"ĠDel":6270,"anda":6271,"Ġclin":6272,"Ġpartners":6273,"Ġhighlight":6274,"Ġspecified":6275,"tes":6276,"Ġdimension":6277,"ĠForm":6278,"Ġ05":6279,"Ġmeant":6280,"Ġclub":6281,"apped":6282,"num":6283,"PH":6284,"cel":6285,"Ġvascular":6286,"othing":6287,"Ġstable":6288,"Ġnaturally":6289,"icity":6290,"Ġsequences":6291,"LC":6292,"Ġinvestigated":6293,"abilities":6294,"ĠCambridge":6295,"LO":6296,"ĠEvery":6297,"Ġexact":6298,"**)":6299,"Ġnamely":6300,"evel":6301,"Ġdigit":6302,"ECT":6303,"Ġmetast":6304,"match":6305,"Par":6306,"Ġgoogle":6307,"------------------------------------------------------------------------------------------------":6308,"Ġmatrices":6309,"Ġchamber":6310,"Bar":6311,"ulating":6312,"Ġfifth":6313,"Ġshared":6314,"Ġmeasurement":6315,"Ġdemand":6316,"Ġmeasuring":6317,"(\\[":6318,"Ġtransplant":6319,"Ġcarcinoma":6320,"Ġdry":6321,"Ġ2004":6322,"Ġconcerns":6323,"GA":6324,"Ġsmoking":6325,"ĠService":6326,"Ġconclude":6327,"Ġmeasurements":6328,"Ġreality":6329,"ĠGerman":6330,"Ġpercentage":6331,"Ġwestern":6332,"std":6333,"005":6334,"Ġsigned":6335,"Ġsuit":6336,"Ġrepresented":6337,"Ġoptical":6338,"kin":6339,"Ġahead":6340,"ODE":6341,"Ġpure":6342,"Ġachieved":6343,"Ġ46":6344,"Ġopening":6345,"Ġpositions":6346,"Ġcoffee":6347,"MT":6348,"UD":6349,"ĠWhy":6350,"ĠUnion":6351,"Ġrank":6352,"2010":6353,"2017":6354,"Ġpapers":6355,"Ġgarden":6356,"ummary":6357,"Integer":6358,"ears":6359,"ĠSecond":6360,"ads":6361,"Ġ55":6362,"**]{}":6363,"Ġ${{\\":6364,"css":6365,"ĠBer":6366,"Ġknows":6367,"Ġreceiving":6368,"Ġimplementation":6369,"gent":6370,"Ġcomposition":6371,"Ġmaintain":6372,"andard":6373,"2013":6374,"operative":6375,"Ġdigital":6376,"ĠFe":6377,"ĠFrance":6378,"Ġreve":6379,"ĠCa":6380,"Ġstrict":6381,"ĠMet":6382,"oprotein":6383,"ĠCollege":6384,"Phi":6385,"End":6386,"abb":6387,"ĠRead":6388,"Ġtaught":6389,"Ġoperating":6390,"Ġsucceed":6391,"Ġlaunched":6392,"Ġpharmac":6393,"Ġagency":6394,"Ġfourth":6395,"ias":6396,"Ġdraft":6397,"ĠRom":6398,"Ġallowing":6399,"Ġconvenient":6400,"Ġ75":6401,"inations":6402,"Ġplants":6403,"AF":6404,"--------------":6405,"Ġwelcome":6406,"Ġscenarios":6407,"Ġshop":6408,"Ġcustomers":6409,"ĠWilson":6410,"Ġowners":6411,"Ġcarry":6412,"ASS":6413,"%.":6414,"mic":6415,"ĠBre":6416,"ĠUN":6417,"Ġviolence":6418,"Ġdys":6419,"Ġquery":6420,"Ġowner":6421,"Ġinsulin":6422,"scopic":6423,"Ġsanctions":6424,"Message":6425,"Ġ41":6426,"Ġkernel":6427,"ĠCell":6428,"ĠFinally":6429,"Ġgoverning":6430,"Sub":6431,"lands":6432,"ĠĠĠĠĠĠĠĠĠĠĠĠĠĠĠĠĠĠ":6433,"Ġhelped":6434,"(&":6435,"ĠOut":6436,"ĠAmericans":6437,"center":6438,"Handle":6439,"Ġabandon":6440,"arian":6441,"Ġwidespread":6442,"Ġ64":6443,"Ġder":6444,"Ġextension":6445,"aneous":6446,"sd":6447,"Ġattract":6448,"According":6449,"Ġdesired":6450,"Ġleaves":6451,"strong":6452,"Ġrac":6453,"ĠMac":6454,"ĠDep":6455,"ository":6456,"Gu":6457,"ĠCI":6458,"Ġdecisions":6459,"refer":6460,"Ġvulnerable":6461,"Ġgranted":6462,"ĠĠĠĠĠĠĠĠĠĠĠĠĠĠĠĠĠĠĠ":6463,"rency":6464,"Ġsat":6465,"Ġestimates":6466,"ĠStreet":6467,"Ġconnect":6468,"iance":6469,"uint":6470,"Ġadministrative":6471,"Ġacts":6472,"ĠIII":6473,"ĠChurch":6474,"Ġsupplement":6475,"Ġinsert":6476,"Ġcalcium":6477,"Ġglass":6478,"âĢĶâĢĶ":6479,"Ġcovered":6480,"ĠLeague":6481,"Ġoverride":6482,"PT":6483,"Ġinvestigate":6484,"MOESM":6485,"1534735419827098":6486,"cs":6487,"Ġgly":6488,"Ġeasier":6489,"Ġrevenue":6490,"Ġpurchase":6491,"ĠEnergy":6492,"amssymb":6493,"Ġtestified":6494,"AND":6495,"Ġassessed":6496,"eful":6497,"CHECK":6498,"Ġunderlying":6499,"Ġcond":6500,"amine":6501,"Ġchurch":6502,"Ġruns":6503,"ĠJames":6504,"Ġattorneys":6505,"../":6506,"Ġsun":6507,"Ġsections":6508,"Ġoccurs":6509,"END":6510,"yan":6511,"Ġanimal":6512,"ĠBay":6513,"Â·":6514,"Ġ49":6515,"Ġaccuracy":6516,"Ġteacher":6517,"Ġregulation":6518,"âĪ":6519,"ĠUse":6520,"ifications":6521,"ĠChristian":6522,"ĠCivil":6523,"Ġsimpl":6524,"mar":6525,"Ġeduc":6526,"Ġhab":6527,"ĠOpen":6528,"Ġskills":6529,"Ġ47":6530,"Ġemployee":6531,"Ġcoronavirus":6532,"ĠCONDITIONS":6533,"Ġdesc":6534,"Ġstrongly":6535,"mathrsfs":6536,"ĠPort":6537,"Ġstick":6538,"osp":6539,"Ġvinegar":6540,"ĠGaussian":6541,"itative":6542,"Ġincident":6543,"Ġintervals":6544,"Ġsurvey":6545,"ĠSmith":6546,"*\\":6547,"ĠBitcoin":6548,"Ġpip":6549,"Ġpool":6550,"}}_{":6551,"func":6552,"Ġrich":6553,"Ġoverl":6554,"page":6555,"elled":6556,"Ġleader":6557,".</":6558,"ĠAS":6559,"Ġbutton":6560,"ĠToday":6561,"BP":6562,"ĠĊĠ":6563,"ĠMo":6564,"Ġ56":6565,"Ġpert":6566,"Ġnav":6567,"Ġresource":6568,"Ġpowerful":6569,"ymmetric":6570,"ĠLegisl":6571,"101":6572,"Over":6573,"ĠMany":6574,"Ġstories":6575,"Ġalter":6576,"ĠMajor":6577,"Ġwarm":6578,"âĢĿ,":6579,"Ġapproved":6580,"ĠDavis":6581,"REFERENCES":6582,"\\[[@":6583,"Ġinquiry":6584,"ĠBel":6585,"cp":6586,"ometric":6587,"ua":6588,"Ġinsufficient":6589,"Ġpossibly":6590,"---------------":6591,"Ġpathway":6592,"Ġhaven":6593,"ĠSal":6594,"Ġtransmission":6595,"Ġlimitations":6596,"Ġdeviation":6597,"Then":6598,"Ġapproaches":6599,"ude":6600,"akers":6601,"Ġraise":6602,":\"":6603,"Ġthread":6604,"ports":6605,"ĠDay":6606,"Rel":6607,"Ġdepends":6608,"isms":6609,"ĠDi":6610,"ICENSE":6611,"Bl":6612,"Ġmostly":6613,"Ac":6614,"uts":6615,"=\"../../":6616,"arily":6617,"forall":6618,"Ġdetermination":6619,"rs":6620,"Ġlifetime":6621,"Ġindependence":6622,"EF":6623,"^-":6624,"ĠWomen":6625,"Ġjourney":6626,"Solve":6627,"mt":6628,"Ġban":6629,"Ġbag":6630,"oster":6631,"Ġlattice":6632,"Gener":6633,"Ġremainder":6634,"ĠChristmas":6635,"letion":6636,"Ġsrc":6637,"orks":6638,"Ġlung":6639,"Ġkill":6640,"Ġdetailed":6641,"negative":6642,"Ġprotected":6643,"NULL":6644,"TT":6645,"Ġcash":6646,"dependent":6647,"Ġcompare":6648,"Ġintestinal":6649,"Ġpregnancy":6650,"pilasengine":6651,"BM":6652,"Ġ65":6653,"Ġauto":6654,"Ġbelieves":6655,"ĠGeorgia":6656,"Line":6657,"coming":6658,"Ġ_{":6659,"Ġmixed":6660,"rd":6661,"Ġdepth":6662,"Ġlisted":6663,"Ġlearned":6664,"author":6665,"win":6666,"ĠEngine":6667,"ĠAdministration":6668,"Ġappoint":6669,"za":6670,"Ġaccident":6671,"Ġrecru":6672,"/\\":6673,"Ġinvestment":6674,"ĠBur":6675,"ĠDuring":6676,"Ġunclear":6677,"Ġupdates":6678,"Ġrespiratory":6679,"ĠSingapore":6680,"etch":6681,"Ġremark":6682,"IO":6683,"template":6684,"Ġcommitted":6685,"Ġflat":6686,"Ġsecondary":6687,"ĠUbuntu":6688,"Ġvertex":6689,";&":6690,"stall":6691,"Ġthorough":6692,"bul":6693,"Ð°":6694,"Ġsymbol":6695,"Ġborn":6696,"otes":6697,"ĠCorporation":6698,"Ġcitizen":6699,"EE":6700,"Ġplays":6701,"Ġtrials":6702,"Ġcatal":6703,"standing":6704,"ĠAre":6705,"ITY":6706,"ï¼ļ":6707,"ĠEgypt":6708,"Ġmaster":6709,"Ġafford":6710,"ĠCompany":6711,"Since":6712,"ya":6713,"Ġhole":6714,"Ġrelief":6715,"Ġimprovement":6716,"iment":6717,"Cell":6718,"Ġ+=":6719,"Ġenvironmental":6720,"Ġplanning":6721,"These":6722,"Ġarguments":6723,"Ġcommunities":6724,"Ġcat":6725,"Ġapplicable":6726,"Ġopened":6727,"chema":6728,"Ġlatter":6729,"Ġvary":6730,"Ġbooks":6731,"Ġresulted":6732,"Ġgreatest":6733,"ugin":6734,"ART":6735,"DF":6736,"ki":6737,"ä»":6738,":#":6739,"Ġresist":6740,"Ġacute":6741,"Ġyes":6742,"Ġbelief":6743,"Ġafternoon":6744,"][":6745,"mut":6746,"Ġbio":6747,"ĠYes":6748,"Ġmachines":6749,"Ġabsorption":6750,"Ġisol":6751,"PV":6752,"Ġunknown":6753,"Ġ2019":6754,"Ġfocused":6755,"ĠCr":6756,"Ġfavour":6757,"Med":6758,"Ġmetric":6759,"Ġgenetic":6760,"Ġexhibit":6761,"ĠTwitter":6762,"Ġconsidering":6763,"oscopy":6764,"ortion":6765,"break":6766,"ifer":6767,"ĠCounsel":6768,"Ġthin":6769,"ĠPRO":6770,"\\]).":6771,"isher":6772,"elly":6773,"***":6774,"Ġassuming":6775,"Ġgar":6776,"2012":6777,"Query":6778,"Ġdoub":6779,"ker":6780,"ĠWisconsin":6781,"next":6782,"Ġtypical":6783,"Ġspot":6784,"Ġ52":6785,"height":6786,"CV":6787,"Ġadvanced":6788,"Ġfunds":6789,"Ġfuel":6790,"che":6791,"ĠHill":6792,"Ġdirected":6793,"Start":6794,"Ġviews":6795,"organ":6796,"Ġdepending":6797,"olicy":6798,"ita":6799,"Ġmouse":6800,"ĠBrown":6801,"ette":6802,"Ġpersonnel":6803,"leqslant":6804,"2000":6805,"RS":6806,"Ð½":6807,"prot":6808,"month":6809,"Ġsettings":6810,"Ġsignals":6811,"ĠDefendants":6812,"aus":6813,"Ġchanging":6814,"Ġsustained":6815,"More":6816,"iler":6817,"Ġcalling":6818,"Ġadult":6819,"Ġeventually":6820,"ĠRussian":6821,"Ġsuitable":6822,"Ġplaintiffs":6823,"ĠAgreement":6824,"Ġreact":6825,"....":6826,"Ġvessel":6827,"]),":6828,"Ġtight":6829,"anes":6830,"Ġintervention":6831,"Ġdual":6832,"Ġvirus":6833,"Input":6834,"Ġ72":6835,"annel":6836,"ĠSciences":6837,"ĠPacific":6838,"ophageal":6839,"Î¼":6840,"Ġterror":6841,"Ġexcess":6842,"bling":6843,"ura":6844,"Ġleaving":6845,"Ġsensor":6846,"ilateral":6847,"Ġadvantages":6848,"owed":6849,"ĠFree":6850,"Ġboy":6851,"Ġforced":6852,"Ġconclusions":6853,"?âĢĿ":6854,"UC":6855,"Ġsignaling":6856,"ĠRussia":6857,"onymous":6858,"Co":6859,"utor":6860,"ĠPress":6861,"Ġseemed":6862,"Ġadvert":6863,"Ġsmart":6864,"Ġthousand":6865,"dslc":6866,"Ġlawyer":6867,"ald":6868,"ece":6869,"ĠTaylor":6870,"status":6871,"Ġburden":6872,"Ġscores":6873,"Ġmanager":6874,"Ġstored":6875,"Ġcandidate":6876,"ĠJerusalem":6877,"ĠTom":6878,"Ġshock":6879,"Ġring":6880,"Ġfrequently":6881,"week":6882,"ĠUkr":6883,"Ġ120":6884,"ban":6885,"ipping":6886,"gathered":6887,"Ġwheel":6888,"Ġattributes":6889,"hood":6890,"Ġplot":6891,"Ġpreliminary":6892,"ĠBen":6893,"Ġnoise":6894,"Ġcompetition":6895,"Ġstatistical":6896,"CI":6897,"Window":6898,"Ġtwice":6899,"ĠAcademy":6900,"pmb":6901,"EW":6902,"ĠAng":6903,"${":6904,"Ġ*)":6905,"ropri":6906,"Ġfruits":6907,"Ġnecess":6908,"Ġchecks":6909,"NO":6910,"Ġcle":6911,"ĠGo":6912,"omal":6913,"Ġdetect":6914,"iverse":6915,"Ġruled":6916,"Ġretrosp":6917,"400":6918,"ĠProposition":6919,"Ġdivisor":6920,"aren":6921,"Ġmotiv":6922,"Ġempirical":6923,"}\\,":6924,"Ġinvolving":6925,"clusive":6926,"ĠJoseph":6927,"ĠOfficer":6928,"Ġbool":6929,"Ġrent":6930,"essor":6931,"dots":6932,"ĠRule":6933,"acle":6934,"Ġ51":6935,"Ġcontribution":6936,"rh":6937,"ĠBo":6938,"Ġparagraph":6939,"EV":6940,"Ġtrip":6941,"asp":6942,"Ġassoci":6943,"Ġscientists":6944,"ĠRodriguez":6945,"omer":6946,"Ġradiation":6947,"KPX":6948,"Ġremoving":6949,"Ġdatabases":6950,"Ġnan":6951,"Ġplane":6952,"Ġunf":6953,"Ġadults":6954,"istory":6955,"Ġexamination":6956,"urthermore":6957,"Ġsides":6958,"ĠMS":6959,"Ġweren":6960,"Ġimaging":6961,"Ġmolecules":6962,"Ġuint":6963,"dagger":6964,"Ġpilot":6965,"Ġrevers":6966,"ĠNor":6967,"Ġwilling":6968,"Ġlesions":6969,"Ġfill":6970,"Ġstandards":6971,"Ġcentury":6972,"Ġroughly":6973,"Header":6974,"ĠĠĠĠĠĠĠĠĠĠĠĠĠĠĠĠĠĠĠĠ":6975,"has":6976,"Ġ2002":6977,"Ġfinished":6978,"Ġseasons":6979,"associated":6980,"cf":6981,"rog":6982,"Ġspaces":6983,"2016":6984,"Ġindeed":6985,"Ġ54":6986,"Ġreverse":6987,"Ġseeing":6988,"Ġappeals":6989,"oded":6990,"ĠGood":6991,"Ġoperators":6992,"cdots":6993,"most":6994,"Ġhel":6995,"ĠAp":6996,"ĠPe":6997,"Ġaccum":6998,"Ġminim":6999,"007":7000,"Ġordered":7001,"ediatric":7002,"ĠGl":7003,"GL":7004,"json":7005,"ician":7006,"Ġnom":7007,"Ġtunnel":7008,"Ġpneumonia":7009,"Ġrelationships":7010,"Ġimmune":7011,"Ġconsult":7012,"Ġ2003":7013,"Ġsupposed":7014,"Ġlongitudinal":7015,"aa":7016,"cup":7017,"Ġjump":7018,"Ġthanks":7019,"}^\\":7020,"Ġsession":7021,")=\\":7022,"Ġextends":7023,"button":7024,"Just":7025,"media":7026,"Ġintent":7027,"Ġindicating":7028,"Ġdemonstrate":7029,"Ġlose":7030,"Ġtranscription":7031,"2009":7032,"del":7033,"groups":7034,"Result":7035,"Ġjoin":7036,"Ð¾":7037,"assert":7038,"Ġmission":7039,"ĠSenate":7040,"Ġnine":7041,"ERS":7042,"Ġconsent":7043,"sin":7044,"Ġtuberculosis":7045,"Ġwash":7046,"format":7047,"Ġrecall":7048,"Ġrelates":7049,"FR":7050,"aming":7051,"Ġstre":7052,"Ġconcerned":7053,"ogenesis":7054,"Ġformal":7055,"Ġmainly":7056,"Ġpieces":7057,"Ġfraction":7058,"Ġdepartment":7059,"Ġattacks":7060,"Ġarter":7061,"Ġincubated":7062,"Ġwood":7063,"ander":7064,"endif":7065,"ĠUp":7066,"Ġfinish":7067,"Ġplurality":7068,"ĊĊĠĠĠĠĠĠĠĠĠĠĠĠĠĠĠ":7069,"\\)":7070,"display":7071,"Ġboundary":7072,"Ġsacr":7073,"Ġvessels":7074,"oxy":7075,"Ġion":7076,"only":7077,"ala":7078,"Ġinstant":7079,"Ġwww":7080,"Ġbeauty":7081,"ĠLinux":7082,"Ġ_,_":7083,"Rem":7084,"Ġfunding":7085,"ĠFederation":7086,"Ġweapon":7087,"kins":7088,"split":7089,"Ġmand":7090,"ĠParty":7091,"ĠOffice":7092,"Am":7093,"yst":7094,"FI":7095,"ictions":7096,"reatment":7097,"Ġorientation":7098,"ĠPATIENTS":7099,"300":7100,"Ġprosecution":7101,"Ġpix":7102,"ĠOnly":7103,"AGE":7104,"Ġoxid":7105,"Ġscene":7106,"Ġopinions":7107,"Ġepisodes":7108,"Ġasking":7109,"Ġinterpretation":7110,"uls":7111,"ERROR":7112,"IST":7113,"Ġspend":7114,"_{{\\":7115,"graph":7116,"Ġscan":7117,"Ġfees":7118,"rior":7119,"ĠWork":7120,"Ġagricult":7121,"Ġposterior":7122,"fix":7123,"rite":7124,"}+\\":7125,"Ġfans":7126,"Ġlaugh":7127,"Ġargues":7128,"ritten":7129,"Me":7130,"card":7131,"Ġdil":7132,"ĠSN":7133,"----":7134,"Ġchallenges":7135,"Ġenhance":7136,"Ġversus":7137,"Ġton":7138,"ĠmRNA":7139,"category":7140,"Ġfavorite":7141,"Ġconference":7142,"Ġadvice":7143,"simeq":7144,"Ġphosphorylation":7145,"Ġpolar":7146,"2008":7147,"Ġcycl":7148,"Ġtrain":7149,"Ġangle":7150,"Ġforth":7151,"ĠAnn":7152,"Net":7153,"Pre":7154,"Ġsector":7155,"ctor":7156,"Ġ+/-":7157,"lang":7158,"Ġreplace":7159,"Ġassay":7160,"column":7161,"ĠFederal":7162,"Ġmedian":7163,"\":\"":7164,"Ġbias":7165,"ĠFollowing":7166,"Ġinterventions":7167,"Ġeligible":7168,"OK":7169,"ĠHall":7170,".**":7171,"law":7172,"ifies":7173,"Ġ2001":7174,"2014":7175,"gers":7176,"----------------":7177,"Ġ53":7178,"Ġpotentially":7179,"Ġclaimed":7180,"Ġinher":7181,"Ġspring":7182,"ĊĊĊĊ":7183,"Ġconfidence":7184,"floor":7185,"Ġsessions":7186,"Ġhouses":7187,"Ġrecurrence":7188,"Ġacquisition":7189,"ument":7190,"ĠMA":7191,"Ġdegradation":7192,"Ġhelps":7193,"Ġrecognized":7194,"Ġestate":7195,"you":7196,"ady":7197,"uting":7198,"obile":7199,"ĠFinancial":7200,"Ġemployed":7201,"Ġcapable":7202,"ĠPhil":7203,"Evaluate":7204,"Ġcompact":7205,"ĠRob":7206,"Ġadvance":7207,"Button":7208,"FC":7209,"hi":7210,"Ġmention":7211,"Ġvill":7212,"ijms":7213,"Ġhence":7214,"Ġlit":7215,"Ġscattering":7216,"ĠStr":7217,"Ġtit":7218,"icious":7219,"Ġha":7220,"00000000":7221,"vt":7222,"amed":7223,"Min":7224,"defined":7225,"ĠAustralia":7226,"supplementary":7227,"opath":7228,"Ġcourts":7229,"Client":7230,"ĠThompson":7231,"TD":7232,"Ġ101":7233,"ĠMont":7234,"ĠGreat":7235,"ertain":7236,"Ġlig":7237,"ĠClinical":7238,"Settings":7239,"Ġsynchron":7240,"Ġarch":7241,"exec":7242,">&":7243,"Ġcos":7244,"Ġfilms":7245,"Ġmarked":7246,"Ġimplies":7247,"Ġgap":7248,"Click":7249,"han":7250,"Ġpitch":7251,"2018":7252,"degree":7253,"Ġchocolate":7254,"ĠAddress":7255,"bon":7256,"ĠPlease":7257,"Ġusual":7258,"Ġrelax":7259,"Ġgrav":7260,"\",\"":7261,"Ġresponsibility":7262,"Ġdamages":7263,"ĠRoyal":7264,"Ġmaps":7265,"ĠPH":7266,")]":7267,"pdf":7268,"Ġscreening":7269,"Ġbiological":7270,"Ġabundance":7271,"Ġincredibly":7272,"ohistochem":7273,"ĠMississippi":7274,"hr":7275,"}}}":7276,"Ġegg":7277,"Ġsmallest":7278,"Ġaccurate":7279,"Ġconfront":7280,"Ġvac":7281,"Ġoffense":7282,"house":7283,"ta":7284,"ĠField":7285,"Contact":7286,"dx":7287,"Ġpal":7288,"asure":7289,"Ġsolely":7290,"Ġrats":7291,"uccess":7292,"Ġcontribute":7293,"proposed":7294,"Ġpossession":7295,"âģĦ":7296,"\"),":7297,"output":7298,"apache":7299,"ĠJan":7300,"Ġdecide":7301,"Ġdownload":7302,"uch":7303,"enter":7304,"Ġrect":7305,"ĠĠĠĠĠĠĠĠĠĠĠĠĠĠĠĠĠĠĠĠĠ":7306,"Ġshut":7307,"linear":7308,"Ġarticles":7309,"UG":7310,"ums":7311,"Ġmeat":7312,"ĠMary":7313,"Ġexposed":7314,"Ġwaiting":7315,"Target":7316,"SR":7317,"Ġce":7318,"Ġmethyl":7319,"Ġperceived":7320,"cing":7321,"{{":7322,"Ġmir":7323,"Ġlens":7324,"Ġlik":7325,"}}{\\":7326,"equal":7327,"Ġhippocamp":7328,"Ġrelations":7329,"Ġseek":7330,"Ġstanding":7331,"Ġpartial":7332,"Ġcritic":7333,"Version":7334,"ĠHence":7335,"emia":7336,"ĠDC":7337,"rate":7338,"DB":7339,"Ġ300":7340,"âĦ¢":7341,"Ġbirds":7342,"Spec":7343,"ĠSaudi":7344,"DC":7345,"ĊĠĠĠĠĠĠĠĠĠĠĠĠĠĠ":7346,"2011":7347,"Man":7348,"ashed":7349,"References":7350,"Go":7351,"åı":7352,"Ġ150":7353,"ĠType":7354,"Ġvariation":7355,"Ġprovision":7356,"Ġaccomplish":7357,"ez":7358,"mem":7359,"ĠIP":7360,"URL":7361,"ĠPsych":7362,"Ġmyocardial":7363,"rist":7364,"ĠTur":7365,"Last":7366,"hbox":7367,"aints":7368,"SL":7369,"itrogen":7370,"Ġheavily":7371,"ĠGive":7372,"Ġelectronic":7373,"iders":7374,"Ġremained":7375,"ĠFIG":7376,"Ġmunicipal":7377,"Ġsodium":7378,"Ġsplit":7379,"ĠCap":7380,"aded":7381,"Ġveget":7382,"Ã¼":7383,"osph":7384,"Ġspending":7385,"Which":7386,"Ġancient":7387,"Ġprognostic":7388,"łÂ":7389,"$)":7390,"Ġannual":7391,"ĠBill":7392,"ĠWeb":7393,"\"}.":7394,"Check":7395,"men":7396,"Ġpartner":7397,"ĠCT":7398,"Ġgender":7399,"ĠGold":7400,"ĠOnce":7401,"Ġexponential":7402,"ĠJavaScript":7403,"Ġfold":7404,"Ġstability":7405,"**(":7406,"aked":7407,"ERT":7408,"ĠIndeed":7409,"Ġcomplaint":7410,"&\\":7411,"uro":7412,"ä½":7413,"rive":7414,"Ġ58":7415,"Ġtechnical":7416,"Content":7417,"ounter":7418,"snap":7419,"bal":7420,"non":7421,"Ġdynamics":7422,"Ġfre":7423,"Ġamendment":7424,"Ġhypertension":7425,"uous":7426,"ĠBi":7427,"acks":7428,"Ġfacilit":7429,"Ġaccompanied":7430,"stat":7431,"Ġcommission":7432,"Ġenthusi":7433,">>":7434,")^{":7435,"Ġthereby":7436,"Ġends":7437,"Ġcustomer":7438,"UI":7439,"Ġice":7440,"Ġaxis":7441,"Right":7442,"æľ":7443,"====================":7444,"BR":7445,"Create":7446,"EA":7447,"ĠBMI":7448,"Ġran":7449,"Ġopposite":7450,"Ġemployment":7451,"Ġlaunch":7452,"Ġconcluded":7453,"Ġiter":7454,"change":7455,"Ġconsideration":7456,"Ġconsensus":7457,"Ġfibroblasts":7458,"Ġstarts":7459,"Ġbaseline":7460,"Ġworse":7461,"Ġindividually":7462,"Action":7463,"ĊĠĠĠĠĠĠĠĠĠĠĠĠ":7464,"ORT":7465,"Ġdoctor":7466,"Ġcourses":7467,"Number":7468,"ĠEX":7469,"find":7470,"urer":7471,"Ġoral":7472,"Control":7473,"Ġepidem":7474,"high":7475,"icks":7476,"Ġaspects":7477,"Ġnumerous":7478,"request":7479,"Ġdramatically":7480,"aria":7481,"Ġrock":7482,"Ġsubstit":7483,"Ġclothes":7484,"ĠChildren":7485,"Ġsuggesting":7486,"Ġmodified":7487,"Ġdowntown":7488,"HS":7489,"Ġnarrow":7490,"Ġcommonly":7491,"txt":7492,"ees":7493,"mL":7494,"mg":7495,"Ġol":7496,"Ġdifferential":7497,"ĠVictor":7498,"stylesheet":7499,"Ref":7500,"Ġtheorem":7501,"Ġpersons":7502,"artifactId":7503,"fs":7504,"Ġclar":7505,"append":7506,"Ġrequirement":7507,"ĠMicro":7508,"Ġknee":7509,"Ġretirement":7510,"power":7511,"Ġseconds":7512,"Ġstopped":7513,"UP":7514,"Ġpossess":7515,"Ġseeking":7516,"real":7517,"ĠSpr":7518,"Part":7519,"road":7520,"Ġnotes":7521,"Ġphoto":7522,"Ġaltern":7523,"Ġtransf":7524,"INE":7525,"Ġearth":7526,"Ġexhaust":7527,"Ġgenuine":7528,"ĠZealand":7529,"ikipedia":7530,"ĠPR":7531,"andom":7532,"Ġrecommended":7533,"%),":7534,"GR":7535,"Ġsupporting":7536,"Ġoccasion":7537,"Ġpopulations":7538,"ibrary":7539,"COM":7540,"Ġsuccessfully":7541,"edy":7542,"ĠDen":7543,"translation":7544,"ĠAfrica":7545,"Ġnervous":7546,"ignificant":7547,"Ġabdominal":7548,"Ġfluctuations":7549,"dim":7550,"à®":7551,"overn":7552,"ĠRepublican":7553,"method":7554,"eld":7555,"ĠâĢ¦":7556,"Ġtroops":7557,"Ġprognosis":7558,"ĠJews":7559,"Ġhomogeneous":7560,"null":7561,"Ġchief":7562,"process":7563,"ĠANY":7564,"Your":7565,"ĠSl":7566,"INT":7567,"Ġincidence":7568,"ĠDaniel":7569,"ĠItalian":7570,"eness":7571,"Ġenable":7572,"Ġsigns":7573,"vas":7574,"equiv":7575,">(":7576,"PM":7577,"Ġfiber":7578,"Config":7579,"Ġdependent":7580,"Ġstupid":7581,"Ġdesirable":7582,"HR":7583,"Ġprev":7584,"Ġpractices":7585,"Ġemergency":7586,"120":7587,"Ġstrain":7588,"posed":7589,"Ġintegral":7590,"Ġideal":7591,"110":7592,"ek":7593,"ĠTheir":7594,"Ġdollar":7595,"ĠCaptain":7596,"Ġunusual":7597,"ÃĹ":7598,"ursor":7599,"Ġreplaced":7600,"args":7601,"ĠJersey":7602,"Ġoverwhel":7603,"ao":7604,"sg":7605,"Ġcort":7606,"Ġtoler":7607,"ĠSpanish":7608,"Ġoffset":7609,"Ġended":7610,"ĠMad":7611,"ĠJustice":7612,"Ġtumour":7613,"Ġconj":7614,"Ġbeat":7615,"Ġconsumption":7616,"frame":7617,"Ġenemy":7618,"Ġenergies":7619,"activ":7620,"]$":7621,"romagnetic":7622,"Ġmiles":7623,"2019":7624,"irty":7625,"Ġcellular":7626,"Ġhierarch":7627,"ACT":7628,"uster":7629,"conf":7630,"small":7631,"Ġinteract":7632,"Ġì":7633,"ĠEqu":7634,"weet":7635,"Ġanterior":7636,"SELECT":7637,"|{\\":7638,"Ind":7639,"Ġguide":7640,"Ġfish":7641,"Ġ57":7642,"Ġviolation":7643,"push":7644,"war":7645,"ĠFour":7646,"Ġpulmonary":7647,"SON":7648,"lar":7649,"obs":7650,"Ġsolve":7651,"LA":7652,"riers":7653,"ĠColumbia":7654,"Ġgirls":7655,"Off":7656,"ida":7657,"olecular":7658,"aped":7659,"apse":7660,"Ġinstitution":7661,"Ġcart":7662,"ĠSand":7663,"empl":7664,"scale":7665,"Ġentirely":7666,"Ġaforementioned":7667,"Ġca":7668,"star":7669,"Ġsupra":7670,"vo":7671,"ena":7672,"Ġappearance":7673,"Ġamounts":7674,"rons":7675,"Ġpoverty":7676,"ultiple":7677,"Ġspecimens":7678,"Ġelderly":7679,"Base":7680,"asy":7681,"ĠLike":7682,"..\\":7683,"Ġpromote":7684,"').":7685,"SO":7686,"Ġtag":7687,"Ġsit":7688,"ĠFile":7689,"Ġeffectively":7690,"ĠMethods":7691,"ĠAssembly":7692,"ĠĠĠĠĠĠĠĠĠĠĠĠĠĠĠĠĠĠĠĠĠĠ":7693,"urd":7694,"\\]),":7695,"Ġreporting":7696,"ĠMinister":7697,"Ġfont":7698,"ĠIll":7699,"ĠHD":7700,"Ġadmitted":7701,"âĶĢâĶĢâĶĢâĶĢâĶĢâĶĢâĶĢâĶĢâĶĢâĶĢâĶĢâĶĢâĶĢâĶĢâĶĢâĶĢâĶĢâĶĢâĶĢâĶĢâĶĢâĶĢâĶĢâĶĢâĶĢâĶĢâĶĢâĶĢâĶĢâĶĢâĶĢâĶĢâĶĢâĶĢâĶĢâĶĢâĶĢâĶĢâĶĢâĶĢâĶĢâĶĢâĶĢâĶĢâĶĢâĶĢâĶĢâĶĢâĶĢâĶĢâĶĢâĶĢâĶĢâĶĢâĶĢâĶĢâĶĢâĶĢâĶĢâĶĢâĶĢâĶĢâĶ":7702,"tab":7703,"ste":7704,"ĠIV":7705,"ĠSant":7706,"grade":7707,"control":7708,"Ġteaching":7709,"0363546518815159":7710,"Ġscope":7711,"sofia":7712,"Ġliberal":7713,"Ġsteady":7714,"Are":7715,"Ġsym":7716,"Ġlos":7717,"roduction":7718,"Ġunion":7719,"čĊĉĉĉ":7720,"Ġbehaviour":7721,"Ġorganic":7722,"$_":7723,"++)":7724,"Two":7725,"lines":7726,"Ġpadding":7727,"Ġcerebral":7728,"uns":7729,"ĠTimes":7730,"Ġgrid":7731,"product":7732,"ĠCentral":7733,"GB":7734,"Ġbattle":7735,"Ġassumed":7736,"May":7737,"Ġunable":7738,"Ġinfo":7739,"fit":7740,"Ġregression":7741,"Ġstruck":7742,"rid":7743,"rian":7744,"ĠLie":7745,"ĠGal":7746,"mat":7747,"Ġalt":7748,"Ġjustice":7749,"Ext":7750,"ĠPlan":7751,"Ġkeeping":7752,"Ġassistance":7753,"emporary":7754,"Ġcooperation":7755,"Ġpump":7756,"Ġcompound":7757,"]\\":7758,"#:":7759,"Note":7760,"erry":7761,"ori":7762,"Ġdecades":7763,"Ġobservations":7764,"Ġcocaine":7765,"Ġresonance":7766,"Ġadolescents":7767,"Ġcentrifug":7768,"ĠAPI":7769,"Ġuna":7770,"orters":7771,"Ġstreet":7772,"ĠĠĠĠĠĠĠĠĠĠĠĠĠĠĠĠĠĠĠĠĠĠĠĠ":7773,"Ġpeace":7774,"Ġtables":7775,"ĠEastern":7776,"Ġphrase":7777,"Ġlawsuit":7778,"Ġparticle":7779,"md":7780,"Ġ59":7781,"called":7782,"Ġcharacterized":7783,"Ġsought":7784,"Ġcoupling":7785,"Please":7786,"ĠAlex":7787,"apes":7788,"ĠPURPOSE":7789,"Ġplastic":7790,"Ġfingers":7791,"ondition":7792,"Ġresearchers":7793,"Ġmassive":7794,"ytes":7795,"Ġidx":7796,"Ġpropag":7797,"ï½¡":7798,"Ġduties":7799,"cut":7800,"Ġreform":7801,"zer":7802,"Ġbone":7803,"Ġdisk":7804,"ĠRad":7805,"ogn":7806,"Ġgrade":7807,"ĠÎ²":7808,"bec":7809,"acement":7810,"Ġsuppl":7811,"ĠWARRANTIES":7812,"Ġdistinguished":7813,"Ġbright":7814,"ĠSam":7815,"Ġ{}":7816,"Ġassigned":7817,"Ġobjective":7818,"element":7819,"thers":7820,"ye":7821,"ĠIF":7822,"Ġdispl":7823,"Ġcontainer":7824,"Ġresidents":7825,"Ġacting":7826,"Ġprominent":7827,"agen":7828,"ĠJud":7829,"Ġ[[":7830,"Str":7831,"cribe":7832,"Ġpronoun":7833,"iate":7834,"ĠWill":7835,"Ġcontributions":7836,"Ġstructural":7837,"Ġmerely":7838,"Ġrig":7839,"ĠRE":7840,"Ġ99":7841,"Ġtrivial":7842,"ĠENDOSCOP":7843,"####################################":7844,"oration":7845,"property":7846,"Ġrefuge":7847,"*^":7848,"erves":7849,"Ġmanaged":7850,"Although":7851,"Ġadm":7852,"ollow":7853,"nanomaterials":7854,"Ġbal":7855,"ords":7856,"Ġinjection":7857,"rr":7858,"anger":7859,"Ġguard":7860,"ĠJohnson":7861,"ogenic":7862,"Ġorders":7863,"Ġwear":7864,"tool":7865,"Ġlinked":7866,"Ġcovari":7867,"ĠSpecifically":7868,"ooking":7869,"ĠJones":7870,"ULT":7871,"Ġinhibition":7872,"ĠObject":7873,"Select":7874,"si":7875,"Ġcluster":7876,"Ġbiopsy":7877,"isc":7878,"ytic":7879,"location":7880,"Ġminute":7881,"Ġprincipal":7882,"OV":7883,"Ġeditor":7884,"oral":7885,"imer":7886,"Ġ\\>":7887,"ĠArab":7888,"Ġbroken":7889,"Ġsandwich":7890,"Ġcannabis":7891,"Ġcomplications":7892,")}\\":7893,"egr":7894,"emp":7895,"Ġpredicted":7896,"Ġnewspaper":7897,"ĠSeveral":7898,"})\\":7899,"png":7900,"endant":7901,"Ġimm":7902,"ĠNav":7903,"Ġinformed":7904,"{(":7905,"ĠStar":7906,"lectric":7907,"Ġauthorities":7908,"Ġprinciple":7909,"DP":7910,"Cons":7911,"idential":7912,"Buffer":7913,"Ġidentification":7914,"ĠPetitioner":7915,"ĠPalestin":7916,"GE":7917,"Ġpp":7918,"iciency":7919,"missions":7920,"Ġproximity":7921,"Where":7922,"otted":7923,"Ġretriev":7924,".-":7925,"rief":7926,"Ġpin":7927,"Ġregistration":7928,"norm":7929,"ĠMath":7930,"package":7931,"Ġsensitive":7932,"Ġsegments":7933,"Ġdistinction":7934,"Ġlowest":7935,"Ġaid":7936,"root":7937,"Ġrein":7938,"Ġfan":7939,"imation":7940,"aching":7941,"Ġapart":7942,"fast":7943,"Ġsecure":7944,"urop":7945,"itors":7946,"Ġbug":7947,"Ġcorner":7948,"ĠĊĠĠĠ":7949,"Ġ1999":7950,"Ġfaster":7951,"ĠWal":7952,"FO":7953,"web":7954,"Ġconviction":7955,"thm":7956,"Ġconsole":7957,"sa":7958,"ourse":7959,"Ġarms":7960,"####":7961,"jwatson":7962,"ĠBaltimore":7963,"Post":7964,"straint":7965,"icular":7966,"ĊĠĠĠĠĠĠĠĠĠĠ":7967,"Ġsupports":7968,"contin":7969,"Ġcandidates":7970,"Ġinnov":7971,"mbfa":7972,"Supp":7973,"Ġfell":7974,"Ġreducing":7975,"Ġtrajectory":7976,"XX":7977,"astro":7978,"Stat":7979,"Ġknock":7980,"Ġdisagree":7981,"Ġinfer":7982,"Ġfloat":7983,"Ġhumans":7984,"Ġclassical":7985,"Ġuniversity":7986,"äº":7987,"ups":7988,"Status":7989,"ĠHenry":7990,"FIG":7991,"Ġirrelevant":7992,"ĠNa":7993,"Ġinvolves":7994,"human":7995,"iary":7996,"Ġfilled":7997,"rie":7998,"ï¼Į":7999,"ĠIT":8000,"bionic":8001,"Ġ\"\\":8002,"ĠLabor":8003,"]^.":8004,"MENT":8005,"ysis":8006,"Ġexpensive":8007,"Ġmathematical":8008,"Load":8009,"Ġwarn":8010,"ĠVol":8011,"layout":8012,"uto":8013,"Instance":8014,"Ġfacilities":8015,"ĠFITNESS":8016,"Ġtick":8017,"Ġmic":8018,"Ġven":8019,"ria":8020,"Ġchair":8021,"buffer":8022,"Ġclosely":8023,"rolled":8024,"cat":8025,"Ġnarrative":8026,"Ġmicroscopy":8027,"Ġawesome":8028,"ĠPan":8029,"Ġexceed":8030,"aken":8031,"150":8032,"filter":8033,"Ġmouth":8034,"Ġenhanced":8035,"æĺ¯":8036,"Ġstomach":8037,"GO":8038,"ubb":8039,"Ġdetermining":8040,"ponents":8041,"ĊĠĠĠĠĠĠĠĠĠĠĠĠĠĠĠĠĠĠĠĠĠĠĠĠĠĠĠĠĠĠĠ":8042,"aired":8043,"Ġrepl":8044,"ĠĠĠĠĠĠĠĠĠĠĠĠĠĠĠĠĠĠĠĠĠĠĠ":8045,"ĠLife":8046,"ãĢĤ":8047,"([":8048,"]);":8049,"Ġbottle":8050,"istribution":8051,"FS":8052,"Ġtrail":8053,"ĠUs":8054,"ORD":8055,"Ġblocks":8056,"Ġfolks":8057,"Ġcompatible":8058,"Â¶":8059,"Ġtub":8060,"ĠFund":8061,"ĠApple":8062,"Ġmarried":8063,"ither":8064,"Ġbath":8065,"Ġeating":8066,"idd":8067,"Ġminimal":8068,"Component":8069,"Ġcorrectly":8070,"Ġhundreds":8071,"edding":8072,"ais":8073,"Ġreads":8074,"Ġzone":8075,"Ġsitting":8076,"ented":8077,"Ġassets":8078,"Ġguidance":8079,"Ġassault":8080,"Ã¤":8081,"common":8082,"Ġprovisions":8083,"Ġmatters":8084,"Ġdecreasing":8085,"Ġpregnant":8086,"Ġyouth":8087,"Ġforg":8088,"Ġinstalled":8089,"La":8090,"Ġ110":8091,"Ġcounts":8092,"Ġpeptide":8093,"Ġlibraries":8094,")))":8095,"Ġputting":8096,"Ġroute":8097,"Ut":8098,"unit":8099,"search":8100,"ĠColorado":8101,"Ġcities":8102,"ĠPittsburgh":8103,"cribed":8104,"/>":8105,"Ġstack":8106,"Ġintention":8107,"Ġhtml":8108,"Ġcancers":8109,"Ġobesity":8110,"Ġcomparisons":8111,"Ġrational":8112,"ĠBig":8113,"module":8114,"ĠRobert":8115,"ĠThomas":8116,"ĠFib":8117,"Ġextend":8118,"ĠÃĹ":8119,"ĠHouston":8120,"ressRouteCircu":8121,"Point":8122,"Ġmes":8123,"ĠLord":8124,"Ġargued":8125,"Thanks":8126,"ota":8127,"Ġpackages":8128,"Ġcas":8129,"Ġpages":8130,"ĠCN":8131,"addr":8132,"Ġbrother":8133,"phone":8134,")}{":8135,"earing":8136,"Ġdynamic":8137,"Find":8138,"Psi":8139,"=(":8140,"number":8141,"ĠSD":8142,"ĠSk":8143,"Ġpassing":8144,"arXiv":8145,"Identifier":8146,"mid":8147,"entry":8148,"ĠPut":8149,"Ġembarrass":8150,"MD":8151,"ĠÎ±":8152,"tic":8153,"iki":8154,"Ġinitially":8155,"Ġaccounts":8156,"Ġ],":8157,"Ġlifestyle":8158,"Ob":8159,"Ġjoined":8160,"ĠÂł":8161,"Ġspl":8162,"ĠMag":8163,"Ġcoronary":8164,")\"":8165,"FP":8166,"sens":8167,"ola":8168,"ĠMem":8169,"ĠFind":8170,"Ġrequested":8171,"Ġaccompanying":8172,"*/":8173,"Ġcreation":8174,"Ġembedded":8175,"Ġmagazine":8176,"life":8177,"Ġhal":8178,"Ġpractical":8179,"phasis":8180,"Ġinternet":8181,"msgstr":8182,"Ġpredominant":8183,"Ġleague":8184,"raz":8185,"Sim":8186,"ĠFrank":8187,"msgid":8188,"Ġdeficit":8189,"Ġquestionnaire":8190,"LS":8191}