{"[UNK]":0,"[CLS]":1,"[SEP]":2,"[PAD]":3,"[MASK]":4,"!":5,"\"":6,"#":7,"$":8,"%":9,"&":10,"'":11,"(":12,")":13,"*":14,"+":15,",":16,"-":17,".":18,"/":19,"0":20,"1":21,"2":22,"3":23,"4":24,"5":25,"6":26,"7":27,"8":28,"9":29,":":30,";":31,"<":32,"=":33,">":34,"?":35,"@":36,"A":37,"B":38,"C":39,"D":40,"E":41,"F":42,"G":43,"H":44,"I":45,"J":46,"K":47,"L":48,"M":49,"N":50,"O":51,"P":52,"Q":53,"R":54,"S":55,"T":56,"U":57,"V":58,"W":59,"X":60,"Y":61,"Z":62,"[":63,"\\":64,"]":65,"^":66,"_":67,"`":68,"a":69,"b":70,"c":71,"d":72,"e":73,"f":74,"g":75,"h":76,"i":77,"j":78,"k":79,"l":80,"m":81,"n":82,"o":83,"p":84,"q":85,"r":86,"s":87,"t":88,"u":89,"v":90,"w":91,"x":92,"y":93,"z":94,"{":95,"|":96,"}":97,"~":98,"¡":99,"¢":100,"£":101,"¤":102,"¥":103,"¦":104,"§":105,"¨":106,"©":107,"ª":108,"«":109,"¬":110,"®":111,"¯":112,"°":113,"±":114,"²":115,"³":116,"´":117,"µ":118,"¶":119,"·":120,"¸":121,"¹":122,"º":123,"»":124,"¼":125,"½":126,"¾":127,"¿":128,"Â":129,"Ã":130,"Ä":131,"Å":132,"Æ":133,"Ç":134,"È":135,"É":136,"Ê":137,"Ë":138,"Ì":139,"Í":140,"Î":141,"Ï":142,"Ð":143,"Ñ":144,"Ò":145,"Ó":146,"Ô":147,"Õ":148,"Ö":149,"×":150,"Ø":151,"Ù":152,"Ú":153,"Û":154,"Ü":155,"Þ":156,"ß":157,"à":158,"á":159,"â":160,"ã":161,"ä":162,"å":163,"æ":164,"ç":165,"è":166,"é":167,"ê":168,"ë":169,"ì":170,"í":171,"î":172,"ï":173,"ð":174,"Ā":175,"ā":176,"Ă":177,"ĉ":178,"Ċ":179,"ċ":180,"Č":181,"č":182,"ě":183,"Ġ":184,"ġ":185,"Ģ":186,"ģ":187,"Ĥ":188,"ĥ":189,"Ħ":190,"ħ":191,"Ĩ":192,"ĩ":193,"Ī":194,"ī":195,"Ĭ":196,"ĭ":197,"Į":198,"į":199,"İ":200,"ı":201,"Ĳ":202,"ĳ":203,"Ĵ":204,"ĵ":205,"Ķ":206,"ķ":207,"ĸ":208,"Ĺ":209,"ĺ":210,"Ļ":211,"ļ":212,"Ľ":213,"ľ":214,"Ŀ":215,"ŀ":216,"Ł":217,"ł":218,"Ń":219,"ĠĠĠĠĠĠĠĠĠĠĠĠĠĠĠĠĠĠĠĠĠĠĠĠĠĠĠĠĠĠĠĠĠĠĠĠĠĠĠĠĠĠĠĠĠĠĠĠĠĠĠĠĠĠĠĠĠĠĠĠĠĠĠĠĠĠĠĠĠĠĠĠĠĠĠĠĠĠĠĠĠĠĠĠĠĠĠĠĠĠĠĠĠĠĠĠĠĠĠĠĠĠĠĠĠ":220,"ĠĠĠĠĠĠĠĠĠĠĠĠĠĠ":221,"---------------------------------------------------------------------------------------------------------------------------------------------------------------------------------------------------------------------------------------------------------------------------":222,"---------------------------------":223,"Ġthe":224,"======================================================":225,"ĠĠĠĠĠ":226,"Ġa":227,"in":228,"er":229,"tion":230,"Ġt":231,"re":232,"Ġof":233,"en":234,"Ġs":235,"Ġand":236,"at":237,"on":238,"or":239,"Ġc":240,"Ġw":241,"----------":242,"âĶĢâĶĢâĶĢâĶĢâĶĢâĶĢâĶĢâĶĢâĶĢâĶĢâĶĢâĶĢâĶĢâĶĢâĶĢâĶĢâĶĢâĶĢâĶĢâĶĢâĶĢâĶĢâĶĢâĶĢâĶĢâĶĢâĶĢâĶĢâĶĢâĶĢâĶĢâĶ":243,"is":244,"es":245,"ed":246,"al":247,"it":248,"an":249,"Ġp":250,"Ġf":251,"Ġb":252,"ou":253,"ing":254,"Ġin":255,"ar":256,"==============":257,"Ġm":258,"Ġd":259,"ic":260,"le":261,"Ġto":262,"Ġh":263,"as":264,"ro":265,"**************************************":266,"ent":267,"ĠĠ":268,"Ġth":269,"et":270,"Ġre":271,"el":272,"Ġn":273,"om":274,"Ġwith":275,"st":276,"ec":277,"il":278,"ac":279,"ĠTh":280,"Ġl":281,"Ġe":282,"ot":283,"ight":284,"id":285,"im":286,"Ġis":287,"Ġg":288,"Ġ(":289,"ol":290,"ve":291,"am":292,"ĠI":293,"ation":294,"Ġyou":295,"âĶĢâĶĢâĶĢâĶĢâĶĢâĶĢâĶĢâĶĢâĶĢâĶĢâĶĢâĶĢâĶ":296,"âĢ":297,"us":298,"ly":299,"Ġfor":300,"ow":301,"ĠS":302,"Ġthat":303,"Ġon":304,"ver":305,"ur":306,"ĠA":307,"ĠC":308,"un":309,"ad":310,"ut":311,"Ġst":312,"Ġbe":313,"ul":314,"Ġ1":315,"Ġwh":316,"ay":317,"ig":318,"if":319,"ce":320,"ter":321,"Ġcon":322,"os":323,"Ġfrom":324,"ch":325,"em":326,"Ġas":327,"Ġan":328,"ir":329,"ĊĠĠĠ":330,"od":331,"op":332,"Ġhave":333,"Ġ$":334,"Ġpro":335,"th":336,"ab":337,"um":338,"ate":339,"ould":340,"ag":341,"Ġit":342,"ĠM":343,"Ġv":344,"00":345,"########################################":346,"Ġal":347,"ri":348,"Ġ\"":349,"Ġ2":350,"ĠP":351,"////////////////////////////////////////":352,"res":353,"pp":354,"qu":355,"Ġcomp":356,"ct":357,"............................................":358,"ain":359,"est":360,"ere":361,"Ġex":362,"Ġr":363,"Ġwas":364,"ĊĠĠĠĠĠĠĠ":365,"ist":366,"Ġor":367,"ers":368,"ĠB":369,"ion":370,"ant":371,"oc":372,"Ġ\\":373,"ect":374,"Ġare":375,"Ġ-":376,"Ġ=":377,"se":378,"iv":379,"Ġsu":380,"ity":381,"Ġat":382,"ĠF":383,"ess":384,"ound":385,"ĠH":386,"ment":387,"ore":388,"out":389,"Ġby":390,"ĠD":391,"ill":392,"our":393,"=====":394,"Ġde":395,"and":396,"ĠW":397,"ĠThe":398,"ĠT":399,"Ġwhich":400,"Ġsh":401,"end":402,"Ġnot":403,"her":404,"ive":405,"ĠR":406,"ke":407,"The":408,"ap":409,"----":410,"ĠL":411,"ough":412,"________________":413,"ĠN":414,"**":415,"Ġch":416,"Ġthis":417,"ew":418,"ort":419,"art":420,"âĢĻ":421,"Ġwe":422,"ud":423,"Ġus":424,"ial":425,"{\\":426,"ell":427,"ure":428,"Ġbetween":429,"ies":430,"ĠG":431,"ĠE":432,"Ġun":433,"ated":434,"Ġse":435,"Ġhe":436,"Ġup":437,"ĊĠĠĠĠĠĠĠĠĠĠĠ":438,"ype":439,"pl":440,"Ġo":441,"form":442,"ine":443,"Ġyear":444,"all":445,"Ġ0":446,"Ġtr":447,"Ġknow":448,"Ġle":449,"'s":450,"og":451,"ext":452,"ff":453,"Ġbecause":454,"Ġ*":455,"ge":456,"ical":457,"Ġdiffer":458,"nt":459,").":460,"Ġcan":461,"ĠO":462,"act":463,"Ġ3":464,"ust":465,"der":466,"ue":467,"ame":468,"Ġimp":469,"ome":470,"ÂłÂłÂłÂłÂłÂłÂłÂłÂłÂłÂłÂłÂłÂłÂłÂłÂłÂłÂłÂłÂłÂłÂłÂłÂłÂłÂłÂłÂłÂłÂłÂłÂłÂł":471,"Ġalso":472,"ib":473,"iz":474,"Ġres":475,"ction":476,"ase":477,"able":478,"lass":479,"are":480,"age":481,"Ġpatients":482,"Ġother":483,"ack":484,"Ġsp":485,"ard":486,"Ġj":487,"ult":488,"Ġabout":489,"ast":490,"ublic":491,");":492,"ĠâĢľ":493,"Ġtime":494,"ook":495,"Ġ{":496,"ence":497,"Ġcont":498,"_{":499,"ost":500,"ĠIn":501,"ath":502,"ans":503,"ĠU":504,"Ġinclud":505,"Ġad":506,"ip":507,"Ġwere":508,"Ġpl":509,"ĠJ":510,"ep":511,"av":512,"=\"":513,".\"":514,"01":515,"ak":516,"Ġwork":517,"ign":518,"Ġall":519,"Ġfollow":520,"Ġ[":521,"per":522,"ĊĠ":523,"Ġint":524,"Ġpeople":525,"Ġ+":526,"ĉĉĉ":527,"Ġacc":528,"Ġcomm":529,"ition":530,"ens":531,"..":532,"Ġhas":533,"Ġdo":534,"ach":535,"ire":536,"ide":537,"ft":538,"ind":539,"ary":540,"Ġne":541,"ous":542,"ice":543,"Ġ4":544,"Ġme":545,"one":546,"Ġtwo":547,"Ġsaid":548,"Ġapp":549,"Ġsystem":550,"Ġgroup":551,"Ġbut":552,"Ġdis":553,"ress":554,"ations":555,"du":556,"Ġreturn":557,"pt":558,"ru":559,"Ġwill":560,"int":561,"Ġlike":562,"ong":563,"Ġar":564,"ph":565,"),":566,"Ġgo":567,"ile":568,"Ġ&":569,"ber":570,"ose":571,"Ġ5":572,"Ġfirst":573,"Ġ<":574,"}}":575,"ance":576,"Ġif":577,"Ġen":578,"Ġafter":579,"Ġper":580,"ia":581,"ef":582,"ely":583,"Ġout":584,"Ġpre":585,"ally":586,"ace":587,"ra":588,"ang":589,"ord":590,"ory":591,"Ġone":592,"ĊĠĠĠĠĠĠĠĠĠĠĠĠĠĠ":593,"Ġcl":594,"//":595,"Ġqu":596,"Ġhis":597,"Ġev":598,"Ġthey":599,"own":600,"Ġop":601,"âĢĿ":602,"ail":603,"ry":604,"ĠSt":605,"Ġso":606,"Ġsignificant":607,"Ġdata":608,"bject":609,"ors":610,"Ġpart":611,"Âł":612,"Ġmore":613,"Ġtheir":614,"ĠK":615,"Ġinter":616,"Ġthere":617,"Ġ$\\":618,"ys":619,"ake":620,"Ġfunction":621,"ĠĠĠĠĠĠĠ":622,"Ġag":623,"ond":624,"ents":625,"Ġdevelop":626,"Ġhigh":627,"ite":628,"000000000000000000000000000000000000000000000000000000000000000000000000000000000000000000000000000000000000000000000000000000000000000000000000000000000000000000000000000000000000000000000000000000000000000000000000000000000000000000000000000000000000000000":629,"very":630,"ĊĊ":631,"ield":632,"bs":633,"Ġmethod":634,"}\\":635,"Ġyour":636,"ount":637,"%%%%%%%%%%%%%%%%%%%%%%%%%%%%%%%%%%%%%%":638,"ates":639,"Ġbeen":640,"erm":641,"Ġhad":642,"right":643,"ree":644,"frac":645,"Ġgener":646,"ric":647,"Ġany":648,"Ġno":649,"cl":650,"--":651,"ont":652,"Ġman":653,"Ġconsider":654,"Ġthrough":655,"Ġk":656,"Ġ}":657,"Ġrec":658,"Ġwho":659,"ll":660,"Ġ\\[[@":661,"erv":662,"Ġass":663,"~~~~~~~~~~~~~~~~~~~~~~~~~~~~~~~~~~":664,"Ġ'":665,"ish":666,"ĠV":667,"te":668,"Ġwould":669,"Ġincre":670,"Ġwhen":671,"Ġ6":672,"Ġeffect":673,"In":674,"enc":675,"Ġproblem":676,"gr":677,"reat":678,"}$":679,"old":680,"Ġindividual":681,"Ġrep":682,"\\]":683,"^{":684,"Ġthan":685,"Ġexp":686,"Ġover":687,"Ġmy":688,"Ġdef":689,"ild":690,"Ġsc":691,"</":692,"row":693,"Ċĉ":694,"ub":695,"rib":696,"oth":697,"Ġ19":698,"Ġits":699,"owever":700,"'t":701,"math":702,"ink":703,"lect":704,"Ġpossib":705,"10":706,"ex":707,"vers":708,"Ġvari":709,"Ġpoint":710,"ie":711,"ays":712,"get":713,"Ġ_":714,"Ġsomething":715,"tions":716,"ons":717,"ĊĠĠĠĠĠ":718,"ĠĠĠĠĠĠĠĠĠĠĠĠĠĠĠĠĠĠĠĠĠĠĠĠĠĠĠĠ":719,"hat":720,"Ġnew":721,"ass":722,"ample":723,"Ġoff":724,"Ġam":725,"tr":726,"Ġsome":727,"]{}":728,"ater":729,"ode":730,"ied":731,"ings":732,"Ġnumber":733,"ĠCh":734,"ĠY":735,"lo":736,"com":737,"19":738,"ttp":739,"Ġbefore":740,"Ġunder":741,"Ġpr":742,"ick":743,"Ġact":744,"###":745,"Ġcurrent":746,"Ġour":747,"Ġrel":748,"Ġvalue":749,"Ġget":750,"Ġemploy":751,"Ġdes":752,"Ġcourt":753,"Ġ7":754,"ov":755,"ref":756,"ative":757,"left":758,"ark":759,"Ġinto":760,"iss":761,"Ġstudy":762,"uc":763,"ĠIt":764,"Ġonly":765,"Ġdec":766,"ian":767,"Ġworld":768,"Ġmodel":769,"Ġmay":770,"Ġph":771,"ambda":772,"nd":773,"vi":774,"](#":775,"Ġro":776,"Ġab":777,"aw":778,"ular":779,"ert":780,"ock":781,"ĠâĢ":782,"Ġpresent":783,"ove":784,"Ġsec":785,"Ġinv":786,"eg":787,"12":788,"Ġmade":789,"Ġprocess":790,"Ġher":791,"Ġcharacter":792,"Ġreg":793,"Ġadd":794,"Ġ8":795,"Ġlevel":796,"Ġtrans":797,"Ġthem":798,"ma":799,"âĸĶâĸĶâĸĶâĸĶâĸĶâĸĶâĸĶâĸĶâĸĶâĸĶâĸĶâĸĶâĸĶ":800,"Ġsupport":801,"ĠAmeric":802,"Ġco":803,"Ġanalysis":804,"Ġmuch":805,"Ġwhat":806,"ear":807,"ĠThis":808,"Ġind":809,"anc":810,"ient":811,"Ġim":812,"Ġhelp":813,"Th":814,"ased":815,"Ġgr":816,"Ġsuch":817,"Ġform":818,"olog":819,"Ġ201":820,"ating":821,"ne":822,"Ġtechn":823,"itt":824,"Ġcol":825,"app":826,"ĠWe":827,"up":828,"Ġduring":829,"ix":830,"Ġthese":831,"Ġobtain":832,"Ġresp":833,"elf":834,"ility":835,"Ġ9":836,"Ġjust":837,"ym":838,"Ġ10":839,"Ġprov":840,"str":841,"sp":842,"ss":843,"Ġuse":844,"ox":845,"Ġwhere":846,"ific":847,"Ġdet":848,"ĠUniversity":849,"11":850,"Ġthen":851,"ident":852,"ty":853,"Ġnetwork":854,"Ġneed":855,"ĠĠĠĠ":856,"Ġset":857,"Ġpol":858,"fer":859,"ution":860,"alpha":861,"Ġrequire":862,"ug":863,"Ġcells":864,"Ġclass":865,"Ġsmall":866,"Ġgovernment":867,"Ġcould":868,"ith":869,"ime":870,"Ġresult":871,"les":872,"Ġrem":873,"Ġagainst":874,"Ġcom":875,"ize":876,"Ġsimilar":877,"()":878,"Ġac":879,"[@":880,"Ġy":881,"ĠUnited":882,"\",":883,"ions":884,"ange":885,"Ġsuggest":886,"he":887,"ise":888,"als":889,"ob":890,"Ġused":891,"Ġperson":892,"lement":893,"Ġcontrol":894,"ues":895,"20":896,"tern":897,"Ġsub":898,"Ġfe":899,"ual":900,"ning":901,"Ġbl":902,"Ġdirect":903,"Ġinformation":904,"Ġshow":905,"Ġsur":906,"->":907,"Ġfact":908,"Ġpotential":909,"ER":910,"Ġcor":911,"ax":912,"ev":913,"Ġfl":914,"Ġdid":915,"Ġshould":916,"type":917,"red":918,"ĠĠĠ":919,"rop":920,"eta":921,"Ġatt":922,"Ġfurther":923,"\">":924,"Ġspec":925,"Ġend":926,"Ġresearch":927,"orm":928,"ull":929,"ced":930,"to":931,"fig":932,"Ġdist":933,"Ġfamily":934,"000":935,"ower":936,"ĠHe":937,"ks":938,"ection":939,"its":940,"Ġstr":941,".,":942,"io":943,"ren":944,"inal":945,"ON":946,"Ġestablish":947,"Ġcondition":948,"Ġusing":949,"Ġmajor":950,"ities":951,"Ġavailable":952,"ics":953,"15":954,"ruct":955,"ause":956,"Ġsee":957,"ict":958,"Ġshe":959,"IN":960,"ement":961,"Ġschool":962,"rit":963,"Ġsince":964,"aintiff":965,"Category":966,"Ġmost":967,"Ġenergy":968,"Ġhealth":969,"Ġerr":970,"port":971,"ood":972,"Ġassociated":973,"){":974,"Ġlife":975,"Ġback":976,"Ġbusiness":977,")$":978,"13":979,"mathcal":980,"Ġ.":981,"cription":982,"16":983,"Ġwell":984,"Ġem":985,"Ġparamet":986,"Ġtest":987,"Ġstat":988,"Ġclaim":989,"Ġ$$\\":990,"Ġi":991,"duct":992,"li":993,"Ġ:":994,"ures":995,"Ġanother":996,"Ġtreatment":997,"Ġhim":998,"Ġdifferent":999,"_{\\":1000,"ational":1001,"Ġright":1002,"pos":1003,"atch":1004,"pr":1005,"ven":1006,"Ġgiven":1007,"Ġocc":1008,"ined":1009,"Ġmonth":1010,"Ġcase":1011,"Ġeach":1012,"Ġenvironment":1013,"ograph":1014,"ute":1015,"arg":1016,"rom":1017,"alcul":1018,"Ġprogram":1019,"14":1020,"Ġcons":1021,"Ġalready":1022,"Ġdiscuss":1023,"âĢī":1024,"ected":1025,"ator":1026,"urn":1027,"label":1028,"Ġwant":1029,"ĊĠĠĠĠĠĠĠĠĠĠĠĠĠĠĠ":1030,"ically":1031,"Ġmechanism":1032,"Ġhow":1033,"Ġinf":1034,"ized":1035,"(\\":1036,"Ġte":1037,"Ġdoes":1038,"imes":1039,"Ġent":1040,"))":1041,"Ġdifficult":1042,"Ġinst":1043,"Ġ[@":1044,"und":1045,"Ġsuccess":1046,"Ġconst":1047,"Ġmin":1048,"Ġapplic":1049,"over":1050,"Ġimportant":1051,"Ġmake":1052,"Ġauth":1053,"00000000000000000000000000000000000000":1054,"...":1055,"ee":1056,"Ġespecially":1057,"Ġevidence":1058,"Ġpos":1059,"elta":1060,"Ġlimit":1061,"Ġsame":1062,"ĠWh":1063,"Ġbr":1064,"ared":1065,"\"}":1066,"let":1067,"ret":1068,"val":1069,"par":1070,"]\\].":1071,"Ġwhether":1072,"Ġ200":1073,"yn":1074,"Ġevery":1075,"],":1076,"ĠĠĠĠĠĠ":1077,"Ġeven":1078,"upp":1079,"ĠĠĠĠĠĠĠĠ":1080,"Ġdi":1081,"ength":1082,"ffffffffffffffffffffffffffffffffffffffffffffffffffffffffffffffffffffffffffffffffffffffffffffffffffffffffffffffffffffffffffffff":1083,"Ġyears":1084,"ES":1085,"put":1086,"ata":1087,"ases":1088,"Ġfind":1089,"18":1090,"Ġobserv":1091,"cript":1092,"Ġtri":1093,"cent":1094,"Ġcall":1095,"ants":1096,"Ġthose":1097,"air":1098,"Ġx":1099,"Ġlarge":1100,"Ġboth":1101,"con":1102,"Ġmed":1103,"sh":1104,"Ġpartic":1105,"ash":1106,"Ġ|":1107,"Ġway":1108,"Ġdescrib":1109,"Ġbetter":1110,"St":1111,"yl":1112,"âĪĴ":1113,"Ġnow":1114,"Ġsimp":1115,"Ġ12":1116,"Ġvery":1117,"Ġdon":1118,"yp":1119,"mathbb":1120,"Ġser":1121,"Ġ@":1122,"html":1123,"Ġrepresent":1124,"ense":1125,"ins":1126,"Ġel":1127,"ful":1128,"ason":1129,"Ġmeasure":1130,"ave":1131,"ages":1132,"ature":1133,"Ġlong":1134,"AT":1135,"ĠCom":1136,"****************":1137,"pro":1138,"Ġke":1139,"Ġclear":1140,"Ġexper":1141,"eth":1142,"ward":1143,"rm":1144,"cept":1145,"Ġfound":1146,"Ġbu":1147,",\\":1148,"led":1149,"oun":1150,"50":1151,"Ġloc":1152,"ole":1153,"Ġbel":1154,"Ġbeing":1155,"Ġhere":1156,"}{":1157,"Ġquestion":1158,"Ġlook":1159,"Ġplay":1160,"ression":1161,"ok":1162,"igned":1163,"ines":1164,"ale":1165,"ich":1166,"17":1167,"Ġview":1168,"Ġthink":1169,"Ġpublic":1170,"Ġcar":1171,"ting":1172,"Ġeconom":1173,"Ġmany":1174,"ĠQ":1175,"ments":1176,"Ġ/":1177,"oid":1178,"Ġval":1179,"aking":1180,"ved":1181,"the":1182,"ified":1183,"ively":1184,"ospital":1185,"30":1186,"line":1187,"sqrt":1188,"of":1189,"cer":1190,"?\"":1191,"Ġcirc":1192,"Ġgu":1193,"It":1194,"Ġext":1195,"ices":1196,"Ġstud":1197,"Ġfil":1198,"32":1199,"Ġuntil":1200,"',":1201,"Ġmultiple":1202,"Ġequ":1203,"Ġhaving":1204,"201":1205,"Ġreport":1206,"Ġmembers":1207,"ĠÂ":1208,"ner":1209,"ank":1210,"Ġprivate":1211,"Ġins":1212,"Ġ//":1213,"ik":1214,"Ġlittle":1215,"Ġcorrespond":1216,"\":":1217,"Ġsol":1218,"Ġbehavi":1219,"ms":1220,"ible":1221,"begin":1222,"Ġorder":1223,"Ġhuman":1224,"view":1225,"Ġprevious":1226,"ĠFor":1227,"ody":1228,"Ġgood":1229,"Ġwhile":1230,"::":1231,"Ġeither":1232,"Ġalways":1233,".âĢĿ":1234,"Ġterm":1235,"day":1236,"ness":1237,"Ġdemonstr":1238,"Ġhigher":1239,"ocument":1240,"not":1241,"Ġorgan":1242,"Ġweek":1243,"25":1244,"ministr":1245,"ĠThese":1246,"ps":1247,"ng":1248,"set":1249,"Ġmaterial":1250,"Ġname":1251,"Ġgen":1252,"ĊĊĠĠĠ":1253,"Ġstart":1254,"We":1255,"Ġnon":1256,"Ġdown":1257,"ually":1258,"ision":1259,"oy":1260,"ld":1261,"ts":1262,"ĠLet":1263,"Ġserv":1264,"Ġcount":1265,"://":1266,"ĠIf":1267,"Ġfr":1268,"Ġrelationship":1269,"Ġreceived":1270,"AR":1271,"Ġtotal":1272,"ĠâĢĵ":1273,"Ġread":1274,"EN":1275,"Ġsingle":1276,"Ġdep":1277,"ality":1278,"af":1279,"ĠAl":1280,"Ġstandard":1281,"ource":1282,"$,":1283,"Ġsecond":1284,"$.":1285,"Ġproject":1286,"Ġthree":1287,"fficient":1288,"Ġhand":1289,"ĠCourt":1290,"Ġchildren":1291,"Ġown":1292,"Ġapproach":1293,"Ġseveral":1294,"ĠJohn":1295,"24":1296,"med":1297,"Ġunderstand":1298,"Ġwithout":1299,"Ġinvestig":1300,"br":1301,"Ġmod":1302,"OR":1303,"^{\\":1304,"any":1305,"Ġline":1306,"NA":1307,"ump":1308,"Ċĉĉĉ":1309,"(-":1310,"amp":1311,"Ġstate":1312,"ST":1313,"\\[":1314,"Ġsl":1315,"aining":1316,"Ġprovid":1317,"ization":1318,"ify":1319,"Ġperiod":1320,"ember":1321,",\"":1322,"ception":1323,"Ġant":1324,"ĠAnd":1325,"80":1326,"way":1327,"eck":1328,"ystem":1329,"clude":1330,"man":1331,"Ġ20":1332,"ah":1333,"Ġactiv":1334,"ology":1335,"amples":1336,"Ġcre":1337,"ray":1338,"Ġmet":1339,"ather":1340,"ious":1341,"ability":1342,"ences":1343,"ency":1344,"Ġtarget":1345,"ĠPro":1346,"ork":1347,"ton":1348,"Ġperform":1349,"(\"":1350,"CR":1351,"ives":1352,"ead":1353,"ulation":1354,"Ġpres":1355,"Ġgreat":1356,"dd":1357,"ists":1358,"What":1359,"Ċĉĉ":1360,"22":1361,"Ġtype":1362,"atic":1363,"ĠBut":1364,"Ġoper":1365,"Ġproper":1366,"Ġresponse":1367,"Ġcertain":1368,"Ex":1369,"Ġcourse":1370,"ĠTr":1371,"Ġsign":1372,"ĠAs":1373,"Ġrisk":1374,"au":1375,"ependent":1376,"ique":1377,"Ġlast":1378,"40":1379,"ger":1380,"name":1381,"ism":1382,"Ġ**":1383,"Ġlead":1384,"Ġissue":1385,"CT":1386,"Ġpur":1387,"IT":1388,"Ġmust":1389,"arch":1390,"Ġpat":1391,"Ġtemperature":1392,"eb":1393,"String":1394,"Ġsay":1395,"Ġoften":1396,"Wh":1397,"Ġcap":1398,"Ġcontinu":1399,"Ġlaw":1400,"âĢľ":1401,"Ġbec":1402,"ĠThere":1403,"Ġet":1404,"Ġderiv":1405,"ron":1406,"ars":1407,"Ġtake":1408,"ĢâĶĢâĶĢâĶ":1409,"itive":1410,"ains":1411,"action":1412,"mission":1413,"Ġmatter":1414,"Ġ15":1415,"Ġrun":1416,"for":1417,"ention":1418,"Let":1419,"sigma":1420,"Ġfin":1421,"ann":1422,"Ġconf":1423,"ination":1424,"ane":1425,"Ġmain":1426,"33":1427,"Ġbre":1428,"arm":1429,"Ġcaus":1430,"alk":1431,"ces":1432,"Ġwr":1433,"bl":1434,"ross":1435,"Ġstill":1436,"Ġwomen":1437,"ames":1438,"Ġaccording":1439,"Ġbenef":1440,"Ġdisease":1441,"Ġnecessary":1442,"ouse":1443,"Ġestim":1444,"Ġdefendant":1445,"Ġear":1446,"ccording":1447,"augh":1448,"ule":1449,"Ġlet":1450,"agn":1451,"Ġcr":1452,"ech":1453,"ets":1454,"ier":1455,"ww":1456,"Ġelect":1457,"Ġchanges":1458,"ade":1459,"Ġexpl":1460,"Ġcent":1461,"Ġresults":1462,"View":1463,"ĠNew":1464,"wh":1465,"lex":1466,"].":1467,"Ġevalu":1468,"Ġinc":1469,"AL":1470,"ots":1471,"Ġthough":1472,"60":1473,"ium":1474,"Ġnormal":1475,"Ġmicro":1476,"Ġanswer":1477,"Ġident":1478,"Ġz":1479,"selves":1480,"27":1481,"Ġpost":1482,"Ġtogether":1483,"Ġstructure":1484,"ĠYou":1485,"Ġdeterm":1486,"Ġapproxim":1487,"az":1488,"Ġprobably":1489,"def":1490,"();":1491,"âĢĵ":1492,"ĠAn":1493,"Ġpublish":1494,"64":1495,"sc":1496,"ĊĠĠĠĠĠĠĠĠĠĠĠĠĠĠĠĠĠĠĠ":1497,"AN":1498,"Ġref":1499,"Ġday":1500,"Ġfriend":1501,"lease":1502,"Ġ18":1503,"ĠSh":1504,"200":1505,"ained":1506,"boldsymbol":1507,"atrix":1508,"Ġthird":1509,"ener":1510,"Ġfollowing":1511,"ool":1512,"ily":1513,"gamma":1514,"99":1515,"Ġaff":1516,"bf":1517,"Ġdisc":1518,"ately":1519,"Ġsatisf":1520,"This":1521,"Ġallow":1522,"Ġjudgment":1523,"Ġed":1524,"duction":1525,"Ch":1526,"oup":1527,"ĠEurope":1528,"son":1529,"Ġlanguage":1530,"23":1531,"oot":1532,"hibit":1533,"Ġgoing":1534,"05":1535,"ience":1536,"land":1537,"âĢĶ":1538,"text":1539,"oint":1540,"Ġprotein":1541,"Ġreal":1542,"usepackage":1543,"Ġdrug":1544,"ĊĠĠ":1545,"Ġprior":1546,"lection":1547,"Ġ,":1548,"var":1549,"Ġviol":1550,"Ġsurface":1551,"be":1552,"Ġwithin":1553,"Ġmark":1554,"Ġmoney":1555,")\\":1556,"partial":1557,"Ġcell":1558,"ural":1559,"epsilon":1560,"28":1561,"Ġprot":1562,"Ġsumm":1563,"ral":1564,"Ġdel":1565,"45":1566,"}(":1567,"Ġmean":1568,"Ġinterest":1569,"Ġrecommend":1570,"ams":1571,"akes":1572,"Ġfrequ":1573,"ĠCalifornia":1574,"ID":1575,"Ġhappen":1576,"Ġcare":1577,",âĢĿ":1578,"less":1579,"Ġrequest":1580,"ouble":1581,"Ġbas":1582,"ote":1583,"oci":1584,"por":1585,"ters":1586,"},":1587,"Ġfocus":1588,"ĠĠĠĠĠĠĠĠĠ":1589,"Ġadv":1590,"ĠX":1591,"Ġfield":1592,"we":1593,"35":1594,"Ġaddition":1595,"Ġinitial":1596,"ĊĠĠĠĠ":1597,"su":1598,"ãģ":1599,"Fig":1600,"Ġsocial":1601,"osed":1602,"Ġpass":1603,"els":1604,"Ġversion":1605,"Ġrespect":1606,"Ġaround":1607,"Ġintegr":1608,"Ġexample":1609,"ĠAr":1610,"Ġ14":1611,"duced":1612,"ently":1613,"Ġfalse":1614,"vert":1615,"ush":1616,"Ġothers":1617,"oss":1618,"ring":1619,"Ġpower":1620,"ĠHowever":1621,"Ġpar":1622,"rho":1623,"Ġarg":1624,"Ġtherap":1625,"SE":1626,"Ġcommun":1627,"Ġ16":1628,"Ġnumbers":1629,"Ã©":1630,"Ġarticle":1631,"26":1632,"Ġopen":1633,"Pro":1634,"Ġincluding":1635,"Ġlikely":1636,"../../":1637,"36":1638,"ott":1639,"Ġrest":1640,"=\\":1641,"Ġlist":1642,"arent":1643,"by":1644,"pi":1645,"==":1646,"29":1647,"http":1648,"ĠEx":1649,"rel":1650,"Ġfuture":1651,"ĠZ":1652,"ury":1653,"reen":1654,"'m":1655,"Ġtaken":1656,"ĠPh":1657,"reg":1658,"Ġu":1659,"read":1660,"Ġlo":1661,"equ":1662,"37":1663,"Ġtop":1664,"Ġlow":1665,"Ġ#":1666,"cont":1667,"Ġmillion":1668,"}^{":1669,"Ġconcentr":1670,"Ġblood":1671,"Ġreally":1672,"Ġ\\[":1673,"ern":1674,"Ġ*/":1675,"min":1676,"Ġtry":1677,"Ġmight":1678,"lobal":1679,"Ġcontr":1680,"Ġanaly":1681,"IC":1682,"ĠNo":1683,"Ġless":1684,"38":1685,"Ġminutes":1686,"Ġhead":1687,"rict":1688,"Ġ</":1689,"('":1690,"sec":1691,")/":1692,"Ġhours":1693,"ĠInd":1694,"orth":1695,"Cont":1696,"Ġsupp":1697,"Ġsitu":1698,"Ġfew":1699,"mu":1700,"opy":1701,"ĠUn":1702,"Ġbased":1703,"Ġtoo":1704,"ey":1705,"Ġdevice":1706,"angle":1707,"}_":1708,"ĠApp":1709,"Ġself":1710,"$$":1711,"RE":1712,"Ġbelieve":1713,"ĠJapan":1714,"roll":1715,"ector":1716,"eed":1717,"Ġsoftware":1718,"Ġrecord":1719,"ety":1720,"You":1721,"__":1722,"ension":1723,"ĠThey":1724,"21":1725,"ION":1726,"Ġindic":1727,"fore":1728,"^,":1729,"thing":1730,"Ġchange":1731,"Ġhalf":1732,"inc":1733,"ĠAfter":1734,"Ġproduct":1735,"Ġimprove":1736,"Ġimmun":1737,"34":1738,"rem":1739,"igh":1740,"etic":1741,"Ġcustom":1742,"ĠOn":1743,"Ġpop":1744,"ised":1745,"widetilde":1746,"Ġfour":1747,"org":1748,"lu":1749,"infty":1750,"Ġhistory":1751,"Ġret":1752,"Ġaction":1753,"riv":1754,"co":1755,"Ġasked":1756,"Ġessential":1757,"Ġ11":1758,"iver":1759,"39":1760,"vent":1761,"Ġ{#":1762,"ateg":1763,"Ġ30":1764,"Ġchallen":1765,"Ġvis":1766,"ĠSp":1767,"Ġsymptom":1768,"\\!\\!\\!\\!\\!\\!\\!":1769,"LE":1770,"Ġfile":1771,"ery":1772,"čĊč":1773,"leg":1774,"Ġleg":1775,"ĠIs":1776,"ĠWhat":1777,"lev":1778,"ĠDepartment":1779,"70":1780,"Ġcommon":1781,"Ġpath":1782,"Ġachie":1783,"Ġplace":1784,"Ġfail":1785,"Ġnext":1786,"Omega":1787,"ault":1788,"Ġobject":1789,"ĠChrist":1790,"ydro":1791,"box":1792,"ĊĊĠ":1793,"Ġhome":1794,"Ġbest":1795,"self":1796,"Ġclinical":1797,"ĠAt":1798,"ĠSo":1799,"Ġvehic":1800,"Ġleft":1801,"Ġput":1802,"Ġbo":1803,"Ġconn":1804,"ited":1805,"Ġcorrect":1806,"omet":1807,"div":1808,"acy":1809,"Ġinvol":1810,"att":1811,"Ġpaper":1812,"Ġgrow":1813,"Ġprofession":1814,"add":1815,"ederal":1816,"Name":1817,"ĠCon":1818,"oll":1819,"}_{":1820,"75":1821,"ene":1822,"ired":1823,"omega":1824,"Ġparticular":1825,"Ġabove":1826,"44":1827,"aph":1828,"ems":1829,"'re":1830,"Ġtrue":1831,"ĠCl":1832,"phi":1833,"AS":1834,"eal":1835,"mathfrak":1836,"90":1837,"urrent":1838,"95":1839,"Ġeas":1840,"To":1841,"Ġreason":1842,"Ġmotion":1843,"ification":1844,"Ġbi":1845,"Com":1846,"Ġattempt":1847,"Ġheld":1848,"ĠAll":1849,"Ġleast":1850,"Ġpossible":1851,"Ġnever":1852,"Ġofficial":1853,"iving":1854,"varepsilon":1855,"ĠUS":1856,"rightarrow":1857,"Ġpolicy":1858,"ope":1859,"Ġissues":1860,"sum":1861,"Ġconcern":1862,"Ġla":1863,"ror":1864,":**":1865,"Ġwater":1866,"urs":1867,"ED":1868,"uck":1869,"Ġalmost":1870,"ĠPl":1871,"RO":1872,"0000":1873,"Ġnothing":1874,"ending":1875,"ubuntu":1876,"Ġsk":1877,"Ġmov":1878,"tilde":1879,"IS":1880,"Ġbegin":1881,"raw":1882,"Ġidea":1883,"Tr":1884,"Ġrefer":1885,"function":1886,"Ġdistribution":1887,"Ġposition":1888,"ĠFurthermore":1889,"Ġcampaign":1890,"itch":1891,"Ġsm":1892,"ological":1893,"aligned":1894,"arn":1895,"ĠJanuary":1896,"ĠĠĠĠĠĠĠĠĠĠĠĠĠĠĠĠĠĠĠ":1897,"Ġdue":1898,"cdot":1899,"Ġpay":1900,"Ġexpression":1901,"Ġlight":1902,"Con":1903,"Ġappropriate":1904,"}^":1905,"ET":1906,"ari":1907,"ĠâĢĶ":1908,"ina":1909,"aps":1910,"Ġrequires":1911,"Ġtrial":1912,"];":1913,"ĠSouth":1914,"Ġdisplay":1915,"ats":1916,"new":1917,"---":1918,"Ġdays":1919,"ĠTHE":1920,"Ġrecogn":1921,"Ġinj":1922,"eter":1923,"Ġstrength":1924,"Ġgive":1925,"If":1926,"Ġsize":1927,"ĠTo":1928,"Ġmilitary":1929,"ĠSc":1930,"Ġincreasing":1931,"Ġelement":1932,"AC":1933,"Ġcome":1934,"Ġ%":1935,"Ġmoment":1936,"Ġpredict":1937,"Ġden":1938,"ĠGr":1939,"Ġtyp":1940,"Ġcost":1941,"ior":1942,"Ġwords":1943,"uth":1944,"Ġ{\\":1945,"Ġ25":1946,"48":1947,"Ġaverage":1948,"Ġmon":1949,"}$$":1950,"Ġexperiment":1951,"ream":1952,"cess":1953,"Ġlocal":1954,"Ġthings":1955,"As":1956,"Ġ17":1957,"ributed":1958,"Ġfree":1959,"yt":1960,"ister":1961,"atory":1962,"Ġbig":1963,"Ġmanufact":1964,"Ġnucle":1965,"clusion":1966,"Ġ!=":1967,"-\\":1968,"Ġcases":1969,"Ġprom":1970,"ances":1971,"Ġ--":1972,"Ġoriginal":1973,"though":1974,"ules":1975,"Ġeffort":1976,"Ġpe":1977,"ffer":1978,"Ġ)":1979,"Ġcode":1980,"data":1981,"ĊĠĠĠĠĠĠĠĠĠ":1982,"................":1983,"ĠState":1984,"mitted":1985,"Ġproperties":1986,"Ġphysical":1987,"Ġshown":1988,"gen":1989,"ication":1990,"Ġdr":1991,"ries":1992,"Ġmolec":1993,"nal":1994,"ĠFr":1995,"col":1996,"ĠStates":1997,"Ġelse":1998,"Ġcomplete":1999,"Ġtumor":2000,"Ġpolitical":2001,"Ġvol":2002,"Ġpressure":2003,"Type":2004,"erc":2005,"chem":2006,"Id":2007,"width":2008,"ask":2009,"ables":2010,"Ġteam":2011,"Ġpsych":2012,"Value":2013,"Ġprovide":2014,"66":2015,"Ã¿Ã¿Ã¿":2016,"Ġgot":2017,"ital":2018,"Ġ13":2019,"Ġsusp":2020,"oper":2021,"ape":2022,"ĠRes":2023,"Ġgeneral":2024,"Ġoutside":2025,"Ġsuper":2026,"Ġreplac":2027,"ended":2028,"Ġalgorith":2029,"\"/>":2030,"Ġrandom":2031,"eq":2032,"98":2033,"Ġsubstantial":2034,"Ġagain":2035,"Ġcomb":2036,"Ġturn":2037,"Ġ==":2038,"duce":2039,"Ġgame":2040,"Ġknown":2041,"Ġsw":2042,"Ġspecific":2043,"Ġbuild":2044,"Ġcalled":2045,"Ġdirection":2046,"erg":2047,"CONCLUSION":2048,"Ġrate":2049,"ruction":2050,"Ġcounsel":2051,"ney":2052,"Ġkeep":2053,"emocr":2054,"For":2055,"ymmet":2056,"Ġfeel":2057,"):":2058,"uss":2059,"cle":2060,"Ġspace":2061,"Ġradi":2062,"Ġsequence":2063,"lambda":2064,"beta":2065,"But":2066,"back":2067,"hip":2068,"Ġcur":2069,"Ġdiv":2070,"oph":2071,"Ġbro":2072,"~~~~~~~~~~~~~":2073,"mon":2074,"68":2075,"Ġmaxim":2076,"iddle":2077,"ides":2078,"Ġobvious":2079,"pm":2080,"so":2081,"Ġaut":2082,"ison":2083,"\\_":2084,"Ġprimary":2085,"UL":2086,"ayer":2087,"04":2088,"Ġ24":2089,"ait":2090,"Ġimmediately":2091,"aces":2092,"Ġwon":2093,"97":2094,"Ġplan":2095,"Ġfeatures":2096,"67":2097,"Ġvalues":2098,"Ġjurisdiction":2099,"{{\\":2100,"Ġable":2101,"ided":2102,"bar":2103,"ibr":2104,"Ġmass":2105,"osis":2106,"Ġstudies":2107,"Ġknowledge":2108,"Ġ>":2109,"Ġmeans":2110,"Ġabs":2111,"ured":2112,"ators":2113,"ther":2114,"itude":2115,"Ġweeks":2116,"ĠOctober":2117,"essage":2118,"Ġquestions":2119,"ĠSuppose":2120,"file":2121,"ĊĊĠĠĠĠĠĠĠ":2122,"></":2123,"Ġarea":2124,"fl":2125,"Ġneg":2126,"ĠLicense":2127,"Ġcontinue":2128,"INTRODUCTION":2129,"this":2130,"other":2131,"Ġopportunity":2132,"Cl":2133,"ĠNovember":2134,"})":2135,"Ġfull":2136,"Ġmove":2137,"aff":2138,"65":2139,"ressed":2140,"ĠWashington":2141,"Ġappear":2142,"Ġreview":2143,"ĠThat":2144,"Ġcho":2145,"mod":2146,"ĠSeptember":2147,"Ġcrit":2148,"Ġlater":2149,"Ġid":2150,"pon":2151,"Ġrevealed":2152,"fo":2153,"Ġnatural":2154,"ĠObama":2155,"AP":2156,"import":2157,"lected":2158,"td":2159,"Ġbeautiful":2160,"Ġwhy":2161,"ĠPresident":2162,"Ġfavor":2163,"He":2164,"_\\":2165,"Ġdri":2166,"Ġavoid":2167,"Ġtimes":2168,"ÂłÂłÂłÂłÂłÂłÂł":2169,"AM":2170,"aring":2171,"Ġfamil":2172,"Ġsens":2173,"Ġbody":2174,"Ġhold":2175,"Ġreported":2176,"Ġliquid":2177,"ser":2178,"ici":2179,"And":2180,"Ġmem":2181,"ges":2182,"Ġvideo":2183,"ĠRe":2184,"//////////////////":2185,"ored":2186,"Ġage":2187,"Ġdom":2188,"Ġgroups":2189,"Ġapplied":2190,"88":2191,"Ġhard":2192,"Ġshort":2193,"](":2194,"$\\":2195,"Ġagreement":2196,"Ġlower":2197,"ume":2198,"ands":2199,"uring":2200,"II":2201,"Ġside":2202,"irst":2203,"nonumber":2204,"ince":2205,"itle":2206,"ising":2207,"Ġexist":2208,"Ġaccess":2209,"âĸĶâĸĶâĸĶâĸĶâĸĶâĸĶ":2210,"ends":2211,"Ġerror":2212,"Suppose":2213,"Ġlot":2214,"Ġ100":2215,"31":2216,"imal":2217,"ounds":2218,"umn":2219,"Ġamount":2220,"Ġfar":2221,"ift":2222,"Ġtre":2223,"UT":2224,"ivity":2225,"Ġ=>":2226,"!\"":2227,"ĠWhen":2228,"yle":2229,"stit":2230,"Ġdatabase":2231,"itor":2232,"ĠFebruary":2233,"--------------------":2234,"^{-":2235,"><":2236,"OD":2237,"enn":2238,"On":2239,"ler":2240,"indow":2241,"Ġbehind":2242,"Ġrequired":2243,"class":2244,"Ġamong":2245,"Ġtestimony":2246,"ĠCommittee":2247,"ĠCol":2248,"ĠShe":2249,"Ġsent":2250,"Ġtext":2251,"Ġwritten":2252,"Ġwar":2253,"Ġstrong":2254,"Ġdone":2255,"go":2256,"Ġlevels":2257,"AD":2258,"Ġpract":2259,"ĠWorld":2260,"pone":2261,"69":2262,"Ġcompared":2263,"Ġterms":2264,"Ġnear":2265,"Ġlab":2266,"Ġdidn":2267,"Ġfac":2268,"Res":2269,"'ve":2270,"Ġcomponent":2271,"Ġart":2272,"ling":2273,"Is":2274,"time":2275,"sequ":2276,"Ġlink":2277,"47":2278,"%)":2279,"table":2280,"AG":2281,"log":2282,"55":2283,"Ġsure":2284,"Ġalong":2285,"Ġsubject":2286,"Ġkey":2287,"Ġ50":2288,"Ġpercent":2289,"Ġsecurity":2290,"ĠFlorida":2291,"Ġfinal":2292,"Ġliter":2293,"Ġpurpose":2294,"amm":2295,"ĠCounty":2296,"utions":2297,"ãĥ":2298,"Ġdevelopment":2299,"olution":2300,"Ġactivity":2301,"ites":2302,"ese":2303,"ĠAd":2304,"ores":2305,"Ġ${\\":2306,"ãĤ":2307,"ĠCo":2308,"orn":2309,"Ġhowever":2310,"ival":2311,"big":2312,"Ġdesign":2313,"100":2314,"Ġmen":2315,"Ġincreased":2316,"ĠOr":2317,"Ġclean":2318,"Ġstep":2319,"use":2320,"Ġproposed":2321,"Ġpiec":2322,"emplate":2323,"An":2324,"Ġdynam":2325,"Ġmanag":2326,"}{\\":2327,"Ġâ":2328,"Ġargument":2329,"Ġsal":2330,"Ġchar":2331,"de":2332,"Ġfund":2333,"ered":2334,"Ġaccount":2335,"Ġcontent":2336,"eople":2337,"Al":2338,"Ġparticip":2339,"Ġsays":2340,"ducing":2341,"Ġcover":2342,"Ġevent":2343,"ories":2344,"Ġpack":2345,"ĠGeneral":2346,"Ġcheck":2347,"Ġrece":2348,"Ar":2349,"ids":2350,"Un":2351,"Ġrole":2352,"Ġeng":2353,"Ġgirl":2354,"85":2355,"Ġmaking":2356,"Ġcompl":2357,"Ġpoor":2358,"Ġkind":2359,"Ġair":2360,"Ġworking":2361,"Ġcy":2362,"Ġdensity":2363,"Ġcomponents":2364,"Ġincrease":2365,"load":2366,"Ġmonths":2367,"77":2368,"Ġsim":2369,"iff":2370,"Ġaway":2371,"Ġauthor":2372,"vention":2373,"ung":2374,"Ġcancer":2375,"order":2376,"test":2377,"Ġbecome":2378,"Ġcomput":2379,"bo":2380,"aster":2381,"ife":2382,"]\\]":2383,"return":2384,"96":2385,"Ġfactors":2386,"Ġfore":2387,"Ġdegree":2388,"Ġfood":2389,"'ll":2390,"ĠIN":2391,"ley":2392,"Ġquant":2393,"Ġinclude":2394,"Ġcannot":2395,"ava":2396,"Ġprovided":2397,"Ġtold":2398,"}}\\":2399,"Ġrange":2400,"Ġthing":2401,"List":2402,"ably":2403,"Ġuseful":2404,"Ġrespons":2405,"Ġexc":2406,"Ġfinancial":2407,"App":2408,"Ġpast":2409,"94":2410,"IM":2411,"Ġmult":2412,"ects":2413,"Ġes":2414,"ĠRep":2415,"key":2416,"date":2417,"Ġneighb":2418,"08":2419,"ĠSch":2420,"Ġorigin":2421,"OT":2422,"Ġlarger":2423,"ivers":2424,"Ġpretty":2425,"Ġ`":2426,"Ġperfect":2427,"aint":2428,"ves":2429,"Ġeffects":2430,"UR":2431,"Sh":2432,"ources":2433,"ĠMed":2434,"Ġenc":2435,"ĠJune":2436,"ief":2437,"Ġblock":2438,"Ġupon":2439,"Ġtell":2440,"Ġold":2441,"IG":2442,"Ġcircumstances":2443,"ipp":2444,"Ġobserved":2445,"Ġacknowled":2446,"Ġdetail":2447,"Ġenough":2448,"ml":2449,"Ġseen":2450,"Ġhyper":2451,"Ġproceed":2452,"ĠLe":2453,"irm":2454,"Ġconduct":2455,"Ġservice":2456,"inter":2457,"Ġsection":2458,"Ġcalcul":2459,"ought":2460,"ij":2461,"CH":2462,"Ġdefinition":2463,"Ġlog":2464,"Ġdoesn":2465,"ĠâĢĺ":2466,"inary":2467,"Ġregard":2468,"istic":2469,"Ġcompanies":2470,"OM":2471,"Ġproperty":2472,"Ġtradition":2473,"string":2474,"Ġann":2475,"bu":2476,"ĠAss":2477,"ament":2478,"Ġconditions":2479,"Ġpositive":2480,"ĠCanad":2481,"Ġfixed":2482,"Ġcomplex":2483,"known":2484,"ĠÎ":2485,"Ġtechniques":2486,"olic":2487,"Ġopt":2488,"Ġinterpret":2489,"Ġhttp":2490,"Ġmiss":2491,"There":2492,"Ġmor":2493,"\")":2494,"Ġregion":2495,"02":2496,"ering":2497,"Ġdecre":2498,"Ġuser":2499,"ING":2500,"ground":2501,"atter":2502,"figuration":2503,"off":2504,"iles":2505,"leq":2506,"osc":2507,")*":2508,"Ġsepar":2509,"Ġwoman":2510,"Ġtax":2511,"]).":2512,"Ġbase":2513,"comp":2514,"Ġcoupl":2515,"Ġap":2516,"Ġ([@":2517,"Ġcountry":2518,"Ġlove":2519,"ĠĠĠĠĠĠĠĠĠĠĠĠĠĠĠĠĠĠĠĠĠĠĠĠĠĠĠĠĠĠĠĠĠĠĠĠĠĠĠĠĠĠĠĠĠĠĠĠĠĠĠĠĠĠĠĠ":2520,"xi":2521,"Ġmus":2522,"ĠHealth":2523,"Ġtalk":2524,"ĠAND":2525,"ĠSee":2526,"ective":2527,".)":2528,"At":2529,"Ġtissue":2530,"Ġpick":2531,"rec":2532,"Ġdeath":2533,"Ġperformed":2534,"Ġstop":2535,"Ġillustr":2536,"07":2537,"âĢ¦":2538,"Ġbook":2539,"Ġratio":2540,"Ġep":2541,"den":2542,"ensive":2543,"09":2544,"ware":2545,"Ġcut":2546,"lim":2547,"ĠApril":2548,"www":2549,"raft":2550,"Ġflu":2551,"Col":2552,"AB":2553,"apt":2554,"Ġspecial":2555,"Ġcreate":2556,"Ġrather":2557,"No":2558,"mm":2559,"ai":2560,"Ġprob":2561,"Ġcult":2562,"see":2563,"Ġdoing":2564,"mp":2565,"SS":2566,"Ġdefined":2567,"Ġvir":2568,"span":2569,"Ġpoints":2570,"Ġdescribed":2571,"Ġindustry":2572,"Ġcompletely":2573,"Ġseason":2574,"Ġfootball":2575,"57":2576,"nbsp":2577,"Ġearly":2578,"OP":2579,"ĠJuly":2580,"Ġopinion":2581,"Ġphot":2582,"umer":2583,"Ġjo":2584,"verse":2585,"Ġearlier":2586,"ished":2587,"roid":2588,"ĠMar":2589,"Ġdecl":2590,"Ġeducation":2591,"Ġcandid":2592,"Ġenjoy":2593,"ĠWednesday":2594,"isc":2595,"+\\":2596,"plic":2597,"exp":2598,"Ġpatient":2599,"ried":2600,"ĠSupreme":2601,"Ġsaf":2602,"Ġcompany":2603,"ched":2604,"Ġnecessarily":2605,"ĠMay":2606,"emb":2607,"ĠEnglish":2608,"Ġreasons":2609,"irect":2610,"Ġassess":2611,"Ġshowed":2612,"Ġdem":2613,"ĠSec":2614,"head":2615,"cluded":2616,"ram":2617,"So":2618,"ĠGoogle":2619,"Ġimage":2620,"imensional":2621,"Ġnull":2622,"ession":2623,"ender":2624,"Ġacross":2625,"Ġaccept":2626,"Ġrelevant":2627,"ining":2628,"Ġmix":2629,"Ġq":2630,"Gamma":2631,"IL":2632,"Ġbit":2633,"Ġ([":2634,"Ġ&&":2635,"ĠSu":2636,"ĠPr":2637,"bit":2638,"material":2639,"iÃ³n":2640,"Ġweight":2641,"Ġreach":2642,"year":2643,"Ġobtained":2644,"Error":2645,"Ġmeet":2646,"ĠCircuit":2647,"Ġ$(":2648,"Ġcontrib":2649,"ino":2650,"ĠAmerican":2651,"84":2652,"resh":2653,"Ġactually":2654,"Ġfive":2655,"Ġadjust":2656,"omes":2657,"ibility":2658,"Ġexecut":2659,"ones":2660,"Ġbar":2661,"ĠCent":2662,"Ġwhole":2663,"CC":2664,"etition":2665,"osure":2666,"Ġgl":2667,"Ġbelow":2668,"Ġlearning":2669,"Ġvoid":2670,"OL":2671,"Ġconsidered":2672,"ĠFig":2673,"03":2674,"ogen":2675,"Ġchanged":2676,"^\\":2677,"Ġmakes":2678,"Ġvarious":2679,"ero":2680,"Ġstring":2681,"Ġbreak":2682,"PE":2683,"Ġproteins":2684,"Ġwriting":2685,"Ġsource":2686,"Ġshows":2687,"Ġrelated":2688,"ache":2689,"Ġonce":2690,"Ġstates":2691,"Ġinternational":2692,"ĠBr":2693,"Ġsynthes":2694,"Ġspe":2695,"onal":2696,"Ġra":2697,"Ġthought":2698,"upplementary":2699,"Ġanalyses":2700,"Ġbegan":2701,"Ġrespectively":2702,"003":2703,"Ġincluded":2704,"Ġadded":2705,"cc":2706,"ĠAm":2707,"Ġbuilt":2708,"Ġver":2709,"Ġdevices":2710,"nu":2711,"Ġchild":2712,"circ":2713,"queuebot":2714,"ocal":2715,"Ġdam":2716,"Ġsurgery":2717,"Ġcard":2718,"Ġsolution":2719,"ĠAugust":2720,"Ġoccur":2721,"\"}).":2722,"ĠJesus":2723,"icrosoft":2724,"Ġwidth":2725,"cy":2726,"Ġexam":2727,")(":2728,"42":2729,"ĠDistrict":2730,"Ġprincip":2731,"Ġdeal":2732,"ĠCar":2733,"Ġarrest":2734,"Ġexperience":2735,"Ġmarket":2736,"ĠBl":2737,"Ġsignificantly":2738,"Ġapplication":2739,"ĠPat":2740,"value":2741,"bt":2742,"Ġprocedure":2743,"ĠOF":2744,"Ġfully":2745,"Ġfactor":2746,"Ġeyes":2747,"Ġprogress":2748,"sl":2749,"49":2750,"Ġsex":2751,"Ġbeyond":2752,"ENT":2753,"87":2754,"asc":2755,"gg":2756,"Ġcounter":2757,"ĠĊ":2758,"ean":2759,")}":2760,"86":2761,"Ġsubs":2762,"001":2763,"ĠOne":2764,"Ġmaint":2765,"illed":2766,"Ġred":2767,"ĠÂ§":2768,"Ġanti":2769,"Ġstruct":2770,"ĠDecember":2771,"ĠAdd":2772,"Ġsignal":2773,"RESULTS":2774,"Ġsystems":2775,"theta":2776,"Ġseries":2777,"/*":2778,"odes":2779,"ĠMETHODS":2780,"Ġtook":2781,"la":2782,"ĠWith":2783,"'d":2784,"Ġtowards":2785,"Ġsite":2786,"Ġmar":2787,"Ġwebsite":2788,"Ġutil":2789,"Figure":2790,"OS":2791,"net":2792,"tract":2793,"Ġyet":2794,"Ġconsist":2795,"Ph":2796,"Ġever":2797,"no":2798,"Ġplaintiff":2799,"Ġcame":2800,"ternal":2801,"ĠMr":2802,"Ġland":2803,"Ġrelatively":2804,"Ġroom":2805,"Ġexactly":2806,"US":2807,"Ġcommunity":2808,"Ġspect":2809,"tau":2810,"ĊĠĠĠĠĠĠ":2811,"ĠCouncil":2812,"lation":2813,"Ġloss":2814,"Ġbirth":2815,"ulated":2816,"Ġcause":2817,"Ġdecision":2818,"code":2819,"ips":2820,"Ġcouple":2821,"Ġadministration":2822,"\");":2823,"oh":2824,"mathbf":2825,"Ġhref":2826,"Ġhouse":2827,"ymbol":2828,"Ġexperiments":2829,"')":2830,"dom":2831,"Ġtem":2832,"reed":2833,"ĠMoreover":2834,"ider":2835,"Ġdiagn":2836,"Ġaddress":2837,"Ġsearch":2838,"ving":2839,"times":2840,"Ġhusband":2841,"Ġinfluence":2842,"ops":2843,"ĠBecause":2844,"ĠFacebook":2845,"olve":2846,"TR":2847,"delta":2848,"EL":2849,"Ġupper":2850,"operatorname":2851,"Ġ21":2852,"ĠThen":2853,"Ġfelt":2854,"Ġnight":2855,"Data":2856,"body":2857,"Ġmagn":2858,"83":2859,"ĠAct":2860,"mit":2861,"umb":2862,"46":2863,"Ċĉĉĉĉ":2864,"Ġparents":2865,"rangle":2866,"trans":2867,"used":2868,"Ġsix":2869,"Gr":2870,"Ġbound":2871,"ĠDefendant":2872,"Ġcircuit":2873,"ises":2874,"Ġphosph":2875,"Ġcontract":2876,"Ġanything":2877,"Ġvictim":2878,"Ġbinding":2879,"size":2880,"Ġ27":2881,"89":2882,"Ġmethods":2883,"iction":2884,"Ġmind":2885,"Ġyoung":2886,"âĶľâĶĢâĶĢâĶĢâĶĢâĶĢâĶĢâĶĢâĶĢâĶĢâĶĢâĶĢâĶĢâĶĢâĶĢâĶĢâĶ¼âĶĢâĶĢâĶĢâĶĢâĶĢâĶĢâĶĢâĶĢâĶĢâĶĢâĶĢâĶĢâĶĢâĶĢâĶĢâĶĢâĶĢâĶĢâĶĢâĶĢâĶĢâĶĢâĶĢâĶĢâĶĢâĶĢâĶĢâĶĢâĶĢâĶĢâĶĢâĶĢâĶĢâĶĢâĶĢâĶĢâĶĢâĶĢâĶĢâĶĢâĶĢâĶĢâĶĢâĶĢâĶĢâĶĢâĶĢâĶĢâĶĢâĶĢâĶĢâĶĢâĶĢâĶĢâĶĢâĶĢâĶĢâĶĢâĶĢâĶĢâĶĢâĶĢâĶ¤":2887,"aging":2888,"ĠGovernment":2889,"Ġ(*":2890,"Ġreleased":2891,"Ġattack":2892,"Ġalleged":2893,"Ġvar":2894,"igr":2895,"Ġensure":2896,"Ġservices":2897,"aj":2898,"iate":2899,"rim":2900,"Ġadditional":2901,"Ġtherefore":2902,"ĠIsrael":2903,"Ġwrote":2904,"ĠGod":2905,"izing":2906,"Ġtable":2907,"rol":2908,"lying":2909,"Ġimplement":2910,"Ġtown":2911,"Ġbill":2912,"ged":2913,"After":2914,"Ġcelebr":2915,"Ġob":2916,"Ġtravel":2917,"Ġdifference":2918,"aged":2919,"Ġtoday":2920,"opt":2921,"ervice":2922,"Ġresistance":2923,"Ġentire":2924,"ĠThus":2925,"anch":2926,"Ġotherwise":2927,"++++++++++++++++++++++++++":2928,"Ġpers":2929,"ĠÂ±":2930,"Ġtrying":2931,"Ġthus":2932,"ĠBe":2933,"Ġclose":2934,"Ġportion":2935,"ĠAfric":2936,"Sp":2937,"Ġquickly":2938,"Ġneeded":2939,"Ġhypothes":2940,"ales":2941,"Ġmachine":2942,"Ġlength":2943,"actions":2944,"Ġcomparison":2945,"Ġalgebra":2946,"^*":2947,"param":2948,"mer":2949,"uff":2950,"Ġsimple":2951,"rew":2952,"Ġcross":2953,"atus":2954,"ĠResearch":2955,"witter":2956,"Ġvia":2957,"![":2958,"Ġintro":2959,"DE":2960,"Ġmot":2961,"UN":2962,"Ġir":2963,"define":2964,"\\\\":2965,"Ġmatch":2966,"older":2967,"ĠInc":2968,"Ġgene":2969,"Ġpaid":2970,"Ġremoved":2971,"position":2972,"Ġpattern":2973,"Ġ(-":2974,"ients":2975,"Ġcontact":2976,"do":2977,"Ġneeds":2978,"alse":2979,"na":2980,"ĠCity":2981,"itting":2982,"ĠInternational":2983,"93":2984,"Ġbottom":2985,"06":2986,"ike":2987,"Index":2988,"Ġfun":2989,"ilities":2990,"Ġsometimes":2991,"Ġ(\\[":2992,"but":2993,"Key":2994,"Ġ^":2995,"Ġquality":2996,"Im":2997,"ck":2998,"Ġinvolved":2999,"Ġcapacity":3000,"Ġmut":3001,"Ġdig":3002,"face":3003,"Ġseem":3004,"ference":3005,"cal":3006,"atur":3007,"Ġstudents":3008,"ii":3009,"92":3010,"Ġang":3011,"ĠAustral":3012,"Ġparty":3013,"ĠMc":3014,"41":3015,"Ġcharacteristics":3016,"],[@":3017,"Set":3018,"ĠBoard":3019,"ĠCont":3020,"Ġmodels":3021,"iber":3022,"])":3023,"dis":3024,"vironment":3025,"Ġjob":3026,"56":3027,"mathrm":3028,"struct":3029,"Ġwitness":3030,"ĠMy":3031,"field":3032,"Ġpopulation":3033,"based":3034,"Ġpain":3035,"vec":3036,"Ġperformance":3037,"Ġwent":3038,"|\\":3039,"Ġface":3040,"ĊĊĊ":3041,"my":3042,"Ġfigure":3043,"omorph":3044,"unch":3045,"ption":3046,"Ġgetting":3047,"Ġrecent":3048,"Ġque":3049,"Ġhapp":3050,"Ġexpected":3051,"Ġflow":3052,"ĠSe":3053,"Ġgrowth":3054,"43":3055,"Ġ26":3056,"Ġ40":3057,"Ġchannel":3058,"IR":3059,"ĠEn":3060,"IV":3061,"idence":3062,"ĠĠĠĠĠĠĠĠĠĠ":3063,"Ġindependent":3064,"Ġinflamm":3065,"Ġ...":3066,"Ġlooking":3067,"Ð¾Ð":3068,"rc":3069,"ived":3070,"Ġpolice":3071,"Ġcorrel":3072,"Ġfunctions":3073,"ĠInterest":3074,"Ġalcohol":3075,"Ġwin":3076,"ĠMin":3077,"Ġproblems":3078,"Ġrights":3079,"\\])":3080,"imilar":3081,"Ġflo":3082,"Ġcomes":3083,"ential":3084,"dev":3085,"Ġ\\\\":3086,"Ġmedia":3087,"erve":3088,"Ġprof":3089,"Ġcredit":3090,"91":3091,"^^^^^^^^^^^^^^^^^^^^":3092,"*,":3093,"Ġpan":3094,"Override":3095,"Ġexpect":3096,"Ġexperienced":3097,"EM":3098,"ĠNULL":3099,"Ġdestroy":3100,"bib":3101,"ethod":3102,"vel":3103,"Ġur":3104,"Ġ28":3105,"ĠMichael":3106,"Ġplaced":3107,"Ġcryst":3108,"Ġcity":3109,"miss":3110,"ĠNot":3111,"Ġbrief":3112,"ĠDevelopment":3113,"ĠBy":3114,"Ġmyself":3115,"Ġseems":3116,"That":3117,"Ġdaily":3118,"Ġtouch":3119,"Ġtool":3120,"When":3121,"Ġ22":3122,"path":3123,"ĠCD":3124,"Ġproduction":3125,"Ġinput":3126,"Ġcivil":3127,"CL":3128,"icon":3129,"Refer":3130,"ĠmiR":3131,"acter":3132,"come":3133,"anks":3134,"ple":3135,"Ġstory":3136,"list":3137,"Ġprovides":3138,"ously":3139,"Ġ$$":3140,"Delta":3141,"Ġmeasures":3142,"ony":3143,"Ġheart":3144,"Ġnamed":3145,"Ġalternative":3146,"state":3147,"Ġcal":3148,"Ġhost":3149,"Ġchem":3150,"Ġemployees":3151,"How":3152,"Ġconflict":3153,"Ġinstead":3154,"Simplify":3155,"anding":3156,"Table":3157,"Ġprec":3158,"Ġofficer":3159,"Ġtaking":3160,"Ġsimply":3161,"anced":3162,"oma":3163,"psi":3164,"Object":3165,"Â±":3166,"err":3167,"With":3168,"king":3169,"--------------":3170,"Get":3171,"ject":3172,"pre":3173,"ĊĠĠĠĠĠĠĠĠĠĠĠĠĠĠĠĠĠĠĠĠĠĠĠ":3174,"Ġstrategy":3175,"ĠTrump":3176,"Ġsurvival":3177,"Ġlearn":3178,"Ġexercise":3179,"Ġblack":3180,"Ġsleep":3181,"des":3182,"Ġtheory":3183,"Manager":3184,"ds":3185,"iting":3186,"ĠRo":3187,"ging":3188,"**]{},":3189,"Ġminimum":3190,"ĠDo":3191,"Ġimpact":3192,"PS":3193,"include":3194,"uments":3195,"induced":3196,"EC":3197,"FL":3198,"Ġimport":3199,"normal":3200,"Ġevents":3201,"Ġcoordin":3202,"Ġspecifically":3203,"\";":3204,"Ġsomeone":3205,"Ġhundred":3206,"Ġrapid":3207,"\\*":3208,"Ġtw":3209,"Ġstarted":3210,"All":3211,"astroenterology":3212,"Ġmentioned":3213,"Ġplatform":3214,"Ġpage":3215,"By":3216,"rown":3217,"fr":3218,"wo":3219,"Ġcolor":3220,"Ġfall":3221,"point":3222,"ĠNational":3223,"hydr":3224,"Ġstraight":3225,"Ġwor":3226,"cm":3227,"ental":3228,"ĊĠĠĠĠĠĠĠĠĠĠĠĠĠĠĠĠĠĠĠĠĠĠĠĠĠĠĠĠ":3229,"light":3230,"po":3231,"with":3232,"Ġphenomen":3233,"Sc":3234,"lin":3235,"Ġvalid":3236,"Ġload":3237,"Ġprepared":3238,"ĠCor":3239,"Ġsamples":3240,"59":3241,"ronic":3242,"init":3243,"74":3244,"Ġconfirmed":3245,"Ġdespite":3246,"https":3247,"Ġ23":3248,"down":3249,"Ġwatch":3250,"arr":3251,"Ġcoll":3252,"uk":3253,"oles":3254,"Ġjud":3255,"58":3256,"umber":3257,"ements":3258,"Ġbasis":3259,"Ġproducts":3260,"Add":3261,"~~~":3262,"En":3263,"Ġconv":3264,"Ġclos":3265,"Ġlines":3266,"Ġ},":3267,"PC":3268,"Ġimpro":3269,"unt":3270,"astic":3271,"where":3272,"Ġframework":3273,"Ġpresented":3274,"Ġcriminal":3275,"link":3276,"));":3277,"Ġfollows":3278,"Ġdepend":3279,"Ġparameters":3280,"usion":3281,"ethyl":3282,"char":3283,"ĠPaul":3284,"Re":3285,"Ġsample":3286,"ĠÐ":3287,"76":3288,"Ġbad":3289,"rip":3290,"Ġdetermined":3291,"}$,":3292,"MS":3293,"Ġdetermine":3294,"ipl":3295,"Ġstorage":3296,"Ġlack":3297,"ĠMan":3298,"Ġstatic":3299,"Ġcommercial":3300,"ĠDr":3301,"Ġhom":3302,"like":3303,"My":3304,"Ġshall":3305,"fort":3306,"Ġiniti":3307,"work":3308,"ocol":3309,"top":3310,"Ġmedical":3311,"Ġindex":3312,"Ġeffective":3313,"atal":3314,"Ġanalyzed":3315,"Ġproliferation":3316,"Ġmap":3317,"Ġlive":3318,"ĠÃ":3319,"Ġnews":3320,"Ġemb":3321,"ĠĠĠĠĠĠĠĠĠĠĠ":3322,"Ġdate":3323,"Ġformer":3324,"%%%%%%%%%%%%%%%":3325,"$-":3326,"Ġpersonal":3327,"Ġpresence":3328,"Ġsociety":3329,"}$.":3330,"Ġidentified":3331,"Ġforce":3332,"Ġide":3333,"Ġassociation":3334,"ĊĊĊĊĊĊĊĊĊĊĊĊĊĊĊĊĊĊĊĊĊĊĊĊĊĊĊĊĊĊĊĊĊĊĊĊĊĊĊĊĊĊĊĊĊĊĊĊĊĊĊĊĊĊĊĊĊĊĊĊĊĊĊĊĊĊĊĊĊĊĊĊĊĊĊĊĊĊĊĊĊĊĊĊĊĊĊĊĊĊĊĊĊĊĊĊĊĊĊĊĊĊĊĊĊĊĊĊĊĊĊĊĊĊĊĊĊĊĊĊĊĊĊĊĊĊĊĊĊĊĊĊĊĊĊĊĊĊĊĊĊĊĊĊĊĊĊĊĊĊĊĊ":3335,"Ġgenes":3336,"ĠâĪĴ":3337,"Ġsqu":3338,"SD":3339,"Ġfemale":3340,"reate":3341,"CD":3342,"outh":3343,"Ġprint":3344,"Ġphys":3345,"ython":3346,"++":3347,"PI":3348,"Ġitself":3349,"Ġdegrees":3350,"Ġattorney":3351,"Ġsmooth":3352,"ying":3353,"Ġvelocity":3354,"}=":3355,"62":3356,"ĠNorth":3357,"ĠCalculate":3358,"Ġfilm":3359,"Model":3360,"eff":3361,"ĠDavid":3362,"ana":3363,"Ġox":3364,"ĠAg":3365,"Ġappellant":3366,"63":3367,"Ġest":3368,"Ġdocument":3369,"Ġcitizens":3370,"Ġsil":3371,"Ġphase":3372,"FF":3373,"Ġadvantage":3374,"Ġefficiency":3375,"54":3376,"error":3377,"Ġcontext":3378,"ĠYork":3379,"Ġfront":3380,"ĠWilli":3381,"Ġlonger":3382,"Ġdim":3383,"Ġofficers":3384,"Ġcopy":3385,"82":3386,"group":3387,"word":3388,"Ġrender":3389,"ula":3390,"Ġconstant":3391,"Ġtypes":3392,"ĠComp":3393,"TH":3394,"Ġtransfer":3395,"ĠPennsylvania":3396,"sim":3397,"}^{\\":3398,"ills":3399,"Ġperhaps":3400,"Ġworks":3401,"Ġscript":3402,"Ġstatement":3403,"Ġparallel":3404,"acc":3405,"Ġground":3406,"Ġstatus":3407,"72":3408,"ĠInt":3409,"Ġsevere":3410,"Ġeverything":3411,"Ġneuro":3412,"ening":3413,"Ġsense":3414,"Ġdraw":3415,"Ġanimals":3416,"Ġinvest":3417,"Ġelements":3418,"ĠBrazil":3419,"79":3420,"Ġfruit":3421,"ulations":3422,"53":3423,"osition":3424,"Ġwrong":3425,"Param":3426,")=":3427,"Ġbiggest":3428,"Ġsyndrome":3429,"Ġprevent":3430,"px":3431,"fully":3432,"Ġhist":3433,"ults":3434,"ĠAb":3435,"ĠCongress":3436,"roph":3437,"ploy":3438,"hibition":3439,"ĠString":3440,"Ġremain":3441,"Ġrunning":3442,"Ed":3443,"Ġcharg":3444,"Ġpurposes":3445,"Ġscreen":3446,"Ġoutput":3447,"Ã¡":3448,"File":3449,"Ġconstit":3450,"Ġrad":3451,"Disclosure":3452,"ux":3453,"ÃŃ":3454,"Ġassert":3455,"Ps":3456,"Ġunit":3457,"Ġcreated":3458,"Ġdanger":3459,"Pl":3460,"mbox":3461,"Ġacid":3462,"Ġbur":3463,"Ġbring":3464,"Ġhuge":3465,"Ġtherapeutic":3466,"itation":3467,"Ġ2012":3468,"78":3469,"Ġarray":3470,"Ġsem":3471,"ĠII":3472,"=======":3473,"oo":3474,"ards":3475,"Ġmember":3476,"varphi":3477,"Ġnode":3478,"utes":3479,"PA":3480,"Int":3481,"aving":3482,"mail":3483,"Ġlikelihood":3484,"Ġrespond":3485,"Ġcamera":3486,"msg":3487,"Ġtraining":3488,"Ġquite":3489,"Ġinstall":3490,"me":3491,"urch":3492,"52":3493,"mun":3494,"Ġinsurance":3495,"Ġwalk":3496,"oud":3497,"Ġdeep":3498,"ague":3499,"Ġvs":3500,"ĠPar":3501,"Ġoil":3502,"Ġmobile":3503,"ĠGeorge":3504,"ĠWARRANT":3505,"51":3506,"Ġeasy":3507,"Ġconventional":3508,"Ġareas":3509,"Ġnational":3510,"Ġinside":3511,"Ġlayer":3512,"Ġdistrict":3513,"Ġple":3514,"Ġexchange":3515,"Ġslightly":3516,"ĠPart":3517,"Ġrates":3518,"imate":3519,"Ġselect":3520,"ever":3521,"ections":3522,"NS":3523,"erson":3524,"efore":3525,"ades":3526,"ĠTherefore":3527,"ĠIm":3528,"Ġimpl":3529,"Ġcreat":3530,"aves":3531,"ission":3532,"\"><":3533,"ĠGu":3534,"aven":3535,"Not":3536,"ros":3537,"Ġgas":3538,"Ġrelease":3539,"Text":3540,"place":3541,"Ġsomew":3542,"Calculate":3543,"Ġequivalent":3544,"Ġvector":3545,"ĠInstitute":3546,"Ġclaims":3547,"iet":3548,"user":3549,"lege":3550,"ĠGerm":3551,"Ġwanted":3552,"]{":3553,"gn":3554,"ocytes":3555,"------------------------------------------------------------------":3556,"Ġcontroll":3557,"ĠOur":3558,"ians":3559,"isions":3560,"atives":3561,"ĠChicago":3562,"Ġdirectly":3563,"aut":3564,"artment":3565,"Ġnearest":3566,"($":3567,"eat":3568,"Ġtransform":3569,"73":3570,"ĠHow":3571,"ĠPhys":3572,"Ġago":3573,"*]{}":3574,"Ġrepresents":3575,"Ġ2013":3576,"from":3577,"Ġlimited":3578,"ĠFin":3579,"Ġcontain":3580,"Ġneighborhood":3581,"Ġmis":3582,"Ġisn":3583,"public":3584,"71":3585,"Ġ/>":3586,"Ġfaith":3587,"ĠChinese":3588,"Ġstay":3589,"Ġability":3590,"subset":3591,"Ġmer":3592,"Ġarbitr":3593,"AA":3594,"OC":3595,"ners":3596,"const":3597,"play":3598,"prime":3599,"Ġsqrt":3600,"ĠWestern":3601,"sk":3602,"Ġreduced":3603,"Ġlymph":3604,"Ġ[**":3605,"Ġdeveloped":3606,"ĠBritish":3607,"langle":3608,"Ġ?":3609,"clus":3610,"((":3611,"Ġcook":3612,"elling":3613,"81":3614,"RNA":3615,"specific":3616,"ags":3617,"iveness":3618,"Ġpicture":3619,"ze":3620,"Ġlatest":3621,"ications":3622,"Ġnegative":3623,"write":3624,"void":3625,"array":3626,"ĊĠĠĠĠĠĠĠĠĠĠĠĠĠ":3627,"EX":3628,"omy":3629,"ĠRuss":3630,"Ġcriteria":3631,"ĊĠĠĠĠĠĠĠĠĠĠĠĠĠĠĠĠĠĠĠĠĠĠĠĠĠĠĠĠĠĠĠĠĠĠĠĠĠĠĠĠĠĠ":3632,"perty":3633,"Ġdistinct":3634,"Ġpreviously":3635,"Ġaccur":3636,"Ġgreater":3637,"ĠFoundation":3638,"ha":3639,"Ġlicense":3640,"Ġrule":3641,"...\"":3642,"Or":3643,"Ġarchitect":3644,"ĠĠĠĠĠĠĠĠĠĠĠĠ":3645,"Ġforward":3646,"Ġsurround":3647,"Ġoption":3648,"que":3649,"Ġincludes":3650,"Ġsett":3651,"max":3652,"Bu":3653,"rows":3654,"Ġinteger":3655,"Ġcup":3656,"orem":3657,"Ġincorpor":3658,"Ġ;":3659,"ocation":3660,"Request":3661,"Ġshare":3662,"ken":3663,"Ġexpress":3664,"ĠLondon":3665,"ï¼":3666,"Ġenzym":3667,"Ġproportion":3668,"Ġmurder":3669,"Ġmechan":3670,"Ġbehavior":3671,"ster":3672,"Ġport":3673,"iated":3674,"pen":3675,"version":3676,"Ġfire":3677,"Ġgraph":3678,"Ġdoubt":3679,"Ġprop":3680,"Ġhot":3681,"term":3682,"cluding":3683,"rial":3684,"Ġvoice":3685,"ML":3686,"Ġsequ":3687,"Ġlargest":3688,"Ġannounced":3689,"bi":3690,"Ġarrang":3691,"reet":3692,"Ġabsolutely":3693,"čĊĠĠĠ":3694,"Ġwhite":3695,"Ġrepeated":3696,"ĠFriday":3697,"Ġaccom":3698,"Ġsn":3699,"Ġinstance":3700,"Ġcolumn":3701,"ept":3702,"Ġvoltage":3703,"Ġstatist":3704,"ĠAttorney":3705,"ĠHere":3706,"part":3707,"}(\\":3708,"GF":3709,"unction":3710,"Ġdefault":3711,"Ġmemory":3712,"Ġ29":3713,"wide":3714,"Ġmice":3715,"Ġpair":3716,"Ġgames":3717,"abor":3718,"ĠRec":3719,"itted":3720,"requ":3721,"oring":3722,"Ġball":3723,"Ġer":3724,"ribute":3725,")$.":3726,"otion":3727,"Ġcompet":3728,"Ġ);":3729,"ĠJust":3730,"iation":3731,"plit":3732,"lock":3733,"ĠSystem":3734,"Ġwhatever":3735,"sub":3736,"Ġfindings":3737,"\\<":3738,"61":3739,"Â°":3740,"Ġgenerally":3741,"IP":3742,"js":3743,"Ġcateg":3744,"Ġeye":3745,"Ġ60":3746,"ĠĠĠĠĠĠĠĠĠĠĠĠĠ":3747,"ĠPer":3748,"ville":3749,"Sec":3750,"Ġetc":3751,"ĊĠĠĠĠĠĠĠĠ":3752,"Ġlost":3753,"ĠCir":3754,"Ġresid":3755,"Ġfollowed":3756,"Ġgrant":3757,"print":3758,"Ġtitle":3759,"Ġcarbon":3760,"Ġappeal":3761,"Ġusually":3762,"Ġtreated":3763,"Ġaim":3764,"omic":3765,"Ġreceptor":3766,"Ġword":3767,"Ġpresident":3768,"Ġcompleted":3769,"Ġreference":3770,"Ġmatrix":3771,"ĠId":3772,"ĠHis":3773,"Ġcorresponding":3774,"sm":3775,"cur":3776,"Ġ32":3777,"Ġefficacy":3778,"ĠST":3779,"Ġoutcomes":3780,"nabla":3781,"ened":3782,"Ġsugar":3783,"Ġillegal":3784,"Ġglobal":3785,"ett":3786,"ĠSince":3787,"Ġlinear":3788,"Ġparticularly":3789,"Ġrev":3790,"Ġempty":3791,"Ġdelivery":3792,"Ġ[*":3793,"ĠTexas":3794,"Ġplayers":3795,"ĠAfghanistan":3796,"Ġstrugg":3797,"alt":3798,"ĠDe":3799,"github":3800,"Ġguilty":3801,"ĠBar":3802,"unc":3803,"Ġcoming":3804,"Ġge":3805,"Ġdifferences":3806,"ĠSm":3807,"ped":3808,"Ġplasma":3809,"Ġinvention":3810,"oke":3811,"Ġfight":3812,"lib":3813,"ĠMonday":3814,"ĠChina":3815,"ĠPol":3816,"Ġspectrum":3817,"Ġnote":3818,"Ġbuilding":3819,"\".":3820,"ĠWhile":3821,"iable":3822,"Ġhospital":3823,"Ġdiseases":3824,"ĠMarch":3825,"Ġderivative":3826,"bert":3827,"ano":3828,"otic":3829,"oscopic":3830,"Ġactive":3831,"ĠDes":3832,"active":3833,"Ġprimarily":3834,"Ġautomatically":3835,"Ġguidelines":3836,"Ġonline":3837,"urb":3838,"Ġequipment":3839,"kappa":3840,"Ġexplicit":3841,"eless":3842,"Ġregular":3843,"Ġ2014":3844,"Ġgrad":3845,"['":3846,"alysis":3847,"istry":3848,"Ġmessage":3849,"Ġinhibit":3850,"().":3851,"Ġcommittee":3852,"eline":3853,"ĠReg":3854,"Ġwait":3855,"Ġrout":3856,"df":3857,"Ġfailed":3858,"ially":3859,"oes":3860,"stein":3861,"Ġwhose":3862,"Ġoffice":3863,"ĠFirst":3864,"Ġconstruct":3865,"Ġappeared":3866,"lor":3867,"Ġsaw":3868,"Ġwrite":3869,"Ġsensitivity":3870,"Ġ-->":3871,"Ġtherapy":3872,"ĠTechn":3873,"Ġlate":3874,"ours":3875,"Ġstyle":3876,"Ġopportunities":3877,"Controller":3878,"Ġleave":3879,"Ġsyn":3880,"Def":3881,"Ġcosts":3882,"Ġstimul":3883,"Ġalthough":3884,"ĠPakistan":3885,"Ġpurch":3886,"MA":3887,"BC":3888,"ued":3889,"Ġheat":3890,"summary":3891,"bre":3892,"Ġmortality":3893,"fil":3894,"Ġpractice":3895,"Ġsituation":3896,"Ġcharge":3897,"Ġsaying":3898,"Ġscheme":3899,"orizontal":3900,"ĠWITH":3901,"ĊĊĉ":3902,"Ġoffer":3903,"Ġcountries":3904,"quad":3905,"onic":3906,"Ġquarter":3907,"Ġtakes":3908,"Ġheavy":3909,"OW":3910,"Ġrelative":3911,"Ġsubstrate":3912,"Ġlegal":3913,"ancy":3914,"mark":3915,"ĠOR":3916,"Ġfat":3917,"ĠDNA":3918,"sw":3919,"Class":3920,"eng":3921,"Ġmixture":3922,"ĠHouse":3923,"######":3924,"Ġwall":3925,"çļĦ":3926,"âĢĲ":3927,"Ġrecently":3928,"idge":3929,"Ġdriving":3930,"Ġuniform":3931,"Ġprefer":3932,"Ġrot":3933,"ĠIran":3934,"db":3935,"ĠCons":3936,"Ġuncertain":3937,"}_{\\":3938,"Ġasp":3939,"Path":3940,"Ġsufficient":3941,"ĠEd":3942,"ankruptcy":3943,"âĢ¢":3944,"Ġhousing":3945,"source":3946,"Ġvot":3947,"Ġteach":3948,"vey":3949,"Ġintr":3950,"arrow":3951,"Ġmargin":3952,"itable":3953,"esis":3954,"ĠDef":3955,"pped":3956,"Ġgives":3957,"||":3958,"chi":3959,"Ġjournal":3960,"cap":3961,"Ġste":3962,"Ġcenter":3963,"Ð°Ð":3964,"Ġsubsequent":3965,"Ġintelligence":3966,"utrition":3967,"Ġ2016":3968,"Ġnature":3969,"Ġserious":3970,"ĠQu":3971,"Qu":3972,"lete":3973,"asing":3974,"ĠVirginia":3975,"Ġguarant":3976,"Ad":3977,"igen":3978,"Ġdefendants":3979,"Ġstage":3980,"ĠAmerica":3981,"anging":3982,"Ġspecies":3983,"';":3984,"Ġprime":3985,"Ġidentify":3986,"Ġorg":3987,"Ġenh":3988,"Ġ31":3989,"ĠIS":3990,"Ġtried":3991,"\\].":3992,"ĠSome":3993,"Ġappro":3994,"Ġbalance":3995,"American":3996,"Ġanyone":3997,"gl":3998,"Ġhydro":3999,"Ġimages":4000,"Ġeveryone":4001,"Ġlibrary":4002,"ĠTuesday":4003,"protobuf":4004,"Ġfeed":4005,"ĠUsing":4006,"illing":4007,"Se":4008,"Ġdouble":4009,"pat":4010,"Ġtrack":4011,"Ġ2015":4012,"ĠOff":4013,"Ġjury":4014,"Ġliving":4015,"adem":4016,"Ġult":4017,"^[@":4018,"Ġunique":4019,"aries":4020,"One":4021,"ĠWar":4022,"BS":4023,"Ġles":4024,"omb":4025,"Ġantibodies":4026,"Ġhope":4027,"prop":4028,"Ġindividuals":4029,"encies":4030,"Ġord":4031,"Ġ/*":4032,"Ġbroad":4033,")-":4034,"ils":4035,"Ġselected":4036,"\\;\\;\\;\\;":4037,"Ġwarrant":4038,"map":4039,"Ġscale":4040,"Ġextremely":4041,"Ġvers":4042,"Ġchoice":4043,"Ġfederal":4044,"ayout":4045,"izes":4046,"Ġspirit":4047,"ball":4048,"Ġways":4049,"Ġmeasured":4050,"gy":4051,"Ġprocedures":4052,"Ġissued":4053,"mand":4054,"Ġ///":4055,"Ġchosen":4056,"Ġdiss":4057,"Ġassum":4058,"Ġdesigned":4059,"Ġduty":4060,"PL":4061,"Ġoperation":4062,"\\'":4063,"čĊĠ":4064,"Ġthousands":4065,"Ġallowed":4066,"pack":4067,"Test":4068,"]^":4069,"uel":4070,"otherapy":4071,"iring":4072,"asis":4073,"Ġhighly":4074,"ĠAlthough":4075,"room":4076,"Ġthemselves":4077,"Ġparties":4078,"uthor":4079,"Ġisolated":4080,"ĠJudge":4081,"Ġspeed":4082,"Ġdetails":4083,"Ġfit":4084,"}}$":4085,"Time":4086,"hand":4087,"Ġmembrane":4088,"Ġfreedom":4089,"Ġpublished":4090,"ĠSen":4091,"cell":4092,"Ġbecame":4093,"info":4094,"Ġassist":4095,"Ġdoct":4096,"Lambda":4097,"Ġfailure":4098,"ae":4099,"ĠSer":4100,"Ġprinciples":4101,"bm":4102,"ĠNow":4103,"cast":4104,"Ġfib":4105,"inity":4106,"length":4107,"Ġ2010":4108,"apter":4109,"Ġmetabol":4110,"Ðµ":4111,"Ġbox":4112,"stance":4113,"ĠThursday":4114,"ĠMichigan":4115,"cd":4116,"Ġpolicies":4117,"Of":4118,"Ġcomment":4119,"item":4120,"Ġcomposite":4121,"IF":4122,"crib":4123,"enses":4124,"Ġdiabetes":4125,"index":4126,"....":4127,"Ġduration":4128,"node":4129,")$,":4130,"Ġ:=":4131,"Ġ2011":4132,"!!":4133,"Ġintensity":4134,"ä¸":4135,"inated":4136,"Ġprice":4137,"Ġhospitals":4138,"Ġvisit":4139,"She":4140,"ĠĠĠĠĠĠĠĠĠĠĠĠĠĠĠ":4141,"Ġbleeding":4142,"ĠMERCHANTABILITY":4143,"Ġstress":4144,"Ġexpressed":4145,"Ġgoal":4146,"ĠFrench":4147,"ilit":4148,"CE":4149,"Ġexpansion":4150,"Ġround":4151,"Ġcentral":4152,"Ġtechnology":4153,"Ġsort":4154,"abled":4155,"Ġnotice":4156,"Ġinfrastructure":4157,"Ġhar":4158,"');":4159,"Ġcurrently":4160,"Ġequal":4161,"Ġleading":4162,"ĠAc":4163,"}.":4164,"ĠSunday":4165,"Ġrecovery":4166,"burg":4167,"^+":4168,"EST":4169,"amespace":4170,"Ġecho":4171,"Ġ35":4172,"Ġelection":4173,"ography":4174,"ĠAM":4175,"base":4176,"ĠCal":4177,"Ġtransition":4178,"Ġfast":4179,"Ġequation":4180,"ube":4181,"ĠInternet":4182,"Ġcrucial":4183,"Des":4184,"Ġpred":4185,"Ġled":4186,"Ġoptions":4187,"ui":4188,"Ġanalog":4189,"ico":4190,"Ġwindow":4191,"owing":4192,"igation":4193,"Ġeasily":4194,"());":4195,"Ġcaused":4196,"ird":4197,"Ġbudget":4198,"Ġemerg":4199,"ecting":4200,"ĠSw":4201,"that":4202,"Ġoverall":4203,"ica":4204,"Ġsoon":4205,"Ġcommand":4206,"ĠStud":4207,"CA":4208,"Ġ\\<":4209,"Ġinjury":4210,"Ġpolynomial":4211,"iness":4212,"Ġgave":4213,"Ġpush":4214,"Ġscore":4215,"Ġmeaning":4216,"Ġmanagement":4217,"Ġbackground":4218,"ĠEl":4219,"Ġhimself":4220,"Ġentitled":4221,"Ġproof":4222,"Ġve":4223,"ulate":4224,"Ġfiled":4225,"ĠRepublic":4226,"Ġten":4227,"Ġconnection":4228,"Ġpull":4229,"Ġfair":4230,"oul":4231,"Exception":4232,"Ġlimits":4233,"Ġaw":4234,"Ġweak":4235,"ĠNone":4236,"ĠTe":4237,"-----":4238,"ĠDetermine":4239,"Ġgalax":4240,"Ġgovern":4241,"itis":4242,"och":4243,"Ġthreat":4244,"ĠMatthew":4245,"ama":4246,"CP":4247,"Ġbrain":4248,"Ġextra":4249,"Ġallows":4250,"Ġparameter":4251,"Ġbelieved":4252,"Ġhit":4253,"âĢĥ":4254,"Ġlocation":4255,"Ġche":4256,"Ġswitch":4257,"ĠFurther":4258,"align":4259,"TP":4260,"icated":4261,"Ġalone":4262,"iding":4263,"ĠAmazon":4264,"count":4265,"Ġacqu":4266,"Ġapply":4267,"Ġdenominator":4268,"Ġstated":4269,"Ġclearly":4270,"Ġfriends":4271,"Ġcritical":4272,"fn":4273,"ether":4274,"ails":4275,"Ġdistance":4276,"oding":4277,"Ġbuy":4278,"Ġprices":4279,"ĠCopyright":4280,"ris":4281,"Ġ00":4282,"};":4283,"document":4284,"Ġthreshold":4285,"ecutive":4286,"ÑĤ":4287,"Ġvariable":4288,"Ġ($":4289,"Ġreduce":4290,"Exp":4291,"âĢĬ":4292,"Ġheight":4293,"%,":4294,"lem":4295,"čĊĠĠĠĠĠ":4296,"Ġ2017":4297,"Ġfeature":4298,"},\\":4299,"ĠTrans":4300,"Ġelectro":4301,"ersion":4302,"Ġcardiovascular":4303,"Ġwonder":4304,"New":4305,"ĠAssociation":4306,"duc":4307,"Ġreligious":4308,"Ab":4309,"SC":4310,"static":4311,"ĠVal":4312,"Ġask":4313,"rier":4314,"Ġleaders":4315,"osing":4316,"opl":4317,"ulf":4318,"Ġestablished":4319,"force":4320,"(),":4321,"ares":4322,"Ġtemperatures":4323,"SP":4324,"Now":4325,"icial":4326,"Ġones":4327,"Ġvirtual":4328,")).":4329,"using":4330,"encing":4331,"Ġbaby":4332,"athemat":4333,"Ġboard":4334,"here":4335,"ãĢ":4336,"Ġneither":4337,"icles":4338,"inf":4339,"Ġ2008":4340,"Ġbenefits":4341,"Ġreduction":4342,"Ġdeb":4343,"Ġparticipants":4344,"Ġfields":4345,"ĠHamilton":4346,"oe":4347,"stream":4348,"Ġexcept":4349,"They":4350,"umption":4351,"._":4352,"Ġstri":4353,"Ġrecip":4354,"ĠEngland":4355,"Ġusers":4356,"Ġregarding":4357,"asion":4358,"čĊ":4359,"Ġengine":4360,"Ġphilosoph":4361,"Ġactual":4362,"Ġknew":4363,"Ġparts":4364,"cin":4365,"Ġposs":4366,"Ġingredients":4367,"Ġhighest":4368,"hold":4369,"sf":4370,"Ġexcellent":4371,"BA":4372,"ĠIslam":4373,"Ġdiscl":4374,"oad":4375,"ester":4376,"ĠRev":4377,"Ġdatas":4378,"Ġtrigger":4379,"ĠLa":4380,"Ġfiles":4381,"Ġsuffer":4382,"Ġremains":4383,"Ġlocated":4384,"Ġcontaining":4385,"Ġfundamental":4386,"overline":4387,"Ġfrequency":4388,"Ġpen":4389,"True":4390,"Ġcontains":4391,"Ġsupported":4392,"Ġserver":4393,"Ġinstrument":4394,"Ġgenerated":4395,"inate":4396,"Ġattention":4397,"ĠWindows":4398,"ĠSaturday":4399,"Ġunderstanding":4400,"Ġappears":4401,"Ġreceive":4402,"ptions":4403,"Ġoppos":4404,"Ġslow":4405,"TER":4406,"Ġax":4407,"Ġactivities":4408,"Ġsolid":4409,"Ġwidely":4410,"Ġdog":4411,"Ġtumors":4412,")**":4413,"Ġfinding":4414,"unk":4415,"Ġfine":4416,"]--[@":4417,"']":4418,"Ġconc":4419,"Ġweb":4420,"geq":4421,"Ġdisp":4422,"From":4423,"ĠIL":4424,"ĠSyri":4425,"ATE":4426,"Ġpress":4427,"Ġremember":4428,"Ġ2009":4429,"ensuremath":4430,"Ġworth":4431,"Ġeconomic":4432,"Ġsites":4433,"Ġaud":4434,"Ġhop":4435,"ĠWest":4436,"target":4437,"Ġdu":4438,"Ġnumer":4439,"Ġunivers":4440,"Label":4441,"jpg":4442,"Ġinform":4443,"ĠAD":4444,"ĠCenter":4445,"Ġdeclared":4446,"inger":4447,"ĠSchool":4448,"Ġtrust":4449,"rep":4450,"Ġnor":4451,"ĠAN":4452,"Rec":4453,"Ġcontrast":4454,"Ġspeak":4455,"vis":4456,"hal":4457,"Ġmid":4458,"tx":4459,"Ġdiscovered":4460,"Ġscenario":4461,"Ġvariables":4462,"Ġwasn":4463,"Ġqual":4464,"Ġcapt":4465,"ĠAccording":4466,"Ġstar":4467,"Ġdistinguish":4468,"*-":4469,"ĠEm":4470,"Ġmaintenance":4471,"Ġreaction":4472,"Ġsum":4473,"Ġconcentration":4474,"ado":4475,"Ġmarijuana":4476,"Ġgoes":4477,"iences":4478,"Ġschol":4479,"Ġson":4480,"Ġsenior":4481,"Ġfabric":4482,"Ġlegisl":4483,"Ġtim":4484,"Fr":4485,"call":4486,"Ġill":4487,"Ġplease":4488,"Ġenter":4489,"Ġculture":4490,"Ġauthors":4491,"pan":4492,"ĠIndia":4493,"Ġoxygen":4494,"Ġconstraints":4495,"image":4496,"Ġtraffic":4497,"ĠĠĠĠĠĠĠĠĠĠĠĠĠĠĠĠ":4498,"Ġrules":4499,"ĠData":4500,"ĠMark":4501,"Ġinstructions":4502,"Ġsweet":4503,".\\":4504,"Ġpo":4505,"Ġstore":4506,"Ġhon":4507,"Ġprevalence":4508,"PR":4509,"Ġuses":4510,"Ġbecoming":4511,"Ġapparatus":4512,"oddsidemargin":4513,"Ġapplications":4514,"Ġreports":4515,"Handler":4516,"Ġcop":4517,"Ġtheoretical":4518,"Ġdaughter":4519,"Ġhearing":4520,"Ġsurpr":4521,"CS":4522,"ql":4523,"Ġ]":4524,"Ġinsp":4525,"rich":4526,"Ġmother":4527,"Ġoperator":4528,"Ġinterview":4529,"Ġinteresting":4530,"unn":4531,"Ġbecomes":4532,"related":4533,"oon":4534,"Ġsetting":4535,"Ġdocuments":4536,"Form":4537,"ĠOf":4538,"otal":4539,"Ġhands":4540,"edd":4541,"ham":4542,"Ġrestaur":4543,"ĠMassachusetts":4544,"BD":4545,"Ġdead":4546,"Ġshowing":4547,"Ġconstruction":4548,"Ġsampling":4549,"Ġinn":4550,"ĠUSA":4551,"Ġstrategies":4552,"[]":4553,"Ġitems":4554,"Ġpolymer":4555,"ellow":4556,"Ġhybrid":4557,"ĠAngeles":4558,"ĠHar":4559,"color":4560,"Ġsmaller":4561,"âĢĶâĢĶâĢĶâĢĶ":4562,"zz":4563,"oses":4564,"Ġsurgical":4565,"icip":4566,"Ġeight":4567,"Ġresulting":4568,"ĠDemocr":4569,"Ġyield":4570,"ensions":4571,"Ġmajority":4572,"Ġneurons":4573,"Ġclust":4574,"Ġimmigr":4575,"Ġcorrection":4576,"Item":4577,"erved":4578,"ios":4579,"Ġpolit":4580,"Ġstaff":4581,"bb":4582,"Ġcognitive":4583,"object":4584,"Ġmanuscript":4585,"Ġdomain":4586,"enced":4587,"Ġregions":4588,"pa":4589,"Ġcoefficients":4590,"iter":4591,"Ġ<<":4592,"Ġproduce":4593,"Ġtissues":4594,"Ġsymmetry":4595,"Ġinjuries":4596,"*.":4597,"formation":4598,"ĠNe":4599,"Ġstock":4600,"Ġvolume":4601,"side":4602,"resent":4603,"Ġdefinitely":4604,"rying":4605,"ĠPhiladelphia":4606,"Ġtransport":4607,"Ct":4608,"Ġconsequ":4609,"Ġ||":4610,"Ġreasonable":4611,"fortunately":4612,"Ġproduced":4613,"Ġ45":4614,"Ġinstit":4615,"rypt":4616,"Ġmedium":4617,"Ġadjacent":4618,"Ġindicated":4619,"Ġturned":4620,"Ġextr":4621,"Ġskin":4622,"Ġsafety":4623,"reated":4624,"script":4625,"Ġdefense":4626,"Ġlooks":4627,"Ġstarting":4628,"tt":4629,"Ġdivided":4630,"ĠMedicine":4631,"ĠPublic":4632,"attle":4633,"AIMS":4634,"Ġreading":4635,"State":4636,"Ġdecided":4637,"Ġatmosphere":4638,"Ġ!":4639,"Ġcontinues":4640,"Ass":4641,"Ġsound":4642,"atric":4643,"Ġforms":4644,"Ġpetition":4645,"Ġgets":4646,"ani":4647,"Ġsup":4648,"Ġ80":4649,"Ġlabor":4650,"Ġvitro":4651,"Ġbrought":4652,"ĠTH":4653,"ĠFrom":4654,"orts":4655,"ponent":4656,"Ġexists":4657,"ls":4658,"ĠBu":4659,"Ġbed":4660,"Ġworked":4661,"='":4662,"ĊĠĠĠĠĠĠĠĠĠĠĠĠĠĠĠĠĠĠĠĠĠĠĠĠĠĠĠ":4663,"Î²":4664,"Ġdark":4665,"Ġdefine":4666,"){#":4667,"Ġdiscretion":4668,"ĠCO":4669,"*(":4670,"Ġcomprehensive":4671,"Ġfix":4672,"EG":4673,"ĠInstead":4674,"Ġstand":4675,"Ġfraud":4676,"Ġmaterials":4677,"enz":4678,"ĠHuman":4679,"':":4680,"ĠTable":4681,"alth":4682,"Ġinteraction":4683,"Ġroad":4684,"ceed":4685,"free":4686,"\\|":4687,"Ġmaximum":4688,"pper":4689,"ĠDis":4690,"Ġpromot":4691,"TYPE":4692,"anguage":4693,"Ġstd":4694,"Ġroot":4695,"Ġmg":4696,"/(":4697,"Ġcomputer":4698,"google":4699,"Ġextract":4700,"under":4701,"Ġfacts":4702,"Ġunderstood":4703,"ĠArizona":4704,"}-":4705,"Ġ95":4706,"book":4707,"Ġzero":4708,"Ġseparate":4709,"------":4710,"Ġmanifest":4711,"Ġitem":4712,"ĠChar":4713,"elle":4714,"Ġnoted":4715,"_.":4716,"Ġ->":4717,"Ġnorm":4718,"Ġconcerning":4719,"Ġlov":4720,"Ġneut":4721,"now":4722,"ights":4723,"Ġdrive":4724,"Ġplayed":4725,"Ġliability":4726,"Ġdoor":4727,"Ġtaste":4728,"Ġattached":4729,"Ġabsolute":4730,"py":4731,"Ġinternal":4732,"fe":4733,"Ġthroughout":4734,"len":4735,"Ġgun":4736,"Ġbasic":4737,"olecules":4738,"check":4739,"Ġprocesses":4740,"MR":4741,"ĠMod":4742,"Ã³":4743,"Ġeth":4744,"Ġachieve":4745,"Ġsources":4746,"ĠIraq":4747,"Ġtreat":4748,"ĠSection":4749,"ns":4750,"inant":4751,"Ġhealthy":4752,"Ġagree":4753,"Ġformation":4754,"Node":4755,"Ġmagnetic":4756,"Ġtotally":4757,"Ġchannels":4758,"Ġcool":4759,"Ġcollect":4760,"Ġprosecut":4761,"omas":4762,"ĠIllinois":4763,"Info":4764,"ifier":4765,"Ġdrop":4766,"Ġtests":4767,"004":4768,"``":4769,"Ġmode":4770,"Ġplayer":4771,"Ġheard":4772,"Ġimpossible":4773,"ishing":4774,"Ġtruly":4775,"Ġdest":4776,"Ġwrit":4777,"Ġdeliver":4778,"Ġfunctional":4779,"Ġsymptoms":4780,"Ġmessages":4781,"Ġ90":4782,"Event":4783,"lic":4784,"agr":4785,"ampionship":4786,"Ġconnected":4787,"duces":4788,"Ġactions":4789,"Ġconducted":4790,"Ġmarriage":4791,"Ġformed":4792,"imb":4793,"aling":4794,"Ġtoxic":4795,"Ġreceptors":4796,"Ġpreparation":4797,"zeta":4798,"Ġ});":4799,"Ġassembly":4800,"Ġremove":4801,"Ġcollection":4802,"Us":4803,"Ġfresh":4804,"Ġkn":4805,"eph":4806,"Ġreflect":4807,"approx":4808,"upport":4809,"Ġready":4810,"Ġcombination":4811,"Ġaward":4812,"Vert":4813,"Ġdiagnosis":4814,"Ġcrazy":4815,"Ġmilk":4816,"Ġlives":4817,"Ġconcept":4818,"Ġclosed":4819,"lob":4820,"det":4821,"ĠCH":4822,"private":4823,"============================":4824,"Ġ48":4825,"wedge":4826,"lt":4827,"Ġwide":4828,"Ġsets":4829,"SA":4830,"Ġsold":4831,"ĠID":4832,"Ġmount":4833,"friend":4834,"which":4835,"uses":4836,"Ġincreases":4837,"Ġaware":4838,"Ġ/**":4839,"Ġscientific":4840,"SU":4841,"irt":4842,"Ġ\"\"":4843,"Ġphone":4844,"rad":4845,"title":4846,"Ġ37":4847,"enu":4848,"Ġri":4849,"ĠMore":4850,"Ġpictures":4851,"Le":4852,"Ġ33":4853,"Ġpoly":4854,"âĢ¦âĢ¦âĢ¦âĢ¦âĢ¦âĢ¦âĢ¦âĢ¦âĢ¦âĢ¦âĢ¦âĢ¦âĢ¦âĢ¦âĢ¦âĢ¦âĢ¦âĢ¦âĢ¦âĢ¦âĢ¦âĢ¦âĢ¦âĢ¦âĢ¦âĢ¦âĢ¦âĢ¦âĢ¦âĢ¦âĢ¦âĢ¦âĢ¦âĢ¦âĢ¦âĢ¦âĢ¦âĢ¦âĢ¦âĢ¦âĢ¦âĢ¦âĢ¦âĢ¦âĢ¦âĢ¦âĢ¦âĢ¦âĢ¦âĢ¦âĢ¦âĢ¦âĢ¦âĢ¦âĢ¦âĢ¦âĢ¦âĢ¦":4855,"Ġplaying":4856,"Ġgastrointestinal":4857,")^":4858,"PD":4859,"umin":4860,"Ġseven":4861,"Context":4862,".[":4863,"Ġlif":4864,"Ġrace":4865,"Ġresources":4866,"olved":4867,"Ġsudden":4868,"Ġcrisis":4869,"grad":4870,"start":4871,"Ġconfig":4872,"Ġsimultaneously":4873,"Ġcalculated":4874,"FA":4875,"SM":4876,"isation":4877,"oto":4878,"ĠGe":4879,"ways":4880,"}}_":4881,"Ġdescription":4882,"Ġsemiconductor":4883,"Ġbow":4884,"Ġdiameter":4885,"Ġdemonstrated":4886,"Ġsteps":4887,"Ġquantum":4888,"conn":4889,"aine":4890,"HT":4891,"gener":4892,"Ġspin":4893,"berg":4894,"Ġprogression":4895,"Ġhum":4896,"Ġlooked":4897,"Ġlargely":4898,"rick":4899,"jo":4900,"ebug":4901,"Ġmoved":4902,"float":4903,"Ġequilibrium":4904,"ustom":4905,"Ġchoose":4906,"armaceutical":4907,"ponse":4908,"parent":4909,"Ġparent":4910,"iced":4911,"Ġmeeting":4912,"Ġlaser":4913,"wise":4914,"Another":4915,"PO":4916,"Î±":4917,"Ġtoward":4918,"Ġign":4919,"Ġhappened":4920,"Ġpackage":4921,"Ġmonitoring":4922,"Ġpor":4923,"Ġprove":4924,"Ġproviding":4925,"Ġcapital":4926,"Ġperipheral":4927,"Ġmorning":4928,"Ġsegment":4929,"Ġfather":4930,"ĠRed":4931,"Ġplant":4932,"Filter":4933,"ract":4934,"ĠLaw":4935,"Ġmoving":4936,"Ġfamiliar":4937,"Ġexposure":4938,"ĠClinton":4939,"jection":4940,"Ġconsistent":4941,"Ġthermal":4942,".'":4943,"Ġthinking":4944,"Ġdelay":4945,"Here":4946,"ĠĠĠĠĠĠĠĠĠĠĠĠĠĠĠĠĠ":4947,"input":4948,"Ġshape":4949,"Ġ(\\":4950,"Ġmanifold":4951,")/(-":4952,"iam":4953,"Ġgauge":4954,"xy":4955,"Ġsignificance":4956,"stitution":4957,"Out":4958,"Ġ\\,":4959,"Ġbul":4960,"gs":4961,"style":4962,"Ġpow":4963,"Ġpriv":4964,"Ġcontinuous":4965,"Ġgiving":4966,"Ġvivo":4967,"Ġâī¥":4968,"pc":4969,"Ġdamage":4970,"tered":4971,"Ġhttps":4972,"\\,":4973,"ĠEq":4974,"Ġcoach":4975,"Ġtablespoons":4976,"Ġtask":4977,"Ġcardiac":4978,"abs":4979,"oz":4980,"ĠList":4981,"Ġremoval":4982,"urity":4983,"Ġpeak":4984,"orrect":4985,"({":4986,"False":4987,"Big":4988,"empt":4989,"ĠGet":4990,"Ġgonna":4991,"ĠMinnesota":4992,"ada":4993,"Ġscheduled":4994,"ĠCR":4995,"ĠFl":4996,"Ġdetected":4997,"rence":4998,"ĠKorea":4999,"Ġfamilies":5000,"otype":5001,"002":5002,"Ġpul":5003,"^{(":5004,"Ġharm":5005,"à¤":5006,"aly":5007,"Log":5008,"hy":5009,"vest":5010,"Ġobs":5011,"\\],":5012,"Ġindicate":5013,"Ġnearly":5014,"acellular":5015,"Ġtelevision":5016,"apping":5017,"ĠIndian":5018,"Ġamazing":5019,"Ġuns":5020,"Ġmusic":5021,"Ġtelephone":5022,"Ġembodiment":5023,"Ġmiddle":5024,"Ġdollars":5025,"asm":5026,"avascript":5027,"Ġsecret":5028,"Ġblog":5029,"Sigma":5030,"ĠTest":5031,"Ġ2018":5032,"host":5033,"Ġcholesterol":5034,"Ġruling":5035,"Ġprem":5036,"true":5037,"čĊĠĠĠĠĠĠĠ":5038,"ocket":5039,"Ġhyp":5040,"Ġantibody":5041,"ĠAL":5042,"Ġmetal":5043,"Ġtasks":5044,"/(-":5045,"Ġconspiracy":5046,"pol":5047,"ford":5048,"enty":5049,"Ġdistributed":5050,"Ġconversation":5051,"ĠKing":5052,"acing":5053,"}}(":5054,"Ġworkers":5055,"}=\\":5056,"range":5057,"ĠHigh":5058,"EP":5059,"ectors":5060,"Ġvehicle":5061,"Ġmac":5062,"Ġhear":5063,"ĠSocial":5064,"ainer":5065,"ĠHer":5066,"cles":5067,"Ġnil":5068,",\\*^,":5069,"Ġexisting":5070,"Ġpopular":5071,"Ġcoefficient":5072,"IA":5073,"Ġlip":5074,"Ġrob":5075,"Ġcomments":5076,"case":5077,"esh":5078,"Ġbenefit":5079,"ĠFigure":5080,"RDPCSTX":5081,"ĠPost":5082,"IB":5083,"Ġsuggested":5084,"Ġdiscussed":5085,"run":5086,"going":5087,"eah":5088,"Ġband":5089,"())":5090,"AV":5091,"Ġchance":5092,"\"></":5093,"ration":5094,"Ġadopted":5095,"Ġpot":5096,"Ġfoot":5097,"Ġroll":5098,"ĠServices":5099,"ename":5100,"Ġcert":5101,"iqu":5102,"icians":5103,"Ġ((":5104,"ĠSan":5105,"Ġmedicine":5106,"Ġcorpor":5107,"Ġmag":5108,"Ġfinally":5109,"ĠSOFTWARE":5110,"]:":5111,"Ġmm":5112,"ĠHol":5113,"ka":5114,"Ġimag":5115,"ĠAlso":5116,"Ġouter":5117,"ĠDivision":5118,"Ġapparently":5119,"ĠAppellant":5120,"Ġhor":5121,"atively":5122,"ĠIR":5123,"Ġwithdraw":5124,"Ġ34":5125,"mediate":5126,"Ġsafe":5127,"Ġafraid":5128,"Ġadministered":5129,"pert":5130,"Ġbundle":5131,"amin":5132,"Ġlabel":5133,"ĠMus":5134,"\\/":5135,"Ġregul":5136,"UM":5137,"ĠPark":5138,"Ġ70":5139,"Color":5140,"rest":5141,"ĠMe":5142,"Ġforeign":5143,"Ġinfection":5144,"Ġletter":5145,"cons":5146,"met":5147,"Ġactivation":5148,"xx":5149,"Ġcolon":5150,"Ġtesting":5151,"Ġbank":5152,"Ġdiff":5153,"urt":5154,"ldots":5155,"VER":5156,"Ġnation":5157,"Ġgreen":5158,"##":5159,"ming":5160,"Ġincome":5161,"Ġdev":5162,"Ġperspective":5163,"Ġunits":5164,"ĠCommission":5165,"Ġbreast":5166,"Trans":5167,"long":5168,"Ġmanner":5169,"ĠUK":5170,"gu":5171,"Box":5172,"Ġemail":5173,"Ġsummary":5174,"Ġsend":5175,"Ġwa":5176,"php":5177,"Ġdrugs":5178,"Oh":5179,"Ġorganizations":5180,"board":5181,"ĊĊĠĠĠĠĠĠĠĠĠĠĠ":5182,"ager":5183,"space":5184,"cos":5185,"ned":5186,"config":5187,"Ġstudied":5188,"Ġfinite":5189,"Element":5190,"Ġtree":5191,"ĠSoftware":5192,"Ġavailability":5193,"ping":5194,"Ġfashion":5195,"ĠAnother":5196,"ĠEarth":5197,"ĠWhite":5198,"Ġdiscovery":5199,"olf":5200,"message":5201,"ĠEven":5202,"java":5203,"Ġclick":5204,"Ġyourself":5205,"Ġresponsible":5206,"Ġprobability":5207,"uate":5208,"Ð¸":5209,"Ġshooting":5210,"ĠSecretary":5211,"Ġfear":5212,"ĠRNA":5213,"Ġ36":5214,"Ġunlikely":5215,"CM":5216,"Ġtrade":5217,"ĠJapanese":5218,"Ġbodies":5219,"aterials":5220,"Ġhem":5221,"Inter":5222,"airs":5223,"ĠTO":5224,"Ġapproximately":5225,"ĠSpec":5226,"Ġsexual":5227,"Ġendothelial":5228,"Ġobjects":5229,"idden":5230,"Ġneglig":5231,"Ġshot":5232,"Ġdomestic":5233,"ĠFrancisco":5234,"fa":5235,"pass":5236,"icle":5237,"[\\":5238,"Ġpancreatic":5239,"Ġinvestigation":5240,"Ġmale":5241,"Array":5242,"ble":5243,"ĠAnt":5244,"Ġstation":5245,"Ġprograms":5246,"Ġdenied":5247,"Ġmovement":5248,"ĠLouis":5249,"sur":5250,"orb":5251,"Ġ2000":5252,"Ġlayers":5253,"rupt":5254,"OU":5255,"ĠRel":5256,"ĠPM":5257,"Ġcaught":5258,"Ġ42":5259,"Ġpanel":5260,"Ġaccordance":5261,"______":5262,"ĠSebastian":5263,"Ġrecords":5264,"Ġcompar":5265,"Ġvariety":5266,"idget":5267,"pe":5268,"Ġ=\\":5269,"Ġcontinued":5270,"Ġstructures":5271,"[^":5272,"Ġwife":5273,"Ġjuice":5274,"Ġtomorrow":5275,"âĢ²":5276,"ĠOther":5277,"User":5278,"aker":5279,"Ġpassed":5280,"Ġwave":5281,"ESS":5282,"ĠView":5283,"ky":5284,"Ġcompr":5285,"ĠSim":5286,"Ġbeginning":5287,"Size":5288,"Ġsave":5289,"Ġcontrovers":5290,"iers":5291,"Ġcarried":5292,"ara":5293,"aper":5294,")?":5295,"Ġunnecessary":5296,"*~":5297,"Ġbacter":5298,"Ġgastric":5299,"Ġassume":5300,"dep":5301,"Ġacceler":5302,"ĠMon":5303,"ĠCancer":5304,"Ġliver":5305,"ĠCode":5306,"ifferent":5307,"TS":5308,"Ġsing":5309,"Ġexperimental":5310,"struction":5311,"Ġseed":5312,"ĠCarolina":5313,"Ġborder":5314,"Ġdischarge":5315,"Ġoptim":5316,"Ġthick":5317,"Ġprocessing":5318,"ĠJewish":5319,"Ġcatch":5320,"Read":5321,"ĠCan":5322,"Ġut":5323,"Ġelectrical":5324,"ests":5325,"Ġnovel":5326,"Ġpseud":5327,"ĠRef":5328,"Ġtalking":5329,"Ġfigures":5330,"Ġemotional":5331,"aim":5332,"Ġstuff":5333,"Ġstatute":5334,"olid":5335,"ĠSur":5336,"Ġconver":5337,"Ġexception":5338,"Ġdetection":5339,"TT":5340,"Ġhappy":5341,"Ġarrived":5342,"Ġinflu":5343,"CO":5344,"Ġupdated":5345,"Ġinduced":5346,"ĠHospital":5347,"Up":5348,"otimes":5349,"Ġvan":5350,"Ġsuccessful":5351,"Ġrefriger":5352,"ĠCON":5353,"Ġcorrelation":5354,"ĠStat":5355,"ading":5356,"Ġcompliance":5357,"ĠJournal":5358,"PP":5359,"Ġremaining":5360,"AY":5361,"Ġpark":5362,"Ġkin":5363,"Ġcore":5364,"ĠDonald":5365,"Ġprofessional":5366,"Ġsell":5367,"Ġagg":5368,"Ġsorry":5369,"inding":5370,"Ġtested":5371,"aud":5372,"Ġkilled":5373,"ĠGen":5374,"ĠĠĠĠĠĠĠĠĠĠĠĠĠĠĠĠĠĠ":5375,"etroleum":5376,"Ġcolleagues":5377,"ĠTR":5378,"ĠOhio":5379,"Call":5380,"Ġselection":5381,"Ġbond":5382,"Ġshift":5383,"Ġminor":5384,"Ġreached":5385,"ĠLemma":5386,"Val":5387,"\"},":5388,"AaÃĢÃłÃģÃ¡ÃĤÃ¢ÃĥÃ£ÃĦÃ¤ÃħÃ¥ÄĢÄģÄĤÄĥÄĦÄħÇįÇİÇŀÇŁÇłÇ¡ÇºÇ»ÈĢÈģÈĤÈĥÈ¦È§á¸Ģá¸ģáºļáºłáº¡áº¢áº£áº¤áº¥áº¦áº§áº¨áº©áºªáº«áº¬áºŃáº®áº¯áº°áº±áº²áº³áº´áºµáº¶áº·BbÆĢÆģÉĵÆĤÆĥá¸Ĥá¸ĥá¸Ħá¸ħá¸Ĩá¸ĩCcÃĩÃ§ÄĨÄĩÄĪÄīÄĬÄĭÄĮÄįÆĩÆĪÉķá¸Īá¸īDdÄİÄıÄĲÄĳÆĬÉĹÆĭÆĮÇħÇ²È¡Éĸá¸Ĭá¸ĭá¸Įá¸įá¸İá¸ıá¸Ĳá¸ĳá¸Ĵá¸ĵEeÃĪÃ¨ÃīÃ©ÃĬÃªÃĭÃ«ÄĴÄĵÄĶÄķÄĸÄĹÄĺÄĻÄļÄĽÈĦÈħÈĨÈĩÈ¨È©á¸Ķá¸ķá¸ĸá¸Ĺá¸ĺá¸Ļá¸ļá¸Ľá¸ľá¸Ŀáº¸áº¹áººáº»áº¼áº½áº¾áº¿á»Ģá»ģá»Ĥá»ĥá»Ħá»ħá»Ĩá»ĩFfÆĳÆĴá¸ŀá¸ŁGgÄľÄĿÄŀÄŁÄłÄ¡Ä¢Ä£ÆĵÉłÇ¤Ç¥Ç¦Ç§Ç´Çµá¸łá¸¡HhÄ¤Ä¥Ä¦Ä§ÈŀÈŁÉ¦á¸¢á¸£á¸¤á¸¥á¸¦á¸§á¸¨á¸©á¸ªá¸«áºĸIiÃĮÃ¬ÃįÃŃÃİÃ®ÃıÃ¯Ä¨Ä©ÄªÄ«Ä¬ÄŃÄ®Ä¯Ä°ÆĹÉ¨ÇıÇĲÈĪÈīÈĬÈĭá¸¬á¸Ńá¸®á¸¯á»Īá»īá»Ĭá»ĭJjÄ´ÄµÇ°ÊĿKkÄ¶Ä·ÆĺÆĻÇ¨Ç©á¸°á¸±á¸²á¸³á¸´á¸µLlÄ¹ÄºÄ»Ä¼Ä½Ä¾Ä¿ÅĢÅģÅĤÆļÇĪÈ´É«É¬ÉŃá¸¶á¸·á¸¸á¸¹á¸ºá¸»á¸¼á¸½MmÉ±á¸¾á¸¿á¹Ģá¹ģá¹Ĥá¹ĥNnÃĳÃ±ÅĥÅĦÅħÅĨÅĩÅĪÆĿÉ²ÆŀÈłÇĭÇ¸Ç¹ÈµÉ³á¹Ħá¹ħá¹Ĩá¹ĩá¹Īá¹īá¹Ĭá¹ĭOoÃĴÃ²ÃĵÃ³ÃĶÃ´ÃķÃµÃĸÃ¶ÃĺÃ¸ÅĮÅįÅİÅıÅĲÅĳÆŁÆłÆ¡ÇĳÇĴÇªÇ«Ç¬ÇŃÇ¾Ç¿ÈĮÈįÈİÈıÈªÈ«È¬ÈŃÈ®È¯È°È±á¹Įá¹įá¹İá¹ıá¹Ĳá¹ĳá¹Ĵá¹ĵá»Įá»įá»İá»ıá»Ĳá»ĳá»Ĵá»ĵá»Ķá»ķá»ĸá»Ĺá»ĺá»Ļá»ļá»Ľá»ľá»Ŀá»ŀá»Łá»łá»¡á»¢á»£PpÆ¤Æ¥á¹Ķá¹ķá¹ĸá¹ĹQqÊłRrÅĶÅķÅĸÅĹÅĺÅĻÈĲÈĳÈĴÈĵÉ¼É½É¾á¹ĺá¹Ļá¹ļá¹Ľá¹ľá¹Ŀá¹ŀá¹ŁSsÅļÅĽÅľÅĿÅŀÅŁÅłÅ¡ÈĺÈĻÊĤá¹łá¹¡á¹¢á¹£á¹¤á¹¥á¹¦á¹§á¹¨á¹©TtÅ¢Å£Å¤Å¥Å¦Å§Æ«Æ¬ÆŃÆ®ÊĪÈļÈĽÈ¶á¹ªá¹«á¹¬á¹Ńá¹®á¹¯á¹°á¹±áºĹUuÃĻÃ¹ÃļÃºÃĽÃ»ÃľÃ¼Å¨Å©ÅªÅ«Å¬ÅŃÅ®Å¯Å°Å±Å²Å³Æ¯Æ°ÇĵÇĶÇķÇĸÇĹÇĺÇĻÇļÇĽÇľÈĶÈķÈĸÈĹá¹²á¹³á¹´á¹µá¹¶á¹·á¹¸á¹¹á¹ºá¹»á»¤á»¥á»¦á»§á»¨á»©á»ªá»«á»¬á»Ńá»®á»¯á»°á»±VvÆ²Êĭá¹¼á¹½á¹¾á¹¿WwÅ´ÅµáºĢáºģáºĤáºĥáºĦáºħáºĨáºĩáºĪáºīáºĺXxáºĬáºĭáºĮáºįYyÃĿÃ½Ã¿Å¸Å¶Å·Æ³Æ´È²È³áºİáºıáºĻá»²á»³á»´á»µá»¶á»·á»¸á»¹ZzÅ¹ÅºÅ»Å¼Å½Å¾ÆµÆ¶È¤È¥ÊĲÊĳáºĲáºĳáºĴáºĵáºĶáºķáºķ":5389,"Ġcombined":5390,"udes":5391,"Ġtend":5392,"actor":5393,"Ġreturned":5394,"Ġupdate":5395,"Ġelectric":5396,"Ġdiagnostic":5397,"oney":5398,"&&":5399,"ync":5400,":\\":5401,"EE":5402,"Ġclasses":5403,"Ġjudge":5404,"Ġtruth":5405,"ĠNote":5406,"ship":5407,"Ġimproved":5408,"Ġframe":5409,"Ġrat":5410,"Ġwants":5411,"Ġserve":5412,"Ġsolutions":5413,"Ġonto":5414,"Ġthrow":5415,"Ġstroke":5416,"Ġfirm":5417,"Ġsuggests":5418,"block":5419,"Ġcareer":5420,"Ġepisode":5421,"Ġconstitutional":5422,"Ġmaybe":5423,"Ġvacuum":5424,"Yes":5425,"Ġcamp":5426,"Ġchallenge":5427,"Ġ2006":5428,"Ġoscill":5429,"********":5430,"arc":5431,"Ġrelation":5432,"Ġreplacement":5433,"Ġwavelength":5434,"Ġhour":5435,"dot":5436,"ius":5437,"Ġofficials":5438,"Pr":5439,"section":5440,"Ġcontrols":5441,"**^":5442,"Ġsentence":5443,"Ġunless":5444,"ATION":5445,"Ċĉĉĉĉĉĉ":5446,"Ġ${":5447,"ĠArt":5448,"ĠMartin":5449,"ench":5450,"Ġleads":5451,"Ġtypically":5452,"Ġultimately":5453,"Ġampl":5454,"Ġwhereas":5455,"Ġagreed":5456,"after":5457,"Ġexplain":5458,"Ġmulti":5459,"''":5460,"Ġcommit":5461,"ifying":5462,"Ġ2007":5463,"ĠNevertheless":5464,"DR":5465,"Per":5466,"itz":5467,"Ġderived":5468,"Ġcompensation":5469,"Ġdied":5470,"ĠInter":5471,"atin":5472,"Ġraised":5473,"Ġepithelial":5474,"Ġoccurred":5475,"}}{":5476,"Ġpursuant":5477,"orescence":5478,"kg":5479,"Ġdecreased":5480,"Ġpicked":5481,"Ġdiversity":5482,"Ġship":5483,"Ġinequality":5484,"Ġdistributions":5485,"Ġded":5486,"option":5487,"ocyte":5488,"Ġlegislation":5489,"anded":5490,"Ġtal":5491,"Ġspread":5492,"Dec":5493,"ĠNOT":5494,"Ġdismiss":5495,"Ġregister":5496,"lication":5497,"Ġaffected":5498,"Ġbillion":5499,"ĠSimilarly":5500,"Code":5501,"Ġrare":5502,"Rep":5503,"yr":5504,"agement":5505,"ĊĊĠĠĠĠĠ":5506,"Ġnuclear":5507,"Method":5508,"Ġgrowing":5509,"Ġautom":5510,"level":5511,"Ġrow":5512,"ĠDec":5513,"Ġedge":5514,"ĠGroup":5515,"stract":5516,"Ġbuffer":5517,"Ġnames":5518,"Ġsugges":5519,"Ġdiscrimination":5520,"ĠAppeals":5521,"ĠAdditionally":5522,"Ġdie":5523,"ĠĠĠĠĠĠĠĠĠĠĠĠĠĠĠĠĠĠĠĠĠĠĠĠĠ":5524,"api":5525,"Ġplans":5526,"Ġtools":5527,"build":5528,"Ġmo":5529,"Ġsustain":5530,"Count":5531,"hel":5532,"iant":5533,"Ġgeneration":5534,"Ġkid":5535,"Ġchemical":5536,"ĠReturn":5537,"hibits":5538,"Ġwild":5539,"Ġspent":5540,"Ġadequate":5541,"Ġod":5542,"Ġclient":5543,"dec":5544,"({\\":5545,"Ġwish":5546,"Ġrepresentation":5547,"ĠEast":5548,"ĠEuropean":5549,"Ġmolecular":5550,"Service":5551,"Ġdebt":5552,"500":5553,"Ġcohort":5554,"arb":5555,"Ġcalls":5556,"Ġasympt":5557,"Ġfeet":5558,"inflammatory":5559,"EXPECTED":5560,"Do":5561,"Su":5562,"TC":5563,"čĊĉ":5564,"open":5565,"Image":5566,"atabase":5567,"main":5568,"ĠMost":5569,"ĊĠĠĠĠĠĠĠĠĠĠĠĠĠĠĠĠĠ":5570,"Ġalgorithm":5571,"Ġsubjects":5572,"Ġestimated":5573,"Ġnone":5574,"Ġdisadvant":5575,"ĠTV":5576,"ographic":5577,"Ġloop":5578,"Field":5579,"yd":5580,"Any":5581,"ĠTennessee":5582,"OOOOOOOOOOOOOOOOOOOOOOOOOOOOOOOOOOOOOO":5583,"Ġplaces":5584,"Ġ__":5585,"Ġmigration":5586,"nutrients":5587,"ĠPal":5588,"ptr":5589,"Why":5590,"ignment":5591,"Ġprotect":5592,"ometry":5593,"Fl":5594,"Ġherself":5595,"ĠRichard":5596,"Ġmoderate":5597,"KeyWord":5598,"Ġintroduced":5599,"ingly":5600,"Ġprim":5601,"Ġsoft":5602,"actory":5603,"Ġefforts":5604,"ÑĢ":5605,"Ġhandle":5606,"Ġdiscussion":5607,"Ġplanned":5608,"ba":5609,"Ġter":5610,"Ġnet":5611,"Ġblue":5612,"ĠPARTICULAR":5613,"ien":5614,"release":5615,"Ġnice":5616,"Ġprotocol":5617,"ressive":5618,"QL":5619,"Ġandroid":5620,"olean":5621,"ires":5622,"Ġvent":5623,"Ġ&\\":5624,"Department":5625,"Ġcytok":5626,"Ġdrink":5627,"Ġexplanation":5628,"ĠBro":5629,"Ġletters":5630,"Comp":5631,"Ġdiet":5632,"Ġapoptosis":5633,"Ġmitochond":5634,"Ġlock":5635,"Ġvote":5636,"Ġprotection":5637,"inner":5638,"ĠYour":5639,"Act":5640,"==========":5641,"types":5642,"ĠNS":5643,"Ġdescribe":5644,"Ġcouldn":5645,"Ġvisual":5646,"Because":5647,"ĠArmy":5648,"ĠER":5649,"ĠPlaintiff":5650,"ĠDon":5651,"Ġunderwent":5652,"Ġsurveillance":5653,"Ġ38":5654,"Ġ2005":5655,"Ġmodern":5656,"*)":5657,"Ġoutcome":5658,"Ġdropped":5659,"Ġserum":5660,"ĠDirector":5661,"ĠâĨĴ":5662,"NF":5663,"create":5664,"**(-":5665,"Ġarm":5666,"Ġcrowd":5667,"Ġâī¤":5668,"core":5669,"prefix":5670,"Ġmetabolic":5671,"See":5672,"Ġcoconut":5673,"Ġcollected":5674,"Ġaffect":5675,"Ġevaluated":5676,"hes":5677,"Ġmental":5678,"Ġadapt":5679,"Ġplate":5680,"Ġemphas":5681,"BI":5682,"Ġplus":5683,"kay":5684,"Ġtechnique":5685,"]\\],":5686,"GC":5687,"ĠBank":5688,"sequently":5689,"gt":5690,"anged":5691,"Ġ(**":5692,"Ġmovie":5693,"Ġanswers":5694,"Ġweapons":5695,"Ġstudent":5696,"Builder":5697,"Ġtrauma":5698,"Ġmissing":5699,"Ġsurv":5700,"ĠSuper":5701,"ston":5702,"Ġcertainly":5703,"Ġmillions":5704,"Ġ~":5705,"Ġwouldn":5706,"Ġ()":5707,"Ġlinks":5708,"Ġacademic":5709,"icensed":5710,"Ġdisorders":5711,"ĠPC":5712,"well":5713,"Ġcommunication":5714,"$]{};":5715,"ĠSociety":5716,"ĊĠĊĠĊĠĊĠĊĠĊĠĊĠĊĠĊĠĊĠĊĠĊĠĊĠĊĠĊĠĊĠĊĠĊĠĊĠĊĠĊĠĊĠĊĠĊĠĊĠĊĠĊĠĊĠĊĠĊĠĊĠĊĠĊĠĊĠĊĠĊĠĊĠĊĠĊĠĊĠĊĠĊĠĊĠĊĠĊĠĊĠĊĠĊĠĊĠĊĠĊĠĊĠ":5717,"Ġexplained":5718,"resp":5719,"Ġ(!":5720,"Ġtempor":5721,"abil":5722,"Mod":5723,"result":5724,"Ġprojects":5725,"Ġvolunte":5726,"ih":5727,"ĠEnd":5728,"Ġefficient":5729,"Ġoperations":5730,"ĠOver":5731,"Ġencour":5732,"Ġcred":5733,"Ġeconomy":5734,"Ġabsence":5735,"Return":5736,"iary":5737,"url":5738,"gram":5739,"ubl":5740,"Ġvertical":5741,"ĠNews":5742,"De":5743,"Ġinvolvement":5744,"Ġverdict":5745,"Ġtransl":5746,"Ġmoments":5747,"Ġexternal":5748,"Ġhair":5749,"Ġforces":5750,"Ġbus":5751,"While":5752,"Ġlaws":5753,"Ġreligion":5754,"local":5755,"xml":5756,"Ġcm":5757,"**,":5758,"Ġkept":5759,"itional":5760,"Ġnetworks":5761,"even":5762,"Ġaccepted":5763,"Ġsupply":5764,"Ġvideos":5765,"Ġprepare":5766,"DA":5767,"Ġsurfaces":5768,"Ġdecrease":5769,"ĠCPU":5770,"Style":5771,"ĠCommun":5772,"CON":5773,"2015":5774,"Ġjobs":5775,"Ġpun":5776,"iled":5777,"Ser":5778,"Ġkids":5779,"Be":5780,"false":5781,"Ġmist":5782,"Ġelectron":5783,"Ġscience":5784,"Ġchronic":5785,"rl":5786,"ialog":5787,"Ġresponses":5788,"Ġfarm":5789,"ows":5790,"Ġenforcement":5791,"Ġauthority":5792,"Reg":5793,"Ġflex":5794,"Ġmotor":5795,"amily":5796,"model":5797,".$$":5798,"Ġdisapp":5799,"Ġcouncil":5800,"Ġadenocarcinoma":5801,"before":5802,"olt":5803,"Ġcast":5804,"Ñģ":5805,"osh":5806,"Ġkitchen":5807,"Ġintended":5808,"lear":5809,"ĠBoston":5810,"\\!\\!":5811,"iller":5812,"Ġbrowser":5813,"Ġstatutory":5814,"Ġoccup":5815,"ĠNet":5816,"Ġrequirements":5817,"Ġmucos":5818,"}+":5819,"Ġ--------------":5820,"Ġsy":5821,"ĠClass":5822,".[@":5823,"Ġadding":5824,"ypes":5825,"Ġserved":5826,"TA":5827,"âĢĿ.":5828,"Ġagent":5829,"Ġideas":5830,"Ġhistor":5831,"Ġchain":5832,"earch":5833,"Ġentry":5834,"Ġtour":5835,"icted":5836,"Ġbelong":5837,"Ġguy":5838,"Ġtraditional":5839,"Our":5840,"/**":5841,"illa":5842,"Ġprejud":5843,"Ġextent":5844,"Ġjava":5845,"Ġapplies":5846,"Ġglucose":5847,"Ġexpert":5848,"Ġcreating":5849,"'.":5850,"Ġjoint":5851,"Ġholds":5852,"oted":5853,"ĠFOR":5854,"ramework":5855,"Ġmortgage":5856,"ĠEducation":5857,"uted":5858,"ĠAmendment":5859,"Dis":5860,"Ġflav":5861,"TO":5862,"Ġinterests":5863,"Ġfemales":5864,"amb":5865,"Ġchrom":5866,"Ġteams":5867,"Ġwhom":5868,",-":5869,"Ġtrend":5870,"Ġfragment":5871,"orter":5872,"Ġguess":5873,"Ġinterval":5874,"rap":5875,"Map":5876,"Ġalpha":5877,"First":5878,"Ġanxiety":5879,"Ġpermanent":5880,"ĠWell":5881,"Ġfeeling":5882,"Ġsauce":5883,"nam":5884,"Ġequations":5885,"Ġcycle":5886,"ĠGiven":5887,"Ġspokes":5888,"iot":5889,"rot":5890,"BM":5891,"^âĪĴ":5892,"pping":5893,"Ġdirector":5894,"ynamic":5895,"post":5896,"Ġec":5897,"Ġevolution":5898,"ĠGermany":5899,"Ġcurve":5900,".](":5901,"Ġsouth":5902,"Ġinterface":5903,"context":5904,"Ġsharp":5905,"Equ":5906,"eters":5907,"Att":5908,"Ġseverity":5909,"$(":5910,"ĊĊĊĊ":5911,")/(":5912,"Ġelevated":5913,"Ġrepro":5914,"content":5915,"}|":5916,"ĠAir":5917,"ĠEach":5918,"Ġgrand":5919,"dt":5920,"ĠAny":5921,"Ġassessment":5922,"Ġpolymorph":5923,"-(":5924,"DL":5925,"Ġinteractions":5926,"ĠSub":5927,"une":5928,"Ġentered":5929,"Ġdiagram":5930,"last":5931,"Ġrecon":5932,"ĠYoung":5933,"amer":5934,"Ġwind":5935,"Ġdose":5936,"bound":5937,"ĠURL":5938,"Ġeat":5939,"Ġelim":5940,"Ġguys":5941,"System":5942,"Ġmal":5943,"valid":5944,"Ġconcentrations":5945,"FLAGS":5946,"inite":5947,"ilt":5948,"more":5949,"Ġcyt":5950,"OUT":5951,"Ġcauses":5952,"\\{":5953,"ĠGreen":5954,"cor":5955,"Br":5956,"ologies":5957,"ĠCanada":5958,"ALL":5959,"Ġradio":5960,"Ġspatial":5961,"Ġaircraft":5962,"font":5963,"nav":5964,"Ġmodule":5965,"Ġrequiring":5966,"Ġescape":5967,"Ġ----------":5968,"iral":5969,"Ġimplic":5970,"ĠAR":5971,"dir":5972,"ini":5973,"ĠRem":5974,"istent":5975,"Ġund":5976,"agon":5977,"ĠMor":5978,"../":5979,"ny":5980,"inder":5981,"Token":5982,"Ġvaluable":5983,"bor":5984,"Ġ--------------------":5985,"Ġconfirm":5986,"ĠCommonwealth":5987,"lets":5988,"However":5989,"cr":5990,"ĠCL":5991,"Ġproposal":5992,"MP":5993,"Well":5994,"wards":5995,"Ã£o":5996,"Ġstretch":5997,"ĠâĶĤ":5998,"ĠDespite":5999,"!--":6000,"Ġrejected":6001,"Property":6002,"Ġfilter":6003,"Ġproperly":6004,"ĠSuch":6005,"Ġpatterns":6006,"BL":6007,"how":6008,"anges":6009,"Can":6010,"SI":6011,"ĠTwo":6012,"Ġestimate":6013,"Ġrestric":6014,"care":6015,"icate":6016,"ĠON":6017,"Ġmechanisms":6018,"Ġheterogene":6019,"Ġstream":6020,"Ġexec":6021,"aved":6022,"ABLE":6023,"else":6024,"Ġevaluate":6025,"Ġ};":6026,"Ġpiece":6027,"Ġbegins":6028,"child":6029,"while":6030,"ĠÎ¼":6031,"Empty":6032,"Ġvictory":6033,"eps":6034,"ĠBoth":6035,"iling":6036,"Ġ(\"":6037,"Ġ{{\\":6038,"ailed":6039,"spec":6040,"Finally":6041,"0001":6042,"Ġcharges":6043,"doc":6044,"etween":6045,"rough":6046,"Ġrestricted":6047,"Ġannounce":6048,"ensor":6049,"Ġcrime":6050,"just":6051,"iny":6052,"ME":6053,"Some":6054,"ĠCA":6055,"Ġstatements":6056,"Ġfrozen":6057,"UE":6058,"ĠĠĠĠĠĠĠĠĠĠĠĠĠĠĠĠĠĠĠĠĠĠĠĠ":6059,"ivariate":6060,"ello":6061,"Ġformula":6062,"rey":6063,"util":6064,"ĠOklahoma":6065,"Ġnorth":6066,"Ġindicates":6067,"Connection":6068,"ĠGNU":6069,"Ġens":6070,"Ġ\"[":6071,"Ġcontained":6072,"Ġmel":6073,"Ġorganization":6074,"Ġinvalid":6075,"Ġalleg":6076,"Ġrecorded":6077,"SH":6078,"Ġconscious":6079,"Ġconclusion":6080,"Ġunemployment":6081,"Ġinterested":6082,"Ġcontrolled":6083,"Date":6084,"Ġ++":6085,"Ġoffered":6086,"ĠCatholic":6087,"itions":6088,"Ġpossibility":6089,"Ġphen":6090,"default":6091,"Width":6092,"src":6093,"ĠSte":6094,"ato":6095,"Ġresolution":6096,"Ġexistence":6097,"Group":6098,"Ġrisks":6099,"=&":6100,"Ġnodes":6101,"Ġathlet":6102,"Ġschedule":6103,".*":6104,"Ġgold":6105,"Ġaren":6106,"Ġlib":6107,"Source":6108,"Ġgone":6109,"Ġquick":6110,"Ġfluid":6111,"ĠOrgan":6112,"Ġbasketball":6113,"Ġ44":6114,"ĠOlymp":6115,"Ġantimicrobial":6116,"Ġconserv":6117,"Ġindustrial":6118,"uation":6119,"Ġgoals":6120,"Ġinvariant":6121,"ĠTokyo":6122,"android":6123,"ĠUnder":6124,"Ġreferred":6125,"Ġturning":6126,"Ġgain":6127,"Ġbehalf":6128,"current":6129,">>":6130,"Ġdriver":6131,"ĠJackson":6132,"ca":6133,"Ġvacc":6134,"query":6135,"Ġcomfortable":6136,"ĠĠĠĠĠĠĠĠĠĠĠĠĠĠĠĠĠĠĠĠ":6137,"izer":6138,"Ġchicken":6139,"})$":6140,"tag":6141,"Ġconvert":6142,"CN":6143,"Ġintellectual":6144,"yg":6145,"Ġstars":6146,")*(":6147,"ĠEv":6148,"John":6149,"rete":6150,"stant":6151,"STR":6152,"Ġfloor":6153,"first":6154,"Ġholding":6155,"Provider":6156,"OX":6157,"Ġom":6158,"Ġsale":6159,"Ġsummer":6160,"Ġliterature":6161,"KE":6162,"Ġagents":6163,"Ġcollege":6164,"widehat":6165,"rine":6166,"Ġolder":6167,"Ġoffers":6168,"Ġteaspoon":6169,"Ent":6170,"ĠMexico":6171,"ested":6172,"Ġprecisely":6173,"Ġanalysed":6174,"Ġcolorectal":6175,"DS":6176,"Ã¶":6177,"ĠEr":6178,"Ġgenerate":6179,"world":6180,"ĠTime":6181,"Ġ500":6182,"udd":6183,"ĠSH":6184,"Ġ43":6185,"Ġwire":6186,"Ġbranch":6187,"wood":6188,"Ġimportance":6189,"ouch":6190,"Ġdeveloping":6191,"Ġconsum":6192,"Ġsin":6193,"Ġconfiguration":6194,"yphermox":6195,"Ġ39":6196,"Ġbreath":6197,"Ġidentity":6198,"was":6199,"Ġabuse":6200,"Ġextended":6201,"ĠExp":6202,"Ġsalt":6203,"Ġexamples":6204,"weight":6205,"Ġhappens":6206,"ĠFROM":6207,"night":6208,"Ġprison":6209,"Ġbattery":6210,"ĠCEO":6211,"iscussion":6212,"Ġextreme":6213,"Ġrise":6214,"Ġscal":6215,"Ġthank":6216,"omething":6217,"Ġstimulation":6218,"bin":6219,"dimensional":6220,"ĠAP":6221,"Ġexamined":6222,"ĠBlack":6223,"bottom":6224,"Ġfamous":6225,"Ġoblig":6226,"Ġrecover":6227,"Ġformat":6228,"Ġerrors":6229,"ln":6230,"aced":6231,";\\":6232,"img":6233,"ĠSolve":6234,"ĠPeople":6235,"Ġyesterday":6236,"Ġcharacters":6237,"Ġentreprene":6238,"dr":6239,"ĠPre":6240,"Ġcompounds":6241,"event":6242,"can":6243,"Ġbinary":6244,"ipped":6245,"dist":6246,"ĠMal":6247,"flow":6248,"ĠWH":6249,"Ġspeech":6250,"Ġcharged":6251,"ĠBusiness":6252,"Ġparticles":6253,"Ġmax":6254,"\").":6255,"Ġschools":6256,"Ġpenalty":6257,"Ġcold":6258,"Ġprosp":6259,"Ġsales":6260,"oms":6261,"ĊĊĠĠĠĠĠĠ":6262,"âĸĶâĸĶâĸĶ":6263,"ĠAT":6264,"Ġmorph":6265,"olar":6266,"ĠDet":6267,"ancing":6268,"Ġcoverage":6269,"Ġsquare":6270,"ĠAtlant":6271,"Ġprofile":6272,"Don":6273,"LO":6274,"Ġreturns":6275,"reek":6276,"ĠBritain":6277,"ĠToronto":6278,"Ġinner":6279,"Ġcategory":6280,"Ġevaluation":6281,"Ġlanguages":6282,"ĠSet":6283,"ĠTheorem":6284,"ĠMedical":6285,"Ġsuscept":6286,"select":6287,"Ġmuscle":6288,"ĠKe":6289,"Ġpayment":6290,"Back":6291,"ĠDel":6292,"anda":6293,"Ġclin":6294,"Ġpartners":6295,"Ġhighlight":6296,"Ġspecified":6297,"tes":6298,"Ġdimension":6299,"ĠForm":6300,"Ġmeant":6301,"Ġclub":6302,"apped":6303,"num":6304,"PH":6305,"Ġ05":6306,"Ġvascular":6307,"cel":6308,"**)":6309,"othing":6310,"Ġstable":6311,"Ġnaturally":6312,"icity":6313,"Ġsequences":6314,"LC":6315,"Ġinvestigated":6316,"abilities":6317,"ĠCambridge":6318,"ĠĠĠĠĠĠĠĠĠĠĠĠĠĠĠĠĠĠĠĠĠ":6319,"ĠEvery":6320,"Ġexact":6321,"aa":6322,"Ġnamely":6323,"evel":6324,"Ġdigit":6325,"ECT":6326,"Ġmetast":6327,"match":6328,"Ġgoogle":6329,"ias":6330,"Ġmatrices":6331,"Ġchamber":6332,"ulating":6333,"Ġfifth":6334,"ĠHT":6335,"Ġshared":6336,"Ġmeasurement":6337,"Ġdemand":6338,"Ġmeasuring":6339,"(\\[":6340,"Ġtransplant":6341,"Ġcarcinoma":6342,"Ġdry":6343,"Ġ2004":6344,"Ġconcerns":6345,"Ġsmoking":6346,"ĠService":6347,"Ġconclude":6348,"Ġmeasurements":6349,"Ġreality":6350,"ĠGerman":6351,"005":6352,"Ġpercentage":6353,"Ġwestern":6354,"std":6355,"Ġsigned":6356,"Ġsuit":6357,"Ġrepresented":6358,"Ġoptical":6359,"Par":6360,"kin":6361,"Ġahead":6362,"ĠĊĠĠĠĠĠĠĠĠĠĠĠĠĠĠĠ":6363,"Ġpure":6364,"Ġachieved":6365,"ODE":6366,"Ġopening":6367,"Ġpositions":6368,"Ġcoffee":6369,"UD":6370,"ĠWhy":6371,"ĠUnion":6372,"Ġrank":6373,"2017":6374,"Ġpapers":6375,"Ġgarden":6376,"ummary":6377,"Integer":6378,"ears":6379,"ĠSecond":6380,"ads":6381,"Ġ55":6382,"**]{}":6383,"Ġ${{\\":6384,"css":6385,"Ġknows":6386,"ĠBer":6387,"2010":6388,"Ġreceiving":6389,"Ġimplementation":6390,"di":6391,"gent":6392,"Ġcomposition":6393,"Ġmaintain":6394,"andard":6395,"operative":6396,"Ġdigital":6397,"ĠFe":6398,"2013":6399,"ĠFrance":6400,"Ġreve":6401,"ĠCa":6402,"Ġstrict":6403,"ĠMet":6404,"oprotein":6405,"ĠCollege":6406,"Phi":6407,"End":6408,"abb":6409,"ĠRead":6410,"Ġtaught":6411,"Ġoperating":6412,"AF":6413,"Ġsucceed":6414,"Ġlaunched":6415,"Ġpharmac":6416,"Ġ46":6417,"Ġagency":6418,"Ġfourth":6419,"Ġdraft":6420,"ĠRom":6421,"Ġ75":6422,"Ġallowing":6423,"Ġconvenient":6424,"inations":6425,"Ġplants":6426,"Ġwelcome":6427,"Ġscenarios":6428,"Ġshop":6429,"Ġcustomers":6430,"ĠWilson":6431,"Ġowners":6432,"Ġcarry":6433,"ASS":6434,"%.":6435,"mic":6436,"ĠUN":6437,"Ġviolence":6438,"Ġdys":6439,"Ġquery":6440,"Ġowner":6441,"Ġinsulin":6442,"scopic":6443,"Ġsanctions":6444,"Ġ41":6445,"Ġkernel":6446,"ĠCell":6447,"ĠFinally":6448,"Ġgoverning":6449,"Sub":6450,"Message":6451,"lands":6452,"arian":6453,"Ġhelped":6454,"(&":6455,"ĠOut":6456,"ĠAmericans":6457,"center":6458,"Handle":6459,"Ġabandon":6460,"Ġwidespread":6461,"Ġder":6462,"Ġ64":6463,"Ġextension":6464,"aneous":6465,"MT":6466,"Ġattract":6467,"According":6468,"sd":6469,"Ġdesired":6470,"Ġrac":6471,"Ġleaves":6472,"Bar":6473,"}}_{":6474,"strong":6475,"ĠMac":6476,"ĠDep":6477,"ository":6478,"Gu":6479,"ĠCI":6480,"Ġdecisions":6481,"refer":6482,"Ġvulnerable":6483,"Ġgranted":6484,"rency":6485,"Ġsat":6486,"Ġestimates":6487,"iance":6488,"ĠStreet":6489,"Ġconnect":6490,"uint":6491,"Ġadministrative":6492,"ĠIII":6493,"Ġacts":6494,"ĠChurch":6495,"Ġsupplement":6496,"ĠBre":6497,"Ġinsert":6498,"Ġcalcium":6499,"ĠĠĠĠĠĠĠĠĠĠĠĠĠĠĠĠĠĠĠĠĠĠĠ":6500,"Ġglass":6501,"Ġcovered":6502,"ĠLeague":6503,"Ġoverride":6504,"Ġinvestigate":6505,"MOESM":6506,"1534735419827098":6507,"Ġgly":6508,"Ġeasier":6509,"Ġrevenue":6510,"Ġpurchase":6511,"ĠEnergy":6512,"amssymb":6513,"Ġtestified":6514,"AND":6515,"Ġassessed":6516,"eful":6517,"CHECK":6518,"Ġunderlying":6519,"GA":6520,"Ġcond":6521,"amine":6522,"Ġchurch":6523,"Ġruns":6524,"ĠJames":6525,"Ġattorneys":6526,"PT":6527,"Ġ49":6528,"Ġsun":6529,"Ġapprec":6530,"Ġsections":6531,"Ġoccurs":6532,"yan":6533,"END":6534,"Ġanimal":6535,"ĠBay":6536,"Â·":6537,"Ġaccuracy":6538,"ĠCivil":6539,"Ġteacher":6540,"Ġregulation":6541,"âĪ":6542,"ĠUse":6543,"ifications":6544,"ĠChristian":6545,"Ġsimpl":6546,"XX":6547,"Ġeduc":6548,"Ġhab":6549,"ĠOpen":6550,"Ġskills":6551,"osp":6552,"Ġemployee":6553,"Ġdesc":6554,"Ġcoronavirus":6555,"ĠCONDITIONS":6556,"Ġ47":6557,"Ġstrongly":6558,"mathrsfs":6559,"ĠPort":6560,"mar":6561,"Ġstick":6562,"Ġvinegar":6563,"ĠGaussian":6564,"itative":6565,"Ġincident":6566,"Ġintervals":6567,"Ġsurvey":6568,"ĠSmith":6569,"CI":6570,"func":6571,"ĠBitcoin":6572,"Ġpip":6573,"Ġpool":6574,"Ġrich":6575,"Ġoverl":6576,"page":6577,"elled":6578,"Ġleader":6579,"ĠAS":6580,"Ġbutton":6581,"ĠToday":6582,"BP":6583,"ĠMo":6584,"Ġpert":6585,"Ġnav":6586,"Ġresource":6587,"Ġpowerful":6588,"ymmetric":6589,"ĠLegisl":6590,"101":6591,"Over":6592,"ĠMany":6593,"Ġstories":6594,"Ġalter":6595,"ĠMajor":6596,"Ġwarm":6597,"âĢĿ,":6598,"Ġapproved":6599,"ĠDavis":6600,".</":6601,"Ac":6602,"REFERENCES":6603,"\\[[@":6604,"Ġinquiry":6605,"ĠBel":6606,"ometric":6607,"Ġinsufficient":6608,"cp":6609,"Ġpossibly":6610,"Ġpathway":6611,"mt":6612,"ua":6613,"Ġhaven":6614,"ĠSal":6615,"Ġtransmission":6616,"Ġlimitations":6617,"Ġdeviation":6618,"Then":6619,"Ġapproaches":6620,"ude":6621,"akers":6622,"Ġraise":6623,":\"":6624,"Ġthread":6625,"ports":6626,"ĠDay":6627,"Rel":6628,"Ġdepends":6629,"isms":6630,"Ġ56":6631,"ICENSE":6632,"Bl":6633,"Ġmostly":6634,"Ċĉĉĉĉĉ":6635,"uts":6636,"=\"../../":6637,"arily":6638,"forall":6639,"cs":6640,"Ġdetermination":6641,"rs":6642,"Ġlifetime":6643,"Ġindependence":6644,"^-":6645,"ĠWomen":6646,"Ġjourney":6647,"Solve":6648,"Ġban":6649,"Ġbag":6650,"oster":6651,"Ġlattice":6652,"Gener":6653,"***":6654,"Ġremainder":6655,"ĠChristmas":6656,"letion":6657,"Ġsrc":6658,"orks":6659,"Ġlung":6660,"Ġkill":6661,"Ġdetailed":6662,"negative":6663,"Ġprotected":6664,"NULL":6665,"Ġcash":6666,"dependent":6667,"Ġcompare":6668,"Ġintestinal":6669,"Ġpregnancy":6670,"pilasengine":6671,"Ġ65":6672,"Ġauto":6673,"Ġbelieves":6674,"ĠGeorgia":6675,"Line":6676,"coming":6677,"Ġ_{":6678,"Ġmixed":6679,"rd":6680,"Ġdepth":6681,"Ġlisted":6682,"Ġlearned":6683,"author":6684,"win":6685,"ĠEngine":6686,"ĠAdministration":6687,"Ġappoint":6688,"Ġaccident":6689,"Ġrecru":6690,"Ġinvestment":6691,"ĠBur":6692,"ĠDuring":6693,"Ġunclear":6694,"Ġupdates":6695,"Ġrespiratory":6696,"ĠSingapore":6697,"EF":6698,"etch":6699,"Ġremark":6700,"template":6701,"za":6702,"Ġcommitted":6703,"/\\":6704,"Ġflat":6705,"Ġsecondary":6706,"ĠUbuntu":6707,"Ġvertex":6708,";&":6709,"stall":6710,"Ġthorough":6711,"Ð°":6712,"Ġsymbol":6713,"Ġborn":6714,"otes":6715,"ĠCorporation":6716,"Ġcitizen":6717,"Cell":6718,"Ġplays":6719,"Ġtrials":6720,"Ġcatal":6721,"Co":6722,"standing":6723,"ĠAre":6724,"ITY":6725,"ï¼ļ":6726,"ĠEgypt":6727,"Ġmaster":6728,"Ġafford":6729,"ĠCompany":6730,"Since":6731,"Ġhole":6732,"Ġrelief":6733,"Ġimprovement":6734,"iment":6735,"CV":6736,"bul":6737,"ĠĊĠ":6738,"Ġ+=":6739,"Ġenvironmental":6740,"Ġplanning":6741,"These":6742,"Ġarguments":6743,"Ġcommunities":6744,"Ġcat":6745,"Ġapplicable":6746,"Ġopened":6747,"chema":6748,"Ġlatter":6749,"Ġvary":6750,"Ġbooks":6751,"Ġresulted":6752,"Ġgreatest":6753,"ugin":6754,"DF":6755,"ä»":6756,"ART":6757,":#":6758,"Ġresist":6759,"Ġacute":6760,"Ġyes":6761,"Ġbelief":6762,"Ġafternoon":6763,"mut":6764,"Ġbio":6765,"ĠYes":6766,"Ġmachines":6767,"Ġabsorption":6768,"Ġisol":6769,"PV":6770,"Ġunknown":6771,"Ġ2019":6772,"Ġfocused":6773,"ker":6774,"ĠCr":6775,"Ġ52":6776,"Ġfavour":6777,"Med":6778,"][":6779,"Ġmetric":6780,"Ġgenetic":6781,"Ġexhibit":6782,"ĠTwitter":6783,"Ġconsidering":6784,"ĠScience":6785,"oscopy":6786,"ortion":6787,"break":6788,"ifer":6789,"ĠCounsel":6790,"Ġthin":6791,"ĠPRO":6792,"\\]).":6793,"isher":6794,"elly":6795,"ĠĠĠĠĠĠĠĠĠĠĠĠĠĠĠĠĠĠĠĠĠĠ":6796,"2012":6797,"Ġassuming":6798,"ki":6799,"Query":6800,"Ġdoub":6801,"ya":6802,"ĠWisconsin":6803,"next":6804,"Ġtypical":6805,"Ġspot":6806,"height":6807,"Ġadvanced":6808,"Ġfunds":6809,"Ġfuel":6810,"che":6811,"ĠHill":6812,"Ġdirected":6813,"Start":6814,"Ġviews":6815,"organ":6816,"Ġdepending":6817,"olicy":6818,"Ġmouse":6819,"ĠBrown":6820,"ette":6821,"Ġpersonnel":6822,"leqslant":6823,"2000":6824,"RS":6825,"Ð½":6826,"prot":6827,"month":6828,"Ġsettings":6829,"Ġsignals":6830,"ĠDefendants":6831,"ita":6832,"aus":6833,"Ġchanging":6834,"Ġsustained":6835,"More":6836,"iler":6837,"Ġcalling":6838,"Ġadult":6839,"Ġeventually":6840,"ĠRussian":6841,"Ġsuitable":6842,"Ġplaintiffs":6843,"ĠAgreement":6844,"Ġ72":6845,"Ġreact":6846,"Ġvessel":6847,"]),":6848,"Ġtight":6849,"Ġnegotiations":6850,"anes":6851,"Ġintervention":6852,"Ġdual":6853,"Ġvirus":6854,"Input":6855,"annel":6856,"ĠPacific":6857,"ophageal":6858,"IO":6859,"Î¼":6860,"Ġterror":6861,"Ġexcess":6862,"bling":6863,"ura":6864,"Ġleaving":6865,"Ġsensor":6866,"ilateral":6867,"Ġadvantages":6868,"owed":6869,"ĠFree":6870,"Cs":6871,"Ġboy":6872,"Ġforced":6873,"Ġconclusions":6874,"?âĢĿ":6875,"Ġsignaling":6876,"ĠRussia":6877,"onymous":6878,"utor":6879,"ĠPress":6880,"Ġseemed":6881,"Ġadvert":6882,"Ġsmart":6883,"Ġthousand":6884,"ald":6885,"dslc":6886,"Ġlawyer":6887,"ece":6888,"ĠTaylor":6889,"status":6890,"Ġburden":6891,"Ġscores":6892,"Ġmanager":6893,"Ġstored":6894,"Ġcandidate":6895,"ĠJerusalem":6896,"ĠTom":6897,"Ġshock":6898,"Ġring":6899,"Ġfrequently":6900,"week":6901,"ĠUkr":6902,"Ġ120":6903,"ipping":6904,"gathered":6905,"Ġwheel":6906,"Ġattributes":6907,"hood":6908,"Ġplot":6909,"Ġpreliminary":6910,"ĠBen":6911,"Ġnoise":6912,"Ġcompetition":6913,"Ġstatistical":6914,"Ġurban":6915,"Window":6916,"Ġtwice":6917,"ĠAcademy":6918,"pmb":6919,"EW":6920,"ĠAng":6921,"${":6922,"400":6923,"Ġ*)":6924,"ropri":6925,"Ġfruits":6926,"Ġnecess":6927,"Ġchecks":6928,"Ġcle":6929,"ĠGo":6930,"NO":6931,"omal":6932,"Ġdetect":6933,"iverse":6934,"Ġruled":6935,"Ġretrosp":6936,"ĠBi":6937,"ĠProposition":6938,"Ġdivisor":6939,"aren":6940,"Ġmotiv":6941,"Ġempirical":6942,"Ġinvolving":6943,"clusive":6944,"ĠJoseph":6945,"ĠOfficer":6946,"Ġbool":6947,"Ġrent":6948,"essor":6949,"dots":6950,"ĠRule":6951,"acle":6952,"Ġ51":6953,"}\\,":6954,"Ġcontribution":6955,"rh":6956,"ĠBo":6957,"Ġparagraph":6958,"EV":6959,"Ġtrip":6960,"Ġassoci":6961,"Ġscientists":6962,"ĠRodriguez":6963,"asp":6964,"omer":6965,"Ġradiation":6966,"KPX":6967,"Ġremoving":6968,"Ġdatabases":6969,"UC":6970,"Ġnan":6971,"Ġplane":6972,"Ġunf":6973,"Ġadults":6974,"istory":6975,"Ġexamination":6976,"urthermore":6977,"Ġsides":6978,"ĠMS":6979,"Ġweren":6980,"Ġimaging":6981,"Ġmolecules":6982,"Ġuint":6983,"dagger":6984,"Ġpilot":6985,"Ġrevers":6986,"ĠNor":6987,"Ġwilling":6988,"Ġlesions":6989,"Ġfill":6990,"Ġstandards":6991,"Ġcentury":6992,"Ġroughly":6993,"Header":6994,"has":6995,"Ġ2002":6996,"Ġfinished":6997,"Ġseasons":6998,"associated":6999,"ci":7000,"rog":7001,"Ġspaces":7002,"Ġindeed":7003,"cf":7004,"Ġreverse":7005,"Ġseeing":7006,"Ġappeals":7007,"oded":7008,"ĠGood":7009,"Ġoperators":7010,"cdots":7011,"most":7012,"Ġhel":7013,"ĠAp":7014,"ĠPe":7015,"Ġaccum":7016,"Ġ54":7017,"Ġminim":7018,"Ġordered":7019,"ediatric":7020,"007":7021,"ĠGl":7022,"json":7023,"ician":7024,"Ġnom":7025,"Ġtunnel":7026,"Ġpneumonia":7027,"Ġrelationships":7028,"Ġimmune":7029,"Ġconsult":7030,"Ġ2003":7031,"Ġsupposed":7032,"Ġlongitudinal":7033,")=\\":7034,"cup":7035,"Ġjump":7036,"Ġthanks":7037,"}^\\":7038,"Ġsession":7039,"GL":7040,"Ġextends":7041,"button":7042,"Just":7043,"media":7044,"Ġintent":7045,"Ġindicating":7046,"Ġdemonstrate":7047,"Ġlose":7048,"Ġtranscription":7049,"2009":7050,"del":7051,"groups":7052,"Result":7053,"Ġjoin":7054,"Ð¾":7055,"assert":7056,"2016":7057,"Ġmission":7058,"ĠSenate":7059,"Ġnine":7060,"Ġconsent":7061,"sin":7062,"ERS":7063,"Ġtuberculosis":7064,"Ġwash":7065,"format":7066,"Ġrecall":7067,"Ġrelates":7068,"FR":7069,"ĉĉ":7070,"aming":7071,"Ġconcerned":7072,"ogenesis":7073,"Ġstre":7074,"Ġformal":7075,"Ġmainly":7076,"Ġpieces":7077,"ĠDi":7078,"Ġfraction":7079,"Ġdepartment":7080,"ĠĠĠĠĠĠĠĠĠĠĠĠĠĠĠĠĠĠĠĠĠĠĠĠĠĠ":7081,"Ġattacks":7082,"Ġarter":7083,"Ġincubated":7084,"Ġwood":7085,"ander":7086,"endif":7087,"Ġfinish":7088,"Ġplurality":7089,"ĠUp":7090,"Ġboundary":7091,"Ġsacr":7092,"Ġvessels":7093,"oxy":7094,"\\)":7095,"Ġion":7096,"only":7097,"ala":7098,"Ġinstant":7099,"Ġbeauty":7100,"ĠLinux":7101,"Ġ_,_":7102,"Rem":7103,"Ġfunding":7104,"display":7105,"ĠFederation":7106,"Ġweapon":7107,"kins":7108,"split":7109,"Ġmand":7110,"ĠParty":7111,"ĠOffice":7112,"Am":7113,"yst":7114,"FI":7115,"uro":7116,"ictions":7117,"reatment":7118,"Ġorientation":7119,"ĠPATIENTS":7120,"============":7121,"Ġprosecution":7122,"Ġpix":7123,"ĠOnly":7124,"AGE":7125,"Ġoxid":7126,"Ġscene":7127,"Ġopinions":7128,"Ġepisodes":7129,"Ġasking":7130,"Ġinterpretation":7131,"uls":7132,"ERROR":7133,"IST":7134,"Ġspend":7135,"_{{\\":7136,"graph":7137,"Ġscan":7138,"Ġfees":7139,"rior":7140,"ĠWork":7141,"Ġagricult":7142,"Ġposterior":7143,"fix":7144,"rite":7145,"Ġfans":7146,"Ġdil":7147,"Ġlaugh":7148,"Ġargues":7149,"300":7150,"ritten":7151,"Me":7152,"ĠSN":7153,"Ġchallenges":7154,"Ġenhance":7155,"Ġversus":7156,"Ġton":7157,"ĠmRNA":7158,"category":7159,"Ġfavorite":7160,"Ġconference":7161,"ĠAnn":7162,"Ġadvice":7163,"simeq":7164,"Ġphosphorylation":7165,"}+\\":7166,"Ġpolar":7167,"2008":7168,"Ġcycl":7169,"MC":7170,"Ġtrain":7171,"Ġangle":7172,"Ġforth":7173,"Net":7174,"Pre":7175,"Ġsector":7176,"ctor":7177,"Ġ+/-":7178,"UUUUUUUUUUUUUUUUUUUUUUUUUUUUUUUU":7179,"lang":7180,"Ġreplace":7181,"Ġassay":7182,"OK":7183,"ĠFederal":7184,"column":7185,"Ġmedian":7186,"\":\"":7187,"Ġbias":7188,"ĠFollowing":7189,"Ġinterventions":7190,"Ġeligible":7191,".**":7192,"ĠHall":7193,"law":7194,"ifies":7195,"Ġ2001":7196,"2014":7197,"gers":7198,"vt":7199,"Ġpotentially":7200,"Ġclaimed":7201,"Ġinher":7202,"Ġspring":7203,"Ġconfidence":7204,"floor":7205,"Ġsessions":7206,"Ġhouses":7207,"Ġrecurrence":7208,"Ġacquisition":7209,"ument":7210,"ĠMA":7211,"Ġdegradation":7212,"Ġhelps":7213,"ĠPhil":7214,"Ġrecognized":7215,"Ġestate":7216,"you":7217,"Ġ---------------------------------":7218,"ady":7219,"uting":7220,"obile":7221,"ĠFinancial":7222,"Ġemployed":7223,"Ġcapable":7224,"Evaluate":7225,"Ġcompact":7226,"ĠRob":7227,"Ġadvance":7228,"Button":7229,"Ġmention":7230,"Ġvill":7231,"ijms":7232,"Ġhence":7233,"Ġlit":7234,"Ġscattering":7235,"ĠStr":7236,"Ġtit":7237,"icious":7238,"Ġha":7239,"amed":7240,"Min":7241,"hi":7242,"defined":7243,"ĠAustralia":7244,"supplementary":7245,"opath":7246,"Ġcourts":7247,"Client":7248,"ĠĠĠĠĠĠĠĠĠĠĠĠĠĠĠĠĠĠĠĠĠĠĠĠĠĠĠĠĠĠĠĠĠĠĠĠĠĠĠĠĠĠĠĠĠĠĠĠĠĠĠĠĠĠĠĠĠĠĠĠĠĠĠĠĠĠĠĠĠĠĠĠĠĠĠĠĠĠĠĠĠĠĠĠĠĠĠĠĠĠĠĠĠĠĠĠĠĠĠĠĠĠĠĠĠĠĠĠĠĠĠĠĠĠĠĠĠĠĠĠĠĠĠĠĠĠĠĠĠĠĠĠĠĠĠĠĠĠĠĠĠĠĠĠĠĠĠĠĠĠĠĠĠĠĠĠĠĠĠĠĠĠĠĠĠĠĠĠĠĠĠĠĠĠĠĠĠĠĠĠĠĠĠĠĠĠĠĠĠĠĠĠĠĠĠĠĠĠĠĠĠĠĠĠĠĠĠĠĠĠĠĠĠĠĠĠĠĠĠĠĠĠĠĠĠĠĠĠĠĠĠĠĠĠĠĠĠĠĠĠĠĠĠĠĠĠĠĠĠĠĠĠĠĠĠĠĠĠĠĠĠĠĠĠĠĠĠĠĠĠĠĠĠĠĠĠĠĠĠĠĠĠĠĠĠĠĠĠĠĠĠĠĠĠĠĠĠĠĠĠĠĠĠĠĠĠĠĠĠĠĠĠĠĠĠ":7249,"ĠThompson":7250,"Ġ101":7251,"ĠMont":7252,"ĠGreat":7253,"ertain":7254,"Ġlig":7255,"ĠClinical":7256,"Settings":7257,"Ġsynchron":7258,"{{":7259,"Ġarch":7260,"exec":7261,"Ġcos":7262,"Ġfilms":7263,"Ġmarked":7264,"Ġimplies":7265,"Ġgap":7266,"Click":7267,"rr":7268,"Ġpitch":7269,"2018":7270,"degree":7271,"Ġchocolate":7272,"han":7273,"ĠAddress":7274,"ĠPlease":7275,"Ġusual":7276,"Ġrelax":7277,"Ġgrav":7278,"\",\"":7279,"Ġresponsibility":7280,"Ġdamages":7281,"ĠRoyal":7282,"Ġmaps":7283,"ĠPH":7284,"TD":7285,"pdf":7286,"Ġscreening":7287,")]":7288,"Ġbiological":7289,"Ġabundance":7290,"Ġincredibly":7291,"ohistochem":7292,"ĠMississippi":7293,"Ġegg":7294,"Ġsmallest":7295,"Ġaccurate":7296,"Ġconfront":7297,"Ġvac":7298,"Ġoffense":7299,"house":7300,"ĠField":7301,"Contact":7302,"dx":7303,"Ġpal":7304,"asure":7305,"Ġsolely":7306,"Ġrats":7307,"uccess":7308,"Ġcontribute":7309,"hr":7310,"}}{\\":7311,"ĠĠĠĠĠĠĠĠĠĠĠĠĠĠĠĠĠĠĠĠĠĠĠĠĠĠĠ":7312,"proposed":7313,"Ġpossession":7314,"âģĦ":7315,"\"),":7316,"output":7317,"apache":7318,"ĠJan":7319,"Ġ53":7320,"Ġdecide":7321,"Ġdownload":7322,"-\\-\\-\\-\\-\\-\\-\\-\\-\\-\\-\\-\\-\\-\\-\\-\\-\\-\\-\\-\\-\\-\\-\\-\\-\\-\\":7323,"uch":7324,"enter":7325,"Ġrect":7326,"Ġshut":7327,"linear":7328,"Ġarticles":7329,"UG":7330,"ums":7331,"Ġmeat":7332,"ĠMary":7333,"Ġexposed":7334,"Ġwaiting":7335,"Target":7336,"Ġce":7337,"Ġmethyl":7338,"Ġperceived":7339,"Ġmir":7340,"Ġlens":7341,"Ġlik":7342,"Ġhippocamp":7343,"Ġrelations":7344,"Ġseek":7345,"equal":7346,"Ġstanding":7347,"Ġpartial":7348,"Ġcritic":7349,">&":7350,"Version":7351,"ĠHence":7352,"emia":7353,"DB":7354,"rate":7355,"Ġ300":7356,"âĦ¢":7357,"Ġbirds":7358,"ĠSaudi":7359,"2011":7360,"Spec":7361,"Man":7362,"ashed":7363,"References":7364,"Go":7365,"SR":7366,"åı":7367,"Ġ150":7368,"ĠType":7369,"Ġvariation":7370,"Ġprovision":7371,"Ġaccomplish":7372,"mem":7373,"ĠIP":7374,"URL":7375,"ĠPsych":7376,"Ġmyocardial":7377,"ez":7378,"rist":7379,"ĠTur":7380,"Last":7381,"hbox":7382,"aints":7383,"FC":7384,"itrogen":7385,"Ġheavily":7386,"ĠGive":7387,"Ġelectronic":7388,"iders":7389,"Ġremained":7390,"SL":7391,"ĠFIG":7392,"Ġmunicipal":7393,"Ġsodium":7394,"Ġsplit":7395,"ĠCap":7396,"aded":7397,"Ġveget":7398,"$)":7399,"Ã¼":7400,"osph":7401,"Ġspending":7402,"Which":7403,"Ġancient":7404,"Ġprognostic":7405,"Ġannual":7406,"ĠBill":7407,"ĠWeb":7408,"\"}.":7409,"Check":7410,"men":7411,"Ġpartner":7412,"cing":7413,"Ġgender":7414,"ĠGold":7415,"ĠOnce":7416,"Ġexponential":7417,"ĠJavaScript":7418,"Ġfold":7419,"ĠCT":7420,"Ġstability":7421,"**(":7422,"aked":7423,"Ġ58":7424,"ERT":7425,"ĠIndeed":7426,"Ġcomplaint":7427,"&\\":7428,"ä½":7429,"rive":7430,"Ġtechnical":7431,"Content":7432,"ounter":7433,"snap":7434,"non":7435,"Ġdynamics":7436,"Ġamendment":7437,"Ġhypertension":7438,"uous":7439,"acks":7440,"Ġfacilit":7441,"Ġaccompanied":7442,"stat":7443,"Ġcommission":7444,"Ġenthusi":7445,")^{":7446,"Ġthereby":7447,"bal":7448,"Ġends":7449,"Ġcustomer":7450,"UI":7451,"Ġice":7452,"Ġaxis":7453,"Create":7454,"Right":7455,"æľ":7456,"BR":7457,"EA":7458,"{}^*":7459,"ĠBMI":7460,"Ġran":7461,"Ġopposite":7462,"Ġemployment":7463,"Ġlaunch":7464,"Ġconcluded":7465,"Ġiter":7466,"change":7467,"Ġconsideration":7468,"Ġconsensus":7469,"Ġfibroblasts":7470,"Ġstarts":7471,"Ġbaseline":7472,"Ġworse":7473,"Ġindividually":7474,"ORT":7475,"Ġdoctor":7476,"Ġcourses":7477,"Number":7478,"Action":7479,"find":7480,"aria":7481,"urer":7482,"Ġoral":7483,"Control":7484,"Ġepidem":7485,"high":7486,"icks":7487,"Ġaspects":7488,"Ġnumerous":7489,"ĠEX":7490,"request":7491,"Ġdramatically":7492,"Ġfre":7493,"Ġrock":7494,"Ġsubstit":7495,"Ġclothes":7496,"ĠChildren":7497,"PM":7498,"Ġsuggesting":7499,"Ġmodified":7500,"Ġdowntown":7501,"HS":7502,"Ġnarrow":7503,"Ġcommonly":7504,"txt":7505,"ees":7506,"mL":7507,"mg":7508,"Ġol":7509,"Ġdifferential":7510,"\\*\\*":7511,"ĠVictor":7512,"stylesheet":7513,"Ref":7514,"Ġtheorem":7515,"Ġpersons":7516,"artifactId":7517,"fs":7518,"Ġclar":7519,"append":7520,"Ġrequirement":7521,"ĠMicro":7522,"Ġknee":7523,"Ġretirement":7524,"power":7525,"..\\":7526,"Ġseconds":7527,"Ġstopped":7528,"Ġpossess":7529,"Ġseeking":7530,"real":7531,"ĠSpr":7532,"COM":7533,"Part":7534,"road":7535,"Ġnotes":7536,"UP":7537,"Ġphoto":7538,"Ġaltern":7539,"Ġtransf":7540,"INE":7541,"Ġearth":7542,"Ġexhaust":7543,"Ġgenuine":7544,"ĠZealand":7545,"ikipedia":7546,"ĠPR":7547,"ao":7548,"andom":7549,"Ġrecommended":7550,"%),":7551,"GR":7552,"Ġsupporting":7553,"Ġoccasion":7554,"Ġpopulations":7555,"ibrary":7556,"Ġsuccessfully":7557,"edy":7558,"ĠDen":7559,"translation":7560,"ĠAfrica":7561,"Ġnervous":7562,"ignificant":7563,"Ġabdominal":7564,"Ġfluctuations":7565,"dim":7566,"à®":7567,"overn":7568,"ĠRepublican":7569,"method":7570,"eld":7571,"ĠâĢ¦":7572,"Ġtroops":7573,"Ġprognosis":7574,"ĠJews":7575,"card":7576,"ĊĠĠĠĠĠĠĠĠĠĠĠĠ":7577,"Ġhomogeneous":7578,"null":7579,"Ġchief":7580,"120":7581,"process":7582,"ĠANY":7583,"Your":7584,"ĠSl":7585,"INT":7586,"Ġincidence":7587,"ĠDaniel":7588,"ĠItalian":7589,"eness":7590,"}}}":7591,"Ġenable":7592,"Ġsigns":7593,"vas":7594,"equiv":7595,">(":7596,"Ġfiber":7597,"Config":7598,"Ġdependent":7599,"Ġstupid":7600,"Ġdesirable":7601,"HR":7602,"Ġprev":7603,"Ġpractices":7604,"Ġemergency":7605,"Ġstrain":7606,"posed":7607,"Ġintegral":7608,"Ġideal":7609,"110":7610,"ĠTheir":7611,"Ġdollar":7612,"ĠCaptain":7613,"Ġunusual":7614,"ÃĹ":7615,"ursor":7616,"Ġreplaced":7617,"ek":7618,"Ġ-----":7619,"args":7620,"ĠJersey":7621,"Ġoverwhel":7622,"GG":7623,"sg":7624,"Ġcort":7625,"Ġtoler":7626,"ĠSpanish":7627,"Ġoffset":7628,"Ġended":7629,"ĠMad":7630,"ĠJustice":7631,"Ġtumour":7632,"Ġconj":7633,"Ġbeat":7634,"Ġconsumption":7635,"frame":7636,"Ġenemy":7637,"Ġenergies":7638,"car":7639,"activ":7640,"]$":7641,"romagnetic":7642,"Ġmiles":7643,"2019":7644,"irty":7645,"Ġcellular":7646,"Ġhierarch":7647,"uster":7648,"conf":7649,"small":7650,"Ġ57":7651,"Ġinteract":7652,"Ind":7653,"Ġì":7654,"ĠEqu":7655,"weet":7656,"Ġanterior":7657,"SELECT":7658,"|{\\":7659,"Ġguide":7660,"Ġfish":7661,"Ġviolation":7662,"push":7663,"war":7664,"ĠFour":7665,"Ġpulmonary":7666,"lar":7667,"obs":7668,"Ġsolve":7669,"ACT":7670,"riers":7671,"ĠColumbia":7672,"Ġgirls":7673,"Off":7674,"ida":7675,"olecular":7676,"SON":7677,"aped":7678,"apse":7679,"Ġinstitution":7680,"Ġcart":7681,"ĠSand":7682,"empl":7683,"scale":7684,"Ġentirely":7685,"Ġaforementioned":7686,"Ġca":7687,"Ġsupra":7688,"vo":7689,"ena":7690,"Ġappearance":7691,"Ġamounts":7692,"LA":7693,"rons":7694,"Ġpoverty":7695,"ultiple":7696,"Ġspecimens":7697,"Ġelderly":7698,"Base":7699,"asy":7700,"ĠHD":7701,"ĠLike":7702,"Ġpromote":7703,"').":7704,"Ġtag":7705,"Ġsit":7706,"ĠFile":7707,"Ġeffectively":7708,"ĠMethods":7709,"ĠAssembly":7710,"SO":7711,"urd":7712,"\\]),":7713,"Ġreporting":7714,"ĠMinister":7715,"Ġfont":7716,"ĠIll":7717,"Ġalt":7718,"Ġadmitted":7719,"âĶĢâĶĢâĶĢâĶĢâĶĢâĶĢâĶĢâĶĢâĶĢâĶĢâĶĢâĶĢâĶĢâĶĢâĶĢâĶĢâĶĢâĶĢâĶĢâĶĢâĶĢâĶĢâĶĢâĶĢâĶĢâĶĢâĶĢâĶĢâĶĢâĶĢâĶĢâĶĢâĶĢâĶĢâĶĢâĶĢâĶĢâĶĢâĶĢâĶĢâĶĢâĶĢâĶĢâĶĢâĶĢâĶĢâĶĢâĶĢâĶĢâĶĢâĶĢâĶĢâĶĢâĶĢâĶĢâĶĢâĶĢâĶĢâĶĢâĶĢâĶĢâĶĢâĶ":7720,"tab":7721,"ste":7722,"ĠIV":7723,"ĠSant":7724,"grade":7725,"control":7726,"Ġteaching":7727,"0363546518815159":7728,"star":7729,"Ġscope":7730,"sofia":7731,"Ġliberal":7732,"Ġsteady":7733,"Are":7734,"Ġsym":7735,"Ġlos":7736,"roduction":7737,"Ġunion":7738,"čĊĉĉĉ":7739,"Ġbehaviour":7740,"Ġorganic":7741,"$_":7742,"++)":7743,"Two":7744,"lines":7745,"Ġpadding":7746,"Ġcerebral":7747,"uns":7748,"ĠTimes":7749,"Ġgrid":7750,"product":7751,"ĠCentral":7752,"ÂłÂłÂł":7753,"Ġbattle":7754,"Ġassumed":7755,"May":7756,"fit":7757,"Ġunable":7758,"Ġinfo":7759,"mat":7760,"Ġregression":7761,"Ġstruck":7762,"rid":7763,"rian":7764,"ĠLie":7765,"ĠGal":7766,"Ġjustice":7767,"Ext":7768,"ĠPlan":7769,"Ġkeeping":7770,"Ġassistance":7771,"emporary":7772,"Ġcooperation":7773,"Ġpump":7774,"Ġcompound":7775,"#:":7776,"Note":7777,"GB":7778,"erry":7779,"Ġdecades":7780,"Ġobservations":7781,"Ġcocaine":7782,"Ġresonance":7783,"Ġadolescents":7784,"Ġcentrifug":7785,"ĠAPI":7786,"Ġuna":7787,"orters":7788,"Ġstreet":7789,"Ġ59":7790,"Ġpeace":7791,"md":7792,"Ġtables":7793,"ori":7794,"ĠEastern":7795,"Ġphrase":7796,"Ġlawsuit":7797,"Ġparticle":7798,"00000000":7799,"called":7800,"Ġcharacterized":7801,"Ġsought":7802,"Ġcoupling":7803,"ND":7804,"Please":7805,"ĠAlex":7806,"apes":7807,"ĠPURPOSE":7808,"Ġplastic":7809,"Ġfingers":7810,"ondition":7811,"Ġresearchers":7812,"Ġmassive":7813,"ytes":7814,"Ġidx":7815,"Ġpropag":7816,"ï½¡":7817,"Ġduties":7818,"Ġdiscipl":7819,"Ġreform":7820,"zer":7821,"Ġbone":7822,"Ġdisk":7823,"ĠRad":7824,"ogn":7825,"Ġgrade":7826,"ĠÎ²":7827,"acement":7828,"Ġsuppl":7829,"ĠWARRANTIES":7830,"Ġdistinguished":7831,"Ġbright":7832,"Ġ{}":7833,"Ġassigned":7834,"Ġobjective":7835,"element":7836,"thers":7837,"ĠIF":7838,"Ġdispl":7839,"Ġcontainer":7840,"Ġresidents":7841,"ye":7842,"Ġacting":7843,"Ġprominent":7844,"ĠSam":7845,"agen":7846,"ĠJud":7847,"Ġ[[":7848,"Str":7849,"]]":7850,"cribe":7851,"Ġpronoun":7852,"bec":7853,"cut":7854,"ĠWill":7855,"Ġcontributions":7856,"Ġstructural":7857,"Ġmerely":7858,"Ġrig":7859,"Ġ99":7860,"Ġtrivial":7861,"oration":7862,"ĠRE":7863,"property":7864,"Ġrefuge":7865,"*^":7866,"erves":7867,"Ġmanaged":7868,"Although":7869,"Ġadm":7870,"ollow":7871,"nanomaterials":7872,"ords":7873,"Ġinjection":7874,"Ġbal":7875,"anger":7876,"Ġguard":7877,"ĠJohnson":7878,"ogenic":7879,"Ġorders":7880,"Ġwear":7881,"tool":7882,"Ġlinked":7883,"Ġcovari":7884,"ĠSpecifically":7885,"ooking":7886,"ĠJones":7887,"Ġinhibition":7888,"ĠObject":7889,"ULT":7890,"Select":7891,"Ġcluster":7892,"Ġbiopsy":7893,"ytic":7894,"location":7895,"Ġminute":7896,"Ġprincipal":7897,"OV":7898,"Ġeditor":7899,"oral":7900,"imer":7901,"Ġ\\>":7902,"ĠArab":7903,"Ġbroken":7904,"Ġsandwich":7905,"Ġcannabis":7906,"Ġcomplications":7907,")}\\":7908,"egr":7909,"emp":7910,"Ġpredicted":7911,"Ġnewspaper":7912,"ĠSeveral":7913,"png":7914,"endant":7915,"Ġimm":7916,"ĠNav":7917,"Ġinformed":7918,"lectric":7919,"Ġauthorities":7920,"Ġprinciple":7921,"{(":7922,"})\\":7923,"Cons":7924,"idential":7925,"Buffer":7926,"Ġidentification":7927,"ĠPetitioner":7928,"ĠPalestin":7929,"Ġpp":7930,"iciency":7931,"missions":7932,"Ġproximity":7933,"Where":7934,"otted":7935,"Ġretriev":7936,".-":7937,"rief":7938,"Ġpin":7939,"Ġregistration":7940,"norm":7941,"ĠMath":7942,"package":7943,"Ġsensitive":7944,"Ġsegments":7945,"Ġdistinction":7946,"FO":7947,"Ġlowest":7948,"Ġaid":7949,"root":7950,"Ġrein":7951,"Ġgar":7952,"Ġfan":7953,"imation":7954,"aching":7955,"Ġapart":7956,"MD":7957,"fast":7958,"Ġsecure":7959,"urop":7960,"itors":7961,"Ġbug":7962,"Ġcorner":7963,"]\\":7964,"Ġ1999":7965,"Ġfaster":7966,"ĠWal":7967,"web":7968,"Ġconviction":7969,"thm":7970,"Ġconsole":7971,"ourse":7972,"Ġarms":7973,"jwatson":7974,"ĠBaltimore":7975,"Post":7976,"straint":7977,"icular":7978,"Ġsupports":7979,"Ġcandidates":7980,"Ġinnov":7981,"mbfa":7982,"GE":7983,"NN":7984,"Supp":7985,"Ġfell":7986,"Ġreducing":7987,"Ġtrajectory":7988,"astro":7989,"Stat":7990,"Ġknock":7991,"Ġdisagree":7992,"Ġinfer":7993,"ĊĠĠĠĠĠĠĠĠĠĠ":7994,"ups":7995,"Ġfloat":7996,"Ġhumans":7997,"ĠSD":7998,"Ġclassical":7999,"Ġuniversity":8000,"äº":8001,"Status":8002,"ĠHenry":8003,"FIG":8004,"Ġirrelevant":8005,"ais":8006,"ĠNa":8007,"Ġinvolves":8008,"human":8009,"Ġfilled":8010,"rie":8011,"ï¼Į":8012,"ĠIT":8013,"bionic":8014,"Ġ\"\\":8015,"ĠLabor":8016,"]^.":8017,"MENT":8018,"ysis":8019,"Ġexpensive":8020,"150":8021,"Ġmathematical":8022,"Load":8023,"si":8024,"Ġwarn":8025,"ĠVol":8026,"layout":8027,"uto":8028,"Instance":8029,"Ġfacilities":8030,"ĠFITNESS":8031,"Ġtick":8032,"Ġmic":8033,"Ġven":8034,"Ġchair":8035,"buffer":8036,"Ġclosely":8037,"ria":8038,"####":8039,"rolled":8040,"ĊĠĠĠĠĠĠĠĠĠĠĠĠĠĠĠĠĠĠĠĠĠĠĠĠĠĠĠĠĠĠĠ":8041,"cat":8042,"Ġnarrative":8043,"Ġmicroscopy":8044,"Ġawesome":8045,"ĠPan":8046,"Ġexceed":8047,"aken":8048,"filter":8049,"Ġmouth":8050,"------------------------":8051,"Ġenhanced":8052,"æĺ¯":8053,"Ġstomach":8054,"Ut":8055,"ycl":8056,"ubb":8057,"Ġdetermining":8058,"ponents":8059,"GO":8060,"aired":8061,"ĠUs":8062,"Ġrepl":8063,"ĠLife":8064,"ãĢĤ":8065,"([":8066,"Ġbottle":8067,"istribution":8068,"Ġtrail":8069,"ORD":8070,"Ġblocks":8071,"Ġfolks":8072,"Ġcompatible":8073,"ented":8074,"Â¶":8075,"Ġtub":8076,"ĠFund":8077,"ĠApple":8078,"Ġmarried":8079,"ither":8080,"Ġbath":8081,"Ġeating":8082,"idd":8083,"Ġminimal":8084,"Component":8085,"CF":8086,"Ġcorrectly":8087,"Ġhundreds":8088,"edding":8089,"Ġasc":8090,"Ġreads":8091,"Ġzone":8092,"Ġsitting":8093,"Ġassets":8094,"Ġguidance":8095,"ĠDI":8096,"Ġassault":8097,"Point":8098,"Ã¤":8099,"common":8100,"Ġprovisions":8101,"Ġmatters":8102,"Ġdecreasing":8103,"Ġpregnant":8104,"ota":8105,"Ġyouth":8106,"Ġforg":8107,"Ġinstalled":8108,"La":8109,"Ġ110":8110,"Ġcounts":8111,"Ġpeptide":8112,"Ġlibraries":8113,")))":8114,"Ġputting":8115,"Ġroute":8116,"unit":8117,"search":8118,"ĠColorado":8119,"ĠĊĠĠĠ":8120,"Ġcities":8121,"ĠPittsburgh":8122,"/>":8123,"Ġil":8124,"Ġstack":8125,"Ġintention":8126,"cribed":8127,"Ġhtml":8128,"Ġcancers":8129,"Ġobesity":8130,"Ġcomparisons":8131,"Ġrational":8132,"ĠBig":8133,"module":8134,"ĠRobert":8135,"ĠThomas":8136,"ĠFib":8137,"Ġextend":8138,"ĠÃĹ":8139,"ĠHouston":8140,"ressRouteCircu":8141,"Ġmes":8142,"ĠLord":8143,"Ġargued":8144,"]);":8145,"Thanks":8146,"Ġpackages":8147,"Ġpages":8148,"ola":8149,"addr":8150,"Ġbrother":8151,"phone":8152,"earing":8153,"Ġdynamic":8154,")}{":8155,"Find":8156,"Psi":8157,"number":8158,"sens":8159,"ĠSk":8160,"Ġpassing":8161,"arXiv":8162,"Identifier":8163,"=(":8164,"mid":8165,"entry":8166,"ĠPut":8167,"Ġembarrass":8168,"DP":8169,"Ġcas":8170,"ĠÎ±":8171,"tic":8172,"iki":8173,"Ġinitially":8174,"Ġaccounts":8175,"Ġ],":8176,"Ġlifestyle":8177,"Ob":8178,"Ġjoined":8179,")\"":8180,"BB":8181,"Ġspl":8182,"ĠMag":8183,"Ġcoronary":8184,"rt":8185,"ĠMem":8186,"ĠFind":8187,"Ġrequested":8188,"Ġaccompanying":8189,"Ġcreation":8190,"Ġembedded":8191,"Ġmagazine":8192,"life":8193,"Ġhal":8194,"Ġpractical":8195,"*/":8196,"phasis":8197,"Ġinternet":8198,"msgstr":8199,"Ġpredominant":8200,"Ġleague":8201,"raz":8202,"ĠFrank":8203,"msgid":8204,"Ġdeficit":8205,"Ġquestionnaire":8206,"Sim":8207,"čĊĉĉ":8208,"Ġdisorder":8209,"expected":8210,"Ġdelivered":8211,"ERE":8212,"ĠScott":8213,"çĶ¨":8214,"Ġconfigurations":8215,"El":8216,"LS":8217,"Ġmess":8218,"Ġreviewed":8219,"ĠHaw":8220,"endar":8221,"Resource":8222,"Ġschemes":8223,"ooks":8224,"ĠPCR":8225,"Ġcounty":8226,"ĠMcC":8227,"ĠAF":8228,"Ġalle":8229,"Ġaffidavit":8230,"ĊĊĠĠ":8231,"Ġgotten":8232,"{\"":8233,"Ġtranscript":8234,"brack":8235,"ruption":8236,"Ġpreced":8237,"Ġclients":8238,"ĠInsurance":8239,"DI":8240,"hydro":8241,"Ġburn":8242,"Em":8243,"Ge":8244,"pers":8245,"Ġgather":8246,"Ġcollabor":8247,"Ġ---":8248,"Ċĉĉĉĉĉĉĉĉĉĉĉĉ":8249,"obj":8250,"sa":8251,"enyl":8252,"Ġseat":8253,"čĊĠĠĠĠĠĠĠĠĠĠĠ":8254,"Ġfacility":8255,"ĠParis":8256,"Ġstrategic":8257,"inn":8258,"ĠHel":8259,"///":8260,"Ġrepair":8261,"Ġcrystal":8262,"Ġorthogonal":8263,"Sch":8264,"Ġ1990":8265,"Ġwatching":8266,"ĠIreland":8267,"ĠDaily":8268,"Ġdeploy":8269,"Ġdepart":8270,"Ġvisible":8271,"FS":8272,"Ġoptimal":8273,"Ġscreens":8274,"Ġbutter":8275,"Ġconsists":8276,"ras":8277,"ĠHIV":8278,"ĊĠĠĠĠĠĠĠĠĠĠĠĠĠĠĠĠĠĠĠĠĠ":8279,"ĠWhich":8280,"Ġserving":8281,"Ġinflammatory":8282,"setminus":8283,"ĠYouTube":8284,"Ġforget":8285,"ĠNO":8286,"});":8287,"Ġcausing":8288,"Ag":8289,"ko":8290,"ĠÂł":8291,"attr":8292,"Ġpig":8293,"ĠLog":8294,"Ġaspect":8295,"bel":8296,"Ġvision":8297,"ĠEV":8298,"Ġassumptions":8299,"Despite":8300,"Fe":8301,"ĠBack":8302,"sup":8303,"xef":8304,"ACK":8305,"Ġobviously":8306,"Ġexecutive":8307,"Ġdangerous":8308,"nic":8309,"Ġseal":8310,"neq":8311,"treated":8312,"Ġtail":8313,"Ġ85":8314,"CU":8315,"Ġapparent":8316,"ibration":8317,"}...\\":8318,"00000":8319,"istics":8320,"Char":8321,"iological":8322,"Ġsolar":8323,"Ġleadership":8324,"Ġuncertainties":8325,"RI":8326,"ĠProject":8327,"Ġridicul":8328,"Ġpetitioner":8329,"Ġterritory":8330,"Ġlie":8331,"oked":8332,"Ġimplied":8333,"Ġpowder":8334,"Ġmanage":8335,"Ġexperiences":8336,"Ġsynthesis":8337,"ĠMuslim":8338,"Ġfranchise":8339,"Ġinadequate":8340,"Ġhomes":8341,"ĠFore":8342,"\"})":8343,"PRO":8344,"options":8345,"Ġposted":8346,"Ġargue":8347,"Ġproved":8348,"Ġtreatments":8349,"Ġturns":8350,"fold":8351,"Ġearn":8352,"Ġimplemented":8353,"Ġborrow":8354,"Ġdeemed":8355,"LR":8356,"Ġrenal":8357,"ella":8358,"Ġ97":8359,"perties":8360,"scope":8361,"License":8362,"ĠRiemann":8363,"Hz":8364,"materials":8365,"Ġaffirmed":8366,"}},":8367,"values":8368,"asic":8369,"ĠSun":8370,"Ġ61":8371,"Ġsituations":8372,"limits":8373,"Ġchopped":8374,"icide":8375,"ĠNon":8376,"Ġwaste":8377,"ĠDC":8378,"Ġlocations":8379,"server":8380,"^+^":8381,"ĠMer":8382,"update":8383,"Ġweekend":8384,"chain":8385,"ĠStar":8386,"Ġsubset":8387,"gence":8388,"Ġinit":8389,"Ġcumulative":8390,"iability":8391,"}/":8392,"ideo":8393,"Ġsubmitted":8394,"Ġbrand":8395,"Ġobservation":8396,"gebra":8397,"Ġ68":8398,"Ġcooking":8399,"BO":8400,"\\\"":8401,"ĠCamp":8402,"Ġneutral":8403,"Ġvertices":8404,"Ġnutri":8405,"Default":8406,"Te":8407,"header":8408,"Ġconform":8409,"Ġclock":8410,"Ġ1998":8411,"Ġlas":8412,"Ġlived":8413,"Ġcorrelated":8414,"Sm":8415,"etr":8416,"ili":8417,"Ġhonest":8418,"ĠConnecticut":8419,"dat":8420,"ĠpH":8421,"outs":8422,"Ġthoughts":8423,"Ġinflammation":8424,"Ġwealth":8425,"ĠMel":8426,"Ġpathways":8427,"Ġpolitics":8428,"Ġconsequences":8429,"Ġsophisticated":8430,"oting":8431,"client":8432,"Ġattend":8433,"Ġposit":8434,"Ġcategories":8435,"Ġobligation":8436,"Ġagenda":8437,"ĠPerhaps":8438,"ĠPo":8439,"ĠMil":8440,"ĠIts":8441,"igarettes":8442,"Ġdischarged":8443,"%).":8444,"Every":8445,"=====================":8446,"Ġaffirm":8447,"ĠSecurity":8448,"ĠTre":8449,"ĠChief":8450,"Ġbiom":8451,".@{":8452,"Ġpreparing":8453,"Run":8454,"ĠIM":8455,"Ġpointed":8456,"Stream":8457,"afe":8458,"Ġobj":8459,"Ġantibiotic":8460,"Ġspectroscopy":8461,"Ġpayments":8462,"Ġpairs":8463,"Before":8464,"OH":8465,"Ġast":8466,"Ġwalking":8467,"Ġdepos":8468,"Ġ66":8469,"Ġcloser":8470,"ressing":8471,"ĠAtt":8472,"Ġloved":8473,"Ġpri":8474,"Ġwrt":8475,"Ã¨":8476,"Ġneck":8477,"ĠCup":8478,"arks":8479,"Ġsheet":8480,"ococcus":8481,"Det":8482,"ĠSil":8483,"Ġ63":8484,"Ġvirt":8485,"Ġdebate":8486,"thetic":8487,"Ġrail":8488,"Ġpublication":8489,"ĠCOPYRIGHT":8490,"Mr":8491,"Ġpod":8492,"Ġeigen":8493,"verage":8494,"ĠCare":8495,"Ġtra":8496,"Ġtransformation":8497,"Ġmorbidity":8498,"ĠSwitzerland":8499,"ĠLong":8500,"Ne":8501,"Page":8502,"Panel":8503,"Today":8504,"Ġinstruments":8505,"Ġartificial":8506,"Ġ96":8507,"axis":8508,"Ġfeedback":8509,"Ð»":8510,"Ġstages":8511,"Ġpunishment":8512,"2006":8513,"Ġessentially":8514,":(":8515,"Ġpeculiar":8516,"Options":8517,"[\"":8518,"Ġhelpful":8519,"Ġ1997":8520,"ĠProf":8521,"Ġcrypt":8522,"ingle":8523,"ĠPA":8524,"Ġ2020":8525,"Ġbiosynthesis":8526,"Ġdream":8527,"ĠMur":8528,"Ġrecording":8529,"Ġtrees":8530,"bigg":8531,"FONT":8532,"Ġexclusively":8533,"Ġtobacco":8534,"ĠOntario":8535,"Ġhomosexual":8536,"Ġ62":8537,"Column":8538,"åĪ":8539,"Ġlies":8540,"Ġinches":8541,"Ġregime":8542,"ĠWhere":8543,"ĠArray":8544,"gorithm":8545,"inating":8546,"eller":8547,"leted":8548,"ĠmÃ¡s":8549,"ĠSweden":8550,"{-":8551,"ached":8552,"<\\":8553,"ceptions":8554,"006":8555,"IND":8556,"English":8557,"ĠQue":8558,"Ġsomewhat":8559,"DD":8560,"QU":8561,"Layout":8562,"ĠÂµ":8563,"Ġantibiotics":8564,"Ġlegitimate":8565,"Ġ67":8566,"HL":8567,"ellig":8568,"Ġmaintained":8569,"Ġnurses":8570,"Ġ\"âĻª":8571,"YS":8572,"apl":8573,"Ġdescribes":8574,"Ġspectra":8575,")+":8576,"Ġgift":8577,"osa":8578,"command":8579,"ertion":8580,"Ġtor":8581,"iration":8582,"ĠReview":8583,"Ġpowers":8584,"liament":8585,"Ġpatent":8586,"ĠImmun":8587,"amsfonts":8588,"Open":8589,"ĠOS":8590,"Ġattempts":8591,"Ġsurrounding":8592,"anoate":8593,"Ġrecipe":8594,"pose":8595,"rin":8596,"ATA":8597,"ĠJordan":8598,"Ġembryos":8599,"springframework":8600,"ora":8601,"Ġ1996":8602,"Ġrecognition":8603,"Ġpulled":8604,"window":8605,"Ġaccused":8606,"Ġidentical":8607,"Ġdrives":8608,")[":8609,"\\.":8610,"Ġgenome":8611,"Supplementary":8612,"Ġcru":8613,"Ġbeam":8614,"ĠMicrosoft":8615,"ĠFire":8616,"Ġindictment":8617,"ĠDetroit":8618,"Ġlots":8619,"ĠRiver":8620,"ulture":8621,"Ġhelping":8622,"Next":8623,"ĠCall":8624,"Ġbigger":8625,"Ġholiday":8626,"Ġceremony":8627,"igarette":8628,"Ġarthritis":8629,"Hel":8630,"Ġadj":8631,"idents":8632,"isted":8633,"ĠDemocratic":8634,"ĠSometimes":8635,"DC":8636,"Use":8637,"sch":8638,"buf":8639,"Rev":8640,"second":8641,"Ġapproval":8642,"112":8643,"Ġstem":8644,"$$\\":8645,"Ġpicking":8646,"Ġ76":8647,"Ġtelling":8648,"Ġsemi":8649,"upgreek":8650,"amsbsy":8651,"wasysym":8652,"ĠEth":8653,"Ġje":8654,"Ġcharacteristic":8655,"atural":8656,"Ġpassword":8657,"Ġsuperior":8658,"Ġreputation":8659,"Ġsi":8660,"Ġrh":8661,"ĠAfrican":8662,"inet":8663,"orage":8664,"Ġcontents":8665,"}}^{":8666,"Ġdifferentiation":8667,"ĠProt":8668,"debug":8669,"Ġlay":8670,"Ġalloc":8671,"Ġdesire":8672,"sign":8673,"ĠFil":8674,"ĠKim":8675,"Device":8676,"Ġuptake":8677,"uv":8678,"emon":8679,"Mode":8680,"Ġluck":8681,"ayers":8682,"ĠPeter":8683,"mann":8684,"Package":8685,"ĠYanke":8686,"Tex":8687,"ctx":8688,"ĠInformation":8689,"Ġdirectory":8690,"InCallScreen":8691,"Mar":8692,"direct":8693,"Ġgate":8694,"Ġsea":8695,"ques":8696,"riter":8697,"ktop":8698,"Ġinduction":8699,"Ġbusinesses":8700,"Ġinfiltr":8701,"Ġdemocr":8702,"ifts":8703,"ĠPatients":8704,"Ġstatistics":8705,"Ġtough":8706,"omatic":8707,"Ġterminal":8708,"Ġloan":8709,"ournals":8710,"Ġacids":8711,"Ġdisplayed":8712,"Ġ79":8713,"Ġconstructed":8714,"Ġulcer":8715,"Ġfragments":8716,"None":8717,"stack":8718,"Ġrapidly":8719,"PCR":8720,"Ġmail":8721,"Ġchart":8722,"Ġmodify":8723,"ĠProv":8724,"Ġvictims":8725,"Ġagreements":8726,"Ġintrinsic":8727,"Ġinfluenza":8728,"Ġalgebras":8729,"Ġdepression":8730,"Yeah":8731,"Ġemployer":8732,"Ġsetup":8733,"Ġcolumns":8734,"ĠVietnam":8735,"2001":8736,"ĠWilliam":8737,"Ġscr":8738,"Ġfilename":8739,"Ġiron":8740,"ĠLittle":8741,"ĠRh":8742,"oggle":8743,"WH":8744,"odd":8745,"III":8746,"Ġhypothesis":8747,"ĠPolice":8748,"Ġav":8749,"inance":8750,"Ġsounds":8751,"Ġhepat":8752,"Ġ400":8753,"Ġdimensions":8754,"ĠDemocrats":8755,"ĠIowa":8756,"Ġinvasive":8757,"Ġtrouble":8758,"Ġexperts":8759,"Ġfurniture":8760,"Ġsports":8761,"Ġing":8762,"ologic":8763,"Ġinstruction":8764,"Ġintegrated":8765,"Ġcopyright":8766,"About":8767,"square":8768,"Ġfiscal":8769,"ootstrap":8770,"Ġmarkets":8771,"Ġbind":8772,"Ġbeta":8773,"ĠCount":8774,"Ġparticipate":8775,"PATH":8776,"SIZE":8777,"Acknowledg":8778,"Ġhydraulic":8779,"BE":8780,"GS":8781,"dc":8782,"ĠElizabeth":8783,"Ġtemplate":8784,"Ġske":8785,"Ġraw":8786,"ucks":8787,"Ġmob":8788,"conduct":8789,"ĠArch":8790,"Results":8791,"Ġhol":8792,"ĠDev":8793,"Ġ69":8794,"Phys":8795,"Ġexpendit":8796,"ĠVietnamese":8797,"Ġ),":8798,"roc":8799,"eto":8800,"isting":8801,"Ġexamine":8802,"mi":8803,"Ġpet":8804,"Ġmit":8805,"Ġimmediate":8806,"Ġadvoc":8807,"Oper":8808,"RT":8809,"Ġtow":8810,"Ġnative":8811,"ĠSE":8812,"ĠPower":8813,"ĠKentucky":8814,"ĠConfeder":8815,"zing":8816,"ĠThose":8817,"Ġstir":8818,"oxid":8819,"ACE":8820,")*(-":8821,"Account":8822,"Other":8823,"PAR":8824,"iology":8825,"ona":8826,"Ġclassification":8827,"Ġendoscopic":8828,"flu":8829,"eting":8830,"Ġreactions":8831,"Ġgam":8832,"Ġassign":8833,"perimental":8834,"Ġpursue":8835,"Ġpars":8836,"Ġplain":8837,"ĠLink":8838,"Ġ88":8839,"Ġmoves":8840,"Ġtells":8841,"Ġdramatic":8842,"\"]":8843,"Ġ1000":8844,"ĠReal":8845,"Ġ84":8846,"subs":8847,"Ġtopic":8848,"Ġspeaking":8849,"October":8850,"ĠVenezuel":8851,"mond":8852,"arly":8853,"alloc":8854,"ĠÂ£":8855,"Ġinconsistent":8856,"Ġdeaths":8857,")}$":8858,"ĠMiami":8859,"ĠEntertainment":8860,"Ġcups":8861,"etric":8862,"ĠCS":8863,"Ġvit":8864,"Ġxml":8865,"Ġfighting":8866,"uing":8867,"xf":8868,"Ġreplic":8869,"Ġpret":8870,"ĠLos":8871,"claim":8872,"Ġexplore":8873,"ĠCorp":8874,"Ġbarely":8875,"Ġtube":8876,"Local":8877,"band":8878,"ampl":8879,"Ġexcluded":8880,"Ġengaged":8881,"Ġregional":8882,"Ġdiagonal":8883,"Ġlandscape":8884,"ĠMs":8885,"ĠMean":8886,"Ġpoll":8887,"Ġdenote":8888,"Ġphotos":8889,"TE":8890,"Vector":8891,"zen":8892,"Ġrows":8893,"Ġretail":8894,"Ġdiagnosed":8895,"ĠControl":8896,"Ġfibrosis":8897,"amps":8898,"Ġshoot":8899,"Ġassumption":8900,"Ġremote":8901,"Ġrespective":8902,"Ġsubstantially":8903,"Ġdivision":8904,"esthesia":8905,"Ġmosquit":8906,"Ġcomplicated":8907,"cancers":8908,"istor":8909,"erman":8910,"Ġcalculation":8911,"ido":8912,"Ġadverse":8913,"2007":8914,"Ġdogs":8915,"Ġstellar":8916,"ĠTaiwan":8917,"Ġimprisonment":8918,"Ġnormally":8919,"loc":8920,"Ġhate":8921,"Ġintroduce":8922,"Ġpreferred":8923,"Ġsavings":8924,"incipal":8925,"ĠScotland":8926,"Function":8927,"Ġtaxes":8928,"VAL":8929,"Ġkick":8930,"positive":8931,"]{}\\":8932,"ski":8933,"Ġcustody":8934,"Ġaccomplished":8935,"Ġbought":8936,"Ġincreasingly":8937,"Ġtens":8938,"ĠPet":8939,"160":8940,"Ġrepresentative":8941,"ĠĠĠĠĠĠĠĠĠĠĠĠĠĠĠĠĠĠĠĠĠĠĠĠĠĠĠĠĠĠĠĠĠĠĠĠĠĠĠĠĠĠĠĠĠĠĠĠĠĠĠĠĠĠĠĠĠĠĠĠĠĠĠĠĠĠĠĠĠĠĠĠĠĠĠĠĠĠĠĠĠĠĠĠ":8942,"Directory":8943,"Ġrealize":8944,"Arg":8945,"Ġsocioeconomic":8946,"Ġpy":8947,"ĠAcc":8948,"Format":8949,"People":8950,"Ġweather":8951,".âĢĻ":8952,"Ġapplying":8953,"\\}":8954,"task":8955,"Ġfle":8956,"Ġworst":8957,"home":8958,"ormal":8959,"ĠAsia":8960,"varpi":8961,"foo":8962,"Michael":8963,"ĠMissouri":8964,"Ġbureaucr":8965,"foot":8966,"Ġbars":8967,"ĠDE":8968,"Ġmales":8969,"Ġcultural":8970,"Ġrotation":8971,"ĠKorean":8972,"Ġlen":8973,"Ġ[]":8974,"ĠMartinez":8975,"NOT":8976,"vs":8977,"erver":8978,"Ġpaint":8979,"Ġnm":8980,"teen":8981,"Ġoffering":8982,"Ġrealized":8983,"Ġarrested":8984,"Rearrange":8985,"court":8986,"âĶ":8987,"iner":8988,"Ġsick":8989,"Ġroles":8990,"ĠTrust":8991,"čĊčĊ":8992,"%;":8993,"Vis":8994,"Ġprobe":8995,"Ġregardless":8996,"Ġtremendous":8997,"ĠMax":8998,"ĠName":8999,"ĠNov":9000,"Ġ['":9001,"Ġentity":9002,"ĠClub":9003,"internal":9004,"180":9005,"Ġplea":9006,"Ġsubstances":9007,"Ġdeclaration":9008,"Ġmacrophages":9009,"Ġcylindrical":9010,"Ġurl":9011,"linewidth":9012,"Block":9013,"files":9014,"ĠFre":9015,"ĠLo":9016,"Ġcontrary":9017,"]-[@":9018,"Ġprivilege":9019,"ĠDate":9020,"ĠTw":9021,"ĠOb":9022,"Ġking":9023,"Ġoriginally":9024,"points":9025,"Ġsuffered":9026,"Dr":9027,"Ġfellow":9028,"ĠHome":9029,"ĠVer":9030,"ĊĊĉĉ":9031,"Ġfelony":9032,"Definition":9033,"ĠIDE":9034,"Ġinvasion":9035,"Ġcoal":9036,"ĠReport":9037,"Ġawait":9038,"HE":9039,"da":9040,"Ġtip":9041,"ICE":9042,"Ġcurves":9043,"ĠAmong":9044,"ĠAvenue":9045,"Ġcircuits":9046,"Ġmine":9047,"Ġtargets":9048,"Ġseparated":9049,"ĠSupp":9050,"settings":9051,"Ġrecruitment":9052,"Current":9053,"Ġtherm":9054,"Ġposts":9055,"Ġhappening":9056,"Ġdrawn":9057,"??":9058,"Â»":9059,"Ġ}}":9060,":**<":9061,"ĠSoviet":9062,"develop":9063,"Ġcirrhosis":9064,"\\^":9065,"aters":9066,"isk":9067,"\\|_{":9068,"sql":9069,"Ġ78":9070,"chemical":9071,"Ġfairly":9072,"Ġgrateful":9073,"--+--+--+--+--+--+--+--+--+":9074,"Ġgrounds":9075,"Ġforming":9076,"rome":9077,"Ġwarning":9078,"Pol":9079,"Ġbet":9080,"Ġspr":9081,"gun":9082,"adata":9083,"ĠWood":9084,"ĠTim":9085,"ĠLee":9086,"Ġ74":9087,"Ġproceedings":9088,"Output":9089,"pop":9090,"Ñĥ":9091,"Ġnutrition":9092,"ĠThanks":9093,"ĠPO":9094,"rule":9095,"Ġhousehold":9096,"Ġquadr":9097,"Ġfrustr":9098,"Ġtournament":9099,"Ġromantic":9100,"ĠCard":9101,"Ġster":9102,"Ġregulations":9103,"Ġgrown":9104,"Ġmomentum":9105,"Ġ-\\":9106,"click":9107,"Ke":9108,"Ġconversion":9109,"Ġirreducible":9110,"oder":9111,"Ġ71":9112,"region":9113,"Ġconnections":9114,"Response":9115,"Ġmutations":9116,"ĠSarah":9117,"ĠENDOSCOP":9118,"ran":9119,"uh":9120,"Many":9121,"Ġprompt":9122,"Ġdrivers":9123,"ĠCruz":9124,"Ġemissions":9125,"Ġinappropriate":9126,"Ġemission":9127,"ema":9128,"show":9129,"blog":9130,"ãģ®":9131,"low":9132,"Ġreliable":9133,"anned":9134,"ĠInstagram":9135,"acket":9136,"Ġkinds":9137,"Ġstatistically":9138,"Ms":9139,"Ġnoticed":9140,"Ġ[$\\":9141,"105":9142,"romise":9143,"Ġloyal":9144,"ĠTarget":9145,"Ġceramic":9146,"service":9147,"Ġshell":9148,"born":9149,"Ġknowing":9150,"ĠIns":9151,"Ġregistered":9152,",'":9153,"Ġ77":9154,"Link":9155,"Ġaside":9156,"Ġordinary":9157,"Ġprediction":9158,"ĠAff":9159,"adow":9160,"Ġneur":9161,"Ġlisten":9162,"Ġmenu":9163,"Null":9164,"isters":9165,"Ġinfections":9166,"Ġprojected":9167,"ĠSpirit":9168,"Listener":9169,"embers":9170,"ubs":9171,"Ġč":9172,"Ġsport":9173,"=\"#":9174,"Process":9175,"IVE":9176,"Ġtransferred":9177,"ĠAuthority":9178,"0269216315602590":9179,"NC":9180,"Pat":9181,"ĠGener":9182,"Ġsoil":9183,"CTION":9184,"Ġworry":9185,"mode":9186,"============================================================================================================":9187,"Ġextensive":9188,"Ġfaculty":9189,"xe":9190,"ela":9191,"fact":9192,"greg":9193,"have":9194,"Ġsizes":9195,"Ġ$(\\":9196,"ĠGO":9197,"Ġmanip":9198,"Ġcertificate":9199,"Ġportfolio":9200,"Ġmeth":9201,"ĠLab":9202,"**:":9203,"ĠCheck":9204,"iger":9205,"2002":9206,"Ġsuffering":9207,"Ġstyles":9208,"'$":9209,"store":9210,"oids":9211,"(*":9212,"ĠHarris":9213,"Ġimpairment":9214,"Ġincredible":9215,"ĠRoberts":9216,"inals":9217,"ĠThree":9218,"Ġperm":9219,"Ġexcited":9220,"ĠModel":9221,"uke":9222,"Ġpatch":9223,"Ġsubstance":9224,"Ġcontroller":9225,"Ġacquired":9226,"Max":9227,"ĠArm":9228,"regulated":9229,"Ġhotel":9230,"Ġfeels":9231,"Ġlawyers":9232,"cmaloney":9233,"Ġboolean":9234,"Ġbil":9235,"Ġspoke":9236,"achment":9237,"Ġ89":9238,"Ġfemin":9239,"controller":9240,"ga":9241,"Ġalk":9242,"ANT":9243,"Debug":9244,"water":9245,"ĠWilliams":9246,"World":9247,"Ġappellate":9248,"ĠDouglas":9249,"ĊČ":9250,"Ġpermission":9251,"rapper":9252,"ĠAccordingly":9253,"Ġcorporate":9254,"ĠKansas":9255,"Ġcriterion":9256,"mo":9257,"nov":9258,"unct":9259,"YP":9260,"Ġlob":9261,"Ġcompute":9262,"ĠGame":9263,"Ġinstruct":9264,"Ġwebsites":9265,"Ġarrays":9266,"ĠMa":9267,")_":9268,"vector":9269,"including":9270,"125":9271,"Ġcrack":9272,"Ġhepatic":9273,"enes":9274,"oli":9275,"Ġagencies":9276,"Ġamb":9277,"Ġaddressed":9278,"Ġfee":9279,"140":9280,"ĠIsland":9281,"Ġmechanical":9282,"IZ":9283,"][@":9284,"Ġdimensional":9285,"Ġhall":9286,"criptions":9287,"Even":9288,"_>":9289,"yy":9290,"Ġcalculate":9291,"Ġlogic":9292,"Ġlaboratory":9293,"Ġaver":9294,"Ġswe":9295,"river":9296,"Ġopposition":9297,"Ġfault":9298,"Ġincomp":9299,"ĠCM":9300,"ĠJo":9301,"Ġcoupled":9302,"Ġcards":9303,"Ġyounger":9304,"Ġmalignant":9305,"Ġpredetermined":9306,"TEST":9307,"Ġstrains":9308,"ĠWho":9309,"Command":9310,"cpp":9311,"system":9312,"Ġkilling":9313,"Ġexpand":9314,"Ġcarrying":9315,"Ġexplo":9316,"Ġrefused":9317,"ÃŃa":9318,"Ġdedicated":9319,"Given":9320,"TL":9321,"Ġ111":9322,"Ġsuff":9323,"Ġsubsequently":9324,"Child":9325,"Ġcomputed":9326,"Ġluminosity":9327,"step":9328,"rug":9329,"Ġadvis":9330,"Ġvast":9331,"Ġhidden":9332,"Ġ\\*":9333,"Ġrepresenting":9334,"Ġpromise":9335,"Ġcalculations":9336,"Frame":9337,"Ġdecomposition":9338,"ĠAlabama":9339,"Ġchromosome":9340,"Ġtrafficking":9341,"Ġcentre":9342,"Ġrecognize":9343,"Ġmigr":9344,"ĠPD":9345,"Also":9346,"Ġdealing":9347,"omorphism":9348,"Float":9349,"Ġos":9350,"ucle":9351,"Ġsatisfied":9352,"600":9353,"ader":9354,"ĠWall":9355,"aka":9356,"Ġdried":9357,".;":9358,"draw":9359,"Ġintermediate":9360,"LL":9361,"acer":9362,"Ġsteel":9363,"join":9364,"Ġbacteria":9365,"ÎºB":9366,"ĠMexican":9367,"kes":9368,"Ġcrash":9369,"Ġrequests":9370,"ĠâĪ":9371,"Ġcutting":9372,"Ġslowly":9373,"ĠMat":9374,"Ġfinds":9375,"Ġinjured":9376,"Ġcoordinates":9377,"æķ°":9378,"'_":9379,"ĠSum":9380,"ĠCanadian":9381,"Ġimagine":9382,"Ġrehabilitation":9383,"Ġconce":9384,"Ġversions":9385,"Ġfirms":9386,"available":9387,"Cal":9388,"âĢĺ":9389,"ĠSM":9390,"Ġamplitude":9391,"ĠIg":9392,"Ġchest":9393,"Ġillness":9394,"Ġconsequence":9395,"reasonable":9396,"Ġcircles":9397,"Ġthromb":9398,"Ġbreaking":9399,"Ġbasically":9400,"Ġattempted":9401,"Length":9402,"Sort":9403,"Ġrenew":9404,"Ġ(âĢľ":9405,"Ġongoing":9406,"Ġinvent":9407,"Ġcavity":9408,"Ġcanonical":9409,"Ġincubation":9410,"mult":9411,"mean":9412,"Ġtort":9413,"Ġstrip":9414,"ĠLeg":9415,"Ġfails":9416,"Ġdependence":9417,"Ġvoters":9418,"Ġholes":9419,"ĠOper":9420,"ĠYet":9421,"Ġflag":9422,"ĠHREF":9423,"HA":9424,"etics":9425,"ĠAv":9426,"ĠText":9427,"Ġchapter":9428,"Ġquas":9429,"Ġherein":9430,"Ġaimed":9431,"Ġaggreg":9432,"ockMQTTClientObject":9433,"ARY":9434,"Ġemotions":9435,"ĠRespond":9436,"ĠJonathan":9437,"pin":9438,"Â®":9439,"usr":9440,"Ġamino":9441,"Ġradical":9442,"}-\\":9443,"Ġfo":9444,"Ġhurt":9445,"Ġ73":9446,"ĠDisease":9447,"ĠVEGF":9448,"Ġenterprise":9449,"Ġbench":9450,"etal":9451,"ĠSP":9452,"ĠTop":9453,"Ġsleeve":9454,"Ġpancreatitis":9455,"rb":9456,"Ġgro":9457,"Thank":9458,"Ġment":9459,"ima":9460,"ancer":9461,"ĠMedia":9462,"VID":9463,"ĠSU":9464,"Ġstands":9465,"Ġstores":9466,"Ġcomplement":9467,"ĠLight":9468,"ipe":9469,"CG":9470,"ĠBush":9471,"}}^":9472,"Ġpermit":9473,"Ġclimate":9474,"Ġaudience":9475,"stop":9476,"Ġalert":9477,"ĠVan":9478,"Ġgran":9479,"Ġbacterial":9480,"Ġenrichment":9481,"rup":9482,"Ġ:)":9483,"Ġnecrosis":9484,"Ġtrajectories":9485,"mathsf":9486,"107":9487,"Ġdriven":9488,"ilder":9489,"utch":9490,"ĠProgram":9491,"Ġflux":9492,"```":9493,"Ġfinger":9494,"^{-\\":9495,"Ġ1995":9496,"Ġpresentation":9497,"Ġterrible":9498,"Ġventricular":9499,"ĠSol":9500,"ĠCOM":9501,"Ġusage":9502,"aches":9503,"Ġ82":9504,"Ġ1980":9505,"Ġabnormal":9506,"Ġdifficulty":9507,"Ġpaying":9508,"ĠDiego":9509,"ãģĹãģ":9510,"Ġ250":9511,"Ġ>=":9512,"Ġmoral":9513,"Ġinstitutions":9514,"ellee":9515,"zero":9516,"Ġmill":9517,"Ġdict":9518,"Ġevident":9519,"ĠItaly":9520,"Ġdecline":9521,"Ġ98":9522,"Ġconsumer":9523,"Ġabsorb":9524,"potential":9525,"Ġtransaction":9526,"ellants":9527,"Ġoven":9528,"Ġcontributed":9529,"Ġcomparable":9530,"Ġconvenience":9531,"Ġpel":9532,"Ġfoods":9533,">\\":9534,"Ġlim":9535,"Ġsharing":9536,"ãĥ¼":9537,"ynamics":9538,"ĠCOURT":9539,"Tag":9540,"Ġenabled":9541,"prod":9542,"Ġapproximation":9543,"ĠShow":9544,"Ġenzyme":9545,"parallel":9546,"GET":9547,"asia":9548,"ĠDeb":9549,"Ġevening":9550,"offset":9551,"ĠRoad":9552,"access":9553,"Ġoperate":9554,"Who":9555,"umor":9556,"Ġfantastic":9557,"Ġdiscontin":9558,"Ġconvinced":9559,"Url":9560,"}^{(":9561,"device":9562,".$":9563,"idel":9564,"Ġvectors":9565,"Ġchoices":9566,"Ã§":9567,"esides":9568,"Ġproducing":9569,"ĠHand":9570,"textrm":9571,"ĠMaybe":9572,"Ġelections":9573,"Ġprivacy":9574,"Ġheadquarters":9575,"CIT":9576,"iod":9577,"Ġbrown":9578,"response":9579,"Ġourselves":9580,"Ġclassified":9581,"Ġsettlement":9582,"Ġdrove":9583,"Ġhormone":9584,"Ġtrained":9585,"awa":9586,"Ġintegration":9587,"wait":9588,"report":9589,"Ġtranslation":9590,"Ġconversations":9591,"CB":9592,"Work":9593,"ĠAnalysis":9594,"ĠLast":9595,"Ġdecade":9596,"Update":9597,"2003":9598,"ĠJul":9599,"ĠVis":9600,"prov":9601,"Ġmodes":9602,"Ġwalked":9603,"Ġdistricts":9604,"Ġveter":9605,"ORE":9606,"Down":9607,"Factory":9608,"Ġprecise":9609,"ĠOregon":9610,"Ġartifacts":9611,"Cor":9612,"atform":9613,"Ġ===":9614,"ĠOld":9615,"Ġmarkers":9616,"Ġ\\;":9617,"Ġquiet":9618,"Ġanywhere":9619,"ĠYOU":9620,"Ġroutine":9621,"Ġdensities":9622,"Ġdeterior":9623,"Protocol":9624,"support":9625,"then":9626,"ĠGrand":9627,"Ġsimulation":9628,"Ġsingular":9629,"nc":9630,"otypes":9631,"eman":9632,"ĠEU":9633,"Ġimposed":9634,"Ġanyway":9635,"Ġnewly":9636,"Theta":9637,"ĠNokia":9638,"ĠKevin":9639,"Ġindustries":9640,"Range":9641,"å®":9642,"Ġdish":9643,"Ġrepeat":9644,"Ġtheme":9645,"Ġfacing":9646,"Ġwinning":9647,"front":9648,"emic":9649,"ĠJeff":9650,"Ġcath":9651,"Ġduck":9652,"Init":9653,"128":9654,"Ġcrew":9655,"'),":9656,"ĠBlo":9657,"ĠFort":9658,"Web":9659,"Ġcreates":9660,"Ġshaft":9661,".]":9662,"Case":9663,"yes":9664,"enant":9665,"berry":9666,"ĠRepublicans":9667,"Ġwonderful":9668,"Ingredients":9669,"Â§":9670,"Ġcircum":9671,"Ġrevenues":9672,"ĠFootball":9673,"ĠLewis":9674,"ĠEmpire":9675,"Ġoccasions":9676,"Ġcontends":9677,"raise":9678,"ĠKar":9679,"ĠVersion":9680,"*]{},":9681,"Like":9682,"ĠUt":9683,"Ġplanet":9684,"Ġregulatory":9685,"Health":9686,"outheast":9687,"ĠQuestionnaire":9688,"DNA":9689,"tra":9690,"ĠOK":9691,"1999":9692,"Ġgoods":9693,"Ev":9694,"Ġsoul":9695,"Ġdelete":9696,"Ġanomaly":9697,"har":9698,"iro":9699,"sv":9700,"Ġtank":9701,"imum":9702,"about":9703,"Ġtruck":9704,"Ġsatisfy":9705,"ĠConstitution":9706,"Ġthr":9707,"ĠFox":9708,"ĠFood":9709,"ĠÂ«":9710,"ĠProtein":9711,"etry":9712,"istant":9713,"Ġ91":9714,"Ġpara":9715,"Ġinvolve":9716,"ĠPath":9717,"}^{-":9718,"ĠAnthony":9719,"Ġstraightforward":9720,"ĠHollywood":9721,"Ġgel":9722,"umps":9723,"ophag":9724,"fg":9725,"amination":9726,"Ġ116":9727,"ĠBern":9728,"Ġpurchased":9729,"Ġextracted":9730,"Bundle":9731,"âĤ¬":9732,"ĠFuture":9733,"kt":9734,"å¤":9735,"Ġresc":9736,"AMP":9737,"Ġencoding":9738,"Ġdocumentation":9739,"Ġdisclosed":9740,"copy":9741,"vol":9742,"Ġess":9743,"Ġmissed":9744,"eds":9745,"Ġaged":9746,"Ġradius":9747,"Put":9748,"itations":9749,"Ġowned":9750,"Ġcommunications":9751,"Ġintroduction":9752,"Ġindependently":9753,"Ġobserve":9754,"ĠBureau":9755,"mathscr":9756,"Ġsatellite":9757,"Ġacoustic":9758,"enal":9759,"Ġmask":9760,"Ġlegs":9761,"Ġhell":9762,"Ġlat":9763,"Ġedges":9764,"Ġnursing":9765,".^[@":9766,"Ġ\\{":9767,"ĠHR":9768,"Ġcarrier":9769,"2004":9770,"ĠDO":9771,"ĠKey":9772,"Ġdiscover":9773,"Ġabundant":9774,"Ġentertainment":9775,"Ġencountered":9776,"Ġsubmucosal":9777,"\"\"":9778,"Ġng":9779,"ĠPT":9780,"Ġrain":9781,"erving":9782,"Ġbowl":9783,"iag":9784,"idad":9785,"ĠBase":9786,"ĠInvest":9787,"ĠKn":9788,"Ġheader":9789,"Ġperfectly":9790,"Ġinhibitor":9791,"Top":9792,"she":9793,"Ġchose":9794,"Ġnurse":9795,"ted":9796,"wa":9797,"Ġsong":9798,"close":9799,"cludes":9800,"Ġ1992":9801,"Ġstrike":9802,"GT":9803,"Ġsummar":9804,"Ġstronger":9805,"Ġancest":9806,"ynchron":9807,"Ġinnocent":9808,"Ġdoc":9809,"Ġcorresponds":9810,"Ġyields":9811,"Ġ83":9812,"Ġwelfare":9813,"January":9814,"lie":9815,"ali":9816,"Ġ1994":9817,"era":9818,"------------":9819,"ĠBased":9820,"example":9821,"Ġcars":9822,"Ġmarginal":9823,"Most":9824,"umes":9825,"Ġ94":9826,"Ġfrequent":9827,"Ġmanufacturing":9828,"ĠArkansas":9829,"gress":9830,"}:":9831,"project":9832,"Ġtemporary":9833,"ji":9834,"aciÃ³n":9835,"Ġshouldn":9836,"Ġcarefully":9837,"Ġrounded":9838,"Ġtab":9839,"Ġhazard":9840,"ĠNetherlands":9841,"ĠAppendix":9842,"Ġmeta":9843,"illion":9844,"Mark":9845,"some":9846,"zo":9847,"ione":9848,"shot":9849,"Sl":9850,"meta":9851,"Ġcomplexity":9852,"Ġimproving":9853,"infinity":9854,"Ġbulk":9855,"Ġtroubles":9856,"ĠVancouver":9857,"anted":9858,"}_\\":9859,"Ġmagnitude":9860,"Ġanalytical":9861,"va":9862,"Ġselling":9863,"Ġ115":9864,"Ġtele":9865,"2005":9866,"Under":9867,"Ġfunc":9868,"oplus":9869,"anol":9870,"Ġexerc":9871,"ictionary":9872,"Ġdataset":9873,"Ġfriction":9874,"Ġaggrav":9875,"ĠLIABILITY":9876,"rat":9877,"iana":9878,"Ġperforming":9879,"Ġprofiles":9880,"Ġopposed":9881,"ĠGM":9882,"expression":9883,"ĠÃ©":9884,"Ġseparation":9885,"ĠSpecial":9886,"BV":9887,"ja":9888,"make":9889,"ira":9890,"should":9891,"NAME":9892,"âĢĶâĢĶ":9893,"Ġmaternal":9894,"ĠHAVE":9895,"iform":9896,"Ġcomparing":9897,"','":9898,"ĠOrder":9899,"Ġseriously":9900,"Widget":9901,"aterial":9902,"Ġbringing":9903,"Ġexplicitly":9904,"Memory":9905,"Ġrelevance":9906,"Ġfeasible":9907,"Ġdiagrams":9908,"={":9909,"Ġmild":9910,"\"}),":9911,"Ġparticipation":9912,"Ġquantity":9913,"Ġdoctors":9914,"Ġsurprising":9915,"Left":9916,"NR":9917,"retion":9918,"otox":9919,"Ġ87":9920,"Ġaccommod":9921,"Ġsufficiently":9922,"atisf":9923,"Ġyeast":9924,"Red":9925,"Script":9926,"ĠUV":9927,"Ġtransparency":9928,"ĠMike":9929,"008":9930,"Ġequally":9931,"Ġmetall":9932,"ĠBuild":9933,"Î³":9934,"Ġalb":9935,"Ġokay":9936,"Ġinstances":9937,"agan":9938,"ĠFed":9939,"Ġperp":9940,"Ġreader":9941,"Ġdomains":9942,"Ġcapture":9943,"ĠHilbert":9944,"(_":9945,"actic":9946,"Ġwherein":9947,"vin":9948,"EXT":9949,"holder":9950,"ĠMD":9951,"Configuration":9952,"ĠBGCOLOR":9953,"ĠIr":9954,"Ġcomfort":9955,"brace":9956,"Ġperiods":9957,"Ġwriter":9958,"ĠDigital":9959,"bro":9960,"ĠRam":9961,"ĠOh":9962,"ixed":9963,"Ġdisturb":9964,"Ġconsecutive":9965,";</":9966,"dl":9967,"Ġwhenever":9968,"ĠCohen":9969,"ĠMedicare":9970,"VERSION":9971,"Vertex":9972,")),":9973,"020":9974,"Ġmapping":9975,"thread":9976,"ĠBow":9977,"ilation":9978,"Ġactivated":9979,"ĠPrime":9980,"Ġmutation":9981,"Does":9982,"Hey":9983,"ĠCase":9984,"Ġprote":9985,"Once":9986,"ĠDoes":9987,"ropolitan":9988,"Dep":9989,"fi":9990,"person":9991,"uit":9992,"ĠTor":9993,"Ġelected":9994,"Ġrely":9995,"ĠSO":9996,"Ġ112":9997,"ĠLib":9998,"ĠCrohn":9999,"Ġ**(":10000,"Ġreferences":10001,"Did":10002,"Location":10003,"bell":10004,"Ġarmy":10005,"Ġsignature":10006,"Ġcrimes":10007,"Ġcontradict":10008,"two":10009,"Ġresolve":10010,"Ġvehicles":10011,"000000":10012,"AME":10013,"especially":10014,"His":10015,"Ġbin":10016,"Ġbear":10017,"Ġstolen":10018,"Ġenemies":10019,"ĠStephen":10020,"DOCTYPE":10021,"ĠSource":10022,"ĠNFL":10023,"\"}](":10024,"Ġtargeted":10025,"Ġsuspect":10026,"Collection":10027,"Ġcited":10028,"imated":10029,"Ġgall":10030,"Ġ\"(":10031,"Conn":10032,"Ġsurprise":10033,"Ġaluminum":10034,"ĠDVD":10035,"February":10036,"Good":10037,"echn":10038,"Ġchecked":10039,"MM":10040,"ĠInit":10041,"Ġauthent":10042,"inson":10043,"ĠMoscow":10044,"mes":10045,"Ġthrows":10046,"ĠED":10047,"ĠStudies":10048,"auth":10049,"Ġinclusion":10050,"ropy":10051,"Donald":10052,"ta":10053,"itr":10054,"ĠMich":10055,"ĠEff":10056,"Ġprovider":10057,"Nav":10058,"ador":10059,"izations":10060,"Ġcircle":10061,"Ġboost":10062,"omorphic":10063,"Ġneutrino":10064,"Sw":10065,"Ġbuying":10066,"Ġpassage":10067,"Container":10068,"Ġdirections":10069,"Ġlipid":10070,"Ġsister":10071,"ipher":10072,"Ġmasses":10073,"Ġforest":10074,"ĠTechnology":10075,"Further":10076,"havior":10077,"jango":10078,"INCLUD":10079,"Ġsyntax":10080,"such":10081,"Ġdominant":10082,"gi":10083,"hol":10084,"Ġwound":10085,"Ġproven":10086,"Ġnegot":10087,"description":10088,"Ġwisdom":10089,"Ġanticipated":10090,"cover":10091,"disc":10092,"west":10093,"ĠMake":10094,"adi":10095,"irection":10096,"Ġ600":10097,"Ġdrain":10098,"Ġubiqu":10099,"Ġreservoir":10100,">,":10101,"Ġbatch":10102,"ĠLand":10103,"Ġok":10104,"Ġvariations":10105,"pace":10106,"åĲ":10107,"ibly":10108,"Ġverify":10109,"Ġtwenty":10110,"Japan":10111,"Ġbuttons":10112,"Appellant":10113,"!âĢĿ":10114,"Ġviral":10115,"Ġparadigm":10116,"Bo":10117,"Ġwine":10118,"Ġnum":10119,"Ġresection":10120,"Ġmixing":10121,"ĠNetwork":10122,"ĠFourier":10123,"Ġshrink":10124,"ĠScientific":10125,"Ġ------------------------------------------------------------------":10126,"Ġsulf":10127,"Ġfig":10128,"Ġinduce":10129,"âĢħ":10130,"Total":10131,"Ġexit":10132,"ĠNumber":10133,"Ġjson":10134,"Ġimprovements":10135,"help":10136,"Ġpartnership":10137,"Ġarrival":10138,"Ġvoluntary":10139,"ffffffffffffffffffffffffffffffffffffffffffffffffff":10140,"ĠRights":10141,"Ġplenty":10142,"Ġdiscrim":10143,"FD":10144,"Ġsad":10145,"External":10146,"when":10147,"remove":10148,"Only":10149,"Ġconsumers":10150,"Ġtangent":10151,"Ġproximal":10152,"ĠLi":10153,"Attribute":10154,"ĠLincoln":10155,"Tab":10156,"ĠEst":10157,"Ġ{{":10158,"Build":10159,"Ġcameras":10160,"Ġgrabbed":10161,"363774430":10162,"ĠManagement":10163,"Ġclusters":10164,"Car":10165,"nm":10166,"ila":10167,"Ġ130":10168,"ĠHam":10169,"vious":10170,"Ġcream":10171,"Ġsignatures":10172,"DEBUG":10173,"Ġmachinery":10174,"aid":10175,"Ġcab":10176,"Ġclassic":10177,"lier":10178,"Ġfatty":10179,"plus":10180,"ĠJac":10181,"Ġtechnologies":10182,"Ġbridge":10183,"ĠForce":10184,"Ġapartment":10185,"&=&":10186,"Ġ..":10187,"Ġtrib":10188,"oman":10189,"Ġ$-":10190,"Ġreserved":10191,"Ġ86":10192,"Ġ92":10193,"mediated":10194,"Ñĭ":10195,"Ġ$[":10196,"Ġ$|":10197,"ĠEvent":10198,"))/(":10199,"ĠNelson":10200,"olds":10201,"Ġarbitrary":10202,"Ġrobust":10203,"Ġresponded":10204,"Ġcommitment":10205,"ifndef":10206,"Ġrobbery":10207,"Ġhun":10208,"Ġcareful":10209,"Ġawareness":10210,"Ġreduces":10211,"ĠPS":10212,"ĠRight":10213,"Ġsoci":10214,"Ã©s":10215,"ĠÃł":10216,"Ġrestaurant":10217,"Ġcongressional":10218,"iac":10219,"Ġbomb":10220,"Ġlift":10221,"orship":10222,"Ġheads":10223,"Ġmonitor":10224,"Ġextraction":10225,"Ġmonitored":10226,"double":10227,"Ġ1993":10228,"Ġindirect":10229,"Ġ93":10230,"Ġhealthcare":10231,"Ġchallenging":10232,"Ġloaded":10233,"Ġphysics":10234,"ocutusOfBorg":10235,"Ġpour":10236,"Ġdisability":10237,"Ġattribute":10238,"Ġbarrier":10239,"Ġfibrin":10240,"Section":10241,"Ġtrace":10242,"rave":10243,"Ġthereof":10244,"Ġgreatly":10245,"Ġsurprised":10246,"ologically":10247,"Ġmothers":10248,"ASE":10249,"Ġstaining":10250,"ĠNC":10251,"Ġchlor":10252,"Ġremind":10253,"Ġbuildings":10254,"Ġcopies":10255,"Ġnanoparticles":10256,"ectomy":10257,"Ġhasn":10258,"127":10259,"render":10260,"ĠConn":10261,"Ġscalar":10262,"Ġsuspicion":10263,"UST":10264,"oved":10265,"Ġcaps":10266,"overs":10267,"icing":10268,"ĠSign":10269,"ĠRock":10270,"ĠEll":10271,"awn":10272,"Ġengage":10273,"Ġenabling":10274,"typename":10275,"Ġsubtle":10276,"---|---":10277,"conscious":10278,"Ġcurriculum":10279,"Draw":10280,"Ġalive":10281,"Ġ\"#":10282,"ĠStart":10283,"loop":10284,"Ġminister":10285,"1000":10286,"800":10287,"Pa":10288,"Ġplug":10289,"Ġhash":10290,"Second":10291,"Ġelectrode":10292,"ĠDallas":10293,"CRIPT":10294,"Ġpeaceful":10295,"<?":10296,"High":10297,"TM":10298,"ĠMiddle":10299,"ivid":10300,"Ġintake":10301,"ĠHurricane":10302,";;;;;;;;;;;;;;;;":10303,"lam":10304,"xb":10305,"Ġreward":10306,"ĠSi":10307,"uri":10308,"thal":10309,"ĠDan":10310,"aks":10311,"territory":10312,"Ġexperiencing":10313,"Ġmanufacturers":10314,"Ġmembranes":10315,",$$":10316,"Tool":10317,"tmp":10318,"Ġheter":10319,"Ġlosing":10320,"avel":10321,"Ġ81":10322,"Ġblind":10323,"INTER":10324,"Ġcuts":10325,"LY":10326,"Ġwal":10327,"ĠCu":10328,"ĠBefore":10329,"Ġ&=&":10330,"eger":10331,"Ġhandling":10332,"anna":10333,"Ġargs":10334,"establ":10335,"Ġisopropyl":10336,"qquad":10337,"Ġtom":10338,"Ġnerve":10339,"osomes":10340,"Ġcolors":10341,"Core":10342,"xff":10343,"ĠSC":10344,"Ġstabil":10345,"ĠMult":10346,"Ġboys":10347,"Ġteachers":10348,"WS":10349,"them":10350,"Ġyellow":10351,"Ġpresents":10352,"ĠAgain":10353,"Ġunprecedented":10354,"ĠVALUES":10355,"Ġsaved":10356,"ĠEnt":10357,"130":10358,"Ġbrings":10359,"Ġcovering":10360,"Ġmetabolism":10361,"ÂĢÂ":10362,"Ġproducer":10363,"eral":10364,"env":10365,"ando":10366,"Ġpursu":10367,"Ġhydrogen":10368,"Ġthickness":10369,"Ġreveal":10370,"){\\":10371,"OG":10372,"family":10373,"Ġfort":10374,"Ġdecay":10375,"ĠEconomic":10376,"Ġspontaneous":10377,"Ġsubstrates":10378,"Ġequivalence":10379,"./":10380,":=":10381,"Ġeast":10382,"ĠSix":10383,"formed":10384,"Ġreviews":10385,"ĠEmploy":10386,"Server":10387,"Custom":10388,"Mon":10389,"cb":10390,"Ġwinter":10391,"ĠColl":10392,"there":10393,"Ġvalve":10394,"Ġhistorical":10395,"Ġtackle":10396,"emperature":10397,"PK":10398,"Ġstood":10399,"oped":10400,"Ġcomplet":10401,"Ġ})":10402,"jrwren":10403,"getElementById":10404,"Ġlb":10405,"Ġ180":10406,"ĠBook":10407,"ĠJim":10408,"ĠCommand":10409,"ĠAsian":10410,"Ġdivide":10411,"Ġhardware":10412,"Ġirregular":10413,"NAMESPACE":10414,"fire":10415,"ĠBY":10416,"ĠLine":10417,"Ġrefers":10418,"LD":10419,"Ġbanks":10420,"Ġdump":10421,"âĢ¯":10422,"Ġonset":10423,"Ġmeal":10424,"exists":10425,"Ġfiling":10426,"ĠOxford":10427,"ĠCurrent":10428,"Ġpartially":10429,"Ġscored":10430,"IGN":10431,"uan":10432,"Ġtheories":10433,"Ġnic":10434,"Ġlic":10435,"Ġisland":10436,")$$":10437,"Ġmarketing":10438,"Ġproposals":10439,"Ġpsychiatric":10440,"Ġatmospheric":10441,"OB":10442,"ille":10443,"omp":10444,"Ġ((-":10445,"ĠMiller":10446,"Ġserial":10447,"Ġfewer":10448,"ĠSquare":10449,"Ġbankruptcy":10450,"Ġdinner":10451,"Ġundert":10452,"Ġsuppress":10453,"FT":10454,"Non":10455,"een":10456,"ĠMass":10457,"]{},":10458,"viously":10459,"ĠAdv":10460,"Ġsomewhere":10461,"ĠELISA":10462,"ĠmM":10463,"Ġbytes":10464,"}\\\\":10465,"Ġexecuted":10466,"Ġwatched":10467,"Ġomitted":10468,"AST":10469,"bon":10470,"vision":10471,"imp":10472,"ĠAust":10473,"iments":10474,"ĠRun":10475,"Ġwearing":10476,"Ġflight":10477,"Change":10478,"Ġodd":10479,"bool":10480,"Ġsed":10481,"ĠCustom":10482,"Ġdeposition":10483,"ĠTown":10484,"011":10485,"Ġanymore":10486,"Ġprofit":10487,"ĠHTML":10488,"ĠNY":10489,"master":10490,"ĠFM":10491,").$$":10492,"ĠCommunity":10493,"Ġexecution":10494,"ĠSafety":10495,"ĠAntonio":10496,"Ġgravitational":10497,")|":10498,"216":10499,"ĠPage":10500,"Ġmatching":10501,"Ġnumerical":10502,"ĠFunction":10503,"ĠGlobal":10504,"014":10505,"ĊĉĠĠĠ":10506,"IME":10507,"Ġwhilst":10508,"ĠPremier":10509,"Ġcollateral":10510,"Ġatheroscler":10511,"ogether":10512,"Ġpriority":10513,"Ġnewspapers":10514,"Ġreceiver":10515,"Ġconservative":10516,"gment":10517,"Menu":10518,"erk":10519,"aze":10520,"published":10521,"Ġtutorial":10522,"ĠBanach":10523,"Ġspoken":10524,"Op":10525,"uction":10526,"Ġfed":10527,"employ":10528,"Ġexpanded":10529,"ycle":10530,"Ġbits":10531,"imen":10532,"udio":10533,"Application":10534,"Ġbounded":10535,"Ġoutdoor":10536,"Ġsoluble":10537,"ĠProcedure":10538,"Ġrefusal":10539,"Long":10540,"SV":10541,"ĠSyria":10542,"Ġseeds":10543,"NP":10544,"inic":10545,"orial":10546,"ĠPa":10547,"ĠPers":10548,"Ġconvex":10549,"Ġdecedent":10550,".(":10551,"Search":10552,"elect":10553,"req":10554,"ĠMot":10555,"012":10556,"Ġserves":10557,"Ġseparately":10558,"rees":10559,"ĠSL":10560,"quis":10561,"ocus":10562,"Ġvariance":10563,"container":10564,"GROUP":10565,"otropic":10566,"Ġischemia":10567,"ĠIoT":10568,"ĠManchester":10569,"istical":10570,"avi":10571,"ETH":10572,"UID":10573,"cean":10574,"Ġ\\\"":10575,"ĠNext":10576,"ĠUser":10577,"Ġpassion":10578,"Ġpeer":10579,"Ġcomputation":10580,"Pointer":10581,"ĠSydney":10582,"Ġdivorce":10583,"Ġpermitted":10584,"Ġdecreases":10585,"ĠmiRNA":10586,"Ġwindows":10587,"Ġriver":10588,"virtual":10589,"ĠGovernor":10590,"Ġenormous":10591,"Ġoutlined":10592,"mate":10593,"Ġdust":10594,"ĠMount":10595,"ĠRet":10596,"Ġ<-":10597,"Ġyards":10598,"Ġlocally":10599,"Ġbread":10600,"ĠAustralian":10601,"orted":10602,"Ġneural":10603,"Ġphotograph":10604,"ĠBlue":10605,"Graph":10606,"Ġwitnesses":10607,"mercial":10608,"Ġjavax":10609,"Ġadequately":10610,"Ġentrance":10611,"Will":10612,"Ã¿":10613,"edge":10614,"),\\":10615,"ONE":10616,"Ġdiver":10617,"Ġpresidential":10618,"ĠTeam":10619,"250":10620,"}\"":10621,"Ġcod":10622,"Ġresolved":10623,"Ġwrapped":10624,".\\[[@":10625,"/_":10626,"OUR":10627,"total":10628,"åħ":10629,"Ġfulf":10630,"asty":10631,"Ġadmission":10632,"Ġflash":10633,"Ġwalls":10634,"Ġepithelium":10635,"tw":10636,"enth":10637,"Ġproud":10638,"Ġuniversal":10639,"Ġdialogue":10640,"University":10641,"Ġsan":10642,"outer":10643,"utable":10644,"igin":10645,"ĠBest":10646,"ervation":10647,"OCK":10648,"\\_\\_\\_\\_\\_\\_":10649,"Mart":10650,"PG":10651,"look":10652,"ĠCur":10653,"enders":10654,"Ġ<!--":10655,"angular":10656,"Ġ102":10657,"Ġflour":10658,"David":10659,"ĠGonz":10660,"Ġpresumably":10661,"Ġcurvature":10662,"Ġhydrophobic":10663,"ĠLett":10664,"ĠPlay":10665,"Ġrestrictions":10666,"Ġintra":10667,"ĠChem":10668,"Ġ105":10669,"Ġsuppose":10670,"upload":10671,"ĠFifth":10672,"apolis":10673,"mapsto":10674,"Row":10675,"reams":10676,"Ġfake":10677,"Height":10678,"Ġmatches":10679,"Ġrib":10680,"Ġinhibitors":10681,"Ġkinase":10682,"phantom":10683,"rystal":10684,"HC":10685,"ĠDist":10686,"ĠGa":10687,"016":10688,"export":10689,"Ġmovies":10690,"Ġportions":10691,"During":10692,"TV":10693,"Ġicon":10694,"Ġgay":10695,"**.":10696,"1998":10697,"Ġcapac":10698,"Ġoccurrence":10699,"empty":10700,"Ġmeasurable":10701,"ĠBangladesh":10702,"tim":10703,"Ġsubgroup":10704,"params":10705,"Ġcontinuing":10706,"Ġinvestors":10707,"Ġguarantee":10708,"Ġpushed":10709,"Ġcheap":10710,"Ġprospective":10711,"iva":10712,"Ġcenters":10713,"Ġsimulations":10714,"Ġadherence":10715,"Ġml":10716,"Ġweigh":10717,"Ġjet":10718,"123":10719,"ĠSpain":10720,"Ġadjusted":10721,"çĽ£çĿ£":10722,"FP":10723,"dig":10724,"tn":10725,"will":10726,"Ġcache":10727,"ĠPL":10728,"ieve":10729,"Queue":10730,"oute":10731,"ĠElect":10732,"Ġ04":10733,"Thread":10734,"\\_[":10735,"Ġphenomenon":10736,"ĠImage":10737,"Ġgalaxies":10738,"xsd":10739,"ĠBE":10740,"ĠJr":10741,"jackson":10742,"Ġprohibited":10743,"ĠDeputy":10744,"ĠPhoenix":10745,"stone":10746,"Ġcomposed":10747,"ĠObs":10748,"regulation":10749,"'}":10750,"Ġfired":10751,"angers":10752,"Ġcomo":10753,"ĠSpace":10754,"Ġtalked":10755,"åľ¨":10756,"ĠBASIS":10757,"Ġdiabetic":10758,"Ġforum":10759,"ĠPay":10760,"ĠBob":10761,"ional":10762,"Ġads":10763,"Ġblank":10764,"they":10765,"11111111":10766,"lat":10767,"Ġuncertainty":10768,"Warning":10769,"Ġconstrued":10770,"ÑĤÑĮ":10771,"Ġhorizon":10772,"Ġsen":10773,"Ġgrew":10774,"Ġ114":10775,"Ġshares":10776,"Ġinfinite":10777,"ascular":10778,"Ġmistake":10779,"uz":10780,"================":10781,"usp":10782,"ocial":10783,"Ġkeys":10784,"Ġconcomitant":10785,"ĠNintendo":10786,"oning":10787,"Ġattr":10788,"ĠRos":10789,"ĠLake":10790,"Ġcoast":10791,"Ġgeometry":10792,"DIR":10793,"feed":10794,"æĪ":10795,"Ġinterf":10796,"Pi":10797,"sy":10798,"Ġcompletion":10799,"ĠLocal":10800,"Ġunw":10801,"ĠÂĹ":10802,"Ġdiffraction":10803,"dy":10804,"mol":10805,"Ġdiverse":10806,"Project":10807,"Ġmetastasis":10808,"Ġeducational":10809,"Following":10810,"Ġundoubtedly":10811,"changed":10812,"ĠTal":10813,"Ġprevention":10814,"Ġscrew":10815,"102":10816,"108":10817,"129":10818,"Ġthinks":10819,"Ġmacro":10820,"Prop":10821,"hab":10822,"what":10823,"ĠJoe":10824,"margin":10825,"Ġrecombinant":10826,"nowledge":10827,"pres":10828,"Ġupload":10829,"Ġcontracts":10830,"hspace":10831,"Ġdb":10832,"ĠHig":10833,"note":10834,"Ġdeclare":10835,"}.$$":10836,"Ġallegations":10837,"Ġ&=":10838,"Ġexpectations":10839,"Ġtalks":10840,"Each":10841,"-----------":10842,"ĠBas":10843,"Ġtiming":10844,"Using":10845,"Ġfer":10846,"fd":10847,"ĠHy":10848,"ĠUC":10849,"Ġvalidity":10850,"cul":10851,"uct":10852,"Ġfa":10853,"ĠSQL":10854,"Ġ1991":10855,"Ġmodul":10856,"Ġelsewhere":10857,"Ġflexible":10858,"molecules":10859,"keep":10860,"Ġmarker":10861,"Ġadvent":10862,"Ġcourage":10863,"Ġcervical":10864,"Ġreleases":10865,"Ġadhesion":10866,"emptyset":10867,"found":10868,"matrix":10869,"ensity":10870,"DM":10871,"Ġdefines":10872,"Ġpacket":10873,"Ġspectral":10874,"Several":10875,"Ġunstable":10876,"Ġ^{":10877,"Ġsomehow":10878,"Ġdeliber":10879,"Ġfailing":10880,"Ġspecificity":10881,"ĠCharles":10882,"Ġsymmetric":10883,"versely":10884,"Ġspiritual":10885,"Equal":10886,"Ġnucleotide":10887,"Ġfluorescent":10888,"Ġjuvenile":10889,"priv":10890,"Ġ($\\":10891,"Ġcoli":10892,"Ġmultipl":10893,"Ġcheese":10894,"Ġcrop":10895,"Ġwest":10896,"Ġorb":10897,"ĠRest":10898,"}})":10899,"Ġincorporated":10900,"010":10901,"Ġorganized":10902,"ARD":10903,"Ġrecommendations":10904,"ĠResults":10905,"_+":10906,"Ġ}\\":10907,"Ġfly":10908,"Ġrevolution":10909,"ĠHotel":10910,"Ġqueries":10911,"Ġtwelve":10912,"fall":10913,"ni":10914,"connect":10915,"Cache":10916,"ĠRT":10917,"ĠEp":10918,"Ġfaced":10919,"offs":10920,"western":10921,"Ġanchor":10922,"dependency":10923,"ÏĢ":10924,"oured":10925,"ĠIBD":10926,"Ġquantitative":10927,"Ġmaintaining":10928,"Ġcollective":10929,"Ġdiffusion":10930,"ĠOl":10931,"Ġarchitecture":10932,"Ġforgotten":10933,"uals":10934,"plot":10935,"full":10936,"ĠWater":10937,"Ġclimb":10938,"Ġdeputy":10939,"ograms":10940,"ho":10941,"layer":10942,"etary":10943,"emble":10944,"jects":10945,"mons":10946,"arding":10947,"Ġjur":10948,"aws":10949,"Ġacet":10950,"Ġmodification":10951,"Ġfeelings":10952,"Ġperturb":10953,"Ġbrilliant":10954,"Ġuncomfortable":10955,"è¿":10956,"Ġoc":10957,"ĠCast":10958,"111":10959,"Ġproviders":10960,"Ġdenial":10961,"Ġpromoter":10962,"Ġrestriction":10963,"~,":10964,"Ġnearby":10965,"Ġdispute":10966,"Free":10967,"final":10968,"ĠCross":10969,"iously":10970,"ĠSciences":10971,"Ġphysicians":10972,"ĠRoman":10973,"uzz":10974,"Ġ119":10975,"ĠFamily":10976,"izz":10977,"Ġinfected":10978,"Ġderivatives":10979,"original":10980,"Ġinfectious":10981,"years":10982,"ãĢģ":10983,"Ġsight":10984,"ĠHE":10985,"acking":10986,"}}(\\":10987,"Reference":10988,"ĊĠĠĠĠĠĠĠĠĠĠĠĠĠĠĠĠĠĠĠĠĠĠĠĠĠĠĠĠĠĠĠĠĠĠĠ":10989,"padding":10990,"Ġaqueous":10991,"Ġineffective":10992,"ãģĦãģ":10993,"ĠPUBLIC":10994,"namespace":10995,"Ġtoken":10996,"uclear":10997,"Ġcontrolling":10998,"Ġ\"\"\"":10999,"AE":11000,"}]":11001,"impl":11002,"Ġinfinity":11003,"Ġloading":11004,"Ġhonor":11005,"government":11006,"angasek":11007,"##################":11008,"Ġpartition":11009,"Ġexpenses":11010,"Ġoperated":11011,"Ġtopological":11012,"ĠUnivers":11013,"ĠRoosevelt":11014,"Option":11015,"Ġcodes":11016,"ĠAction":11017,"istence":11018,"ervices":11019,"conv":11020,"profile":11021,"Ġconvicted":11022,"ĠDescription":11023,"Ġfeeding":11024,"Ġprocedural":11025,"ĠWalker":11026,"Ġencompass":11027,"dehyde":11028,"OO":11029,"fill":11030,"åŃ":11031,"Ġ&&&&":11032,"Port":11033,"hom":11034,"æĸ":11035,"Ġsa":11036,"Ġ113":11037,"Ġmedi":11038,"Ġlosses":11039,"Ġscholars":11040,"Meanwhile":11041,"WIDTH":11042,"carbon":11043,"sys":11044,"onom":11045,"Ġshoulder":11046,"insert":11047,"ILL":11048,"oop":11049,"Ġmamm":11050,"Ġgeneric":11051,"Ġpersonally":11052,"contin":11053,"legate":11054,"ĠRepresent":11055,"ĠKingdom":11056,"SQL":11057,"acity":11058,"Ġchip":11059,"Ġgenerating":11060,"ĠWITHOUT":11061,"Ġmonoclonal":11062,"hep":11063,"Ãº":11064,"enger":11065,"images":11066,"ailing":11067,"Ġcoinc":11068,"oxide":11069,"Ġglut":11070,"Sorry":11071,"Ġelucid":11072,"pad":11073,"ĠAC":11074,"ĠDam":11075,"Ġadds":11076,"ergic":11077,"Expand":11078,"Ġpulse":11079,"Ġconverted":11080,"Ñı":11081,"eties":11082,"ĠSW":11083,"Ġreaders":11084,"Ġgentle":11085,"orph":11086,"Ġdat":11087,"oline":11088,"Ġaden":11089,"ĠCentre":11090,"iii":11091,"Description":11092,"Valid":11093,"Ġencourage":11094,"URE":11095,"_[":11096,"sip":11097,"esc":11098,"Ġcleaning":11099,"Ġignore":11100,"ĠError":11101,"Password":11102,"Ġbenign":11103,"Ġped":11104,"Ġgod":11105,"ĠPolicy":11106,"Ġworker":11107,"Ġrepresentations":11108,"Order":11109,"ĠEnterprise":11110,"Ã¢":11111,"ĠWil":11112,"ĠJava":11113,"leton":11114,"Ġcurrency":11115,"Ġcomprises":11116,"Ġutility":11117,"Ġproducers":11118,"allenge":11119,"Ġdiamond":11120,"Ġbiopsies":11121,"biomolecules":11122,"ĠMilwaukee":11123,"Ġstrings":11124,"ĠTer":11125,"Ġuniverse":11126,"Ġpredictive":11127,"Ġadvertising":11128,"Ġaboard":11129,"Ġhopefully":11130,"ãĥ¢ãĥĩãĥ«ãģ®ãģ¿ãĤŃãĥĥãĥĪãģ¯éĥ¨åĵģãģĮè¶£åĳ³ãģ®ãĥĦãĥ¼ãĥ«ãĤĴä½¿çĶ¨ãģĽãģļãģ«éģ®æĸŃãģĻãĤĭãģĵãģ¨ãģĮåı¯èĥ½ãģªçī¹åĪ¥ãģªãĥ©ãĥ³ãĥĬãĥ¼ãģĮä»ĺå±ŀãģ¨ãģĹãģ¦å®ĮæĪĲåĵģãĤĴå¾ĹãĤĭãģĵãģ¨ãģ¯éĿŀå¸¸ãģ«åŁºæľ¬çļĦãģªãĤ¢ãĤ»ãĥ³ãĥĸãĥªãģ®ãĤ¹ãĤŃãĥ«ãĤĴå¿ħè¦ģãģ¨ãģĻãĤĭãĤŃãĥĥãĥĪ":11131,"nes":11132,"~\\":11133,"Ġfasc":11134,"Ġbeer":11135,"sex":11136,"}}}\\":11137,"ĠAndroid":11138,"through":11139,"ĠChapter":11140,"Store":11141,"Ġreasonably":11142,"Ġconsisting":11143,"ĠMrs":11144,"Ġirradiation":11145,"Types":11146,"ĠFramework":11147,"Ġautoimmune":11148,"Copy":11149,"Ðº":11150,"}}}$":11151,"ĠCriminal":11152,"ĠiPhone":11153,"Ġextraordinary":11154,"BU":11155,"RA":11156,"ĊĊĠĠĠĠĠĠĠĠĠĠĠĠĠĠĠ":11157,"Ġatoms":11158,"Ġgovernments":11159,"Ġentering":11160,"ĠAssoci":11161,"his":11162,"uler":11163,"ĠPop":11164,"ĠCho":11165,"Ġjunior":11166,"Ġfeaturing":11167,"Ġhypoxia":11168,"lan":11169,"Ġalign":11170,"ĠDom":11171,"Ġintern":11172,"ocks":11173,"white":11174,"Ġanalyze":11175,"ĠRyan":11176,"ĊĠĠĠĠĠĠĠĠĠĠĠĠĠĠĠĠ":11177,"Ġconsiderable":11178,"Ġprotest":11179,"Ġbusy":11180,"Ġownership":11181,"Ġswimming":11182,"!\\":11183,"PN":11184,"Ġboot":11185,"ington":11186,"Ġtrick":11187,"ĠJack":11188,"November":11189,"]\"":11190,"Ġultrasound":11191,"ĠStandard":11192,"Ġbeneficial":11193,"Ġsky":11194,"Address":11195,"late":11196,"van":11197,"Ġtrav":11198,"Ġ1970":11199,"erty":11200,"ologist":11201,"Ġeverywhere":11202,"Ġcomputing":11203,"Ġchemotherapy":11204,"Ġclosing":11205,"Ġbowel":11206,"approved":11207,"ĠChakotay":11208,"Ġsand":11209,"Ġvo":11210,"Ġmarks":11211,"Ġqualified":11212,"Rad":11213,"Ġethyl":11214,"Ġrural":11215,"Ġfoundation":11216,"piece":11217,"Ġprolonged":11218,"ĠGordon":11219,"Ġride":11220,"Ġovercome":11221,"ĊĠĠĠĠĊĠĠĠ":11222,"Ġbroadcast":11223,"Ã±":11224,"ĠPK":11225,"116":11226,"ĠSudan":11227,"ĠRAssian":11228,"Ġsurveys":11229,"Ġextensively":11230,"450":11231,"GD":11232,"ito":11233,"entity":11234,"ĠCook":11235,"Ġcompens":11236,"Ġrush":11237,"Ġ1988":11238,"Ġsubmit":11239,"ĠComput":11240,"enna":11241,"Ġesc":11242,"Ġcontacts":11243,"ADVERTISEMENT":11244,"nl":11245,"è¯":11246,"idal":11247,"Ġtract":11248,"driven":11249,"Ġsubmarine":11250,"ĠWittgenstein":11251,"AK":11252,"hard":11253,"Ġsending":11254,"ati":11255,"Ġwaves":11256,"Ġboat":11257,"ĠValley":11258,"Ġcaptured":11259,"pred":11260,"ĠSher":11261,"======":11262,"ĠTotal":11263,"ĠGar":11264,"ĠStan":11265,"Ġassignment":11266,"Ġdiscussions":11267,"ĠApplication":11268,"Ġconstitute":11269,"Ġsovere":11270,"International":11271,"Ġcoordination":11272,"geqslant":11273,"Ġ104":11274,"super":11275,"Ġbroke":11276,"Expression":11277,"Mo":11278,"ĠMid":11279,"Ġrice":11280,"Ġteen":11281,"Ġreflection":11282,"Ġjudicial":11283,"Ġregularly":11284,"Ġunsigned":11285,"Ġdisappoint":11286,"Ġthroat":11287,"Ġmethamphetamine":11288,"Ġmas":11289,"imm":11290,"Ġstorm":11291,"Ġevil":11292,"VE":11293,"Ġ).":11294,"Ġcable":11295,"Ġlists":11296,"ĠDown":11297,"Ġprocessed":11298,"parse":11299,"Ġlateral":11300,"Ġresidues":11301,"Ġtomatoes":11302,"Ġhemorrhage":11303,"dict":11304,"Ġtips":11305,"Ġgut":11306,"ĠWin":11307,"}}^{\\":11308,"Ġimplications":11309,"Num":11310,"\\>":11311,"Ġwww":11312,"Ġfuck":11313,"imately":11314,"Ġvice":11315,"Ġentries":11316,"Ġexplains":11317,"Ġexcit":11318,"ELL":11319,"Ġdrinking":11320,"ĠSteve":11321,"Ġcenturies":11322,"Ġecosystem":11323,"Ġasthma":11324,"making":11325,"Ġhur":11326,"ĠChris":11327,"Product":11328,"ĠExt":11329,"Ġlarvae":11330,"ĠLagrangian":11331,"NT":11332,"game":11333,"pret":11334,"Ġreaching":11335,"Ġtongue":11336,"Ġscandal":11337,";\">":11338,"leep":11339,"eling":11340,"ĠConference":11341,"Ġprecision":11342,"Ġawarded":11343,"+^":11344,"MB":11345,"hash":11346,"ĠRoger":11347,"Ġdefeated":11348,"Attributes":11349,"ĠCharlotte":11350,"site":11351,"Ġtiny":11352,"Ġbon":11353,"ĠLtd":11354,"Ġtargeting":11355,"Ġpreserve":11356,"Ġdoctrine":11357,"dem":11358,"gmail":11359,"ucl":11360,"009":11361,"endor":11362,"Thus":11363,"Ġviewed":11364,"Ġsequencing":11365,"Private":11366,"Ġborders":11367,"'],":11368,"hex":11369,"Ġconsistently":11370,"Ġhabit":11371,"<!--":11372,"iest":11373,"otyp":11374,"cher":11375,"Ġexclusive":11376,"Ġarmed":11377,"Ġpasses":11378,"Ġkeeps":11379,"Ġsuddenly":11380,"âī¥":11381,"ĠHunter":11382,"Ġenlarg":11383,"Ġtablespoon":11384,"ĠUI":11385,"icker":11386,"Ġpepper":11387,"Ġrising":11388,"Ġassays":11389,"Ġcultures":11390,"ĠOTHER":11391,"fect":11392,"acet":11393,"104":11394,"Ġvariants":11395,"background":11396,"ĠContin":11397,"reference":11398,"Ġfaces":11399,"Ġfolder":11400,"Ġlemon":11401,"Ġhero":11402,"eek":11403,"ĠWhether":11404,"Ġphysician":11405,"Ġunlawful":11406,"Ġattitudes":11407,"Sign":11408,"Ġaer":11409,"oug":11410,"apply":11411,"Ġ117":11412,"ĠHal":11413,"ĠTra":11414,"Ġcompeting":11415,"oriented":11416,"Ġbargaining":11417,"Ġintegers":11418,"Ġintelligent":11419,"ĠKennedy":11420,"Ġsimplicity":11421,"pay":11422,"Ġtensor":11423,"arp":11424,"Ġabortion":11425,"ĠUnit":11426,"backs":11427,"Ġexpressions":11428,"Ġartery":11429,"Ġreb":11430,"ĠNBA":11431,"Ġtrading":11432,"ĠSouthern":11433,"Ġmolecule":11434,"ĠMilitary":11435,"Ġroyal":11436,"Ġdendritic":11437,"WR":11438,"olver":11439,"Ġships":11440,"commun":11441,"redit":11442,"Ġsatisfies":11443,"underline":11444,"Ġcord":11445,"urities":11446,"ruit":11447,"STAT":11448,"handle":11449,"ĠApache":11450,"{$":11451,"idx":11452,"ĠMap":11453,"riz":11454,"Ġsimilarly":11455,"Ġviolent":11456,"Ġdemands":11457,"Ġallegedly":11458,"ĠÐ¿":11459,"Ġdismissed":11460,"Ġaccumulation":11461,"ĠPuerto":11462,"Ġelev":11463,"keys":11464,"aste":11465,"Ġreturning":11466,"who":11467,"Ġmovements":11468,"Ġmutant":11469,"ï¿½":11470,"Ġseverely":11471,"Ġplasmid":11472,"Ġnevertheless":11473,"ĠNietzsche":11474,"Ġà¤":11475,"ĠSupport":11476,"ĠAut":11477,"ĠFar":11478,"Ġinterior":11479,"Ġalgorithms":11480,"Ġcompetitive":11481,"ĠValue":11482,"Mult":11483,"cam":11484,"015":11485,"Ġnotion":11486,"Ġmedication":11487,"textbf":11488,"Ġnucleus":11489,"Ġvotes":11490,"Ġkidney":11491,"ĠIMPLIED":11492,"à¥":11493,"Ġfilling":11494,"Ġdip":11495,"Ġclause":11496,"FOR":11497,"IX":11498,"try":11499,"Ġproduces":11500,"103":11501,"argo":11502,"Ġliterally":11503,"Ġappropriately":11504,"ĠHarvard":11505,"âľĵâľĵâľĵâľĵâľĵ":11506,"IAL":11507,"Ġdates":11508,"Ġlin":11509,"ĠLow":11510,"Ġ1989":11511,"ĠAndrew":11512,"API":11513,"Ġcrystall":11514,"Ġhypothetical":11515,"Okay":11516,"ws":11517,"Ġsatur":11518,"ĠGi":11519,"Ġmonthly":11520,"Ġcombine":11521,"ĠMinistry":11522,"Ġgradient":11523,"Parser":11524,"Ġpeptides":11525,"Ġoriented":11526,"ĠOMX":11527,"Ġphylogen":11528,"npm":11529,"Ġmere":11530,"Ġ160":11531,"ĠTake":11532,"Ġarc":11533,"}}$,":11534,"ĠTrue":11535,"Ġhoping":11536,"Ġlayout":11537,"Ġgang":11538,"ĊĠĠĠĠĠĠĠĠĠĠĠĠĠĠĠĠĠĠĠĠ":11539,"Ġcomplexes":11540,"Ġpoliticians":11541,"Ġsoldiers":11542,"Ġvillage":11543,"July":11544,"frequency":11545,"kernel":11546,"ĠVegas":11547,"Ġreceipt":11548,"patch":11549,"cho":11550,"Ġheating":11551,"()->":11552,"Ġmultip":11553,"Level":11554,"drop":11555,"Ġfusion":11556,"Ġdress":11557,"adium":11558,"Ġspons":11559,"Ġsystematic":11560,"ĠAnderson":11561,"fields":11562,"Ġgalaxy":11563,"Ġhockey":11564,"ifting":11565,"Ġrough":11566,"Ġorth":11567,"Ġunconstitutional":11568,"iol":11569,"Ġarise":11570,"ocker":11571,"))/":11572,"IGHT":11573,"plete":11574,"rooms":11575,"Entry":11576,"Ġcytoplasm":11577,"ĠPhilippines":11578,"Doc":11579,"Ġhorizontal":11580,"106":11581,"Ġeverybody":11582,"watch":11583,"Ġwet":11584,"ĠGard":11585,"oves":11586,"Ġcylinder":11587,"Ġpertinent":11588,"ht":11589,"ĠCreate":11590,"Ġenables":11591,"Ġvalidation":11592,"Ġerred":11593,"Ġwireless":11594,"ĠVari":11595,"Ġstruggle":11596,"Ġlaptop":11597,"olymer":11598,"Ġpassengers":11599,"Dialog":11600,"Json":11601,"Vari":11602,"Ġcoding":11603,"forms":11604,"Ġcolour":11605,"ymers":11606,"Ġpaths":11607,"Ġlegislative":11608,"Ġflavor":11609,"Ġtyrosine":11610,"Ð¼":11611,"itar":11612,"lean":11613,"Ġ<=":11614,"Ġsnow":11615,"Ġresidual":11616,"Ġvaccine":11617,"Ġdysfunction":11618,"DEFAULT":11619,"kn":11620,"rell":11621,"ĠPE":11622,"Ġrelating":11623,"Ġviolated":11624,"Ġaddresses":11625,"Ġultimate":11626,"Ġdelayed":11627,"Ġratios":11628,"Ġeggs":11629,"press":11630,"berries":11631,"Ġacceptable":11632,"ĠAbout":11633,"Ġera":11634,"President":11635,"Ġchampion":11636,"TRIBUT":11637,"Ġinstrumental":11638,"201803868":11639,"ĠMain":11640,"Ġtopics":11641,"Ġsensors":11642,"Ġinterpreted":11643,"Ġconstantly":11644,"handler":11645,"\"))":11646,"'\\":11647,"LT":11648,"pool":11649,"Ġterr":11650,"Ġ135":11651,"Ġspan":11652,"Exec":11653,"Ġstreets":11654,"ĠMuseum":11655,"Perhaps":11656,"Ġë":11657,"Ġinverse":11658,"Ġ(@":11659,"Ġoffensive":11660,"Ġcategor":11661,"Ġidentifying":11662,"ĠFaculty":11663,"DH":11664,"igate":11665,"Ġeffectiveness":11666,"Ġ1984":11667,"Ġcorporation":11668,"ĠVladimir":11669,"Ġwake":11670,"ĠThank":11671,"Ġaltered":11672,"ĠPres":11673,"Ġjoy":11674,"Ġcloud":11675,"Ġworldwide":11676,"Ġaffects":11677,"Ġintegrity":11678,"Ġparas":11679,"Ġfalling":11680,"Dir":11681,"Ġeff":11682,"Ġstuck":11683,"ĠPoint":11684,"formance":11685,"ĠYear":11686,"ĠPatent":11687,"Ġneurological":11688,"ĠLIMITED":11689,"Ġunfortunate":11690,"Match":11691,"Ġstudying":11692,"Ġequality":11693,"being":11694,"}({\\":11695,"Ġbounds":11696,"ulin":11697,"Ġinterference":11698,"Ġsomebody":11699,"ova":11700,"Google":11701,"Ro":11702,"Sur":11703,"reh":11704,"channel":11705,"uming":11706,"ructure":11707,"Ġframes":11708,"Ġracial":11709,"Ġrhetoric":11710,"bibr":11711,"Ġ140":11712,"ĠDisc":11713,"ĠKelly":11714,"Ġdecent":11715,"Ġ108":11716,"ÂĹ":11717,"atically":11718,"Ġbic":11719,"pton":11720,"ĠIslamic":11721,"Ġslight":11722,"Ġclosest":11723,"Ġcampus":11724,"Ġtrends":11725,"Ġtouched":11726,"ĠTrilby":11727,"ĠFrancis":11728,"iprofloxacin":11729,"ĠAh":11730,"Ġlease":11731,"Ġbless":11732,"Ġfluorescence":11733,"Ġtape":11734,"Ġturb":11735,"elt":11736,"ĠDirect":11737,"ĠLead":11738,"ĊĠĠĠĠĠĠĠĠĠĠĠĠĠĠĠĠĠĠĠĠĠĠĠĠĠ":11739,"Ġpixel":11740,"lipse":11741,"Ġmoisture":11742,"gan":11743,"hot":11744,"address":11745,"Ġsmile":11746,"Ġdrag":11747,"Enc":11748,"Ġarrangement":11749,"bold":11750,"ĠPur":11751,"=\"../":11752,"spect":11753,"pmatrix":11754,"Ġaccessible":11755,"journal":11756,"Ġfatigue":11757,"ACKGROUND":11758,"tree":11759,"ĠMah":11760,"Ġimmunity":11761,"Ġabsent":11762,"missible":11763,"Ġimproper":11764,"Ġmounted":11765,"Ġcomprising":11766,"Ġparking":11767,"Ġstrictly":11768,"Ġvegetables":11769,"Come":11770,"vm":11771,"Ġglo":11772,"Ġinfl":11773,"Instead":11774,"Ġlawmakers":11775,"Ġresponsibilities":11776,"ĠIntelligence":11777,"Ġassemblies":11778,"wall":11779,"ĠCP":11780,"Ġrape":11781,"ĠHon":11782,"Ġmodules":11783,"Ġlabels":11784,"Mesh":11785,"iy":11786,"ĠElement":11787,"ĠIndex":11788,"Ġconcrete":11789,"ĠBruce":11790,"ĠLGBT":11791,"Ġinfrared":11792,"NET":11793,"ĠCost":11794,"Ġ-------":11795,"ĠTurn":11796,"117":11797,"Ġsurge":11798,"Ġextrem":11799,"Ġsuspected":11800,"Ġauthorized":11801,"ĠSeries":11802,"Ġengineering":11803,"Ġeosinoph":11804,"VC":11805,"fin":11806,"git":11807,"uis":11808,"environment":11809,"analysis":11810,"ĠDM":11811,"Ġnotation":11812,"Ġleaf":11813,"derived":11814,"ishes":11815,"Ġprofessor":11816,"Ġdisregard":11817,"Ġmicrobial":11818,"ea":11819,"aser":11820,"agger":11821,"ĠBa":11822,"Ġprogramming":11823,"Ġprotective":11824,"Ġmeetings":11825,"ĠCarl":11826,"Ġdebug":11827,"Mc":11828,"javascript":11829,"ĠSa":11830,"ĠDar":11831,"ĠDid":11832,"ĠNF":11833,"Ġdiscrete":11834,"Ġangi":11835,"Ġenzymes":11836,"Ġdestruction":11837,"Ġischemic":11838,"ĠNASA":11839,"ĠBuffalo":11840,"Ġelectrophoresis":11841,"1008476":11842,"CODE":11843,"Ġchr":11844,"Ġvarying":11845,"Look":11846,"anth":11847,"Ġbands":11848,"acon":11849,"Ġranging":11850,"Ġenjoyed":11851,"Ġinevitable":11852,"ĠBuddh":11853,"Ġ[âĢ¦]":11854,"Ġenriched":11855,"ertificate":11856,"Ġcondemn":11857,"Http":11858,"ĠĊĠĠĠĠĠĠĠ":11859,"Ġfung":11860,"Ġvital":11861,"Ġperf":11862,"Ġ106":11863,"uality":11864,"Ġ125":11865,"Ġindication":11866,"Ġautomatic":11867,"Ġodds":11868,"RP":11869,"rect":11870,"black":11871,"SET":11872,"Prefix":11873,"UPDATE":11874,"OF":11875,"xt":11876,"Ġmesh":11877,"ĠAge":11878,"ĠRequ":11879,"ĠProb":11880,"bullet":11881,"Ġnations":11882,"ĠThough":11883,"ĠFL":11884,"Ġjail":11885,"comment":11886,"Ġdestroyed":11887,"ĠÐ²":11888,"Params":11889,"Ġreversed":11890,"Ġfacilitate":11891,"ĠReference":11892,"language":11893,"orse":11894,"ĠGre":11895,"]{}]{}":11896,"Ġfrequencies":11897,"Ġcoordinate":11898,"Ġoxide":11899,"Reader":11900,"oned":11901,"Ġlunch":11902,"osomal":11903,"Ġproceeding":11904,"Ġappreciate":11905,"Ġflesh":11906,"Ġglobally":11907,"adjusted":11908,"Ġspherical":11909,"Ġechocardi":11910,"Ste":11911,"email":11912,"ĠChampionship":11913,"Ġdifficulties":11914,"Ġlimitation":11915,"Ġmaximal":11916,"Ġdrawing":11917,"Ġgorgeous":11918,"aryngeal":11919,"ĠOrthodox":11920,"cond":11921,"inct":11922,"ĠAB":11923,"irus":11924,"ĠConsequently":11925,"Engine":11926,"Ġluxury":11927,"Title":11928,"gp":11929,"install":11930,"ĠĠĠĠĠĠĠĠĠĠĠĠĠĠĠĠĠĠĠĠĠĠĠĠĠĠĠĠĠ":11931,"iano":11932,"Ġinvestigations":11933,"Ġdamaged":11934,",$":11935,"Main":11936,"[$":11937,"\\}$":11938,"irth":11939,"ĠMiss":11940,"ĠPass":11941,"ĊĠĠĠĠĠĠĠĠĠĠĠĠĠĠĠĠĠĠĠĠĠĠĠĠĠĠĠĠĠĠĠĠĠĠĠĠĠĠĠĠĠĠĠĠĠĠĠĠĠĠĠĠĠĠĠĠĠĠĠĠĠĠĠĠĠĠĠĠĠĠ":11942,"Ġending":11943,"256":11944,"Ġreflected":11945,"Ġfunny":11946,"Ġangular":11947,"represent":11948,"ĠChairman":11949,"Ġformulas":11950,"ĠANOVA":11951,"Ġsacrifice":11952,"dp":11953,"uated":11954,"Ġpas":11955,"sts":11956,"adder":11957,"ĠMir":11958,"Ġrub":11959,"ogens":11960,"Ġteeth":11961,"Ġearned":11962,"energy":11963,"Ġsupers":11964,"ĠPlaintiffs":11965,"April":11966,"Ġdosage":11967,"Ġadministrator":11968,"Ġerroneous":11969,"gov":11970,"Ġbunch":11971,"Ġda":11972,"Ġ$\\{":11973,"amente":11974,".).":11975,"HD":11976,"PRE":11977,"dest":11978,"each":11979,"Ġ(%)":11980,"ĠExper":11981,"ĠDoctor":11982,"THE":11983,"ĠfibM":11984,"Ġappointed":11985,"ï»¿":11986,"119":11987,"ĠCF":11988,"Ġrose":11989,"ennis":11990,"diff":11991,"Ġspecify":11992,"Ġnormalized":11993,"Ġchecking":11994,"ĠHepat":11995,"Ġassembled":11996,"smallcaps":11997,"Ġteaspoons":11998,"ĠAbbVie":11999,".),":12000,"SK":12001,"SER":12002,"pgen":12003,"Ġbid":12004,"ĠLar":12005,"Ġsees":12006,"Ġages":12007,"criptor":12008,"Ġretain":12009,"Ġsubjected":12010,"cmd":12011,"Ġip":12012,"Ġ118":12013,"ĠFA":12014,"illary":12015,"Ġdecor":12016,"Ġcovers":12017,"Ġestimation":12018,"Ġpromising":12019,"Ġobjection":12020,"docs":12021,"Ġsampled":12022,"Ġprosper":12023,"ĠJenkins":12024,"Ġharassment":12025,"Auth":12026,"Has":12027,"dated":12028,"oving":12029,"Ġcycles":12030,"Impl":12031,"ĠHampshire":12032,"lers":12033,"Ġdegener":12034,"ĠNode":12035,"}}}}":12036,"trl":12037,"Ġ109":12038,"token":12039,"Ġshopping":12040,"Ġhesit":12041,"*(-":12042,"NE":12043,"cache":12044,"lower":12045,"|^":12046,"iser":12047,"Ġstone":12048,"ĠWild":12049,"Ġscales":12050,"Ġattitude":12051,"Ġbreach":12052,"ViewController":12053,"Ġdesigns":12054,"^)":12055,"roy":12056,"Ġprofessionals":12057,"ĠAgency":12058,"Ġcryptocur":12059,"Ġquestionnaires":12060,"ĠMelbourne":12061,"Ġdiaphragm":12062,">.":12063,"}%":12064,"istance":12065,"ĠDem":12066,"Ġpsychological":12067,"ogenous":12068,"Ġaudio":12069,"Miss":12070,"pb":12071,"ĠIC":12072,"uration":12073,"ologists":12074,"Ġphenotype":12075,"Ġcake":12076,"Ġ{@":12077,"Ġovernight":12078,"Ġrepeatedly":12079,"Ġtolerance":12080,"Ġna":12081,"Ġ132":12082,"ĠOct":12083,"1997":12084,"genic":12085,"delete":12086,"Ġcreative":12087,"Ġugly":12088,"Ġcommerce":12089,"Ġdozens":12090,"Ġprevalent":12091,"Ġretrieve":12092,"ĠMedicaid":12093,"ulator":12094,"fileID":12095,"Ġlesion":12096,"Ġeliminate":12097,"Ġconjug":12098,"!)":12099,"ĠSon":12100,"Ġdefensive":12101,"United":12102,"Ġvoted":12103,"trivial":12104,"Ġsiblings":12105,"ãĤŃãĥ£ãĥ©ãĤ¯ãĤ¿ãĥ¼ãĥĩãĤ¶ãĤ¤ãĥ³":12106,"methyl":12107,"usc":12108,"ĠSn":12109,"Ġalignment":12110,"Ġscoring":12111,"Ġ1985":12112,"Ġpreventing":12113,"Ġvoting":12114,"gex":12115,"Ġexplos":12116,"ĠMitchell":12117,"Ġseventh":12118,"Ġoverseas":12119,"Ġreflux":12120,"Ġconvey":12121,"ĠLove":12122,"cli":12123,"ĠWeek":12124,"ugg":12125,"ĠStudy":12126,"ĠManhattan":12127,"Ġbull":12128,"Ġmom":12129,"Ġru":12130,"encia":12131,"ĠÂ°":12132,"aptic":12133,"Iterator":12134,"Ġellip":12135,"Ġpylori":12136,"Ġcompassion":12137,"ensitivity":12138,"ãģ£ãģ":12139,"JS":12140,"tar":12141,"ĊĊĠĠĠĠĠĠĠĠĠĠĠĠĠĠĠĠĠĠĠĠĠĠĠĠĠĠĠĠĠĠĠĠĠĠĠĠĠĠĠĠĠĠ":12142,"Ġtone":12143,"ĠRa":12144,"Ġharvest":12145,"Del":12146,"TG":12147,"ante":12148,"\"));":12149,"Ġfalls":12150,"tikz":12151,"Ġvapor":12152,"ĠAlternatively":12153,"ĠBeijing":12154,"atopoietic":12155,"ĠMediterranean":12156,"Ġtun":12157,"olly":12158,"antly":12159,"Ġscaling":12160,"Ġdenotes":12161,"Ġrooms":12162,"inch":12163,"Ġtender":12164,"ĠGR":12165,"Ġ103":12166,"Ġinjected":12167,"Ġforever":12168,"Ġexhibited":12169,"ĠSingh":12170,"session":12171,"onomic":12172,"Ġdeals":12173,"ĠLuc":12174,"Ġphases":12175,"144":12176,"Ġqueue":12177,"Ġphysically":12178,"Ġaims":12179,"ĠNorwegian":12180,"Make":12181,"border":12182,"Ġlys":12183,"notation":12184,"Ġrandomly":12185,"CHAR":12186,"ĠSurgery":12187,"Ġtact":12188,"Ġboss":12189,"ami":12190,"Ġshorter":12191,"Ġgenerator":12192,"component":12193,"Ġlaid":12194,"Ġutilized":12195,"Have":12196,"Ġcraft":12197,"Ġpython":12198,"Ġgiant":12199,"ĠFair":12200,"ĠDR":12201,"Ġimper":12202,"away":12203,"118":12204,"Ġstrange":12205,"Grid":12206,"primary":12207,"Ġstakeholders":12208,"~)":12209,"documentclass":12210,"Ġli":12211,"Ġlean":12212,"Ġadmit":12213,"Ġrabbit":12214,"Ġdebris":12215,"Ġmystery":12216,"ĠOrleans":12217,"LV":12218,"Position":12219,"supp":12220,"imon":12221,"ĠFC":12222,"ĠFBI":12223,"aping":12224,"Ġputs":12225,"Ġpropose":12226,"Ġinevitably":12227,"Support":12228,"opes":12229,"ĠMun":12230,"Ġ''":12231,"Ġroots":12232,"echo":12233,"Module":12234,"Ġbatteries":12235,"las":12236,"uid":12237,"yard":12238,"Â½":12239,"acker":12240,"Ġfriendly":12241,"Ġsentencing":12242,"ãĤ¢ãĥĭãĥ¡":12243,"olving":12244,"Ġfavorable":12245,"Editor":12246,"Ġtalent":12247,"Ġligand":12248,"Ġfraudulent":12249,"ĠKaepernick":12250,"Aut":12251,"nn":12252,"iffer":12253,"Ġincorrect":12254,"ĠExample":12255,"Ġskill":12256,"Ġinserted":12257,"210":12258,"Dig":12259,"Ġjs":12260,"Ġcontin":12261,"Ġ[$":12262,"Ġdisabled":12263,"}}$.":12264,"Ġfocusing":12265,"Background":12266,"Ġreimburs":12267,"ĠFestival":12268,"Write":12269,"inates":12270,"arma":12271,"0018":12272,"115":12273,"USE":12274,"WD":12275,"deg":12276,"send":12277,"sample":12278,"olk":12279,"ĠRA":12280,"ĠJSON":12281,"figure":12282,"ĠIntroduction":12283,"Ġlabeled":12284,"Activity":12285,"Ġtonight":12286,"plugins":12287,"Ġhorrible":12288,"Ant":12289,"zi":12290,"oups":12291,"Ġhide":12292,"ĠBal":12293,"ĠRather":12294,"aki":12295,"Ġkg":12296,"Ġtea":12297,"Hello":12298,"NM":12299,"ĠSA":12300,"ĠCOL":12301,"Ġmodeling":12302,"(){":12303,"Ġsubsid":12304,"Ġkilomet":12305,"Ġinfarction":12306,"Ġdisappeared":12307,"ĠTurkish":12308,"ĠâĻª\"":12309,"Ġobstacles":12310,"VP":12311,"bp":12312,"Ġmat":12313,"ĠProp":12314,"ĠDB":12315,"closure":12316,"Ġgrass":12317,"Ġattributed":12318,"Ġoccurring":12319,"patient":12320,"=\"../../../../":12321,"Created":12322,"Ġconstr":12323,"ĠHard":12324,"ĠRub":12325,"Three":12326,"Ġsilver":12327,"Western":12328,"Ġbeneath":12329,"2040620719882822":12330,"Ġsystemic":12331,"Ġobtaining":12332,"okes":12333,"Ġaffecting":12334,"aska":12335,"Show":12336,"Ġinspired":12337,"Ġtemporal":12338,"ĠBrooklyn":12339,"atile":12340,"Ġfits":12341,"Ġclamp":12342,"Ġyeah":12343,"255":12344,"Ġtexture":12345,"Ġobstruction":12346,"orandum":12347,"Ġnodded":12348,"pragma":12349,"Ġdescribing":12350,"Ġlights":12351,"apsed":12352,"Ca":12353,"Ãª":12354,"Ġstations":12355,"Ġprojection":12356,"Ġprocessor":12357,"137":12358,"Ġdeeply":12359,"Ġholidays":12360,"ĠSwedish":12361,"ĠZimbabwe":12362,"Ġperspectives":12363,"custom":12364,"uber":12365,"Ġpa":12366,"Ġ01":12367,"ĠProcess":12368,"Ġaccurately":12369,"Ġrarely":12370,"050":12371,"ĠMatt":12372,"1996":12373,"Ġabstract":12374,"Ġindices":12375,"shift":12376,"blue":12377,"Ġdefinitions":12378,"Edit":12379,"Ġthyroid":12380,"Names":12381,"Tree":12382,"Ġ('":12383,"ĠTa":12384,"Ġfactory":12385,"Ġexecute":12386,"[[":12387,"gin":12388,"pur":12389,"ĠRound":12390,"Ġattended":12391,"oking":12392,"Ġantigen":12393,"ĠUnfortunately":12394,"Ġtransitions":12395,"ĠProgramm":12396,"uce":12397,"abstract":12398,"Ġ\\+":12399,"Ġdisput":12400,"Stack":12401,"Ġdonor":12402,"Ġparse":12403,"Ġhardly":12404,"eh":12405,"-----------------------------------------------------":12406,"idity":12407,"ĠKen":12408,"Ġ::":12409,"attribute":12410,"Ġsmoke":12411,"Ġpotatoes":12412,"orable":12413,"Ġgained":12414,"ĠSym":12415,"Ġbyte":12416,"Ġleuk":12417,"Ġappend":12418,"Ġvariant":12419,"Ġinsight":12420,"Ġsalary":12421,"UNT":12422,"days":12423,"orous":12424,"Ġhy":12425,"Ġpanels":12426,"rophy":12427,"ĠMurphy":12428,"UV":12429,"~*":12430,"replace":12431,"ĠThird":12432,"Ġmanual":12433,"ĠIsraeli":12434,"hour":12435,"Ġtall":12436,"Ġele":12437,"ĠSat":12438,"anti":12439,"ĠServer":12440,"Ġrecovered":12441,"Ġshelter":12442,"Ġpenalties":12443,"bind":12444,"ario":12445,"ĠRich":12446,"riving":12447,"Ġmanufacturer":12448,"Ġ![":12449,"ummy":12450,"Ġshots":12451,"because":12452,"ĠClearly":12453,"Ġlemma":12454,"ĠLorentz":12455,"Ġunacceptable":12456,"1744806918781259":12457,"700":12458,"izable":12459,"Ġroof":12460,"rench":12461,"Expr":12462,"Ġexpectation":12463,"ĠTHIS":12464,"Ġignored":12465,"bn":12466,"etter":12467,"Ġ+\\":12468,"Ġdevelopers":12469,"grid":12470,"Ġreadily":12471,"ĠBrad":12472,"Ġsoccer":12473,"Ġdessert":12474,"ĠAIDS":12475,"ĠRowBox":12476,"Ġintimid":12477,",{\\":12478,"may":12479,"Ġbenz":12480,"Ġactor":12481,"Ġantagon":12482,"Ġmuscles":12483,"Ġprosecutor":12484,"Entity":12485,">();":12486,"Author":12487,"omial":12488,"ĠLim":12489,"Ġtracking":12490,"held":12491,"IFLA":12492,"ĠNATO":12493,"Ġincent":12494,"Ġhang":12495,"109":12496,"also":12497,"ĠÂ»":12498,"Ġcorrelations":12499,"Ġarranged":12500,"ĠAsh":12501,"Ġrid":12502,"ocon":12503,"ĠĠĠĠĠĠĠĠĠĠĠĠĠĠĠĠĠĠĠĠĠĠĠĠĠĠĠĠĠĠĠĠĠ":12504,"Ġamended":12505,"Ġblow":12506,"Ġsnap":12507,"Ġdeviations":12508,"ĠarXiv":12509,"Ġundesirable":12510,".*]{}":12511,"GP":12512,"menu":12513,"Ġ,\\":12514,"amd":12515,"ĠTri":12516,"ĠGL":12517,"Ġelectrons":12518,"Express":12519,"rank":12520,"widget":12521,"ĠHay":12522,"eway":12523,"Ġtransportation":12524,"Ġlapar":12525,"Ġstimulated":12526,"Ġovarian":12527,"oglobin":12528,"Insert":12529,"zy":12530,"Ġreject":12531,"amil":12532,"Ġplates":12533,"Ġfibers":12534,"Access":12535,"Jo":12536,"round":12537,"Ġtel":12538,"illy":12539,"ĠTax":12540,"Ġunlike":12541,"ĠProduct":12542,"Ġartist":12543,"ĠPolit":12544,"Ġaugment":12545,"ĠTbsp":12546,"Ġpreparations":12547,"Ġquarters":12548,"binding":12549,"čĊĠĠĠĠ":12550,"Ġble":12551,"Ġcancel":12552,"Ġanswered":12553,"Ġvisits":12554,"Ġfitness":12555,"WE":12556,"Ïģ":12557,"ĠME":12558,"Ġ\\#":12559,"ogram":12560,"Ġadopt":12561,"Ġ128":12562,"Ġslices":12563,"haus":12564,"||||":12565,"Ġattractive":12566,"Ġvelocities":12567,"TrcFlag":12568,"Ġschizophren":12569,"âĢĭâĢĭâĢĭâĢĭâĢĭâĢĭâĢĭâĢĭâĢĭâĢĭâĢĭâĢĭ":12570,"Ġpm":12571,"ĠHa":12572,"ensing":12573,"raham":12574,"Ġcombat":12575,"Ġsearching":12576,"Ġpeaks":12577,"bolic":12578,"Ġmock":12579,"ĠAz":12580,"ĠBell":12581,"_{-":12582,"appy":12583,"Ġcombinations":12584,"Ġchildhood":12585,"ĠDesign":12586,"Ġstromal":12587,"rencies":12588,"Ġcombustion":12589,"Ġanniversary":12590,"Ġdescriptions":12591,"045":12592,"Font":12593,"GM":12594,"{$\\":12595,"Ġ134":12596,"ĠHistory":12597,"ĠLev":12598,"Ġdoors":12599,"CRE":12600,"Ġinstallation":12601,"Ġhopes":12602,"bottleneck":12603,"čĊĉĉĉĉ":12604,"ĠML":12605,"Ġdehydr":12606,"Ġsole":12607,"Ġphones":12608,"ĠGrant":12609,"ĠNorthern":12610,"Ġknife":12611,"Ġadapted":12612,"Ġprojections":12613,"Ġchaos":12614,"Ġchunks":12615,"Ġnod":12616,"acher":12617,"Ġnobody":12618,"Ġdenying":12619,"Hi":12620,"worth":12621,"Ġnit":12622,"Ġquot":12623,"ĊĊĊĊĊ":12624,"Ġexciting":12625,"Ġillustrated":12626,"ĠGuard":12627,"Ġinequalities":12628,"Ġhorses":12629,"Ġamygd":12630,"Ġincurred":12631,")}*+":12632,"Ġredistribute":12633,"ĠAlzheimer":12634,"ĠGlasgow":12635,"fake":12636,"Ġsaving":12637,"omed":12638,"ĠFlo":12639,"Ġhadn":12640,"olding":12641,"Ġtransparent":12642,"Ġconstants":12643,"Ġpublicly":12644,"240":12645,"Ġdeclined":12646,"ĠEnvironment":12647,"ä¸Ģ":12648,"Ġdestination":12649,"DER":12650,"Ġum":12651,"Ġwing":12652,"ĠMeg":12653,"Ġsizeof":12654,"Ġchoosing":12655,"Welcome":12656,"@\"":12657,"Ġsink":12658,"arse":12659,"iley":12660,"Ġ1983":12661,"Ġnonlinear":12662,"Users":12663,"Ġreflects":12664,"Ġauxiliary":12665,"NG":12666,"Ġinline":12667,"ĠThrough":12668,"Ġproph":12669,"ĠTNF":12670,"Ġtrig":12671,"Ġdipl":12672,"ĠReact":12673,"Ġcomputers":12674,"Ġblocked":12675,"Ġprogressive":12676,"licenses":12677,"Equals":12678,"Ġisolation":12679,"Ġprotesters":12680,"Ġsimultaneous":12681,"ĠPrimary":12682,"zed":12683,"ìĿ":12684,"Ġ$.":12685,"ĠMC":12686,"resource":12687,"ĠBC":12688,"ialize":12689,"Ġregulated":12690,"shell":12691,"Ã©e":12692,"Ġrendered":12693,"MAX":12694,"Values":12695,"Ġdescending":12696,"-*":12697,"Ang":12698,"ĠMen":12699,"ĠRelations":12700,"Ġsidew":12701,"lysis":12702,"ĠCraig":12703,"ĠCleveland":12704,"ĠNetflix":12705,"ĠCongressional":12706,"Advertisement":12707,"ĠMontgomery":12708,"ĠSacramento":12709,"save":12710,"Ġ\"/":12711,"Ġshapes":12712,"Ġpermissions":12713,"Ġmini":12714,"ORY":12715,"Ġvisited":12716,"Ġsuspension":12717,"===========":12718,"Ġsupplied":12719,"Ġrip":12720,"Ġbab":12721,"ĠNA":12722,"ĠGreek":12723,"Ġjunction":12724,"ĊĠĠĠĠĠĠĠĠĠĠĠĠĠĠĠĠĠĠĠĠĠĠĠĠĠĠĠĠĠĠĠĠĠĠĠĠĠĠĠ":12725,"Ġvaried":12726,"ounce":12727,"Ġprinting":12728,"BEGIN":12729,"Ġpockets":12730,"Ġfermion":12731,"ĠUntil":12732,"ĠReuters":12733,"FE":12734,"uer":12735,"rent":12736,"isp":12737,"Ġhits":12738,"stage":12739,"ĠPI":12740,"angel":12741,"Ġ107":12742,"ometer":12743,"Ġaggressive":12744,"Ġdietary":12745,"Ġsurvive":12746,"Ġblo":12747,"ĠSK":12748,"ĠBio":12749,"Ġkm":12750,"Ġkit":12751,"Ġdifferently":12752,"Ġprogramme":12753,"ĠWithout":12754,"ĠQuant":12755,"Ġswitching":12756,"circle":12757,"ĠHousing":12758,"Ġantioxidant":12759,"Ġroutinely":12760,"ĠHausdorff":12761,"âĢ¦âĢ¦âĢ¦âĢ¦âĢ¦âĢ¦âĢ¦âĢ¦âĢ¦âĢ¦âĢ¦âĢ¦âĢ¦âĢ¦âĢ¦âĢ¦âĢ¦âĢ¦âĢ¦âĢ¦âĢ¦âĢ¦âĢ¦âĢ¦âĢ¦âĢ¦âĢ¦âĢ¦âĢ¦":12762,"/.":12763,"Î¸":12764,"arious":12765,"ĠHave":12766,"ĊĉĠ":12767,"Ġbaseball":12768,"ĠSystems":12769,"Ġimmigration":12770,"Ġsupplies":12771,"Task":12772,"Ġdoses":12773,"Ġ07":12774,"}}}(":12775,"Ġbonds":12776,"respond":12777,"Ġbeside":12778,"Ġcontaminated":12779,"Ġemerge":12780,"ĠPoisson":12781,"Ġdehydrogenase":12782,"SF":12783,"Ġhat":12784,"ĠDue":12785,"andy":12786,"ĠEC":12787,"ĠKat":12788,"ikes":12789,"Ġelectrodes":12790,"Ġmagic":12791,"Ġbird":12792,"rose":12793,"ĠMess":12794,"izers":12795,"phen":12796,"âĪŀ":12797,"Ġdisplays":12798,"Ġfestival":12799,"aque":12800,"Ġoste":12801,"screen":12802,"ĠIndust":12803,"Ġcomplaints":12804,"ĠAdditional":12805,"ĠImages":12806,"Ġconcepts":12807,"VvCYP":12808,"cadherin":12809,"?)":12810,"Ġsatisfaction":12811,"Ġreasoning":12812,"ĠDefense":12813,"Ġinfluenced":12814,"ĠLearning":12815,"ILE":12816,"éĢ":12817,"Ġ133":12818,"Ġperception":12819,"1995":12820,"114":12821,"short":12822,"ĠPlace":12823,"Parameter":12824,"Ġwedding":12825,"ĠPrior":12826,"âĢĻ.":12827,"Stud":12828,"Ġconfident":12829,"Ġparticipated":12830,"Ġraising":12831,"Ġtoxicity":12832,"Sometimes":12833,"Ġdropping":12834,"ĠFreedom":12835,"Rule":12836,"isen":12837,"Ġattempting":12838,"Ġquantities":12839,"Ġwondering":12840,"green":12841,"Ġundefined":12842,"126":12843,"ĠHead":12844,"Ġblocking":12845,"Ġpneum":12846,"Ġfertil":12847,"Ġbubble":12848,"Ġtokens":12849,"ĠHitler":12850,"Ġamplitudes":12851,"Ġvoluntarily":12852,"$).":12853,"eno":12854,"Ġlying":12855,"irk":12856,"Ġrs":12857,"antic":12858,"aware":12859,"medi":12860,"Ġpromoting":12861,"Ġmellitus":12862,"oxobutanoate":12863,"Bytes":12864,"km":12865,"Ġsew":12866,"Ġbatt":12867,"ĠÂ¶":12868,"Ġrandomized":12869,"Ġweights":12870,"Ġinputs":12871,"Ġcotton":12872,"encephal":12873,"Ġcolleges":12874,"^^^^^":12875,"NdrFcShort":12876,")_{":12877,"DK":12878,"vy":12879,"ĠmL":12880,"Ġmath":12881,"Ġease":12882,"Ġanal":12883,"ĠGames":12884,"activity":12885,"Ġbrush":12886,"rett":12887,"ĠProperty":12888,"xc":12889,"season":12890,"ĠDocument":12891,"Ġshipping":12892,"Ġtransmitted":12893,"Ġtransactions":12894,"135":12895,"minimal":12896,"Ġcultured":12897,"Ġeryth":12898,"Ġolfactory":12899,"itoneal":12900,"Ġhungry":12901,"clinical":12902,"Ġexponent":12903,"Ġendeav":12904,"four":12905,"xl":12906,"Ġions":12907,"Ġinduces":12908,"oping":12909,"Ġ\\|":12910,"Ġbeliefs":12911,"emale":12912,"ĠWat":12913,"Ġ1987":12914,"parison":12915,",...,":12916,"Ġuniquely":12917,"rig":12918,"Ġregarded":12919,"Ġsilicon":12920,"Ġbizarre":12921,"ĠTherapy":12922,"Ġphosphorylated":12923,"'+":12924,"utils":12925,"ĠMaster":12926,"ĠResource":12927,"Ġdeeper":12928,"Ġtreating":12929,"à¯į":12930,"Ġmelanoma":12931,"}'":12932,"Ġbaking":12933,"ifiers":12934,"ĠDiv":12935,"ĠOUT":12936,"Ġresidence":12937,"131":12938,"Ġdenoted":12939,"TABLE":12940,"Ġcub":12941,"Ġfif":12942,"iden":12943,"ĠFeb":12944,"Ġmembership":12945,"Ġangry":12946,"queue":12947,"Ġwrites":12948,"Ġmountain":12949,"ĠSanta":12950,"mysql":12951,"arcoma":12952,"Ġtoilet":12953,"ĠWagner":12954,"Ġmerchandise":12955,"Ġhelicopter":12956,"Ġpill":12957,"area":12958,"Ġenact":12959,"Ġundergo":12960,"Ġprinted":12961,"Document":12962,"Ġhint":12963,"agent":12964,"ĠGC":12965,"Ġpreference":12966,"Ġparticipating":12967,"Ġpersu":12968,"Ġharder":12969,"Ġduplic":12970,"Ġminority":12971,"Ġresistant":12972,"Î¹Î":12973,"ĠLiberal":12974,"Ġgrocery":12975,"enum":12976,"Ġ\\-":12977,"Ġhealing":12978,"athy":12979,"Ġinvited":12980,"Ġrecipes":12981,"HTML":12982,"Ġassociations":12983,"Ġcinnamon":12984,"ĠSF":12985,"Ġstent":12986,"aya":12987,"Ġcontest":12988,"Ġinterfer":12989,"Ġ1986":12990,"ĠComb":12991,"ĠBelfast":12992,"tk":12993,"Ġpocket":12994,"ĠSir":12995,"Ġunexpected":12996,"Ġintense":12997,"Ġlimiting":12998,"Ġdimin":12999,"coll":13000,"rical":13001,"}[":13002,"Ġtur":13003,"aga":13004,"ĠFisher":13005,"Ġtransit":13006,"riting":13007,"Ġeveryday":13008,"Ġfract":13009,"Ġadjustment":13010,"pntd":13011,"ĠðŁ":13012,"Ġcarbohydr":13013,"Ġsupernat":13014,"ĠParticipants":13015,"Ġundisputed":13016,"vv":13017,"Ġcry":13018,"phosph":13019,"Ġclosure":13020,"ĠChild":13021,"prob":13022,"Ġfounded":13023,"Ġpredictions":13024,"ĠExpression":13025,"enable":13026,"Ġdur":13027,"ĠJun":13028,"Ġdefect":13029,"Ġselective":13030,"connected":13031,"Ġprospect":13032,"sensors":13033,"[\\*](#":13034,"ĠVillage":13035,"999999":13036,"unnumbered":13037,"Her":13038,"bc":13039,"Ġgest":13040,"opol":13041,"Ġ\",":13042,"Ġpray":13043,"etheless":13044,"ilibrium":13045,"ĠJeremy":13046,"ĠQUESTION":13047,"lay":13048,"uity":13049,"aco":13050,"ĠPriv":13051,"Ġsecured":13052,"Example":13053,"Ġsouthern":13054,"Ġliked":13055,"youtube":13056,"ĠâĤ¬":13057,"Ġcredentials":13058,"=>":13059,"Gen":13060,"PF":13061,"Ġloud":13062,"ĠSort":13063,"ĠFat":13064,"113":13065,"Ġreveals":13066,"ĠNavy":13067,"MAP":13068,"Ġtension":13069,"standard":13070,"admin":13071,"--------":13072,"Ġvariability":13073,"domain":13074,"Ġmatched":13075,"Ġreconstruction":13076,"unsigned":13077,"Ġconjecture":13078,"Ġalumni":13079,"Ġentanglement":13080,"ĠINTRODUCTION":13081,"Ð¿Ð¿Ð¿Ð¿Ð¿Ð¿Ð¿Ð¿Ð¿Ð¿Ð¿Ð¿Ð¿Ð¿Ð¿Ð¿Ð¿Ð¿Ð¿Ð¿":13082,"hang":13083,"ols":13084,"ĠAward":13085,"ĠPython":13086,"Ġune":13087,"Ġdefend":13088,"124":13089,"Ġcoat":13090,"Ġequipped":13091,"PER":13092,"joint":13093,"ĠPack":13094,"ĠGOP":13095,"icket":13096,"Ġrifle":13097,"ĠTODO":13098,"ĠStewart":13099,"ãĤ·ãĥ":13100,"/-":13101,"Ver":13102,"je":13103,"utors":13104,"Ġbearing":13105,"Ġanger":13106,"ĠLA":13107,"ĠOw":13108,"Ġexport":13109,"133":13110,"Ġguest":13111,"ĠUnless":13112,"reme":13113,"Ġtemp":13114,"Ġinterviews":13115,"ĠTivahr":13116,"don":13117,"ĠFall":13118,"Ġ1981":13119,"apper":13120,"Ġenvironments":13121,"ĠSpe":13122,"Ġsuspended":13123,"Ġmagnet":13124,"Ġdesperate":13125,"Ġheritage":13126,"Ġextinction":13127,"AddRtAttr":13128,"âĸĶâĸĶâĸĶâĸĶâĸĶâĸĶâĸĶâĸĶâĸĶâĸĶâĸĶâĸĶâĸĶâĸĶâĸĶâĸĶâĸĶâĸĶâĸĶâĸĶâĸĶâĸĶâĸĶâĸĶ":13129,"=-":13130,"aire":13131,"oco":13132,"ĠES":13133,"ĠPrice":13134,"Ġultr":13135,"Ġphilosophy":13136,"execute":13137,"Maybe":13138,":</":13139,"Gastroenterology":13140,"Ġtied":13141,"Ġdefining":13142,"Ġregulate":13143,"Ġestablishing":13144,"Common":13145,"Ġpromotion":13146,"Unit":13147,"ĠAccess":13148,"Ġmirror":13149,"00978":13150,"Ġpermeability":13151,"Ġtaxpayer":13152,"ĠSeyfert":13153,"320":13154,"Rect":13155,"dm":13156,"dash":13157,"Ãł":13158,"ĠPot":13159,"overrightarrow":13160,"Ġbehaviors":13161,"Ġdiscount":13162,"Ġengagement":13163,"auto":13164,"ĠSTAT":13165,"Ġpending":13166,"aron":13167,"Ġthirty":13168,"Ġnamespace":13169,"Ġplacement":13170,"Ġasset":13171,"Ġblame":13172,"Ġprobable":13173,"ĠInterestingly":13174,"pulse":13175,"Ġexterior":13176,"Ġrocks":13177,"ĠChristopher":13178,"Ġlongevity":13179,"ASHINGTON":13180,"gly":13181,"vn":13182,"inv":13183,"onomy":13184,"Ġdent":13185,"irl":13186,"words":13187,"Ġpointer":13188,"Ġimplicit":13189,"Ġolig":13190,"Layer":13191,"ele":13192,"Ġren":13193,"stand":13194,"ĠImp":13195,"ĠInternal":13196,"ĠAppl":13197,"Ġplacebo":13198,"clear":13199,"btn":13200,"Ġtimely":13201,"Ġgarbage":13202,"Ġproportions":13203,"ĠPharmaceuticals":13204,"ç±»åŀĭ":13205,"-$":13206,"kind":13207,"mal":13208,"eled":13209,"ados":13210,"Ġconcur":13211,"agment":13212,"ĠNE":13213,"asted":13214,"Ġintens":13215,"obacter":13216,"Ġendoscopy":13217,"Ġbike":13218,"Ġcookies":13219,"Ġproportional":13220,"Ġpremium":13221,"Ġtired":13222,"aton":13223,"rob":13224,"Ġgraft":13225,"Ġimpaired":13226,"Ġarising":13227,"Ġentities":13228,"Step":13229,"entially":13230,"Ġphysiological":13231,"Ġprolifer":13232,"ĠszÃ³tag":13233,"Ġvulnerability":13234,"Ġsubscriber":13235,"ButterKnifeProcessor":13236,"member":13237,"Ġtill":13238,"Ġwages":13239,"aro":13240,"agic":13241,"Ġspray":13242,"Ġ{\"":13243,"ATED":13244,"Ġextending":13245,"Christ":13246,"Ġ>>":13247,"Ġpushing":13248,"BT":13249,"ĠMP":13250,"ĠOs":13251,"ĠĠĠĠĠĠĠĠĠĠĠĠĠĠĠĠĠĠĠĠĠĠĠĠĠĠĠĠĠĠĠĠĠĠ":13252,"Ġjustify":13253,"ools":13254,"Ġbills":13255,"Ġguns":13256,"Ġpotent":13257,"Ġfantasy":13258,"Ġseizure":13259,"Session":13260,"Take":13261,"čĊĠĠĠĠĠĠĠĠĠĠĠĠĠĠĠ":13262,"Ġtweet":13263,"Ġhex":13264,"Ġtrim":13265,"0164222":13266,"Ġdiarrhea":13267,"Symbiodinium":13268,"jud":13269,"works":13270,"è¡":13271,"Ġpounds":13272,"Ġsphere":13273,"017":13274,"Ġdeveloper":13275,"Ġguests":13276,"party":13277,"Ġconvincing":13278,"Eff":13279,"Head":13280,"Ġdating":13281,"ĠTitle":13282,"arts":13283,"Ġseats":13284,"Ġ02":13285,"achine":13286,"Ġcarriers":13287,"echan":13288,"Ġexpressing":13289,"Ġthreatened":13290,"[**":13291,"Ġdies":13292,"article":13293,"ĠStill":13294,"Ġtransient":13295,"():":13296,"Ġchallenged":13297,"ĠGraph":13298,"Ġparticipant":13299,"cycl":13300,"ĠBeach":13301,"clusions":13302,"September":13303,"olerance":13304,"Internet":13305,"Ġgenuinely":13306,"global":13307,"åĬ":13308,"atar":13309,"ĠSem":13310,"---------":13311,"Ġresident":13312,"Ġbreaks":13313,"Ġclinic":13314,"Ġlikes":13315,"VM":13316,"move":13317,"ancies":13318,"Ġacceptance":13319,"Ġmethylation":13320,"Facebook":13321,"ĠSamsung":13322,"Ġexchanges":13323,"Ġantigens":13324,"Met":13325,"NL":13326,"atum":13327,"three":13328,"ĠHas":13329,"Ġshoes":13330,"ĠRay":13331,"ĠOp":13332,"asts":13333,"Ġsupporters":13334,"Methods":13335,"Ġsurvived":13336,"Ġemploys":13337,"225":13338,"shall":13339,"byte":13340,"Ġaffordable":13341,"Mutex":13342,"puppet":13343,"ëĭ¤":13344,"Ġsurvivors":13345,"Ġchromatography":13346,"({{\\":13347,"Both":13348,"|_{":13349,"ogs":13350,"Ġresidential":13351,"Ġagon":13352,"Ġconserved":13353,"Ġsolved":13354,"ãĥ³":13355,"Ġbarriers":13356,"Ġmeaningful":13357,"NOW":13358,"rated":13359,"anal":13360,"ptic":13361,"Ġconnecting":13362,"airo":13363,"Sequence":13364,"ĠMathematics":13365,"Ġcoherent":13366,"Ġalphabet":13367,"ĠGitHub":13368,"ĠCaribbean":13369,"mb":13370,"tor":13371,"Ġorbit":13372,"sey":13373,"Ġdecimal":13374,"},$$":13375,"Convert":13376,"Ġworried":13377,"ĠHamiltonian":13378,"Ġelectricity":13379,"Ġbelongs":13380,")</":13381,"Lim":13382,"Î´":13383,"Ġlect":13384,"Ġimpressive":13385,"Ġdemonstrates":13386,"Ġconsistency":13387,"eatures":13388,"Ġconvergence":13389,"Ġpricing":13390,"ĠGospel":13391,"StaticResource":13392,"ĠCommerce":13393,"XML":13394,"tp":13395,"Ġmsg":13396,"udo":13397,"Ġleak":13398,"Ġseeks":13399,"Ġretro":13400,"Ġwelcomed":13401,"ĠLebanon":13402,"BF":13403,"HO":13404,"bus":13405,"çĶ":13406,"ĊĠĠĠĠĠĠĠĠĠĠĠĠĠĠĠĠĠĠĠĠĠĠĠĠĠĠĠĠĠĠĠĠĠĠĠĠĠĠĠĠĠĠĠĠĠĠĠĠĠĠĠĠĠĠĠĠĠĠĠĠĠĠĠĠĠĠĠĠĠĠĠĠĠĠĠĠĠĠĠĠĠĠĠĠĠĠĠĠĠĠĠĠĠĠĠĠĠĠĠĠĠĠĠĠĠ":13407,"Ġmood":13408,"ĠTM":13409,"ensus":13410,"Ġtries":13411,"Ġshortly":13412,"Import":13413,"igenous":13414,"Ġenvelope":13415,"ernandez":13416,"Ġmixtures":13417,"Ġcounterparts":13418,"ĠMitkanos":13419,"oro":13420,"Ġcontention":13421,"1991":13422,"Ġattenu":13423,"amsmath":13424,"Ġrestrict":13425,"desc":13426,"Ġconstitu":13427,"Ġinhibited":13428,"mM":13429,"mask":13430,"sen":13431,"seq":13432,"Ġarrive":13433,"oxic":13434,"Ġreferring":13435,"Ġneighbors":13436,"Ġintracellular":13437,"Ġassistant":13438,"Ġprotocols":13439,"Ġappreciated":13440,"Ġinstitutional":13441,"Utils":13442,"Ġmargins":13443,"ĠThailand":13444,"Ġpolyps":13445,"Ġintravenous":13446,"Ġpotassium":13447,"ISCUSSION":13448,"MAT":13449,"Ġgross":13450,"Ġreporter":13451,"Ġacted":13452,"}{-":13453,"Ġsentenced":13454,"++;":13455,"Ã³n":13456,"ĠRadio":13457,"Based":13458,"random":13459,"Ġwage":13460,"Ġpit":13461,"Ġmilit":13462,"Ġexpense":13463,"))?":13464,"Ġprescribed":13465,"Ġstimulus":13466,"01758":13467,"ĠPractice":13468,"Pos":13469,"Ġpap":13470,"Ġdense":13471,"Ġbeach":13472,"Ġorange":13473,"ĠInf":13474,"ugs":13475,"Ġblot":13476,"Ġdistances":13477,"transform":13478,"Member":13479,"good":13480,"ĠMethod":13481,"ĠFarm":13482,"ĠHim":13483,"ĠGreg":13484,"phenyl":13485,"Ġaging":13486,"Ġ_<":13487,"Ġreliability":13488,"Ġmediated":13489,"Ġparam":13490,"Ġrestore":13491,"Ġemerging":13492,"BASE":13493,"Ġwashed":13494,"Analysis":13495,"Court":13496,"rceil":13497,"Ġexacerb":13498,"Ġcorpus":13499,"ijerph":13500,"TF":13501,"ĠCC":13502,"Ġsteal":13503,"oser":13504,"Ġ$('":13505,"qual":13506,"018":13507,"0002":13508,"Ġfunded":13509,"Ġdocumented":13510,"ĠÑģ":13511,"Ġfitting":13512,"ĠLibrary":13513,"phys":13514,"Ġedit":13515,"Ġpleas":13516,"Ġfarmers":13517,"Ġdairy":13518,"protein":13519,"Wednesday":13520,"Ġmunicipality":13521,"ĠAmsterdam":13522,"Ġhook":13523,"etc":13524,"Ġestablishment":13525,"ynth":13526,")\\,":13527,"Ġdeny":13528,"ymmetry":13529,"Ġexisted":13530,"ĠOverall":13531,"General":13532,"Ġexcessive":13533,"hh":13534,"Ð´":13535,"Ġtags":13536,"ĠSoc":13537,"ĠCam":13538,"ĠMg":13539,"ĠFull":13540,"ĠWay":13541,"ĠEs":13542,"ĠĠĠĠĠĠĠĠĠĠĠĠĠĠĠĠĠĠĠĠĠĠĠĠĠĠĠĠĠĠ":13543,"Ġcharacterization":13544,"Ġcallback":13545,"Ġloans":13546,"ĠScale":13547,"Ġprofits":13548,"ĠCLASS":13549,"Ġounces":13550,"ĠSusan":13551,"Ġplausible":13552,"315":13553,"Body":13554,"had":13555,"ĠâĢĻ":13556,"Ġbuck":13557,"Ġthrown":13558,"ĠCAN":13559,"Ġquote":13560,"health":13561,"Ġemphasis":13562,"Ġinitiated":13563,"Ġconstitution":13564,"Found":13565,"cence":13566,"Ġtends":13567,"ĠHop":13568,"Ġ1960":13569,"1993":13570,"Ġdiscloses":13571,"rupted":13572,"Ġdebtor":13573,"Ġcytokines":13574,"threshold":13575,"ĠFALSE":13576,"Sk":13577,"bas":13578,"ĠTerm":13579,"ĠGall":13580,"Ġreset":13581,"Ġ[],":13582,"iah":13583,"Ġdefects":13584,"Ġbelie":13585,"Ġlistening":13586,"Ġdisclosure":13587,"Ġpuls":13588,"Na":13589,"SY":13590,"fc":13591,"mates":13592,"Ġcere":13593,"omics":13594,"ĠLy":13595,"setlength":13596,"Ġacknowledge":13597,"Ġcooked":13598,"Ġvisitors":13599,"LINK":13600,"Ġtariff":13601,"Ġstunning":13602,"Ġintentions":13603,"brousch":13604,"Ġsupervised":13605,"ScoreDistribution":13606,"mus":13607,"inth":13608,"itter":13609,"ĠSS":13610,"Ġanybody":13611,"202":13612,"Ġweekly":13613,"!!!":13614,"Ġcopper":13615,"determ":13616,"ĠTurkey":13617,"np":13618,"Ġ145":13619,"Ġconfer":13620,"Ġsuicide":13621,"Ġenrolled":13622,"132":13623,"ĠAdam":13624,"Ġcorporations":13625,"Upload":13626,"ĠSERVICES":13627,"itarian":13628,"Ġmad":13629,"Ġ\"<":13630,"ĠTan":13631,"1990":13632,"Ġequity":13633,"Ġreceives":13634,"llllllllllll":13635,"Ġ136":13636,"ĠDu":13637,"Ġgenerations":13638,"Ġcoating":13639,"shop":13640,"Ġtopology":13641,"Ġcomputational":13642,"Ġbirths":13643,"Ġbriefly":13644,"ĠArticle":13645,"Ġmotions":13646,"ĠHillary":13647,"Ġorchest":13648,"Ġtrademark":13649,"ĠMalaysia":13650,"FB":13651,"_,":13652,"Îµ":13653,"ÎĶ":13654,"Ġtech":13655,"oupl":13656,"igma":13657,"Ġpresenting":13658,"Ġdetermines":13659,"Cap":13660,"čĊĠĠĠĠĠĠĠĠĠ":13661,"Ġsir":13662,"Ġ(âĪĴ":13663,"atever":13664,"ĠMas":13665,"oga":13666,"ERR":13667,"Ġcapabilities":13668,"Ġsettled":13669,"Ġstriking":13670,"Ġvolunteers":13671,"Ġflexibility":13672,"Ġscanning":13673,"Ġtertiary":13674,"Ġmurine":13675,"ĠDakota":13676,"Ġpermanently":13677,"Ptr":13678,"Root":13679,"Ġmerc":13680,"Ġproposition":13681,"Ġ09":13682,"Ġplugin":13683,"ĉĉĉĉ":13684,"Ġapps":13685,"âĢĿ)":13686,"Ġbron":13687,"}{{\\":13688,"vertical":13689,"Ġmanaging":13690,"cost":13691,"lbrack":13692,"ä¹":13693,"urg":13694,"Ġrating":13695,"ĠĠĠĠĠĠĠĠĠĠĠĠĠĠĠĠĠĠĠĠĠĠĠĠĠĠĠĠĠĠĠĠĠĠĠ":13696,"Ġdesignated":13697,"Interface":13698,"Ġnegligence":13699,"Ġsubstitute":13700,"FROM":13701,"Ġlazy":13702,"Ġgotta":13703,"ĠHangul":13704,"ĠUrban":13705,"Conflict":13706,"Fore":13707,"á»":13708,"Ġsle":13709,"ĠDer":13710,"Ġmanually":13711,"ĠĠĠĠĠĠĠĠĠĠĠĠĠĠĠĠĠĠĠĠĠĠĠĠĠĠĠĠĠĠĠĠ":13712,"register":13713,"Ġ$${\\":13714,"ĠManager":13715,"Ġpositively":13716,"Ġvirtually":13717,"Save":13718,"Ġbases":13719,"Ġbother":13720,"ĠSports":13721,"ĠCNN":13722,"Ġconstraint":13723,"ĠHo":13724,"Ġplots":13725,"Ġfunctionality":13726,"Ġdefeat":13727,"rowth":13728,"ãģ«":13729,"Ġacknowledged":13730,"interface":13731,"Additional":13732,"Ġthreats":13733,"Ġduct":13734,"Ġsuggestions":13735,"ĠSpring":13736,"Ġgarlic":13737,"aeda":13738,"Ġbundles":13739,"ographer":13740,"Ġoutrage":13741,"Ġambiguous":13742,"aintenance":13743,"iat":13744,"ago":13745,"Ġrepresentatives":13746,"printf":13747,"println":13748,"sun":13749,"Ġcow":13750,"Ġtherein":13751,"ĊĊĠĠĠĠ":13752,"}$-":13753,"letter":13754,"Ġhumanity":13755,"Ġedition":13756,"Ġheading":13757,"ISH":13758,"Ġorgans":13759,"Ġcontroversial":13760,"KEY":13761,"Ġcriticism":13762,"Ġlogarith":13763,"Ġmisleading":13764,"ĠCollaboration":13765,"Ġaneurys":13766,"Template":13767,"made":13768,"Ġ^{\\":13769,"ĠTour":13770,"ready":13771,"Ġsynthetic":13772,"$]{}":13773,"900":13774,"Cost":13775,"Ġcul":13776,"Ġbra":13777,"Ġms":13778,"Ġ137":13779,"ĠĠĠĠĠĠĠĠĠĠĠĠĠĠĠĠĠĠĠĠĠĠĠĠĠĠĠĠĠĠĠ":13780,"Ġ123":13781,"ãģ§":13782,"Release":13783,"Ġstayed":13784,"ĠHoly":13785,"Ġelegant":13786,"ĠCitiz":13787,"Ġcooperate":13788,"Ġwhatsoever":13789,"Ġfeasibility":13790,"apeutic":13791,"instance":13792,"ulg":13793,"ĠFord":13794,"Ġchampionship":13795,"âĢĻ,":13796,"Ġ800":13797,"Ġevaluating":13798,"Changed":13799,"flags":13800,"Ġpersistent":13801,"subseteq":13802,"ĠALL":13803,"Ġremarkable":13804,"Ġmotivation":13805,"Ġcollaboration":13806,"ĠMargaret":13807,"44444444":13808,"%%":13809,"RES":13810,"Ġexclude":13811,"ĠTen":13812,"ĠLC":13813,"ĠKr":13814,"Ġintersection":13815,"ĠYeah":13816,"lessly":13817,"Ġmuseum":13818,"VI":13819,"cases":13820,"Ġatom":13821,"Inc":13822,"Ġpersonality":13823,"Ġcorruption":13824,"ĠShould":13825,"record":13826,"ĠSea":13827,"-----------------------------------------------":13828,"ĠdÃ©":13829,"etime":13830,"ĠSearch":13831,"ĠLook":13832,"Ġweird":13833,"verted":13834,"Ġprevented":13835,"Ġconstructor":13836,"password":13837,"Ġenhancement":13838,"Ġlubric":13839,
[...]
